{"<s>":0,"<pad>":1,"</s>":2,"<unk>":3,"<mask>":4,"!":5,"\"":6,"#":7,"$":8,"%":9,"&":10,"'":11,"(":12,")":13,"*":14,"+":15,",":16,"-":17,".":18,"/":19,"0":20,"1":21,"2":22,"3":23,"4":24,"5":25,"6":26,"7":27,"8":28,"9":29,":":30,";":31,"<":32,"=":33,">":34,"?":35,"@":36,"A":37,"B":38,"C":39,"D":40,"E":41,"F":42,"G":43,"H":44,"I":45,"J":46,"K":47,"L":48,"M":49,"N":50,"O":51,"P":52,"Q":53,"R":54,"S":55,"T":56,"U":57,"V":58,"W":59,"X":60,"Y":61,"Z":62,"[":63,"\\":64,"]":65,"^":66,"_":67,"`":68,"a":69,"b":70,"c":71,"d":72,"e":73,"f":74,"g":75,"h":76,"i":77,"j":78,"k":79,"l":80,"m":81,"n":82,"o":83,"p":84,"q":85,"r":86,"s":87,"t":88,"u":89,"v":90,"w":91,"x":92,"y":93,"z":94,"{":95,"|":96,"}":97,"~":98,"¡":99,"¢":100,"£":101,"¤":102,"¥":103,"¦":104,"§":105,"¨":106,"©":107,"ª":108,"«":109,"¬":110,"®":111,"¯":112,"°":113,"±":114,"²":115,"³":116,"´":117,"µ":118,"¶":119,"·":120,"¸":121,"¹":122,"º":123,"»":124,"¼":125,"½":126,"¾":127,"¿":128,"À":129,"Á":130,"Â":131,"Ã":132,"Ä":133,"Å":134,"Æ":135,"Ç":136,"È":137,"É":138,"Ê":139,"Ë":140,"Ì":141,"Í":142,"Î":143,"Ï":144,"Ð":145,"Ñ":146,"Ò":147,"Ó":148,"Ô":149,"Õ":150,"Ö":151,"×":152,"Ø":153,"Ù":154,"Ú":155,"Û":156,"Ü":157,"Ý":158,"Þ":159,"ß":160,"à":161,"á":162,"â":163,"ã":164,"ä":165,"å":166,"æ":167,"ç":168,"è":169,"é":170,"ê":171,"ë":172,"ì":173,"í":174,"î":175,"ï":176,"ð":177,"ñ":178,"ò":179,"ó":180,"ô":181,"õ":182,"ö":183,"÷":184,"ø":185,"ù":186,"ú":187,"û":188,"ü":189,"ý":190,"þ":191,"ÿ":192,"Ā":193,"ā":194,"Ă":195,"ă":196,"Ą":197,"ą":198,"Ć":199,"ć":200,"Ĉ":201,"ĉ":202,"Ċ":203,"ċ":204,"Č":205,"č":206,"Ď":207,"ď":208,"Đ":209,"đ":210,"Ē":211,"ē":212,"Ĕ":213,"ĕ":214,"Ė":215,"ė":216,"Ę":217,"ę":218,"Ě":219,"ě":220,"Ĝ":221,"ĝ":222,"Ğ":223,"ğ":224,"Ġ":225,"ġ":226,"Ģ":227,"ģ":228,"Ĥ":229,"ĥ":230,"Ħ":231,"ħ":232,"Ĩ":233,"ĩ":234,"Ī":235,"ī":236,"Ĭ":237,"ĭ":238,"Į":239,"į":240,"İ":241,"ı":242,"Ĳ":243,"ĳ":244,"Ĵ":245,"ĵ":246,"Ķ":247,"ķ":248,"ĸ":249,"Ĺ":250,"ĺ":251,"Ļ":252,"ļ":253,"Ľ":254,"ľ":255,"Ŀ":256,"ŀ":257,"Ł":258,"ł":259,"Ń":260,"Ġ<":261,"NE":262,"XT":263,"NEXT":264,"IN":265,"EN":266,"RE":267,"Ġc":268,"ST":269,"ING":270,"DI":271,"TS":272,"ENTS":273,"REDI":274,"INGREDI":275,"INGREDIENTS":276,"in":277,"NER":278,"TI":279,"Ġs":280,"er":281,"Ġ1":282,"ON":283,"RU":284,"TION":285,"INST":286,"CTION":287,"RUCTION":288,"INSTRUCTION":289,"INSTRUCTIONS":290,"an":291,"Ġt":292,"Ġo":293,"Ġb":294,"ar":295,"ed":296,"es":297,"AR":298,"END":299,"STAR":300,"START":301,"Ġp":302,"Ġm":303,"at":304,"il":305,"re":306,"ut":307,"on":308,"en":309,"and":310,"al":311,"ou":312,"Ġand":313,"Ġf":314,"Ġch":315,"Ġw":316,"ing":317,"ic":318,"gar":319,"Ġto":320,"sp":321,"pp":322,"Ġin":323,"le":324,"LE":325,"PE":326,"TIT":327,"CI":328,"RECI":329,"TITLE":330,"RECIPE":331,"ro":332,"ĠC":333,"or":334,"ak":335,"el":336,"Ġ2":337,"our":338,"as":339,"am":340,"it":341,"Ġon":342,"Ġsu":343,"Ġa":344,"Ġ3":345,"Ġe":346,"Ġd":347,"Ġsugar":348,"ĠS":349,"Ġsal":350,"Ġg":351,"Ġtsp":352,"Ġl":353,"ter":354,"Ġsalt":355,"Ġpe":356,"he":357,"oo":358,"ix":359,"ion":360,"ĠB":361,"ac":362,"ĠP":363,"Ġfl":364,"gg":365,"dd":366,"ine":367,"un":368,"ge":369,"Ġegg":370,"is":371,"ow":372,"ĠT":373,"utter":374,"Ġ(":375,"ese":376,"Ġonion":377,"Ġbutter":378,"ake":379,"ream":380,"Ġflour":381,"ick":382,"Ġche":383,"Ġun":384,"Ġcheese":385,"Ġv":386,"ill":387,"ĠA":388,"Ġof":389,"ol":390,"Ġmin":391,"pper":392,"Ġh":393,"ith":394,"us":395,"ĠM":396,"Ġcho":397,"ot":398,"Ġpepper":399,"Ġbe":400,"Ġmix":401,"Ġcream":402,"Ġwith":403,"Ġor":404,"ra":405,"ver":406,"Ġminut":407,"ilk":408,"til":409,"Ġuntil":410,"Ġminutes":411,"all":412,"uc":413,"Ġst":414,"ater":415,"ad":416,"ell":417,"om":418,"Ġwater":419,"Ġfor":420,"ook":421,"ch":422,"Ġeggs":423,"ĠAdd":424,"Ġmilk":425,"pped":426,"ice":427,"ato":428,"ir":429,"der":430,"bsp":431,"ĠTbsp":432,"Ġbro":433,"Ġcr":434,"to":435,"um":436,"ts":437,"icken":438,"Ġcan":439,"Ġthe":440,"Ġsa":441,"00":442,"ri":443,"Ġn":444,"Ġ4":445,"Ġchopped":446,"uce":447,"red":448,"lic":449,"ve":450,"Ġbak":451,"illa":452,"Ġoz":453,"Ġbaking":454,"anilla":455,"et":456,"Ġvanilla":457,"Ġsh":458,"gh":459,"wn":460,"Ġj":461,"Ġso":462,"Ġth":463,"Ġchicken":464,"Ġinto":465,"Ġgre":466,"Ġat":467,"Ġgr":468,"up":469,"owder":470,"Ġsauce":471,"Ġle":472,"Ġpowder":473,"Ġmar":474,".)":475,"th":476,"ry":477,"Ġover":478,"ure":479,"ĠBake":480,"ĠR":481,"Ġwh":482,"ly":483,"read":484,"oup":485,"ast":486,"Ġbrown":487,"nd":488,"Ġcook":489,"eat":490,"Ġoil":491,"ie":492,"ay":493,"ĠCh":494,"atoes":495,"les":496,"Ġsoup":497,"Ġr":498,"ate":499,"Ġpan":500,"ture":501,"uts":502,"Ġtom":503,"ush":504,"garine":505,"ack":506,"Ġmargarine":507,"ĠMix":508,"Ġmixture":509,"Ġco":510,"ound":511,"ĠD":512,"50":513,"col":514,"ab":515,"mon":516,"ur":517,"Ġsp":518,"ĠW":519,"ans":520,"orn":521,"Ġre":522,"ien":523,"Ġgreen":524,"Ġlb":525,"da":526,"ip":527,"inch":528,"Ġlar":529,"igh":530,"ef":531,"st":532,"Ġsoda":533,"redien":534,"ingredien":535,"Ġbo":536,"Ġingredien":537,"Ġingredients":538,"im":539,"Ġlarge":540,"Ġwell":541,"Ġgar":542,"ĠSp":543,"Ġju":544,"Ġ350":545,"Ġse":546,"Ġadd":547,"heat":548,"Ġjuice":549,"qu":550,"Ġgarlic":551,"ery":552,"rain":553,"Ġfro":554,"ĠSt":555,"Ġcorn":556,"id":557,"ves":558,"ish":559,"ĠI":560,"Ġsm":561,"Ġground":562,"kg":563,"Ġpkg":564,"ight":565,"umb":566,"ĠF":567,"Ġslic":568,"res":569,"room":570,"inn":571,"ven":572,"ĠPour":573,"ten":574,"elery":575,"Ġcelery":576,"ole":577,"ther":578,"Ġpot":579,"Ġpie":580,"ust":581,"ated":582,"omb":583,"Ġall":584,"Ġy":585,"ted":586,"ool":587,"Ġonions":588,"amon":589,"ushroom":590,"innamon":591,"Ġlemon":592,"Ġcup":593,"if":594,"Ġ6":595,"ombine":596,"Ġbeef":597,"Ġnuts":598,"Ġcinnamon":599,"Ġhour":600,"Ġmushroom":601,"pple":602,"ass":603,"Ġboil":604,"ace":605,"ĠCook":606,"colate":607,"ain":608,"ces":609,"ap":610,"ĠStir":611,"Ġtop":612,"Ġ8":613,"edi":614,"Ġcrumb":615,"lace":616,"ĠL":617,"age":618,"ers":619,"ars":620,"old":621,"Ġoven":622,"Ġstir":623,"Ġwhit":624,"Ġbl":625,"Ġbeat":626,"Ġsour":627,"ger":628,"Ġsmall":629,"gether":630,"Ġheat":631,"Ġtogether":632,"Ġ5":633,"Ġbread":634,"edium":635,"owl":636,"Ġbowl":637,"ach":638,"ink":639,"me":640,"Ġmedium":641,"ove":642,"Ġpotatoes":643,"Ġcoc":644,"Ġx":645,"op":646,"Ġchocolate":647,"ĠH":648,"Ġtomato":649,"rink":650,"Ġtomatoes":651,"ough":652,"Ġmel":653,"Ġrem":654,"Ġdrain":655,"Ġ10":656,"ĠCombine":657,"arm":658,"ash":659,"Ġcon":660,"oon":661,"out":662,"ĠIn":663,"rinkle":664,"apple":665,"ineapple":666,"asser":667,"asserole":668,"ood":669,"ĠG":670,"Ġcar":671,"Ġcrumbs":672,"Ġcake":673,"ff":674,"Ġ9":675,"ber":676,"Ġdish":677,"ring":678,"ased":679,"Ġrice":680,"Ġsliced":681,"Ġpec":682,"ard":683,"Ġdry":684,"edd":685,"Ġpineapple":686,"eddar":687,"inegar":688,"akes":689,"Ġvinegar":690,"Ġser":691,"em":692,"over":693,"Ġbeans":694,"zen":695,"get":696,"Ġgrated":697,"ely":698,"Ġro":699,"Ġhot":700,"eget":701,"ĠPlace":702,"egetab":703,"ies":704,"ise":705,"Ġshor":706,"ded":707,"ire":708,"tening":709,"ĠCheddar":710,"ag":711,"Ġshortening":712,"aste":713,"Ġmeat":714,"ins":715,"Ġpecans":716,"ub":717,"Ġcl":718,"Ġab":719,"Ġis":720,"ll":721,"sh":722,"Ġmelted":723,"ĠWh":724,"ĠSer":725,"we":726,"Ġwhite":727,"Ġcut":728,"ips":729,"Ġremain":730,"oa":731,"Ġvegetab":732,"Ġmay":733,"Ġabout":734,"ĠCool":735,"ving":736,"art":737,"ries":738,"Ġchips":739,"tion":740,"Ġcrack":741,"ant":742,"Ġ30":743,"Ġremaining":744,"Ġra":745,"weet":746,"Ġfrom":747,"ott":748,"na":749,"Ġlight":750,"Ġal":751,"Ġfrozen":752,"Ġk":753,"ley":754,"ore":755,"Ġred":756,"uff":757,"Ġcooked":758,"mer":759,"resh":760,"Ġgreased":761,"ason":762,"av":763,"Ġas":764,"Ġhal":765,"ĠSprinkle":766,"ey":767,"arsley":768,"ustard":769,"Ġapp":770,"Ġparsley":771,"Ġstick":772,"Ġcarro":773,"os":774,"ĠCover":775,"Ġsl":776,"Ġthen":777,"ange":778,"Ġchil":779,"ĠBeat":780,"ul":781,"Ġex":782,"ide":783,"Ġfresh":784,"ccol":785,"ccoli":786,"onna":787,"onnaise":788,"acon":789,"ep":790,"ress":791,"Ġmustard":792,"Ġmayonnaise":793,"Ġserving":794,"Ġ15":795,"Ġhours":796,"Ġsk":797,"end":798,"Ġmushrooms":799,"Ġshred":800,"ender":801,"Ġbacon":802,"riger":803,"Ġbeaten":804,"Ġdrained":805,"Ġshredded":806,"uit":807,"Ġboiling":808,"Ġham":809,"onut":810,"Ġtaste":811,"are":812,"Ġseason":813,"li":814,"Ġroll":815,"ĠPut":816,"let":817,"Ġpap":818,"ks":819,"emove":820,"ĠRemove":821,"Ġoli":822,"Ġcarrots":823,"Ġeach":824,"Ġ12":825,"Ġ13":826,"Ġbroth":827,"Ġcoconut":828,"udd":829,"tt":830,"Ġgra":831,"udding":832,"iced":833,"Ġcool":834,"ĠBro":835,"Ġnut":836,"Ġapples":837,"ayer":838,"Ġsof":839,"Ġ20":840,"Ġcrush":841,"Ġrais":842,"iz":843,"nuts":844,"immer":845,"Ġbroccoli":846,"Ġfir":847,"Ġcrushed":848,"reas":849,"Ġpieces":850,"Ġraisins":851,"Ġdiced":852,"ĠCream":853,"Ġcasserole":854,"ĠCake":855,"ĠO":856,"Ġbake":857,"oodles":858,"armes":859,"armesan":860,"meg":861,"Ġtender":862,"Ġcover":863,"Ġnutmeg":864,"Ġhalf":865,"Ġslices":866,"ĠSpread":867,"ĠWor":868,"anan":869,"stant":870,"ĠParmesan":871,"isc":872,"Ġnoodles":873,"shire":874,"tershire":875,"cestershire":876,"iss":877,"ec":878,"pping":879,"ent":880,"ĠServe":881,").":882,"raw":883,"ĠWorcestershire":884,"ĠMakes":885,"Ġpl":886,"Ġcans":887,"Ġpean":888,"Ġpudding":889,"Ġbott":890,"Ġstirring":891,"Ġole":892,"Ġoleo":893,"avor":894,"Ġshell":895,"ĠWhip":896,"milk":897,"ĠCut":898,"Ġan":899,"ime":900,"Ġblack":901,"est":902,"rawber":903,"Ġorange":904,"Ġpeppers":905,"urn":906,"Ġchili":907,"usage":908,"ork":909,"Ġseasoning":910,"Ġshe":911,"Ġref":912,"ds":913,"ĠSal":914,"ute":915,"Ġpowdered":916,"yr":917,"Ġbuttermilk":918,"yrup":919,"Ġcher":920,"chin":921,"illet":922,"oil":923,"Ġpour":924,"oves":925,"ps":926,"Ġsyrup":927,"ally":928,"one":929,"Ġcloves":930,"Ġvegetable":931,"ĠE":932,"ats":933,"Ġcocoa":934,"ĠChicken":935,"ĠCasserole":936,"Ġhe":937,"ue":938,"ĠCr":939,"Ġsqu":940,"oll":941,"tr":942,"Ġbanan":943,"Ġset":944,"Ġwhi":945,"ĠHeat":946,"ĠBrown":947,"allow":948,"Ġcrust":949,"Ġskillet":950,"Ġwal":951,"Ġcub":952,"Ġrefriger":953,"Ġcold":954,"Ġdough":955,"ĠPre":956,"ĠJ":957,"ave":958,"ano":959,"Ġsweet":960,"Ġsausage":961,"pan":962,"ĠDrain":963,"Ġli":964,"Ġlow":965,"Ġup":966,"Ġit":967,"Ġcrackers":968,"arch":969,"Ġout":970,"ĠK":971,"ĠLet":972,"Ġpack":973,"Ġcups":974,"ressing":975,"Ġstrawber":976,"ĠTop":977,"Ġpre":978,"Ġ45":979,"Ġcookie":980,"Ġseed":981,"Ġbox":982,"starch":983,"Ġsheet":984,"Ġcornstarch":985,"Ġsalad":986,"Ġbottom":987,"Ġwalnuts":988,"bur":989,"ĠBl":990,"zz":991,"ĠSa":992,"Ġwhole":993,"Ġcooking":994,"ump":995,"25":996,"75":997,"gano":998,"ruit":999,"ĠV":1000,"Ġare":1001,"Ġsaucepan":1002,"Ġlayer":1003,"Ġpork":1004,"ightly":1005,"Ġwarm":1006,"ew":1007,"Ġus":1008,"atter":1009,"rim":1010,"ried":1011,"Ġalmon":1012,"tional":1013,"Ġvegetables":1014,"regano":1015,"Ġlea":1016,"Ġjell":1017,"inger":1018,"ea":1019,"ucchin":1020,"ka":1021,"ucchini":1022,"Ġoregano":1023,"act":1024,"Ġpeanut":1025,"Ġbananas":1026,"ooth":1027,"Ġfill":1028,"Ġbell":1029,"fore":1030,"Ġbefore":1031,"burger":1032,"Ġminc":1033,"Ġsimmer":1034,"Ġlightly":1035,"ess":1036,"Ġnot":1037,"Ġdressing":1038,"Ġsmooth":1039,"Ġextr":1040,"ately":1041,"oni":1042,"reasts":1043,"rika":1044,"ĠTh":1045,"Ġflavor":1046,"Ġcracker":1047,"urp":1048,"Ġpaprika":1049,"tened":1050,"ĠRoll":1051,"Ġwhites":1052,"Ġ375":1053,"Ġextract":1054,"Ġaside":1055,"ĠSalad":1056,"Ġminced":1057,"Ġtab":1058,"optional":1059,"ose":1060,"Ġthin":1061,"ĠChe":1062,"Ġbreasts":1063,"ian":1064,"cc":1065,"Ġone":1066,"Ġthick":1067,"poon":1068,"abb":1069,"ĠPe":1070,"lespoon":1071,"Ġpeel":1072,"east":1073,"Ġtablespoon":1074,"eed":1075,"oth":1076,"abbage":1077,"Ġfin":1078,"Ġyol":1079,"oc":1080,"ham":1081,"ĠMel":1082,"par":1083,"Ġdone":1084,"Ġservings":1085,"Ġginger":1086,"quart":1087,"ift":1088,"Ġyeast":1089,"mallow":1090,"ĠPie":1091,"ĠMo":1092,"ĠMelt":1093,"ella":1094,"urpose":1095,"arella":1096,"zzarella":1097,"rimp":1098,"Ġif":1099,"ĠN":1100,"Ġgraham":1101,"Ġz":1102,"Ġball":1103,"Ġhamburger":1104,"Ġfirst":1105,"hett":1106,"Ġplace":1107,"aghett":1108,"Ġen":1109,"aghetti":1110,"Ġinstant":1111,"Ġfilling":1112,"Ġcombine":1113,"purpose":1114,"Ġ25":1115,"ree":1116,"oaf":1117,"Ġtime":1118,"Ġolive":1119,"kin":1120,"ĠIt":1121,"ĠY":1122,"Ġtor":1123,"ĠServes":1124,"ellow":1125,"eal":1126,"aked":1127,"Ġfinely":1128,"ĠMozzarella":1129,"meal":1130,"ĠBlend":1131,"Ġdes":1132,"Ġliqu":1133,"gre":1134,"Ġwhipped":1135,"Ġsoy":1136,"Ġbatter":1137,"asil":1138,"umpkin":1139,"ĠPreheat":1140,"ired":1141,"Ġunc":1142,"Ġsoftened":1143,"issol":1144,"Ġtea":1145,"Ġyellow":1146,"Ġsprinkle":1147,"Ġmarsh":1148,"Ġmarshmallow":1149,"Ġzucchini":1150,"aw":1151,"Ġcabbage":1152,"Ġdesired":1153,"10":1154,"ne":1155,"ved":1156,"Ġpeas":1157,"ĠAnd":1158,"Ġwine":1159,"Ġjar":1160,"Ġfruit":1161,"Ġtort":1162,"Ġolives":1163,"Ġclove":1164,"Ġcom":1165,"Ġwa":1166,"Ġpast":1167,"acar":1168,"ĠChill":1169,"olden":1170,"Ġmore":1171,"Ġlet":1172,"ĠSift":1173,"Ġliquid":1174,"ens":1175,"alian":1176,"elat":1177,"ize":1178,"Ġ40":1179,"Ġ325":1180,"Ġjello":1181,"acaroni":1182,"Ġslightly":1183,"Ġgelat":1184,"ex":1185,"Ġyolks":1186,"ĠItalian":1187,"ĠBe":1188,"Ġbasil":1189,"sweet":1190,"ĠSh":1191,"spoon":1192,"Ġdash":1193,"Ġteaspoon":1194,"ges":1195,"Ġspaghetti":1196,"Ġpim":1197,"ĠBring":1198,"aco":1199,"Ġcherries":1200,"Ġgolden":1201,"Ġother":1202,"Ġshrimp":1203,"row":1204,"Ġtopping":1205,"Ġdo":1206,"oughly":1207,"Ġstrawberries":1208,"Ġ400":1209,"Ġput":1210,"oroughly":1211,"eep":1212,"Ġflakes":1213,"Ġloaf":1214,"Ġstand":1215,"Ġcont":1216,"Ġspread":1217,"Ġmarshmallows":1218,"berry":1219,"dens":1220,"densed":1221,"ce":1222,"Ġsoft":1223,"irec":1224,"night":1225,"Ġdirec":1226,"Ġrolls":1227,"Ġcondensed":1228,"Ġ7":1229,"Ġlett":1230,"iscuit":1231,"Ġoats":1232,"ĠCookies":1233,"Ġfloured":1234,"Ġthoroughly":1235,"Ġpaper":1236,"Ġlettuce":1237,"Ġby":1238,"Ġfat":1239,"els":1240,"ator":1241,"Ġfirm":1242,"Ġovernight":1243,"Ġmacaroni":1244,"ite":1245,"ifted":1246,"Ġlon":1247,"ĠU":1248,"ĠBread":1249,"Ġstuff":1250,"isco":1251,"Ġoff":1252,"Ġalmonds":1253,"Ġgelatin":1254,"Ġqu":1255,"ĠFold":1256,"icrow":1257,"ĠPot":1258,"ept":1259,"pe":1260,"'s":1261,"Ġserve":1262,"Ġmixed":1263,"Ġbag":1264,"rop":1265,"16":1266,"ĠCheese":1267,"Ġmixing":1268,"fter":1269,"Ġsize":1270,"ee":1271,"key":1272,"ile":1273,"ually":1274,"icrowave":1275,"Ġpumpkin":1276,"ĠCrisco":1277,"Ġrefrigerator":1278,"cept":1279,"Ġpans":1280,"inach":1281,"greased":1282,"Ġtur":1283,"Ġcubes":1284,"ĠSaute":1285,"eak":1286,"ĠSpoon":1287,"ower":1288,"ĠRef":1289,"Ġchill":1290,"Ġblend":1291,"ĠCho":1292,"ble":1293,"Ġpaste":1294,"unch":1295,"Ġtaco":1296,"ĠRefriger":1297,"iel":1298,"Ġ35":1299,"tle":1300,"ĠĠ":1301,"Ġmake":1302,"Ġyou":1303,"ended":1304,"Ġbrowned":1305,"Ġmash":1306,"Ġstuffing":1307,"dually":1308,"Ġsifted":1309,"Ġdried":1310,"Ġpeeled":1311,"berries":1312,"Ġblended":1313,"Ġbiscuit":1314,"Ġuse":1315,"Ġexcept":1316,"ento":1317,"ĠChocolate":1318,"Ġice":1319,"Ġfood":1320,"Ġapple":1321,"ĠWhen":1322,"Ġballs":1323,"ray":1324,"Ġpimento":1325,"Ġthicken":1326,"ĠRice":1327,"tions":1328,"Ġcovered":1329,"Ġsc":1330,"ĠRefrigerate":1331,"range":1332,"atmeal":1333,"ĠBoil":1334,"Ġtablespoons":1335,"arb":1336,"Ġthis":1337,"ke":1338,"Ġconstant":1339,"Ġconstantly":1340,"ĠSimmer":1341,"led":1342,"Ġonto":1343,"ĠButter":1344,"rease":1345,"Ġcol":1346,"Ġq":1347,"ĠBr":1348,"ĠSl":1349,"Ġqt":1350,"ature":1351,"Ġbuttered":1352,"ade":1353,"Ġcherry":1354,"Ġleaves":1355,"cess":1356,"Ġbou":1357,"iv":1358,"illon":1359,"oney":1360,"Ġfoil":1361,"avy":1362,"fec":1363,"ened":1364,"Ġbouillon":1365,"Ġinch":1366,"Ġsticks":1367,"reez":1368,"Ġstri":1369,"Ġpotato":1370,"Ġwill":1371,"ĠYiel":1372,"ĠSw":1373,"Ġmo":1374,"Ġspoon":1375,"Ġfry":1376,"ĠJell":1377,"Ġri":1378,"Ġcle":1379,"Ġround":1380,"Ġcontain":1381,"yme":1382,"fection":1383,"ĠGrease":1384,"ooked":1385,"ides":1386,"asses":1387,"Ġgl":1388,"Ġbay":1389,"ĠDrop":1390,"ucumb":1391,"Ġbon":1392,"ottage":1393,"Ġpackage":1394,"cent":1395,"Ġthyme":1396,"Ġflavoring":1397,"Ġconfection":1398,"ican":1399,"ares":1400,"ich":1401,"Ġpeach":1402,"Ġspinach":1403,"illas":1404,"enter":1405,"Ġconfectioners":1406,"Ġsides":1407,"Ġheavy":1408,"Ġcand":1409,"ates":1410,"Ġstrips":1411,"Ġeven":1412,"Ġcenter":1413,"oun":1414,"Ġhead":1415,"ney":1416,"iff":1417,"Ġcottage":1418,"ĠLayer":1419,"Ġsteak":1420,"Ġtortillas":1421,"atsup":1422,"tern":1423,"rab":1424,"Ġcatsup":1425,"ĠTurn":1426,"olasses":1427,"ind":1428,"arp":1429,"Ġcolor":1430,"Ġenough":1431,"yle":1432,"ittle":1433,"overed":1434,"nch":1435,"apor":1436,"vapor":1437,"Ġafter":1438,"ding":1439,"Ġcucumb":1440,"Ġevapor":1441,"Ġsharp":1442,"Ġkid":1443,"se":1444,"Ġturn":1445,"Ġthaw":1446,"Ġturkey":1447,"eta":1448,"Ġket":1449,"mi":1450,"Ġhoney":1451,"Ġjust":1452,"Ġrest":1453,"Ġevaporated":1454,"Ġkidney":1455,"Ġchops":1456,"Ġprepar":1457,"Ġmashed":1458,"Ġvery":1459,"eser":1460,"Ġuncovered":1461,"Ġsemi":1462,"Ġsquash":1463,"Ġfine":1464,"elve":1465,"Ġdissol":1466,"ape":1467,"ently":1468,"ĠSwiss":1469,"ings":1470,"Ġchun":1471,"12":1472,"Ġmolasses":1473,"Ġcookies":1474,"Ġtart":1475,"nish":1476,"its":1477,"Ġevenly":1478,"Ġlay":1479,"Ġstal":1480,"Ġungreased":1481,"Ġde":1482,"Ġcubed":1483,"Ġdates":1484,"Ġside":1485,"ĠVelve":1486,"Ġprepared":1487,"ices":1488,"own":1489,"erry":1490,"Ġroast":1491,"Ġchilies":1492,"Ġwax":1493,"ets":1494,"ĠSet":1495,"Ġremove":1496,"Ġcontainer":1497,"per":1498,"ĠThen":1499,"Ġap":1500,"Ġmuff":1501,"ĠDip":1502,"Ġthawed":1503,"Ġpacked":1504,"Ġslice":1505,"Ġdirections":1506,"ĠGra":1507,"Ġacc":1508,"ĠSoup":1509,"Ġlittle":1510,"Ġminute":1511,"Ġcran":1512,"Ġslow":1513,"Ġmixer":1514,"uffy":1515,"Ġpastry":1516,"Ġbut":1517,"Ġstrawberry":1518,"spice":1519,"ording":1520,"ld":1521,"Ġcur":1522,"Ġsepar":1523,"izz":1524,"ĠVelveeta":1525,"Ġbre":1526,"ĠRed":1527,"ition":1528,"Ġleaf":1529,"Ġallspice":1530,"asion":1531,"ccasion":1532,"Ġpick":1533,"Ġpt":1534,"lower":1535,"Ġlayers":1536,"Ġaccording":1537,"Ġoccasion":1538,"Ġoatmeal":1539,"Ġchest":1540,"ous":1541,"Ġoccasionally":1542,"Ġrefrigerate":1543,"ount":1544,"Ġchestnuts":1545,"Ġplain":1546,"rench":1547,"Ġspeed":1548,"ubb":1549,"Ġpo":1550,"Ġbr":1551,"uck":1552,"Ġsquares":1553,"Ġfork":1554,"Ġfluffy":1555,"Ġclean":1556,"Ġdou":1557,"ser":1558,"Ġ50":1559,"emper":1560,"ss":1561,"Ġ16":1562,"Ġstiff":1563,"rox":1564,"ĠGr":1565,"Ġaltern":1566,"ock":1567,"Ġtemper":1568,"umin":1569,"ĠDo":1570,"Ġgran":1571,"Ġpeaches":1572,"Ġtemperature":1573,"chup":1574,"Ġform":1575,"ame":1576,"Ġalmond":1577,"Ġaddition":1578,"ĠFrench":1579,"roxim":1580,"ĠAr":1581,"Ġcrab":1582,"Ġtub":1583,"Ġdill":1584,"Ġwhipping":1585,"ful":1586,"Ġwhen":1587,"Ġketchup":1588,"ĠPress":1589,"Ġhalves":1590,"arin":1591,"Ġcro":1592,"Ġbiscuits":1593,"roximately":1594,"Ġtw":1595,"Ġpeanuts":1596,"Ġhand":1597,"ton":1598,"Ġbubb":1599,"Ġdown":1600,"edges":1601,"ĠCorn":1602,"izza":1603,"ĠCar":1604,"Ġtartar":1605,"Ġthr":1606,"ĠMake":1607,"Ġlime":1608,"oss":1609,"und":1610,"Ġthrough":1611,"Ġbring":1612,"ĠRo":1613,"erm":1614,"ĠWith":1615,"Ġbeating":1616,"rap":1617,"ern":1618,"Ġlonger":1619,"isp":1620,"erb":1621,"Ġreser":1622,"other":1623,"og":1624,"Ġyour":1625,"Ġspray":1626,"Ġsec":1627,"Ġcrisp":1628,"auce":1629,"Ġmelt":1630,"Ġstalks":1631,"issolve":1632,"ext":1633,"ase":1634,"Ġlean":1635,"ĠPotato":1636,"ĠDissolve":1637,"Ġcomes":1638,"ĠApple":1639,"about":1640,"Ġrind":1641,"Ġpasta":1642,"enne":1643,"Ġshells":1644,"anges":1645,"Ġcres":1646,"sa":1647,"aul":1648,"Ġbaked":1649,"Ġpinch":1650,"Ġfreez":1651,"arbec":1652,"Ġcoars":1653,"Ġthinly":1654,"ud":1655,"Ġcomp":1656,"ĠArrange":1657,"ull":1658,"Ġwhile":1659,"Ġsaute":1660,"Ġuncooked":1661,"Ġcrescent":1662,"15":1663,"Ġleast":1664,"Ġdozen":1665,"co":1666,"Ġoranges":1667,"Ġspices":1668,"ĠSlice":1669,"Ġcann":1670,"ulated":1671,"Ġcreamed":1672,"iflower":1673,"auliflower":1674,"ĠGradually":1675,"ĠTo":1676,"ayenne":1677,"Ġam":1678,"ĠYields":1679,"fl":1680,"Ġcrumbled":1681,"arts":1682,"Ġplate":1683,"Ġblue":1684,"Ġhard":1685,"Ġgranulated":1686,"Ġcayenne":1687,"Ġtube":1688,"Ġcomplet":1689,"Ġar":1690,"Ġrise":1691,"ail":1692,"ĠSe":1693,"ffee":1694,"quick":1695,"ĠFor":1696,"Ġmeal":1697,"ark":1698,"Ġrack":1699,"Ġmuffin":1700,"Ġdouble":1701,"Ġcoat":1702,"Ġseasoned":1703,"Ġunb":1704,"Ġwaf":1705,"pare":1706,"Ġslowly":1707,"ĠCo":1708,"ĠChop":1709,"eless":1710,"una":1711,"Ġthickened":1712,"Ġcompletely":1713,"ist":1714,"ereal":1715,"Ġstew":1716,"ĠBis":1717,"Ġcarrot":1718,"Ġanother":1719,"bread":1720,"ider":1721,"ĠReduce":1722,"risp":1723,"Ġapproximately":1724,"fat":1725,"ome":1726,"Ġcucumbers":1727,"ular":1728,"Ġseasonings":1729,"Ġmicrowave":1730,"Ġglass":1731,"Ġcereal":1732,"ined":1733,"ĠGar":1734,"Ġchuck":1735,"ĠBisquick":1736,"ng":1737,"asco":1738,"asag":1739,"Ġlong":1740,"ĠTab":1741,"alls":1742,"Ġdissolved":1743,"Ġhigh":1744,"Ġkern":1745,"Qu":1746,"ary":1747,"Ġcoloring":1748,"Ġdri":1749,"ready":1750,"Ġalternately":1751,"ck":1752,"Ġcauliflower":1753,"Ġchunks":1754,"arbecue":1755,"Ġthem":1756,"Ġapplesauce":1757,"Ġboneless":1758,"ĠLe":1759,"ĠTabasco":1760,"pl":1761,"Ġpro":1762,"Ġnon":1763,"Ġskin":1764,"merican":1765,"Ġcanned":1766,"ĠBeef":1767,"Ġcider":1768,"Ġblender":1769,"ĠIf":1770,"ĠBroccoli":1771,"Ġcumin":1772,"Ġrec":1773,"ipe":1774,"inue":1775,"Ġ300":1776,"Ġshallow":1777,"Ġfew":1778,"ĠFl":1779,"Ġamount":1780,"Ġneed":1781,"ĠShape":1782,"ĠQu":1783,"less":1784,"Ġripe":1785,"Ġ24":1786,"ĠAmerican":1787,"Ġgrease":1788,"gular":1789,"ĠMicrowave":1790,"Ġquick":1791,"sweetened":1792,"vel":1793,"Ġcurry":1794,"Ġday":1795,"Ġpin":1796,"Ġthat":1797,"ĠSc":1798,"Ġsquare":1799,"asy":1800,"veral":1801,"Ġtwo":1802,"ĠSqu":1803,"Ġbubbly":1804,"Ġready":1805,"bs":1806,"kra":1807,"sc":1808,"ĠFill":1809,"Ġseveral":1810,"ric":1811,"ivid":1812,"ĠSto":1813,"Ġcornmeal":1814,"ild":1815,"Ġwheat":1816,"ied":1817,"Ġboth":1818,"Ġlast":1819,"ĠPepper":1820,"Ġhas":1821,"Ġtoast":1822,"Ġbreast":1823,"ĠHigh":1824,"Ġunsweetened":1825,"ĠThis":1826,"ĠSeason":1827,"ĠZ":1828,"Ġcooled":1829,"ĠBaked":1830,"Ġkernel":1831,"ĠUse":1832,"ĠSauce":1833,"style":1834,"Ġsherry":1835,"ricot":1836,"Ġtoss":1837,"ĠPrepare":1838,"Ġtortilla":1839,"Ġend":1840,"Ġpress":1841,"Ġsalsa":1842,"ĠFry":1843,"Ġcaram":1844,"vy":1845,"udge":1846,"Ġhash":1847,"Ġnext":1848,"Ġflaked":1849,"Ġraw":1850,"arter":1851,"Ġcarton":1852,"Ġunbaked":1853,"Ġroom":1854,"Ġwafers":1855,"Ġpart":1856,"ppy":1857,"ĠGre":1858,"ilad":1859,"aschin":1860,"nead":1861,"alap":1862,"aschino":1863,"alapen":1864,"Ġpat":1865,"urt":1866,"Ġgradually":1867,"ĠMon":1868,"Ġbeen":1869,"ĠMeat":1870,"ig":1871,"Ġfold":1872,"Ġmaraschino":1873,"ogurt":1874,"ĠFruit":1875,"az":1876,"anut":1877,"14":1878,"otch":1879,"Ġjars":1880,"sting":1881,"Ġcreamy":1882,"Ġfish":1883,"Ġlike":1884,"lish":1885,"Ġkn":1886,"elf":1887,"Ġgently":1888,"Ġherb":1889,"anana":1890,"Ġ425":1891,"Ġusing":1892,"ĠSo":1893,"ĠPeanut":1894,"ugar":1895,"Ġprocess":1896,"ĠSweet":1897,"ĠDel":1898,"asagna":1899,"Ġtuna":1900,"Ġstock":1901,"ĠGarnish":1902,"Ġany":1903,"ĠUn":1904,"Ġtow":1905,"ĠFro":1906,"Ġkeep":1907,"ĠRep":1908,"ĠBre":1909,"Ġgood":1910,"ĠJack":1911,"lec":1912,"Ġonce":1913,"Ġ60":1914,"ĠCon":1915,"ĠBanana":1916,"Ġim":1917,"ife":1918,"ĠOn":1919,"Ġyogurt":1920,"Ġpecan":1921,"gain":1922,"scotch":1923,"spar":1924,"rained":1925,"Ġjalapen":1926,"plant":1927,"ia":1928,"ran":1929,"ĠHam":1930,"Ġsecon":1931,"ĠToss":1932,"Ġhave":1933,"Ġcandy":1934,"Ġfirmly":1935,"Ġblueberries":1936,"isk":1937,"tz":1938,"Ġagain":1939,"medi":1940,"Ġregular":1941,"so":1942,"Ġdeep":1943,"Ġcranberries":1944,"mediately":1945,"ising":1946,"Ġdark":1947,"heated":1948,"ĠMex":1949,"uted":1950,"Ġdirected":1951,"ĠRepeat":1952,"Ġbits":1953,"Ġknife":1954,"itos":1955,"Ġapricot":1956,"ong":1957,"pick":1958,"Ġjelly":1959,"andarin":1960,"Ġscall":1961,"ini":1962,"astic":1963,"Ġbite":1964,"ĠEasy":1965,"Ġdip":1966,"Tel":1967,"Ġmini":1968,"tail":1969,"Ġfull":1970,"Ġtooth":1971,"ĠCan":1972,"tric":1973,"Ġtoothpick":1974,"lectric":1975,"icott":1976,"Ġsweetened":1977,"ĠSalt":1978,"fuls":1979,"ĠBreak":1980,"Ġchi":1981,"Ġcandied":1982,"rising":1983,"ation":1984,"Ġelectric":1985,"itz":1986,"Ġpizza":1987,"ĠPotatoes":1988,"Ġaround":1989,"bl":1990,"Ġrings":1991,"Ġgravy":1992,"ting":1993,"ĠTake":1994,"ĠStuff":1995,"Ġquarter":1996,"ams":1997,"Ġme":1998,"meat":1999,"Ġmarin":2000,"ĠPeel":2001,"Ġbottle":2002,"Ġspice":2003,"Ġdripping":2004,"Ġcoarsely":2005,"Ġbars":2006,"reser":2007,"Ġdi":2008,"ould":2009,"Ġself":2010,"Ġcoffee":2011,"ĠVegetab":2012,"Ġdrippings":2013,"Ġund":2014,"Ġseparate":2015,"ĠPudding":2016,"oke":2017,"esame":2018,"Ġpreheated":2019,"velop":2020,"Ġrasp":2021,"Ġheated":2022,"ĠEgg":2023,"Ġapart":2024,"ĠZucchini":2025,"anch":2026,"Ġboiled":2027,"Ġbarbecue":2028,"Ġseal":2029,"sels":2030,"Ġadditional":2031,"Ġinser":2032,"ĠHot":2033,"Ġedges":2034,".\\":2035,"Ġlen":2036,"ok":2037,"Ġenvelop":2038,"Ġplus":2039,"Ġmois":2040,"ĠAl":2041,"ĠLine":2042,"ĠMexican":2043,"ive":2044,"ĠRitz":2045,"Ġbutterscotch":2046,"Ġsalmon":2047,"very":2048,"fer":2049,"Ġsugars":2050,"inse":2051,"ivided":2052,"Ġmelts":2053,"ĠPound":2054,"Ġav":2055,"Ġneeded":2056,"ĠThe":2057,"Ġpound":2058,"Ġgarnish":2059,"ang":2060,"Ġplastic":2061,"ĠDiv":2062,"Ġbanana":2063,"Ġtoasted":2064,"Ġsome":2065,"ĠBars":2066,"terey":2067,"ĠYield":2068,"Ġused":2069,"not":2070,"ĠPumpkin":2071,"ĠStore":2072,"ĠLemon":2073,"Ġpimentos":2074,"Ġwire":2075,"Ġdivided":2076,"Ġmold":2077,"Ġcock":2078,"Ġcocktail":2079,"Ġflat":2080,"Ġsesame":2081,"Ġmandarin":2082,"sparag":2083,"Ġinserted":2084,"ling":2085,"sparagus":2086,"ĠWash":2087,"cake":2088,"oin":2089,"Ġcranberry":2090,"Ġbrowns":2091,"Ġbunch":2092,"Ġfried":2093,"corn":2094,"Ġbet":2095,"avorite":2096,"iver":2097,"Ġjalapeno":2098,"ĠMonterey":2099,"Ġsage":2100,"reme":2101,"Ġeggplant":2102,"Ġchives":2103,"ert":2104,"Ġfrying":2105,"'t":2106,"ons":2107,"Ġimmediately":2108,"icotta":2109,"uk":2110,"stit":2111,"Ġpretz":2112,"oul":2113,"ett":2114,"wise":2115,"ĠRet":2116,"Ġinches":2117,"nut":2118,"ĠFudge":2119,"Ġremo":2120,"Ġback":2121,"ĠReturn":2122,"lets":2123,"Ġrolled":2124,"Ġgrap":2125,"Ġseeds":2126,"ĠSugar":2127,"Ġcornbread":2128,"Ġbean":2129,"rispies":2130,"iluted":2131,"Ġevery":2132,"Ġ11":2133,"Ġtoo":2134,"ĠRolls":2135,"ocad":2136,"utch":2137,"Ġsub":2138,"Ġsalted":2139,"for":2140,"Ġmor":2141,"ĠStrawber":2142,"Ġ-":2143,"ĠVegetable":2144,"Ġcons":2145,"amp":2146,"Ġadding":2147,"Ġ18":2148,"ĠNut":2149,"ĠMin":2150,"ĠRicotta":2151,"imes":2152,"Ġsheets":2153,"zzle":2154,"essert":2155,"balls":2156,"Ġ14":2157,"ĠKar":2158,"Ġchilled":2159,"ions":2160,"Ġpoppy":2161,"acle":2162,"Ġmorsels":2163,"Ġper":2164,"ĠFreez":2165,"iracle":2166,"),":2167,"Ġsliver":2168,"undt":2169,"ĠBrand":2170,"Ġuns":2171,"ĠKeep":2172,"Ġsubstit":2173,"Ġdro":2174,"ĠDutch":2175,"wh":2176,"Ġboiler":2177,"Ġfrosting":2178,"ĠStrawberry":2179,"ĠKaro":2180,"ĠKrispies":2181,"ĠCoc":2182,"ĠBeans":2183,"Ġavocad":2184,"cooked":2185,"Ġhor":2186,"ĠMiracle":2187,"iento":2188,"pot":2189,"Ġbeg":2190,"Ġbroil":2191,"Ġ450":2192,"20":2193,"ollow":2194,"Ġpimiento":2195,"agle":2196,"grees":2197,"Ġdegrees":2198,"Ġcucumber":2199,"ĠCont":2200,"Ġpepperoni":2201,"ĠYou":2202,"Ġgrain":2203,"stick":2204,"Ġyolk":2205,"Ġwedges":2206,"ĠMuff":2207,"ĠSour":2208,"Ġstem":2209,"Ġwaxed":2210,"Ġel":2211,"ewarm":2212,"Ġreserved":2213,"ukewarm":2214,"oaves":2215,"Ġturning":2216,"lit":2217,"ener":2218,"ken":2219,"ĠBundt":2220,"Ġchop":2221,"Ġsoups":2222,"ĠEagle":2223,"ĠMay":2224,"Ġfreshly":2225,"Ġseparated":2226,"ili":2227,"hub":2228,"ĠMe":2229,"hubarb":2230,"ĠQuick":2231,"Ġtightly":2232,"ized":2233,"Ġcrock":2234,"Ġreduce":2235,"ĠBrush":2236,"Ġlukewarm":2237,"adish":2238,"Ġrecipe":2239,"uer":2240,"ĠEng":2241,"aking":2242,"Ġlasagna":2243,"Ġcrabmeat":2244,"seradish":2245,"ici":2246,"ĠPec":2247,"ĠDream":2248,"Ġsur":2249,"ĠCrumb":2250,"ĠPork":2251,"gth":2252,"ĠPizza":2253,"ĠChili":2254,"ĠBean":2255,"Ġfreeze":2256,"ost":2257,"Ġne":2258,"ĠLoaf":2259,"Ġslivered":2260,"flavor":2261,"kraut":2262,"Ġlength":2263,"uerkraut":2264,"Ġhorseradish":2265,"ters":2266,"Ġtimes":2267,"Ġonly":2268,"ĠMuffins":2269,"Ġbar":2270,"erries":2271,"Ġfreezer":2272,"ĠShrimp":2273,"Ġchunk":2274,"erman":2275,"ĠAll":2276,"Ġenvelope":2277,"ĠWrap":2278,"Ġcoated":2279,"ully":2280,"tra":2281,"Ġbroken":2282,"ort":2283,"Ġweed":2284,"Ġasparagus":2285,"Ġrefrigerated":2286,"ft":2287,"inner":2288,"Ġthey":2289,"bon":2290,"esson":2291,"Ġgrapes":2292,"Ġsurf":2293,"Ġcheddar":2294,"Ġflavored":2295,"flavored":2296,"ĠPam":2297,"Ġcomb":2298,"ĠGerman":2299,"gs":2300,"Ġloaves":2301,"ĠPat":2302,"Ġpretzels":2303,"ĠAfter":2304,"Ġshape":2305,"utons":2306,"Ġwrap":2307,"Ġale":2308,"bow":2309,"ĠWesson":2310,"Ġshould":2311,"ĠDivide":2312,"oy":2313,"Ġlim":2314,"ĠUnc":2315,"Ġcontinue":2316,"Ġwhich":2317,"ĠOre":2318,"Ġtops":2319,"Ġsurface":2320,"ĠEnglish":2321,"ĠForm":2322,"Ġberries":2323,"gel":2324,"centr":2325,"can":2326,"usts":2327,"Ġcroutons":2328,"ĠGreen":2329,"inches":2330,"ĠOatmeal":2331,"wich":2332,"Ġpar":2333,"asure":2334,"Ġstewed":2335,"Ġno":2336,"Ġextra":2337,"Ġconcentr":2338,"meric":2339,"ĠWhile":2340,"ĠSpray":2341,"Ġboard":2342,"uns":2343,"Ġpinto":2344,"Ġcrusts":2345,"ĠPecan":2346,"Ġsubstitute":2347,"uring":2348,"Ġturmeric":2349,"cy":2350,"Ġpure":2351,"Ġros":2352,"Ġminiature":2353,"ĠDor":2354,"andwich":2355,"Ġscallions":2356,"Ġskinless":2357,"ĠContinue":2358,"try":2359,"ots":2360,"Ġpiece":2361,"Ġangel":2362,"emary":2363,"aze":2364,"ĠTom":2365,"Ġdrops":2366,"Ġpreser":2367,"andy":2368,"irt":2369,"ness":2370,"isten":2371,"oultry":2372,"Ġexcess":2373,"Ġelbow":2374,"aping":2375,"ĠPineapple":2376,"ĠCarro":2377,"Ġskim":2378,"Ġboxes":2379,"Ġpoultry":2380,"int":2381,"Ġop":2382,"Ġadded":2383,"ante":2384,"Ġcaramel":2385,"Ġconcentrate":2386,"ĠRanch":2387,"ola":2388,"ĠMarin":2389,"No":2390,"oles":2391,"Ġlid":2392,"Ġalso":2393,"ĠDoritos":2394,"ĠDi":2395,"ĠCrumble":2396,"Ġraspberry":2397,"Ġmoistened":2398,"ĠStew":2399,"Ġpreserves":2400,"ys":2401,"Ġsauerkraut":2402,"ĠSausage":2403,"Ġribs":2404,"Ġlengthwise":2405,"Ġrosemary":2406,"Ġpit":2407,"icious":2408,"Ġfavorite":2409,"ilada":2410,"Ġfil":2411,"ĠPunch":2412,"icante":2413,"Ġpatt":2414,"Ġorder":2415,"ĠKnead":2416,"Ġseconds":2417,"Ġthickens":2418,"Ġcornfl":2419,"ĠRa":2420,"ĠBlue":2421,"Ġfre":2422,"Ġac":2423,"ĠChip":2424,"edge":2425,"Ġcube":2426,"Ġoften":2427,"Ġmade":2428,"Ġtowel":2429,"most":2430,"Ġcoarse":2431,"Ġquart":2432,"ĠOld":2433,"Ġfrequ":2434,"Ġcor":2435,"ĠSpaghetti":2436,"Ġfrequently":2437,"ĠSquash":2438,"Ġrum":2439,"Ġmoder":2440,"idd":2441,"Ġ55":2442,"ĠOr":2443,"Ġboned":2444,"ĠStuffed":2445,"Ġstems":2446,"Ġfryer":2447,"Ġcaramels":2448,"air":2449,"Ġrhubarb":2450,"ines":2451,"way":2452,"ĠFreeze":2453,"Ġpickle":2454,"loin":2455,"qual":2456,"Ġpicante":2457,"ĠTaco":2458,"Ġnonstick":2459,"rag":2460,"alor":2461,"Ġstill":2462,"Ġhalved":2463,"Ġart":2464,"Ġalmost":2465,"Ġteaspoons":2466,"boil":2467,"ible":2468,"ween":2469,"eam":2470,"Ġstyle":2471,"eri":2472,"Ġpickles":2473,"ering":2474,"ĠDessert":2475,"hey":2476,"ĠFarm":2477,"ĠMinute":2478,"ragon":2479,"arragon":2480,"Ġbetween":2481,"rans":2482,"ĠCoconut":2483,"Ġknead":2484,"inned":2485,"ashion":2486,"Ġconsisten":2487,"jor":2488,"ĠOrange":2489,"Ġmild":2490,"ĠMash":2491,"Ġedge":2492,"ĠLightly":2493,"Ġheaping":2494,"Ġdays":2495,"ez":2496,"Ġhands":2497,"Ġunflavored":2498,"ĠPast":2499,"Ġclear":2500,"eg":2501,"Ġconsistency":2502,"Ġbul":2503,"ĠDri":2504,"joram":2505,"iny":2506,"ĠSteak":2507,"Ġbreak":2508,"Ġfollow":2509,"Ġclams":2510,"Ġmarjoram":2511,"Ġpop":2512,"Ġench":2513,"eringue":2514,"Ġwash":2515,"eses":2516,"ĠNo":2517,"Ġprocessor":2518,"ĠCherry":2519,"Ġtarragon":2520,"ĠPick":2521,"ĠApp":2522,"Ġquartered":2523,"Ġsn":2524,"ĠSpinach":2525,"ĠAng":2526,"do":2527,"Ġwood":2528,"ershey":2529,"Ġplatter":2530,"Ġmoderate":2531,"Ġcrumbly":2532,"Ġchoice":2533,"Ġmuffins":2534,"high":2535,"ĠIce":2536,"ĠPro":2537,"ĠTur":2538,"Ġcheeses":2539,"idge":2540,"tover":2541,"antro":2542,"Ġcombined":2543,"Ġlima":2544,"Ġbone":2545,"ilantro":2546,"Ġfillets":2547,"Ġpink":2548,"Ġskinned":2549,"Ġfour":2550,"ĠPet":2551,"Ġallow":2552,"efully":2553,"ĠHershey":2554,"Ġnonfat":2555,"Ġsure":2556,"ĠCran":2557,"ĠDot":2558,"ially":2559,"Ġbroiler":2560,"Ġwhisk":2561,"ously":2562,"alted":2563,"amb":2564,"Ġmayo":2565,"ĠDressing":2566,"ma":2567,"Ġrect":2568,"Ġchiles":2569,"boiled":2570,"Ġmarinade":2571,"cl":2572,"Ġwee":2573,"Ġpatties":2574,"ĠCabbage":2575,"ĠMars":2576,"ĠRoast":2577,"ĠDrizzle":2578,"ĠCheez":2579,"Ġcutting":2580,"Ġundrained":2581,"Ġwooden":2582,"ĠBalls":2583,"ĠAngel":2584,"fry":2585,"ĠBrownies":2586,"ĠWhiz":2587,"egg":2588,"Ġserved":2589,"ĠSquares":2590,"Ġcilantro":2591,"Ġmeatballs":2592,"ĠFresh":2593,"eez":2594,"olid":2595,"ĠMushroom":2596,"ĠPepperidge":2597,"ĠSup":2598,"bell":2599,"tc":2600,"ĠCrush":2601,"fast":2602,"ĠCranberry":2603,"aby":2604,"Ġreserving":2605,"13":2606,"ating":2607,"Ġ250":2608,"Ġsmoke":2609,"ĠCamp":2610,"isin":2611,"ĠFrost":2612,"Ġgal":2613,"Ġenchilada":2614,"size":2615,"ĠCl":2616,"Ġglaze":2617,"Ġ\\":2618,"Ġfo":2619,"amel":2620,"Ġdissolve":2621,"Ġic":2622,"Ġlemonade":2623,"app":2624,"Ġ*":2625,"Ġokra":2626,"Ġcutter":2627,"Ġsq":2628,"Ġthree":2629,"Ġreal":2630,"Ġoun":2631,"Ġwhip":2632,"Ġstove":2633,"ingers":2634,"Ġmint":2635,"Ġbran":2636,"Ġpr":2637,"ĠSlow":2638,"Ġending":2639,"ĠSoak":2640,"Ġcornflakes":2641,"head":2642,"Ġnecess":2643,"Ġnecessary":2644,"routs":2645,"epar":2646,"peel":2647,"ĠSk":2648,"Ġpuree":2649,"Ġflower":2650,"Ġicing":2651,"fish":2652,"Ġteaspoonfuls":2653,"Ġdrop":2654,"ĠAcc":2655,"Ġunder":2656,"ĠRinse":2657,"Ġoys":2658,"ear":2659,"Ġdon":2660,"Ġrolling":2661,"Ġjam":2662,"ĠGood":2663,"ransfer":2664,"Ġfoam":2665,"aff":2666,"ftover":2667,"Ġartich":2668,"Ġunsalted":2669,"Ġforms":2670,"ĠBiscuit":2671,"ĠReser":2672,"Ġsecond":2673,"Ġremoving":2674,"Ġtap":2675,"Ġlemons":2676,"Ġseeded":2677,"ĠCrab":2678,"als":2679,"ĠCampbell":2680,"ĠAccent":2681,"Ġrefried":2682,"burg":2683,"Ġpeak":2684,"ĠCoat":2685,"Ġlined":2686,"peeled":2687,"Ġcap":2688,"Ġtowels":2689,"Ġbulk":2690,"ĠSepar":2691,"inese":2692,"Ġleftover":2693,"ĠCaramel":2694,"ĠAllow":2695,"ĠRe":2696,"uminum":2697,"jon":2698,"side":2699,"Ġless":2700,"Ġsprouts":2701,"oodle":2702,"aple":2703,"Ġavocado":2704,"ĠGreat":2705,"Ġpickling":2706,"Ġundiluted":2707,"joy":2708,"blong":2709,"ĠReserve":2710,"Ġjuices":2711,"Ġwide":2712,"Ġaluminum":2713,"Ġbaby":2714,"ĠSlowly":2715,"cakes":2716,"Ġrinse":2717,"ĠChinese":2718,"Ġcrumble":2719,"Ġoblong":2720,"Ġthickness":2721,"Ġret":2722,"ĠTater":2723,"Ġrelish":2724,"ĠDelicious":2725,"Ġbuns":2726,"ĠCup":2727,"ĠHamburger":2728,"ph":2729,"use":2730,"cr":2731,"Ġgelatine":2732,"ĠPasta":2733,"Ġcalor":2734,"ĠTurkey":2735,"ĠSeparate":2736,"hmallow":2737,"Ġquarts":2738,"Ġpitted":2739,"ĠUs":2740,"ĠDelight":2741,"ĠOnion":2742,"ĠUncover":2743,"ĠOreo":2744,"Ġ'":2745,"ĠBest":2746,"ĠDijon":2747,"ĠDump":2748,"Ġquickly":2749,"cook":2750,"ĠTomato":2751,"ĠPeach":2752,"free":2753,"Ġind":2754,"Ġbegins":2755,"Ġshake":2756,"Ġsandwich":2757,"Ġpul":2758,"Ġtes":2759,"Ġpopcorn":2760,"Ġ&":2761,"Ġwalnut":2762,"Ġarrange":2763,"iche":2764,"Ġmoist":2765,"od":2766,"uch":2767,"anish":2768,"Ġspring":2769,"Ġmeringue":2770,"away":2771,"Ġrounded":2772,"no":2773,"Ġwild":2774,"oop":2775,"ĠCarrot":2776,"Ġreturn":2777,"ĠMarshmallow":2778,"ĠCrisp":2779,"Ġpeaks":2780,"Ġsift":2781,"Ġsprayed":2782,"ĠBarbecue":2783,"ears":2784,"Ġtins":2785,"Ġpartially":2786,"Ġdinner":2787,"outh":2788,"Ġetc":2789,"ĠRaisin":2790,"ĠFr":2791,"ĠFried":2792,"Ġreserve":2793,"ashioned":2794,"iscard":2795,"oca":2796,"Ġscal":2797,"Ġtake":2798,"ecor":2799,"ĠBlueberry":2800,"ĠUsing":2801,"ere":2802,"Ġairt":2803,"Ġairtight":2804,"Ġpunch":2805,"able":2806,"Ġsame":2807,"atch":2808,"Ġwithout":2809,"af":2810,"Ġholes":2811,"Ġpears":2812,"ioca":2813,"Ġstore":2814,"ettuc":2815,"oked":2816,"ĠChr":2817,"arty":2818,"ĠMacaroni":2819,"Ġkettle":2820,"bler":2821,"Ġget":2822,"Ġsing":2823,"allop":2824,"ĠBreakfast":2825,"ĠBran":2826,"any":2827,"ĠLay":2828,"Ġpulp":2829,"Ġstalk":2830,"ĠBiscuits":2831,"ĠRom":2832,"eaten":2833,"Ġpor":2834,"Ġahead":2835,"Ġapricots":2836,"Ġmaple":2837,"Ġremainder":2838,"unchy":2839,"Ġblueberry":2840,"ah":2841,"Ġcaraway":2842,"while":2843,"ĠNext":2844,"icy":2845,"orb":2846,"ĠSm":2847,"Ġsplit":2848,"ĠRec":2849,"Ġtapioca":2850,"11":2851,"Ġseedless":2852,"ingu":2853,"Ġsingle":2854,"Ġchunky":2855,"Ġwor":2856,"ĠDe":2857,"ĠIm":2858,"ander":2859,"lings":2860,"ann":2861,"Ġbones":2862,"Ġbrush":2863,"ĠGl":2864,"Ġcas":2865,"hew":2866,"ĠTransfer":2867,"Ġsteam":2868,"ĠGently":2869,"Ġequal":2870,"Ġsprink":2871,"ĠLasagna":2872,"Ġabs":2873,"Ġhamburg":2874,"All":2875,"Ġhearts":2876,"irc":2877,"Ġweeks":2878,"thing":2879,"ĠScallop":2880,"ĠSn":2881,"Ġgrill":2882,"ĠOven":2883,"ĠBroil":2884,"ĠSupreme":2885,"Ġremoved":2886,"cup":2887,"Ġcorned":2888,"Ġalong":2889,"ĠDish":2890,"Ġstage":2891,"ouch":2892,"ĠSpanish":2893,"ial":2894,"Ġtri":2895,"Ġparts":2896,"ften":2897,"ossible":2898,"Ġabsorb":2899,"Ġmakes":2900,"Ġbec":2901,"Ġcirc":2902,"Ġloo":2903,"Ġprun":2904,"affin":2905,"cho":2906,"insed":2907,"Ġrectang":2908,"Ġdoub":2909,"Ġflowerets":2910,"Ġfoamy":2911,"bits":2912,"ĠRecipe":2913,"ĠWhite":2914,"ual":2915,"yre":2916,"Ġsteaks":2917,"ĠJello":2918,"Ġparaffin":2919,"yrex":2920,"ĠGrand":2921,"ĠChops":2922,"Ġinst":2923,"Ġfudge":2924,"ath":2925,"ĠSoften":2926,"ipped":2927,"Ġwings":2928,"ĠSeal":2929,"ĠPh":2930,"ĠWill":2931,"Ġunpeeled":2932,"Ġrinsed":2933,"Ġbeer":2934,"iddle":2935,"Ġgener":2936,"Ġspri":2937,"aker":2938,"ĠSplit":2939,"Ġleaving":2940,"Ġroasting":2941,"Ġscalded":2942,"bbler":2943,"Ġavocados":2944,"Ġbest":2945,"ĠCreme":2946,"ĠCornbread":2947,"Ġrot":2948,"ĠJust":2949,"Ġquarters":2950,"vil":2951,"Ġmeats":2952,"Ġsmoked":2953,"ĠShake":2954,"Ġbags":2955,"Ġduring":2956,"Ġlard":2957,"mas":2958,"Ġ\"":2959,"ĠFrosting":2960,"anwhile":2961,"ĠCoffee":2962,"ĠPyrex":2963,"uced":2964,"ĠLow":2965,"undrained":2966,"ĠApples":2967,"ison":2968,"Ġhom":2969,"Ġraspberries":2970,"ĠCreamy":2971,"Ġmaking":2972,"ĠTex":2973,"Ġspoonfuls":2974,"ops":2975,"ĠAltern":2976,"ĠStyle":2977,"ĠEnch":2978,"Ġgrape":2979,"ĠStove":2980,"ĠMeanwhile":2981,"ĠChrist":2982,"Ġsun":2983,"ĠKra":2984,"ĠCro":2985,"ĠBlack":2986,"Ġmeasure":2987,"ĠCobbler":2988,"Ġmiddle":2989,"ĠTw":2990,"Ġcalories":2991,"Ġwant":2992,"Ġdoubled":2993,"eeze":2994,"ĠRomano":2995,"dish":2996,"Ġbeets":2997,"enison":2998,"Ġgerm":2999,"ĠOne":3000,"ĠPickles":3001,"rye":3002,"Ġcored":3003,"bu":3004,"with":3005,"ĠPan":3006,"ier":3007,"Ġgi":3008,"Ġrye":3009,"irloin":3010,"Ġpopped":3011,"ĠPack":3012,"Ġbetter":3013,"Ġprunes":3014,"ĠTort":3015,"aj":3016,"Ġcarefully":3017,"Ġsweetener":3018,"Ġeverything":3019,"ĠTuna":3020,"ĠMeasure":3021,"add":3022,"ĠQuiche":3023,"Ġindivid":3024,"Ġprefer":3025,"Ġdel":3026,"bury":3027,"approximately":3028,"Ġcashew":3029,"uncooked":3030,"Ġgreens":3031,"ĠCheesecake":3032,"Ser":3033,"Ġgall":3034,"ĠPr":3035,"Ġvegg":3036,"ountry":3037,"Ġherbs":3038,"acho":3039,"isket":3040,"ĠChristmas":3041,"Ġcustard":3042,"Ġbrandy":3043,"ai":3044,"ĠOf":3045,"Ġmeas":3046,"28":3047,"emade":3048,"Ġreduced":3049,"Ġbubbles":3050,"Ġwashed":3051,"Ġgrits":3052,"ĠOver":3053,"ĠVeg":3054,"save":3055,"Ġlingu":3056,"Ġdrizzle":3057,"Ġends":3058,"elph":3059,"ĠEn":3060,"iladelph":3061,"iladelphia":3062,"Ġhold":3063,"Ch":3064,"Ġbig":3065,"iron":3066,"ople":3067,"ĠFlat":3068,"ĠMarinate":3069,"mb":3070,"sm":3071,"ages":3072,"Ġmuch":3073,"ĠPhiladelphia":3074,"Ġveal":3075,"unt":3076,"Ġact":3077,"of":3078,"Ġsirloin":3079,"Ġtouch":3080,"ross":3081,"ĠFlatten":3082,"ĠCrust":3083,"Ġfettuc":3084,"etiz":3085,"umbo":3086,"undiluted":3087,"ty":3088,"Ġleave":3089,"Ġunsifted":3090,"Ġdep":3091,"ĠMar":3092,"boned":3093,"ird":3094,"ily":3095,"ĠTrim":3096,"ĠDough":3097,"Ġburn":3098,"Ġpuff":3099,"Ġfrost":3100,"Ġflatten":3101,"Ġtorn":3102,"ĠKraft":3103,"Ġtid":3104,"Ġstart":3105,"Ġcontainers":3106,"mel":3107,"ĠBur":3108,"ĠMeatballs":3109,"by":3110,"Ġdeboned":3111,"Ġopen":3112,"Ġactive":3113,"ĠCinnamon":3114,"aster":3115,"Ġtwice":3116,"Ġpear":3117,"Ġmarinate":3118,"Ġcoating":3119,"mix":3120,"ĠCol":3121,"ĠCrack":3122,"Ġmein":3123,"Ġoysters":3124,"Ġinside":3125,"Ġpreven":3126,"Ġtidbits":3127,"flower":3128,"Ġwork":3129,"ills":3130,"Ġveggies":3131,"ĠChowder":3132,"Ġring":3133,"Ġsauteed":3134,"Ġscallops":3135,"bo":3136,"elli":3137,"Ġsave":3138,"ĠGrill":3139,"ĠLeave":3140,"Ġsprigs":3141,"tender":3142,"bone":3143,"ĠParty":3144,"ady":3145,"ank":3146,"Ġreach":3147,"orets":3148,"Ġsoak":3149,"Ġfruits":3150,"pro":3151,"Ġoverb":3152,"small":3153,"Ġverm":3154,"Ġoiled":3155,"Ġrese":3156,"Ġwafer":3157,"reserve":3158,"Ġprevent":3159,"Ġtin":3160,"Ġpeople":3161,"ula":3162,"Ġpoint":3163,"Ġpounds":3164,"ĠScalloped":3165,"Ġsit":3166,"ĠCandy":3167,"Ġflake":3168,"Ġflorets":3169,"Ġrun":3170,"ĠTexas":3171,"efore":3172,"Ġbit":3173,"Ġsunflower":3174,"Ġindividual":3175,"nation":3176,"Ġlevel":3177,"Ġartichoke":3178,"asily":3179,"ĠFritos":3180,"Ġtrim":3181,"Ġbeater":3182,"Ġthan":3183,"Ġpared":3184,"Ġeat":3185,"Ġdot":3186,"ĠWal":3187,"Ġits":3188,"Ġlump":3189,"Ġspears":3190,"ĠGarlic":3191,"ity":3192,"illsbury":3193,"Ġcrunchy":3194,"uncan":3195,"erbet":3196,"Ġeasily":3197,"Ġlook":3198,"agon":3199,"asagne":3200,"zo":3201,"esy":3202,"Ġmost":3203,"Ġabsorbed":3204,"ĠSouth":3205,"ĠHash":3206,"crumb":3207,"oppy":3208,"ĠCal":3209,"cut":3210,"ths":3211,"ĠDate":3212,"ĠHom":3213,"ĠCarnation":3214,"Ġ36":3215,"ipton":3216,"Ġsoften":3217,"fresh":3218,"med":3219,"Ġold":3220,"Ġline":3221,"ĠBen":3222,"ĠThaw":3223,"Ġgiven":3224,"Ġkind":3225,"Ġcakes":3226,"Ġtbsp":3227,"Ġradish":3228,"ĠChex":3229,"redge":3230,"Ġfollowing":3231,"ĠBefore":3232,"Ġsections":3233,"ĠMold":3234,"ĠLipton":3235,"clu":3236,"Ġgallon":3237,"ffle":3238,"Ġspat":3239,"ĠVal":3240,"Ġshap":3241,"Ġthese":3242,"airy":3243,"Ġmeasuring":3244,"may":3245,"thy":3246,"ĠSalmon":3247,"Ġshall":3248,"Ġoptional":3249,"ĠPillsbury":3250,"Ġpeppercorn":3251,"Ġloos":3252,"Ġdiscard":3253,"ĠHe":3254,"ĠHoney":3255,"ĠEnjoy":3256,"ĠUncle":3257,"ecorate":3258,"ĠDon":3259,"ĠDuncan":3260,"Ġliver":3261,"orning":3262,"Up":3263,"io":3264,"ĠSave":3265,"ĠFavorite":3266,"roll":3267,"Serves":3268,"geal":3269,"ĠCheesy":3270,"Ġspatula":3271,"Fat":3272,"ĠCre":3273,"asting":3274,"Ġdessert":3275,"ending":3276,"oe":3277,"areri":3278,"ĠGinger":3279,"ĠFlour":3280,"Ġboils":3281,"iladas":3282,"low":3283,"Ġlite":3284,"Ġrep":3285,"Ġblending":3286,"gin":3287,"Ġbrisket":3288,"Ġounce":3289,"Ġcashews":3290,"ents":3291,"ĠCrunch":3292,"Ġdissolves":3293,"ĠToast":3294,"Ġent":3295,"ĠDice":3296,"oliday":3297,"ĠValley":3298,"Ġway":3299,"umm":3300,"Ġsherbet":3301,"ĠStro":3302,"ĠGrandma":3303,"ĠAlternate":3304,"areribs":3305,"Ġ17":3306,"Ġpossible":3307,"Ġwet":3308,"Ġdairy":3309,"ĠMilk":3310,"Ġcolored":3311,"Ġalternating":3312,"Ġpint":3313,"enn":3314,"ĠTots":3315,"ĠRel":3316,"Ġaway":3317,"ĠHines":3318,"Ġsnipped":3319,"Ġtriang":3320,"ium":3321,"ĠEggs":3322,"ĠMushrooms":3323,"obs":3324,"Ġchow":3325,"vert":3326,"rawfish":3327,"Ġcanola":3328,"Ġcleaned":3329,"Ġ275":3330,"oli":3331,"Ġskins":3332,"Ġroasted":3333,"ĠRelish":3334,"ĠBatter":3335,"Ġunbeaten":3336,"ĠCrock":3337,"Ġrectangle":3338,"Ġradishes":3339,"Makes":3340,"Ġsolid":3341,"Ġpower":3342,"icelli":3343,"Ġsaltine":3344,"ect":3345,"Ġstiffly":3346,"ĠGrate":3347,"omme":3348,"ĠCookie":3349,"lined":3350,"Ġbrownie":3351,"Ġpeppercorns":3352,"Ġtherm":3353,"Ġdoz":3354,"ĠSkillet":3355,"Ġvenison":3356,"Ġcooker":3357,"Ġpimientos":3358,"Ġsized":3359,"Ġstarts":3360,"arge":3361,"ourbon":3362,"Ġloin":3363,"ĠBall":3364,"ĠPuff":3365,"ĠWheat":3366,"ĠNoodle":3367,"ometer":3368,"Ġdiagon":3369,"ĠApplesauce":3370,"ory":3371,"Ġthermometer":3372,"idden":3373,"ĠMom":3374,"Ġalum":3375,"Ġfinish":3376,"Ġcross":3377,"Ġfran":3378,"Ġentire":3379,"Ġbasting":3380,"ĠCakes":3381,"Ġgreat":3382,"ĠDinner":3383,"except":3384,"Ġstuffed":3385,"tal":3386,"Ġconsomme":3387,"ĠMarinated":3388,"Ġounces":3389,"ght":3390,"ĠHidden":3391,"iffy":3392,"fro":3393,"ĠRub":3394,"Ġhandle":3395,"crumbs":3396,"Ġscoop":3397,"ci":3398,"ouse":3399,"inning":3400,"Ġblanch":3401,"ĠGolden":3402,"ajun":3403,"Ġiron":3404,"alade":3405,"Ġfit":3406,"irl":3407,"ganoff":3408,"isses":3409,"cluding":3410,"ib":3411,"Ġmace":3412,"Ġcloth":3413,"ĠNor":3414,"mbles":3415,"18":3416,"Ġflavors":3417,"ĠOreos":3418,"Ġtests":3419,"Ġresembles":3420,"sugar":3421,"ĠShred":3422,"atur":3423,"ĠSandwich":3424,"Ġstack":3425,"proof":3426,"ĠAn":3427,"ina":3428,"Ġpints":3429,"Ġdoes":3430,"ond":3431,"mint":3432,"ĠButtermilk":3433,"Ġracks":3434,"Ġfive":3435,"Ġdump":3436,"tils":3437,"vings":3438,"Ġnear":3439,"Ġpull":3440,"Ġplac":3441,"ĠVanilla":3442,"lean":3443,"ĠVery":3444,"St":3445,"Ġyams":3446,"ĠStroganoff":3447,"Ġcutlets":3448,"eyed":3449,"Ġenvelopes":3450,"Ġshallots":3451,"Ġdeve":3452,"Ġmon":3453,"ĠSlaw":3454,"Ġrounds":3455,"Ġbreadcrumbs":3456,"Ġcandies":3457,"Ġparty":3458,"ules":3459,"Ġpers":3460,"ĠNew":3461,"ĠCarrots":3462,"Ġblanched":3463,"17":3464,"Ġster":3465,"Ġcome":3466,"Ġdipped":3467,"Ġvermicelli":3468,"Ġbottles":3469,"alf":3470,"ellini":3471,"ĠJiffy":3472,"Ġgranules":3473,"Ġlinguine":3474,"malade":3475,"Ġdice":3476,"isted":3477,"Ġmarmalade":3478,"okes":3479,"ead":3480,"ĠPl":3481,"ĠFrozen":3482,"Ġcircle":3483,"Ġprepare":3484,"ĠCajun":3485,"Ġstring":3486,"urple":3487,"ĠLayered":3488,"dry":3489,"istach":3490,"Ġmorning":3491,"azed":3492,"Ġlamb":3493,"ĠCreole":3494,"ĠStart":3495,"Ġlentils":3496,"Ġoverbake":3497,"Ġtiny":3498,"ami":3499,"ĠAlmon":3500,"Ġown":3501,"Ġwra":3502,"Ġpancake":3503,"Ġhalfway":3504,"eness":3505,"Ġclam":3506,"Ġpacket":3507,"igor":3508,"ĠSeed":3509,"ĠPeg":3510,"Ġscrap":3511,"Ġbrand":3512,"arbecu":3513,"ĠFlake":3514,"ĠEggplant":3515,"amen":3516,"ĠBacon":3517,"Ġnacho":3518,"Ġhominy":3519,"Ġ32":3520,"Ġdust":3521,"Ġvigor":3522,"Ġovercook":3523,"fe":3524,"ĠTea":3525,"Ġbowls":3526,"Ġdishes":3527,"Ġtenderloin":3528,"ecial":3529,"mar":3530,"ouffle":3531,"Pot":3532,"agu":3533,"Ġjalapenos":3534,"ĠCom":3535,"ĠSea":3536,"Ġlisted":3537,"ĠBar":3538,"ĠIr":3539,"ĠWork":3540,"ĠHomemade":3541,"Ġcooling":3542,"ĠEnchiladas":3543,"21":3544,"land":3545,"ĠImmediately":3546,"Ġfingers":3547,"Ġ+":3548,"Ġplum":3549,"Ġteaspoonful":3550,"Ġreaches":3551,"oz":3552,"Ġshort":3553,"Ġrepeat":3554,"istachio":3555,"Ġvigorously":3556,"Ġbarley":3557,"Ġportions":3558,"Ġtray":3559,"Ġpurple":3560,"ĠFish":3561,"Ġacross":3562,"mold":3563,"ĠSpicy":3564,"ĠHerb":3565,"Ġroaster":3566,"ĠGrind":3567,"Th":3568,"butter":3569,"Ġbourbon":3570,"ouble":3571,"ĠWhisk":3572,"ĠHeath":3573,"Ġdogs":3574,"ruc":3575,"vol":3576,"ĠHaw":3577,"asa":3578,"arbecued":3579,"Ġgo":3580,"ĠRamen":3581,"ĠCarefully":3582,");":3583,"Ġlater":3584,"ĠProcess":3585,"aiian":3586,"32":3587,"ĠPeppers":3588,"Ġdoneness":3589,"aki":3590,"rape":3591,"ĠHave":3592,"ranspar":3593,"ĠHawaiian":3594,"just":3595,"Ġtranspar":3596,"ĠAp":3597,"Ġpeppermint":3598,"Ġflavorings":3599,"Ġcaps":3600,"volone":3601,"sized":3602,"Ġsw":3603,"Ġparmesan":3604,"ĠRagu":3605,"Ġbeginning":3606,"ĠCracker":3607,"Ġtransparent":3608,"be":3609,"ua":3610,"Ġeasy":3611,"Ġpods":3612,"iander":3613,"acci":3614,"Ġdepending":3615,"te":3616,"tin":3617,"Ġfire":3618,"ghorn":3619,"Ġinstead":3620,"Ġcrosswise":3621,"Ġwok":3622,"Ġspareribs":3623,"Ġass":3624,"amily":3625,"ures":3626,"ĠHoliday":3627,"Ġgu":3628,"Ġartichokes":3629,"ĠTomatoes":3630,"ale":3631,"rid":3632,"Ġlee":3633,"Ġshapes":3634,"eur":3635,"ouple":3636,"ĠMixture":3637,"ĠLower":3638,"Ġabove":3639,"Ġdashes":3640,"rants":3641,"thern":3642,"Ġsticky":3643,"ĠBrittle":3644,"Ġcoriander":3645,"ĠDumplings":3646,"ĠColby":3647,"large":3648,"Ġsprinkled":3649,"upper":3650,"Ġsix":3651,"Ġ100":3652,"Ġfully":3653,"ĠCountry":3654,"itch":3655,"ĠShe":3656,"Ġlower":3657,"ĠIrish":3658,"Ġcrawfish":3659,"Ġenjoy":3660,"ielb":3661,"Ġdebone":3662,"Ġcurrants":3663,"ĠProvolone":3664,"ĠPinch":3665,"ĠTear":3666,"ĠAunt":3667,"ither":3668,"ĠPretz":3669,"ĠKeeps":3670,"ĠSouthern":3671,"ĠCur":3672,"liced":3673,"Ġnew":3674,"ĠFeta":3675,"Ġcolander":3676,"Ġtight":3677,"onghorn":3678,"Ġhole":3679,"Ġsticking":3680,"Ġbunches":3681,"Ġcapers":3682,"Ġpies":3683,"Ġshelled":3684,"Ġmozzarella":3685,"Ġtoothpicks":3686,"form":3687,"ĠAlmond":3688,"yaki":3689,"Ġcouple":3690,"ĠBaste":3691,"amole":3692,"Ġlarger":3693,"box":3694,"If":3695,"fur":3696,"kfur":3697,"acamole":3698,"ĠMed":3699,"Ġthigh":3700,"ĠFin":3701,"Ġzest":3702,"Ġbecom":3703,"Le":3704,"Ġnoodle":3705,"Ġliqueur":3706,"Ġalternate":3707,"white":3708,"Ġleftovers":3709,"ĠBurg":3710,"Ġty":3711,"Ġroot":3712,"Ġgenerously":3713,"Ġslicing":3714,"ameter":3715,"maine":3716,"Ġdeveined":3717,"ĠSeaf":3718,"!)":3719,"ilized":3720,"Ġoyster":3721,"ban":3722,"lua":3723,"Ġbase":3724,"ald":3725,"ĠBarbecued":3726,"Ġdiameter":3727,"ahlua":3728,"ĠCustard":3729,"Ġbrowning":3730,"ĠLonghorn":3731,"Add":3732,"orted":3733,"ĠEqual":3734,"Ġmoisten":3735,"ĠFreezes":3736,"Ġsterilized":3737,"Microwave":3738,"ĠSteam":3739,"ĠGround":3740,"ielbasa":3741,"ĠTri":3742,"Ġfrypan":3743,"Ġcurd":3744,"Ġdiagonally":3745,"30":3746,"Ġcore":3747,"Ġloosely":3748,"ĠApricot":3749,"hy":3750,"irds":3751,"abet":3752,"Ġportion":3753,"Ġtrimmed":3754,"ĠNorthern":3755,"Ġscraping":3756,"medium":3757,"heese":3758,"Ġbrownies":3759,"Ġseaf":3760,"Ġcongeal":3761,"Ġromaine":3762,"Ġseafood":3763,"ĠPoppy":3764,"Ġstrain":3765,"eriyaki":3766,"nox":3767,"Ġbecomes":3768,"ĠBay":3769,"ĠDouble":3770,"safe":3771,"etizer":3772,"ĠOil":3773,"uice":3774,"Ġ48":3775,"Ġwon":3776,"Ġnight":3777,"Ġchickens":3778,"ĠFood":3779,"ĠNoodles":3780,"ĠPancakes":3781,"more":3782,"Ġbur":3783,"ĠKnox":3784,"Ġ70":3785,"Ġcombin":3786,"tures":3787,"ari":3788,"ĠPer":3789,"ĠAsparagus":3790,"Ġrotini":3791,"ĠWalnut":3792,"Ġsqueez":3793,"ousse":3794,"ĠScald":3795,"obster":3796,"atural":3797,"itchen":3798,"ĠJo":3799,"Ġdipping":3800,"ĠDredge":3801,"ĠWater":3802,"ĠRefrigerator":3803,"Ġbegin":3804,"Ġthighs":3805,"Ġsum":3806,"ached":3807,"ĠOri":3808,"Ġfollows":3809,"ĠClean":3810,"ored":3811,"Ġmixtures":3812,"Ġfrankfur":3813,"!!":3814,"mp":3815,"aters":3816,"Ġsnow":3817,"Ġsummer":3818,"ance":3819,"Ġtriangles":3820,"round":3821,"Ġgarban":3822,"ems":3823,"ĠEx":3824,"ĠSqueeze":3825,"Ġgenerous":3826,"ĠSeafood":3827,"Ġman":3828,"Ġdiv":3829,"ĠAt":3830,"ĠIs":3831,"ounts":3832,"Ġinstruc":3833,"mann":3834,"ned":3835,"Ġmet":3836,"ĠServings":3837,"Ġdelicious":3838,"ĠRhubarb":3839,"ĠHouse":3840,"Ġpretzel":3841,"dium":3842,"ĠLime":3843,"ĠFashioned":3844,"Ġsmaller":3845,"Ġpressing":3846,"ĠDecorate":3847,"ĠUps":3848,"ĠStrain":3849,"Ġsandwiches":3850,"bro":3851,"uds":3852,"Ġoat":3853,"Ġlog":3854,"Ġlasagne":3855,"Ġpea":3856,"ĠBaker":3857,"ĠTest":3858,"ĠAb":3859,"Ġhen":3860,"ĠIc":3861,"ĠHell":3862,"Ġcracked":3863,"Ġpackets":3864,"ĠScr":3865,"Lemon":3866,"cine":3867,"Ġrich":3868,"Ġsqueeze":3869,"Ġspoonful":3870,"ple":3871,"edish":3872,"ĠPop":3873,"ĠDeep":3874,"Ġscant":3875,"Ġdumplings":3876,"Ġtype":3877,"Ġtail":3878,"uss":3879,"ĠMolasses":3880,"umps":3881,"ĠButterscotch":3882,"Ġseparately":3883,"ĠScoop":3884,"igin":3885,"angular":3886,"Ġbath":3887,"Ġsalami":3888,"ĠAs":3889,"chopped":3890,"Ġdivide":3891,"pid":3892,"ron":3893,"rise":3894,"Ġrapid":3895,"Ġancho":3896,"ĠKahlua":3897,"Ġdevil":3898,"rops":3899,"efruit":3900,"emeat":3901,"Ġamounts":3902,"ĠUpside":3903,"Ġnatural":3904,"Ġfrothy":3905,"ĠAlso":3906,"beaten":3907,"iw":3908,"ĠCauliflower":3909,"ĠMandarin":3910,"Ġseam":3911,"ĠHun":3912,"Ġslits":3913,"ĠThese":3914,"ĠStuffing":3915,"Ġtablespoonfuls":3916,"abetic":3917,"iginal":3918,"ord":3919,"Ġright":3920,"Ġgarbanzo":3921,"ĠPol":3922,"ĠPea":3923,"ddle":3924,"ĠNe":3925,"ĠShell":3926,"Ġspreading":3927,"Ġbubbling":3928,"icotti":3929,"46":3930,"pec":3931,"eful":3932,"ĠLa":3933,"ĠLast":3934,"Ġrectangular":3935,"Ġinstructions":3936,"pre":3937,"ĠSouffle":3938,"Ġleft":3939,"ĠRea":3940,"ĠFilling":3941,"djust":3942,"Ġsaltines":3943,"ĠUnmold":3944,"Ġstarting":3945,"ĠPuffs":3946,"Ġtopped":3947,"Ġjumbo":3948,"Ġanise":3949,"Ġblackberry":3950,"Ġpressed":3951,"anny":3952,"ux":3953,"ĠSwedish":3954,"Ġcrispy":3955,"ĠGlaze":3956,"ummy":3957,"This":3958,"ridge":3959,"Fry":3960,"Ġblock":3961,"peas":3962,"ĠSeven":3963,"Ġassorted":3964,"ĠAbout":3965,"Ġouts":3966,"Ġfinger":3967,"ornia":3968,"ifornia":3969,"Ġsimmering":3970,"ĠCucumb":3971,"Ġflank":3972,"riddle":3973,"ĠBeaters":3974,"mit":3975,"ara":3976,"alia":3977,"Ġgone":3978,"irgin":3979,"Ġthird":3980,"ental":3981,"rs":3982,"Ġpistachio":3983,"ĠBowl":3984,"ĠMedium":3985,"Ġpackages":3986,"ĠShoe":3987,"ĠCalifornia":3988,"Ġsqueezed":3989,"drained":3990,"enough":3991,"Ġwish":3992,"ĠMan":3993,"Ġkielbasa":3994,"Ġcovering":3995,"wy":3996,"Ġchick":3997,"Ġincluding":3998,"Ġrub":3999,"ĠCheck":4000,"Ġgloss":4001,"igs":4002,"ations":4003,"ĠVegetables":4004,"Ġleeks":4005,"ĠPretzel":4006,"Ġdecor":4007,"ĠStick":4008,"ĠClam":4009,"ĠBreasts":4010,"usages":4011,"Ġnect":4012,"ĠNow":4013,"Ġfrankfurters":4014,"Ġoutside":4015,"Ġ23":4016,"Ġeither":4017,"ĠSurp":4018,"ably":4019,"ĠSpecial":4020,"idalia":4021,"iwi":4022,"Ġdamp":4023,"ĠDirt":4024,"Ġturns":4025,"Ġlumps":4026,"ĠDiscard":4027,"ĠIcing":4028,"Bake":4029,"Ġlink":4030,"iskey":4031,"ĠWatch":4032,"Ġgrapefruit":4033,"Ġfree":4034,"Ġchip":4035,"Ġgriddle":4036,"Ġstrip":4037,"ĠDill":4038,"urk":4039,"Ġlbs":4040,"Ġcareful":4041,"Ġblackberries":4042,"ĠReaLemon":4043,"crisp":4044,"alt":4045,"ĠOp":4046,"ocks":4047,"ĠGravy":4048,"Down":4049,"ico":4050,"ĠInvert":4051,"Ġchile":4052,"Ġsetting":4053,"plain":4054,"spberry":4055,"ĠSpice":4056,"ye":4057,"immon":4058,"Ġovenproof":4059,"Ġheads":4060,"Ġsecure":4061,"iblets":4062,"Do":4063,"go":4064,"ment":4065,"ĠBaking":4066,"Ġbottled":4067,"ĠNest":4068,"Ġlivers":4069,"ushy":4070,"ĠJam":4071,"bleached":4072,"Ġscr":4073,"Ġrib":4074,"ĠGraham":4075,"frozen":4076,"Ġguacamole":4077,"urkee":4078,"ppers":4079,"Ġnice":4080,"ĠDust":4081,"ĠSalsa":4082,"Ġfilled":4083,"ĠFluff":4084,"uxe":4085,"ĠSurprise":4086,"350":4087,"Ġmound":4088,"Ġfridge":4089,"ĠWild":4090,"Ġcupcake":4091,"aps":4092,"ĠYum":4093,"Ġtortellini":4094,"Ġworks":4095,"atfish":4096,"Ġ28":4097,"Ġnavy":4098,"ĠFir":4099,"Ġhandful":4100,"Ġkernels":4101,"Ġcornflake":4102,"half":4103,"ĠSec":4104,"Ġcoals":4105,"Ġclos":4106,"Bran":4107,"amic":4108,"ĠRot":4109,"pany":4110,"Ġsection":4111,"Ġprocessed":4112,"Ġdropped":4113,"Ġ200":4114,"umd":4115,"Ġkiwi":4116,"ĠEnchilada":4117,"accioli":4118,"mpty":4119,"Ġcuts":4120,"Ġtips":4121,"Ġsausages":4122,"ĠDurkee":4123,"ĠGranny":4124,"erd":4125,"unn":4126,"ĠVidalia":4127,"Ġlayering":4128,"ĠThoroughly":4129,"Ġchipped":4130,"Ġweek":4131,"fu":4132,"Ġteriyaki":4133,"Ġfast":4134,"otted":4135,"Ġtheir":4136,"ĠSpiced":4137,"Ġliquids":4138,"ĠCups":4139,"Can":4140,"dough":4141,"hot":4142,"Ġomit":4143,"atin":4144,"Ġunbleached":4145,"ĠThey":4146,"ĠHellmann":4147,"ĠPull":4148,"Ġoriginal":4149,"Ġspicy":4150,"ettes":4151,"Ġbarely":4152,"ball":4153,"Ġsoaked":4154,"Ġrab":4155,"meats":4156,"ĠIcebox":4157,"ĠDevil":4158,"etizers":4159,"lien":4160,"ussels":4161,"ĠChow":4162,"Ġjulien":4163,"que":4164,"your":4165,"Ġpine":4166,"Ġwhiskey":4167,"Ġlobster":4168,"ĠKisses":4169,"ĠGrape":4170,"ĠCoca":4171,"Ġmetal":4172,"Ġgets":4173,"Ġslotted":4174,"ĠCheeri":4175,"ĠVelvet":4176,"cell":4177,"Ġwould":4178,"Ġstr":4179,"Ġclub":4180,"Ġmoisture":4181,"rec":4182,"iry":4183,"ummer":4184,"Ġnutmeats":4185,"ĠSnick":4186,"ĠSandwiches":4187,"crease":4188,"Ġcountry":4189,"ĠCres":4190,"ĠMrs":4191,"Ġpectin":4192,"ĠTopping":4193,"ĠQuickly":4194,"Ġpuffed":4195,"ĠSheet":4196,"Ġflame":4197,"ickory":4198,"Ġdeer":4199,"ĠCheerios":4200,"ĠFrit":4201,"ĠGlazed":4202,"ĠTortilla":4203,"ta":4204,"Ġbark":4205,"ĠWarm":4206,"ĠOriental":4207,"cellent":4208,"Ġfamily":4209,"season":4210,"Ġcanning":4211,"Ġworcestershire":4212,"la":4213,"ata":4214,"ĠSummer":4215,"ĠDivan":4216,"alsamic":4217,"ĠTorte":4218,"Ġtails":4219,"Cola":4220,"ĠX":4221,"Ġbatch":4222,"Ġdist":4223,"ĠMc":4224,"ĠDay":4225,"iffer":4226,"Ġsprings":4227,"ĠGingerbread":4228,"Ġnectar":4229,"Low":4230,"dairy":4231,"venly":4232,"Ġconten":4233,"Ġcontin":4234,"ĠReady":4235,"ĠShort":4236,"ĠImp":4237,"Ġlumpy":4238,"Ġchickpeas":4239,"ced":4240,"Ġgrate":4241,"Ġrectangles":4242,"rost":4243,"ĠPark":4244,"ĠFat":4245,"ĠHor":4246,"iah":4247,"etty":4248,"Ġcombination":4249,"ĠNestle":4250,"Cheese":4251,"tAdd":4252,"Ġcard":4253,"Ġplates":4254,"ingersn":4255,"Ġfettuccine":4256,"Ġcantal":4257,"Ġcantaloup":4258,"Free":4259,"ob":4260,"orm":4261,"ĠUnroll":4262,"Ġsprinkles":4263,"24":4264,"kes":4265,"etter":4266,"ennel":4267,"rit":4268,"ĠCub":4269,"ama":4270,"ĠTender":4271,"Ġvari":4272,"efrost":4273,"arboil":4274,"fle":4275,"ĠJer":4276,"itation":4277,"terol":4278,"Ġhair":4279,"Ġsaff":4280,"ĠYeast":4281,"olesterol":4282,"ĠKn":4283,"Ġrunn":4284,"ĠCucumber":4285,"Ġcre":4286,"aky":4287,"ĠRuss":4288,"ĠKitchen":4289,"Ġharden":4290,"odka":4291,"tich":4292,"Ġes":4293,"Ġbri":4294,"Ġbalsamic":4295,"ĠMeringue":4296,"ieve":4297,"Ġmincemeat":4298,"Ġtoppings":4299,"Ġcircles":4300,"ĠImpossible":4301,"yst":4302,"Ġtill":4303,"ĠSun":4304,"Ġspir":4305,"Cr":4306,"Ups":4307,"ala":4308,"Ġ22":4309,"ĠAu":4310,"ello":4311,"Ġcryst":4312,"ĠDash":4313,"aved":4314,"Ġcartons":4315,"whole":4316,"ĠRaspberry":4317,"Ġmed":4318,"Ġfennel":4319,"ĠBetty":4320,"ĠTot":4321,"ĠLaw":4322,"ocktail":4323,"Ġpurpose":4324,"rib":4325,"ĠWings":4326,"Ġraisin":4327,"ĠSuper":4328,"??":4329,"fingers":4330,"ĠSar":4331,"Ġlin":4332,"ĠPies":4333,"Ġsubstituted":4334,"Ġstrong":4335,"29":4336,"Ġbas":4337,"Ġfillet":4338,"unk":4339,"Ġskew":4340,"Ġtossing":4341,"You":4342,"uty":4343,"Ġglasses":4344,"flour":4345,"ĠZest":4346,"ĠPral":4347,"ĠPrick":4348,"Ġbeing":4349,"Ġsoon":4350,"Ġwarmed":4351,"Ġtest":4352,"ret":4353,"ĠPin":4354,"Ġhickory":4355,"ĠMustard":4356,"ĠFran":4357,"ĠLasagne":4358,"ubble":4359,"ĠCrunchy":4360,"ĠMonkey":4361,"Ġlooks":4362,"Ġcreme":4363,"Ġdrink":4364,"oose":4365,"ieners":4366,"arden":4367,"ĠKing":4368,"ĠQuaker":4369,"Ġpressure":4370,"ĠSnow":4371,"Ġplaced":4372,"ĠLawry":4373,"dr":4374,"ĠMy":4375,"ĠMac":4376,"Ġpancakes":4377,"ĠHunt":4378,"ounder":4379,"ĠSoft":4380,"Ġvodka":4381,"ĠAm":4382,"ifici":4383,"green":4384,"ĠArtich":4385,"ĠDeluxe":4386,"ĠCompany":4387,"ause":4388,"ls":4389,"ants":4390,"ĠCocktail":4391,"ĠSauerkraut":4392,"Ġmanicotti":4393,"Ġcantaloupe":4394,"ms":4395,"uy":4396,"Ġthere":4397,"Ġclose":4398,"Ġartifici":4399,"Ġbecome":4400,"Ġcontents":4401,"Ġbed":4402,"Ġgumd":4403,"ĠBon":4404,"ĠTime":4405,"ains":4406,"ĠSoda":4407,"Ġtester":4408,"ifferent":4409,"Ġlots":4410,"like":4411,"undy":4412,"Ġnondairy":4413,"cooking":4414,"ĠGrilled":4415,"ties":4416,"Ġmust":4417,"orch":4418,"ĠPowder":4419,"ĠMag":4420,"Ġthirds":4421,"Ġimitation":4422,"Ġtouched":4423,"ĠPolish":4424,"ured":4425,"Ġberry":4426,"Ġones":4427,"Ġlegs":4428,"ĠChess":4429,"ĠWa":4430,"ĠGarden":4431,"eck":4432,"Ġpatty":4433,"ĠShells":4434,"Fashioned":4435,"asier":4436,"Ġsodium":4437,"ĠRing":4438,"Ġkept":4439,"Ġdoor":4440,"ĠGratin":4441,"ĠOnions":4442,"ĠSkim":4443,"ĠSmith":4444,"Ġloose":4445,"melon":4446,"ĠOpen":4447,"ĠFirst":4448,"May":4449,"finger":4450,"Ġlady":4451,"ĠPure":4452,"ĠMu":4453,"Ġjack":4454,"Ġupside":4455,"soft":4456,"Ġlids":4457,"Ġcalorie":4458,"Ġperson":4459,"Ġartificial":4460,"It":4461,"cross":4462,"don":4463,"mild":4464,"att":4465,"Ġinvert":4466,"ĠSupper":4467,"ĠBy":4468,"margarine":4469,"osh":4470,"salt":4471,"ug":4472,"Ġears":4473,"Ġstarch":4474,"Ġsaving":4475,"Ġcooks":4476,"amboo":4477,"Ġgumdrops":4478,"ĠMiss":4479,"ĠVegg":4480,"Ġusually":4481,"Ġmarinated":4482,"Ġcav":4483,"Ġtam":4484,"Ġbamboo":4485,"Ġtofu":4486,"until":4487,"Ġvirgin":4488,"ĠMil":4489,"adle":4490,"Ġgrind":4491,"ĠThree":4492,"whe":4493,"Ġfigs":4494,"oos":4495,"Ġflaky":4496,"Ġhock":4497,"ĠInd":4498,"ĠLight":4499,"ĠHeal":4500,"ĠOli":4501,"Ġtable":4502,"Ġscorch":4503,"ĠScrape":4504,"ingersnaps":4505,"Ġequ":4506,"Ġdoesn":4507,"ĠBurgundy":4508,"Ġrapidly":4509,"Ġcontinu":4510,"ĠZesty":4511,"loc":4512,"Ġmany":4513,"utney":4514,"ĠBetter":4515,"ĠFettuc":4516,"Ġmelon":4517,"Ġcools":4518,"iana":4519,"ĠDiabetic":4520,"ĠPuree":4521,"For":4522,"bran":4523,"ws":4524,"ĠCold":4525,"iti":4526,"Ġhollow":4527,"Ġkisses":4528,"Ġslaw":4529,"ango":4530,"hydr":4531,"ĠIsland":4532,"unnel":4533,"ellogg":4534,"baked":4535,"ino":4536,"Ġ19":4537,"Ġeasier":4538,"ĠSam":4539,"reek":4540,"ĠSnack":4541,"Ġrim":4542,"Ġtast":4543,"Ġstro":4544,"ĠCocoa":4545,"Ġelastic":4546,"Ġpita":4547,"lapping":4548,"ments":4549,"sliced":4550,"Ġwieners":4551,"orr":4552,"Ġdate":4553,"ĠMeal":4554,"Ġwithin":4555,"Ġstored":4556,"Ġnic":4557,"aya":4558,"iploc":4559,"acaroon":4560,"Ġperfor":4561,"cloth":4562,"Ġmostaccioli":4563,"ĠPopcorn":4564,"ĠCrescent":4565,"Ġcount":4566,"inz":4567,"Ġwas":4568,"ita":4569,"Ġdis":4570,"Ġdecorate":4571,"Ġoverlapping":4572,"ĠGold":4573,"isscross":4574,"Ġdeg":4575,"tC":4576,"Ġcatfish":4577,"Ġsuit":4578,"ĠMary":4579,"ĠRi":4580,"Ġ65":4581,"ĠKellogg":4582,"ĠCoke":4583,"ĠPatties":4584,"Ġpureed":4585,"regular":4586,"Ġdredge":4587,"Ġnow":4588,"Ġpersimmon":4589,"Be":4590,"arian":4591,"Ġres":4592,"Ġreheat":4593,"oses":4594,"enty":4595,"ĠThicken":4596,"alorie":4597,"ĠPickled":4598,"recipe":4599,"seasoned":4600,"ĠCube":4601,"Ġnicely":4602,"cial":4603,"Ġmicrow":4604,"ones":4605,"oux":4606,"Ġhow":4607,"ĠOys":4608,"ĠSaut":4609,"ĠBrunch":4610,"Ġlinks":4611,"ĠParkay":4612,"bit":4613,"Ġbutternut":4614,"Ġcheesecloth":4615,"ĠRich":4616,"ĠHea":4617,"ĠPeas":4618,"ĠNot":4619,"Ġquite":4620,"oulash":4621,"fryer":4622,"met":4623,"you":4624,"onge":4625,"ĠSavor":4626,"ĠMousse":4627,"Ġblade":4628,"Ġheating":4629,"ĠEl":4630,"ĠPear":4631,"den":4632,"Ġtex":4633,"icles":4634,"ĠMini":4635,"Ġputting":4636,"Ġpreparing":4637,"Ġstewing":4638,"uel":4639,"ancy":4640,"Ġloses":4641,"unc":4642,"riz":4643,"atever":4644,"mercial":4645,"ĠVenison":4646,"ĠNuts":4647,"Ġtested":4648,"pecans":4649,"ĠSavory":4650,"luc":4651,"Ġlove":4652,"ĠTr":4653,"ĠAdjust":4654,"Ġhens":4655,"ĠMa":4656,"Ġmixes":4657,"Ġthread":4658,"melet":4659,"ĠInto":4660,"ueur":4661,"ĠBrussels":4662,"ĠMagic":4663,"Ġladyfingers":4664,"osher":4665,"Ġtexture":4666,"Nuts":4667,"cream":4668,"atoni":4669,"rew":4670,"Ġwil":4671,"ĠPenn":4672,"ĠMaz":4673,"ĠLou":4674,"ĠBrownie":4675,"ĠZiploc":4676,"alapeno":4677,"Ġmolds":4678,"Ġpreferred":4679,"ĠKnorr":4680,"Fried":4681,"tand":4682,"Ġcit":4683,"Ġpats":4684,"ĠBra":4685,"une":4686,"Ġsee":4687,"Ġseg":4688,"quet":4689,"ĠGoulash":4690,"Ġhomemade":4691,"ĠHearty":4692,"ĠHeinz":4693,"Ġplacing":4694,"Ġmonths":4695,"ĠArtichoke":4696,"ĠMilnot":4697,"lo":4698,"Ġtall":4699,"ĠBuds":4700,"top":4701,"Ġshoo":4702,"Ġbottoms":4703,"Ġfreezes":4704,"sticks":4705,"Ġholds":4706,"melted":4707,"ĠSaran":4708,"Ġdegree":4709,"ipp":4710,"Ġmushy":4711,"Ġcommercial":4712,"ĠSwirl":4713,"canned":4714,"ĠRoasted":4715,"ĠCrispy":4716,"Ġjulienne":4717,"In":4718,"light":4719,"pes":4720,"Ġsieve":4721,"Ġtrans":4722,"ence":4723,"owers":4724,"Ġhel":4725,"ĠRound":4726,"Ġfourths":4727,"Ġsteamed":4728,"ĠRussian":4729,"ĠRibs":4730,"Sueur":4731,"duty":4732,"juice":4733,"Ġtransfer":4734,"utes":4735,"illed":4736,"ĠMother":4737,"Ġroux":4738,"ards":4739,"Ġcrusty":4740,"ways":4741,"ĠNever":4742,"Ġspiral":4743,"19":4744,"ware":4745,"Ġcast":4746,"Ġsom":4747,"Ġtear":4748,"Ġovermix":4749,"Ġpouring":4750,"ĠJelly":4751,"sert":4752,"Ġlimas":4753,"from":4754,"Ġnearly":4755,"ĠMedley":4756,"Ġstrokes":4757,"Ġtransluc":4758,"..":4759,"oat":4760,"tP":4761,"Ġfashion":4762,"Ġad":4763,"ĠBas":4764,"ada":4765,"efly":4766,"ĠCreamed":4767,"iffon":4768,"Ġsegments":4769,",\\":4770,"gry":4771,"inity":4772,"Ġtie":4773,"Ġfile":4774,"Ġlg":4775,"ĠTre":4776,"Ġrump":4777,"Ġtenderiz":4778,"fect":4779,"ĠLeSueur":4780,"oulder":4781,"ĠAlternately":4782,"prefer":4783,"Ġesc":4784,"Ġshoots":4785,"Mix":4786,"self":4787,"Ġmango":4788,"rout":4789,"Ġsuch":4790,"ĠPap":4791,"imm":4792,"ĠInsert":4793,"ĠYellow":4794,"Ġdog":4795,"Ġdirects":4796,"ĠButterfinger":4797,"ĠMazola":4798,"Ġtranslucent":4799,"Sp":4800,"cress":4801,"inds":4802,"ĠMud":4803,"chicken":4804,"abel":4805,"pared":4806,"Ġtwist":4807,"ukes":4808,"Ġlinguini":4809,"lime":4810,"pack":4811,"Ġtotal":4812,"ĠCa":4813,"ĠTam":4814,"ĠTet":4815,"ĠTaste":4816,"ĠWine":4817,"enster":4818,"Ġrig":4819,"ounter":4820,"Ġpoke":4821,"ĠAppetizer":4822,"ĠFinely":4823,"ĠMuenster":4824,"ĠHeavenly":4825,"40":4826,"ĠCat":4827,"ites":4828,"ĠBou":4829,"razz":4830,"Ġshoulder":4831,"ĠCooking":4832,"tty":4833,"ĠJalapeno":4834,"ĠThin":4835,"Ġchunked":4836,"Ġvariet":4837,"Ġbriefly":4838,"ĠSamuel":4839,"Ġperforations":4840,"ĠTetrazz":4841,"nog":4842,"vies":4843,"Ġcounter":4844,"Ġbaste":4845,"Ġcheck":4846,"Ġshaved":4847,"eath":4848,"Ġitems":4849,"Ġliquor":4850,"Ġchillies":4851,"Ġbutton":4852,"ĠMashed":4853,"ĠHormel":4854,"ĠTetrazzini":4855,"Rice":4856,"Ġmain":4857,"Ġdiluted":4858,"Ġdifferent":4859,"ĠWe":4860,"ĠHour":4861,"emiah":4862,"Ġprecooked":4863,"ĠPastry":4864,"Cheddar":4865,"ĠCalico":4866,"Ġ75":4867,"Ġtough":4868,"Ġbubble":4869,"ĠCelery":4870,"Ġhull":4871,"Ġgarden":4872,"Ġextrac":4873,"ĠChopped":4874,"Ġscrape":4875,"Ġdiet":4876,"teg":4877,"Ġsor":4878,"ĠSu":4879,"ĠPo":4880,"raut":4881,"Ġ90":4882,"ĠJud":4883,"ubbed":4884,"ĠTost":4885,"ĠContains":4886,"Ġbreakfast":4887,"Ġstrainer":4888,"Ġanchovies":4889,"ĠVeggie":4890,"Ġtip":4891,"Ġbun":4892,"ĠGreek":4893,"ĠWhole":4894,"ĠJuice":4895,"ossom":4896,"plants":4897,"ign":4898,"ĠBreast":4899,"etti":4900,"ĠMarsala":4901,"ĠOvernight":4902,"Ġfettucine":4903,"Ġfettucini":4904,"ĠHerbed":4905,"325":4906,"Ġcukes":4907,"Ġmy":4908,"rel":4909,"ales":4910,"Ġlit":4911,"ĠBuns":4912,"Ġflounder":4913,"Ġcreaming":4914,"Ġwatermelon":4915,"Ġsav":4916,"ĠDivinity":4917,"ather":4918,"Ġwrappers":4919,"ĠCurried":4920,"Ġliners":4921,"the":4922,"Ġgive":4923,"unpeeled":4924,"Ġwatercress":4925,"Ġsauc":4926,"ĠFollow":4927,"Ġ500":4928,"ĠHo":4929,"Ġkraut":4930,"ĠEat":4931,"Ġouter":4932,"Ġpreheat":4933,"Ġquiche":4934,"ĠToffee":4935,"ĠMexic":4936,"ĠHealthy":4937,"Ġtenderizer":4938,"Ġextracts":4939,"ints":4940,"ĠTon":4941,"ĠToll":4942,"Ġmarble":4943,"ĠLoos":4944,"ĠHar":4945,"paration":4946,"ĠMoisten":4947,"ield":4948,"Ġglut":4949,"ĠMonte":4950,"Ġimp":4951,"Ġcutters":4952,"ĠTwo":4953,"Ġtriangle":4954,"Ġcongealed":4955,"tega":4956,"Nut":4957,"The":4958,"ek":4959,"Ġ#":4960,"ĠPare":4961,"Ġeggplants":4962,"ĠTast":4963,"Ġwhatever":4964,"ĠFour":4965,"ĠSloppy":4966,"Ġforming":4967,"ailable":4968,"ĠCongeal":4969,"Ġswirl":4970,"375":4971,"alina":4972,"ĠFail":4973,"rowd":4974,"ĠCheeseburger":4975,"ĠGrits":4976,"ĠCurry":4977,"water":4978,"ĠPoke":4979,"ĠRum":4980,"ĠEver":4981,"ĠEmpty":4982,"Ġbreaking":4983,"oston":4984,"ĠTurtle":4985,"law":4986,"estern":4987,"ilute":4988,"Ġfashioned":4989,"Ġinter":4990,"Ġraise":4991,"issipp":4992,"ette":4993,"Ġlimp":4994,"Ġglossy":4995,"ĠOlive":4996,"issippi":4997,"Ġdoll":4998,"etto":4999,"ĠSpr":5000,"Ġturnips":5001,"ĠCrabmeat":5002,"Ġbitter":5003,"Ġrunning":5004,"ĠMississippi":5005,"esto":5006,"Ġdent":5007,"Ġhocks":5008,"ĠPrego":5009,"Ġslivers":5010,"Ġdeli":5011,"ĠBurgers":5012,"Ġdistrib":5013,"Ġrigatoni":5014,"rant":5015,"tBake":5016,"including":5017,"Ġpush":5018,"alaya":5019,"ĠCole":5020,"Ġlot":5021,"ĠAmar":5022,"ĠMor":5023,"berg":5024,"Ġuncover":5025,"Ġformed":5026,"Ġtossed":5027,"inder":5028,"Ġcholesterol":5029,"ĠBoston":5030,"ĠChiffon":5031,"ĠDry":5032,"ĠStr":5033,"ĠChewy":5034,"ĠFlavor":5035,"ambalaya":5036,"ĠReese":5037,"crust":5038,"Ġbecause":5039,"Ġpearl":5040,"ĠCrocker":5041,"Ġclosed":5042,"ĠFritters":5043,"Ġskewers":5044,"wheels":5045,"ĠCatalina":5046,"ket":5047,"Ġgiblets":5048,"Ġlabel":5049,"ĠPush":5050,"Ġcorners":5051,"ĠLea":5052,"Ġ303":5053,"ĠOrtega":5054,"airly":5055,"afing":5056,"Ġloosen":5057,"ĠTrifle":5058,"ĠSnickerd":5059,"ground":5060,"Ġamon":5061,"arrow":5062,"Ġwe":5063,"ĠLingu":5064,"Ġkosher":5065,"Ġziti":5066,"ival":5067,"Ġfinished":5068,"Ġsavory":5069,"~)":5070,"Ġpier":5071,"Ġmousse":5072,"rem":5073,"Ġfairly":5074,"Ġair":5075,"ĠSund":5076,"Ġflowers":5077,"isins":5078,"usel":5079,"ĠGener":5080,"Ġappear":5081,"ĠPreparation":5082,"ĠSho":5083,"Ġprick":5084,"ĠSmooth":5085,"Ġanchovy":5086,"Ġrabbit":5087,"hn":5088,"vi":5089,"Ġtakes":5090,"Ġpal":5091,"ĠCow":5092,"ĠMama":5093,"Ġbeet":5094,"Ġnarrow":5095,"ĠLadle":5096,"ĠHal":5097,"iesta":5098,"llo":5099,"Ġpretty":5100,"clair":5101,"Ġsprinkling":5102,"Ġburner":5103,"instant":5104,"Ġear":5105,"ĠTang":5106,"riend":5107,"Ġshakes":5108,"uffed":5109,"epeg":5110,"resso":5111,"ĠYummy":5112,"Ġlimeade":5113,"ĠTriple":5114,"ĠRotel":5115,"ĠAmaretto":5116,"Ġamong":5117,"ĠSunday":5118,"cents":5119,"ĠPor":5120,"ĠMill":5121,"ĠWay":5122,"Ġsets":5123,"uyere":5124,"Ġtamales":5125,"ĠLouis":5126,"loins":5127,"ĠBasic":5128,"%)":5129,"Bro":5130,"reusel":5131,"Ġpkgs":5132,"ĠLog":5133,"ĠDebone":5134,"ĠTwink":5135,"ĠJohn":5136,"preferably":5137,"ĠTamale":5138,"covered":5139,"ont":5140,"Ġdr":5141,"ĠSim":5142,"ĠPu":5143,"ĠLi":5144,"ĠIncrease":5145,"ĠEar":5146,"Ġsealed":5147,"ĠCupcakes":5148,"Ġrotary":5149,"ĠExcellent":5150,"ĠHungry":5151,"60":5152,"hod":5153,"ritos":5154,"ren":5155,"ĠCottage":5156,"amous":5157,"Ġstrained":5158,"this":5159,"Ġcod":5160,"Ġreally":5161,"avable":5162,"ĠEclair":5163,"Ġmasher":5164,"ĠOnce":5165,"Ġsnack":5166,"ondue":5167,"hyllo":5168,"ĠScrub":5169,"ĠDeviled":5170,"Ġsaffron":5171,"Roni":5172,"well":5173,"Ġphyllo":5174,"ourmet":5175,"Ġeight":5176,"Ġcrisscross":5177,"Ġgrams":5178,"achos":5179,"ashed":5180,"ĠReheat":5181,"Ġworms":5182,"Ġshaped":5183,"ĠTony":5184,"fashioned":5185,"Ġbal":5186,"ĠPort":5187,"adam":5188,"Ġingredient":5189,"ĠThan":5190,"ĠGruyere":5191,"ĠClose":5192,"ĠPeaches":5193,"ĠPrune":5194,"ĠJeremiah":5195,"ĠBouquet":5196,"ĠLoosen":5197,"ĠGenerously":5198,"fred":5199,"inter":5200,"Ġchutney":5201,"Ġchewy":5202,"cher":5203,"ĠWon":5204,"Ġstirred":5205,"ĠGe":5206,"Ġhots":5207,"tte":5208,"ĠJambalaya":5209,"kets":5210,"Ġfryers":5211,"Ġdente":5212,"adamia":5213,"Use":5214,"oid":5215,"sk":5216,"vals":5217,"amate":5218,"thaw":5219,"ĠRock":5220,"Ġdesire":5221,"Ġcurls":5222,"Ġglutamate":5223,"ivalent":5224,"fredo":5225,"Fro":5226,"Ġmg":5227,"Ġchafing":5228,"Ġchopper":5229,"ĠRib":5230,"ĠOkra":5231,"Ġkeeps":5232,"Ġsealing":5233,"ĠClass":5234,"Ġwrapped":5235,"drain":5236,"eel":5237,"ik":5238,"Ġdefrost":5239,"heaping":5240,"ĠFiesta":5241,"ields":5242,"itional":5243,"Ġscallion":5244,"addock":5245,"mixture":5246,"ĠMedal":5247,"acaroons":5248,"Ġvariety":5249,"dried":5250,"Ġlift":5251,"ĠMock":5252,"ghum":5253,"ĠGu":5254,"ĠGumbo":5255,"Ġtenderloins":5256,"Ġlowest":5257,"eeds":5258,"ĠCorned":5259,"Ġcrisply":5260,"ĠCopper":5261,"Ġburning":5262,"ĠMilky":5263,"Ġmounds":5264,"Ġmicrowavable":5265,"ĠSnickerdoodles":5266,"70":5267,"Or":5268,"inai":5269,"ilaf":5270,"Ġseven":5271,"ĠFruitcake":5272,"odium":5273,"Ġvermouth":5274,"ti":5275,"yl":5276,"Ġpatter":5277,"Ġtoffee":5278,"ĠPart":5279,"ĠPile":5280,"Ġstay":5281,"derful":5282,"Ġsoupy":5283,"Ġreheated":5284,"ĠFive":5285,"agne":5286,"azel":5287,"Ġcrystals":5288,"igg":5289,"ives":5290,"esar":5291,"andied":5292,"garian":5293,"itas":5294,"ĠParboil":5295,"ĠChips":5296,"ĠLen":5297,"grette":5298,"ucky":5299,"ĠSeasons":5300,"ampagne":5301,"ĠAppetizers":5302,"Ġcitron":5303,"ĠCongealed":5304,"inaigrette":5305,"Ġpattern":5306,"xx":5307,"ros":5308,"illy":5309,"verage":5310,"Ġ80":5311,"ĠLoaves":5312,"ottom":5313,"ĠOat":5314,"ĠEle":5315,"Crisco":5316,"ĠCaesar":5317,"Mex":5318,"de":5319,"ugg":5320,"Ġato":5321,"Ġbow":5322,"ĠSesame":5323,"Ġgummy":5324,"unbeaten":5325,"cha":5326,"ĠRun":5327,"aged":5328,"osodium":5329,"Ġchild":5330,"ĠKool":5331,"ĠBrisket":5332,"ĠSwans":5333,"ounce":5334,"Ġavailable":5335,"Ġfollowed":5336,"Ġsprig":5337,"Ġfranks":5338,"brown":5339,"Ġlogs":5340,"ormick":5341,"Ġatop":5342,"Cook":5343,"au":5344,"boy":5345,"tly":5346,"uda":5347,"yellow":5348,"Ġins":5349,"Ġeigh":5350,"ĠBac":5351,"ĠDoll":5352,"ĠWipe":5353,"Ġappetizer":5354,"ĠKings":5355,"Ġcenters":5356,"ĠPecans":5357,"Ġpuffs":5358,"ĠCrackers":5359,"ĠJoes":5360,"ĠOyster":5361,"Ġwilted":5362,"ĠSprite":5363,".,":5364,"Cormick":5365,"Ġsim":5366,"Ġ115":5367,"Ġpri":5368,"amble":5369,"ĠBell":5370,"Ġstarter":5371,"lices":5372,"ĠFamous":5373,"Ġalready":5374,"Ġtablespoonful":5375,"Ġyoung":5376,"ousand":5377,"ocket":5378,"Ġpartly":5379,"ĠMarinade":5380,"Style":5381,"tein":5382,"upperware":5383,"Ġintervals":5384,"tuce":5385,"uf":5386,"ĠTie":5387,"rip":5388,"Ġcob":5389,"ĠStack":5390,"ĠFil":5391,"egetarian":5392,"Ġappetizers":5393,"ĠShould":5394,"Ġglazed":5395,"Ġlengths":5396,"Ġmoderately":5397,"ambled":5398,"Ġdusted":5399,"Ġcardamon":5400,"Ġdisapp":5401,"Ġbalance":5402,"cinnamon":5403,"Ġfall":5404,"olut":5405,"Ġstor":5406,"Ġthroughout":5407,"azy":5408,"ĠSkor":5409,"ĠBlackberry":5410,"Ġmonosodium":5411,"Ġequivalent":5412,"Ġadv":5413,"ĠJudges":5414,"ĠCowboy":5415,"iano":5416,"kay":5417,"Ġtrout":5418,"ors":5419,"ĠBasil":5420,"ĠPas":5421,"Ġstraw":5422,"Ġsyrupy":5423,"ĠNacho":5424,"boneless":5425,"Ġdiagonal":5426,"ĠMacadamia":5427,"attice":5428,"ĠMillion":5429,"zy":5430,"ative":5431,"Ġeating":5432,"olly":5433,"rapped":5434,"etimes":5435,"pepper":5436,"ĠGran":5437,"ĠQuarter":5438,"ĠMint":5439,"Ġgrains":5440,"ĠEngland":5441,"Stir":5442,"Aid":5443,"Sour":5444,"dep":5445,"leu":5446,"Ġdab":5447,"ĠSkin":5448,"acos":5449,"ickel":5450,"verted":5451,"ĠLettuce":5452,"Ġthicker":5453,"Ġcurrant":5454,"ĠFinish":5455,"ĠHungarian":5456,"ĠPralines":5457,"ba":5458,"uriz":5459,"Ġchar":5460,"Ġgro":5461,"arsely":5462,"Ġplenty":5463,"Ġlayered":5464,"ĠThousand":5465,"ĠReplace":5466,"Ġplums":5467,"ĠClassic":5468,"urized":5469,"\\\\":5470,"ky":5471,"icro":5472,"ĠBleu":5473,"tha":5474,"urch":5475,"ĠLo":5476,"ĠLift":5477,"avily":5478,"Ġslit":5479,"ĠEach":5480,"ĠVinegar":5481,"ortant":5482,"ĠPerfect":5483,"Ġsorghum":5484,"ĠSuey":5485,"ĠMexicorn":5486,"cini":5487,"day":5488,"iant":5489,"ĠCore":5490,"ists":5491,"Ġgrinder":5492,"Ġsea":5493,"ĠFamily":5494,"Ġcupcakes":5495,"ified":5496,"Ġrows":5497,"umpern":5498,"ĠVeal":5499,"ĠNiblets":5500,"Ġpoints":5501,"Ġcereals":5502,"Ġkeeping":5503,"Ġavoid":5504,"rito":5505,"Ġjackets":5506,"Ġcavity":5507,"Ġhelp":5508,"ossoms":5509,"ĠLouisiana":5510,"23":5511,"fin":5512,"wal":5513,"will":5514,"ĠPic":5515,"ĠPier":5516,"Ġflute":5517,"ĠTupperware":5518,"Ġhaddock":5519,"ĠMound":5520,"atore":5521,"Ġthumb":5522,"ĠHumm":5523,"overs":5524,"ults":5525,"ends":5526,"Ġjelled":5527,"Ġpasteurized":5528,"Ġprod":5529,"ĠFluffy":5530,"ĠTostitos":5531,"umpernickel":5532,"gresso":5533,"Ġ.":5534,"ppies":5535,"ĠChach":5536,"Ġspace":5537,"stir":5538,"ĠSpareribs":5539,"umbers":5540,"ĠStirring":5541,"ĠKey":5542,"Ġwaffle":5543,"ermuda":5544,"ĠAlfredo":5545,"ĠMein":5546,"Ġallowing":5547,"ĠChron":5548,"Ġfitting":5549,"ĠPinwheels":5550,"ĠShoepeg":5551,"Ġeighths":5552,"ĠCas":5553,"ĠCacci":5554,"Ġsuet":5555,"Ġgumbo":5556,"ĠBo":5557,"ĠBuff":5558,"ĠBermuda":5559,"right":5560,"Ġris":5561,"Ġsourdough":5562,"Ġpackaged":5563,"izzas":5564,"ĠCornish":5565,"ĠFrom":5566,"ĠMayonnaise":5567,"ahum":5568,"ĠAnn":5569,"beef":5570,"Ġrubber":5571,"Ġrabbits":5572,"Ġbasket":5573,"ĠChronicles":5574,"lightly":5575,"Ġbuds":5576,"ĠSch":5577,"Ġbuttery":5578,"Ġstone":5579,"ĠLazy":5580,"acting":5581,"ĠYogurt":5582,"Ġiceberg":5583,"elveeta":5584,"ĠPepperoni":5585,"lect":5586,"Ġoverbeat":5587,"ĠNote":5588,"ĠTwinkies":5589,"thawed":5590,"From":5591,"Di":5592,"To":5593,"aver":5594,"min":5595,"man":5596,"ny":5597,"Ġsack":5598,"Ġfunnel":5599,"ĠCrawfish":5600,"Ġ225":5601,"Ġadjust":5602,"ĠBob":5603,"ĠParsley":5604,"Ġholiday":5605,"Ġwhat":5606,"ĠGoo":5607,"estive":5608,"Ġheavily":5609,"ĠBoiled":5610,"Ġprotein":5611,"Ġmarinara":5612,"ĠFreezer":5613,"ĠReub":5614,"Ġscorching":5615,"unche":5616,"ĠPaso":5617,"22":5618,"Os":5619,"iod":5620,"Ġ??":5621,"erto":5622,"Ġte":5623,"Ġten":5624,"Ġpenne":5625,"Ġwedge":5626,"amom":5627,"Ġempty":5628,"ellen":5629,"ĠGourmet":5630,"ĠCarol":5631,"ampi":5632,"Cho":5633,"buttered":5634,"Ġburger":5635,"ĠPaprika":5636,"ĠStrata":5637,"ĠEarth":5638,"bake":5639,"cery":5640,"rich":5641,"val":5642,"yed":5643,"Ġsolut":5644,"Ġbird":5645,"Ġpocket":5646,"reat":5647,"aken":5648,"Ġ21":5649,"Ġlattice":5650,"olog":5651,"ĠRings":5652,"Ġranch":5653,"ushed":5654,"Ġspecial":5655,"ights":5656,"ĠStreusel":5657,"Ġbrine":5658,"ĠShredded":5659,"retch":5660,"Ġprior":5661,"dor":5662,"gn":5663,"such":5664,"ĠCerto":5665,"ĠPar":5666,"ĠTarts":5667,"Ġho":5668,"ĠRellen":5669,"Ġseams":5670,"ĠFast":5671,"ĠLef":5672,"ĠOmelet":5673,"ĠKid":5674,"Ġcomplete":5675,"Ġfolding":5676,"ĠSugarless":5677,"Ġdeviled":5678,"Ġbatches":5679,"ĠMcCormick":5680,"ĠPorcup":5681,"ĠChachere":5682,"ĠReuben":5683,"45":5684,"bble":5685,"uv":5686,"Ġ0":5687,"Ġsouffle":5688,"Ġparboil":5689,"ical":5690,"ĠSyrup":5691,"ĠBing":5692,"ĠPers":5693,"ĠPistachio":5694,"Ġflours":5695,"ĠMaple":5696,"ĠDown":5697,"Ġrequ":5698,"ima":5699,"Ġremains":5700,"ĠEnd":5701,"ĠMoist":5702,"Ġothers":5703,"Ġcola":5704,"ĠCoarsely":5705,"ĠScotch":5706,"scant":5707,"ĠPerr":5708,"broccoli":5709,"Ġcardamom":5710,"Ġliter":5711,"Ġsauces":5712,"ĠCacciatore":5713,"Ġsolution":5714,"Pe":5715,"ged":5716,"Ġpouch":5717,"ĠMount":5718,"rie":5719,"Ġsho":5720,"quake":5721,"Ġfreezing":5722,"ĠFilled":5723,"Ġgarnished":5724,"phant":5725,"Ġ???":5726,"Ġtaking":5727,"alo":5728,"Ġincrease":5729,"ĠCandied":5730,"Ġgingersnaps":5731,"ĠKiss":5732,"ĠNahum":5733,"eebler":5734,"Ġthickening":5735,"Ġbrushing":5736,"Ġgallons":5737,"ĠDoughnuts":5738,"ĠLinguine":5739,"Broccoli":5740,"uncheon":5741,"ĠPerrins":5742,"bird":5743,"crew":5744,"len":5745,"pr":5746,"Ġ150":5747,"Ġpumpernickel":5748,"Ġwere":5749,"space":5750,"Ġduck":5751,"ĠSlices":5752,"Ġeggnog":5753,"ised":5754,"ucy":5755,"thin":5756,"ĠChile":5757,"acky":5758,"abobs":5759,"Ġkitchen":5760,"ressed":5761,"ĠBlond":5762,"ĠYork":5763,"Ġcomino":5764,"eek":5765,"ĠScampi":5766,"sodium":5767,"ĠSteaks":5768,"mbros":5769,"mixed":5770,"ĠSticks":5771,"ĠPraline":5772,"ĠPennies":5773,"Ġdollop":5774,"ologna":5775,"king":5776,"nic":5777,"Ġpip":5778,"uth":5779,"elow":5780,"rad":5781,"Ġsaut":5782,"ĠDried":5783,"achine":5784,"ĠGiant":5785,"kscrew":5786,"ĠNab":5787,"Ġheadspace":5788,"ĠScatter":5789,"ĠSeasoning":5790,"Ġpitcher":5791,"ĠProgresso":5792,"ĠSmoked":5793,"ajitas":5794,"ĠMargarine":5795,"ĠWaldor":5796,"mbrosia":5797,"ĠWaldorf":5798,"100":5799,"Eyed":5800,"Ġokay":5801,"ingbird":5802,"ĠTart":5803,"ĠMore":5804,"Ġorzo":5805,"Ġrising":5806,"quettes":5807,"edding":5808,"Ġmeaty":5809,"ĠSlush":5810,"oyu":5811,"ĠMartha":5812,"ĠBarrel":5813,"Ġclosely":5814,"ĠMorton":5815,"ĠGeor":5816,"ĠRibbon":5817,"ĠPartially":5818,"Ġgrocery":5819,"kins":5820,"Ġtr":5821,"ĠCra":5822,"ĠSliced":5823,"ĠAmbrosia":5824,"Ġ475":5825,"ĠRos":5826,"ĠDrops":5827,"ĠSpam":5828,"Ġseems":5829,"aped":5830,"ĠKeebler":5831,"ĠSlightly":5832,"Ġdehydr":5833,"arina":5834,"packed":5835,"Ġadvance":5836,"ĠGranola":5837,"walnuts":5838,"ĠHummingbird":5839,"ĠEarthquake":5840,"Ġchowder":5841,"ĠBerry":5842,"Ġshoyu":5843,"ĠMixed":5844,"ĠGingersnaps":5845,"ĠJew":5846,"ĠBegin":5847,"Ġmelting":5848,"ĠFlakes":5849,"ĠHamburg":5850,"ĠSourdough":5851,"ĠCrispix":5852,"ĠAny":5853,"Ġsecurely":5854,"Ġresults":5855,"Ġescape":5856,"ĠSimple":5857,"aque":5858,"fine":5859,"gi":5860,"ho":5861,"mushroom":5862,"made":5863,"Ġmat":5864,"Ġmem":5865,"ĠBig":5866,"ĠPilaf":5867,"Ġshiny":5868,"colored":5869,"ĠStarter":5870,"sci":5871,"Ġknives":5872,"Ġenchiladas":5873,"Ġreplace":5874,"ĠWait":5875,"uggets":5876,"ĠMountain":5877,"see":5878,"Ġcall":5879,"ilar":5880,"Ġfluted":5881,"ĠAv":5882,"Ġhome":5883,"Ġcogn":5884,"ĠWedding":5885,"ĠSponge":5886,"umber":5887,"ĠFree":5888,"entucky":5889,"ĠMocha":5890,"Ġbutt":5891,"ĠDog":5892,"Ġtoward":5893,"crushed":5894,"ĠGrandm":5895,"ĠPoor":5896,"Ġdistribute":5897,"ĠHalve":5898,"ĠCashew":5899,"Ġcognac":5900,"ftened":5901,"Ġpesto":5902,"Ġmal":5903,"Ġwatch":5904,"ori":5905,"Ġfloat":5906,"ĠRabb":5907,"Ġcoats":5908,"ĠHel":5909,"Ġ130":5910,"ĠWorld":5911,"Ġopaque":5912,"Ġcorkscrew":5913,"Chicken":5914,"Ġswiss":5915,"remove":5916,"Ġdefrosted":5917,"Ġproduc":5918,"Ġpiping":5919,"ĠNabisco":5920,"ĠRabbit":5921,"gr":5922,"rus":5923,"time":5924,"wick":5925,"Ġcoll":5926,"ĠCarb":5927,"ĠBea":5928,"ĠBites":5929,"Ġunpared":5930,"ĠAhead":5931,"ĠFant":5932,"arsn":5933,"ĠWhipped":5934,"ĠNumbers":5935,"Ġspoons":5936,"Ġtubes":5937,"ĠFrosted":5938,"Ġfilets":5939,"ĠTreats":5940,"Ġhulled":5941,"Ġmallet":5942,"Yields":5943,"batter":5944,"baking":5945,"cheese":5946,"gur":5947,"rone":5948,"Ġels":5949,"lee":5950,"ĠCalorie":5951,"elle":5952,"ĠBone":5953,"Ġstep":5954,"omm":5955,"Ġ46":5956,"Ġshaking":5957,"ĠRaw":5958,"ĠLamb":5959,"asseroles":5960,"ĠGo":5961,"estrone":5962,"ĠJan":5963,"ĠMost":5964,"Ġwait":5965,"ĠBeer":5966,"softened":5967,"unswick":5968,"Ġreached":5969,"ĠSouthw":5970,"ibut":5971,"ĠTenderloin":5972,"Ġsafflower":5973,"Ġtastes":5974,"sciut":5975,"OT":5976,"aith":5977,"dy":5978,"pie":5979,"Ġsink":5980,"Ġfe":5981,"ĠCap":5982,"Ġsuper":5983,"Ġlo":5984,"Ġpeek":5985,"imp":5986,"ought":5987,"Ġkinds":5988,"ĠKentucky":5989,"black":5990,"ĠBroiled":5991,"Ġabsorbent":5992,"without":5993,"ĠBurger":5994,"Ġcontinuously":5995,"ĠThinly":5996,"Ġimportant":5997,"ĠRocky":5998,"ĠLentil":5999,"Ġelse":6000,"calorie":6001,"fir":6002,"part":6003,"tw":6004,"wrap":6005,"Ġbundt":6006,"Ġpuffy":6007,"Ġmill":6008,"ĠColes":6009,"ĠPrim":6010,"ĠMorning":6011,"Ġleg":6012,"ĠDanish":6013,"ĠWaff":6014,"ĠFashion":6015,"ĠFestive":6016,"ĠHush":6017,"Ġdraining":6018,"ĠBrunswick":6019,"Ġgranola":6020,"undles":6021,"ĠRoad":6022,"Ġhoriz":6023,"Ġrotating":6024,"Ġtouching":6025,"ĠCrazy":6026,"ĠColeslaw":6027,"Ra":6028,"Wh":6029,"foil":6030,"fetti":6031,"skin":6032,"tain":6033,"Ġbelow":6034,"Ġele":6035,"Ġstream":6036,"adian":6037,"Ġthinner":6038,"asted":6039,"ĠChunk":6040,"Ġsponge":6041,"vest":6042,"berally":6043,"oren":6044,"ĠJoe":6045,"ockets":6046,"ĠDean":6047,"ĠTwin":6048,"ĠTwist":6049,"Ġmeasured":6050,"Ġmonth":6051,"ĠManicotti":6052,"immy":6053,"ĠTastes":6054,"Ġearly":6055,"Ġdisappears":6056,"depending":6057,"Butter":6058,"Sweet":6059,"ax":6060,"gy":6061,"ior":6062,"yn":6063,"Ġsna":6064,"Ġbra":6065,"Ġchampagne":6066,"ington":6067,"garnish":6068,"ortening":6069,"oriz":6070,"isbury":6071,"Ġhazel":6072,"ĠMade":6073,"ĠDuring":6074,"amond":6075,"Ġalways":6076,"ĠSalisbury":6077,"Ġchervil":6078,"Ġturnip":6079,"ĠGrated":6080,"Ġcrescents":6081,"ĠScore":6082,"ĠMinutes":6083,"ĠClub":6084,"ĠTwice":6085,"Ġpreferably":6086,"Ġopening":6087,"Ġtasty":6088,"Ġdrum":6089,"ĠDollar":6090,"Cal":6091,"Jell":6092,"Mo":6093,"ging":6094,"tStir":6095,"Ġcasseroles":6096,"Ġsizz":6097,"anese":6098,"esh":6099,"Ġfalls":6100,"Ġint":6101,"Ġacorn":6102,"ĠRap":6103,"ĠWil":6104,"ĠFix":6105,"ĠCooked":6106,"ĠHill":6107,"ĠHalf":6108,"shine":6109,"Ġslushy":6110,"Ġexact":6111,"ĠUp":6112,"Ġcauliflowerets":6113,"Ġherbed":6114,"ĠNutty":6115,"Ġgoes":6116,"Ġleek":6117,"Ġpalm":6118,"ĠPuppies":6119,"ĠGuacamole":6120,"ĠEleg":6121,"avera":6122,"ĠLeftover":6123,"Ġdehydrated":6124,"sciutto":6125,"400":6126,"Layer":6127,"bb":6128,"set":6129,"ana":6130,"Ġbologna":6131,"anda":6132,"Ġfriend":6133,"ister":6134,"change":6135,"ĠDefrost":6136,"ĠWestern":6137,"ĠGet":6138,"ship":6139,"ĠEd":6140,"ĠEsc":6141,"Ġenrich":6142,"elatin":6143,"Ġdirectly":6144,"ĠChoice":6145,"ĠDeer":6146,"orden":6147,"ĠIndian":6148,"skim":6149,"Ġsimilar":6150,"ĠRellenos":6151,"Batter":6152,"Ġparsn":6153,"rets":6154,"Ġfaith":6155,"orange":6156,"itic":6157,"Ġpet":6158,"ĠBottom":6159,"ggy":6160,"Ġveg":6161,"Ġneck":6162,"ĠStand":6163,"ĠFingers":6164,"ĠEye":6165,"ĠJimmy":6166,"perial":6167,"affy":6168,"Ġindent":6169,"ĠImperial":6170,"chocolate":6171,"Ġindividually":6172,"Ġdepth":6173,"ĠPlum":6174,"ĠStarting":6175,"Ġtrays":6176,"ĠSecure":6177,"ontally":6178,"300":6179,"Apple":6180,"Min":6181,"eady":6182,"fried":6183,"Ġparch":6184,"onion":6185,"Ġfries":6186,"Ġfancy":6187,"Ġ29":6188,"Ġsup":6189,"Ġawhile":6190,"ĠSix":6191,"ĠBag":6192,"ĠPink":6193,"isters":6194,"Ġsole":6195,"ĠLarge":6196,"ĠGen":6197,"Ġpeck":6198,"ĠSaucy":6199,"Ġusual":6200,"ĠCanadian":6201,"ĠTortellini":6202,"ĠBurritos":6203,"ĠSheph":6204,"ĠSticky":6205,"ĠShortcake":6206,"Ġinsides":6207,"ĠPrimavera":6208,"26":6209,"One":6210,"gers":6211,"Ġslee":6212,"Ġ26":6213,"ĠSand":6214,"ĠBrie":6215,"ickle":6216,"Ġunmold":6217,"together":6218,"Ġsaved":6219,"Ġgroup":6220,"ĠDr":6221,"Ġjuicy":6222,"apanese":6223,"ĠLittle":6224,"ĠLiver":6225,"Ġ120":6226,"Ġplump":6227,"ĠEaster":6228,"Ġupright":6229,"Ġthickest":6230,"Ġfinal":6231,"105":6232,"Ġquail":6233,"Ġstale":6234,"arkling":6235,"ĠBisque":6236,"Ġneeds":6237,"ĠScones":6238,"Ġinsert":6239,"ĠMince":6240,"ĠMuffin":6241,"ĠRaisins":6242,"ĠPickle":6243,"Ġdelic":6244,"ĠWalnuts":6245,"ĠMolded":6246,"ondon":6247,"Ġpulls":6248,"Ġcombining":6249,"ĠWatchers":6250,"Ġchildren":6251,"ĠGrandmother":6252,"Ġenriched":6253,"Not":6254,"beat":6255,"back":6256,"cemeat":6257,"tS":6258,"vitic":6259,"Ġcould":6260,"Ġwing":6261,"Ġsuey":6262,"Ġgel":6263,"ĠBits":6264,"ĠBorden":6265,"unsweetened":6266,"ĠTeriyaki":6267,"Ġvary":6268,"ĠAd":6269,"Ġcrunch":6270,"strawber":6271,"ĠSpring":6272,"Ġblocks":6273,"ĠHold":6274,"Ġappears":6275,"Ġpapers":6276,"Ġthickly":6277,"ude":6278,"Ġagainst":6279,"alories":6280,"ahini":6281,"Ġshallot":6282,"Ġscrubbed":6283,"Ġscrambled":6284,"ĠTangy":6285,"ĠPersimmon":6286,"Ġmatzo":6287,"Ġmembran":6288,"Ġhorizontally":6289,"ĠRapid":6290,"Pec":6291,"got":6292,"pacho":6293,"ster":6294,"Ġtry":6295,"Ġoval":6296,"Ġmachine":6297,"Ġfeed":6298,"spray":6299,"ĠCrowd":6300,"ĠBaby":6301,"Ġstretch":6302,"Ġbroad":6303,"ĠDilute":6304,"Ġreg":6305,"ĠLondon":6306,"Ġexcellent":6307,"ĠMelba":6308,"ĠCarne":6309,"azpacho":6310,"ĠSoy":6311,"Ġbeaters":6312,"Ġeaten":6313,"ginal":6314,"Ġdevein":6315,"ĠPretzels":6316,"ĠAmish":6317,"ĠBonn":6318,"Italian":6319,"ĠHarvest":6320,"Chocolate":6321,"Ġintact":6322,"viticus":6323,"Pecan":6324,"--":6325,"35":6326,"Al":6327,"ean":6328,"keep":6329,"Ġtong":6330,"Ġtaken":6331,"leave":6332,"lease":6333,"ĠCav":6334,"ĠSure":6335,"Ġlose":6336,"aces":6337,"Ġstar":6338,"sharp":6339,"izes":6340,"Ġjellied":6341,"ĠBeets":6342,"ĠDogs":6343,"ĠDelights":6344,"ĠMincemeat":6345,"which":6346,"Ġbulgur":6347,"ĠProsciutto":6348,"ĠRoma":6349,"ĠSmother":6350,"Ġrises":6351,"ĠShepherd":6352,"Corn":6353,"Rise":6354,"dew":6355,"een":6356,"each":6357,"fa":6358,"ike":6359,"lap":6360,"mm":6361,"wheat":6362,"anted":6363,"ilver":6364,"Ġinc":6365,"ĠCalories":6366,"Ġdirt":6367,"unbaked":6368,"Ġve":6369,"Ġforks":6370,"Ġrubbed":6371,"Ġcole":6372,"ĠIda":6373,"ĠLobster":6374,"ĠGazpacho":6375,"Ġkiss":6376,"ĠEv":6377,"Ġpacks":6378,"ĠNOT":6379,"Ġdesign":6380,"Ġsciss":6381,"Ġpickled":6382,"Ġtwists":6383,"coal":6384,"ĠFloren":6385,"Ġtinfoil":6386,"ĠScramble":6387,"Ġjulienned":6388,"tPour":6389,"ĠSwanson":6390,"ĠPierce":6391,"Ġproduct":6392,"ĠWaffles":6393,"Minute":6394,"Ġsupreme":6395,"Pineapple":6396,"put":6397,"anger":6398,"Ġomelet":6399,"Ġml":6400,"Ġwinter":6401,"ĠCord":6402,"ĠBirds":6403,"ĠPicante":6404,"Ġbeverage":6405,"uckey":6406,"Ġshow":6407,"ĠChar":6408,"ĠWacky":6409,"quid":6410,"aint":6411,"Ġcrumbles":6412,"ĠJoy":6413,"Ġendive":6414,"ĠMonster":6415,"Ġequals":6416,"Ġtrifle":6417,"Ġsterile":6418,"Potato":6419,"Ġdecoration":6420,"ĠSnickers":6421,"ĠShortbread":6422,"Ġrunny":6423,"Ġcontinuing":6424,"Ġhazelnuts":6425,"App":6426,"Great":6427,"Sh":6428,"Sw":6429,"wrapped":6430,"yes":6431,"ically":6432,"ĠCider":6433,"asts":6434,"Ġcheesecake":6435,"Ġsteel":6436,"Ġricotta":6437,"ĠHollow":6438,"Ġconverted":6439,"Ġserves":6440,"Ġhoneydew":6441,"Ġbrew":6442,"Ġpod":6443,"Ġdrip":6444,"Ġflattened":6445,"Ġprune":6446,"Ġdiscarding":6447,"ĠJerky":6448,"ĠSunshine":6449,"ĠFettuccine":6450,"ĠBuffalo":6451,"Diabetic":6452,"Ġexactly":6453,"'re":6454,"cous":6455,"tine":6456,"ila":6457,"andel":6458,"Ġchoriz":6459,"ĠBush":6460,"ĠBarb":6461,"Ġflu":6462,"Ġflip":6463,"ĠTacos":6464,"ripe":6465,"Ġshelf":6466,"ĠReal":6467,"ĠChuck":6468,"imum":6469,"ĠLor":6470,"ĠLima":6471,"Ġbreads":6472,"ĠGall":6473,"ĠOut":6474,"Ġpoured":6475,"Ġheart":6476,"Ġliberally":6477,"Ġpeeling":6478,"Ġfind":6479,"Ġcurly":6480,"saiah":6481,"ĠForgot":6482,"ĠConfetti":6483,"Ġcasing":6484,"ĠWafer":6485,"Ġequally":6486,"ĠForgotten":6487,"Bl":6488,"\\.":6489,"con":6490,"cal":6491,"iness":6492,"Ġwhe":6493,"Ġtost":6494,"ĠCatfish":6495,"Ġdilute":6496,"Ġsugared":6497,"Ġvent":6498,"usk":6499,"ĠWish":6500,"ipes":6501,"ĠFajitas":6502,"oleo":6503,"ĠHard":6504,"ĠGelatin":6505,"emp":6506,"ĠJapanese":6507,"Ġpeels":6508,"Ġicebox":6509,"Quick":6510,"ĠMeatball":6511,"Ġanything":6512,"Ġbackfin":6513,"Ġbroiled":6514,"Ġacid":6515,"Ġkneading":6516,"Ġsteaming":6517,"ĠHominy":6518,"ĠRotate":6519,"Ġfasten":6520,"ĠElegant":6521,"Ġparchment":6522,"Ġscissors":6523,"grain":6524,"Ġmot":6525,"Ġmacaroons":6526,"Ġfondue":6527,"ĠTown":6528,"ience":6529,"efin":6530,"stuffed":6531,"ĠFull":6532,"ananas":6533,"ouscous":6534,"ĠQues":6535,"ĠMonde":6536,"Ġjellyroll":6537,"Ġflowerpot":6538,"Ġwonton":6539,"Ġmanuf":6540,"Ġskewer":6541,"Ġcharcoal":6542,"Ġhoisin":6543,"Ġparboiled":6544,"ĠJewish":6545,"Ġcalled":6546,"Ġfluid":6547,"Ġmanufact":6548,"vanilla":6549,"Ġcrowd":6550,"Ġmouth":6551,"reath":6552,"Ġchoose":6553,"order":6554,"asant":6555,"Ġ370":6556,"ĠSue":6557,"ĠBourbon":6558,"eth":6559,".).":6560,"Ġwhere":6561,"abl":6562,"efish":6563,"quef":6564,"ĠStep":6565,"ashell":6566,"ult":6567,"ression":6568,"Ġupon":6569,"ĠBlossoms":6570,"ĠThank":6571,"ĠNachos":6572,"ropical":6573,"afers":6574,"Ġgetting":6575,"ĠOriginal":6576,"Ġ234":6577,"Ġdistilled":6578,"Ġsometimes":6579,"Ġpierced":6580,"ĠAvocad":6581,"ĠMostaccioli":6582,"Ġelephant":6583,"Ġmanufactur":6584,"Good":6585,"Very":6586,"ais":6587,"gian":6588,"iar":6589,"Ġtuck":6590,"ĠSuc":6591,"Ġluncheon":6592,"ĠBut":6593,"ĠPaul":6594,"ĠPizzas":6595,"ĠTsp":6596,"ado":6597,"Ġcrisco":6598,"Ġjun":6599,"Ġsoggy":6600,"Ġthrow":6601,"Ġsmashed":6602,"Ġxxx":6603,"Ġrock":6604,"Ġprevi":6605,"ĠYams":6606,"Ġquant":6607,"Ġcontaining":6608,"ĠDozen":6609,"ĠWashington":6610,"ĠScallops":6611,"Ġpreference":6612,"Ġresem":6613,"...":6614,"ĠFillets":6615,"ĠGooey":6616,"uvres":6617,"lenda":6618,"Ġparsnips":6619,"ĠRapidRise":6620,"ĠSmothered":6621,"ĠCordon":6622,"ao":6623,"but":6624,"down":6625,"gl":6626,"plet":6627,"ests":6628,"Ġmaker":6629,"ilt":6630,"reng":6631,"leans":6632,"ĠCit":6633,"ito":6634,"Ġgoose":6635,"Ġlunch":6636,"Ġsalty":6637,"acc":6638,"ĠTaffy":6639,"Ġvelveeta":6640,"ĠChoc":6641,"color":6642,"ient":6643,"ĠFoil":6644,"shaped":6645,"Ġcracks":6646,"Ġravi":6647,"ava":6648,"Ġtenders":6649,"Ġtenderness":6650,"Ġliking":6651,"ĠYour":6652,"ĠBeet":6653,"ĠSlit":6654,"Ġcontains":6655,"Ġhandling":6656,"Ġparties":6657,"Ġperiod":6658,"ĠDiet":6659,"apples":6660,"uchen":6661,"Ġgrilled":6662,"cluded":6663,"ĠTotal":6664,"ĠFlorentine":6665,"rength":6666,"Ġravioli":6667,"avings":6668,"ipping":6669,"mber":6670,"ugs":6671,"Ġbush":6672,"Ġfrench":6673,"Ġwanted":6674,"ĠCereal":6675,"itely":6676,"Ġgizz":6677,"ĠBun":6678,"acing":6679,"ĠPace":6680,"ĠParm":6681,"ĠTen":6682,"Ġvinaigrette":6683,"olf":6684,"Ġnachos":6685,"Ġshavings":6686,"ĠDO":6687,"ĠDole":6688,"ĠDew":6689,"cold":6690,"ĠWafers":6691,"Ġsem":6692,"Ġsmok":6693,"ĠFondue":6694,"Ġhalibut":6695,"Ġcovers":6696,"ĠItal":6697,"ĠCornmeal":6698,"ĠSelect":6699,"ĠOrleans":6700,"Ġworking":6701,"ĠBlonde":6702,"Gr":6703,"lt":6704,"lon":6705,"sto":6706,"tMix":6707,"Ġsat":6708,"Ġdra":6709,"ĠSome":6710,"oops":6711,"ĠBus":6712,"ĠMust":6713,"Ġcrimp":6714,"veget":6715,"ĠRye":6716,"Ġrare":6717,"Ġcarbon":6718,"Ġalone":6719,"ĠThrow":6720,"ĠChews":6721,"Ġbrittle":6722,"Ġbrisk":6723,"ĠUnwrap":6724,"!!!":6725,"Ġmethod":6726,"Ġsectioned":6727,"ĠTasty":6728,"ĠWonderful":6729,"ĠCarolina":6730,"Ġregisters":6731,"efinitely":6732,"Ġresemble":6733,"bite":6734,"Ġcour":6735,"erne":6736,"Ġtines":6737,"esis":6738,"Ġpale":6739,"Ġmicro":6740,"Ġchange":6741,"ĠCrispies":6742,"asing":6743,"ities":6744,"Ġsuff":6745,"Ġgas":6746,"Ġsalts":6747,"ĠBoy":6748,"Ġflesh":6749,"ĠTry":6750,"ĠRuth":6751,"ĠHi":6752,"Ġplant":6753,"Ġsquir":6754,"Ġsweeten":6755,"ewh":6756,"ĠThat":6757,"ĠPeek":6758,"Ġstands":6759,"Ġscra":6760,"ĠRoquef":6761,"Ġscallop":6762,"ĠEggnog":6763,"eggs":6764,"ĠColada":6765,"rounded":6766,"igger":6767,"ĠKids":6768,"raditional":6769,"Ġdrumsticks":6770,"Ġmanufacturer":6771,"ĠRoquefort":6772,"'ll":6773,"Baked":6774,"Egg":6775,"cover":6776,"hard":6777,"nold":6778,"tSp":6779,"anks":6780,"Ġtahini":6781,"arro":6782,"arole":6783,"Ġmine":6784,"Ġmight":6785,"ille":6786,"Ġfrit":6787,"ppos":6788,"Ġincluded":6789,"Ġeye":6790,"Ġgame":6791,"ĠBav":6792,"raine":6793,"cherry":6794,"rips":6795,"Ġrinds":6796,"ĠDeath":6797,"Ġsparkling":6798,"ĠSplenda":6799,"ĠHoll":6800,"ĠInstant":6801,"estyle":6802,"ĠKabobs":6803,"Ġletting":6804,"Ġscore":6805,"Ġevaporates":6806,"ĠStrawberries":6807,"ĠMinestrone":6808,"Ġacini":6809,"Ġtoweling":6810,"Ġsteamer":6811,"ĠBarley":6812,"ĠWorking":6813,"ĠPinto":6814,"ĠWeight":6815,"Ġweight":6816,"Raisin":6817,"Ġsleeve":6818,"ĠLorraine":6819,"ĠAvocado":6820,"Easy":6821,"Ritz":6822,"Ġmussels":6823,"ĠCor":6824,"Ġ27":6825,"Ġeff":6826,"ĠBananas":6827,"ĠPina":6828,"Ġunroll":6829,"Ġvegetarian":6830,"Ġcreamer":6831,"Ġnumber":6832,"Ġmark":6833,"ĠCholesterol":6834,"Ġ57":6835,"member":6836,"Ġcare":6837,"ember":6838,"ĠEsp":6839,"tract":6840,"Ġcolors":6841,"uckle":6842,"Ġcanner":6843,"ĠTopped":6844,"ĠLeviticus":6845,"Ġproced":6846,"ĠFlip":6847,"ĠScrip":6848,"Ġfilo":6849,"Ġindefinitely":6850,"ĠSmall":6851,"ajita":6852,"pecially":6853,"ĠCucumbers":6854,"Crust":6855,"hydrate":6856,"ĠOysters":6857,"Ġsnapper":6858,"Ġindentation":6859,"ablis":6860,"ĠCitrus":6861,"ĠParmig":6862,"ĠItaliano":6863,"ĠBavarian":6864,"\")":6865,"48":6866,"Bone":6867,"Don":6868,"High":6869,"Mar":6870,"Sugar":6871,"book":6872,"che":6873,"diced":6874,"fold":6875,"her":6876,"ler":6877,"pound":6878,"sour":6879,"slightly":6880,"tR":6881,"tou":6882,"Ġcouscous":6883,"Ġfound":6884,"Ġwid":6885,"Ġlimes":6886,"ĠTropical":6887,"raight":6888,"ume":6889,"umn":6890,"Ġjoin":6891,"ĠCherries":6892,"ĠFud":6893,"ĠFunnel":6894,"Ġdrying":6895,"Ġkale":6896,"enthe":6897,"ĠVirgin":6898,"ĠSherry":6899,"Ġchilli":6900,"120":6901,"ogen":6902,"Ġpounded":6903,"Ġbroiling":6904,"Ġcircular":6905,"athy":6906,"ĠPhilly":6907,"Stuffed":6908,"Ġscraped":6909,"Ġwonderful":6910,"Ġburrito":6911,"Ġdampened":6912,"ĠGrahams":6913,"ĠPowdered":6914,"ĠSauterne":6915,"ĠPorcupine":6916,"grated":6917,"Ġgizzards":6918,"Ġcarbonated":6919,"Ġprocedure":6920,"ĠScripture":6921,"bons":6922,"make":6923,"mly":6924,"nier":6925,"Ġ=":6926,"Ġsizes":6927,"Ġla":6928,"usters":6929,"ĠMacaroons":6930,"omato":6931,"Ġsaucepot":6932,"Ġspiced":6933,"iment":6934,"ĠIsaiah":6935,"iform":6936,"ĠLite":6937,"Ġbreadsticks":6938,"ĠHome":6939,"ĠServing":6940,"Ġexchange":6941,"ĠEtou":6942,"ĠVinaigrette":6943,"Ġstanding":6944,"ĠSauteed":6945,"Ġspooning":6946,"serving":6947,"Ġpinching":6948,"plus":6949,"Ġpatience":6950,"ĠCanned":6951,"Ġconsider":6952,"Ġstemmed":6953,"Ġskimmed":6954,"ĠPete":6955,"Ġwhisking":6956,"ibb":6957,"ĠFinally":6958,"Ġomitting":6959,"eather":6960,"Ġstorage":6961,"ĠGeorg":6962,"ĠBonnet":6963,"fait":6964,"ogenized":6965,"Orange":6966,"Sa":6967,"Vegetab":6968,"after":6969,"gran":6970,"luck":6971,"powder":6972,"tD":6973,"tor":6974,"Ġread":6975,"ince":6976,"Ġsilk":6977,"Ġtied":6978,"Ġbu":6979,"ene":6980,"Ġfig":6981,"Ġfruc":6982,"amels":6983,"acao":6984,"isweet":6985,"Ġhum":6986,"Ġstop":6987,"tose":6988,"ups":6989,"ĠRain":6990,"ĠChutney":6991,"ĠChablis":6992,"Ġrather":6993,"iman":6994,"ĠFinger":6995,"oughy":6996,"Ġslush":6997,"ĠOregano":6998,"ĠJar":6999,"Ġturned":7000,"ĠArm":7001,"Ġimpro":7002,"Ġconcentrated":7003,"clude":7004,"ĠCroquettes":7005,"ĠMarnier":7006,"Ġkindness":7007,"ĠComplet":7008,"Ġburgers":7009,"ĠFranks":7010,"Ġhollowed":7011,"Ġsomewh":7012,"ĠHobo":7013,"print":7014,"ĠFantasy":7015,"ĠIdaho":7016,"Ġsuffic":7017,"Ġfructose":7018,"Cream":7019,"Make":7020,"agg":7021,"cle":7022,"deep":7023,"soup":7024,"zil":7025,"Ġpol":7026,"Ġpockets":7027,"Ġfix":7028,"ica":7029,"leaf":7030,"ĠSub":7031,"Ġfluff":7032,"Ġuniform":7033,"illing":7034,"ĠAut":7035,"Ġhouse":7036,"Ġstrength":7037,"Ġsafe":7038,"Ġthing":7039,"ĠDark":7040,"ĠWet":7041,"Ġjug":7042,"rinkles":7043,"ĠCreamettes":7044,"Ġdoughnuts":7045,"Ġdoughnut":7046,"ĠJif":7047,"ĠJumbo":7048,"Ġkids":7049,"Ġ160":7050,"Ġhandfuls":7051,"Ġbringing":7052,"Ġparticles":7053,"Ġsifting":7054,"Ġscald":7055,"ĠSmok":7056,"ĠDilly":7057,"ĠSecrets":7058,"ĠFettucini":7059,"Ġpierce":7060,"andaise":7061,"31":7062,";\\":7063,"American":7064,"Lime":7065,"On":7066,"eer":7067,"Ġmul":7068,"Ġaj":7069,"Ġgold":7070,"oot":7071,"adine":7072,"ĠWedges":7073,"ĠWinter":7074,"Ġseashell":7075,"quila":7076,"ĠFriend":7077,"Ġhotter":7078,"should":7079,"Ġaltogether":7080,"Ġmince":7081,"Ġsmoothly":7082,"ĠRolled":7083,"Ġrip":7084,"Ġpicks":7085,"Ġhandled":7086,"Ġdiamond":7087,"ĠAla":7088,"Ġnever":7089,"Serve":7090,"Ġwrapper":7091,"ĠNeiman":7092,"ĠLastly":7093,"Ġfingert":7094,"ĠBrazil":7095,"uckeyes":7096,"Ġjunior":7097,"Ġsemisweet":7098,"ĠGeorgia":7099,"Inch":7100,"follow":7101,"han":7102,"ner":7103,"Ġcase":7104,"Ġsilver":7105,"Ġtater":7106,"Ġmush":7107,"almon":7108,"lemon":7109,"Ġgent":7110,"ĠPass":7111,"ĠTakes":7112,"illi":7113,"raisins":7114,"Ġstraight":7115,"ĠRey":7116,"ĠDep":7117,"Ġbody":7118,"imate":7119,"aper":7120,"ĠHa":7121,"Ġrope":7122,"Ġpuddings":7123,"ĠKet":7124,"ĠPeople":7125,"ĠRoy":7126,"istrib":7127,"Ġrecomm":7128,"stitute":7129,"ĠCrumbs":7130,"ĠDribble":7131,"Ġdepends":7132,"ĠToasted":7133,"Ġassem":7134,"ĠCrescents":7135,"Ġespecially":7136,"Ġbasic":7137,"ĠSnacks":7138,"ĠTreat":7139,"ĠEvans":7140,"Ġbrewed":7141,"ĠEtouffee":7142,"ĠRainbow":7143,"Ġsomewhat":7144,"ĠReynold":7145,"French":7146,"Yum":7147,"cus":7148,"hol":7149,"sifted":7150,"anuts":7151,"Ġmatch":7152,"reak":7153,"spread":7154,"Ġeyes":7155,"Ġdec":7156,"Ġladle":7157,"ĠPesto":7158,"Ġflo":7159,"Ġminus":7160,"chi":7161,"Ġshank":7162,"ĠSpeed":7163,"Ġcorner":7164,"apes":7165,"osition":7166,"Ġslight":7167,"ĠOw":7168,"ĠOle":7169,"ĠOats":7170,"ĠEven":7171,"ĠEvery":7172,"ĠEvenly":7173,"ĠKielbasa":7174,"ĠKuchen":7175,"ĠThere":7176,"issolved":7177,"Ġscoops":7178,"Ġpicked":7179,"ĠCaramels":7180,"Ġunsliced":7181,"Ġhamburgers":7182,"Ġdoubles":7183,"Ġhomogenized":7184,"ĠPancake":7185,"Ġgoing":7186,"Ġdecorative":7187,"ugu":7188,"Ġescarole":7189,"Cookies":7190,"Ġholidays":7191,"ĠBeau":7192,"Ġxxxx":7193,"Ġconsideration":7194,"ĠReynolds":7195,"110":7196,"ias":7197,"ira":7198,"makes":7199,"warm":7200,"Ġour":7201,"eslaw":7202,"Ġprop":7203,"sprinkle":7204,"roof":7205,"ĠCrinkles":7206,"ital":7207,"Ġdred":7208,"ĠSex":7209,"ĠBundles":7210,"ĠPate":7211,"ĠPep":7212,"Ġvol":7213,"ĠMark":7214,"ĠChest":7215,"Ġspins":7216,"ĠLush":7217,"Ġalf":7218,"Ġslab":7219,"ĠVien":7220,"ĠVegetarian":7221,"ĠGram":7222,"Ġcannellini":7223,"ibby":7224,"alfa":7225,"Ġ238":7226,"floured":7227,"ĠPicnic":7228,"Pepper":7229,"ĠSouthwestern":7230,"two":7231,"ĠChunky":7232,"vegetable":7233,"Ġbriskly":7234,"ĠHollandaise":7235,"istribute":7236,"uguese":7237,"(\"":7238,")*":7239,"bled":7240,"lin":7241,"pineapple":7242,"atel":7243,"anding":7244,"rol":7245,"rock":7246,"ĠBubble":7247,"unks":7248,"Ġunseasoned":7249,"Ġmins":7250,"Ġsteady":7251,"Ġnine":7252,"redded":7253,"Ġshanks":7254,"ĠDad":7255,"ĠDuck":7256,"ĠFool":7257,"ĠFancy":7258,"ĠGod":7259,"Ġable":7260,"anta":7261,"orean":7262,"ĠOther":7263,"ĠJu":7264,"ĠVerm":7265,"Ġarea":7266,"ĠChew":7267,"ĠNana":7268,"Ġscrew":7269,"Ġcoleslaw":7270,"ĠMints":7271,"ĠKraut":7272,"ĠHello":7273,"prepared":7274,"Ġcreate":7275,"Ġpalms":7276,"ĠPuppy":7277,"Ġcollard":7278,"sprayed":7279,"Ġtongs":7280,"Ġeffect":7281,"ĠParmigiana":7282,"ĠVirginia":7283,"ĠSpeedy":7284,"Ġvolume":7285,"Ġalfalfa":7286,"Pre":7287,"Pam":7288,"__":7289,"ever":7290,"iber":7291,"lite":7292,"mo":7293,"por":7294,"tB":7295,"Ġmenthe":7296,"tery":7297,"ĠBill":7298,"Ġsteep":7299,"Ġstuck":7300,"rien":7301,"ĠDistribute":7302,"ĠFries":7303,"ĠLily":7304,"ĠGumd":7305,"ffe":7306,"ffles":7307,"Ġcling":7308,"Ġhalve":7309,"ecipe":7310,"ĠBlanch":7311,"ĠYam":7312,"Ġotherwise":7313,"Ġcontrol":7314,"reeze":7315,"aily":7316,"Ġrecipes":7317,"Ġdeluxe":7318,"Ġveggie":7319,"Ġfitted":7320,"ĠSunda":7321,"Ġcrystall":7322,"Bean":7323,"Beef":7324,"Ġtequila":7325,"Ġrequired":7326,"giving":7327,"strawberry":7328,"ltimate":7329,"stock":7330,"Ġfritters":7331,"ĠAutumn":7332,"Recipe":7333,"aut":7334,"hal":7335,"son":7336,"Ġoppos":7337,"Ġbought":7338,"Ġpres":7339,"root":7340,"itan":7341,"Ġdaily":7342,"usci":7343,"ĠMaster":7344,"ĠMicro":7345,"ooks":7346,"tops":7347,"Ġthough":7348,"ĠRose":7349,"standing":7350,"ĠStar":7351,"ĠFit":7352,"ĠInn":7353,"Ġexp":7354,"oconut":7355,"ĠNuggets":7356,"Ġencl":7357,"Ġproof":7358,"ĠSeasoned":7359,"ĠFruited":7360,"ĠCongo":7361,"Ġdropping":7362,"ĠGlor":7363,"ĠStromb":7364,"ĠWheaties":7365,"ĠPlay":7366,"Ġstrings":7367,"ĠSteamed":7368,"Ġpineapples":7369,"ĠFettucine":7370,"Ġthreads":7371,"Mixture":7372,"Ġsaucer":7373,"ĠJohnny":7374,"ĠRosemary":7375,"Ġfeet":7376,"ĠGenesis":7377,"Ġbushel":7378,"Vegetable":7379,"Ġgentle":7380,"'ve":7381,"Cool":7382,"cub":7383,"iger":7384,"opped":7385,"rat":7386,"Ġcal":7387,"Ġ110":7388,"Ġpic":7389,"only":7390,"ouille":7391,"level":7392,"Ġ260":7393,"amount":7394,"itting":7395,"Ġpepe":7396,"heasant":7397,"acular":7398,"Ġunwrapped":7399,"Ġha":7400,"Ġhus":7401,"ometimes":7402,"chuck":7403,"rif":7404,"Ġsoaking":7405,"ĠChipped":7406,"Ġspl":7407,"Ġspots":7408,"eflon":7409,"wegian":7410,"Ġking":7411,"ĠOR":7412,"ĠPrep":7413,"Ġsalads":7414,"Ġwaffles":7415,"ĠShortening":7416,"ĠUltimate":7417,"ĠButternut":7418,"Ġcurl":7419,"Ġbrick":7420,"Ġsecret":7421,"Ġhardens":7422,"ĠBeefy":7423,"ĠFloat":7424,"stituted":7425,"ĠNutmeg":7426,"Ġperfect":7427,"ĠCloves":7428,"ĠCrisps":7429,"ĠColor":7430,"ectacular":7431,"ĠAnt":7432,"ĠPlan":7433,"ĠPlus":7434,"ĠAlmonds":7435,"ĠExtra":7436,"ĠFirmly":7437,"wheel":7438,"ĠBraised":7439,"ĠThanks":7440,"ylv":7441,"Ġchorizo":7442,"ething":7443,"Marcus":7444,"Ġsufficient":7445,"ĠKetchup":7446,"ĠOwens":7447,"ĠGumdrop":7448,"Dish":7449,"Oe":7450,"Old":7451,"cer":7452,"sal":7453,"wood":7454,"ward":7455,"Ġiced":7456,"ania":7457,"Ġpli":7458,"ona":7459,"amarina":7460,"Ġgolf":7461,"ĠPim":7462,"Ġher":7463,"Ġcane":7464,"Ġgren":7465,"Ġwhiz":7466,"ĠSpectacular":7467,"ĠStraw":7468,"ifter":7469,"Ġwhitefish":7470,"Ġconven":7471,"ĠCovered":7472,"ĠCrisscross":7473,"ĠKu":7474,"ĠThumb":7475,"ĠThyme":7476,"ĠSherbet":7477,"Ġchilling":7478,"Ġcrabs":7479,"Ġpinches":7480,"ĠStop":7481,"Ġstockpot":7482,"ĠMarinara":7483,"Ġsnap":7484,"Ġrotelle":7485,"ĠTortillas":7486,"Ġstacks":7487,"Ġburritos":7488,"Ġdecorating":7489,"ĠParker":7490,"ĠMiniature":7491,"rize":7492,"ĠRounds":7493,"augh":7494,"ĠBox":7495,"ĠHillshire":7496,"Note":7497,"Ġmembrane":7498,"Ġquantity":7499,"ĠChoco":7500,"Ġfingertips":7501,"ĠThanksgiving":7502,"!).":7503,"Col":7504,"aur":7505,"dark":7506,"rami":7507,"uke":7508,"Ġsifter":7509,"Ġbuy":7510,"uture":7511,"Ġfif":7512,"Ġfajita":7513,"Ġfuture":7514,"Ġchanges":7515,"Ġwipe":7516,"ores":7517,"orpor":7518,"ĠSanta":7519,"ĠBour":7520,"ĠPreser":7521,"Ġminimum":7522,"ĠMam":7523,"omar":7524,"tosh":7525,"urst":7526,"ĠStrips":7527,"ĠFle":7528,"vender":7529,"assail":7530,"ĠLee":7531,"Ġsource":7532,"ĠHer":7533,"Ġcarbo":7534,"Ġdishpan":7535,"Ġisn":7536,"ĠThins":7537,"Ġgingerbread":7538,"ĠCorning":7539,"ossum":7540,"cohol":7541,"ĠTofu":7542,"ranging":7543,"Ġacting":7544,"Ġscalding":7545,"Servings":7546,"Ġfrosted":7547,"ordfish":7548,"ĠOptional":7549,"Ġliters":7550,"ĠLike":7551,"Ġdelicately":7552,"Appetizer":7553,"Ġrecommended":7554,"uscious":7555,"Brien":7556,"Gl":7557,"Op":7558,"Oatmeal":7559,"Save":7560,"gan":7561,"house":7562,"layer":7563,"ply":7564,"tto":7565,"wd":7566,"Ġcured":7567,"Ġbud":7568,"Ġpen":7569,"ati":7570,"ils":7571,"onstituted":7572,"ality":7573,"ĠCenter":7574,"ĠSol":7575,"ĠSilk":7576,"ĠSens":7577,"ĠBuckeyes":7578,"ĠPrize":7579,"isch":7580,"ĠTarragon":7581,"used":7582,"Ġchopping":7583,"chatel":7584,"ĠChi":7585,"ĠChil":7586,"ĠDolly":7587,"ĠSprouts":7588,"Ġjuiced":7589,"Ġseem":7590,"veness":7591,"ainless":7592,"ĠLace":7593,"ĠLibby":7594,"ĠGather":7595,"Ġcarob":7596,"Ġshreds":7597,"Ġoleomar":7598,"estring":7599,"ĠKrisp":7600,"Ġfinally":7601,"ĠNight":7602,"rayfish":7603,"Ġscatter":7604,"ĠButtercream":7605,"Ġqts":7606,"fectioners":7607,"ĠDoes":7608,"Ġtubs":7609,"Ġpral":7610,"Ġdumpling":7611,"ĠPlain":7612,"Ġscrub":7613,"ĠHors":7614,"ĠRusset":7615,"ĠFrank":7616,"Ġdistributed":7617,"Mexican":7618,"orida":7619,"Ġvegies":7620,"glass":7621,"according":7622,"ĠFudgy":7623,"italini":7624,"ĠSundae":7625,"Ġopposite":7626,"Ġoleomargarine":7627,"Best":7628,"Noodle":7629,"Un":7630,"banana":7631,"herb":7632,"ioli":7633,"neck":7634,"rice":7635,"rano":7636,"wurst":7637,"Ġtend":7638,"Ġtacos":7639,"Ġob":7640,"Ġpray":7641,"Ġmess":7642,"atelli":7643,"real":7644,"Ġfun":7645,"Ġchurn":7646,"Ġtots":7647,"original":7648,"Ġaverage":7649,"Ġ38":7650,"Ġdots":7651,"ĠSort":7652,"ĠBel":7653,"ĠTeflon":7654,"ĠAsp":7655,"using":7656,"Ġnuggets":7657,"third":7658,"Ġroughy":7659,"urry":7660,"ĠWeek":7661,"Ġrear":7662,"Ġyears":7663,"ĠCooker":7664,"ersion":7665,"Ġblossoms":7666,"acher":7667,"shredded":7668,"ĠOwn":7669,"ĠBrowns":7670,"Ġsoya":7671,"Ġstandard":7672,"Ġspreadable":7673,"ĠPotluck":7674,"ĠBrickle":7675,"Ġcompressed":7676,"coated":7677,"flake":7678,"ĠSear":7679,"Ġdribble":7680,"ĠFlorida":7681,"ĠPeppermint":7682,"ĠAlas":7683,"Ġgrainy":7684,"dobo":7685,"Ġitself":7686,"ĠCrepes":7687,"ummettes":7688,"ĠComstock":7689,"Ġgoat":7690,"ĠAmos":7691,"ĠBonbons":7692,"Ġtamari":7693,"Ġhelps":7694,"ĠPorcupines":7695,"ĠHelen":7696,"skinless":7697,"Moist":7698,"Ġincorpor":7699,"andelion":7700,"Ġprevious":7701,"ĠStromboli":7702,"Ġpliable":7703,".;":7704,"Cl":7705,"Che":7706,"Crock":7707,"Ex":7708,"Jack":7709,"Let":7710,"Me":7711,"br":7712,"divided":7713,"honey":7714,"must":7715,"tata":7716,"ĠQ":7717,"Ġton":7718,"Ġpurch":7719,"ĠSop":7720,"ĠSna":7721,"aced":7722,"ĠTips":7723,"Ġbutterf":7724,"Ġhad":7725,"Ġchoy":7726,"Ġstainless":7727,"tsugar":7728,"wns":7729,"Ġthose":7730,"Ġgreasing":7731,"Ġoverlap":7732,"ĠRest":7733,"ĠWel":7734,"ĠWassail":7735,"Ġrelease":7736,"iments":7737,"Ġselec":7738,"quarts":7739,"quarter":7740,"Ġyet":7741,"Ġbeefy":7742,"ĠLuscious":7743,"aches":7744,"ĠHand":7745,"overnight":7746,"aga":7747,"Ġmeatless":7748,"antime":7749,"ĠPrecook":7750,"Ġmashing":7751,"Ġrid":7752,"Ġgloves":7753,"Ġseparating":7754,"arines":7755,"Ġcrook":7756,"ĠFlank":7757,"ĠGrey":7758,"Ġsubstitutes":7759,"ĠContin":7760,"unsalted":7761,"Ġfilet":7762,"inesap":7763,"Ġunderstanding":7764,"Ġgives":7765,"ĠDonuts":7766,"Ġ170":7767,"ĠNorwegian":7768,"Ġzesty":7769,"Ġfrankfurter":7770,"Ġscramble":7771,"Ġomitted":7772,"ĠFrito":7773,"Ġcrepes":7774,"ĠSnowball":7775,"ĠTruff":7776,"Ġmangoes":7777,"ĠLinguini":7778,"ufchatel":7779,"ĠMadeira":7780,"ĠCharl":7781,"Ġmotion":7782,"ĠBusy":7783,"Ġcourse":7784,"Ġscraps":7785,"granulated":7786,"ĠCompletely":7787,"ĠFriendship":7788,"ffeec":7789,"raten":7790,"Ġpicnic":7791,"Ġgrenadine":7792,"ĠFleisch":7793,"Ida":7794,"My":7795,"Ro":7796,"We":7797,"Yield":7798,"hom":7799,"nam":7800,"tT":7801,"ues":7802,"uerb":7803,"onz":7804,"onuts":7805,"oud":7806,"ĠCast":7807,"Ġdef":7808,"ĠSan":7809,"ĠBak":7810,"isquick":7811,"Ġhang":7812,"usilli":7813,"allions":7814,"Ġbakes":7815,"Ġshaker":7816,"Ġthink":7817,"Ġatt":7818,"that":7819,"ĠRanger":7820,"ieved":7821,"acker":7822,"colator":7823,"ĠFig":7824,"Ġ64":7825,"ĠLin":7826,"inks":7827,"Ġcoconuts":7828,"ĠHazel":7829,"Ġrow":7830,"Ġclaw":7831,"Ġexten":7832,"Ġtenderized":7833,"Ġplay":7834,"oiled":7835,"ĠJumb":7836,"Ġtabasco":7837,"ĠChef":7838,"ĠNice":7839,"ĠNancy":7840,"ĠYear":7841,"ĠShoo":7842,"rowroot":7843,"Ġpreparation":7844,"Ġadditions":7845,"extra":7846,"Ġarrowroot":7847,"Ġ240":7848,"Ġpatted":7849,"Ġfolded":7850,"reserving":7851,"etta":7852,"ford":7853,"irty":7854,"Ġcaramelized":7855,"boiling":7856,"ĠMarble":7857,"process":7858,"crumbled":7859,"aturated":7860,"bean":7861,"Ġguests":7862,"ride":7863,"Ġsqueezing":7864,"ĠScrambled":7865,"rect":7866,"Ġcontinually":7867,"Ġcrepe":7868,"tCover":7869,"immers":7870,"ĠPortuguese":7871,"ĠFasten":7872,"giveness":7873,"ĠCarbon":7874,"ĠFoolproof":7875,"Ġcrystallized":7876,"ĠKugel":7877,"ĠPreserves":7878,"uerbraten":7879,"Gar":7880,"He":7881,"aire":7882,"best":7883,"gall":7884,"popped":7885,"ura":7886,"Ġ)":7887,"Ġsac":7888,"Ġsimmers":7889,"aring":7890,"Ġpizzas":7891,"utab":7892,"Ġfur":7893,"ĠCola":7894,"Ġditalini":7895,"ĠSally":7896,"raSweet":7897,"tilage":7898,"elly":7899,"Ġnorm":7900,"Ġ42":7901,"Ġgrater":7902,"ĠChampagne":7903,"urkey":7904,"Ġbok":7905,"ĠStrip":7906,"ope":7907,"Ġcond":7908,"Ġclings":7909,"ĠJean":7910,"Ġitalian":7911,"ĠKorean":7912,"Ġprebaked":7913,"ĠSauerbraten":7914,"ĠPeanuts":7915,"ĠBreaded":7916,"Ġquality":7917,"ĠChoy":7918,"ermits":7919,"ogi":7920,"Ġreconstituted":7921,"ividual":7922,"ĠZiti":7923,"ĠFruity":7924,"ĠUnbaked":7925,"Ġdippers":7926,"ĠLemonade":7927,"ystery":7928,"Ġbulb":7929,"Ġpops":7930,"ĠCrushed":7931,"Ġgrilling":7932,"added":7933,"ĠCrusty":7934,"Ġfettuccini":7935,"Ġplaces":7936,"ĠPlant":7937,"Ġnectarines":7938,"Ġ236":7939,"Ġbright":7940,"Ġcrystal":7941,"Ġcountertop":7942,"Ġshoestring":7943,"ĠJane":7944,"first":7945,"Ġscalloped":7946,"ĠHappy":7947,"ĠVienna":7948,"ĠVermicelli":7949,"ĠChewies":7950,"Ġenclose":7951,"ĠPlanters":7952,"Ġfifth":7953,"ffeecake":7954,"ĠFleischmann":7955,"gallon":7956,".'":7957,"Fly":7958,"Velveeta":7959,"band":7960,"salted":7961,"sylv":7962,"twith":7963,"trem":7964,"Ġore":7965,"Ġpare":7966,"Ġpile":7967,"Ġpaint":7968,"Ġmic":7969,"ilian":7970,"ented":7971,"ouda":7972,"ouff":7973,"Ġfarm":7974,"Ġfield":7975,"Ġfeel":7976,"Ġinverted":7977,"iter":7978,"Ġdressed":7979,"Ġlife":7980,"ĠBudd":7981,"ĠBible":7982,"geburger":7983,"isette":7984,"ĠTap":7985,"illo":7986,"ĠAss":7987,"Ġhere":7988,"usc":7989,"oto":7990,"ucks":7991,"Ġattract":7992,"ĠDec":7993,"Ġsear":7994,"ĠString":7995,"ĠLove":7996,"Ġheatproof":7997,"measure":7998,"Ġcartilage":7999,"shell":8000,"lied":8001,"ĠBroth":8002,"ĠSalami":8003,"ĠBlender":8004,"Ġuses":8005,"roproof":8006,"Ġaccom":8007,"Ġherbal":8008,"ĠUnder":8009,"ational":8010,"Ġhors":8011,"Ġcrockpot":8012,"ĠPatch":8013,"oya":8014,"Ġpintos":8015,"ĠDorito":8016,"alloped":8017,"ĠGlass":8018,"ĠTwenty":8019,"ĠBurrito":8020,"Ġbitters":8021,"Ġlooking":8022,"ĠDirty":8023,"Ġribbon":8024,"ĠSecret":8025,"ĠHealth":8026,"ĠTrash":8027,"ĠPenny":8028,"Ġsomething":8029,"Ġchecking":8030,"Ġfeels":8031,"ĠSuccess":8032,"Ġsatiny":8033,"ĠRoyal":8034,"Oeuvres":8035,"ĠStraws":8036,"aurant":8037,"Glazed":8038,"sylvania":8039,"Ġmicroproof":8040,"Cut":8041,"Del":8042,"Ham":8043,"Mon":8044,"Soup":8045,"equal":8046,"either":8047,"fitting":8048,"last":8049,"lers":8050,"loaf":8051,"Ġess":8052,"Ġcacao":8053,"Ġbibb":8054,"Ġmen":8055,"uting":8056,"onath":8057,"also":8058,"icama":8059,"ĠCab":8060,"ĠSin":8061,"ĠSize":8062,"Ġlaugh":8063,"ĠPoup":8064,"ĠPur":8065,"ĠMystery":8066,"oman":8067,"Ġforgiveness":8068,"Ġ43":8069,"ĠWare":8070,"ĠWagon":8071,"ĠWinesap":8072,"ĠFe":8073,"Ġcarne":8074,"emi":8075,"Ġkahlua":8076,"Ġbagels":8077,"Ġbouquet":8078,"ĠWithout":8079,"Ġcomple":8080,"ĠCoffeecake":8081,"Ġgarnishing":8082,"ĠNutraSweet":8083,"Ġelbows":8084,"ĠSeparately":8085,"Ġretain":8086,"ĠWilli":8087,"type":8088,"ĠHomestyle":8089,"Ġdusting":8090,"ĠRotini":8091,"ĠFrittata":8092,"ĠMcButter":8093,"Ġspirals":8094,"ĠVeggies":8095,"Intosh":8096,"Ġappearance":8097,"Ġreplacement":8098,"Swiss":8099,"Ġwheel":8100,"arrots":8101,"Ġproper":8102,"Pepperidge":8103,"ĠGlorified":8104,"Optional":8105,"ĠPoupon":8106,")(":8107,"250":8108,"450":8109,"Dough":8110,"Hot":8111,"Its":8112,"Pro":8113,"eter":8114,"iole":8115,"nie":8116,"opping":8117,"sel":8118,"squ":8119,"tb":8120,"Ġtil":8121,"Ġpu":8122,"Ġfiber":8123,"icilian":8124,"ĠCam":8125,"asto":8126,"ĠSus":8127,"ĠAle":8128,"ades":8129,"etic":8130,"then":8131,"thick":8132,"Ġrutab":8133,"ĠDifferent":8134,"ĠWell":8135,"ĠFri":8136,"Ġrose":8137,"iest":8138,"ĠWhipping":8139,"Ġcutlet":8140,"ulous":8141,"liquid":8142,"Ġsofter":8143,"ĠNilla":8144,"Ġcompany":8145,"Ġpastrami":8146,"Ġdirect":8147,"Ġgranular":8148,"ĠFlounder":8149,"ildren":8150,"ĠSweeten":8151,"blend":8152,"unsifted":8153,"ĠRequ":8154,"Ġdepression":8155,"ĠMarz":8156,"Ġscooped":8157,"broken":8158,"unny":8159,"ingersnap":8160,"tCook":8161,"uncovered":8162,"minutes":8163,"ĠGeorge":8164,"ĠSouthwest":8165,"firm":8166,"ĠLeftovers":8167,"ĠCaviar":8168,"Grand":8169,"Sausage":8170,"almonds":8171,"Ġsplash":8172,"ĠAntip":8173,"ĠAspic":8174,"ĠCarbonara":8175,"onathan":8176,"425":8177,"55":8178,"Ar":8179,"BQ":8180,"With":8181,"oam":8182,"tadd":8183,"tuntil":8184,"xtail":8185,"Ġut":8186,"Ġrain":8187,"Ġtarts":8188,"Ġbuck":8189,"Ġport":8190,"reck":8191,"ali":8192,"icle":8193,"ĠCant":8194,"ĠCilantro":8195,"Ġease":8196,"ĠBBQ":8197,"ĠPi":8198,"ung":8199,"ĠTra":8200,"ĠTrout":8201,"Ġhush":8202,"ĠMacaroon":8203,"verly":8204,"Ġstars":8205,"Ġstopping":8206,"eller":8207,"oma":8208,"ires":8209,"ethod":8210,"iev":8211,"abulous":8212,"Ġspear":8213,"ĠWreath":8214,"Ġren":8215,"stems":8216,"imin":8217,"ĠSpry":8218,"ĠFabulous":8219,"ĠLady":8220,"arshmallow":8221,"ĠGouda":8222,"Ġcracklings":8223,"Ġkabobs":8224,"Ġslide":8225,"Ġraised":8226,"Ġtenderize":8227,"ĠEither":8228,"ĠPears":8229,"Ġbrunch":8230,"Ġstiffen":8231,"ĠGreens":8232,"ĠUncooked":8233,"ĠConfectioners":8234,"Ġmarinating":8235,"ĠAlways":8236,"Ġ140":8237,"Ġsurfaces":8238,"Ġrosamarina":8239,"ĠStewed":8240,"Ġfourth":8241,"ĠClusters":8242,"ĠRemember":8243,"ĠRoman":8244,"ĠCrustless":8245,"Ġshortbread":8246,"ĠWatermelon":8247,"Ġdampen":8248,"ĠPennsylvania":8249,"iodized":8250,"When":8251,"Ġsizzling":8252,"Ġpetite":8253,"ĠBarbara":8254,"ĠGalliano":8255,"ĠQuesad":8256,"Ġmulti":8257,"Ġhusks":8258,"Ġcrookneck":8259,"Ġattractive":8260,"Monterey":8261,"ĠAntipasto":8262,"Cauliflower":8263,"Fl":8264,"Filled":8265,"bably":8266,"dissolved":8267,"ha":8268,"my":8269,"oise":8270,"seed":8271,"Ġarm":8272,"Ġcrayfish":8273,"inom":8274,"Ġsand":8275,"Ġswe":8276,"anna":8277,"Ġbass":8278,"Ġbuff":8279,"Ġbundles":8280,"Ġmugs":8281,"Ġfar":8282,"Ġfarina":8283,"itter":8284,"ĠSicilian":8285,"Ġgin":8286,"Ġgift":8287,"Ġpeg":8288,"ioneer":8289,"ĠPit":8290,"ĠPres":8291,"ĠTraditional":8292,"ĠAgain":8293,"ĠMild":8294,"ĠMolly":8295,"Ġbeaut":8296,"ados":8297,"changes":8298,"Ġshoe":8299,"Ġcobs":8300,"ĠWar":8301,"ĠLop":8302,"Ġcones":8303,"bert":8304,"ĠCooler":8305,"eye":8306,"ĠCheesecakes":8307,"ĠSlide":8308,"ĠTurnovers":8309,"Ġchestnut":8310,"roximate":8311,"Ġcroquettes":8312,"Ġhardened":8313,"ĠForest":8314,"ĠCod":8315,"Ġhighest":8316,"ĠScott":8317,"scar":8318,"ĠConc":8319,"ĠCondensed":8320,"ĠCanapes":8321,"Ġmeantime":8322,"Ġgarnishes":8323,"ĠDivine":8324,"fort":8325,"ĠFarms":8326,"ĠApproximately":8327,"ĠReally":8328,"odus":8329,"Ġtrip":8330,"smooth":8331,"Ġways":8332,"Ġcurdle":8333,"ĠNeufchatel":8334,"pected":8335,"ĠManwich":8336,"Ġdecorated":8337,"ĠSuperMoist":8338,"Ġpersonal":8339,"Ġcavities":8340,"tCool":8341,"Ġsuitable":8342,"ĠJudy":8343,"Ġlifting":8344,"Mozzarella":8345,"ĠEscort":8346,"ĠEscalloped":8347,"Ġjoint":8348,"ĠArmour":8349,"cubed":8350,"Ġconventional":8351,"Ġessence":8352,"inomoto":8353,"Ġbeautif":8354,"Coconut":8355,"Fresh":8356,"Kay":8357,"Put":8358,"ippy":8359,"join":8360,"long":8361,"mini":8362,"non":8363,"oven":8364,"ohydrate":8365,"pour":8366,"tF":8367,"Ġ`":8368,"Ġupper":8369,"intz":8370,"Ġsake":8371,"ppe":8372,"rown":8373,"ĠCrimp":8374,"Ġdisc":8375,"Ġgm":8376,"ĠBow":8377,"ĠPal":8378,"ĠPita":8379,"ĠPioneer":8380,"ĠTer":8381,"Ġunless":8382,"Ġvar":8383,"ĠMain":8384,"raham":8385,"verbs":8386,"Ġstreusel":8387,"ria":8388,"Ġshaping":8389,"Ġsoap":8390,"Ġgram":8391,"ĠRav":8392,"Ġoils":8393,"ĠChick":8394,"ĠWrapped":8395,"ansas":8396,"ids":8397,"Ġsmell":8398,"ĠLand":8399,"ĠIng":8400,"oody":8401,"overleaf":8402,"ago":8403,"ĠWhirl":8404,"Ġmaybe":8405,"ĠOur":8406,"ĠOscar":8407,"Ġsett":8408,"ĠVer":8409,"ifteen":8410,"Ġenamel":8411,"ĠShip":8412,"Ġdirection":8413,"Ġaccum":8414,"ĠGrass":8415,"blue":8416,"Ġpercolator":8417,"ĠBrandy":8418,"when":8419,"nessee":8420,"ĠFrosty":8421,"Ġworth":8422,"Ġcasings":8423,"ĠMargar":8424,"ĠMarie":8425,"Ġreseal":8426,"Ġlumping":8427,"ĠHeart":8428,"Ġentirely":8429,"ĠMcIntosh":8430,"Ġliner":8431,"ĠArtichokes":8432,"ĠIndividual":8433,"ĠMaryland":8434,"Ġwilt":8435,"tPut":8436,"tPlace":8437,"Ġvarieties":8438,"ignon":8439,"ĠLiquid":8440,"Ġdisappear":8441,"Ġdabs":8442,"bbie":8443,"uski":8444,"tRemove":8445,"Ġajinomoto":8446,"ĠSopa":8447,"ĠCastle":8448,"ĠTapioca":8449,"ĠWilliams":8450,"ĠLopez":8451,"aves":8452,"found":8453,"lukewarm":8454,"ris":8455,"si":8456,"sin":8457,"separ":8458,"wie":8459,"Ġcatch":8460,"Ġsits":8461,"Ġtim":8462,"Ġbigger":8463,"Ġbias":8464,"Ġpilaf":8465,"Ġmir":8466,"Ġmid":8467,"ening":8468,"Ġface":8469,"ĠCry":8470,"Ġ320":8471,"ĠBurn":8472,"ĠBird":8473,"ĠPost":8474,"ĠTuck":8475,"ĠTilt":8476,"Ġmints":8477,"Ġchocol":8478,"Ġwatery":8479,"Ġjicama":8480,"Ġthinned":8481,"ĠRem":8482,"ĠRise":8483,"ĠRhod":8484,"Ġruns":8485,"Ġwells":8486,"Ġyear":8487,"ĠHen":8488,"emble":8489,"agie":8490,"Ġclause":8491,"eption":8492,"Ġ125":8493,"ĠEas":8494,"umpti":8495,"ĠYank":8496,"Ġcoming":8497,"iscuits":8498,"ĠButtered":8499,"ĠButterfingers":8500,"ively":8501,"Ġspooned":8502,"Ġconfectioner":8503,"mium":8504,"Ġseparates":8505,"serve":8506,"ĠPeachy":8507,"ĠGlory":8508,"Ġ365":8509,"Ġpulled":8510,"ĠHerbs":8511,"Ġswordfish":8512,"Ġvarious":8513,"ĠBoneless":8514,"Ġmicrowaved":8515,"creamy":8516,"Ġdrummettes":8517,"Ġcodfish":8518,"Ġstays":8519,"ĠElephant":8520,"Ġstoring":8521,"ĠBuffet":8522,"Ġrisen":8523,"Peanut":8524,"ĠHamburgers":8525,"ĠCarbohydrate":8526,"ĠFantastic":8527,"Ġsteps":8528,"Ġsuperfine":8529,"ĠSandies":8530,"Ġperiodically":8531,"Ġimproves":8532,"Club":8533,"ĠContinental":8534,"Ġdefat":8535,"ĠConcord":8536,"umptious":8537,"ĠYankee":8538,".*":8539,"27":8540,"85":8541,"An":8542,"cool":8543,"cass":8544,"pint":8545,"rist":8546,"sift":8547,"tat":8548,"tub":8549,"Ġide":8550,"Ġsieved":8551,"Ġborder":8552,"aro":8553,"esired":8554,"Ġpheasant":8555,"ands":8556,"Ġwreath":8557,"ictor":8558,"garlic":8559,"lege":8560,"ĠCle":8561,"Ġ230":8562,"Ġage":8563,"Ġdoves":8564,"Ġdull":8565,"ĠSock":8566,"ĠPul":8567,"ĠPenne":8568,"ungreased":8569,"iso":8570,"ĠTreas":8571,"older":8572,"raspberry":8573,"adina":8574,"omat":8575,"toasted":8576,"ĠRat":8577,"ĠDian":8578,"ĠFeeds":8579,"Ġcupfuls":8580,"Ġblot":8581,"Ġbreaded":8582,"ĠHermits":8583,"Ġcone":8584,"Ġropes":8585,"Ġappet":8586,"lett":8587,"ĠSalted":8588,"ĠKir":8589,"ĠNature":8590,"Ġzip":8591,"Ġfillings":8592,"Ġscones":8593,"ĠBrer":8594,"Ġglue":8595,"Ġcrout":8596,"Ġcroiss":8597,"udges":8598,"ranean":8599,"Ġinserting":8600,"ample":8601,"whipped":8602,"ĠRaise":8603,"eringues":8604,"ĠClams":8605,"Ġfoams":8606,"ĠSkew":8607,"ĠSmash":8608,"Ġrotate":8609,"addy":8610,"Ġpersons":8611,"beans":8612,"ĠMediter":8613,"Ġdecorations":8614,"Ġ280":8615,"ĠSnowballs":8616,"ugula":8617,"tCombine":8618,"Spinach":8619,"Ġbuttons":8620,"Ġhulls":8621,"minced":8622,"ĠParfait":8623,"Ġmembranes":8624,"ĠRomaine":8625,"Ġshows":8626,"ĠQueso":8627,"aisy":8628,"ĠTennessee":8629,"Ġdraft":8630,"tSpread":8631,"ĠPimento":8632,"ĠBoursin":8633,"Ġpurchased":8634,"homemade":8635,"Garlic":8636,"Ġfurther":8637,"ĠSinful":8638,"ĠMarzetti":8639,"Ġsweeter":8640,"Ġresealable":8641,"Ġdefatted":8642,"ĠMediterranean":8643,"36":8644,"Ahead":8645,"Day":8646,"Ever":8647,"Ma":8648,"Mushroom":8649,"bottom":8650,"gate":8651,"good":8652,"ning":8653,"tminutes":8654,"wor":8655,"ze":8656,"Ġsort":8657,"Ġsince":8658,"arified":8659,"Ġpig":8660,"Ġma":8661,"Ġmac":8662,"Ġmove":8663,"illets":8664,"orice":8665,"Ġdutch":8666,"Ġlye":8667,"ooper":8668,"ixie":8669,"ĠBatch":8670,"Ġvents":8671,"Ġhit":8672,"Ġhun":8673,"ĠMid":8674,"ĠMove":8675,"ĠMember":8676,"omon":8677,"chwe":8678,"irley":8679,"Ġgratin":8680,"ĠDis":8681,"ĠDab":8682,"Ġspacing":8683,"ĠWinning":8684,"ĠFire":8685,"ifts":8686,"ĠLakes":8687,"ĠLuncheon":8688,"Ġheats":8689,"ĠHens":8690,"tthe":8691,"ĠOh":8692,"iscott":8693,"avorites":8694,"ĠCutlets":8695,"Ġang":8696,"ĠJonathan":8697,"ĠBlossom":8698,"Ġnote":8699,"Ġenhan":8700,"Ġdoing":8701,"Ġ72":8702,"Ġbagel":8703,"Ġdevelop":8704,"ĠSouper":8705,"undle":8706,"ĠFlan":8707,"Ġpinwheels":8708,"Ġpatting":8709,"pote":8710,"ĠQuickie":8711,"unschwe":8712,"ĠCloud":8713,"Ġ360":8714,"Ġsolids":8715,"Step":8716,"Ġwraps":8717,"ĠCompote":8718,"These":8719,"Ġcreole":8720,"ĠWaverly":8721,"ĠOlives":8722,"Ġpersimmons":8723,"ĠBraid":8724,"Ġdollops":8725,"ĠWonder":8726,"Ġcollards":8727,"ĠGoes":8728,"Ġtucking":8729,"tSprinkle":8730,"Ġwidth":8731,"powdered":8732,"Ġreads":8733,"ĠPepsi":8734,"Ġthoughts":8735,"Colby":8736,"ĠKrispie":8737,"processed":8738,"ĠRavioli":8739,"wieback":8740,"Ġchocolates":8741,"ĠRhodes":8742,"ĠRatat":8743,"ĠDiane":8744,"unschweiger":8745,"Car":8746,"Gran":8747,"Jiffy":8748,"Lo":8749,"Macaroni":8750,"bles":8751,"ct":8752,"celery":8753,"desired":8754,"gah":8755,"luski":8756,"mashed":8757,"outs":8758,"pine":8759,"Ġsy":8760,"Ġsound":8761,"Ġtep":8762,"Ġoxtail":8763,"esa":8764,"Ġple":8765,"Ġpra":8766,"Ġpass":8767,"Ġmil":8768,"atini":8769,"Ġfan":8770,"Ġfaul":8771,"icorice":8772,"Ġach":8773,"Ġever":8774,"Ġdom":8775,"Ġdisp":8776,"Ġdeeds":8777,"Ġdandelion":8778,"ĠSirloin":8779,"Ġgifts":8780,"Ġlicorice":8781,"ĠBer":8782,"ĠPig":8783,"ĠTemp":8784,"Ġunpopped":8785,"ĠMarm":8786,"Ġorien":8787,"adillo":8788,"Ġforget":8789,"ches":8790,"ĠAdditional":8791,"Ġnose":8792,"Ġjigger":8793,"thirds":8794,"acks":8795,"Ġcobbler":8796,"ĠDone":8797,"ĠWest":8798,"heath":8799,"ĠStay":8800,"ify":8801,"ĠCookbook":8802,"ĠLy":8803,"ĠGri":8804,"Ġcarcass":8805,"Ġmeatball":8806,"ĠSerrano":8807,"estic":8808,"Ġhearty":8809,"Ġsettle":8810,"ĠJim":8811,"ĠViv":8812,"ĠNog":8813,"ĠBear":8814,"ĠShirley":8815,"ĠSett":8816,"Ġbutcher":8817,"Ġbrickle":8818,"ĠRob":8819,"Ġyourself":8820,"udel":8821,"Ġcannot":8822,"Ġarugula":8823,"Ġdrizz":8824,"ĠLeg":8825,"ĠQuik":8826,"ĠPeppered":8827,"Ġhashbrown":8828,"Ġanytime":8829,"blended":8830,"Ġelimin":8831,"Ġsurround":8832,"Ġallowed":8833,"ĠUsually":8834,"ĠCroutons":8835,"board":8836,"ĠHeap":8837,"ĠToasties":8838,"Ġfinishing":8839,"Ġpulling":8840,"ĠNewman":8841,"Ġwrapping":8842,"Ġswir":8843,"Ġtypes":8844,"ĠPopovers":8845,"ĠMcKay":8846,"Ġcontent":8847,"Ġdrinking":8848,"metal":8849,"ĠMaid":8850,"Ġsnacks":8851,"ĠMounds":8852,"stirring":8853,"ĠSchilling":8854,"piece":8855,"ynes":8856,"Ġvegeburger":8857,"Blue":8858,"Ġsmoking":8859,"ĠSubstitute":8860,"ĠSmokies":8861,"Ġripen":8862,"ĠLinda":8863,"ĠPlantation":8864,"Ġaccompan":8865,"Ġlaughter":8866,"arshmallows":8867,"ĠQuesadillas":8868,"ictoria":8869,"ĠRatatouille":8870,"ĠMarmalade":8871,"Ġoriental":8872,"Cake":8873,"Duncan":8874,"Eagle":8875,"Judges":8876,"Ready":8877,"Tomato":8878,"Wal":8879,"Will":8880,"bel":8881,"both":8882,"ca":8883,"cil":8884,"cks":8885,"carrots":8886,"four":8887,"figs":8888,"hold":8889,"ked":8890,"pork":8891,"sch":8892,"tMakes":8893,"work":8894,"wreck":8895,"ycle":8896,"Ġtan":8897,"Ġtreat":8898,"Ġbirds":8899,"Ġposition":8900,"ilee":8901,"ility":8902,"ref":8903,"Ġfeta":8904,"Ġfacing":8905,"Ġinclude":8906,"asi":8907,"itake":8908,"Ġau":8909,"Ġduty":8910,"Ġgourmet":8911,"ĠPa":8912,"ĠPen":8913,"ĠPockets":8914,"unge":8915,"ĠTe":8916,"Ġvis":8917,"Ġvert":8918,"ĠAcorn":8919,"Ġhu":8920,"Ġhope":8921,"Ġholder":8922,"usually":8923,"ĠMarb":8924,"otto":8925,"Ġpeppered":8926,"Ġpepperon":8927,"omit":8928,"Ġmilks":8929,"tof":8930,"topping":8931,"Ġcanister":8932,"Ġshot":8933,"Ġjal":8934,"Ġjoy":8935,"ĠRig":8936,"nda":8937,"ĠChurch":8938,"ĠDaisy":8939,"Ġyield":8940,"Ġ85":8941,"shortening":8942,"ĠWhoop":8943,"avian":8944,"available":8945,"Ġapprox":8946,"Ġslash":8947,"Ġpapaya":8948,"ĠCreams":8949,"Ġrefresh":8950,"ollo":8951,"Ġoutdo":8952,"ĠKol":8953,"ĠNon":8954,"Ġfatback":8955,"Ġdeter":8956,"ĠPressure":8957,"Ġprobably":8958,"Ġknow":8959,"soda":8960,"Ġdiabetic":8961,"Ġ180":8962,"ĠContadina":8963,"Ġunderside":8964,"ĠReserving":8965,"crack":8966,"annie":8967,"ĠDishpan":8968,"ĠTwists":8969,"ĠOverlap":8970,"ĠMaraschino":8971,"Ġburnt":8972,"Ġworkable":8973,"oeuvres":8974,"ĠAnise":8975,"Ġmonterey":8976,"ĠNewburg":8977,"beater":8978,"ĠPolynes":8979,"erde":8980,"ĠFrankfur":8981,"ĠMexicali":8982,"ĠLeaf":8983,"ĠSimply":8984,"depends":8985,"finely":8986,"ĠPicc":8987,"ĠAnnie":8988,"ĠSchool":8989,"Ġhoagie":8990,"ĠKidney":8991,"Ġrequire":8992,"Ġshoepeg":8993,"Ġpetals":8994,"Ġdelicate":8995,"strawberries":8996,"ĠEspresso":8997,"Onion":8998,"Ġdredging":8999,"ĠThumbprint":9000,"ĠChilies":9001,"Ġprayer":9002,"ĠCabin":9003,"ĠPuritan":9004,"ĠShipwreck":9005,"Ġcrouton":9006,"Ġtepid":9007,"Ġfaults":9008,"ĠPolynesian":9009,"Bread":9010,"Camp":9011,"Jer":9012,"Wesson":9013,"ceed":9014,"di":9015,"done":9016,"filled":9017,"ians":9018,"lb":9019,"lice":9020,"lins":9021,"press":9022,"semi":9023,"tie":9024,"they":9025,"tbutter":9026,"tomato":9027,"zos":9028,"ĠST":9029,"Ġcajun":9030,"eros":9031,"Ġta":9032,"Ġtraditional":9033,"Ġbarbecued":9034,"Ġbundle":9035,"edged":9036,"iles":9037,"ilding":9038,"Ġfajitas":9039,"Ġweather":9040,"spices":9041,"ĠSole":9042,"ĠSee":9043,"ĠSheath":9044,"ĠBor":9045,"Ġunmelted":9046,"Ġminestrone":9047,"ĠMem":9048,"ĠMile":9049,"Ġforth":9050,"Ġcanes":9051,"Ġshi":9052,"Ġshrink":9053,"ĠRol":9054,"Ġroughly":9055,"ĠDaddy":9056,"ables":9057,"monia":9058,"redients":9059,"Ġadds":9060,"ĠFun":9061,"Ġyields":9062,"Ġcrumbling":9063,"ĠLunch":9064,"ĠLoin":9065,"arse":9066,"ĠHay":9067,"ardi":9068,"ubilee":9069,"Ġcloverleaf":9070,"weed":9071,"Ġextrem":9072,"Ġgray":9073,"ecially":9074,").\\":9075,"ĠCutout":9076,"Ġheal":9077,"Ġrefrigeration":9078,"ĠJubilee":9079,"Ġsimmered":9080,"ĠPeter":9081,"Ġpeeler":9082,"ĠNeeds":9083,"Ġgelatins":9084,"Ġbagu":9085,"vaporated":9086,"ĠSeas":9087,"Ġhigher":9088,"Ġprocessing":9089,"ĠJacks":9090,"angria":9091,"Ġparfait":9092,"Ġfiling":9093,"Ġcapful":9094,"ĠSnap":9095,"Ġgiving":9096,"Ġgiant":9097,"Ġburns":9098,"melt":9099,"ĠCrunchies":9100,"atures":9101,"ceding":9102,"Ġcaviar":9103,"ĠCavender":9104,"Ġbittersweet":9105,"ĠStrudel":9106,"ĠLeaves":9107,"ĠLogs":9108,"ĠMillionaire":9109,"234":9110,"ĠWilted":9111,"bbles":9112,"Ġtostada":9113,"Ġhuman":9114,"Ġassembled":9115,"moder":9116,"tBeat":9117,"rifice":9118,"wdust":9119,"ĠSolomon":9120,"Ġincorporated":9121,"ĠRequest":9122,"ĠSkewer":9123,"Ġangle":9124,"Ġhuge":9125,"ĠWhoopie":9126,"Jeremiah":9127,"Ġextremely":9128,"And":9129,"BS":9130,"Banana":9131,"Mel":9132,"Medium":9133,"Pillsbury":9134,"Re":9135,"So":9136,"Span":9137,"Time":9138,"Zucchini":9139,"fill":9140,"gento":9141,"grease":9142,"jelly":9143,"ki":9144,"ming":9145,"marshmallows":9146,"noc":9147,"pa":9148,"rd":9149,"rint":9150,"sec":9151,"tel":9152,"turn":9153,"tServe":9154,"tLet":9155,"washed":9156,"Ġcycle":9157,"ination":9158,"Ġtang":9159,"Ġtint":9160,"Ġtears":9161,"Ġpossum":9162,"Ġmellow":9163,"Ġmann":9164,"Ġmalt":9165,"Ġmug":9166,"Ġfusilli":9167,"ingle":9168,"ĠConey":9169,"ĠCount":9170,"orthern":9171,"Ġsupper":9172,"Ġsugah":9173,"Ġducks":9174,"Ġgoo":9175,"Ġgather":9176,"Ġgher":9177,"Ġgingersnap":9178,"ĠBu":9179,"ddess":9180,"Ġeggbeater":9181,"Ġunprocessed":9182,"usband":9183,"ĠMull":9184,"ĠMah":9185,"ads":9186,"Ġnog":9187,"Ġshuck":9188,"Ġshaken":9189,"Ġjigg":9190,"Ġgrating":9191,"Ġpowders":9192,"ĠRis":9193,"asta":9194,"Ġrame":9195,"ĠDou":9196,"ĠDav":9197,"ĠDixie":9198,"urb":9199,"start":9200,"ĠStretch":9201,"inny":9202,"amonds":9203,"ĠLucky":9204,"erse":9205,"Ġovens":9206,"ĠHon":9207,"Ġclay":9208,"Ġclarified":9209,"artment":9210,"Ġreduc":9211,"Ġplan":9212,"ĠKosher":9213,"Ġpreceding":9214,"ĠSawdust":9215,"ĠVictoria":9216,"ĠMeltaway":9217,"ogs":9218,"Ġsauteing":9219,"ĠFlute":9220,"ĠFills":9221,"ividing":9222,"ĠMexi":9223,"angles":9224,"ĠMinced":9225,"ĠDiamond":9226,"ĠRaised":9227,"Ġpulse":9228,"ĠMarshmallows":9229,"ĠLayers":9230,"ĠSmuck":9231,"ĠEnough":9232,"Ġbites":9233,"ĠFoods":9234,"mpathy":9235,"ĠExodus":9236,"ĠScrumptious":9237,"Ġdecorator":9238,"ĠPinwheel":9239,"Ġhowever":9240,"uncture":9241,"Ġmaintain":9242,"ĠSpritz":9243,"Brown":9244,"ĠTwinkie":9245,"ĠEarly":9246,"Ġstraws":9247,"236":9248,"ĠPierogi":9249,"Ġthumbprint":9250,"ĠBoats":9251,"Ġwatching":9252,"ĠGoddess":9253,"Ġfriends":9254,"Also":9255,"ĠCavatini":9256,"Ġgooseberries":9257,"check":9258,"Ġbuilding":9259,"Ġmatchstick":9260,"ĠMarket":9261,"Ġobtain":9262,"Ġrearranging":9263,"ĠQue":9264,"Ġfarmer":9265,"ĠAssemble":9266,"Delicious":9267,"Grandma":9268,"omatic":9269,"Ġsympathy":9270,"ĠGriff":9271,"Ġhashbrowns":9272,"refriger":9273,"Campbell":9274,"Ġmanner":9275,"\"(":9276,"64":9277,"Bisquick":9278,"ER":9279,"Like":9280,"Of":9281,"Parmesan":9282,"cur":9283,"fts":9284,"full":9285,"gie":9286,"hi":9287,"neath":9288,"place":9289,"td":9290,"test":9291,"turkey":9292,"uum":9293,"virgin":9294,"yss":9295,"Ġcamp":9296,"ero":9297,"Ġbagg":9298,"Ġpigs":9299,"reau":9300,"Ġfowl":9301,"Ġfore":9302,"ppin":9303,"ĠCour":9304,"Ġ33":9305,"Ġ39":9306,"Ġdonut":9307,"Ġdiffer":9308,"ĠSatur":9309,"ĠSangria":9310,"heim":9311,"heavy":9312,"ĠBol":9313,"ĠBiscott":9314,"ĠPri":9315,"ĠPaste":9316,"ĠPipe":9317,"ĠPaint":9318,"ĠPollo":9319,"ĠTBS":9320,"ĠAna":9321,"ĠMat":9322,"ĠMich":9323,"ote":9324,"otal":9325,"Ġbear":9326,"Ġshut":9327,"ĠRipe":9328,"Ġwhirl":9329,"ĠChildren":9330,"ĠDan":9331,"ĠWyl":9332,"orns":9333,"iener":9334,"Ġlarg":9335,"ighter":9336,"stead":9337,"Ġjud":9338,"ĠIi":9339,"Ġsmash":9340,"Ġsmile":9341,"ĠFair":9342,"ĠFont":9343,"aining":9344,"ĠLeek":9345,"ĠLyn":9346,"ĠHair":9347,"ĠHickory":9348,"ĠPreacher":9349,"ĠJul":9350,"Ġitem":9351,"ĠKathy":9352,"ĠKluski":9353,"ĠVan":9354,"ĠVersion":9355,"ĠChilled":9356,"ĠShut":9357,"peaches":9358,"ĠRefill":9359,"Ġcolada":9360,"ĠSlip":9361,"Ġturner":9362,"Ġpopping":9363,"Ġammonia":9364,"Ġdeeply":9365,"Ġdiamonds":9366,"ĠAlmost":9367,"ĠKaren":9368,"Ġperch":9369,"ĠBrandied":9370,"Ġunsul":9371,"ĠFarmer":9372,"Ġunderneath":9373,"Ġfoaming":9374,"ĠDebbie":9375,"ĠRomanoff":9376,"ĠCollege":9377,"maybe":9378,"obsters":9379,"ondra":9380,"ĠJoan":9381,"ĠSnicker":9382,"ĠTriscuits":9383,"immies":9384,"Ġimprint":9385,"Ġstores":9386,"Topped":9387,"Chopped":9388,"Ġ290":9389,"ĠDrum":9390,"Ġplumped":9391,"Ġtongue":9392,"Ġwheels":9393,"Ġsquirrel":9394,"Ġfloating":9395,"ĠChestnut":9396,"Ġhaving":9397,"Excellent":9398,"ĠTruffles":9399,"Ġsacrifice":9400,"ouffer":9401,"Ġcompleted":9402,"Ġrainbow":9403,"Ġbucket":9404,"ĠClear":9405,"Granny":9406,"Ġdomestic":9407,"ĠViva":9408,"Walnut":9409,"Ġvisible":9410,"Ġpepperoncini":9411,"ĠRigatoni":9412,"ĠSTI":9413,"Ġshiitake":9414,"Ġshucked":9415,"ĠTBSP":9416,"ĠAnaheim":9417,"**":9418,"Cabbage":9419,"Fail":9420,"Gre":9421,"Miracle":9422,"bacon":9423,"equ":9424,"fruit":9425,"golden":9426,"graham":9427,"hand":9428,"here":9429,"off":9430,"pea":9431,"sauce":9432,"trim":9433,"tCh":9434,"tIn":9435,"vice":9436,"wax":9437,"Ġcyl":9438,"inth":9439,"Ġ175":9440,"Ġtre":9441,"Ġtumb":9442,"Ġtree":9443,"ested":9444,"Ġmass":9445,"Ġmoon":9446,"Ġmex":9447,"ency":9448,"ouillon":9449,"Ġtoes":9450,"Ġinner":9451,"Ġdraw":9452,"ĠSur":9453,"Ġgrained":9454,"Ġlobsters":9455,"ĠBet":9456,"ĠBab":9457,"ĠPizz":9458,"ĠToo":9459,"ĠTim":9460,"ĠTbl":9461,"ĠAdobo":9462,"ĠMas":9463,"ĠMad":9464,"ĠMayer":9465,"ĠMethod":9466,"tst":9467,"Ġnap":9468,"Ġthings":9469,"Ġleak":9470,"ĠRome":9471,"Ġwho":9472,"Ġtomat":9473,"ĠDom":9474,"ĠDonna":9475,"abama":9476,"ĠWhe":9477,"ighs":9478,"Ġfroth":9479,"ĠStouffer":9480,"ĠFeather":9481,"inners":9482,"ĠHusband":9483,"ĠGer":9484,"ĠGame":9485,"ĠGoya":9486,"avel":9487,"Ġslip":9488,"Ġexpected":9489,"Ġskillets":9490,"udded":9491,"Ġcrushing":9492,"ecks":9493,"entine":9494,"ĠEll":9495,"ĠJune":9496,"ĠKiev":9497,"Ġbottomed":9498,"ĠVerde":9499,"Ġdressings":9500,"ĠThing":9501,"ĠAndes":9502,"ensive":9503,"cean":9504,"Ġturtle":9505,"Ġcolby":9506,"Ġcolorful":9507,"Ġcuring":9508,"Ġtwelve":9509,"coarse":9510,"ĠForce":9511,"ĠCoint":9512,"ĠPeanutty":9513,"ĠDelite":9514,"ĠUnfold":9515,"ĠCoco":9516,"Ġconcentrates":9517,"Ġfilm":9518,"Ġcorrect":9519,"Ġhomestyle":9520,"Christ":9521,"Ġtinted":9522,"ĠAnisette":9523,"ĠSeafoam":9524,"ĠIced":9525,"ĠDilled":9526,"ĠMueller":9527,"Ġcitrus":9528,"ĠSwirls":9529,"Ġpushing":9530,"ĠGeb":9531,"hopper":9532,"ĠHelper":9533,"Ġwaiting":9534,"Ġbraunschweiger":9535,"Ġsizzles":9536,"Ġfriendship":9537,"Ġchorizos":9538,"condensed":9539,"aiser":9540,"Ġpreviously":9541,"arrot":9542,"ĠEspecially":9543,"ĠDepending":9544,"Ġdredged":9545,"Ġherring":9546,"Ġpencil":9547,"ĠAlaska":9548,"ĠWelsh":9549,"Ġselection":9550,"Roasted":9551,"naments":9552,"ĠJumbles":9553,"Heart":9554,"Ġrutabaga":9555,"intzes":9556,"ĠIngredients":9557,"ĠCastleberry":9558,"ĠKirsch":9559,"Ġhungry":9560,"Ġoxtails":9561,"ĠPiccata":9562,"Ġbaguette":9563,"moderate":9564,"Spanish":9565,"nocchi":9566,"ĠGriffin":9567,"ĠFontina":9568,"ĠCointreau":9569,"):":9570,"Cooked":9571,"Carrot":9572,"Fruit":9573,"Hour":9574,"Meat":9575,"More":9576,"Mores":9577,"Ori":9578,"Red":9579,"Reser":9580,"Sc":9581,"Top":9582,"They":9583,"candied":9584,"gly":9585,"ko":9586,"qt":9587,"rated":9588,"sts":9589,"simmer":9590,"same":9591,"some":9592,"tfor":9593,"tmix":9594,"tflour":9595,"va":9596,"vard":9597,"zle":9598,"Ġcame":9599,"Ġcalls":9600,"Ġcause":9601,"include":9602,"Ġbis":9603,"esqu":9604,"Ġmacaroon":9605,"rels":9606,"alup":9607,"already":9608,"Ġfrag":9609,"Ġfavorites":9610,"Ġchang":9611,"spaper":9612,"roz":9613,"ĠCatsup":9614,"aka":9615,"Ġ220":9616,"Ġsugg":9617,"Ġ34":9618,"Ġdividing":9619,"ĠSage":9620,"ĠSandy":9621,"ĠSara":9622,"ĠSometimes":9623,"Ġgum":9624,"ĠBir":9625,"ĠBart":9626,"ĠBul":9627,"ĠBark":9628,"ĠBorder":9629,"acuum":9630,"ĠPone":9631,"Ġflam":9632,"ows":9633,"ĠTass":9634,"Ġcheap":9635,"Ġunused":9636,"Ġvented":9637,"ĠAf":9638,"Ġhis":9639,"Ġhim":9640,"Ġhare":9641,"Ġhuckle":9642,"ĠMen":9643,"chop":9644,"Ġnorthern":9645,"Ġjer":9646,"Ġjimmies":9647,"thday":9648,"ĠRonz":9649,"mond":9650,"Ġspeck":9651,"ĠWee":9652,"ienne":9653,"ipillas":9654,"stal":9655,"ĠSpir":9656,"ĠFan":9657,"ĠFric":9658,"ific":9659,"ĠLong":9660,"Ġblu":9661,"Ġblades":9662,"achel":9663,"ĠHas":9664,"Ġclusters":9665,"napp":9666,"Ġalcohol":9667,"Ġapply":9668,"ideo":9669,"Ġhammer":9670,"tti":9671,"ĠEm":9672,"ĠBrowned":9673,"ĠBloody":9674,"ĠVick":9675,"Ġjellos":9676,"Ġtablets":9677,"abbages":9678,"ĠYu":9679,"ĠYears":9680,"ense":9681,"ĠBeg":9682,"ĠRefresh":9683,"Ġevaporate":9684,"Ġdissolving":9685,"ĠGrapes":9686,"Ġalternative":9687,"ĠCornstarch":9688,"ĠRobert":9689,"ĠOnly":9690,"ĠAlpine":9691,"ĠAlabama":9692,"Ġsubstituting":9693,"Ġopened":9694,"approx":9695,"ĠSkins":9696,"odge":9697,"Ġword":9698,"ĠScallopini":9699,"Ġrotel":9700,"ville":9701,"ĠCross":9702,"Ġholding":9703,"Cherry":9704,"ĠMarvel":9705,"Ġoverbrown":9706,"ĠAlmondine":9707,"ĠCuban":9708,"Ġcrem":9709,"ugles":9710,"hydrates":9711,"ĠHarvard":9712,"Ġgluten":9713,"ĠShoppe":9714,"ĠOmelette":9715,"Ġshovel":9716,"pieces":9717,"Ġmotor":9718,"Ġsquirrels":9719,"ĠCorinth":9720,"Ġdecrease":9721,"ĠChestnuts":9722,"halves":9723,"halved":9724,"Ġcarbohydrate":9725,"ganic":9726,"ĠSensational":9727,"Ġpralines":9728,"ĠStriped":9729,"ĠSusan":9730,"itterlings":9731,"ĠBorax":9732,"ĠQueen":9733,"ĠSaturday":9734,"ĠBiscotti":9735,"ĠSTIR":9736,"Ġcylinder":9737,"Christmas":9738,"Reserve":9739,"Ġhuckleberries":9740,"ĠCorinthians":9741,"!\\":9742,"33":9743,"Cover":9744,"Dip":9745,"Eng":9746,"GH":9747,"bul":9748,"bouillon":9749,"cayenne":9750,"corb":9751,"cetta":9752,"del":9753,"discard":9754,"fire":9755,"gener":9756,"ious":9757,"jack":9758,"ject":9759,"lava":9760,"mun":9761,"rare":9762,"tied":9763,"vot":9764,"wine":9765,"yuns":9766,"inted":9767,"Ġ112":9768,"Ġtried":9769,"Ġtanger":9770,"Ġpi":9771,"atively":9772,"andar":9773,"Ġchurch":9774,"ĠColl":9775,"ĠCumin":9776,"oritos":9777,"itt":9778,"Ġdiff":9779,"ĠSli":9780,"ĠBott":9781,"ĠPosition":9782,"ĠPride":9783,"iller":9784,"illos":9785,"uster":9786,"ĠMouth":9787,"uche":9788,"Ġstops":9789,"adas":9790,"Ġbaker":9791,"Ġbakery":9792,"uper":9793,"ureen":9794,"ĠRes":9795,"ĠRight":9796,"ĠChange":9797,"ĠChalup":9798,"ĠDie":9799,"ĠDiced":9800,"ĠWieners":9801,"ĠField":9802,"ĠLooks":9803,"ĠHolly":9804,"ĠGarb":9805,"ĠGive":9806,"ĠGoose":9807,"berts":9808,"ardee":9809,"Ġclumps":9810,"Ġascorb":9811,"Ġchilis":9812,"Ġexc":9813,"ĠEast":9814,"ĠKay":9815,"ĠBlan":9816,"ĠNine":9817,"ĠNavy":9818,"Ġsoftly":9819,"ĠUgly":9820,"Ġscored":9821,"ĠBoiling":9822,"ĠTurnip":9823,"Ġrestaurant":9824,"ĠGrap":9825,"Ġaccent":9826,"Ġaccordingly":9827,"emperature":9828,"Ġcrown":9829,"aryl":9830,"urtles":9831,"ranberry":9832,"ranged":9833,"ĠTossed":9834,"bling":9835,"litons":9836,"oyal":9837,"ĠProverbs":9838,"Ġunderbake":9839,"Ġdonuts":9840,"Ġindic":9841,"Ġpulver":9842,"afe":9843,"Ġtriple":9844,"anket":9845,"ectar":9846,"irls":9847,"ĠNorth":9848,"Ġswell":9849,"Ġguava":9850,"ĠTriangles":9851,"Ġgarbanzos":9852,"ĠExchange":9853,"ĠExchanges":9854,"broth":9855,"Ġricher":9856,"ĠHunter":9857,"ĠLaura":9858,"ĠTenderize":9859,"ĠSargento":9860,"lsberg":9861,"ĠDiabetics":9862,"Ġrims":9863,"Ġdisjoin":9864,"Ġcitric":9865,"Ġsorrow":9866,"Ġimported":9867,"ĠHalibut":9868,"ĠLiqu":9869,"ĠLentils":9870,"Ġsimple":9871,"ĠFilet":9872,"238":9873,"Ġsizzle":9874,"Ġgroups":9875,"Ġcrunched":9876,"Ġdrafts":9877,"hardt":9878,"embert":9879,"ĠMicrocook":9880,"Ġcarbohydrates":9881,"Ġpraline":9882,"Ġbutterflied":9883,"quartered":9884,"Ġattached":9885,"ĠHazelnut":9886,"Ġnormally":9887,"Ġpuppies":9888,"ĠCamembert":9889,"Ġrender":9890,"Ġtripled":9891,"Ġbeautifully":9892,"ĠGrasshopper":9893,"ĠPulse":9894,"zech":9895,"Ġmagarine":9896,"Ġenhancer":9897,"Ġdrizzled":9898,"ĠPenuche":9899,"Ġvertically":9900,"ĠMarbled":9901,"Ġoutdoor":9902,"Ġtangy":9903,"ĠRisotto":9904,"Ġramekins":9905,"ĠWyler":9906,"Ġlargest":9907,"ĠLynn":9908,"Green":9909,"Ġbisque":9910,"esquite":9911,"ĠBartlett":9912,"ĠRonzoni":9913,"English":9914,"yunsaturated":9915,"Ġascorbic":9916,"*.":9917,"Ang":9918,"Honey":9919,"La":9920,"Mc":9921,"Rhubarb":9922,"Sm":9923,"Wor":9924,"bac":9925,"break":9926,"com":9927,"double":9928,"even":9929,"hatt":9930,"ios":9931,"kan":9932,"koman":9933,"laze":9934,"pudding":9935,"rican":9936,"sure":9937,"tall":9938,"tmilk":9939,"tpan":9940,"vels":9941,"Ġcer":9942,"Ġcat":9943,"Ġcrow":9944,"Ġcabbages":9945,"ane":9946,"Ġpyrex":9947,"Ġmang":9948,"Ġmasa":9949,"Ġfle":9950,"Ġfifteen":9951,"Ġchiffon":9952,"leftover":9953,"rot":9954,"ĠCO":9955,"amata":9956,"Ġ31":9957,"Ġdunk":9958,"ĠSav":9959,"ĠSide":9960,"Ġluck":9961,"ĠBern":9962,"ĠBugles":9963,"ĠPine":9964,"ĠPops":9965,"ĠTurtles":9966,"Ġunthawed":9967,"Ġhar":9968,"Ġhook":9969,"Ġhrs":9970,"ĠMatt":9971,"ĠMachine":9972,"ĠMike":9973,"ota":9974,"raft":9975,"chunks":9976,"Ġbrook":9977,"tsh":9978,"rik":9979,"Ġnest":9980,"Ġnecks":9981,"Ġthirty":9982,"Ġgrit":9983,"ĠChim":9984,"ĠDapple":9985,"ĠWondra":9986,"Ġremember":9987,"quant":9988,"ĠStella":9989,"Ġsmiles":9990,"resist":9991,"Ġcupful":9992,"apricot":9993,"ĠLump":9994,"ĠLuck":9995,"ĠHI":9996,"ĠHow":9997,"ĠGor":9998,"ĠWho":9999,"ĠWhiskey":10000,"otte":10001,"Ġkey":10002,"Ġkrispies":10003,"Ġskirt":10004,"liz":10005,"ĠBroken":10006,"ĠEliz":10007,"Ġheaped":10008,"Ġdoughy":10009,"oothpick":10010,"essel":10011,"ĠThick":10012,"ĠThread":10013,"Ġpeelings":10014,"ĠNectar":10015,"Ġpastries":10016,"ĠSher":10017,"Ġscum":10018,"ĠButtery":10019,"ichyss":10020,"Ġevening":10021,"ĠTurnips":10022,"Ġcurds":10023,"fulness":10024,"flat":10025,"Ġarranged":10026,"Ġmealy":10027,"ĠQuail":10028,"ĠMeatless":10029,"azing":10030,"Ġparing":10031,"ĠBlueberries":10032,"ĠOranges":10033,"Ġwashing":10034,"ĠDelightful":10035,"odles":10036,"orbet":10037,"ĠSnip":10038,"ĠCrown":10039,"Ġlinguica":10040,"Ġprevents":10041,"Ġentree":10042,"ĠRuby":10043,"istachios":10044,"Ġshortcake":10045,"Ġnewspaper":10046,"abeth":10047,"Ġinstructed":10048,"ĠSecond":10049,"ĠHorseradish":10050,"Ġbaskets":10051,"Ġcontinues":10052,"Ġrimmed":10053,"tCut":10054,"ĠRiches":10055,"ĠBouillon":10056,"ĠHoppin":10057,"ĠLoosely":10058,"skinned":10059,"ikkoman":10060,"Ġcharity":10061,"ĠParad":10062,"prints":10063,"ĠYorkshire":10064,"ĠTartar":10065,"Almond":10066,"conom":10067,"Ġquantities":10068,"ĠBuster":10069,"ĠBoyardee":10070,"Ġseashells":10071,"ĠSnapper":10072,"Ġbutterfly":10073,"ĠCharlotte":10074,"Ġclaws":10075,"Ġextending":10076,"Ġoreo":10077,"ĠUnderwood":10078,"ĠScottish":10079,"ĠSopaipillas":10080,"ĠEastern":10081,"ĠTreasure":10082,"Ġdifference":10083,"Ġtomatillos":10084,"ĠTassies":10085,"ĠWeeks":10086,"napps":10087,"ĠBeginning":10088,"ĠMarvelous":10089,"votion":10090,"andarins":10091,"Ġdisjointed":10092,"hattan":10093,"Ġmangos":10094,"ichyssoise":10095,"115":10096,"By":10097,"Break":10098,"Date":10099,"Heal":10100,"MM":10101,"Ph":10102,"Pol":10103,"blet":10104,"better":10105,"gu":10106,"gent":10107,"ker":10108,"line":10109,"muff":10110,"mati":10111,"oks":10112,"parsley":10113,"solid":10114,"take":10115,"tart":10116,"twater":10117,"vinegar":10118,"xible":10119,"Ġ,":10120,"Ġ__":10121,"Ġcapp":10122,"Ġtrow":10123,"Ġtemp":10124,"Ġtureen":10125,"Ġbook":10126,"Ġpits":10127,"Ġpistachios":10128,"Ġmiso":10129,"onions":10130,"Ġfr":10131,"Ġfaster":10132,"Ġfestive":10133,"Ġweak":10134,"Ġwedged":10135,"icult":10136,"ppa":10137,"Ġintern":10138,"rod":10139,"roasted":10140,"ĠCayenne":10141,"itage":10142,"ĠSit":10143,"ĠSizz":10144,"Ġlist":10145,"Ġpebbles":10146,"oom":10147,"ĠBass":10148,"acy":10149,"ache":10150,"ĠPoultry":10151,"isa":10152,"Ġ(#":10153,"Ġ(.":10154,"Ġunheated":10155,"Ġviole":10156,"ĠMinn":10157,"ĠMoon":10158,"ĠMaw":10159,"ĠMunch":10160,"ĠMist":10161,"Ġforce":10162,"chunk":10163,"Ġnavel":10164,"ety":10165,"Ġgrand":10166,"ĠRh":10167,"ĠChive":10168,"ĠChik":10169,"Ġrange":10170,"Ġpancetta":10171,"Ġcoins":10172,"ĠDraw":10173,"Ġsparing":10174,"ĠWat":10175,"ĠWing":10176,"stew":10177,"stacks":10178,"Ġboys":10179,"apol":10180,"ĠGal":10181,"Ġserrated":10182,"Ġroasts":10183,"ubstitute":10184,"ĠWhat":10185,"Ġalfredo":10186,"Ġredness":10187,"osable":10188,"ĠBeating":10189,"ĠBrooks":10190,"ĠWorks":10191,"iscons":10192,"Ġblackened":10193,"estle":10194,"alloween":10195,"Ġlikes":10196,"ĠKe":10197,"ĠKr":10198,"Ġpremade":10199,"Ġpremium":10200,"ĠSausages":10201,"ĠVen":10202,"ĠThirty":10203,"ĠMelon":10204,"ĠPieces":10205,"ĠNeed":10206,"Ġyellows":10207,"Ġfruitcake":10208,"ĠButterh":10209,"ĠBrick":10210,"ĠJellied":10211,"Ġpointed":10212,"Ġtwenty":10213,"Ġarranging":10214,"ĠLevel":10215,"Ġpina":10216,"ĠSaucepan":10217,"Ġtowards":10218,"Ġdarken":10219,"ĠCane":10220,"ĠCanola":10221,"ĠEggless":10222,"ĠAlice":10223,"ĠLemony":10224,"Ġremoval":10225,"Ġeveryone":10226,"ampen":10227,"icier":10228,"ĠPatio":10229,"Ġpreserve":10230,"ĠProven":10231,"max":10232,"frying":10233,"ĠClove":10234,"ĠGoodies":10235,"crunchy":10236,"ichever":10237,"ĠSmoke":10238,"Ġworry":10239,"ĠGrandpa":10240,"Chip":10241,"Ġburned":10242,"ĠCalz":10243,"Ġdiscarded":10244,"ĠBarely":10245,"Ġshortest":10246,"ĠReaLime":10247,"ĠManhattan":10248,"Ġvariation":10249,"ĠSarah":10250,"Ġtesting":10251,"Ġcavatelli":10252,"ĠBraise":10253,"ĠPoached":10254,"ĠTostada":10255,"Ġmarbleize":10256,"ĠFlavored":10257,"Ġproduce":10258,"Ġpouches":10259,"radition":10260,"ĠCaptain":10261,"White":10262,"Ġbraise":10263,"Ġvein":10264,"Blend":10265,"Ġmicrosafe":10266,"Ġplantains":10267,"Ġscraper":10268,"Ġjoints":10269,"ĠJarlsberg":10270,"Ġpolyunsaturated":10271,"Ġfixed":10272,"ĠDepression":10273,"Ġassemble":10274,"ĠAlaskan":10275,"Weight":10276,"ĠBaklava":10277,"Ġcondiments":10278,"selves":10279,"seedless":10280,"ĠMildred":10281,"tFold":10282,"Ġaccumulated":10283,"ĠBurnt":10284,"Ġwreaths":10285,"Ġeliminate":10286,"Ġswirling":10287,"Ġgooey":10288,"ĠBolts":10289,"ĠTbls":10290,"ĠGebhardt":10291,"ĠBirthday":10292,"ĠFricass":10293,"Ġdifficult":10294,"oyalty":10295,"Ġceramic":10296,"ĠElizabeth":10297,"Ġsparingly":10298,"isconsin":10299,"!!)":10300,"80":10301,"Co":10302,"Crab":10303,"Grease":10304,"Greek":10305,"Pet":10306,"Sal":10307,"Sto":10308,"South":10309,"before":10310,"cino":10311,"dip":10312,"ipper":10313,"jar":10314,"merse":10315,"ni":10316,"pkg":10317,"ska":10318,"slice":10319,"ui":10320,"wash":10321,"wide":10322,"za":10323,"Ġiodized":10324,"Ġcert":10325,"Ġsoul":10326,"Ġsaturated":10327,"erts":10328,"Ġbind":10329,"aron":10330,"Ġmatter":10331,"Ġmandarins":10332,"atwurst":10333,"reased":10334,"Ġwat":10335,"icer":10336,"asic":10337,"ameat":10338,"Ġadobo":10339,"Ġem":10340,"Ġdid":10341,"Ġdove":10342,"Ġdew":10343,"ĠSor":10344,"ĠSelf":10345,"ĠSuch":10346,"ĠSister":10347,"ĠSilver":10348,"Ġlines":10349,"Ġlasts":10350,"Ġlighter":10351,"Ġloyalty":10352,"heart":10353,"ĠBit":10354,"acity":10355,"ĠPac":10356,"under":10357,"ĠTree":10358,"ĠTail":10359,"ĠTint":10360,"uttered":10361,"ĠAw":10362,"olph":10363,"Ġhunk":10364,"Ġhunks":10365,"usual":10366,"ĠMr":10367,"ĠMer":10368,"ĠMallow":10369,"ĠMango":10370,"ĠMeringues":10371,"Ġorganic":10372,"raps":10373,"uccino":10374,"Ġstud":10375,"chili":10376,"chio":10377,"iri":10378,"Ġsays":10379,"rian":10380,"riate":10381,"vey":10382,"ĠRind":10383,"ĠRiver":10384,"oupe":10385,"Ġcookbook":10386,"Ġramen":10387,"Ġcoke":10388,"Ġspot":10389,"ĠWisconsin":10390,"Ġreason":10391,"eff":10392,"stone":10393,"stiff":10394,"imal":10395,"imble":10396,"ĠIts":10397,"Ġsoured":10398,"opened":10399,"ĠHol":10400,"ĠHurry":10401,"Ġmelons":10402,"Ġconf":10403,"oone":10404,"ĠGirl":10405,"Ġcarving":10406,"emima":10407,"shrimp":10408,"Ġapprop":10409,"ĠWorches":10410,"Ġsyrups":10411,"ĠEr":10412,"ĠEth":10413,"ĠEight":10414,"Ġrefrigerating":10415,"ĠJess":10416,"ĠJemima":10417,"Ġsweetness":10418,"ĠKim":10419,"ĠKiller":10420,"Ġboxed":10421,"esserts":10422,"Ġensure":10423,"Ġcommon":10424,"ĠRefried":10425,"Ġtartness":10426,"Ġdevotion":10427,"Ġaccept":10428,"ĠRedford":10429,"Ġoccasions":10430,"Ġpoor":10431,"ĠArroz":10432,"Ġtubular":10433,"ĠCornflake":10434,"ĠCarve":10435,"ossib":10436,"Ġunbuttered":10437,"ĠSweetened":10438,"ĠConnie":10439,"soak":10440,"Ġchive":10441,"Ġdijon":10442,"Ġundissolved":10443,"Ġ185":10444,"ĠAllspice":10445,"canola":10446,"Ġexcessive":10447,"Ġallows":10448,"ĠSuperb":10449,"appa":10450,"Ġcapacity":10451,"Ġspringy":10452,"ĠChristian":10453,"ĠHearts":10454,"enny":10455,"Ġstacking":10456,"ĠAnne":10457,"ĠPlate":10458,"ĠPlatter":10459,"Ġrepeating":10460,"tinto":10461,"ielbasi":10462,"Ġburst":10463,"ussel":10464,"ĠJama":10465,"seasoning":10466,"ĠShortcut":10467,"Ġcantaloupes":10468,"ritive":10469,"Ġcreative":10470,"ĠIndiana":10471,"Ġdiscolor":10472,"Ġresp":10473,"Ġreheating":10474,"ĠDollies":10475,"Ġfalling":10476,"Ġadvice":10477,"orsch":10478,"Diet":10479,"ĠRelleno":10480,"ĠWilder":10481,"ĠEdition":10482,"ĠGenoa":10483,"Ġunmolding":10484,"ĠAdolph":10485,"ĠBonnie":10486,"uckeye":10487,"Ġshowing":10488,"Ġtostados":10489,"ĠSucaryl":10490,"ĠDietetic":10491,"Ġhumor":10492,"ootball":10493,"Ġripened":10494,"follows":10495,"ĠDuckling":10496,"ĠJuicy":10497,"salad":10498,"coholic":10499,"ĠBelgian":10500,"ĠCharlie":10501,"Ġpicnics":10502,"annah":10503,"Ġbuffet":10504,"Ġtiming":10505,"Ġmirlitons":10506,"Ġmidway":10507,"Ġcroissants":10508,"ĠTempt":10509,"Ġaccompaniment":10510,"Ġtumbler":10511,"Ġmexican":10512,"ĠDomino":10513,"Ġoverbrowning":10514,"generous":10515,"ĠBottle":10516,"Ġexception":10517,"Angel":10518,"Ġflexible":10519,"ĠHIGH":10520,"ĠParadise":10521,"Polish":10522,"Ġcertain":10523,"Ġappropriate":10524,"Am":10525,"Bacon":10526,"Cranberry":10527,"Double":10528,"Hershey":10529,"Kraft":10530,"Light":10531,"Mustard":10532,"Pl":10533,"Sn":10534,"Try":10535,"Tex":10536,"Us":10537,"baby":10538,"comb":10539,"ctop":10540,"dash":10541,"evaporated":10542,"fel":10543,"field":10544,"freeze":10545,"gonz":10546,"noon":10547,"nitz":10548,"pinch":10549,"paper":10550,"seeds":10551,"ttogether":10552,"total":10553,"Ġir":10554,"Ġcure":10555,"Ġtell":10556,"Ġbad":10557,"Ġpwd":10558,"Ġmom":10559,"rey":10560,"aloupe":10561,"oug":10562,"Ġwagon":10563,"icchio":10564,"Ġtot":10565,"leaves":10566,"ĠCe":10567,"ĠCrinkle":10568,"ako":10569,"Ġ270":10570,"Ġ310":10571,"Ġdoritos":10572,"ĠSzech":10573,"Ġgrow":10574,"Ġgath":10575,"Ġlost":10576,"hem":10577,"ĠBuckle":10578,"ĠBagg":10579,"ĠPle":10580,"ĠPurpose":10581,"Ġflan":10582,"Ġflow":10583,"isf":10584,"ĠTip":10585,"Ġ(\\":10586,"Ġuntoasted":10587,"Ġversion":10588,"Ġvacuum":10589,"Ġvessel":10590,"ĠAtt":10591,"olks":10592,"Ġhr":10593,"Ġhog":10594,"ĠMim":10595,"otle":10596,"alla":10597,"Ġstate":10598,"elled":10599,"omatoes":10600,"omach":10601,"chips":10602,"Ġcrink":10603,"rift":10604,"Ġname":10605,"reduced":10606,"Ġmarbles":10607,"Ġoverripe":10608,"ĠRoul":10609,"astry":10610,"ĠChic":10611,"Ġrubb":10612,"ĠDates":10613,"ĠDairy":10614,"ĠWanda":10615,"ĠWraps":10616,"orna":10617,"ingredients":10618,"Ġboat":10619,"Ġseep":10620,"Ġselect":10621,"ided":10622,"ĠIre":10623,"ĠFu":10624,"ĠFeed":10625,"ĠLess":10626,"ĠLife":10627,"ĠLorna":10628,"Ġovenware":10629,"Ġsmallest":10630,"ĠHank":10631,"ĠHalloween":10632,"ĠGul":10633,"Ġservice":10634,"otton":10635,"Ġlighten":10636,"Ġkiw":10637,"oregano":10638,"Ġ155":10639,"endy":10640,"ĠOV":10641,"ĠOcean":10642,"Ġshears":10643,"ollen":10644,"ĠPretty":10645,"ĠKal":10646,"ĠKix":10647,"ĠKansas":10648,"ĠKikkoman":10649,"ĠBlot":10650,"ĠBlanket":10651,"ĠVe":10652,"ĠVichyssoise":10653,"Ġsmoothing":10654,"onial":10655,"ĠThom":10656,"ĠThai":10657,"ĠNone":10658,"ĠNanny":10659,"Ġballer":10660,"ĠSharp":10661,"Ġcrowns":10662,"ĠCaraway":10663,"ĠCarib":10664,"Ġcrispness":10665,"Ġcompl":10666,"ĠTokay":10667,"Ġamber":10668,"Ġthemselves":10669,"Ġprov":10670,"Ġnonmetal":10671,"ĠSquare":10672,"ĠSweetheart":10673,"ĠFrog":10674,"ĠCons":10675,"blers":10676,"ĠMexicana":10677,"ĠPounds":10678,"whatever":10679,"ĠDreams":10680,"Ġpreserved":10681,"Ġsnip":10682,"tcream":10683,"appiness":10684,"crusts":10685,"ĠDumpling":10686,"cookie":10687,"Ġreturns":10688,"ĠChris":10689,"ĠSnaps":10690,"ĠKrazy":10691,"Chow":10692,"Ġworked":10693,"Ġsoftens":10694,"ĠValentine":10695,"mayonnaise":10696,"ĠComfort":10697,"ĠAsian":10698,"pecan":10699,"preheated":10700,"ĠNestles":10701,"Ġmounding":10702,"240":10703,"ĠSunflower":10704,"Ġlining":10705,"ĠZesta":10706,"ĠFrangel":10707,"ecker":10708,"Ġstroganoff":10709,"ĠHeaven":10710,"Ġbows":10711,"ĠSchnitz":10712,"minute":10713,"Ġrequires":10714,"ĠScotcher":10715,"thinly":10716,"Ġsleeves":10717,"ĠLivers":10718,"ĠHolding":10719,"Shrimp":10720,"Swans":10721,"ĠGallon":10722,"Ġsatisf":10723,"Ġhousehold":10724,"rific":10725,"Uncle":10726,"Check":10727,"ĠWelch":10728,"ĠTruffle":10729,"Ġnormal":10730,"equals":10731,"squeeze":10732,"Ġutility":10733,"separate":10734,"worth":10735,"Ġsounds":10736,"Ġmilder":10737,"Ġjalape":10738,"erosene":10739,"Ġhealth":10740,"ĠCounty":10741,"Ġgherkins":10742,"ĠMeltaways":10743,"ĠSmucker":10744,"tChill":10745,"ĠSurround":10746,"ĠAfrican":10747,"ĠGrapefruit":10748,"Ġpulverized":10749,"McCormick":10750,"bacore":10751,"Breakfast":10752,"Ġtrowel":10753,"Ġinternal":10754,"apolitan":10755,"Ġacceptable":10756,"ctopus":10757,"gonzola":10758,"ĠHanky":10759,"ĠCaribbean":10760,"125":10761,"AT":10762,"Candy":10763,"Dried":10764,"Dutch":10765,"Fudge":10766,"German":10767,"Mrs":10768,"Oat":10769,"Pan":10770,"Sk":10771,"bowl":10772,"big":10773,"lor":10774,"mustard":10775,"marin":10776,"net":10777,"oor":10778,"pensive":10779,"rick":10780,"rinse":10781,"seal":10782,"sometimes":10783,"torn":10784,"takes":10785,"taco":10786,"tServes":10787,"twell":10788,"teggs":10789,"vie":10790,"wards":10791,"yd":10792,"yond":10793,"Ġcu":10794,"inos":10795,"Ġsch":10796,"eroll":10797,"Ġties":10798,"Ġtasting":10799,"Ġtends":10800,"Ġol":10801,"Ġbisquick":10802,"eside":10803,"Ġpair":10804,"Ġmillet":10805,"almost":10806,"Ġfits":10807,"spir":10808,"spberries":10809,"split":10810,"rothy":10811,"ĠCand":10812,"ĠCass":10813,"ĠCould":10814,"Ġ232":10815,"asilk":10816,"amook":10817,"itam":10818,"Ġeagle":10819,"Ġdream":10820,"Ġdinners":10821,"ĠBalsamic":10822,"ĠBologna":10823,"ĠBorsch":10824,"ĠPil":10825,"ĠPom":10826,"ĠPudd":10827,"ĠPheasant":10828,"ggie":10829,"unthawed":10830,"ĠTill":10831,"ĠTunnel":10832,"eseed":10833,"ĠAcini":10834,"olive":10835,"Ġbeyond":10836,"rage":10837,"Ġsay":10838,"Ġshine":10839,"ghul":10840,"ĠRare":10841,"ĠChamp":10842,"ĠDrink":10843,"ĠDann":10844,"ĠDampen":10845,"ĠDoone":10846,"abi":10847,"Ġspin":10848,"Ġspaces":10849,"ĠWinks":10850,"ĠWendy":10851,"ĠSpace":10852,"ĠSparkling":10853,"ĠStores":10854,"ĠFall":10855,"Ġpots":10856,"pplement":10857,"ĠLar":10858,"ĠLasts":10859,"ĠInside":10860,"ĠInstead":10861,"ĠGone":10862,"ĠGerm":10863,"ĠServed":10864,"Ġrad":10865,"Ġkielbasi":10866,"Ġkerosene":10867,"uffles":10868,"uls":10869,"uddy":10870,"Ġfirmer":10871,"ĠOccasion":10872,"ĠEve":10873,"atsu":10874,"Ġheight":10875,"ĠJerry":10876,"ĠKat":10877,"ĠKit":10878,"ĠVari":10879,"ĠMelted":10880,"ĠNap":10881,"ĠName":10882,"ĠNibb":10883,"Ġgrahams":10884,"Ġzwieback":10885,"Ġliquified":10886,"Ġquah":10887,"Ġmoving":10888,"ichang":10889,"Ġthawing":10890,"ĠReduced":10891,"Ġbrought":10892,"ĠDorothy":10893,"ĠArk":10894,"Ġtwisted":10895,"Ġsecuring":10896,"cob":10897,"Ġunbl":10898,"Ġmicrowaveable":10899,"Ġlongways":10900,"ĠScrew":10901,"ĠZippy":10902,"Ġdarker":10903,"ĠMexico":10904,"anched":10905,"angel":10906,"Ġmolded":10907,"nutritive":10908,"whites":10909,"Ġchoplets":10910,"Ġsurp":10911,"ĠPatty":10912,"Ġpitas":10913,"Ġbulgar":10914,"ĠAngine":10915,"ĠFreshly":10916,"tcr":10917,"ĠCla":10918,"Ġicy":10919,"Ġunderbeat":10920,"burgers":10921,"ĠGlad":10922,"Ġgiblet":10923,"ĠCrusted":10924,"ĠMaria":10925,"ĠColonial":10926,"rolled":10927,"ĠNorm":10928,"Strawber":10929,"ĠIron":10930,"Ġbecoming":10931,"Leviticus":10932,"Ġburghul":10933,"ĠWatergate":10934,"ĠExtract":10935,"usset":10936,"ĠPolly":10937,"ĠFranc":10938,"ĠAmount":10939,"ĠIslands":10940,"Ġ1975":10941,"Ġresift":10942,"ĠMae":10943,"Ġtwisting":10944,"ĠHarvey":10945,"ĠSnickerdoodle":10946,"skins":10947,"iki":10948,"iko":10949,"browned":10950,"Ġinsist":10951,"Ġprime":10952,"ĠSchnapps":10953,"uvre":10954,"ĠJewel":10955,"ĠAvoid":10956,"Raspberry":10957,"Ġstretching":10958,"---":10959,"Swedish":10960,"ĠGallo":10961,"longer":10962,"tDrain":10963,"Ġfigure":10964,"Ġimprove":10965,"Ġuniformly":10966,"ĠEveryday":10967,"Ġpresifted":10968,"Ġoreos":10969,"ĠBuddy":10970,"ĠDecad":10971,"ĠDecrease":10972,"Ġutens":10973,"ĠCanton":10974,"ĠCantaloupe":10975,"Ġvaries":10976,"ĠMargarita":10977,"Ġidea":10978,"Ġpraise":10979,"Ġdisposable":10980,"Ġholders":10981,"ĠHaystacks":10982,"Melt":10983,"ĠPrime":10984,"ĠBetween":10985,"ĠGerber":10986,"Ġfragrant":10987,"Ġchanging":10988,"ĠGarbage":10989,"ĠGorgonzola":10990,"muffin":10991,"ĠWatkins":10992,"ĠFricassee":10993,"ĠWorchestershire":10994,"ossibly":10995,"Ġtotally":10996,"ĠFrangelico":10997,"ĠSchnitzel":10998,"ĠScotcheroos":10999,"ĠNibbles":11000,"90":11001,"Br":11002,"De":11003,"Dill":11004,"Ener":11005,"Four":11006,"Fashion":11007,"Heat":11008,"Ice":11009,"Keep":11010,"Karo":11011,"Large":11012,"Out":11013,"Pie":11014,"Peek":11015,"Ragu":11016,"Turkey":11017,"\\)":11018,"bott":11019,"breasts":11020,"center":11021,"filling":11022,"faced":11023,"iyaki":11024,"little":11025,"ltra":11026,"mie":11027,"microwave":11028,"pure":11029,"ral":11030,"rinsed":11031,"syrup":11032,"slices":11033,"tis":11034,"tist":11035,"ttop":11036,"tpepper":11037,"tBlend":11038,"vable":11039,"zon":11040,"Ġca":11041,"into":11042,"Ġsense":11043,"erie":11044,"Ġtaffy":11045,"Ġband":11046,"esome":11047,"Ġph":11048,"Ġmist":11049,"Ġmiracle":11050,"iled":11051,"ilize":11052,"eno":11053,"alcoholic":11054,"oule":11055,"Ġchic":11056,"Ġchard":11057,"Ġchitterlings":11058,"Ġwar":11059,"Ġwip":11060,"roger":11061,"ĠComb":11062,"ora":11063,"orbs":11064,"eline":11065,"Ġsupp":11066,"Ġsunda":11067,"Ġ340":11068,"ĠSen":11069,"ĠSieve":11070,"Ġgly":11071,"Ġlifted":11072,"ĠBunch":11073,"ĠBuy":11074,"ĠPuffy":11075,"ĠPurple":11076,"ĠPigs":11077,"owing":11078,"ĠTid":11079,"ĠTightly":11080,"ĠTandy":11081,"ĠTiny":11082,"Ġbuttercream":11083,"icky":11084,"Ġcheesy":11085,"Ġunfold":11086,"ĠAc":11087,"ĠMiddle":11088,"ĠMusc":11089,"otash":11090,"Ġstudded":11091,"adjust":11092,"chilled":11093,"toil":11094,"Ġsharing":11095,"wny":11096,"Ġsouth":11097,"Ġgrass":11098,"ĠRag":11099,"Ġcoal":11100,"ĠDress":11101,"ĠDecor":11102,"Ġspade":11103,"Ġspong":11104,"Ġspicier":11105,"ĠWinner":11106,"ĠWiener":11107,"Ġrepl":11108,"strips":11109,"quiri":11110,"ĠStre":11111,"ĠState":11112,"ĠSteep":11113,"ĠStud":11114,"idence":11115,"ĠFork":11116,"innish":11117,"aints":11118,"edible":11119,"ĠLil":11120,"ĠLisa":11121,"Ġ550":11122,"Ġconch":11123,"ĠInc":11124,"ĠGnocchi":11125,"Ġ96":11126,"beral":11127,"agination":11128,"Ġclass":11129,"naise":11130,"osed":11131,"Ġsloppy":11132,"ĠOff":11133,"ĠOmit":11134,"enta":11135,"Ġanisette":11136,"Ġpourable":11137,"Ġsquid":11138,"ĠKring":11139,"Ġprecook":11140,"ĠVin":11141,"Ġflavorful":11142,"oci":11143,"ocoa":11144,"ocatelli":11145,"ĠNell":11146,"ĠNico":11147,"Ġsoybeans":11148,"Ġpasty":11149,"ĠBee":11150,"ĠShan":11151,"ĠShish":11152,"Ġlonghorn":11153,"Ġscotch":11154,"ĠSlash":11155,"reezes":11156,"Ġmocha":11157,"Ġcleans":11158,"iches":11159,"several":11160,"Ġbratwurst":11161,"Ġcleaning":11162,"tons":11163,"Ġthroughly":11164,"Ġsecrets":11165,"extured":11166,"ckrich":11167,"ĠLean":11168,"ĠFlaky":11169,"Ġ248":11170,"Ġlastly":11171,"igan":11172,"Ġknot":11173,"ĠJackie":11174,"ĠMexene":11175,"Ġmeet":11176,"Ġseals":11177,"Ġsealable":11178,"ĠAlo":11179,"Ġbacks":11180,"Ġbackbone":11181,"Ġcrockery":11182,"Ġoption":11183,"Ġcores":11184,"Ġbulbs":11185,"tcook":11186,"Ġstovetop":11187,"phabet":11188,"Ġinden":11189,"ody":11190,"Ġabsorbs":11191,"Ġrotelli":11192,"aiquiri":11193,"rolls":11194,"ĠPuffed":11195,"ondant":11196,"ĠIrresist":11197,"Ġshortly":11198,"buttermilk":11199,"ĠApart":11200,"Ġcombinations":11201,"ĠNeapolitan":11202,"Ġ235":11203,"ĠJames":11204,"Ġdisturb":11205,"ĠFranco":11206,"ĠIndia":11207,"Ġresid":11208,"ĠBasket":11209,"ĠPaprik":11210,"ĠPoach":11211,"Ġpreheating":11212,"Ġdollar":11213,"Frozen":11214,"ĠBacardi":11215,"ĠBlondies":11216,"Ġpeeking":11217,"Whip":11218,"ĠWilt":11219,"ĠHalfway":11220,"ĠBagels":11221,"Ġgrouper":11222,"Ġtrying":11223,"faits":11224,"Ġincreased":11225,"Should":11226,"Ġacidity":11227,"Ġsmoker":11228,"Ġsquirts":11229,"Ġbuild":11230,"ĠComplete":11231,"Ġpolish":11232,"Ġajar":11233,"ĠOleo":11234,"ĠPepe":11235,"ĠColorful":11236,"ĠColorado":11237,"ĠPimiento":11238,"ĠHero":11239,"Ġbudget":11240,"Ġ380":11241,"ĠSnappy":11242,"ĠRestaurant":11243,"Ġselected":11244,"tTop":11245,"Ġcrystalized":11246,"Ġtilting":11247,"ĠWellington":11248,"ĠCrystal":11249,"Ġappetit":11250,"Ġrefreshing":11251,"Ġobtained":11252,"ĠDrumsticks":11253,"Ġrendered":11254,"ĠChimichang":11255,"Stove":11256,"Ġemuls":11257,"ĠAwesome":11258,"ĠEthel":11259,"Ġrespect":11260,"ĠWilderness":11261,"Ġgathering":11262,"ĠAttach":11263,"Ġrubbing":11264,"ĠTillamook":11265,"ĠRarebit":11266,"Ġradicchio":11267,"ĠArkansas":11268,"Ġsurprise":11269,"Energy":11270,"Ġchicory":11271,"Ġglycer":11272,"Ġspongy":11273,"ĠNicoise":11274,"ĠIrresistible":11275,"))":11276,"200":11277,"260":11278,"Better":11279,"Crisp":11280,"Drain":11281,"Hun":11282,"Kids":11283,"LL":11284,"Marin":11285,"New":11286,"Over":11287,"Pasta":11288,"Rom":11289,"Roll":11290,"Sauce":11291,"Tast":11292,"aving":11293,"bies":11294,"basil":11295,"car":11296,"candy":11297,"din":11298,"electric":11299,"ga":11300,"gro":11301,"gies":11302,"have":11303,"lasic":11304,"mine":11305,"mings":11306,"mouth":11307,"nese":11308,"pt":11309,"tlarge":11310,"tchicken":11311,"tbaking":11312,"uu":11313,"uly":11314,"watch":11315,"zucchini":11316,"Ġcents":11317,"Ġcooper":11318,"inc":11319,"inavian":11320,"Ġsel":11321,"era":11322,"eresa":11323,"Ġtent":11324,"Ġtilt":11325,"Ġbic":11326,"Ġble":11327,"Ġbands":11328,"Ġpate":11329,"rell":11330,"ony":11331,"onto":11332,"andine":11333,"andinavian":11334,"oulet":11335,"Ġandouille":11336,"Ġfron":11337,"Ġtoaster":11338,"lebr":11339,"ĠCapp":11340,"ĠCasa":11341,"ĠCafe":11342,"akor":11343,"ited":11344,"Ġsuc":11345,"Ġ37":11346,"Ġdries":11347,"ĠSi":11348,"ĠSwe":11349,"Ġgau":11350,"ĠBomb":11351,"ĠBap":11352,"ĠBud":11353,"ĠBerries":11354,"ĠBeck":11355,"ĠPra":11356,"ĠPreserve":11357,"ĠPico":11358,"unflavored":11359,"iser":11360,"ĠTerry":11361,"ĠTahini":11362,"ĠTemperature":11363,"Ġvelve":11364,"ĠAnch":11365,"ĠAriz":11366,"Ġhurry":11367,"ĠMoo":11368,"ĠMorn":11369,"ĠMart":11370,"ĠMason":11371,"otes":11372,"vers":11373,"allic":11374,"allion":11375,"Ġstocks":11376,"Ġstomach":11377,"aded":11378,"aden":11379,"omen":11380,"ders":11381,"Ġcrump":11382,"tso":11383,"tsauce":11384,"Ġnyl":11385,"Ġshots":11386,"Ġthimble":11387,"these":11388,"though":11389,"Ġoverfl":11390,"Ġoverstir":11391,"ĠRoughy":11392,"aylor":11393,"ĠChoose":11394,"ĠChafing":11395,"Ġricer":11396,"Ġrusset":11397,"ĠDa":11398,"ĠDunk":11399,"ĠDandelion":11400,"abber":11401,"Ġspoke":11402,"ĠWind":11403,"ansion":11404,"still":11405,"stuff":11406,"steak":11407,"strap":11408,"Ġsmother":11409,"ĠFillet":11410,"ĠFajita":11411,"ĠFusilli":11412,"ĠFideo":11413,"Ġpotluck":11414,"Ġyam":11415,"Ġyummy":11416,"ĠLion":11417,"ĠLovers":11418,"ĠLucy":11419,"ĠLocatelli":11420,"Ġblossom":11421,"Ġblister":11422,"Ġ53":11423,"Ġbreading":11424,"ĠHav":11425,"ĠHerman":11426,"armel":11427,"Ġroots":11428,"Ġclou":11429,"Ġclump":11430,"Ġalbacore":11431,"Ġkaro":11432,"Ġkaiser":11433,"Ġslat":11434,"ressions":11435,"tta":11436,"Ġ202":11437,"ĠCreamette":11438,"ĠOk":11439,"ĠOodles":11440,"Ġplunge":11441,"ĠEckrich":11442,"Ġsquirt":11443,"ĠJunk":11444,"Ġlive":11445,"Ġliberal":11446,"ĠKern":11447,"ĠKiwi":11448,"ĠKelly":11449,"hamburger":11450,"ĠMelts":11451,"ĠNan":11452,"ĠNatural":11453,"Ġsoyameat":11454,"Ġuncut":11455,"nex":11456,"ĠBeater":11457,"peanut":11458,"Ġblends":11459,"ĠButterf":11460,"Ġrounding":11461,"periment":11462,"Ġaccur":11463,"Ġcuracao":11464,"Ġleafy":11465,"Ġbru":11466,"Ġcrisper":11467,"Ġcrisped":11468,"saving":11469,"Ġaroma":11470,"Ġaromatic":11471,"Ġmeals":11472,"ĠCoating":11473,"ĠLegs":11474,"Ġproceed":11475,"ĠQuarts":11476,"Ġ245":11477,"scal":11478,"scallions":11479,"ĠStock":11480,"ĠPeppercorn":11481,"Ġtoasting":11482,"ĠMeatloaf":11483,"Ġregularly":11484,"Ġdipper":11485,"Ġmoister":11486,"Ġpounding":11487,"nots":11488,"Ġremovable":11489,"Ġsubmer":11490,"whip":11491,"Ġcombo":11492,"Ġfilter":11493,"ĠOrzo":11494,"Ġconsistent":11495,"Ġbulgh":11496,"Ġpopovers":11497,"ĠApply":11498,"tcup":11499,"ĠClara":11500,"Ġ**":11501,"earing":11502,"ĠGoodie":11503,"Ġsingles":11504,"ĠRecipes":11505,"ĠImmerse":11506,"ĠPacked":11507,"additional":11508,"aik":11509,"Ġmeasures":11510,"ĠEnt":11511,"Chinese":11512,"Ġdepartment":11513,"Ġtidbit":11514,"Ġtrimmings":11515,"Ġlumpia":11516,"Ġmostly":11517,"ĠHeavy":11518,"Start":11519,"ĠPlunge":11520,"ĠCurd":11521,"ĠPolska":11522,"ĠDevils":11523,"Ġstrands":11524,"ĠKnife":11525,"Ġmedallions":11526,"290":11527,"ĠMagn":11528,"Ġgrinding":11529,"ĠFettuccini":11530,"Ġcounting":11531,"metallic":11532,"ĠPearl":11533,"Ġheld":11534,"Ġcastor":11535,"Ġadhere":11536,"Spice":11537,"Cooking":11538,"ĠFiles":11539,"walnut":11540,"ĠPicadillo":11541,"ĠHummus":11542,"ĠBohem":11543,"Dijon":11544,"minus":11545,"Ġadjusted":11546,"ĠCarolyn":11547,"lene":11548,"Ġtrust":11549,"ĠCashews":11550,"Ġbraid":11551,"Ġparsnip":11552,"mmm":11553,"Ġwintergreen":11554,"concentr":11555,"Ġlavender":11556,"Ġfloats":11557,"ĠSolo":11558,"ĠDoesn":11559,"ĠBelieve":11560,"ouffl":11561,"shelled":11562,"Ġrennet":11563,"Ġbuffalo":11564,"Ġvaried":11565,"Ġaccumul":11566,"Maid":11567,"ĠSettler":11568,"ĠSettlers":11569,"ĠFrankfurter":11570,"ĠFrankfurters":11571,"ĠDavis":11572,"Ġreducing":11573,"refrigerated":11574,"Ġjudge":11575,"Ġunsulph":11576,"Ġnapkins":11577,"ĠWheel":11578,"achelor":11579,"ĠSliver":11580,"ĠLumpia":11581,"ĠSherried":11582,"conomical":11583,"Healthy":11584,"ĠHoly":11585,"ĠJamaican":11586,"Texas":11587,"ĠMimi":11588,"ĠChicago":11589,"ĠIrene":11590,"Ġkiwis":11591,"Ġunblanched":11592,"ĠAnginetti":11593,"Ġsundae":11594,"ĠShangh":11595,"ĠAloha":11596,"ĠChimichangas":11597,"ĠArizona":11598,"Ġnylon":11599,"ĠBohemian":11600,".(":11601,"53":11602,"800":11603,"Bowl":11604,"Cann":11605,"En":11606,"Freezes":11607,"Gen":11608,"Ground":11609,"Herb":11610,"Isaiah":11611,"Just":11612,"Knead":11613,"Lite":11614,"Mom":11615,"OK":11616,"SG":11617,"Tw":11618,"Tab":11619,"Watch":11620,"Your":11621,"bor":11622,"bly":11623,"diluted":11624,"dipped":11625,"defrost":11626,"earm":11627,"eason":11628,"grap":11629,"iola":11630,"ique":11631,"koe":11632,"katsu":11633,"mise":11634,"need":11635,"rg":11636,"ritional":11637,"sw":11638,"saved":11639,"substitute":11640,"tit":11641,"tec":11642,"tbrown":11643,"tWhen":11644,"vely":11645,"wan":11646,"Ġing":11647,"Ġuv":11648,"Ġti":11649,"Ġtarter":11650,"Ġtons":11651,"Ġtaters":11652,"Ġtradition":11653,"Ġoctopus":11654,"around":11655,"arant":11656,"Ġpipe":11657,"Ġpign":11658,"Ġplease":11659,"Ġpuncture":11660,"Ġmas":11661,"Ġmus":11662,"Ġmother":11663,"Ġmalted":11664,"Ġmax":11665,"Ġmusc":11666,"Ġmeringues":11667,"Ġmesquite":11668,"atar":11669,"ilies":11670,"enies":11671,"ando":11672,"andom":11673,"aluminum":11674,"ouli":11675,"Ġferm":11676,"Ġfamous":11677,"Ġwrit":11678,"ict":11679,"spicy":11680,"ĠCel":11681,"ĠCall":11682,"ĠCaps":11683,"elma":11684,"Ġsubs":11685,"Ġaut":11686,"Ġagar":11687,"Ġ315":11688,"Ġdisk":11689,"ĠSter":11690,"ĠSme":11691,"Ġgelled":11692,"Ġlrg":11693,"ĠBack":11694,"ĠBish":11695,"ĠBuck":11696,"ĠBase":11697,"ĠPower":11698,"ĠPocket":11699,"ĠPlease":11700,"inet":11701,"ĠTag":11702,"ĠTabb":11703,"ĠTouch":11704,"Ġcheez":11705,"Ġunit":11706,"Ġunopened":11707,"ĠAre":11708,"ĠAust":11709,"olk":11710,"ĠMir":11711,"ĠMignon":11712,"Ġchoc":11713,"Ġbeads":11714,"Ġcreamier":11715,"Ġornaments":11716,"Ġstur":11717,"tobell":11718,"Ġneat":11719,"etr":11720,"Ġshin":11721,"Ġjambalaya":11722,"Ġoverheat":11723,"ĠRear":11724,"Ġwhichever":11725,"ĠCha":11726,"ĠChant":11727,"ĠDesserts":11728,"abob":11729,"Ġspearm":11730,"ĠWood":11731,"ĠWright":11732,"ĠWoman":11733,"ston":11734,"stem":11735,"step":11736,"Ġboy":11737,"ĠSpark":11738,"Ġjugs":11739,"ĠStra":11740,"Ġcorns":11741,"ident":11742,"ĠII":11743,"Ġsmoo":11744,"umble":11745,"ĠFag":11746,"iful":11747,"Ġcrumbed":11748,"ĠLuc":11749,"ĠLim":11750,"ĠLua":11751,"ĠLunn":11752,"Ġblintzes":11753,"meas":11754,"ĠHog":11755,"ĠHyd":11756,"Ġ105":11757,"ĠGib":11758,"ĠGala":11759,"Ġserrano":11760,"Ġshorter":11761,"agas":11762,"shake":11763,"tioned":11764,"Ġalphabet":11765,"Ġslant":11766,"lier":11767,"esty":11768,"ĠEars":11769,"ĠEase":11770,"ĠPrebake":11771,"ĠPremium":11772,"ĠJeff":11773,"ĠVodka":11774,"ĠVlasic":11775,"Ġwarming":11776,"ĠThose":11777,"ĠThird":11778,"ĠPeggy":11779,"ĠNumber":11780,"Ġenc":11781,"ĠYumm":11782,"Ġbatters":11783,"Ġpastel":11784,"ĠChilli":11785,"ĠShall":11786,"ĠUltra":11787,"ĠSpoonful":11788,"ĠChocol":11789,"Ġcurling":11790,"ouss":11791,"ousel":11792,"ĠGroup":11793,"Ġdillweed":11794,"Ġhandy":11795,"undry":11796,"ermit":11797,"saute":11798,"Ġpinched":11799,"ĠTopper":11800,"flakes":11801,"ĠSeveral":11802,"ĠChopstick":11803,"Ġhighly":11804,"ĠFlako":11805,"ĠZin":11806,"ĠZwieback":11807,"ĠFrying":11808,"Ġpatis":11809,"Ġherbes":11810,"Ġimagination":11811,"Ġdarkening":11812,"reserved":11813,"ĠHotel":11814,"erta":11815,"ĠSugared":11816,"Ġ--":11817,"whipping":11818,"Ġsurrounded":11819,"ostess":11820,"ortment":11821,"istency":11822,"Ġskimming":11823,"Ġcaramelize":11824,"aires":11825,"ĠApproximate":11826,"ĠCranberries":11827,"tcheese":11828,"ĠCampfire":11829,"ĠClar":11830,"ĠTaters":11831,"cookies":11832,"ahi":11833,"ĠGrande":11834,"iddlehead":11835,"Ġdelight":11836,"ĠPrince":11837,"ĠDoughnut":11838,"Ġsitting":11839,"Ġliverwurst":11840,"rolling":11841,"ĠAnother":11842,"Stuff":11843,"Ġstringy":11844,"ĠSeeds":11845,"Ġassortment":11846,"ĠBayou":11847,"!!!!":11848,"Ġmanage":11849,"ĠScratch":11850,"ĠCubes":11851,"Cracker":11852,"Ġmedley":11853,"ĠAmber":11854,"ĠAmazing":11855,"Ġladyfinger":11856,"ĠTruly":11857,"ĠMax":11858,"ĠLouise":11859,"Ġtearing":11860,"ĠPaper":11861,"Spaghetti":11862,"Ġdietetic":11863,"atherine":11864,"ĠFourth":11865,"ĠMorgan":11866,"ĠLeaving":11867,"Ġpricked":11868,"ugget":11869,"Ġsimply":11870,"ĠMillionaires":11871,"Ġcharred":11872,"235":11873,"Ġproducts":11874,"ĠBeauty":11875,"ĠEdna":11876,"Ġindentations":11877,"tSift":11878,"ĠAdams":11879,"ĠCharles":11880,"ĠJoyce":11881,"Apples":11882,"Ġtostado":11883,"Ġsmoky":11884,"ĠCorrect":11885,"tDrop":11886,"ĠSmoky":11887,"Ġmullet":11888,"almond":11889,"Ġpropor":11890,"ĠThumbprints":11891,"ĠBourgu":11892,"ĠHeritage":11893,"ĠChippers":11894,"Ġincorporate":11895,"ĠBakers":11896,"ĠBuddies":11897,"shells":11898,"Ġpuppy":11899,"Ġrutabagas":11900,"Artich":11901,"ĠPiquant":11902,"ĠTrail":11903,"ĠWreaths":11904,"Ġbeautiful":11905,"Ġsettles":11906,"ĠMargaret":11907,"ĠWilliamsburg":11908,"Ġtimer":11909,"Ġmirin":11910,"Ġcroissant":11911,"Caramel":11912,"Ġpleasant":11913,"Ġprawns":11914,"ĠBearnaise":11915,"Blueberry":11916,"Ġdetergent":11917,"second":11918,"Ġforever":11919,"ĠMatzo":11920,"equivalent":11921,"Ġbluing":11922,"ĠEmily":11923,"bulk":11924,"Ġtangerine":11925,"ĠResift":11926,"ĠSavannah":11927,"Ġviolets":11928,"ĠMinnie":11929,"chunky":11930,"maximum":11931,"Southern":11932,"Ġdewberries":11933,"Ġreasonable":11934,"Ġconfidence":11935,"Ġjalapeo":11936,"itamin":11937,"ĠPuddin":11938,"ĠDannon":11939,"ĠNormandy":11940,"Ġutensil":11941,"ouleh":11942,"Ġwarabi":11943,"Ġsouthern":11944,"ĠRagout":11945,"ĠStreet":11946,"Ġresidue":11947,"Ġcooperation":11948,"Ġfront":11949,"ĠBaptist":11950,"Ġvelvety":11951,"ĠMornay":11952,"Ġcrumpled":11953,"Genesis":11954,"ĠSmear":11955,"tobello":11956,"ĠRearrange":11957,"ĠChantilly":11958,"Ġspearmint":11959,"ĠHydrox":11960,"ĠBourguignon":11961,"'d":11962,"225":11963,"42":11964,":\\":11965,"After":11966,"Bur":11967,"Bundt":11968,"CE":11969,"Cold":11970,"Casserole":11971,"Ho":11972,"Longhorn":11973,"Made":11974,"Method":11975,"Numbers":11976,"Nestle":11977,"Ox":11978,"Oro":11979,"Place":11980,"Pork":11981,"Pear":11982,"RA":11983,"Squ":11984,"Vidalia":11985,"Zerta":11986,"bre":11987,"bubb":11988,"cor":11989,"cit":11990,"cauliflower":11991,"coconut":11992,"dh":11993,"food":11994,"five":11995,"fandel":11996,"hel":11997,"ij":11998,"iet":11999,"jalapeno":12000,"lah":12001,"mark":12002,"noodles":12003,"pet":12004,"ril":12005,"rum":12006,"rough":12007,"sn":12008,"tnuts":12009,"tDo":12010,"tmixture":12011,"tGrease":12012,"tingredients":12013,"vin":12014,"west":12015,"ype":12016,"ztec":12017,"Ġign":12018,"Ġedible":12019,"Ġcm":12020,"Ġcave":12021,"Ġcotton":12022,"Ġsorted":12023,"ered":12024,"anas":12025,"Ġbarbecu":12026,"Ġphe":12027,"ĠmL":12028,"Ġmorn":12029,"atma":12030,"utti":12031,"onate":12032,"engo":12033,"Ġfist":12034,"Ġwatt":12035,"ingly":12036,"spaghetti":12037,"leep":12038,"legs":12039,"ĠCous":12040,"aks":12041,"akers":12042,"ouri":12043,"ases":12044,"asants":12045,"asiest":12046,"amblers":12047,"Ġsult":12048,"Ġaig":12049,"Ġdices":12050,"Ġdeseed":12051,"ĠSuk":12052,"ĠSince":12053,"Ġgot":12054,"Ġloc":12055,"Ġpekoe":12056,"ĠBand":12057,"ĠBri":12058,"ĠBail":12059,"ĠBridge":12060,"ĠBachelor":12061,"ĠPA":12062,"ĠPay":12063,"ĠPuncture":12064,"union":12065,"geon":12066,"owa":12067,"ĠTal":12068,"Ġunti":12069,"Ġunwrap":12070,"Ġvine":12071,"olo":12072,"Ġhusk":12073,"Ġhooks":12074,"ĠMs":12075,"ĠMul":12076,"ĠMany":12077,"ĠMuddy":12078,"ĠMSG":12079,"ĠMouss":12080,"Ġstated":12081,"Ġstones":12082,"ells":12083,"chill":12084,"charin":12085,"cholesterol":12086,"irrel":12087,"tore":12088,"tsm":12089,"tsalt":12090,"riage":12091,"Ġnappa":12092,"redible":12093,"vet":12094,"Ġshare":12095,"Ġmarket":12096,"Ġmarbled":12097,"three":12098,"Ġovercooked":12099,"ĠRocks":12100,"Ġoily":12101,"ays":12102,"ĠCher":12103,"ĠChiant":12104,"ĠChunks":12105,"ĠDave":12106,"ĠDoc":12107,"ĠDeg":12108,"ĠDale":12109,"ĠDecker":12110,"ĠWy":12111,"ĠWolf":12112,"steam":12113,"imitation":12114,"Ġseen":12115,"Ġfrog":12116,"ĠIowa":12117,"ĠFred":12118,"ĠFay":12119,"ĠFowl":12120,"ĠFore":12121,"ĠFlower":12122,"ĠFanny":12123,"ĠFiber":12124,"ĠFifteen":12125,"innati":12126,"Ġlemony":12127,"ĠLat":12128,"ĠLas":12129,"ĠLam":12130,"ĠLill":12131,"ĠLover":12132,"ĠLattice":12133,"agement":12134,"Ġ54":12135,"ĠHang":12136,"ĠHint":12137,"ĠHaddock":12138,"ĠHodge":12139,"ĠHappiness":12140,"ĠHostess":12141,"rinkled":12142,"asha":12143,"ĠGh":12144,"ĠGrain":12145,"ĠGlace":12146,"ĠGems":12147,"ĠGoat":12148,"Ġ97":12149,"Ġ98":12150,"overn":12151,"Ġcluster":12152,"Ġcracklins":12153,"Ġalter":12154,"Ġkol":12155,"Ġask":12156,"Ġapproximate":12157,"Ġslim":12158,"ulu":12159,"Ġsky":12160,"Ġshredding":12161,"Ġseasons":12162,"Ġ135":12163,"Ġnutritional":12164,"Ġanimal":12165,"ĠEmer":12166,"ĠElectric":12167,"ĠJus":12168,"ĠJars":12169,"Ġliving":12170,"ĠKen":12171,"ĠKemp":12172,"Ġpacking":12173,"ĠTops":12174,"zzy":12175,"ĠSauc":12176,"Ġfills":12177,"ĠThighs":12178,"ĠTheresa":12179,"hetta":12180,"Ġenter":12181,"Ġliquify":12182,"Ġcomfort":12183,"ĠShel":12184,"ĠSharon":12185,"irect":12186,"Ġques":12187,"peanuts":12188,"ĠRefrigerated":12189,"ĠĠĠĠ":12190,"Ġfoods":12191,"arbonate":12192,"Ġboun":12193,"ĠSwordfish":12194,"ternational":12195,"Ġcurled":12196,"Ġpoached":12197,"ĠAround":12198,"Ġcrocks":12199,"Ġcrispier":12200,"ĠSeashell":12201,"ĠTablespoon":12202,"Ġprovolone":12203,"Ġnonpare":12204,"ĠFlo":12205,"Ġpinwheel":12206,"ĠScandinavian":12207,"ĠSquirrel":12208,"Ġtoasty":12209,"ĠSodium":12210,"ĠUnusual":12211,"tzer":12212,"soften":12213,"Ġminiatures":12214,"ĠSaltine":12215,"ĠRitzy":12216,"Ġsomeone":12217,"nutmeg":12218,"Ġconsomm":12219,"ĠDreamy":12220,"ĠPatrick":12221,"unset":12222,"Ġroses":12223,"ĠDipping":12224,"Ġpattie":12225,"Ġcord":12226,"Ġpopover":12227,"does":12228,"ĠCheezy":12229,"ĠSky":12230,"ĠCrabs":12231,"ĠReunion":12232,"odate":12233,"Ġwords":12234,"ĠDelect":12235,"Ġbrushed":12236,"master":12237,"ĠPackage":12238,"Serving":12239,"ĠPronto":12240,"ĠEner":12241,"Chili":12242,"Ġdepend":12243,"ĠMarengo":12244,"ĠGingered":12245,"ĠMilkless":12246,"frost":12247,"ĠWhiskers":12248,"teen":12249,"banese":12250,"ĠScramblers":12251,"ĠHunting":12252,"prepare":12253,"Ġchipotle":12254,"Ġscratch":12255,"ĠSummertime":12256,"Ġvariations":12257,"ĠSunrise":12258,"Ġbases":12259,"Ġbasmati":12260,"ĠSnowy":12261,"ĠSoftasilk":12262,"Ġjacket":12263,"ugly":12264,"ĠMissouri":12265,"ĠIndones":12266,"hydrated":12267,"Ġdeglaze":12268,"tCream":12269,"Ġresist":12270,"Ġmicrowaves":12271,"ĠMajor":12272,"ĠTamales":12273,"ĠSupplement":12274,"ĠPods":12275,"ĠLiberally":12276,"Ġbalm":12277,"Ġinsure":12278,"olutely":12279,"Ġhelpings":12280,"Ġteac":12281,"ĠParis":12282,"ĠParfaits":12283,"ĠScotchies":12284,"mushrooms":12285,"Ġmemor":12286,"ĠWaffle":12287,"ĠElegante":12288,"Ġveins":12289,"ĠOutrage":12290,"accoon":12291,"vegetables":12292,"Ġplantain":12293,"pposed":12294,"ĠBrazilian":12295,"ĠGramma":12296,"Preparation":12297,"Ġcalam":12298,"Ġhusband":12299,"Ġperfectly":12300,"ĠMamie":12301,"Ġpenetr":12302,"ĠKrispy":12303,"Ġmessy":12304,"Ġattach":12305,"Ġextend":12306,"Ġsaccharin":12307,"Hamburger":12308,"Ġmentioned":12309,"Ġproperly":12310,"Progresso":12311,"Proverbs":12312,"Flavor":12313,"ĠTerrific":12314,"ĠRemaining":12315,"ĠHenry":12316,"ĠEasiest":12317,"Ġmacadamia":12318,"ĠMidnight":12319,"ctic":12320,"Ġachieve":12321,"ĠStays":12322,"ĠPaella":12323,"Ġslashes":12324,"Ġtapped":12325,"ĠMulled":12326,"ĠMahatma":12327,"ĠHonor":12328,"curd":12329,"Ġbaggie":12330,"ĠMichigan":12331,"ĠJulienne":12332,"tstir":12333,"Ġjerky":12334,"ĠVicki":12335,"Ġindicated":12336,"ĠLiqueur":12337,"ĠRhine":12338,"ĠButterhorns":12339,"ĠCalzones":12340,"Salad":12341,"ĠOVER":12342,"ĠThomas":12343,"Ġcompliments":12344,"ĠCandies":12345,"ĠClaud":12346,"Strawberry":12347,"bottled":12348,"Ġindention":12349,"Romano":12350,"incinnati":12351,"Ġseltzer":12352,"Ġbicarbonate":12353,"Ġcloudy":12354,"scalded":12355,"ĠShanghai":12356,"Tabasco":12357,"ĠSterilize":12358,"Ġsturdy":12359,"Ġsmoother":12360,"ĠLuau":12361,"ĠZinfandel":12362,"Artichoke":12363,"dhook":12364,"Ġpheasants":12365,"ĠBailey":12366,"ĠMoussaka":12367,"ĠChianti":12368,"./":12369,"AS":12370,"Ap":12371,"As":12372,"Any":12373,"Apart":12374,"Border":12375,"Drop":12376,"Dessert":12377,"Eye":12378,"HI":12379,"Hell":12380,"Ind":12381,"Korean":12382,"LD":12383,"LY":12384,"Mac":12385,"Must":12386,"Off":12387,"Port":12388,"Ref":12389,"Salt":12390,"Tuna":12391,"Wheat":12392,"aet":12393,"aute":12394,"bie":12395,"bage":12396,"bag":12397,"bby":12398,"bought":12399,"cing":12400,"cider":12401,"could":12402,"face":12403,"hang":12404,"iago":12405,"jonnaise":12406,"lie":12407,"lay":12408,"lty":12409,"mast":12410,"mate":12411,"oblong":12412,"pit":12413,"pans":12414,"pizza":12415,"pastry":12416,"rams":12417,"sirloin":12418,"slow":12419,"tan":12420,"tea":12421,"tiny":12422,"tomatoes":12423,"uin":12424,"yeast":12425,"Ġi":12426,"Ġul":12427,"Ġcab":12428,"Ġcult":12429,"Ġsatur":12430,"Ġsample":12431,"eral":12432,"erle":12433,"Ġtextured":12434,"Ġooz":12435,"Ġovals":12436,"Ġpome":12437,"Ġpossibly":12438,"Ġmant":12439,"Ġmult":12440,"ilo":12441,"onn":12442,"onata":12443,"enish":12444,"altern":12445,"ouds":12446,"Ġfats":12447,"Ġfud":12448,"Ġfail":12449,"Ġfib":12450,"Ġfiddlehead":12451,"Ġchinese":12452,"Ġchance":12453,"icular":12454,"Ġtoppers":12455,"sprinkled":12456,"ppine":12457,"left":12458,"rocc":12459,"romaine":12460,"ĠCans":12461,"ĠCard":12462,"ĠCirc":12463,"ĠCreek":12464,"orino":12465,"akia":12466,"ouragement":12467,"amed":12468,"amps":12469,"Ġaw":12470,"Ġaff":12471,"Ġaged":12472,"Ġdig":12473,"ĠSack":12474,"ĠSomb":12475,"ĠSemi":12476,"ĠSunny":12477,"ĠSorbet":12478,"ĠSunset":12479,"Ġsaltwater":12480,"ĠBoo":12481,"ĠBened":12482,"ĠBount":12483,"ĠBoat":12484,"ĠBelle":12485,"action":12486,"Ġflatter":12487,"unwrapped":12488,"gex":12489,"ĠTV":12490,"ĠTin":12491,"ĠTall":12492,"ĠTies":12493,"Ġbuttering":12494,"ickpeas":12495,"Ġchew":12496,"Ġchex":12497,"Ġcheer":12498,"ĠAztec":12499,"olina":12500,"olulu":12501,"ĠMcc":12502,"otic":12503,"rapple":12504,"raisin":12505,"allah":12506,"elles":12507,"chiko":12508,"Ġmilky":12509,"umes":12510,"Ġcanapes":12511,"000":12512,"rivel":12513,"rizzle":12514,"Ġnone":12515,"Ġnail":12516,"vec":12517,"Ġshown":12518,"Ġshrivel":12519,"Ġthins":12520,"Ġlef":12521,"Ġmargin":12522,"Ġoverwork":12523,"Ġoverhang":12524,"ĠRon":12525,"ĠRen":12526,"Ġrins":12527,"ĠMixing":12528,"ĠDain":12529,"ĠDove":12530,"ĠDig":12531,"abur":12532,"abella":12533,"mont":12534,"Ġspare":12535,"ĠWaik":12536,"iently":12537,"ighlty":12538,"Ġgarni":12539,"ĠSpl":12540,"Ġsew":12541,"ĠSte":12542,"ĠStem":12543,"ishness":12544,"ĠFar":12545,"ĠFoo":12546,"ĠFest":12547,"ĠFinnish":12548,"ĠLu":12549,"ĠLake":12550,"ĠLick":12551,"ĠLizz":12552,"ĠLabel":12553,"ĠLuke":12554,"erson":12555,"ersey":12556,"Ġovensafe":12557,"Ġ56":12558,"Ġbreadcrumb":12559,"opt":12560,"ĠGets":12561,"ĠGingersnap":12562,"ĠGhi":12563,"Ġcarnation":12564,"Ġrom":12565,"again":12566,"arti":12567,"Ġcracking":12568,"Ġ305":12569,"Ġkum":12570,"oster":12571,"ĠBeaten":12572,"Ġexchanges":12573,"Ġhams":12574,"lete":12575,"Ġgrade":12576,"Ġcooler":12577,"Ġnutty":12578,"ĠOl":12579,"ĠWorthing":12580,"eci":12581,"eche":12582,"ĠEss":12583,"ĠEating":12584,"Ġcrusted":12585,"ĠPrepared":12586,"ĠJenn":12587,"ĠJersey":12588,"Ġoutward":12589,"ĠKook":12590,"ĠKale":12591,"ĠKroger":12592,"ĠKnots":12593,"ĠBlair":12594,"ĠBlintzes":12595,"ĠVitamin":12596,"Ġwarmer":12597,"ĠPepp":12598,"ĠPeppy":12599,"Ġfines":12600,"ĠNa":12601,"ĠNear":12602,"aws":12603,"Ġcommeric":12604,"expensive":12605,"ĠShaker":12606,"irections":12607,"ĠBreadsticks":12608,"blets":12609,"Ġscrod":12610,"arbor":12611,"Ġstripped":12612,"Ġafternoon":12613,"Ġturnover":12614,"Ġbrats":12615,"ĠArt":12616,"ĠArgo":12617,"ĠArctic":12618,"tonion":12619,"Ġcrisps":12620,"Ġcrispies":12621,"sausage":12622,"isturb":12623,"Ġlongest":12624,"ĠFlowers":12625,"Ġneedle":12626,"Ġ242":12627,"ĠScout":12628,"ĠScrapple":12629,"ricol":12630,"ĠZe":12631,"alapenos":12632,"ĠMont":12633,"Ġknock":12634,"ĠBrew":12635,"soy":12636,"Ġmeans":12637,"Ġmoistening":12638,"Ġflattening":12639,"ĠMinted":12640,"Ġperk":12641,"ĠCrumbled":12642,"ortland":12643,"ĠPammed":12644,"unsliced":12645,"ĠDoris":12646,"Ġopt":12647,"ĠDipped":12648,"ĠDijonnaise":12649,"Ġfilberts":12650,"ĠRaspberries":12651,"Ġaction":12652,"ĠOrnaments":12653,"ĠPastries":12654,"Ġbreaks":12655,"ĠAngie":12656,"ĠProtein":12657,"ĠPromise":12658,"ĠPetite":12659,"fryers":12660,"ĠClay":12661,"ĠClouds":12662,"Ġpract":12663,"ĠSkinner":12664,"Ġcapfuls":12665,"ĠDumplins":12666,"Ġmoistness":12667,"Ġporcini":12668,"ĠReception":12669,"Ġtrio":12670,"Ġtrivet":12671,"ĠChristmast":12672,"adding":12673,"Ġpreferable":12674,"ĠMarian":12675,"Ġflattens":12676,"Ġringed":12677,"Ġloosened":12678,"ĠHead":12679,"ĠAnna":12680,"Ġvigorous":12681,"Ġovercooking":12682,"marine":12683,"maraschino":12684,"ĠComing":12685,"Ġguest":12686,"ĠAuntie":12687,"ĠCurrant":12688,"Leave":12689,"Ġcurdled":12690,"303":12691,"Ġrichly":12692,"ĠWatcher":12693,"ritious":12694,"ĠAmandine":12695,"ĠIndoor":12696,"Ġperforated":12697,"ĠRichards":12698,"ĠMaine":12699,"Ġwilts":12700,"Ġadults":12701,"ĠPapa":12702,"ĠSuz":12703,"ĠFollowing":12704,"Ġswirls":12705,"Ġpushed":12706,"ĠMoravian":12707,"Ġearthen":12708,"Ġearlier":12709,"ĠRotelle":12710,"ĠEclairs":12711,"ĠGuilt":12712,"ĠDollop":12713,"Ġhelping":12714,"ĠCasino":12715,"Ġduckling":12716,"radelli":12717,"Ġloins":12718,"Ġhazelnut":12719,"Ġdrumettes":12720,"Ġvegie":12721,"tSpoon":12722,"ĠSpringtime":12723,"ĠEva":12724,"Ġomelette":12725,"ĠBoys":12726,"Ġlaundry":12727,"granate":12728,"ĠRoyale":12729,"Ġslabs":12730,"ĠViennese":12731,"ĠJuly":12732,"ĠVermouth":12733,"ĠMasterpiece":12734,"Ġexpand":12735,"ĠGloria":12736,"ĠMamma":12737,"ĠLeeks":12738,"ĠSensation":12739,"ĠChiles":12740,"Ġtendency":12741,"Ġprayers":12742,"Cheez":12743,"ackerel":12744,"Ġcondiment":12745,"ĠSusie":12746,"Ġrainy":12747,"Ġbuckwheat":12748,"Ġportable":12749,"ĠPresto":12750,"joint":12751,"ĠChickpeas":12752,"blueberry":12753,"rises":12754,"Ġmidget":12755,"tube":12756,"ĠBerried":12757,"ĠRobin":12758,"ĠRolos":12759,"Soft":12760,"ĠHonolulu":12761,"Ġreduces":12762,"waxed":12763,"Ġtreated":12764,"ĠMasc":12765,"Ġsuggest":12766,"Ġjerk":12767,"ĠRefreshing":12768,"ĠCollard":12769,"ĠChalupas":12770,"ĠGooseberry":12771,"Ġharder":12772,"Philly":12773,"ĠSorghum":12774,"ĠPacific":12775,"ĠTemptations":12776,"Using":12777,"ougat":12778,"ĠSzechwan":12779,"Ġschool":12780,"ĠBorscht":12781,"ĠChampion":12782,"Ġquahogs":12783,"ĠDecadent":12784,"ĠTidbits":12785,"Ġreplenish":12786,"ĠIncredible":12787,"Ġglycerin":12788,"dinary":12789,"ĠCappuccino":12790,"Ġblistered":12791,"ĠHavarti":12792,"ĠOklah":12793,"Ġaccurately":12794,"Ġbulghur":12795,"Ġunsulphured":12796,"Two":12797,"defrosted":12798,"Ġingred":12799,"aranteed":12800,"Ġpignoli":12801,"Ġmasala":12802,"andoori":12803,"andomly":12804,"Ġferment":12805,"ĠBishop":12806,"ĠFagioli":12807,"measured":12808,"Ġmanageable":12809,"Squash":12810,"Ġignite":12811,"Ġmornings":12812,"ĠCousin":12813,"Ġsultanas":12814,"ĠSukiyaki":12815,"ĠEnergy":12816,"ĠHuntington":12817,"ĠIndonesian":12818,"Ġmemories":12819,"ĠOutrageous":12820,"Apricot":12821,"Portuguese":12822,"aetzle":12823,"Ġultra":12824,"Ġcabinet":12825,"Ġcultured":12826,"Ġpomegranate":12827,"Ġmantle":12828,"ĠSombr":12829,"ĠWaikiki":12830,"ĠGhiradelli":12831,"ĠWorthington":12832,"Ġcommerical":12833,"isturbed":12834,"ĠChristmastime":12835,"ĠOklahoma":12836,"'m":12837,"150":12838,"175":12839,"275":12840,"500":12841,"76":12842,"94":12843,"Acc":12844,"Asparagus":12845,"Aunt":12846,"Barbecued":12847,"ES":12848,"Em":12849,"Fast":12850,"Gu":12851,"Gold":12852,"Hen":12853,"Hor":12854,"Links":12855,"Ms":12856,"Mouth":12857,"Never":12858,"Pour":12859,"Party":12860,"Pyrex":12861,"Poppy":12862,"Remove":12863,"Tater":12864,"Takes":12865,"Test":12866,"Wrap":12867,"Week":12868,"aven":12869,"bar":12870,"bab":12871,"billy":12872,"below":12873,"cel":12874,"cast":12875,"clean":12876,"cale":12877,"cocoa":12878,"dissolve":12879,"few":12880,"family":12881,"gant":12882,"gment":12883,"hl":12884,"hor":12885,"kid":12886,"macaroni":12887,"mother":12888,"making":12889,"maker":12890,"nett":12891,"nacho":12892,"natural":12893,"okey":12894,"pink":12895,"paste":12896,"purple":12897,"purch":12898,"rind":12899,"ses":12900,"sther":12901,"sesame":12902,"sala":12903,"single":12904,"sworth":12905,"tar":12906,"tri":12907,"tles":12908,"taste":12909,"tone":12910,"tgreased":12911,"tmeat":12912,"tegg":12913,"telli":12914,"tesy":12915,"tect":12916,"tTh":12917,"tHeat":12918,"uan":12919,"uro":12920,"ugh":12921,"vis":12922,"wa":12923,"zag":12924,"Ġ/":12925,"Ġusage":12926,"Ġ...":12927,"Ġce":12928,"Ġcell":12929,"Ġcass":12930,"Ġcaut":12931,"inda":12932,"Ġtrench":12933,"Ġtacky":12934,"Ġbend":12935,"Ġbuckeyes":12936,"Ġbunny":12937,"arn":12938,"arily":12939,"edy":12940,"Ġpil":12941,"Ġmater":12942,"Ġmoose":12943,"Ġmesh":12944,"Ġmackerel":12945,"ontal":12946,"enh":12947,"alle":12948,"Ġfiesta":12949,"Ġfaces":12950,"Ġfondant":12951,"Ġwit":12952,"inged":12953,"sphere":12954,"Ġinf":12955,"Ġinver":12956,"ĠCu":12957,"ĠCity":12958,"ĠCouscous":12959,"ĠCrayfish":12960,"ĠCooper":12961,"ĠCatherine":12962,"ĠCincinnati":12963,"ĠCortland":12964,"oria":12965,"eli":12966,"Ġsupposed":12967,"Ġachi":12968,"Ġdie":12969,"Ġsugarless":12970,"ĠSass":12971,"ĠSoci":12972,"Ġglace":12973,"terhouse":12974,"terrey":12975,"Ġsaltpe":12976,"ĠBed":12977,"ĠBite":12978,"ĠBarbec":12979,"ĠBeth":12980,"acakes":12981,"ĠPix":12982,"ĠPans":12983,"ddled":12984,"isto":12985,"owax":12986,"ĠTir":12987,"ĠTina":12988,"ĠTeen":12989,"ĠTiger":12990,"ĠTaylor":12991,"Ġbutterflake":12992,"Ġflouring":12993,"illion":12994,"ĠAir":12995,"ĠAbs":12996,"ĠAway":12997,"ĠAct":12998,"Ġhon":12999,"Ġhurt":13000,"Ġhapp":13001,"ĠMand":13002,"ĠMey":13003,"ĠMicrow":13004,"ĠMerry":13005,"ĠMmm":13006,"adow":13007,"adies":13008,"adines":13009,"Ġfordhook":13010,"Ġeggsh":13011,"ĠAdding":13012,"Ġcram":13013,"toff":13014,"Ġcanape":13015,"Ġnests":13016,"Ġ420":13017,"Ġbakon":13018,"Ġshedd":13019,"Ġshade":13020,"Ġjel":13021,"Ġjus":13022,"Ġthinn":13023,"Ġgreasy":13024,"Ġatmo":13025,"Ġmarrow":13026,"Ġmarsala":13027,"thour":13028,"urel":13029,"ĠRus":13030,"ĠRip":13031,"ĠRave":13032,"ĠReg":13033,"ĠRoom":13034,"ĠReroll":13035,"Ġbrownness":13036,"ĠChard":13037,"ĠChives":13038,"Ġrat":13039,"Ġrough":13040,"Ġriced":13041,"Ġritz":13042,"Ġruin":13043,"Ġpanko":13044,"Ġcoon":13045,"Ġcoils":13046,"Ġcoddled":13047,"ĠDes":13048,"ĠDen":13049,"ĠDee":13050,"iper":13051,"strength":13052,"Ġgarbage":13053,"ĠSpud":13054,"ĠSpear":13055,"ĠSpears":13056,"eryl":13057,"ĠStone":13058,"ĠStripe":13059,"ĠFine":13060,"ĠFrid":13061,"ĠFannie":13062,"ĠFootball":13063,"Ġyum":13064,"Ġbeefsteak":13065,"ĠLon":13066,"ĠLook":13067,"ĠLord":13068,"ĠLinks":13069,"Ġstirr":13070,"Ġblisters":13071,"ĠHum":13072,"ĠHood":13073,"ĠHag":13074,"ĠHull":13075,"ĠHuckle":13076,"Ġmelba":13077,"ĠGull":13078,"ĠGai":13079,"Ġcarousel":13080,"Ġ95":13081,"Ġrocks":13082,"Ġshorten":13083,"ĠCheddary":13084,"Ġclips":13085,"Ġradi":13086,"Ġalthough":13087,"Ġkill":13088,"leye":13089,"Ġslighlty":13090,"eproof":13091,"epeno":13092,"letide":13093,"reasing":13094,"ĠOz":13095,"ects":13096,"entic":13097,"Ġblackening":13098,"ĠEtc":13099,"ĠEasily":13100,"Ġheel":13101,"Ġheap":13102,"ĠCrusts":13103,"Ġdoughmaker":13104,"ĠJe":13105,"ĠJalapenos":13106,"ĠKaiser":13107,"Ġpremelted":13108,"ĠSaver":13109,"ĠSauced":13110,"ĠVern":13111,"Ġleaven":13112,"Ġjells":13113,"oniod":13114,"ĠSalads":13115,"ĠChees":13116,"ĠMoz":13117,"ĠNips":13118,"ĠNav":13119,"ĠNina":13120,"aghettini":13121,"Ġenv":13122,"Ġ252":13123,"ĠYet":13124,"Ġfruity":13125,"example":13126,"ĠBev":13127,"Ġspreads":13128,"Ġfatty":13129,"ĠUm":13130,"ĠRefreeze":13131,"Ġthickener":13132,"ĠBrusc":13133,"ivide":13134,"Ġripp":13135,"Ġglove":13136,"oung":13137,"arpone":13138,"Ġlaying":13139,"Ġpoach":13140,"Ġbranch":13141,"Ġdoubling":13142,"Ġstiffer":13143,"Ġstiffens":13144,"ĠGrannie":13145,"Ġtempera":13146,"fully":13147,"Ġhandles":13148,"ĠCareful":13149,"ossal":13150,"Ġcompact":13151,"coat":13152,"flaked":13153,"Ġaren":13154,"plum":13155,"Ġprotect":13156,"ĠQuart":13157,"Ġparticular":13158,"Ġfolds":13159,"azola":13160,"Ġanyone":13161,"Ġanymore":13162,"ĠUnfried":13163,"ĠUnstuffed":13164,"ĠUnused":13165,"ĠFrosts":13166,"ĠBrenda":13167,"Ġgoodies":13168,"tzel":13169,"pickling":13170,"ĠCann":13171,"Ġmarinates":13172,"Ġundisturbed":13173,"Ġlentil":13174,"cornstarch":13175,"ĠKeeping":13176,"where":13177,"potatoes":13178,"Ġbroilers":13179,"ĠContain":13180,"ĠMeadow":13181,"ĠRancho":13182,"ĠOrch":13183,"ĠFarmhouse":13184,"Ġkneaded":13185,"ĠPickin":13186,"ĠAngels":13187,"Ġplatters":13188,"ĠTurk":13189,"tcut":13190,"ĠClair":13191,"approximate":13192,"appearing":13193,"peeling":13194,"ĠSkro":13195,"ĠSkyl":13196,"ĠSkinny":13197,"Ġflowerettes":13198,"ĠGoody":13199,"affod":13200,"ĠRevie":13201,"ĠUsed":13202,"Ġindirect":13203,"ĠRecip":13204,"ĠImitation":13205,"anned":13206,"ĠGrands":13207,"ĠCrout":13208,"ĠPancit":13209,"ĠTortoni":13210,"addle":13211,"Ġdelights":13212,"Children":13213,"smoked":13214,"Ġtouches":13215,"Ġdepressions":13216,"ĠMarily":13217,"ĠColossal":13218,"ĠCracklin":13219,"boat":13220,"Ġsoaks":13221,"Ġtrimming":13222,"crumble":13223,"ennis":13224,"Ġsolidly":13225,"ĠWheatsworth":13226,"ĠMomma":13227,"Ġcrossways":13228,"There":13229,"ĠApache":13230,"Ġswitch":13231,"Ġassure":13232,"Ġseafoods":13233,"ĠPerk":13234,"broil":13235,"ĠPopover":13236,"ĠAsiago":13237,"Ġdevils":13238,"precooked":13239,"Ġchickpea":13240,"ĠSurprises":13241,"Ġclosing":13242,"ĠDays":13243,"ĠShortly":13244,"ĠKnock":13245,"ĠFrances":13246,"ĠMission":13247,"Ġperforation":13248,"Ġdisks":13249,"Ġreheats":13250,"Ġmicrowaving":13251,"ĠMaui":13252,"ĠPapaya":13253,"Special":13254,"Ġsorrel":13255,"ĠHopping":13256,"ĠMorsels":13257,"ĠMorsel":13258,"Ġweenies":13259,"ĠSmoothie":13260,"ĠJohnson":13261,"ĠLiving":13262,"ĠPartly":13263,"Ġbowtie":13264,"Ġeights":13265,"ĠBoboli":13266,"ĠGoof":13267,"Ġspecialty":13268,"ĠParowax":13269,"ĠLeft":13270,"ĠPerson":13271,"uthentic":13272,"Ġtrick":13273,"ĠRosamarina":13274,"Ġdehydrator":13275,"ĠHelp":13276,"ĠHeloise":13277,"Ġ465":13278,"ĠJanet":13279,"Ġsupermark":13280,"important":13281,"firmly":13282,"partially":13283,"ĠWilma":13284,"ĠEdible":13285,"Ġparched":13286,"ĠButtons":13287,"Ġbushels":13288,"store":13289,"ĠParmigiano":13290,"tRoll":13291,"Ġlaid":13292,"Ġhumid":13293,"Ġsufficiently":13294,"Only":13295,"Ġfloor":13296,"ĠEveryone":13297,"Prep":13298,"Ġpresent":13299,"Ġexpansion":13300,"Ġobject":13301,"Ġrearrange":13302,"Ġpurchase":13303,"nament":13304,"tTurn":13305,"ĠJumble":13306,"tremaining":13307,"ĠBuddig":13308,"tbowl":13309,"ievable":13310,"seeded":13311,"Ġarms":13312,"miniature":13313,"pourri":13314,"Ġsettled":13315,"ĠVermont":13316,"blueberries":13317,"separated":13318,"Ġideal":13319,"works":13320,"ĠDisjoint":13321,"ĠDisappearing":13322,"Ġswirled":13323,"ĠTeacakes":13324,"Ġjalepeno":13325,"Ġhealthy":13326,"Ġgatherings":13327,"ĠCourt":13328,"ĠCourse":13329,"Ġjudgment":13330,"trimmed":13331,"Ġtreats":13332,"Ġnapkin":13333,"ĠEllen":13334,"Ġflameproof":13335,"Ġbluefish":13336,"ĠYule":13337,"ĠYuletide":13338,"Ġcylinders":13339,"deli":13340,"ĠChalupa":13341,"ĠMatthew":13342,"Ġ____":13343,"ĠProvencale":13344,"Ġwatah":13345,"Ġdidn":13346,"ĠTailgate":13347,"ĠJessie":13348,"Ġirregular":13349,"ĠRouladen":13350,"Swanson":13351,"Ġcuppa":13352,"ĠLarry":13353,"ĠFrancisco":13354,"ĠCantonese":13355,"Ġwiped":13356,"Marinated":13357,"Ġsuccess":13358,"ĠSweets":13359,"Ġgauge":13360,"ĠBecky":13361,"ĠMartin":13362,"Ġoverflowing":13363,"next":13364,"ĠButterfly":13365,"ĠSlivered":13366,"Canning":13367,"Ġmuslin":13368,"Ġmaximum":13369,"Ġmuscadines":13370,"ĠTabbouleh":13371,"ĠSparkle":13372,"ĠLucille":13373,"ĠGiblet":13374,"Ġencouragement":13375,"ĠCharleston":13376,"Ġbarbecuing":13377,"ĠPAM":13378,"Ġkolb":13379,"Ġnonpareils":13380,"frosted":13381,"Hellmann":13382,"pitted":13383,"Ġsaturate":13384,"Ġmultip":13385,"Ġfudgy":13386,"ĠTVP":13387,"Ġcheerfulness":13388,"vection":13389,"Ġrinsing":13390,"Ġromano":13391,"ĠMascarpone":13392,"ĠSombrero":13393,"Henry":13394,"Ġinverting":13395,"ĠSassy":13396,"Ġsaltpeter":13397,"ĠBarbecups":13398,"Ġshedded":13399,"Ġatmosphere":13400,"ĠHuckleberry":13401,"oniodized":13402,"ĠBruschetta":13403,"ĠSkyline":13404,"ĠMarilyn":13405,"Ġsupermarket":13406,".\")":13407,"34":13408,"43":13409,"49":13410,"475":13411,"?)":13412,"Ab":13413,"At":13414,"Aust":13415,"BT":13416,"Basil":13417,"Berry":13418,"Betty":13419,"DO":13420,"Dump":13421,"Dipped":13422,"Fish":13423,"Fran":13424,"Ginger":13425,"Golden":13426,"Garb":13427,"Goya":13428,"Graham":13429,"Her":13430,"Hom":13431,"Have":13432,"Japanese":13433,"Lay":13434,"Lef":13435,"Mint":13436,"Mazola":13437,"Nor":13438,"Nahum":13439,"Our":13440,"Sim":13441,"Sesame":13442,"Slow":13443,"Sometimes":13444,"Turn":13445,"UM":13446,"Veg":13447,"Water":13448,"Wild":13449,"Wrapped":13450,"\\).":13451,"burn":13452,"crab":13453,"calor":13454,"cium":13455,"cocktail":13456,"dirt":13457,"drift":13458,"evenly":13459,"gra":13460,"glish":13461,"grained":13462,"gundy":13463,"gelatin":13464,"hen":13465,"hance":13466,"ida":13467,"kely":13468,"kuchen":13469,"lots":13470,"loose":13471,"mish":13472,"molasses":13473,"nite":13474,"ov":13475,"ovy":13476,"pints":13477,"pinto":13478,"ras":13479,"rust":13480,"rump":13481,"rite":13482,"sl":13483,"sop":13484,"sandwich":13485,"tip":13486,"tuna":13487,"tUse":13488,"tBrown":13489,"uz":13490,"via":13491,"zer":13492,"Ġream":13493,"Ġsar":13494,"Ġsatin":13495,"Ġsorbet":13496,"anak":13497,"anzo":13498,"Ġter":13499,"Ġtra":13500,"Ġtad":13501,"Ġtreas":13502,"Ġow":13503,"Ġbeside":13504,"arita":13505,"edar":13506,"Ġpas":13507,"Ġpam":13508,"Ġpill":13509,"Ġpone":13510,"Ġpizz":13511,"Ġpike":13512,"Ġpollen":13513,"Ġmag":13514,"Ġmidd":13515,"Ġmahi":13516,"utions":13517,"enz":13518,"enian":13519,"alem":13520,"Ġfam":13521,"Ġfauce":13522,"Ġfideo":13523,"Ġwall":13524,"Ġwiener":13525,"icing":13526,"Ġinject":13527,"Ġinexpensive":13528,"leaven":13529,"ĠCape":13530,"ĠCath":13531,"ĠCathy":13532,"ela":13533,"elbow":13534,"aser":13535,"amab":13536,"Ġsund":13537,"Ġairy":13538,"Ġeasiest":13539,"Ġdips":13540,"Ġdings":13541,"Ġdaiquiri":13542,"Ġdicing":13543,"ĠSon":13544,"ĠSir":13545,"ĠSylv":13546,"ĠSingle":13547,"Ġgash":13548,"Ġgnocchi":13549,"Ġloves":13550,"Ġlatter":13551,"ooley":13552,"ĠBi":13553,"ĠBakes":13554,"ĠBarbecu":13555,"ĠBilly":13556,"ĠBunny":13557,"ĠBuckeye":13558,"ĠPav":13559,"ĠPaw":13560,"ĠPigg":13561,"ĠParsn":13562,"ĠPoulet":13563,"Ġflag":13564,"unbleached":13565,"unpared":13566,"Ġeggroll":13567,"isu":13568,"istle":13569,"ĠTour":13570,"ĠTun":13571,"ĠToothpick":13572,"ĠType":13573,"Ġunto":13574,"Ġunfrozen":13575,"Ġunavailable":13576,"Ġunfrosted":13577,"Ġcheesecakes":13578,"Ġvidalia":13579,"ĠAst":13580,"olli":13581,"Ġmind":13582,"Ġmineral":13583,"Ġhob":13584,"usto":13585,"usalem":13586,"ĠMt":13587,"ĠMal":13588,"ĠMott":13589,"ĠMyr":13590,"ĠMandel":13591,"ĠMenthe":13592,"ĠMesquite":13593,"ĠMBT":13594,"Ġchoke":13595,"Ġbead":13596,"omething":13597,"Ġcriss":13598,"umi":13599,"Ġnoniodized":13600,"Ġjams":13601,"Ġthought":13602,"Ġgrouse":13603,"upia":13604,"Ġlemun":13605,"Ġmarks":13606,"ĠRick":13607,"ĠRay":13608,"ĠRadish":13609,"ĠRachel":13610,"Ġbrownish":13611,"ĠChap":13612,"ĠCharm":13613,"ĠDick":13614,"ĠDandy":13615,"ĠDuper":13616,"coln":13617,"monico":13618,"Ġspout":13619,"Ġspec":13620,"Ġspoil":13621,"Ġspaced":13622,"ĠWed":13623,"ĠWas":13624,"ĠWisp":13625,"Ġrel":13626,"ste":13627,"struc":13628,"stale":13629,"Ġboats":13630,"ĠSpuds":13631,"ĠSpike":13632,"ĠSpanak":13633,"quats":13634,"ĠStars":13635,"idi":13636,"Ġsmal":13637,"Ġgrounded":13638,"ĠFace":13639,"ĠFew":13640,"ĠFoster":13641,"Ġpiecrust":13642,"apul":13643,"ĠLater":13644,"ĠLots":13645,"arson":13646,"Ġ52":13647,"Ġbreadstick":13648,"ophan":13649,"ĠHole":13650,"ĠHOT":13651,"Ġconc":13652,"Ġconvection":13653,"oons":13654,"ĠGay":13655,"ĠGobs":13656,"ĠGriddle":13657,"ĠGovern":13658,"Ġcart":13659,"rings":13660,"elyn":13661,"Ġroma":13662,"Ġshortenings":13663,"ube":13664,"shallow":13665,"ĠWhit":13666,"Ġkamab":13667,"Ġredfish":13668,"Ġslender":13669,"ulate":13670,"Ġexcluding":13671,"uitable":13672,"live":13673,"ĠBrother":13674,"reases":13675,"ĠOaks":13676,"ĠWorces":13677,"estone":13678,"Ġsheen":13679,"Ġrefreeze":13680,"ĠEc":13681,"ĠEla":13682,"ĠEsther":13683,"Ġhear":13684,"Ġsquish":13685,"ĠJord":13686,"ĠBlock":13687,"ĠSazon":13688,"ĠViole":13689,"rimi":13690,"Ġfillo":13691,"onio":13692,"Ġtablet":13693,"Ġfinest":13694,"ĠMorocc":13695,"ĠNests":13696,"Ġzig":13697,"Ġenglish":13698,"Ġenhance":13699,"ĠYolk":13700,"Ġfruited":13701,"Ġletters":13702,"ĠShave":13703,"ĠShoney":13704,"ĠShuck":13705,"ĠButterless":13706,"Ġfoiled":13707,"Ġmochiko":13708,"ucumber":13709,"Ġheadless":13710,"indy":13711,"indeer":13712,"Ġturnovers":13713,"Ġaccomm":13714,"ĠSoups":13715,"Ġgranite":13716,"Ġdills":13717,"Ġtwirls":13718,"ĠCarter":13719,"ĠCarob":13720,"ogany":13721,"Ġsprays":13722,"coarsely":13723,"Ġample":13724,"florets":13725,"Ġarri":13726,"ĠForty":13727,"ĠCoast":13728,"ĠCoated":13729,"ĠCokes":13730,"istic":13731,"ĠTabouli":13732,"Quaker":13733,"Ġnonmetallic":13734,"ĠFloss":13735,"ĠQuiches":13736,"Ġquicker":13737,"ĠScot":13738,"ĠScoops":13739,"ĠSquirt":13740,"scr":13741,"ĠMeaty":13742,"igrams":13743,"ĠDelmonico":13744,"ĠUnbel":13745,"ĠConn":13746,"Ġdeeper":13747,"oko":13748,"okee":13749,"ĠAlaga":13750,"cornbread":13751,"ĠRetain":13752,"Ġeveryday":13753,"Ġsubmarine":13754,"Ġmortar":13755,"potato":13756,"Ġelk":13757,"gthwise":13758,"Ġbarrel":13759,"Ġshouldn":13760,"canning":13761,"wiches":13762,"Ġfreely":13763,"ĠPastrami":13764,"egin":13765,"ĠDrip":13766,"Ġsnugly":13767,"tcool":13768,"ĠClip":13769,"ĠClark":13770,"Ġprong":13771,"ĠAccents":13772,"Ġundercooked":13773,"ĠCaramelize":13774,"Ġspringform":13775,"ĠFront":13776,"Ġsingly":13777,"allops":13778,"Ġportobello":13779,"ĠRecover":13780,"ĠGlen":13781,"ĠGlow":13782,"ĠGlori":13783,"ĠCrost":13784,"ĠBlackened":13785,"ĠPanky":13786,"ajo":13787,"ĠMargie":13788,"ĠMarriage":13789,"mixer":13790,"ĠCracked":13791,"ĠCaldo":13792,"Ġkindly":13793,"oeuvre":13794,"arerib":13795,"ennies":13796,"ĠCrockpot":13797,"ĠMoms":13798,"Ġfrank":13799,"Ġbrands":13800,"markets":13801,"Ġsixths":13802,"ĠWatercress":13803,"ĠOrient":13804,"mptly":13805,"Ġdivinity":13806,"ordin":13807,"ĠPolenta":13808,"Ġdecoratively":13809,"Ġgrapefruits":13810,"fured":13811,"ĠDevilish":13812,"Ġnectarine":13813,"ĠImportant":13814,"Ġcardboard":13815,"ĠTenderloins":13816,"ĠJerusalem":13817,"ĠKnown":13818,"Ġsooner":13819,"Ġbeds":13820,"Ġcontinuous":13821,"Ġ190":13822,"Ġresult":13823,"ĠRichard":13824,"ĠTruss":13825,"lova":13826,"ĠHours":13827,"Ġsorry":13828,"ĠTostado":13829,"Ġpreheats":13830,"ĠTonkatsu":13831,"ĠHarry":13832,"ĠHarris":13833,"ĠRumaki":13834,"Ġinterest":13835,"ĠPortion":13836,"ĠWays":13837,"ĠWayne":13838,"ĠParties":13839,"ĠOaties":13840,"ĠPersian":13841,"Peach":13842,"prick":13843,"ĠTartlets":13844,"Ġtrouble":13845,"ĠRosy":13846,"Ġbuttah":13847,"Ġsupermarkets":13848,"Ġlox":13849,"Ġloving":13850,"blackberry":13851,"Ġmilligrams":13852,"Ġhorizontal":13853,"Ġelegant":13854,"Buttermilk":13855,"garnishes":13856,"ĠHillbilly":13857,"ĠEscarole":13858,"Ġ265":13859,"ĠSandra":13860,"tSet":13861,"tSaute":13862,"Ġstretched":13863,"Always":13864,"Ġstarted":13865,"Ġdesigns":13866,"ĠSucc":13867,"ĠPaula":13868,"Ġjuniper":13869,"Ġcourtesy":13870,"Ġfritter":13871,"Ġweighted":13872,"Ġlaurel":13873,"Vegetables":13874,"clear":13875,"Ġfingertip":13876,"following":13877,"Prego":13878,"cube":13879,"ĠAntonio":13880,"ĠMamaw":13881,"ĠChipper":13882,"Uncooked":13883,"Exodus":13884,"Ġridge":13885,"Ġpopsicle":13886,"Ġseared":13887,"ĠFeet":13888,"square":13889,"ĠCamper":13890,"ĠTravel":13891,"ĠPresident":13892,"nonstick":13893,"Ġdiscs":13894,"ĠPalm":13895,"cooled":13896,"ĠTreasures":13897,"365":13898,"ĠOhio":13899,"Ġachieved":13900,"Ġachote":13901,"fourth":13902,"ĠKolaches":13903,"Ġdetermine":13904,"ĠFunfetti":13905,"ĠSkewered":13906,"secret":13907,"turning":13908,"Ġgathered":13909,"Ġgherkin":13910,"Ġjiggle":13911,"ĠDavid":13912,"ĠSmuckers":13913,"ĠPrior":13914,"Ġunsulfured":13915,"ĠTimey":13916,"ĠMasala":13917,"ĠMadeline":13918,"Original":13919,"Ġsuggested":13920,"Ġtangerines":13921,"ĠDieter":13922,"comes":13923,"ĠBernice":13924,"ĠBernste":13925,"Ġ___":13926,"ĠMunchies":13927,"Ġboysen":13928,"ĠVenus":13929,"Ġdiscoloring":13930,"Snack":13931,"Ġmoment":13932,"ĠBaggie":13933,"ĠBaggies":13934,"rifty":13935,"ĠVegeburger":13936,"spiral":13937,"ĠKatie":13938,"Ġcapped":13939,"Ġmistake":13940,"ĠCombo":13941,"Ġsupply":13942,"ĠSenate":13943,"ĠAcapul":13944,"ĠPaprikas":13945,"ĠBombay":13946,"ĠJunket":13947,"Ġsubmerged":13948,"concentrate":13949,"Ġaccumulates":13950,"Ġjudgement":13951,"Ġwritten":13952,"Ġautomatic":13953,"ĠLimas":13954,"ĠChocolat":13955,"Ġproportions":13956,"Ġcavetelli":13957,"Ġlocal":13958,"ĠPayday":13959,"ĠCherokee":13960,"ĠDeglaze":13961,"ĠLatkes":13962,"Ġentertain":13963,"ĠTablespoons":13964,"Ġresistant":13965,"Ġpenetrate":13966,"Indian":13967,"teaspoon":13968,"ĠBenedict":13969,"Ġlefse":13970,"aburgers":13971,"ĠEssence":13972,"ĠPeppark":13973,"ricolor":13974,"ĠRichardson":13975,"Ġearthenware":13976,"Accent":13977,"kidney":13978,"tThen":13979,"Ġcellophan":13980,"ĠPixies":13981,"Ġhonesty":13982,"ĠOzark":13983,"ĠNavajo":13984,"Leftover":13985,"caloric":13986,"Ġfamilies":13987,"Ġfaucet":13988,"Ġsundried":13989,"ĠSylvia":13990,"ĠBarbecues":13991,"ĠWispride":13992,"ĠGovernor":13993,"Ġkamaboko":13994,"ĠElaine":13995,"ĠJordan":13996,"ĠViolet":13997,"Ġaccommodate":13998,"ĠGlorious":13999,"ĠAcapulco":14000,"Ġcellophane":14001,"%).":14002,"07":14003,"360":14004,"Bag":14005,"Boil":14006,"CK":14007,"Cinnamon":14008,"Custard":14009,"Calorie":14010,"Cucumber":14011,"Durkee":14012,"ED":14013,"El":14014,"Fine":14015,"Fir":14016,"Fuss":14017,"Filling":14018,"GE":14019,"Grain":14020,"Imp":14021,"Kid":14022,"Land":14023,"Lipton":14024,"Libby":14025,"Man":14026,"Milk":14027,"Main":14028,"Miss":14029,"Maw":14030,"OW":14031,"Pick":14032,"Pea":14033,"Purpose":14034,"Pizza":14035,"Que":14036,"Rich":14037,"Ricotta":14038,"Sl":14039,"Set":14040,"Some":14041,"Setta":14042,"Super":14043,"Total":14044,"Tony":14045,"Whe":14046,"bas":14047,"bananas":14048,"bacher":14049,"body":14050,"cith":14051,"das":14052,"dressing":14053,"eque":14054,"foam":14055,"gal":14056,"grim":14057,"grown":14058,"hour":14059,"how":14060,"hull":14061,"haps":14062,"ji":14063,"joles":14064,"kn":14065,"kern":14066,"knead":14067,"lar":14068,"lies":14069,"looks":14070,"mash":14071,"nes":14072,"ox":14073,"ogg":14074,"party":14075,"pasta":14076,"rong":14077,"sen":14078,"tas":14079,"tch":14080,"tips":14081,"tare":14082,"table":14083,"tdry":14084,"tbe":14085,"tfrom":14086,"tbake":14087,"tthen":14088,"uh":14089,"vine":14090,"viche":14091,"wet":14092,"wild":14093,"wagon":14094,"yps":14095,"ydr":14096,"Ã©":14097,"Ġcra":14098,"Ġcent":14099,"intosh":14100,"Ġsold":14101,"Ġsign":14102,"Ġsouffl":14103,"erican":14104,"antern":14105,"Ġtass":14106,"Ġtallow":14107,"Ġtunnel":14108,"Ġtropical":14109,"Ġtricolor":14110,"Ġocc":14111,"Ġbel":14112,"Ġbased":14113,"ester":14114,"Ġpith":14115,"Ġpoll":14116,"Ġpump":14117,"Ġpones":14118,"Ġpermits":14119,"Ġpestle":14120,"Ġppkg":14121,"Ġpaints":14122,"Ġpaddle":14123,"Ġpennies":14124,"Ġmut":14125,"Ġmice":14126,"Ġmock":14127,"atapp":14128,"uten":14129,"oned":14130,"onberries":14131,"enbacher":14132,"alat":14133,"alamata":14134,"Ġfans":14135,"Ġfern":14136,"Ġfoot":14137,"Ġfootball":14138,"Ġwhey":14139,"ingonberries":14140,"gard":14141,"Ġtoe":14142,"ppah":14143,"Ġink":14144,"Ġinward":14145,"leo":14146,"roken":14147,"ĠCome":14148,"ĠCouple":14149,"eland":14150,"asu":14151,"amisu":14152,"Ġsucc":14153,"Ġsuck":14154,"Ġsurimi":14155,"Ġasp":14156,"Ġ330":14157,"Ġdue":14158,"Ġdome":14159,"ĠSy":14160,"ĠSake":14161,"ĠSame":14162,"ĠSleep":14163,"Ġgen":14164,"Ġgumm":14165,"Ġlie":14166,"Ġlace":14167,"Ġlock":14168,"Ġlovers":14169,"Ġsaltpet":14170,"Ġpeppah":14171,"heet":14172,"ĠBix":14173,"ĠBubb":14174,"ĠBride":14175,"ĠPf":14176,"ĠPill":14177,"ĠPkg":14178,"ĠPipp":14179,"ĠPsal":14180,"ĠPossum":14181,"Ġflipping":14182,"unless":14183,"geals":14184,"isenh":14185,"ĠTus":14186,"ĠTray":14187,"ĠTbs":14188,"ĠTia":14189,
[...]
