{"<s>":0,"<pad>":1,"</s>":2,"<unk>":3,"<mask>":4,"!":5,"\"":6,"#":7,"$":8,"%":9,"&":10,"'":11,"(":12,")":13,"*":14,"+":15,",":16,"-":17,".":18,"/":19,"0":20,"1":21,"2":22,"3":23,"4":24,"5":25,"6":26,"7":27,"8":28,"9":29,":":30,";":31,"<":32,"=":33,">":34,"?":35,"@":36,"A":37,"B":38,"C":39,"D":40,"E":41,"F":42,"G":43,"H":44,"I":45,"J":46,"K":47,"L":48,"M":49,"N":50,"O":51,"P":52,"Q":53,"R":54,"S":55,"T":56,"U":57,"V":58,"W":59,"X":60,"Y":61,"Z":62,"[":63,"\\":64,"]":65,"^":66,"_":67,"`":68,"a":69,"b":70,"c":71,"d":72,"e":73,"f":74,"g":75,"h":76,"i":77,"j":78,"k":79,"l":80,"m":81,"n":82,"o":83,"p":84,"q":85,"r":86,"s":87,"t":88,"u":89,"v":90,"w":91,"x":92,"y":93,"z":94,"{":95,"|":96,"}":97,"~":98,"¡":99,"¢":100,"£":101,"¤":102,"¥":103,"¦":104,"§":105,"¨":106,"©":107,"ª":108,"«":109,"¬":110,"®":111,"¯":112,"°":113,"±":114,"²":115,"³":116,"´":117,"µ":118,"¶":119,"·":120,"¸":121,"¹":122,"º":123,"»":124,"¼":125,"½":126,"¾":127,"¿":128,"À":129,"Á":130,"Â":131,"Ã":132,"Ä":133,"Å":134,"Æ":135,"Ç":136,"È":137,"É":138,"Ê":139,"Ë":140,"Ì":141,"Í":142,"Î":143,"Ï":144,"Ð":145,"Ñ":146,"Ò":147,"Ó":148,"Ô":149,"Õ":150,"Ö":151,"×":152,"Ø":153,"Ù":154,"Ú":155,"Û":156,"Ü":157,"Ý":158,"Þ":159,"ß":160,"à":161,"á":162,"â":163,"ã":164,"ä":165,"å":166,"æ":167,"ç":168,"è":169,"é":170,"ê":171,"ë":172,"ì":173,"í":174,"î":175,"ï":176,"ð":177,"ñ":178,"ò":179,"ó":180,"ô":181,"õ":182,"ö":183,"÷":184,"ø":185,"ù":186,"ú":187,"û":188,"ü":189,"ý":190,"þ":191,"ÿ":192,"Ā":193,"ā":194,"Ă":195,"ă":196,"Ą":197,"ą":198,"Ć":199,"ć":200,"Ĉ":201,"ĉ":202,"Ċ":203,"ċ":204,"Č":205,"č":206,"Ď":207,"ď":208,"Đ":209,"đ":210,"Ē":211,"ē":212,"Ĕ":213,"ĕ":214,"Ė":215,"ė":216,"Ę":217,"ę":218,"Ě":219,"ě":220,"Ĝ":221,"ĝ":222,"Ğ":223,"ğ":224,"Ġ":225,"ġ":226,"Ģ":227,"ģ":228,"Ĥ":229,"ĥ":230,"Ħ":231,"ħ":232,"Ĩ":233,"ĩ":234,"Ī":235,"ī":236,"Ĭ":237,"ĭ":238,"Į":239,"į":240,"İ":241,"ı":242,"Ĳ":243,"ĳ":244,"Ĵ":245,"ĵ":246,"Ķ":247,"ķ":248,"ĸ":249,"Ĺ":250,"ĺ":251,"Ļ":252,"ļ":253,"Ľ":254,"ľ":255,"Ŀ":256,"ŀ":257,"Ł":258,"ł":259,"Ń":260,"Ġ<":261,"NE":262,"XT":263,"NEXT":264,"EN":265,"IN":266,"RE":267,"ST":268,"Ġc":269,"ING":270,"DI":271,"TS":272,"ENTS":273,"REDI":274,"INGREDI":275,"INGREDIENTS":276,"NER":277,"TI":278,"in":279,"Ġs":280,"er":281,"AR":282,"STAR":283,"END":284,"START":285,"Ġ1":286,"ON":287,"STR":288,"CTI":289,"UCTI":290,"INSTR":291,"ONS":292,"UCTIONS":293,"INSTRUCTIONS":294,"an":295,"ar":296,"Ġo":297,"Ġb":298,"ed":299,"Ġt":300,"es":301,"Ġp":302,"Ġm":303,"at":304,"il":305,"ut":306,"re":307,"on":308,"al":309,"en":310,"ou":311,"and":312,"Ġf":313,"PE":314,"LE":315,"CI":316,"TLE":317,"RECI":318,"TITLE":319,"RECIPE":320,"Ġch":321,"Ġand":322,"ing":323,"Ġw":324,"gar":325,"ic":326,"ĠC":327,"le":328,"Ġin":329,"or":330,"sp":331,"Ġto":332,"pp":333,"el":334,"ak":335,"Ġ2":336,"our":337,"rea":338,"ro":339,"Ġsu":340,"Ġsugar":341,"Ġ3":342,"Ġa":343,"it":344,"Ġd":345,"Ġe":346,"Ġon":347,"ter":348,"ix":349,"ĠS":350,"ĠB":351,"la":352,"ĠP":353,"ine":354,"Ġsal":355,"Ġg":356,"ol":357,"ge":358,"ra":359,"Ġpe":360,"as":361,"Ġtsp":362,"gg":363,"Ġh":364,"is":365,"Ġsalt":366,"Ġl":367,"utter":368,"ĠM":369,"Ġegg":370,"ion":371,"ake":372,"ream":373,"dd":374,"Ġbutter":375,"ese":376,"ĠT":377,"un":378,"eese":379,"ow":380,"Ġv":381,"Ġco":382,"Ġ(":383,"Ġcream":384,"all":385,"Ġfl":386,"Ġth":387,"Ġcheese":388,"ilk":389,"ick":390,"ot":391,"us":392,"Ġonion":393,"ch":394,"Ġof":395,"Ġflour":396,"Ġor":397,"Ġmilk":398,"ĠA":399,"Ġun":400,"ce":401,"Ġcho":402,"ice":403,"Ġmin":404,"Ġmix":405,"Ġcan":406,"ith":407,"ĠCo":408,"red":409,"ell":410,"ts":411,"Ġst":412,"eat":413,"ater":414,"Ġwith":415,"Ġfor":416,"Ġeggs":417,"Ġwater":418,"Ġminut":419,"til":420,"to":421,"ver":422,"Ġminutes":423,"00":424,"ok":425,"Ġj":426,"bsp":427,"ri":428,"Ġuntil":429,"ĠTbsp":430,"pper":431,"ee":432,"illa":433,"anilla":434,"Ġ4":435,"Ġvanilla":436,"mon":437,"Ġpepper":438,"Ġoz":439,"ĠMix":440,"der":441,"ĠAdd":442,"pped":443,"mb":444,"Ġn":445,"Ġbro":446,"ato":447,"Ġsh":448,"Ġat":449,"ie":450,"ĠCh":451,"Ġmar":452,"Ġcr":453,"ry":454,"Ġsa":455,"icken":456,"ck":457,"up":458,"ien":459,"Ġchopped":460,"Ġthe":461,"ve":462,"Ġinto":463,"redien":464,"Ġing":465,"Ġingredien":466,"Ġingredients":467,"gh":468,"uce":469,"ĠBake":470,"wn":471,"oup":472,"ip":473,"ir":474,".)":475,"Ġle":476,"Ġwh":477,"th":478,"ate":479,"ĠR":480,"lic":481,"Ġsoup":482,"owder":483,"ĠD":484,"ĠW":485,"Ġpowder":486,"Ġbak":487,"od":488,"50":489,"read":490,"col":491,"na":492,"uts":493,"Ġbaking":494,"Ġchicken":495,"ans":496,"st":497,"Ġover":498,"Ġgr":499,"orn":500,"Ġju":501,"pple":502,"garine":503,"Ġmargarine":504,"Ġbrown":505,"Ġsauce":506,"ill":507,"ush":508,"Ġbo":509,"Ġjuice":510,"ad":511,"atoes":512,"mall":513,"kg":514,"Ġpkg":515,"Ġall":516,"Ġ350":517,"ther":518,"Ġoil":519,"Ġcook":520,"ta":521,"ĠF":522,"ay":523,"les":524,"et":525,"nd":526,"Ġpan":527,"res":528,"ly":529,"Ġlb":530,"Ġcorn":531,"Ġbe":532,"Ġpie":533,"me":534,"apple":535,"ineapple":536,"ish":537,"ure":538,"Ġwell":539,"ers":540,"Ġlar":541,"ast":542,"Ġre":543,"con":544,"Ġlarge":545,"co":546,"Ġpineapple":547,"ur":548,"gether":549,"Ġtogether":550,"Ġlemon":551,"Ġfro":552,"qu":553,"ĠPour":554,"Ġadd":555,"um":556,"rain":557,"ole":558,"ust":559,"ound":560,"igh":561,"inch":562,"Ġr":563,"Ġsp":564,"ĠSp":565,"reen":566,"ten":567,"colate":568,"om":569,"ber":570,"Ġnuts":571,"Ġhour":572,"elt":573,"Ġpot":574,"am":575,"Ġtom":576,"Ġy":577,"Ġgreen":578,"umb":579,"Ġse":580,"reas":581,"Ġsmall":582,"ture":583,"ger":584,"Ġcra":585,"ery":586,"ated":587,"Ġmixture":588,"ight":589,"ser":590,"ĠL":591,"ĠSt":592,"Ġboil":593,"Ġcake":594,"Ġsour":595,"Ġ6":596,"ap":597,"ĠI":598,"room":599,"Ġcon":600,"oda":601,"ĠWh":602,"ĠCook":603,"Ġsoda":604,"Ġslic":605,"ves":606,"Ġ8":607,"ĠH":608,"id":609,"Ġchocolate":610,"Ġwhit":611,"eef":612,"Ġpec":613,"mbine":614,"Ġgar":615,"Ġcrack":616,"inegar":617,"Ġcup":618,"Ġvinegar":619,"ash":620,"ven":621,"Ġonions":622,"ushroom":623,"elery":624,"Ġpotatoes":625,"inna":626,"innamon":627,"Ġcelery":628,"ces":629,"sh":630,"lace":631,"op":632,"if":633,"old":634,"Ġgarlic":635,"age":636,"Ġground":637,"Ġcinnamon":638,"Ġmay":639,"Ġmushroom":640,"ise":641,"Ġtop":642,"Ġbeef":643,"Ġstick":644,"Ġpecans":645,"asser":646,"asserole":647,"Ġba":648,"eet":649,"Ġdrain":650,"zen":651,"ach":652,"ĠCool":653,"Ġcrumb":654,"im":655,"ries":656,"ies":657,"Ġbread":658,"Ġmelt":659,"Ġdish":660,"Ġ5":661,"ĠCombine":662,"ct":663,"Ġbeat":664,"erve":665,"Ġoran":666,"ĠG":667,"ard":668,"mo":669,"edi":670,"ood":671,"onna":672,"onnaise":673,"akes":674,"Ġhot":675,"Ġmayonnaise":676,"ff":677,"uit":678,"ink":679,"Ġso":680,"Ġx":681,"Ġoven":682,"Ġ9":683,"Ġmelted":684,"Ġfrozen":685,"raw":686,"ant":687,"bo":688,"edium":689,"ips":690,"Ġwhite":691,"edd":692,"ĠStir":693,"ough":694,"ress":695,"ĠWhip":696,"eddar":697,"owl":698,"udd":699,"Ġmedium":700,"Ġpean":701,"udding":702,"Ġheat":703,"Ġbowl":704,"Ġchips":705,"conut":706,"Ġstir":707,"len":708,"Ġgrated":709,"Ġ10":710,"Ġrice":711,"rink":712,"ars":713,"Ġro":714,"ire":715,"art":716,"ĠPlace":717,"reased":718,"fri":719,"ĠRe":720,"ll":721,"Ġbeans":722,"ub":723,"oon":724,"ĠCheddar":725,"Ġdry":726,"Ġcrumbs":727,"ab":728,"friger":729,"ĠSal":730,"ĠPut":731,"Ġ30":732,"arm":733,"aste":734,"Ġal":735,"rawber":736,"rinkle":737,"Ġcoconut":738,"Ġbox":739,"ushed":740,"Ġk":741,"bout":742,"Ġgra":743,"Ġcrushed":744,"Ġpudding":745,"Ġsliced":746,"ccol":747,"ccoli":748,"Ġtomatoes":749,"ustard":750,"ring":751,"Ġapp":752,"ded":753,"ey":754,"Ġpowdered":755,"Ġshor":756,"Ġorange":757,"tening":758,"Ġthen":759,"Ġtomato":760,"Ġcut":761,"Ġdrained":762,"Ġshortening":763,"ĠO":764,"ore":765,"Ġcar":766,"ĠE":767,"tab":768,"Ġbacon":769,"ege":770,"egetab":771,"Ġhours":772,"ins":773,"Ġcrackers":774,"stant":775,"ain":776,"ely":777,"erv":778,"Ġpeanut":779,"anan":780,"Ġmustard":781,"Ġabout":782,"Ġole":783,"Ġoleo":784,"Ġis":785,"Ġtaste":786,"Ġgreased":787,"weet":788,"Ġbake":789,"ĠIn":790,"ĠJ":791,"ressing":792,"Ġstrawber":793,"uff":794,"ĠSalad":795,"Ġas":796,"ul":797,"Ġjell":798,"ĠCake":799,"ĠK":800,"lo":801,"Ġcooked":802,"ea":803,"ĠServe":804,"ĠBro":805,"yr":806,"yrup":807,"Ġbot":808,"ruit":809,"Ġbeaten":810,"Ġmeat":811,"ĠBeat":812,"Ġshell":813,"resh":814,"iz":815,"Ġserv":816,"Ġsyrup":817,"Ġsl":818,"mallow":819,"shmallow":820,"Ġboiling":821,"Ġcans":822,"Ġra":823,"Ġvegetab":824,"coa":825,"Ġroll":826,"Ġred":827,"Ġrem":828,"Ġfrom":829,"Ġremain":830,"Ġpour":831,"Ġla":832,"Ġbroccoli":833,"Ġcocoa":834,"Ġchil":835,"Ġpap":836,"Ġlight":837,"Ġ13":838,"Ġcher":839,"Ġapples":840,"ĠPie":841,"Ġcool":842,"Ġli":843,"Ġex":844,"vor":845,"ĠCream":846,"Ġ15":847,"Ġserving":848,"Ġremaining":849,"Ġfir":850,"Ġhal":851,"ĠSprinkle":852,"af":853,"ason":854,"Ġbanan":855,"Ġdressing":856,"Ġcasserole":857,"uc":858,"ĠV":859,"Ġmarshmallow":860,"ĠPe":861,"mer":862,"Ġfresh":863,"ĠCr":864,"ĠCasserole":865,"Ġsof":866,"mp":867,"Ġblen":868,"Ġ20":869,"Ġfill":870,"Ġha":871,"move":872,"Ġshred":873,"ork":874,"Ġrefriger":875,"Ġcrust":876,"Ġ12":877,"are":878,"tened":879,"usage":880,"Ġjello":881,"ĠCover":882,"Ġshredded":883,"Ġcarro":884,"os":885,"Ġclo":886,"oth":887,"ue":888,"oll":889,"ks":890,"pping":891,"Ġinstant":892,"iced":893,"ham":894,"Ġcracker":895,"Ġslices":896,"iss":897,"mbur":898,"Ġlet":899,"Ġpieces":900,"ps":901,"shire":902,"ack":903,"ent":904,"tershire":905,"orces":906,"orcestershire":907,"lavor":908,"ĠSpread":909,"ĠMakes":910,"Ġgraham":911,"milk":912,"ley":913,"ĠWorcestershire":914,"Ġmarshmallows":915,"ĠCut":916,"Ġfilling":917,"oil":918,"one":919,"nuts":920,"ĠTh":921,"Ġseason":922,"ction":923,").":924,"Ġan":925,"ats":926,"Ġdiced":927,"Ġsalad":928,"Ġ45":929,"Ġball":930,"Ġbananas":931,"Ġcold":932,"li":933,"mburger":934,"Ġsk":935,"ree":936,"Ġit":937,"Ġsausage":938,"Ġwhi":939,"Ġnut":940,"Ġcarrots":941,"Ġeach":942,"Ġbuttermilk":943,"ĠMelt":944,"Ġlay":945,"Ġcover":946,"aked":947,"Ġfruit":948,"ĠChicken":949,"Ġflavor":950,"oodles":951,"25":952,"ĠBrown":953,"Ġjar":954,"ĠLet":955,"ĠRoll":956,"Ġsqu":957,"ide":958,"Ġup":959,"Ġchili":960,"ĠRemove":961,"ĠSa":962,"inger":963,"berry":964,"arsley":965,"ĠN":966,"Ġhamburger":967,"Ġparsley":968,"Ġwhole":969,"tle":970,"meg":971,"Ġus":972,"Ġstrawberries":973,"Ġnoodles":974,"Ġhalf":975,"Ġcookie":976,"Ġoli":977,"ss":978,"Ġnutmeg":979,"Ġpork":980,"ellow":981,"Ġsweet":982,"Ġrais":983,"eed":984,"let":985,"ges":986,"abb":987,"Ġcups":988,"Ġraisins":989,"lack":990,"abbage":991,"fore":992,"eal":993,"ĠChill":994,"ional":995,"Ġice":996,"Ġsheet":997,"ew":998,"Ġseed":999,"Ġyellow":1000,"esan":1001,"armesan":1002,"unch":1003,"ĠTop":1004,"immer":1005,"ĠCheese":1006,"ds":1007,"Ġen":1008,"ĠJell":1009,"Ġbefore":1010,"Ġout":1011,"Ġset":1012,"Ġginger":1013,"Ġpeppers":1014,"Ġcub":1015,"ian":1016,"Ġpre":1017,"ĠDrain":1018,"ender":1019,"oni":1020,"ift":1021,"Ġwal":1022,"Ġdone":1023,"ade":1024,"Ġfirst":1025,"ĠParmesan":1026,"Ġlow":1027,"Ġblack":1028,"ĠDip":1029,"Ġmushrooms":1030,"arch":1031,"Ġtender":1032,"Ġchill":1033,"ĠHeat":1034,"Ġtea":1035,"isc":1036,"Ġpack":1037,"Ġcloves":1038,"Ġlo":1039,"ĠPre":1040,"75":1041,"ac":1042,"ens":1043,"ump":1044,"Ġother":1045,"mooth":1046,"starch":1047,"urn":1048,"Ġcornstarch":1049,"Ġcabbage":1050,"meal":1051,"Ġthick":1052,"Ġstirring":1053,"tional":1054,"ead":1055,"ag":1056,"tain":1057,"Ġseasoning":1058,"Ġwalnuts":1059,"Ġcherry":1060,"Ġput":1061,"pan":1062,"Ġsmooth":1063,"ĠSh":1064,"tom":1065,"iscuit":1066,"Ġwhites":1067,"Ġalmon":1068,"tra":1069,"Ġwarm":1070,"Ġq":1071,"Ġbottom":1072,"ess":1073,"Ġqt":1074,"Ġvegetable":1075,"ried":1076,"ka":1077,"Ġdes":1078,"ave":1079,"Ġ325":1080,"ran":1081,"erves":1082,"Ġcontain":1083,"rop":1084,"Ġserve":1085,"cc":1086,"dens":1087,"densed":1088,"lend":1089,"Ġnot":1090,"ĠPot":1091,"ĠY":1092,"Ġbroth":1093,"Ġextra":1094,"ally":1095,"ĠButter":1096,"ĠAnd":1097,"ĠBlend":1098,"optional":1099,"Ġcondensed":1100,"Ġsaucepan":1101,"reasts":1102,"issol":1103,"ator":1104,"Ġ375":1105,"Ġyol":1106,"ime":1107,"Ġbag":1108,"Ġdough":1109,"ĠRice":1110,"chin":1111,"ĠIt":1112,"Ġcooking":1113,"quick":1114,"Ġplace":1115,"Ġbreasts":1116,"Ġdash":1117,"ately":1118,"Ġsoftened":1119,"ightly":1120,"arb":1121,"Ġone":1122,"risp":1123,"par":1124,"reez":1125,"Ġpaper":1126,"Ġwhipped":1127,"illet":1128,"Ġ40":1129,"ite":1130,"Ġlayer":1131,"Ġham":1132,"heat":1133,"Ġdire":1134,"acar":1135,"aw":1136,"Ġare":1137,"rika":1138,"Ġ25":1139,"pe":1140,"Ġvegetables":1141,"ired":1142,"Ġsticks":1143,"Ġthin":1144,"Ġpaprika":1145,"Ġballs":1146,"ize":1147,"night":1148,"Ġ7":1149,"Ġdesired":1150,"ute":1151,"Ġoranges":1152,"Ġif":1153,"est":1154,"Ġrefrigerator":1155,"acaroni":1156,"ĠRefriger":1157,"ĠCho":1158,"ĠBoil":1159,"ucumb":1160,"Ġpeach":1161,"'s":1162,"Ġcontainer":1163,"berries":1164,"Ġovernight":1165,"ex":1166,"row":1167,"ĠCookies":1168,"Ġbell":1169,"Ġcran":1170,"lass":1171,"Ġby":1172,"ec":1173,"isco":1174,"arin":1175,"alian":1176,"Ġ400":1177,"Ġfood":1178,"ett":1179,"Ġskillet":1180,"ĠRefrigerate":1181,"Ġapple":1182,"ĠChocolate":1183,"olden":1184,"ĠItalian":1185,"Ġextract":1186,"Ġtopping":1187,"rease":1188,"eep":1189,"fe":1190,"els":1191,"Ġbiscuit":1192,"ĠCrisco":1193,"Ġcherries":1194,"ĠU":1195,"Ġyolks":1196,"icrow":1197,"Ġstrawberry":1198,"ĠVel":1199,"Ġmo":1200,"rimp":1201,"ris":1202,"vee":1203,"veeta":1204,"Ġtime":1205,"spoon":1206,"pt":1207,"quart":1208,"Ġteaspoon":1209,"Ġspread":1210,"Ġmash":1211,"Ġfin":1212,"Ġcucumb":1213,"Ġpeel":1214,"fection":1215,"ĠCorn":1216,"ced":1217,"atter":1218,"vy":1219,"oney":1220,"icrowave":1221,"ĠVelveeta":1222,"Ġflakes":1223,"rand":1224,"Ġpeas":1225,"Ġconfection":1226,"ĠBread":1227,"Ġgolden":1228,"Ġwa":1229,"zz":1230,"tage":1231,"ĠServes":1232,"Ġliqu":1233,"Ġconfectioners":1234,"Ġlightly":1235,"ature":1236,"cept":1237,"Ġcol":1238,"Ġsize":1239,"Ġpla":1240,"ĠBring":1241,"Ġunco":1242,"wee":1243,"ding":1244,"Ġmacaroni":1245,"Ġdo":1246,"ich":1247,"Ġmore":1248,"ĠDrop":1249,"Ġste":1250,"east":1251,"low":1252,"ĠĠ":1253,"elat":1254,"Ġuse":1255,"oughly":1256,"atsup":1257,"oroughly":1258,"Ġmixed":1259,"kin":1260,"Ġcatsup":1261,"Ġyou":1262,"Ġcot":1263,"Ġcottage":1264,"Ġtab":1265,"Ġres":1266,"se":1267,"Ġminced":1268,"Ġsimmer":1269,"Ġgelat":1270,"Ġyeast":1271,"10":1272,"Ġsoy":1273,"Ġwax":1274,"Ġfinely":1275,"ĠLay":1276,"Ġthoroughly":1277,"16":1278,"Ġpt":1279,"Ġcolor":1280,"Ġservings":1281,"Ġliquid":1282,"poon":1283,"lespoon":1284,"Ġflavoring":1285,"Ġsprinkle":1286,"tuce":1287,"umpkin":1288,"Ġtablespoon":1289,"inach":1290,"Ġsoft":1291,"aco":1292,"ĠMo":1293,"Ġexcept":1294,"Ġdill":1295,"ucchin":1296,"ucchini":1297,"Ġslightly":1298,"Ġolives":1299,"Ġpeaches":1300,"ble":1301,"Ġrolls":1302,"Ġpl":1303,"ĠBe":1304,"Ġ35":1305,"Ġpim":1306,"Ġket":1307,"Ġlettuce":1308,"ĠPreheat":1309,"etti":1310,"cent":1311,"nch":1312,"Ġmake":1313,"ano":1314,"Ġloaf":1315,"lue":1316,"Ġde":1317,"agh":1318,"aghetti":1319,"Ġlime":1320,"Ġfirm":1321,"Ġhoney":1322,"ric":1323,"Ġpick":1324,"atmeal":1325,"ile":1326,"Ġstand":1327,"ings":1328,"ĠFold":1329,"Ġpeanuts":1330,"Ġoff":1331,"Ġchops":1332,"Ġbuttered":1333,"ctions":1334,"oked":1335,"Ġhead":1336,"weetened":1337,"isquick":1338,"Ġmashed":1339,"its":1340,"led":1341,"chup":1342,"iff":1343,"ful":1344,"Ġcombine":1345,"ĠBisquick":1346,"Ġketchup":1347,"Ġoats":1348,"arp":1349,"Ġwine":1350,"Ġlit":1351,"ĠWhen":1352,"Ġfry":1353,"Ġshrimp":1354,"Ġfreez":1355,"elf":1356,"Ġgelatin":1357,"rench":1358,"Ġchun":1359,"urp":1360,"yle":1361,"ella":1362,"andarin":1363,"Ġrefrigerate":1364,"Ġsharp":1365,"ĠLayer":1366,"Ġmuff":1367,"Ġspoon":1368,"Ġunb":1369,"arella":1370,"Ġfat":1371,"range":1372,"zzarella":1373,"og":1374,"Ġbatter":1375,"Ġaside":1376,"key":1377,"Ġcubes":1378,"Ġmeal":1379,"12":1380,"ĠFrench":1381,"Ġpotato":1382,"gano":1383,"Ġolive":1384,"arbec":1385,"Ġwill":1386,"Ġstuff":1387,"Ġale":1388,"ortil":1389,"ortilla":1390,"greased":1391,"erb":1392,"Ġz":1393,"ose":1394,"Ġenough":1395,"Ġpackage":1396,"ican":1397,"ved":1398,"asy":1399,"ud":1400,"ares":1401,"rising":1402,"fter":1403,"lower":1404,"ĠFor":1405,"tail":1406,"Ġfloured":1407,"vap":1408,"iel":1409,"ĠMozzarella":1410,"vapor":1411,"ind":1412,"Ġself":1413,"ento":1414,"Ġonto":1415,"oun":1416,"Ġfoil":1417,"cktail":1418,"Ġblender":1419,"Ġcovered":1420,"Ġblend":1421,"Ġore":1422,"Ġevapor":1423,"ĠThen":1424,"issolve":1425,"Ġthaw":1426,"Ġbiscuits":1427,"Ġunbaked":1428,"Ġspaghetti":1429,"Ġtortilla":1430,"Ġevaporated":1431,"Ġoregano":1432,"ape":1433,"Ġthis":1434,"Ġpimento":1435,"ĠFruit":1436,"Ġblended":1437,"Ġcucumbers":1438,"Ġsift":1439,"vered":1440,"Ġslice":1441,"Ġalmonds":1442,"Ġyour":1443,"can":1444,"ĠBall":1445,"Ġlemonade":1446,"arbecue":1447,"Ġdirections":1448,"Ġtaco":1449,"Ġwaf":1450,"ray":1451,"Ġlon":1452,"ĠPotato":1453,"Ġlittle":1454,"Ġstuffing":1455,"Ġfine":1456,"cess":1457,"Ġspinach":1458,"Ġzucchini":1459,"Ġbottle":1460,"ording":1461,"Ġacc":1462,"Ġsquash":1463,"Ġmandarin":1464,"Ġsteak":1465,"erry":1466,"ted":1467,"ĠSift":1468,"Ġaccording":1469,"Ġtur":1470,"ffee":1471,"Qu":1472,"Ġpumpkin":1473,"ĠSw":1474,"Ġcookies":1475,"Ġtart":1476,"ĠSl":1477,"Ġoatmeal":1478,"Ġthawed":1479,"ĠBroccoli":1480,"ĠCar":1481,"Ġroast":1482,"Ġrest":1483,"Ġpinch":1484,"Ġmixing":1485,"rox":1486,"Ġplain":1487,"Ġalmond":1488,"Ġthicken":1489,"arton":1490,"ĠPean":1491,"Ġdried":1492,"aul":1493,"sc":1494,"Ġcarton":1495,"Ġte":1496,"Ġcocktail":1497,"ĠQu":1498,"Ġbrowned":1499,"cle":1500,"Ġri":1501,"ĠEasy":1502,"ider":1503,"izz":1504,"Ġsifted":1505,"ĠSpoon":1506,"roxim":1507,"urpose":1508,"Ġpeeled":1509,"ĠRo":1510,"una":1511,"ĠBrand":1512,"stantly":1513,"ĠPeanut":1514,"ne":1515,"Ġconstantly":1516,"roximately":1517,"Ġclove":1518,"agle":1519,"Ġcrab":1520,"aulif":1521,"auliflower":1522,"Ġap":1523,"ark":1524,"Ġcro":1525,"Ġvery":1526,"udge":1527,"ĠSauce":1528,"Ġslow":1529,"ned":1530,"pared":1531,"ern":1532,"ĠBaked":1533,"ĠSimmer":1534,"ĠMake":1535,"ĠApple":1536,"Ġwhipping":1537,"ĠYiel":1538,"ĠEagle":1539,"purpose":1540,"Ġglass":1541,"ually":1542,"ng":1543,"ĠGrease":1544,"otch":1545,"Ġbaked":1546,"ĠSe":1547,"Ġwafers":1548,"Ġ16":1549,"Ġhea":1550,"ld":1551,"Ġcranberry":1552,"ms":1553,"Ġhand":1554,"Ġwhen":1555,"mper":1556,"lish":1557,"Ġdou":1558,"Ġbas":1559,"ous":1560,"ke":1561,"Ġprepared":1562,"ĠUse":1563,"Ġpans":1564,"Ġcoloring":1565,"ates":1566,"Ġcand":1567,"Ġheavy":1568,"Ġpo":1569,"Ġmuffin":1570,"Ġhard":1571,"aro":1572,"kra":1573,"mi":1574,"Ġtub":1575,"Ġ50":1576,"Ġ300":1577,"Ġmini":1578,"Ġturn":1579,"ount":1580,"scotch":1581,"Ġtemper":1582,"ĠChop":1583,"Ġsquares":1584,"ĠDissolve":1585,"Ġround":1586,"ides":1587,"izza":1588,"ĠSlice":1589,"ĠSto":1590,"aves":1591,"Ġfork":1592,"Ġcubed":1593,"Ġcider":1594,"Ġbon":1595,"Ġblue":1596,"Ġtemperature":1597,"Ġmixer":1598,"Ġcle":1599,"bread":1600,"ĠLe":1601,"ĠKaro":1602,"Ġshells":1603,"Ġmicrowave":1604,"Ġsides":1605,"sweet":1606,"Ġneed":1607,"Ġdissol":1608,"ĠSwiss":1609,"ĠGra":1610,"ricot":1611,"arts":1612,"Ġtartar":1613,"Ġwhile":1614,"urt":1615,"Ġjust":1616,"sa":1617,"ereal":1618,"ready":1619,"Ġhalves":1620,"Ġstri":1621,"Ġsemi":1622,"ney":1623,"reak":1624,"und":1625,"Ġminute":1626,"ĠPunch":1627,"rispies":1628,"ĠSaute":1629,"ĠHot":1630,"Ġungreased":1631,"ogurt":1632,"dually":1633,"ĠFro":1634,"Ġdouble":1635,"ĠSweet":1636,"rap":1637,"Ġuns":1638,"Ġbut":1639,"ĠPress":1640,"Ġlayers":1641,"ĠPudding":1642,"uck":1643,"Ġcereal":1644,"ĠSoup":1645,"ices":1646,"Ġcornmeal":1647,"Ġqu":1648,"Ġstiff":1649,"Ġdates":1650,"Ġcauliflower":1651,"ĠTo":1652,"Ġcrumbled":1653,"ira":1654,"Ġcranberries":1655,"ĠDel":1656,"Ġinch":1657,"Ġsc":1658,"ĠTurn":1659,"ppy":1660,"Ġapproximately":1661,"ĠStrawber":1662,"ĠKrispies":1663,"Ġchest":1664,"ĠSqu":1665,"Ġchilies":1666,"Ġkid":1667,"Ġtablespoons":1668,"Ġafter":1669,"Ġjars":1670,"Ġturkey":1671,"style":1672,"iracle":1673,"Ġready":1674,"Ġchestnuts":1675,"ĠDo":1676,"own":1677,"Ġbasil":1678,"io":1679,"ĠFry":1680,"Ġuncovered":1681,"ipe":1682,"itz":1683,"ĠPotatoes":1684,"ull":1685,"Ġcres":1686,"Ġkidney":1687,"Ġbutterscotch":1688,"cted":1689,"fat":1690,"ĠMiracle":1691,"Ġyogurt":1692,"venly":1693,"Ġstrips":1694,"Ġkern":1695,"lasses":1696,"ia":1697,"Ġleast":1698,"ĠLemon":1699,"ĠStrawberry":1700,"Ġcrescent":1701,"Ġtw":1702,"Ġam":1703,"Ġrasp":1704,"ular":1705,"ubb":1706,"rate":1707,"reme":1708,"Ġcur":1709,"ĠBanan":1710,"iv":1711,"Ġtuna":1712,"ĠFl":1713,"Ġdirected":1714,"Ġside":1715,"spice":1716,"Ġday":1717,"Ġgood":1718,"sting":1719,"ĠAr":1720,"pare":1721,"Ġuncooked":1722,"ĠRitz":1723,"cipe":1724,"ĠFudge":1725,"Ġslowly":1726,"asco":1727,"astry":1728,"Ġremove":1729,"veral":1730,"eez":1731,"Ġpin":1732,"ĠTab":1733,"nish":1734,"Ġdissolved":1735,"Ġallspice":1736,"Ġapricot":1737,"anch":1738,"ĠSo":1739,"gular":1740,"Ġbring":1741,"Ġkernel":1742,"ĠTabasco":1743,"Ġseveral":1744,"ĠBanana":1745,"Ġdip":1746,"Ġcaram":1747,"Ġskin":1748,"Ġchunks":1749,"Ġcrisp":1750,"oke":1751,"Ġraw":1752,"Ġhash":1753,"ĠCra":1754,"Ġpecan":1755,"ig":1756,"Ġhe":1757,"ĠFill":1758,"ĠShape":1759,"Ġweed":1760,"Ġmolasses":1761,"enter":1762,"eets":1763,"sert":1764,"Ġany":1765,"Ġbou":1766,"Ġ24":1767,"illon":1768,"vel":1769,"oss":1770,"ĠSet":1771,"Ġsepar":1772,"Ġbubb":1773,"Ġbouillon":1774,"bs":1775,"Ġfew":1776,"Ġcenter":1777,"asta":1778,"Ġcoffee":1779,"apen":1780,"ĠThis":1781,"Ġplate":1782,"alapen":1783,"Ġgrease":1784,"Ġbanana":1785,"Ġbits":1786,"Ġlike":1787,"Ġbarbecue":1788,"ently":1789,"Ġkn":1790,"tin":1791,"Ġevenly":1792,"ĠQuick":1793,"Ġpat":1794,"Ġjelly":1795,"tz":1796,"rocess":1797,"tern":1798,"Ġpastry":1799,"ĠMeat":1800,"Ġcanned":1801,"rough":1802,"Ġnon":1803,"Ġsalmon":1804,"Ġlast":1805,"erbet":1806,"hub":1807,"Ġpaste":1808,"Ġhor":1809,"hubarb":1810,"Ġthrough":1811,"ĠBalls":1812,"Ġchilled":1813,"ters":1814,"ugar":1815,"ĠBeef":1816,"Ġleaves":1817,"Ġsweetened":1818,"Ġstew":1819,"adish":1820,"ĠEgg":1821,"ĠMicrowave":1822,"Ġsalsa":1823,"bl":1824,"ĠCan":1825,"ĠLo":1826,"Ġstal":1827,"seradish":1828,"Ġboiler":1829,"ĠStore":1830,"ĠPineapple":1831,"ĠWith":1832,"ĠYields":1833,"Ġform":1834,"Ġamount":1835,"ĠPrepare":1836,"Ġdown":1837,"Ġtube":1838,"ĠFreez":1839,"ĠYou":1840,"asion":1841,"Ġhorseradish":1842,"ccasion":1843,"merican":1844,"Ġcoat":1845,"so":1846,"ild":1847,"Ġrind":1848,"ĠSalt":1849,"Ġseasoned":1850,"mes":1851,"Ġquick":1852,"Ġoccasion":1853,"Ġminiature":1854,"ĠRed":1855,"Ġthem":1856,"ĠMex":1857,"Ġchi":1858,"ĠDressing":1859,"Ġboth":1860,"Ġjalapen":1861,"Ġcons":1862,"Ġar":1863,"Ġclean":1864,"pes":1865,"fuls":1866,"ĠAmerican":1867,"Ġfreeze":1868,"Ġpress":1869,"ĠRanch":1870,"ĠPeel":1871,"Ġpart":1872,"Ġoccasionally":1873,"ĠTake":1874,"Ġsto":1875,"Ġcrock":1876,"uffy":1877,"avor":1878,"Ġdeep":1879,"Ġroom":1880,"ĠPecan":1881,"ĠOn":1882,"Ġblueberries":1883,"ĠBeans":1884,"Ġtwo":1885,"Ġsherbet":1886,"Ġ*":1887,"Ġregular":1888,"ĠOre":1889,"meat":1890,"Ġgran":1891,"Ġfreezer":1892,"Ġfish":1893,"avorite":1894,"Ġsm":1895,"15":1896,"Ġshall":1897,"Ġboxes":1898,"ĠIf":1899,"ĠMin":1900,"Ġtortillas":1901,"Ġthat":1902,"ĠSeason":1903,"usts":1904,"Ġflaked":1905,"very":1906,"eless":1907,"about":1908,"ĠMar":1909,"auce":1910,"Ġspray":1911,"ĠGar":1912,"other":1913,"pot":1914,"Ġspeed":1915,"Ġconcent":1916,"Ġlong":1917,"Ġcomp":1918,"Ġcrusts":1919,"ĠPepper":1920,"uer":1921,"Ġbrowns":1922,"Ġ425":1923,"Ġripe":1924,"Ġdark":1925,"less":1926,"Ġsquare":1927,"reast":1928,"ĠIce":1929,"Ġgal":1930,"Ġgrapes":1931,"corn":1932,"Ġtoast":1933,"Ġcreamy":1934,"kraut":1935,"Ġunsweetened":1936,"Ġcreamed":1937,"uerkraut":1938,"man":1939,"ĠGr":1940,"amp":1941,"iled":1942,"ĠZ":1943,"cake":1944,"aschin":1945,"aschino":1946,"esson":1947,"Ġfried":1948,"ang":1949,"Ġprocess":1950,"reat":1951,"Ġhigh":1952,"Ġchunk":1953,"rit":1954,"Ġpickles":1955,"ext":1956,"ĠSc":1957,"Ġmaraschino":1958,"Ġboiled":1959,"not":1960,"Ġconcentrate":1961,"ĠOrange":1962,"Ġdozen":1963,"Ġcarrot":1964,"ation":1965,"ĠWesson":1966,"Ġspices":1967,"Ġboneless":1968,"Ġ450":1969,"Ġcooled":1970,"Ġevery":1971,"Ġkeep":1972,"ĠVegetab":1973,"Ġusing":1974,"Ġcomplet":1975,"gs":1976,"ĠSugar":1977,"Ġfluffy":1978,"ulated":1979,"Ġshallow":1980,"ĠEng":1981,"Ġchuck":1982,"Ġdro":1983,"ĠSausage":1984,"Ġpretz":1985,"Ġpacked":1986,"ĠMexican":1987,"Ġrings":1988,"Tel":1989,"ĠMay":1990,"velop":1991,"ort":1992,"ĠCoconut":1993,"Ġwaxed":1994,"20":1995,"Ġbars":1996,"enne":1997,"Ġcomes":1998,"Ġcandy":1999,"Ġim":2000,"ĠWash":2001,"Ġenvelop":2002,"Ġdeg":2003,"ĠPound":2004,"ĠArrange":2005,"ys":2006,"Ġgranulated":2007,"Ġbreast":2008,"Ġele":2009,"isten":2010,"Ġfold":2011,"ĠNo":2012,"ĠFreeze":2013,"ĠCon":2014,"Ġdri":2015,"Ġpasta":2016,"Ġmayo":2017,"Ġthickened":2018,"ĠDream":2019,"Ġlonger":2020,"ĠBreak":2021,"ĠEnglish":2022,"Ġper":2023,"Ġbunch":2024,"Ġcucumber":2025,"Ġfull":2026,"Ġhas":2027,"ĠMon":2028,"ayenne":2029,"ĠPick":2030,"Ġme":2031,"ĠGreen":2032,"Ġcayenne":2033,"Ġmel":2034,"ĠForm":2035,"Ġraspberry":2036,"Ġcompletely":2037,"irt":2038,"Ġbite":2039,"Ġthinly":2040,"Ġbubbly":2041,"Ġcoars":2042,"umin":2043,"edges":2044,"ilad":2045,"Ġseal":2046,"Ġapplesauce":2047,"ĠCherry":2048,"ici":2049,"Ġrhubarb":2050,"spar":2051,"yme":2052,"Ġbeating":2053,"tach":2054,"ĠHigh":2055,"wich":2056,"Ġorder":2057,"Ġjalapeno":2058,"Ġpizza":2059,"rees":2060,"ĠTater":2061,"ĠDes":2062,"Ġstalks":2063,"uns":2064,"ft":2065,"ary":2066,"Ġ60":2067,"ĠNut":2068,"Ġdegrees":2069,"Ġaltern":2070,"ong":2071,"medi":2072,"istach":2073,"ĠLoaf":2074,"mediately":2075,"Ġpop":2076,"Ġthyme":2077,"Ġne":2078,"ĠDessert":2079,"Ġpar":2080,"erries":2081,"Ġaddit":2082,"ĠToss":2083,"istachio":2084,"Ġmold":2085,"Ġsome":2086,"ĠCran":2087,"Ġneeded":2088,"ined":2089,"Ġcornbread":2090,"ors":2091,"Ġrecipe":2092,"14":2093,"ines":2094,"Ġlean":2095,"uted":2096,"ctric":2097,"ĠJello":2098,"Ġpoppy":2099,"Up":2100,"Ġtoss":2101,"ĠBars":2102,"Ġpickle":2103,"Ġseeds":2104,"Ġused":2105,"ling":2106,"ĠMarin":2107,"ĠBean":2108,"any":2109,"andwich":2110,"Ġpretzels":2111,"Ġ-":2112,"Ġquar":2113,"Ġelectric":2114,"rained":2115,"ĠVegetable":2116,"ĠCranberry":2117,"idd":2118,"Ġonce":2119,"ĠWrap":2120,"Ġhave":2121,"aping":2122,"laz":2123,"ots":2124,"Ġchives":2125,"Ġsauerkraut":2126,"ty":2127,"ife":2128,"Ġberries":2129,"Ġpunch":2130,"Ġspice":2131,"Ġchoice":2132,"Ġdrops":2133,"ied":2134,"ĠSour":2135,"ĠAl":2136,"Ġsecon":2137,"aff":2138,"ai":2139,"bon":2140,"cy":2141,"Ġgrape":2142,"Ġcurry":2143,"ĠPork":2144,"Ġgravy":2145,"Ġanother":2146,"Ġfavorite":2147,"ĠCheez":2148,"Ġbeen":2149,"ca":2150,"ould":2151,"ĠWhiz":2152,"ĠKn":2153,"tinue":2154,"stit":2155,"undt":2156,"ties":2157,"ĠCand":2158,"Ġadding":2159,"ball":2160,"ĠUn":2161,"Ġag":2162,"ĠSte":2163,"Ġlemons":2164,"oy":2165,"Ġpound":2166,"ĠPat":2167,"Ġmarin":2168,"'t":2169,"pick":2170,"agus":2171,"sparagus":2172,"ĠBlue":2173,"ĠCrumb":2174,"Ġmelts":2175,"Ġagain":2176,"Ġdrop":2177,"ĠGradually":2178,"Ġaround":2179,"Ġenvelope":2180,"icious":2181,"ph":2182,"No":2183,"gel":2184,"Ġwhip":2185,"stic":2186,"Ġknife":2187,"ĠBarbecue":2188,"othpick":2189,"ĠGood":2190,"Ġtow":2191,"Ġrum":2192,"Ġplastic":2193,"Ġbet":2194,"Ġfrosting":2195,"Ġtoothpick":2196,"Ġimmediately":2197,"Ġflat":2198,"ool":2199,"Ġbay":2200,"ĠDump":2201,"ĠSquash":2202,"ĠLine":2203,"ive":2204,"nut":2205,"ĠHam":2206,"Ġherb":2207,"ĠThe":2208,"by":2209,"vo":2210,"Ġrelish":2211,"ĠStuff":2212,"Ġgradually":2213,"ame":2214,"ĠBiscuit":2215,"ĠPizza":2216,"fl":2217,"ner":2218,"ĠPet":2219,"Ġangel":2220,"ĠBundt":2221,"Ġsalted":2222,"Ġalso":2223,"ken":2224,"ĠRolls":2225,"ĠGarnish":2226,"cakes":2227,"rush":2228,"Ġsherry":2229,"Ġwheat":2230,"Ġpreheat":2231,"pen":2232,"Ġfrying":2233,"ton":2234,"Ġtoo":2235,"Ġshape":2236,"orsels":2237,"Ġmorsels":2238,"Ġflavored":2239,"bler":2240,"ĠMash":2241,"ĠPeach":2242,"Ġ11":2243,"ĠPam":2244,"ĠPumpkin":2245,"ĠOr":2246,"Ġheaping":2247,"lets":2248,"Ġrise":2249,"ized":2250,"ĠOreo":2251,"ili":2252,"Ġsub":2253,"ĠTom":2254,"Ġcoated":2255,"Ġbroil":2256,"Ġleaf":2257,"reserves":2258,"ĠKeep":2259,"ĠCarro":2260,"cad":2261,"ĠDelight":2262,"Ġpistachio":2263,"Ġseasonings":2264,"Ġplus":2265,"Ġpimentos":2266,"istency":2267,"vocad":2268,"Ġund":2269,"Ġconsistency":2270,"balls":2271,"wh":2272,"ĠJack":2273,"ĠChili":2274,"Ġcheddar":2275,"Ġbroken":2276,"peat":2277,"ĠOld":2278,"Ġmois":2279,"Ġcrabmeat":2280,"Ġcaramels":2281,"Ġart":2282,"law":2283,"ĠAng":2284,"Ġbeets":2285,"cooked":2286,"iluted":2287,"ĠAfter":2288,"Ġrefrigerated":2289,"erman":2290,"Ġlen":2291,"ĠFried":2292,"Ġsubstit":2293,"ĠTea":2294,"ĠBiscuits":2295,"Ġnext":2296,"eri":2297,"Ġstove":2298,"free":2299,"Ġ14":2300,"ĠCrust":2301,"ollow":2302,"Ġoys":2303,"ĠShrimp":2304,"Ġpreheated":2305,"bbler":2306,"ome":2307,"ĠMinute":2308,"ace":2309,"esame":2310,"pl":2311,"ppings":2312,"iffy":2313,"eg":2314,"affin":2315,"allop":2316,"Ġparaffin":2317,"ets":2318,"ting":2319,"Ġ18":2320,"ĠHa":2321,"ĠMarshmallow":2322,"wise":2323,"ĠMuff":2324,"boiled":2325,"ĠCrumble":2326,"inse":2327,"Ġpinto":2328,"hey":2329,"Ġpepperoni":2330,"Ġdrippings":2331,"ĠReduce":2332,"Ġbrand":2333,"Ġgently":2334,"ower":2335,"ĠAngel":2336,"ving":2337,"ĠSpinach":2338,"Ġcaramel":2339,"Ġpreserves":2340,"oles":2341,"joy":2342,"ions":2343,"ĠRa":2344,"ĠGerman":2345,"int":2346,"Ġavocad":2347,"Ġtoasted":2348,"Ġbar":2349,"ĠCup":2350,"imes":2351,"Ġpopcorn":2352,"ĠCandy":2353,"ĠCobbler":2354,"ĠJiffy":2355,"Ġalternately":2356,"ĠAcc":2357,"Ġbean":2358,"ershey":2359,"Ġadded":2360,"unchy":2361,"ĠCabbage":2362,"ĠCrab":2363,"ĠAccent":2364,"ĠZucchini":2365,"Ġheated":2366,"Ġdi":2367,"ĠKool":2368,"ĠBrownies":2369,"ness":2370,"Ġchop":2371,"ĠFrit":2372,"amel":2373,"Ġteaspoons":2374,"ons":2375,"aking":2376,"ĠPh":2377,"ĠApp":2378,"ĠCamp":2379,"ĠHershey":2380,"Ġyolk":2381,"Ġdays":2382,"Ġairt":2383,"Ġonly":2384,"Ġcorned":2385,"ĠMuffins":2386,"Ġairtight":2387,"ĠCrisp":2388,"iny":2389,"Ġbuns":2390,"Ġquart":2391,"Ġsesame":2392,"Ġmuffins":2393,"ĠCrack":2394,"Aid":2395,"Ġoun":2396,"Ġasparagus":2397,"ĠChe":2398,"Ġrolled":2399,".\\":2400,"for":2401,"Ġstore":2402,"qual":2403,"inner":2404,"bell":2405,"Ġcl":2406,"ante":2407,"Ġback":2408,"ĠTaco":2409,"ĠCaramel":2410,"made":2411,"Ġtightly":2412,"icante":2413,"ĠYield":2414,"Ġcornfl":2415,"ĠKra":2416,"Ġturning":2417,"ĠFrosting":2418,"ivid":2419,"ĠSup":2420,"Ġbags":2421,"Ġel":2422,"Ġwee":2423,"Ġreal":2424,"bow":2425,"tc":2426,"ily":2427,"ĠSpray":2428,"bits":2429,"Ġlid":2430,"ĠFresh":2431,"ĠCrush":2432,"Ġsoups":2433,"ĠDe":2434,"Ġpatties":2435,"Ġbreak":2436,"thing":2437,"Ġreserv":2438,"gth":2439,"lit":2440,"Ġadditional":2441,"ible":2442,"Ġsli":2443,"Ġseparated":2444,"Ġartich":2445,"Ġlength":2446,"ĠOatmeal":2447,"Ġshake":2448,"Ġgarnish":2449,"do":2450,"ĠAll":2451,"ĠDor":2452,"zzle":2453,"Ġseparate":2454,"fer":2455,"Ġ250":2456,"ĠCampbell":2457,"Ġcla":2458,"Ġseconds":2459,"Ġpit":2460,"aple":2461,"out":2462,"Ġmild":2463,"Ġetc":2464,"ering":2465,"ĠDot":2466,"Ġpiece":2467,"uk":2468,"Ġspoonfuls":2469,"Ġprocessor":2470,"Ġmade":2471,"Ġfour":2472,"ĠRepeat":2473,"Ġnonfat":2474,"All":2475,"uncan":2476,"Ġthey":2477,"ĠGreat":2478,"Ġhands":2479,"iento":2480,"ĠSteak":2481,"ĠDiv":2482,"ĠShake":2483,"laze":2484,"plant":2485,"Ġtap":2486,"Ġtimes":2487,"Ġgall":2488,"omemade":2489,"Ġpicante":2490,"Ġrack":2491,"ĠPan":2492,"Ġbott":2493,"ĠDelicious":2494,"ĠPickles":2495,"elph":2496,"ĠCornbread":2497,"iladelph":2498,"iladelphia":2499,"Ġfryer":2500,"ĠRoast":2501,"Ġskim":2502,"alor":2503,"ĠCreme":2504,"ĠStew":2505,"),":2506,"Ġbeer":2507,"ĠMacaroni":2508,"arty":2509,"Ġsmoke":2510,"Ġchunky":2511,"ĠPhiladelphia":2512,"ola":2513,"ĠFarm":2514,"Ġremo":2515,"ĠDorit":2516,"eringue":2517,"Ġforms":2518,"Ġcube":2519,"Ġserved":2520,"ioca":2521,"Ġwrap":2522,"mburg":2523,"lu":2524,"rye":2525,"ket":2526,"ĠHines":2527,"most":2528,"ĠSquares":2529,"Ġsubstitute":2530,"Ġelbow":2531,"Ġrye":2532,"Ġfirmly":2533,"Ġokra":2534,"Ġsage":2535,"ĠVal":2536,"Ġslivered":2537,"egg":2538,"fast":2539,"olid":2540,"ipton":2541,"Ġpimiento":2542,"ĠBlueberry":2543,"ma":2544,"we":2545,"Ġedges":2546,"Ġshould":2547,"Ġlard":2548,"Ġsandwich":2549,"terey":2550,"ĠTots":2551,"iven":2552,"Ġoften":2553,"ĠLipton":2554,"flavor":2555,"way":2556,"Ġwhis":2557,"ĠDuncan":2558,"ĠOnion":2559,"Ġfil":2560,"Ġgrain":2561,"Ġmint":2562,"ĠDoritos":2563,"Ġwash":2564,"Ġcrunchy":2565,"coop":2566,"Ġquarter":2567,"app":2568,"Ġthree":2569,"Ġwhich":2570,"Ġlengthwise":2571,"ĠWhile":2572,"Ġcornflakes":2573,"ĠVeg":2574,"ĠChip":2575,"ĠWill":2576,"Ġjuices":2577,"Ġbeg":2578,"ĠValley":2579,"icot":2580,"Ġgrill":2581,"ĠMonterey":2582,"Ġtapioca":2583,"Ġ\\":2584,"Ġpears":2585,"ĠMe":2586,"Ġcumin":2587,"Ġclear":2588,"ĠSupreme":2589,"ingers":2590,"stick":2591,"idge":2592,"oul":2593,"ĠBrush":2594,"ĠCoffee":2595,"Ġthickens":2596,"Ġmaple":2597,"Ġ\"":2598,"Ġtid":2599,"Ġeat":2600,"Ġrolling":2601,"Ġcandied":2602,"ĠHamburger":2603,"ĠKraft":2604,"flavored":2605,"ah":2606,"Ġstage":2607,"Ġalmost":2608,"Ġcoarse":2609,"Ġstill":2610,"ny":2611,"Ġstyle":2612,"Ġapart":2613,"Ġhearts":2614,"cing":2615,"Ġdrink":2616,"meric":2617,"Ġmoder":2618,"Ġ'":2619,"ini":2620,"Ġeverything":2621,"Ġtidbits":2622,"Ġic":2623,"Ġsheets":2624,"Ġraspberries":2625,"idden":2626,"ially":2627,"ĠBest":2628,"Ġbaby":2629,"size":2630,"yre":2631,"Ġwings":2632,"ĠTur":2633,"ĠKnead":2634,"yrex":2635,"Ġdissolve":2636,"ĠTuna":2637,"ĠWhite":2638,"ween":2639,"Ġsq":2640,"ĠHidden":2641,"Ġblueberry":2642,"ial":2643,"lings":2644,"Ġturmeric":2645,"utons":2646,"ĠParty":2647,"Ġno":2648,"Ġhamburg":2649,"anish":2650,"Ġbetween":2651,"ĠChops":2652,"ĠPepperidge":2653,"ĠDi":2654,"ĠScallop":2655,"Ġbroiler":2656,"Ġgallon":2657,"Ġicing":2658,"Ġwork":2659,"Ġholes":2660,"ĠMushroom":2661,"fried":2662,"Ġcoarsely":2663,"Ġcrumbly":2664,"Ġpopped":2665,"blong":2666,"inese":2667,"ĠPyrex":2668,"Ġgiven":2669,"Ġlim":2670,"ĠMilk":2671,"Ġ55":2672,"Ġstewed":2673,"Ġbottles":2674,"ĠCro":2675,"asure":2676,"Ġcontainers":2677,"Ġpickling":2678,"fro":2679,"ĠSm":2680,"Ġless":2681,"ĠChris":2682,"Ġfillets":2683,"de":2684,"Ġboard":2685,"ashion":2686,"Ġcroutons":2687,"Ġmein":2688,"Ġoblong":2689,"Ġkind":2690,"ĠSlow":2691,"ĠRecipe":2692,"ĠTomato":2693,"icotta":2694,"uss":2695,"ĠChinese":2696,"uring":2697,"ĠFrost":2698,"Ġweeks":2699,"ĠTw":2700,"head":2701,"Ġsure":2702,"ĠPo":2703,"Ġteaspoonfuls":2704,"uminum":2705,"ail":2706,"ĠGrand":2707,"ĠBroil":2708,"Ġdogs":2709,"Ġmoderate":2710,"ften":2711,"uth":2712,"Ġaluminum":2713,"ĠStove":2714,"nation":2715,"tm":2716,"Ġwant":2717,"ĠCustard":2718,"ĠRicotta":2719,"ously":2720,"Ġtake":2721,"Ġtri":2722,"ĠHomemade":2723,"ĠSalmon":2724,"ĠFrozen":2725,"Ġquarts":2726,"Ġfudge":2727,"13":2728,"Ġskinless":2729,"Ġstock":2730,"ĠStuffed":2731,"small":2732,"Ġ&":2733,"atch":2734,"Ġsur":2735,"ĠSlaw":2736,"ĠSpaghetti":2737,"Ġche":2738,"ĠLow":2739,"Ġcontinue":2740,"ĠCreamy":2741,"ĠSoak":2742,"ĠCarrot":2743,"ĠCakes":2744,"ĠDish":2745,"Ġribs":2746,"ĠEggs":2747,"ĠMarinate":2748,"Ġtowel":2749,"Ġinser":2750,"Ġglaze":2751,"Ġeggplant":2752,"ieners":2753,"ĠVanilla":2754,"orm":2755,"geal":2756,"ewarm":2757,"ĠSoften":2758,"ukewarm":2759,"ĠTang":2760,"ĠButtermilk":2761,"Ġinserted":2762,"Ġcutter":2763,"Ġfre":2764,"Ġlukewarm":2765,"awai":2766,"Ġknead":2767,"ĠRais":2768,"ĠFritos":2769,"awaiian":2770,"Ch":2771,"ĠCarnation":2772,"Ġsaute":2773,"ĠDough":2774,"quently":2775,"ĠHawaiian":2776,"Ġfrequently":2777,"Ġtins":2778,"Ġdel":2779,"Ġtops":2780,"peel":2781,"Ġstems":2782,"ĠContinue":2783,"ĠDivide":2784,"inches":2785,"oodle":2786,"Ġmakes":2787,"ored":2788,"ĠJust":2789,"Ġconsom":2790,"ĠChristm":2791,"try":2792,"unt":2793,"tover":2794,"ĠHoney":2795,"ĠSlowly":2796,"Ġmu":2797,"etiz":2798,"ĠIcing":2799,"Ġclams":2800,"Ġmeringue":2801,"ftover":2802,"Ġpies":2803,"Ġgelatine":2804,"Ġoyster":2805,"Ġpure":2806,"ĠSk":2807,"Ġchiles":2808,"ĠScalloped":2809,"Ġbark":2810,"agna":2811,"ĠGrill":2812,"Ġbrandy":2813,"oultry":2814,"ĠChristmas":2815,"Ġbest":2816,"ĠSn":2817,"Ġrefried":2818,"Ġwithout":2819,"ĠSpanish":2820,"no":2821,"use":2822,"Ġconsomme":2823,"cr":2824,"Ġunder":2825,"ĠOven":2826,"weeten":2827,"Ġboned":2828,"with":2829,"ĠDri":2830,"Ġinches":2831,"11":2832,"Ġwedges":2833,"Ġget":2834,"acho":2835,"Ġpoultry":2836,"Ġinst":2837,"iron":2838,"Ġloaves":2839,"ĠBreakfast":2840,"Ġsurf":2841,"peeled":2842,"Ġseedless":2843,"ossible":2844,"Ġpul":2845,"Ġexcess":2846,"Ġquickly":2847,"rag":2848,"ecor":2849,"Ġsurface":2850,"Ġfollow":2851,"ĠWater":2852,"dry":2853,"oam":2854,"Ġallow":2855,"Ġwalnut":2856,"cessary":2857,"Ġnecessary":2858,"airy":2859,"ĠRaisin":2860,"utch":2861,"ener":2862,"Ġsugars":2863,"ĠAllow":2864,"Ġscoop":2865,"nack":2866,"Ġreduce":2867,"iddle":2868,"ear":2869,"ina":2870,"alted":2871,"Ġjam":2872,"Ġtar":2873,"ĠCucumb":2874,"ĠPack":2875,"isted":2876,"Ġhalved":2877,"Ġsprayed":2878,"Ġounce":2879,"Ġquartered":2880,"ĠTurkey":2881,"ragon":2882,"Ġtin":2883,"Ġchow":2884,"Ġlined":2885,"ning":2886,"Ġcalor":2887,"ĠTri":2888,"av":2889,"ĠCoat":2890,"ĠHash":2891,"risket":2892,"ĠPancakes":2893,"ĠPop":2894,"ĠGrate":2895,"Ġapricots":2896,"Ġlisted":2897,"eturn":2898,"Ġparty":2899,"Ġquarters":2900,"Ġavocado":2901,"Ġbig":2902,"Ġpink":2903,"Ġdinner":2904,"ĠMandarin":2905,"ĠChex":2906,"ĠReturn":2907,"Ġpartially":2908,"ĠCracker":2909,"aker":2910,"Ġpulp":2911,"Ġtarragon":2912,"Ġvegg":2913,"ashew":2914,"ople":2915,"Ġlima":2916,"Ġblo":2917,"Ġmiddle":2918,"Ġcrumble":2919,"Ġcare":2920,"Ġundrained":2921,"mary":2922,"Ġwieners":2923,"icy":2924,"Ġmeatballs":2925,"ĠOreos":2926,"Ġundiluted":2927,"ĠDutch":2928,"Ġscall":2929,"Ġmoist":2930,"Ġunflavored":2931,"Ġleftover":2932,"Ġpancake":2933,"ffle":2934,"Ġenjoy":2935,"Ġsteaks":2936,"ĠToast":2937,"ĠCrock":2938,"ual":2939,"Ġsweeten":2940,"Ġahead":2941,"Ġdon":2942,"ĠRel":2943,"ĠEn":2944,"Ġbone":2945,"Ġequal":2946,"able":2947,"Ġclub":2948,"Ġbul":2949,"ĠSandwich":2950,"ĠOne":2951,"Ġfreshly":2952,"Ġmarinate":2953,"ĠRelish":2954,"erm":2955,"ingle":2956,"Ġwood":2957,"ams":2958,"parate":2959,"Ġskinned":2960,"Ġcareful":2961,"Ġsun":2962,"ĠSeed":2963,"ĠTex":2964,"Ġcomb":2965,"ominy":2966,"Ġgreens":2967,"eeze":2968,"ĠDrizzle":2969,"ĠLea":2970,"Ġreserved":2971,"dish":2972,"cook":2973,"ĠCrunch":2974,"Ġtowels":2975,"ĠStyle":2976,"Ġrose":2977,"Ġthickness":2978,"ĠUs":2979,"Ġpint":2980,"Ġsmoked":2981,"side":2982,"ĠLime":2983,"loin":2984,"ears":2985,"edge":2986,"ecial":2987,"my":2988,"ĠSeal":2989,"cho":2990,"bove":2991,"Ġwire":2992,"Ġabove":2993,"Ġrinse":2994,"ĠHell":2995,"Ġcutting":2996,"ountry":2997,"ĠApples":2998,"approximately":2999,"ilant":3000,"Ġfoam":3001,"ĠMom":3002,"ĠRinse":3003,"ĠNext":3004,"ĠGarlic":3005,"ilantro":3006,"ĠChess":3007,"ĠRuss":3008,"ctar":3009,"Ġscal":3010,"jon":3011,"Ġflower":3012,"ĠLightly":3013,"ĠSeparate":3014,"Ġbetter":3015,"Ġcilantro":3016,"Ġlas":3017,"bu":3018,"Ġfran":3019,"ĠPasta":3020,"aster":3021,"ĠDill":3022,"Ġglasses":3023,"Ġnonstick":3024,"ivided":3025,"ashioned":3026,"Ġwooden":3027,"ath":3028,"ĠPr":3029,"Ġsaltine":3030,"ĠSpiced":3031,"ages":3032,"oe":3033,"Ġmaking":3034,"ĠBlack":3035,"Ġpeak":3036,"ĠMeatballs":3037,"Ġmarinade":3038,"Ġartichoke":3039,"Ġrosemary":3040,"Ġtbsp":3041,"routs":3042,"ĠYum":3043,"Ġveggies":3044,"acon":3045,"ĠCinnamon":3046,"Ġprefer":3047,"Ġsingle":3048,"Ġind":3049,"urg":3050,"Ġunsalted":3051,"Ġbulk":3052,"ĠTexas":3053,"Ġunpeeled":3054,"Ġmeats":3055,"ĠThaw":3056,"Ġsweetener":3057,"ĠUsing":3058,"Ġsit":3059,"als":3060,"Ġscallions":3061,"bury":3062,"flower":3063,"Ġcashew":3064,"ere":3065,"Ġdivided":3066,"ĠHeath":3067,"Ġaddition":3068,"Ġbegins":3069,"ĠRussian":3070,"46":3071,"Ġiron":3072,"Ġleave":3073,"oliday":3074,"Ġchees":3075,"cup":3076,"Ġlite":3077,"ĠRhubarb":3078,"Ġalum":3079,"ourbon":3080,"ĠPuff":3081,"Ġblock":3082,"ĠEnjoy":3083,"ĠDate":3084,"Ġsprouts":3085,"agne":3086,"Ġdev":3087,"mann":3088,"ĠDijon":3089,"cans":3090,"ipped":3091,"inal":3092,"ank":3093,"Ġpeople":3094,"box":3095,"Ġwashed":3096,"Ġcap":3097,"Ġgener":3098,"eaten":3099,"Ġnacho":3100,"Ġsprink":3101,"Ġmuch":3102,"orb":3103,"ĠNe":3104,"ĠDumplings":3105,"ĠCarrots":3106,"Ġavocados":3107,"Ġcheeses":3108,"Ġopen":3109,"eeps":3110,"ĠWal":3111,"odka":3112,"Ġliter":3113,"Ġchipped":3114,"fish":3115,"Ġparts":3116,"ĠCol":3117,"Ġgrits":3118,"Ġend":3119,"iche":3120,"Ġplatter":3121,"save":3122,"Ġwild":3123,"Ġeas":3124,"ĠBar":3125,"Ġgreat":3126,"iet":3127,"ĠCheesecake":3128,"Ġnectar":3129,"ills":3130,"ettuc":3131,"Ġwafer":3132,"lazed":3133,"ier":3134,"ths":3135,"ents":3136,"Ġabs":3137,"ĠBran":3138,"ĠCauliflower":3139,"ĠFlake":3140,"ĠChees":3141,"Ġwhisk":3142,"ĠCucumber":3143,"ison":3144,"okes":3145,"Ġbrownie":3146,"Ġfruits":3147,"Ġtray":3148,"ating":3149,"orted":3150,"Ġsteam":3151,"Ġoysters":3152,"Ġpeaks":3153,"Ġown":3154,"ĠPu":3155,"ĠDice":3156,"ĠFavorite":3157,"Ġremoved":3158,"ĠMold":3159,"uncooked":3160,"Ġvodka":3161,"Ġsame":3162,"ĠDon":3163,"Ġcolored":3164,"ĠGrandma":3165,"Ġsunflower":3166,"ĠLeave":3167,"mm":3168,"enison":3169,"ĠAunt":3170,"Ġsplit":3171,"ĠSpecial":3172,"illsbury":3173,"fresh":3174,"Ġcakes":3175,"ĠCa":3176,"ĠBacon":3177,"ĠSplit":3178,"Ġass":3179,"ĠGrind":3180,"ilada":3181,"Ġsecond":3182,"Ġhold":3183,"Ġstarts":3184,"Ġradish":3185,"Ġabsorb":3186,"ĠBatter":3187,"ist":3188,"te":3189,"Ġbrisket":3190,"Ġring":3191,"Ġspring":3192,"Ġdessert":3193,"ĠFlour":3194,"Ġstalk":3195,"Ġbunches":3196,"ĠPoppy":3197,"ĠHellmann":3198,"ĠCheesy":3199,"Ġburn":3200,"ĠTr":3201,"ĠRes":3202,"Ġflavors":3203,"Ġdissolves":3204,"ĠMarinated":3205,"mint":3206,"Ġpr":3207,"Ġthese":3208,"boned":3209,"Ġscalded":3210,"Pot":3211,"ĠCl":3212,"Ġinc":3213,"Ġline":3214,"Ġbeco":3215,"Ġfrost":3216,"Ġremainder":3217,"away":3218,"ĠAltern":3219,"Ġartichokes":3220,"ormel":3221,"may":3222,"Ġedge":3223,"Ġsn":3224,"ity":3225,"Ġdot":3226,"ddle":3227,"Ġcreamer":3228,"cover":3229,"Ġseeded":3230,"Ġwide":3231,"ĠCocktail":3232,"Ġarrange":3233,"of":3234,"Ġhominy":3235,"ĠHormel":3236,"Ġdeboned":3237,"Ġbubbles":3238,"Ġmoistened":3239,"Ġpitted":3240,"Th":3241,"high":3242,"uice":3243,"ĠPillsbury":3244,"ĠAp":3245,"ĠRom":3246,"Ġcreme":3247,"arge":3248,"areri":3249,"Ġspri":3250,"ĠLa":3251,"ĠEqual":3252,"ĠSouth":3253,"reach":3254,"Ġsoften":3255,"except":3256,"urple":3257,"ĠGravy":3258,"ĠArt":3259,"Ġpuree":3260,"Ġlasagna":3261,"Ġassorted":3262,"ĠBr":3263,"ĠSpr":3264,"Ġcongeal":3265,"Ġcaraway":3266,"Ġlook":3267,"rittle":3268,"ĠTomatoes":3269,"ĠAppetiz":3270,"ock":3271,"Ġport":3272,"riddle":3273,"iscard":3274,"Ġflatten":3275,"Ġounces":3276,"Ġindivid":3277,"ĠCal":3278,"Ġ275":3279,"Ġsections":3280,"ĠOf":3281,"lua":3282,"ahlua":3283,"oo":3284,"Ġbit":3285,"ĠPer":3286,"Ġcashews":3287,"Ġsave":3288,"ĠVery":3289,"ĠShred":3290,"areribs":3291,"land":3292,"ouffle":3293,"ĠPro":3294,"ĠCookie":3295,"ĠQuiche":3296,"Ġreserving":3297,"ptional":3298,"alade":3299,"Ġfri":3300,"ĠDinner":3301,"ĠIr":3302,"ĠUncle":3303,"Ġpounds":3304,"Ġradishes":3305,"bas":3306,"Ġcustard":3307,"ingu":3308,"mond":3309,"thy":3310,"ĠRam":3311,"ĠFood":3312,"meter":3313,"Ġrect":3314,"Ġjalapenos":3315,"Ġcombined":3316,"ĠArtich":3317,"Fat":3318,"Ġgriddle":3319,"ĠGolden":3320,"insed":3321,"Ġbones":3322,"iginal":3323,"ĠUncover":3324,"Ġremoving":3325,"ĠReserve":3326,"ĠRamen":3327,"add":3328,"Ġbrush":3329,"ĠHoliday":3330,"Ġcalories":3331,"ple":3332,"rise":3333,"Ġbourbon":3334,"Ġduring":3335,"Ġlea":3336,"ĠFish":3337,"Ġcurd":3338,"Ġcoating":3339,"ĠApricot":3340,"18":3341,"Ġster":3342,"Ġpers":3343,"ĠBen":3344,"Ġbeater":3345,"uced":3346,"Ġroasting":3347,"undrained":3348,"undiluted":3349,"Ġflowerets":3350,"Ġty":3351,"spberry":3352,"Ġshap":3353,"Ġsoak":3354,"Ġcarefully":3355,"Ġleaving":3356,"bone":3357,"Ġrinsed":3358,"Ġalong":3359,"Ġdoz":3360,"Ġcandies":3361,"Ġcored":3362,"Ġ36":3363,"Ġac":3364,"Ġstack":3365,"ady":3366,"Ġmeasure":3367,"Ġdelicious":3368,"ĠSprite":3369,"ĠArtichoke":3370,"Ġtiny":3371,"ander":3372,"Ġfire":3373,"Ġway":3374,"Ġeasy":3375,"ĠSnack":3376,"Ġcome":3377,"Ġyams":3378,"ĠJo":3379,"ĠNot":3380,"Ġending":3381,"Ġspoonful":3382,"Ġroasted":3383,"ĠFlat":3384,"ĠIrish":3385,"ru":3386,"estle":3387,"aki":3388,"vers":3389,"Ġpeppermint":3390,"Ġlimeade":3391,"Ġits":3392,"ĠNoodles":3393,"ĠButterscotch":3394,"Ġdrizzle":3395,"Ġwhiskey":3396,"fruit":3397,"ĠCat":3398,"ĠPies":3399,"Ġharden":3400,"ĠGrape":3401,"ouse":3402,"lay":3403,"Ġgo":3404,"Ġlevel":3405,"pending":3406,"ĠFlatten":3407,"tal":3408,"Ġreach":3409,"ouch":3410,"Ġchip":3411,"lean":3412,"Ġ32":3413,"ĠSurp":3414,"ĠOver":3415,"ĠJam":3416,"Ġrounded":3417,"Le":3418,"Ġlump":3419,"Ġflake":3420,"Ġstart":3421,"Ġpoint":3422,"!!":3423,"mar":3424,"Ġcir":3425,"Ġsized":3426,"ĠBo":3427,"Ġthan":3428,"Ġstring":3429,"Ġrun":3430,"ĠSave":3431,"cut":3432,"dairy":3433,"yaki":3434,"Ġdecor":3435,"ĠBrittle":3436,"ĠPea":3437,"ĠSalsa":3438,"ĠNoodle":3439,"ĠPretz":3440,"ĠCups":3441,"Ġfoamy":3442,"Makes":3443,"fry":3444,"Ġpurple":3445,"ĠBurg":3446,"etic":3447,"Ġspears":3448,"amily":3449,"eriyaki":3450,"Ġindividual":3451,"jor":3452,"Ġpossible":3453,"Ġfive":3454,"Ġfettuc":3455,"ĠKeeps":3456,"ĠNestle":3457,"Ġench":3458,"ĠFluff":3459,"frozen":3460,"roof":3461,"Ġoriginal":3462,"ĠWheat":3463,"ĠGran":3464,"Ġpacket":3465,"arbecu":3466,"ĠIcebox":3467,"ĠPatties":3468,"ĠProcess":3469,"ĠMa":3470,"ght":3471,"ĠDirt":3472,"ĠWork":3473,"Ġcooker":3474,"luding":3475,"ĠSurprise":3476,"ik":3477,"uteed":3478,"Ġinside":3479,"ĠBas":3480,"lain":3481,"ĠKahlua":3482,"Ġreduced":3483,"ielbas":3484,"Ġtoothpicks":3485,"Lemon":3486,"32":3487,"large":3488,"zo":3489,"Ġfingers":3490,"Ġwet":3491,"ouple":3492,"ĠHave":3493,"ĠPickled":3494,"ĠCrackers":3495,"ĠAlternate":3496,"ĠRomano":3497,"Ġtype":3498,"mmer":3499,"malade":3500,"ye":3501,"enough":3502,"Ġmarmalade":3503,"ĠHe":3504,"mpty":3505,"Ġreserve":3506,"ĠMushrooms":3507,"ĠTwink":3508,"ĠSkillet":3509,"ĠPopcorn":3510,"Ġenchilada":3511,"ib":3512,"Ġcouple":3513,"Ġsolid":3514,"ĠFin":3515,"lime":3516,"Ġskins":3517,"ĠGraham":3518,"Ġherbs":3519,"Ġdipping":3520,"ĠDev":3521,"crumb":3522,"upper":3523,"arter":3524,"Ġtall":3525,"Ġdump":3526,"raut":3527,"Ġveal":3528,"ĠGently":3529,"ĠSouthern":3530,"Ġ+":3531,"Ġtorn":3532,"Ġparmesan":3533,"ĠGinger":3534,"Ġkettle":3535,"Ġeasily":3536,"Ġsprigs":3537,"mix":3538,"ĠCocoa":3539,"ĠChow":3540,"reserve":3541,"ĠIs":3542,"orets":3543,"ĠSauerkraut":3544,"ĠSeven":3545,"ĠMeasure":3546,"Ġoptional":3547,"Ġmarjor":3548,"Ġpancakes":3549,"asting":3550,"ĠGlazed":3551,"Ġkraut":3552,"ĠPuffs":3553,"Ġprun":3554,"don":3555,"Ġpuff":3556,"irloin":3557,"Ġoverb":3558,"ĠBefore":3559,"Ġsandwiches":3560,"Ġmarjoram":3561,"21":3562,"ĠSouffle":3563,"Ġlingu":3564,"orning":3565,"amal":3566,"ĠEx":3567,"ampagne":3568,"arbecued":3569,"ielbasa":3570,"turn":3571,"ange":3572,"Ġflorets":3573,"Ġnight":3574,"the":3575,"ĠOys":3576,"ĠNew":3577,"ĠSnick":3578,"Ġinstru":3579,"Cola":3580,"Serves":3581,"rs":3582,"ermo":3583,"end":3584,"ĠSum":3585,"ĠCoca":3586,"ansfer":3587,"ĠLon":3588,"ĠOri":3589,"ifted":3590,"medium":3591,"your":3592,"ĠRag":3593,"ĠDog":3594,"ĠEat":3595,"ĠFilling":3596,"ĠColby":3597,"ppies":3598,"Ġaway":3599,"Ġ48":3600,"ĠRub":3601,"ĠLas":3602,"ĠPeg":3603,"Ġfinish":3604,"Ġmeas":3605,"lined":3606,"Ġtwice":3607,"Ġpints":3608,"ĠAlmond":3609,"white":3610,"Ġshapes":3611,"ĠSummer":3612,"gate":3613,"Ġpear":3614,"ĠStick":3615,"abetic":3616,"Ġmost":3617,"Ġspreading":3618,"ĠRaspberry":3619,"Ġbegin":3620,"Co":3621,"Ġpower":3622,"ross":3623,"ĠTot":3624,"Ġvenison":3625,"ĠAsparagus":3626,"ither":3627,"ĠCole":3628,"vent":3629,"ĠRea":3630,"Ġlove":3631,"ĠButterf":3632,"Ġmoisten":3633,"erios":3634,"Ġmon":3635,"ĠBaking":3636,"Ġspareribs":3637,"ĠPecans":3638,"ĠCheerios":3639,"Ġpimientos":3640,"Ġfrank":3641,"Ġsteril":3642,"alf":3643,"Ġcore":3644,"irl":3645,"ĠStrain":3646,"Ġboils":3647,"ĠReady":3648,"Ġdoub":3649,"Ġscallop":3650,"Ġnondairy":3651,"while":3652,"Ġinstead":3653,"Ġfollowing":3654,"Ġprunes":3655,"ĠRagu":3656,"Ġsterilized":3657,"ĠBay":3658,"ĠPol":3659,"ĠCoke":3660,"ĠWings":3661,"ĠWatergate":3662,"ĠNever":3663,"28":3664,"butter":3665,"Ġ100":3666,"Ġbran":3667,"Ġbasting":3668,"ĠTort":3669,"ĠFail":3670,"Ġreturn":3671,"Ġcupcake":3672,"Ġrot":3673,"Ġroaster":3674,"ĠShoe":3675,"Ġenvelopes":3676,"ĠSteam":3677,"Ġinstructions":3678,"ĠReaLemon":3679,"drained":3680,"fur":3681,"ox":3682,"eyed":3683,"Ġgrapefruit":3684,"Ġcloth":3685,"Ġtriang":3686,"proof":3687,"Ġsirloin":3688,"Ġpull":3689,"ret":3690,"ĠMill":3691,"Ġnew":3692,"ĠThese":3693,"Ġsqueez":3694,"ĠSeasons":3695,"Ġdevil":3696,"Ġbecomes":3697,"Ġbr":3698,"Ġtouch":3699,"Ġdice":3700,"ĠMrs":3701,"Ġhalfway":3702,"Ġprevent":3703,"ĠMonkey":3704,"ĠNote":3705,"ula":3706,"ures":3707,"ĠClean":3708,"orr":3709,"ĠBarbecued":3710,"Ġsaltines":3711,"ĠChew":3712,"oupe":3713,"Ġoiled":3714,"Ġhots":3715,"Ġnutmeat":3716,"Ġblackberries":3717,"Ġdoes":3718,"ounts":3719,"ĠKnorr":3720,"ĠGrilled":3721,"ĠSnow":3722,"Ġnutmeats":3723,"dge":3724,"Ġent":3725,"Ġmorning":3726,"ĠCountry":3727,"Ġdiscard":3728,"Ġthir":3729,"cher":3730,"ellent":3731,"ĠWatch":3732,"ushy":3733,"Ġrese":3734,"ama":3735,"ĠEnch":3736,"Ġrounds":3737,"ĠMayonnaise":3738,"eur":3739,"Ġwon":3740,"ĠCla":3741,"ĠBl":3742,"ĠPistachio":3743,"Ġhole":3744,"ĠHush":3745,"Ġteaspoonful":3746,"ĠTrim":3747,"ĠSandwiches":3748,"ĠPuppies":3749,"ĠGranny":3750,"If":3751,"Ups":3752,"cellent":3753,"sugar":3754,"Ġfa":3755,"ĠTear":3756,"ĠDay":3757,"ĠHerb":3758,"ctive":3759,"Ġunbeaten":3760,"Ġabsorbed":3761,"Ġfrankfur":3762,"sized":3763,"Ġ17":3764,"alina":3765,"ĠPink":3766,"ĠMustard":3767,"Ġsauteed":3768,"ĠDeep":3769,"ornia":3770,"Ġsec":3771,"ĠImp":3772,"ifornia":3773,"more":3774,"ĠMashed":3775,"ĠMan":3776,"ĠAn":3777,"ĠOil":3778,"ĠInstant":3779,"afe":3780,"Ġblending":3781,"ĠNor":3782,"Ġloin":3783,"Ġloos":3784,"den":3785,"plain":3786,"Ġold":3787,"edish":3788,"Ġpod":3789,"Ġwould":3790,"roll":3791,"amole":3792,"ĠCatalina":3793,"ĠOyster":3794,"!)":3795,"hot":3796,"uac":3797,"ouble":3798,"rape":3799,"urger":3800,"Ġfrothy":3801,"ĠHea":3802,"ental":3803,"Ġprepare":3804,"ĠMarinade":3805,"ĠKnox":3806,"ĠCalifornia":3807,"Ġmeasuring":3808,"uacamole":3809,"Ġcuts":3810,"alia":3811,"Ġsup":3812,"ĠPl":3813,"Ġcanola":3814,"Ġcantal":3815,"Ġcutlets":3816,"ully":3817,"Ġends":3818,"Ġstuffed":3819,"Ġright":3820,"Ġamounts":3821,"Ġdoubled":3822,"ment":3823,"atur":3824,"Ġfree":3825,"Ġfamily":3826,"ĠMixture":3827,"ĠFashioned":3828,"ĠSpicy":3829,"ĠNuts":3830,"agon":3831,"Ġscant":3832,"ĠCongeal":3833,"Ġdipped":3834,"Ġentire":3835,"dough":3836,"round":3837,"ĠCre":3838,"ĠCider":3839,"ĠPinch":3840,"Ġstrain":3841,"liced":3842,"Ġdishes":3843,"Ġkielbasa":3844,"Ġhandle":3845,"ĠSqueeze":3846,"Ġsqueezed":3847,"For":3848,"iw":3849,"Ġtight":3850,"ĠSyrup":3851,"ĠSpice":3852,"ĠStart":3853,"idalia":3854,"Ġpackets":3855,"Ġdepending":3856,"ĠSwedish":3857,"igor":3858,"ĠAlso":3859,"ĠMillion":3860,"iwi":3861,"St":3862,"ĠSec":3863,"ĠPlay":3864,"Ġvigor":3865,"ĠFir":3866,"umps":3867,"isses":3868,"Ġpackages":3869,"ĠLayered":3870,"ĠSlush":3871,"Ġhandful":3872,"ĠPeppers":3873,"Ġscallops":3874,"Ġresemb":3875,"Can":3876,"Ġbl":3877,"Ġfit":3878,"ĠCur":3879,"Ġ200":3880,"Ġsuit":3881,"ĠBeets":3882,"ĠWaf":3883,"ĠLi":3884,"Ġsqueeze":3885,"Ġliqueur":3886,"Ġstiffly":3887,"crumbs":3888,"ĠIsland":3889,"ĠTorte":3890,"Ġfrankfurters":3891,"ĠImpossible":3892,"Ġcantaloupe":3893,"Ġvigorously":3894,"ald":3895,"ĠMc":3896,"Ġnoodle":3897,"Ġrab":3898,"ĠRefrigerator":3899,"Ġnear":3900,"Ġpared":3901,"Ġworks":3902,"Cheese":3903,");":3904,"ments":3905,"ren":3906,"Ġwish":3907,"Ġdiet":3908,"Ġgerm":3909,"ĠDecor":3910,"Ġovercook":3911,"Ġsticky":3912,"ĠCorned":3913,"Ġunsifted":3914,"Ġcleaned":3915,"ĠFritters":3916,"Ġweek":3917,"Ġgenerously":3918,"ĠTransfer":3919,"anese":3920,"ĠBaste":3921,"ĠTender":3922,"ĠAs":3923,"Ġspat":3924,"ĠHo":3925,"ĠJelly":3926,"ĠShort":3927,"iffer":3928,"mmed":3929,"Ġfridge":3930,"baked":3931,"zy":3932,"ance":3933,"ĠCub":3934,"ĠTime":3935,"ottage":3936,"Ġstr":3937,"ppers":3938,"ĠHouse":3939,"Ġpectin":3940,"Ġcolander":3941,"ĠLemonade":3942,"ĠCrispix":3943,"ĠPral":3944,"Roni":3945,"Ġsw":3946,"Ġmany":3947,"Ġfully":3948,"Ġwra":3949,"Ġtopped":3950,"Ġeven":3951,"ĠSea":3952,"ghorn":3953,"ĠFran":3954,"loppy":3955,"sse":3956,"ĠQuik":3957,"ĠTopping":3958,"Ġcrispy":3959,"ĠVegetables":3960,"ĠApplesauce":3961,"ĠTwinkies":3962,"Ġspatula":3963,"jun":3964,"rated":3965,"Ġdairy":3966,"ĠBon":3967,"Ġlater":3968,"loc":3969,"Ġdashes":3970,"ĠZip":3971,"ĠAppetizer":3972,"ĠOriental":3973,"ĠHeavenly":3974,"Bake":3975,"mit":3976,"oz":3977,"rant":3978,"ware":3979,"Ġcountry":3980,"Ġsummer":3981,"ĠPar":3982,"Ġgone":3983,"ĠMy":3984,"ĠMil":3985,"cemeat":3986,"ĠComp":3987,"Ġbrownies":3988,"Ġris":3989,"ĠStro":3990,"Ġkiwi":3991,"ĠVidalia":3992,"Ġdebone":3993,"Ġmolds":3994,"phant":3995,"chopped":3996,"ĠPretzel":3997,"30":3998,"da":3999,"just":4000,"safe":4001,"Ġpats":4002,"elon":4003,"Ġactive":4004,"Ġlumps":4005,"Ġcanning":4006,"ĠChowder":4007,"etter":4008,"que":4009,"Ġclos":4010,"esty":4011,"etty":4012,"ettes":4013,"Ġheads":4014,"Ġfrypan":4015,"Ġcross":4016,"17":4017,"Microwave":4018,"vol":4019,"Ġslaw":4020,"Ġbath":4021,"Ġteriyaki":4022,"Ġpro":4023,"olog":4024,"thern":4025,"ĠLight":4026,"loss":4027,"ĠMexic":4028,"ĠFirst":4029,"ĠZiploc":4030,"ologna":4031,"he":4032,"tures":4033,"Ġsix":4034,"Ġbeet":4035,"ĠSloppy":4036,"ramb":4037,"unk":4038,"Ġcola":4039,"Ġthermo":4040,"Ġbreadcrumbs":4041,"ĠUps":4042,"ĠMini":4043,"ĠMonde":4044,"Ġpitcher":4045,"Ġsprinkled":4046,"ems":4047,"ti":4048,"ĠCottage":4049,"Ġvar":4050,"Ġmixtures":4051,"ĠWarm":4052,"Ġrepeat":4053,"tender":4054,"boil":4055,"ĠCandied":4056,"Ġportions":4057,"Ġrectang":4058,"ĠDeviled":4059,"Ġoverbake":4060,"ĠClam":4061,"ifferent":4062,"Ġstrong":4063,"volone":4064,"ci":4065,"Ġfig":4066,"ĠServ":4067,"ĠScoop":4068,"ĠBowl":4069,"Ġgum":4070,"ĠMed":4071,"usages":4072,"ĠDouble":4073,"astes":4074,"Ġalternating":4075,"Ġdiagon":4076,"Ġclam":4077,"frost":4078,"Ġcaps":4079,"ĠCajun":4080,"Ġincluding":4081,"Ġthermometer":4082,"Jell":4083,"osh":4084,"ory":4085,"itch":4086,"Ġears":4087,"Ġeither":4088,"Ġhock":4089,"ĠMeringue":4090,"ĠReese":4091,"immon":4092,"awry":4093,"Ġplum":4094,"ganoff":4095,"ĠScald":4096,"alorie":4097,"Ġreaches":4098,"amales":4099,"ĠLonghorn":4100,"Free":4101,"instant":4102,"Ġwor":4103,"ĠBetty":4104,"ĠTre":4105,"imple":4106,"Ġshort":4107,"ĠBeer":4108,"Ġcurrant":4109,"Ġseparately":4110,"ĠEggplant":4111,"ĠOnions":4112,"Ġfranks":4113,"Ġperson":4114,"be":4115,"rel":4116,"Ġchampagne":4117,"Ġdust":4118,"ĠSun":4119,"usters":4120,"Ġlbs":4121,"ĠLawry":4122,"apanese":4123,"ĠOli":4124,"ĠOkra":4125,"ĠEl":4126,"Ġstrip":4127,"soft":4128,"Ġdropped":4129,"melt":4130,"self":4131,"ules":4132,"Ġtips":4133,"Ġmace":4134,"ond":4135,"Ġfries":4136,"ĠCold":4137,"elli":4138,"urk":4139,"edding":4140,"Ġbowls":4141,"Ġcools":4142,"ĠCreamed":4143,"ĠZesty":4144,"Ġpretzel":4145,"Ġscoops":4146,"Ġlinguine":4147,"ĠLasagna":4148,"Ġresembles":4149,"ĠUpside":4150,"act":4151,"cream":4152,"juice":4153,"Ġdis":4154,"lair":4155,"Ġlots":4156,"umbo":4157,"Ġseaf":4158,"Ġsticking":4159,"ĠGlaze":4160,"Ġroot":4161,"ĠEmpty":4162,"This":4163,"ĠButterfinger":4164,"ĠDecorate":4165,"ĠSeaf":4166,"ĠStroganoff":4167,"Ġseafood":4168,"pre":4169,"pid":4170,"Ġtamales":4171,"ĠBaker":4172,"Ġgets":4173,"ĠTortilla":4174,"ĠRum":4175,"ĠDoll":4176,"ĠEc":4177,"ĠJuice":4178,"Ġshelled":4179,"Ġliver":4180,"ĠPear":4181,"Ġanise":4182,"Ġmozzarella":4183,"Ġdeer":4184,"Ġgranules":4185,"ĠGround":4186,"Ġsubstituted":4187,"Ġgenerous":4188,"ĠNorthern":4189,"ĠCongealed":4190,"ĠMilnot":4191,"Ġsnack":4192,"ests":4193,"Ġmang":4194,"ousse":4195,"Ġflank":4196,"verage":4197,"Ġsausages":4198,"ĠFat":4199,"ĠOpen":4200,"ĠJapanese":4201,"ĠKey":4202,"Ġdog":4203,"Ġpatty":4204,"whole":4205,"ĠProvolone":4206,"Ġmonths":4207,"melon":4208,"nel":4209,"ux":4210,"uds":4211,"Ġpine":4212,"rew":4213,"ros":4214,"Ġdia":4215,"ĠBea":4216,"lash":4217,"vert":4218,"Ġshakes":4219,"ĠRich":4220,"ĠWedding":4221,"ĠWhis":4222,"ĠVegg":4223,"like":4224,"Ġlog":4225,"alapeno":4226,"Ġpita":4227,"ukes":4228,"ĠWalnut":4229,"Ġsnow":4230,"ĠBurgers":4231,"Ġpods":4232,"urkee":4233,"beaten":4234,"ug":4235,"eness":4236,"oli":4237,"ĠMother":4238,"ĠAmb":4239,"Ġstarch":4240,"Ġnice":4241,"Ġgrate":4242,"Ġlarger":4243,"ĠLast":4244,"Ġrapid":4245,"ĠSherbet":4246,"acaroon":4247,"fect":4248,"ĠMock":4249,"Ġcartons":4250,"iblets":4251,"osher":4252,"uxe":4253,"bro":4254,"go":4255,"rops":4256,"ĠBetter":4257,"ass":4258,"eath":4259,"ĠDash":4260,"etal":4261,"ighs":4262,"ĠLog":4263,"ĠIm":4264,"ĠSheet":4265,"Ġcalorie":4266,"ĠEclair":4267,"yst":4268,"Ġtest":4269,"Ġfinger":4270,"ĠBreasts":4271,"Ġlink":4272,"Ġbutternut":4273,"eek":4274,"ĠGo":4275,"ĠThey":4276,"Ġlogs":4277,"Ġtoppings":4278,"Ġbreakfast":4279,"Ġdumplings":4280,"Ġcrosswise":4281,"ĠImmediately":4282,"zola":4283,"Ġfast":4284,"ĠCelery":4285,"Ġad":4286,"ĠSure":4287,"ĠSoda":4288,"ĠPen":4289,"Ġlin":4290,"ĠFollow":4291,"ĠLower":4292,"ĠKid":4293,"Ġitems":4294,"ĠSmith":4295,"Ġdeviled":4296,"ĠPolish":4297,"Ġsecure":4298,"Ġsupreme":4299,"atural":4300,"ĠCube":4301,"itchen":4302,"ĠTreats":4303,"melted":4304,"Add":4305,"mild":4306,"xx":4307,"erto":4308,"Ġbla":4309,"itation":4310,"Ġdifferent":4311,"ĠSar":4312,"ĠBac":4313,"ĠPull":4314,"ĠPastry":4315,"ĠMiss":4316,"ĠMama":4317,"rie":4318,"Ġcrush":4319,"Ġcryst":4320,"ĠDurkee":4321,"ĠWe":4322,"Ġchickens":4323,"Ġcontin":4324,"Ġchild":4325,"Ġancho":4326,"ĠShell":4327,"Ġdeve":4328,"Ġloosely":4329,"ĠMexicorn":4330,"Do":4331,"gin":4332,"half":4333,"ron":4334,"inz":4335,"Ġsee":4336,"anwhile":4337,"Ġbologna":4338,"Ġpoke":4339,"ĠTe":4340,"Ġleft":4341,"ĠWine":4342,"Ġrich":4343,"ĠSpam":4344,"ranspar":4345,"Ġflavorings":4346,"ransparent":4347,"May":4348,"fle":4349,"Ġouts":4350,"Ġtransparent":4351,"aky":4352,"ĠSu":4353,"ĠMedium":4354,"Ġthighs":4355,"ĠAu":4356,"Ġseg":4357,"ifici":4358,"Ġlower":4359,"Ġpressed":4360,"Ġmelon":4361,"iladas":4362,"Ġalternate":4363,"form":4364,"Ġdoneness":4365,"ĠYummy":4366,"Ġstarting":4367,"upperware":4368,"ĠDogs":4369,"rosia":4370,"29":4371,"igg":4372,"Ġomit":4373,"Ġtill":4374,"regular":4375,"ical":4376,"ĠCerto":4377,"Ġones":4378,"ĠSmooth":4379,"ickory":4380,"Ġna":4381,"ĠRi":4382,"asty":4383,"ĠThoroughly":4384,"ĠFreezer":4385,"ĠRoasted":4386,"ĠMeanwhile":4387,"Ġcircle":4388,"ĠAmbrosia":4389,"aved":4390,"Ġcukes":4391,"Ġworcestershire":4392,"ĠSund":4393,"ĠPark":4394,"tils":4395,"Ġpeppercorn":4396,"ieve":4397,"ĠFlavor":4398,"ami":4399,"ĠJalapeno":4400,"Ġsetting":4401,"ĠYogurt":4402,"ĠStuffing":4403,"ĠDiabetic":4404,"Ġlooks":4405,"Ġacross":4406,"ĠMazola":4407,"ĠBasic":4408,"Ġsegments":4409,"ants":4410,"Ġmetal":4411,"Ġchick":4412,"ĠMeal":4413,"ĠMag":4414,"Ġmincemeat":4415,"redge":4416,"ĠDry":4417,"tains":4418,"Ġreheat":4419,"Ġsection":4420,"Ġsmaller":4421,"ship":4422,"pecans":4423,"ĠMolasses":4424,"ĠJoes":4425,"ĠHeinz":4426,"ĠServings":4427,"Ġoutside":4428,"Down":4429,"Os":4430,"green":4431,"hy":4432,"Ġfla":4433,"Ġthread":4434,"Ġ46":4435,"Ġsoon":4436,"Ġcooling":4437,"Ġzest":4438,"Ġturns":4439,"Ġartifici":4440,"Ġsnipped":4441,"Ġportion":4442,"ĠOlive":4443,"It":4444,"Low":4445,"You":4446,"ium":4447,"angular":4448,"Ġberry":4449,"ico":4450,"ĠClo":4451,"ĠPowder":4452,"ĠPoke":4453,"Ġhow":4454,"ĠTupperware":4455,"Ġtheir":4456,"ĠDust":4457,"ĠInd":4458,"ĠThree":4459,"ĠFreezes":4460,"Ġimitation":4461,"Ġlentils":4462,"ĠAppetizers":4463,"Ġcirc":4464,"Ġtriangles":4465,"ĠEnchiladas":4466,"24":4467,"fu":4468,"kes":4469,"place":4470,"Ġ#":4471,"erd":4472,"Ġmicrow":4473,"ĠPin":4474,"Ġhomemade":4475,"Ġnatural":4476,"ĠHar":4477,"ubble":4478,"Ġappetiz":4479,"ĠCrunchy":4480,"ĠBoiled":4481,"Ġliquids":4482,"ĠCheck":4483,"Ġleftovers":4484,"ĠFinish":4485,"Ġblanch":4486,"Ġfigs":4487,"Ġmango":4488,"ban":4489,"eta":4490,"Ġbun":4491,"esar":4492,"Ġfillet":4493,"vet":4494,"atever":4495,"ĠWild":4496,"strawber":4497,"Ġovenproof":4498,"ĠEver":4499,"Ġusually":4500,"Ġblackberry":4501,"bster":4502,"tini":4503,"Ġelephant":4504,"Ġsprinkles":4505,"Ġrectangular":4506,"ĠExcellent":4507,"Ġrabbits":4508,"Ġdiagonally":4509,"Ġdiameter":4510,"ĠBeau":4511,"Ġpeppercorns":4512,"dy":4513,"ept":4514,"Ġman":4515,"ites":4516,"Ġhickory":4517,"ĠAt":4518,"Ġspicy":4519,"ĠLou":4520,"ĠHunt":4521,"Ġkept":4522,"Ġlamb":4523,"ĠToffee":4524,"ĠPuppy":4525,"ĠDollar":4526,"Ġartificial":4527,"Nuts":4528,"cine":4529,"fin":4530,"ino":4531,"ancy":4532,"Ġbatch":4533,"ĠCare":4534,"orange":4535,"Ġhel":4536,"Ġhollow":4537,"ĠTest":4538,"Ġstored":4539,"Ġgrind":4540,"etto":4541,"ĠJul":4542,"Ġfilled":4543,"Ġplaced":4544,"ousand":4545,"Ġbubbling":4546,"Ġpressure":4547,"ways":4548,"Ġtrimmed":4549,"ĠCaesar":4550,"endship":4551,"heaping":4552,"ĠWhisk":4553,"ĠVeggie":4554,"Ġblade":4555,"dor":4556,"rum":4557,"ĠX":4558,"atin":4559,"icelli":4560,"Ġdiluted":4561,"ĠSimple":4562,"owers":4563,"ĠAmar":4564,"ĠHun":4565,"Ġgarden":4566,"Ġrotini":4567,"Ġcovering":4568,"Ġtenderloin":4569,"Ġdesire":4570,"ĠVelvet":4571,"Ġwaffle":4572,"Ġrib":4573,"Ġbasket":4574,"ĠQuickly":4575,"ĠCrispy":4576,"ĠKraut":4577,"Ġpreferred":4578,"ĠClusters":4579,"ĠCompany":4580,"Ġnavy":4581,"ĠAmaretto":4582,"ait":4583,"cts":4584,"ek":4585,"ean":4586,"per":4587,"Ġtex":4588,"Ġfall":4589,"ĠPap":4590,"Ġgloss":4591,"Ġgumbo":4592,"Ġflo":4593,"ĠRot":4594,"ĠWaff":4595,"odium":4596,"Ġroma":4597,"Ġkosher":4598,"ĠThousand":4599,"fully":4600,"canned":4601,"ĠSwans":4602,"undy":4603,"Ġscrap":4604,"ĠSoft":4605,"ĠMary":4606,"ĠPickle":4607,"ĠCrabmeat":4608,"ĠSmok":4609,"Ġcutters":4610,"Ġfollows":4611,"ermicelli":4612,"Ġlumpy":4613,"Ġrectangle":4614,"ĠSeafood":4615,"Ġromaine":4616,"ipp":4617,"yellow":4618,"Ġtr":4619,"Ġmy":4620,"ord":4621,"ĠSta":4622,"ĠBra":4623,"Ġlg":4624,"ddock":4625,"ston":4626,"ĠFri":4627,"ounds":4628,"Ġslicing":4629,"aint":4630,"ĠBeaters":4631,"Ġlivers":4632,"Ġusual":4633,"ropical":4634,"arkling":4635,"Ġprocessed":4636,"ations":4637,"ĠTwo":4638,"Ġblanched":4639,"350":4640,"Fashioned":4641,"Ġcre":4642,"Ġmed":4643,"ĠSand":4644,"ĠPure":4645,"Ġsho":4646,"Ġcarbon":4647,"ĠEar":4648,"ĠBrownie":4649,"Ġloose":4650,"Ġtablespoonfuls":4651,"Ġsealed":4652,"ĠSuper":4653,"from":4654,"ĠPrick":4655,"ĠWaldor":4656,"Ġtexture":4657,"ĠWaldorf":4658,"Cr":4659,"Corm":4660,"Ġcat":4661,"Ġcount":4662,"Ġtests":4663,"ĠCow":4664,"orch":4665,"ĠSch":4666,"ĠBor":4667,"olly":4668,"assa":4669,"Ġhen":4670,"ĠTarts":4671,"unnel":4672,"Ġcoals":4673,"ickel":4674,"Ġwatermelon":4675,"Ġmarble":4676,"ĠFive":4677,"ĠKisses":4678,"izer":4679,"ĠVinegar":4680,"Ġsimmering":4681,"Ġgallons":4682,"Ġbottled":4683,"sticks":4684,"Ġcombin":4685,"ĠPerfect":4686,"Ġpuffed":4687,"Ġrising":4688,"ondue":4689,"acaroons":4690,"Cormick":4691,"sic":4692,"tty":4693,"inity":4694,"ĠCap":4695,"ĠCalorie":4696,"Ġgre":4697,"ĠAbout":4698,"together":4699,"ĠDiet":4700,"illy":4701,"Ġpkgs":4702,"ights":4703,"ĠCooking":4704,"arden":4705,"ably":4706,"ĠJim":4707,"ĠPeas":4708,"ĠNow":4709,"ĠYellow":4710,"ield":4711,"ĠRock":4712,"Ġbase":4713,"Ġcornflake":4714,"Ġlids":4715,"ĠBurgundy":4716,"ĠSnickers":4717,"Ġrotary":4718,"Ġthirds":4719,"ĠParkay":4720,"assail":4721,"bb":4722,"fort":4723,"ilute":4724,"uty":4725,"ĠCres":4726,"mbo":4727,"mber":4728,"thaw":4729,"ĠWhipped":4730,"Ġcracked":4731,"ope":4732,"Ġtenderizer":4733,"ucky":4734,"Ġburner":4735,"Ġpersimmon":4736,"Ġfaith":4737,"Ġchildren":4738,"Ġdeveined":4739,"ĠCarefully":4740,"Use":4741,"bel":4742,"cl":4743,"hn":4744,"nie":4745,"inder":4746,"Ġ19":4747,"Ġmust":4748,"ila":4749,"ence":4750,"Ġ23":4751,"ĠBab":4752,"ĠBreast":4753,"ĠBrisket":4754,"ĠMud":4755,"Ġingredient":4756,"Ġsets":4757,"ĠHeal":4758,"Ġgarban":4759,"ĠVenison":4760,"umpern":4761,"peas":4762,"ounder":4763,"Ġmarinated":4764,"Ġfourths":4765,"ussels":4766,"ĠPralines":4767,"Ġliners":4768,"ĠMagic":4769,"ĠPuree":4770,"Ġcarbonated":4771,"ured":4772,"yl":4773,"Ġcall":4774,"ara":4775,"Ġbaste":4776,"Ġdiv":4777,"ĠBy":4778,"ĠPim":4779,"Ġwhatever":4780,"ĠWil":4781,"Ġjumbo":4782,"urch":4783,"Ġconten":4784,"ĠGoo":4785,"Ġslushy":4786,"vory":4787,"Ġtable":4788,"ĠStrawberries":4789,"ĠDivinity":4790,"ĠTrifle":4791,"ĠCreole":4792,"ĠWafers":4793,"Ġcontinu":4794,"Ġflame":4795,"umpernickel":4796,"yn":4797,"Ġsuch":4798,"terol":4799,"Ġvermicelli":4800,"Ġflaky":4801,"Ġsaving":4802,"ĠWish":4803,"ĠWassail":4804,"Ġrub":4805,"ĠGou":4806,"ĠGarden":4807,"Ġaltogether":4808,"ĠEle":4809,"ueur":4810,"ĠThin":4811,"ĠThank":4812,"ĠSaut":4813,"acci":4814,"paration":4815,"ĠChopped":4816,"ĠDeluxe":4817,"ĠFluffy":4818,"ĠGrits":4819,"Ġimp":4820,"Ġmoisture":4821,"olesterol":4822,"crushed":4823,"ĠCrocker":4824,"ĠRibs":4825,"ĠWaffles":4826,"Ġcatfish":4827,"40":4828,"day":4829,"eels":4830,"Ġes":4831,"Ġ28":4832,"Ġsalami":4833,"Ġguacamole":4834,"ase":4835,"Ġflowers":4836,"Ġstay":4837,"nad":4838,"ĠFeta":4839,"Ġrump":4840,"shine":4841,"Ġsoaked":4842,"Ġalready":4843,"ĠInsert":4844,"Ġslits":4845,"issipp":4846,"eeds":4847,"ĠYeast":4848,"Ġstem":4849,"ĠPeaches":4850,"Ġdeli":4851,"cooking":4852,"Ġcapers":4853,"ĠJohn":4854,"Ġrunning":4855,"Ġclosed":4856,"Ġrapidly":4857,"ĠMississipp":4858,"Ġdivide":4859,"ĠMississippi":4860,"In":4861,"Or":4862,"fingers":4863,"ius":4864,"mate":4865,"nog":4866,"inds":4867,"ori":4868,"Ġair":4869,"Ġdamp":4870,"ĠBuck":4871,"Ġlunch":4872,"ĠMel":4873,"Ġshaved":4874,"ĠChips":4875,"irgin":4876,"ĠDrink":4877,"Ġbrowning":4878,"Ġbeverage":4879,"ĠNiblets":4880,"Ġlayering":4881,"Ġplates":4882,"ĠArm":4883,"ĠGratin":4884,"orton":4885,"ĠTurtle":4886,"ĠMcCormick":4887,"Ġcircles":4888,"nadine":4889,"ba":4890,"rub":4891,"Ġmen":4892,"utney":4893,"onge":4894,"alt":4895,"ĠPor":4896,"Ġcob":4897,"Ġthere":4898,"ĠAd":4899,"riz":4900,"ĠRing":4901,"Ġheating":4902,"Ġlady":4903,"Ġupside":4904,"Ġputting":4905,"Ġwarmed":4906,"Ġdefrost":4907,"ĠForg":4908,"Ġtear":4909,"Ġkernels":4910,"Cheddar":4911,"ĠCucumbers":4912,"ĠBlackberry":4913,"ĠClub":4914,"Ġbecome":4915,"ĠJulius":4916,"Ġfloat":4917,"Ġgrenadine":4918,"Rice":4919,"Sueur":4920,"gry":4921,"uch":4922,"ugh":4923,"Ġpumpernickel":4924,"Ġ22":4925,"Ġlot":4926,"ĠTart":4927,"until":4928,"chicken":4929,"Ġstrained":4930,"Ġlegs":4931,"ashed":4932,"ĠGuacamole":4933,"ĠInvert":4934,"Ġchile":4935,"Ġhaddock":4936,"reek":4937,"ĠLettuce":4938,"ĠNacho":4939,"ĠShould":4940,"Ġquite":4941,"ĠTriple":4942,"The":4943,"Ġcongealed":4944,"ĠBoston":4945,"ĠSticks":4946,"Ġbeginning":4947,"Cook":4948,"Ġlinks":4949,"Ġanchovy":4950,"Ġchickpeas":4951,"hyd":4952,"ĠLouis":4953,"Ġgarbanzo":4954,"Ġcontents":4955,"Nut":4956,"pack":4957,"you":4958,"Ġmushy":4959,"anda":4960,"iety":4961,"ĠRings":4962,"ĠWay":4963,"colator":4964,"Ġcooks":4965,"ĠFast":4966,"ĠCooked":4967,"ĠHay":4968,"Ġ303":4969,"Ġ70":4970,"ounce":4971,"Ġchunked":4972,"ĠScotch":4973,"ĠScramb":4974,"ĠSmoked":4975,"ĠSkor":4976,"Ġdecorate":4977,"Ġthird":4978,"Ġhocks":4979,"sliced":4980,"uv":4981,"yal":4982,"Ġcav":4983,"Ġtofu":4984,"olut":4985,"ĠMorton":4986,"ĠAm":4987,"Ġstraw":4988,"rib":4989,"derful":4990,"Ġnic":4991,"Ġsaff":4992,"iral":4993,"ĠFinger":4994,"ĠHominy":4995,"ĠGe":4996,"ĠInto":4997,"Ġjelled":4998,"ĠKitchen":4999,"elatin":5000,"uda":5001,"ĠLeSueur":5002,"Ġscorch":5003,"ĠMonte":5004,"unsweetened":5005,"ĠUnroll":5006,"oulder":5007,"avable":5008,"margarine":5009,"ĠWatchers":5010,"Ġladyfingers":5011,"Fry":5012,"cluding":5013,"Ġcast":5014,"ints":5015,"ĠColes":5016,"lee":5017,"iti":5018,"Ġempty":5019,"Ġglue":5020,"ĠMaple":5021,"ĠTra":5022,"ĠTeriyaki":5023,"ellini":5024,"ĠMixed":5025,"stack":5026,"Ġgrinder":5027,"ĠFix":5028,"ĠHal":5029,"ĠGold":5030,"ĠReub":5031,"Ġpretty":5032,"Ġmasher":5033,"season":5034,"ĠCarol":5035,"ĠQues":5036,"izzas":5037,"Ġbarely":5038,"ĠCupcakes":5039,"Ġsteamed":5040,"Ġdoesn":5041,"ĠSunday":5042,"ĠClose":5043,"Ġnicely":5044,"ĠColeslaw":5045,"Fro":5046,"Sweet":5047,"light":5048,"mold":5049,"well":5050,"Ġpal":5051,"ita":5052,"ĠSupper":5053,"ickle":5054,"ĠAny":5055,"ĠCola":5056,"tha":5057,"naps":5058,"aya":5059,"covered":5060,"quila":5061,"oms":5062,"amous":5063,"ĠThicken":5064,"Ġtubs":5065,"Ġformed":5066,"ĠNutty":5067,"Ġeasier":5068,"Ġtrays":5069,"ĠLazy":5070,"ĠSnacks":5071,"ĠPretzels":5072,"ĠChewy":5073,"Ġworms":5074,"Ġmicrowavable":5075,"thawed":5076,"ĠGoulash":5077,"Easy":5078,"cents":5079,"tP":5080,"teg":5081,"Ġcit":5082,"Ġbed":5083,"Ġtakes":5084,"Ġpri":5085,"ĠCry":5086,"ĠBerry":5087,"Ġgive":5088,"Ġhens":5089,"ĠMac":5090,"ĠMousse":5091,"ĠDried":5092,"achos":5093,"Ġskew":5094,"rants":5095,"ulled":5096,"ĠMint":5097,"Ġdegree":5098,"ĠSourdough":5099,"Ġbarley":5100,"ĠBarrel":5101,"Ġfettucine":5102,"Ġtriangle":5103,"ĠSaran":5104,"Ġcrystals":5105,"ĠJimmy":5106,"cloth":5107,"??":5108,"Bone":5109,"Fried":5110,"bit":5111,"fred":5112,"foil":5113,"ives":5114,"uy":5115,"Ġpressing":5116,"Ġpurpose":5117,"Ġ225":5118,"Ġstro":5119,"Ġshoulder":5120,"ĠRose":5121,"lices":5122,"ĠFingers":5123,"ĠFettuc":5124,"ĠGelatin":5125,"Ġslush":5126,"Ġpouring":5127,"Ġclose":5128,"Ġicebox":5129,"ĠMoch":5130,"Ġstewing":5131,"ĠSeasoning":5132,"ĠScrape":5133,"ĠOrteg":5134,"ĠPoor":5135,"ĠShortbread":5136,"ĠMedley":5137,"ĠPenn":5138,"ĠKids":5139,"strawberry":5140,"ĠReuben":5141,"fredo":5142,"Bro":5143,"beat":5144,"cross":5145,"ob":5146,"time":5147,"vanilla":5148,"inter":5149,"Ġbubble":5150,"elveeta":5151,"Ġ26":5152,"ĠPare":5153,"Ġglazed":5154,"ĠMu":5155,"Ġcheesecloth":5156,"otten":5157,"ello":5158,"Ġwithin":5159,"ĠRaw":5160,"ĠWieners":5161,"ĠFour":5162,"Ġbeing":5163,"Ġreally":5164,"core":5165,"Ġranch":5166,"Ġspiral":5167,"ĠGet":5168,"ĠGreek":5169,"Ġstirred":5170,"Ġraisin":5171,"iana":5172,"Ġbutton":5173,"Ġcurrants":5174,"Ġshallots":5175,"ĠMints":5176,"ĠDean":5177,"ĠMilky":5178,"Ġfettuccine":5179,"Ġcombination":5180,"ĠArmour":5181,"uvres":5182,"ĠGeor":5183,"19":5184,"375":5185,"cial":5186,"duty":5187,"ground":5188,"iant":5189,"including":5190,"Ġsor":5191,"Ġsieve":5192,"Ġslee":5193,"Ġtastes":5194,"atoni":5195,"Ġwe":5196,"Ġwas":5197,"Ġtoffee":5198,"ittle":5199,"Ġequ":5200,"ĠBites":5201,"Ġflounder":5202,"cherry":5203,"Ġmixes":5204,"Ġjack":5205,"Ġjigg":5206,"irly":5207,"ĠDown":5208,"ĠWon":5209,"Ġsparkling":5210,"umber":5211,"Ġ90":5212,"Ġkeeps":5213,"Ġplacing":5214,"Ġdoor":5215,"Ġfreezing":5216,"Ġspoons":5217,"ĠQuaker":5218,"ĠQuarter":5219,"ĠFlakes":5220,"ĠCondensed":5221,"Ġtossing":5222,"Ġcheck":5223,"Ġholds":5224,"ĠBrussels":5225,"ĠWafer":5226,"Ġvariety":5227,"ĠSunshine":5228,"ĠBaby":5229,"ĠForgotten":5230,"23":5231,"48":5232,"ious":5233,"met":5234,"Ġtail":5235,"esto":5236,"utes":5237,"Ġchar":5238,"ĠBuns":5239,"ĠPreserves":5240,"ird":5241,"ĠDredge":5242,"quettes":5243,"Ġsourdough":5244,"ĠHi":5245,"ima":5246,"iesta":5247,"ards":5248,"boy":5249,"lenty":5250,"oses":5251,"Ġbottoms":5252,"ields":5253,"ĠMartha":5254,"plants":5255,"ĠGrandm":5256,"urgers":5257,"istrib":5258,"Ġbitter":5259,"ĠEnchilada":5260,"Ġfairly":5261,"brown":5262,"Ġscraping":5263,"ĠEarth":5264,"sicle":5265,"ĠHaystack":5266,"Di":5267,"Sp":5268,"drops":5269,"hol":5270,"water":5271,"wfish":5272,"Ġbundt":5273,"ĠSkin":5274,"ĠPig":5275,"Ġgro":5276,"Ġhus":5277,"Ġchopper":5278,"top":5279,"Ġ475":5280,"ĠChampagne":5281,"Ġspins":5282,"Ġcrawfish":5283,"ĠHoll":5284,"ĠCooler":5285,"ĠEd":5286,"ults":5287,"Ġhair":5288,"ĠPrego":5289,"rowd":5290,"ĠUp":5291,"ĠMoisten":5292,"Ġplan":5293,"anola":5294,"Ġliters":5295,"Ġturnips":5296,"ĠHamburg":5297,"Ġtinfoil":5298,"Ġacid":5299,"Ġnearly":5300,"Ġgummy":5301,"Ġhelp":5302,"ĠRotel":5303,"ĠCowboy":5304,"ĠHealthy":5305,"oriander":5306,"ĠPorcup":5307,"Ġprior":5308,"Ġstrokes":5309,")*":5310,"Cal":5311,"eel":5312,"iod":5313,"tAdd":5314,"Ġcoun":5315,"Ġplenty":5316,"anding":5317,"icles":5318,"leu":5319,"ĠSlices":5320,"Ġgel":5321,"Ġholiday":5322,"Ġeggplants":5323,"ĠAla":5324,"Ġnow":5325,"Ġshot":5326,"Ġsack":5327,"ĠRound":5328,"ĠDiscard":5329,"Ġjug":5330,"ĠFlo":5331,"ĠFamous":5332,"cohol":5333,"urrit":5334,"quake":5335,"ĠLittle":5336,"ĠHour":5337,"ĠHard":5338,"Ġ500":5339,"ubstit":5340,"Ġkisses":5341,"Ġappear":5342,"ĠBroiled":5343,"afing":5344,"Ġprecooked":5345,"ountain":5346,"scant":5347,"Ġcurl":5348,"igret":5349,"ahini":5350,"ĠFrosted":5351,"Ġmug":5352,"inaigret":5353,"Ġfettucini":5354,"ĠMilliona":5355,"ĠCurried":5356,"ĠHobo":5357,"olution":5358,"ĠCryst":5359,"ĠOrtega":5360,"ĠEarthquake":5361,"Ġcounter":5362,"inaigrette":5363,"em":5364,"fly":5365,"iger":5366,"wal":5367,"Ġoat":5368,"illets":5369,"Ġchafing":5370,"rapped":5371,"ĠTamal":5372,"ĠTropical":5373,"Ġcole":5374,"ĠDew":5375,"ĠSpareribs":5376,"ĠStarter":5377,"ĠHors":5378,"ified":5379,"ĠGl":5380,"Ġjellied":5381,"ĠKing":5382,"ĠKent":5383,"Ġpeeling":5384,"Ġwaff":5385,"ĠSwirl":5386,"ĠDelights":5387,"ĠOnce":5388,"Ġtossed":5389,"boneless":5390,"ĠMein":5391,"ĠToasted":5392,"ĠFinely":5393,"ĠGingerbread":5394,"ĠChews":5395,"ĠCurry":5396,"unky":5397,"Ġmenthe":5398,"ĠMocha":5399,"45":5400,"Great":5401,"Pineapple":5402,"bble":5403,"cery":5404,"king":5405,"ster":5406,"uf":5407,"inute":5408,"arian":5409,"Ġtie":5410,"Ġchutney":5411,"Ġawhile":5412,"Ġdate":5413,"ĠBing":5414,"Ġloses":5415,"ĠTon":5416,"une":5417,"ĠChile":5418,"ĠChipped":5419,"ĠRun":5420,"standing":5421,"Ġoverla":5422,"ĠFashion":5423,"quid":5424,"resso":5425,"eyes":5426,"ĠJoe":5427,"Ġcrusty":5428,"isscross":5429,"ĠThan":5430,"Ġlobster":5431,"lassic":5432,"ĠRoad":5433,"Ġpartly":5434,"Ġpercolator":5435,"ĠPhilly":5436,"ĠDoughnuts":5437,"ather":5438,"mmercial":5439,"ĠDevil":5440,"ĠPraline":5441,"Ġswirl":5442,"Ġgumdrops":5443,"Ġglossy":5444,"ĠCrescent":5445,"accioli":5446,"ughter":5447,"seasoned":5448,"ĠHaystacks":5449,"ĠTamale":5450,"ĠKentucky":5451,"Ġwaffles":5452,".,":5453,"70":5454,"Sour":5455,"drain":5456,"gy":5457,"vance":5458,"Ġten":5459,"estern":5460,"ilaf":5461,"Ġfif":5462,"Ġwedge":5463,"ortening":5464,"Ġdrum":5465,"Ġdistrib":5466,"ĠSam":5467,"ĠBourbon":5468,"ĠBuds":5469,"Ġgin":5470,"Ġpea":5471,"ĠMacaroons":5472,"ĠTastes":5473,"ĠTasty":5474,"Ġcom":5475,"Ġshaker":5476,"ience":5477,"ghum":5478,"ĠDanish":5479,"melet":5480,"ĠLite":5481,"ĠWhole":5482,"ached":5483,"achine":5484,"Ġxxx":5485,"ĠJud":5486,"Ġlabel":5487,"Ġchillies":5488,"ette":5489,"Ġuncover":5490,"Ġdehyd":5491,"Ġscramb":5492,"ĠScrub":5493,"ĠAlfredo":5494,"vocado":5495,"Ġdippers":5496,"Ġkindness":5497,"Ġwanted":5498,"Ġpureed":5499,"crust":5500,"ĠSnickerd":5501,"Ġdisapp":5502,"ugge":5503,"Crisco":5504,"..":5505,"Good":5506,"Mar":5507,"Mix":5508,"Oe":5509,"Ġcoriander":5510,"Ġsim":5511,"Ġbuck":5512,"oux":5513,"andy":5514,"Ġfashion":5515,"Ġinsert":5516,"ores":5517,"Ġda":5518,"Ġdoll":5519,"Ġduck":5520,"ĠBleu":5521,"ĠPers":5522,"Ġgu":5523,"ister":5524,"unbaked":5525,"Ġcommercial":5526,"ĠAvocado":5527,"Ġstarter":5528,"eebler":5529,"this":5530,"Ġsoupy":5531,"ĠDr":5532,"Ġjuicy":5533,"ĠGiant":5534,"ĠKello":5535,"ĠNan":5536,"ĠShe":5537,"Ġbutt":5538,"Ġscrape":5539,"ĠCrazy":5540,"ign":5541,"ĠCanned":5542,"ĠDebone":5543,"ĠSteaks":5544,"iveness":5545,"Ġgrains":5546,"Ġeating":5547,"ĠTangy":5548,"ierce":5549,"ĠOvernight":5550,"ĠSuey":5551,"ĠHungry":5552,"ĠRocky":5553,"Ġdefrosted":5554,"ubstitute":5555,"ĠCrystal":5556,"ĠKellogg":5557,"beef":5558,"crisp":5559,"eer":5560,"gatoni":5561,"pineapple":5562,"erk":5563,"Ġ150":5564,"Ġburger":5565,"Ġmaker":5566,"ene":5567,"Ġchurn":5568,"lect":5569,"Ġdab":5570,"ĠSix":5571,"ĠBun":5572,"ĠPas":5573,"Ġpeek":5574,"ĠMountain":5575,"ows":5576,"ĠDrops":5577,"illed":5578,"ĠFries":5579,"amic":5580,"aped":5581,"ĠHollow":5582,"Ġbreads":5583,"ĠGener":5584,"ought":5585,"ĠJan":5586,"ĠPreparation":5587,"peg":5588,"Ġtequila":5589,"ĠFrom":5590,"Ġanything":5591,"Ġparties":5592,"depending":5593,"ĠSkim":5594,"ermuda":5595,"ĠCalico":5596,"Ġlinguini":5597,"ĠShortcake":5598,"ĠParboil":5599,"quefort":5600,"ĠWeight":5601,"ĠIndian":5602,"ĠPaprika":5603,"ĠSmokies":5604,"ĠStack":5605,"ĠFriendship":5606,"ĠGooey":5607,"andaise":5608,"Ġgrocery":5609,"ĠFloat":5610,"Pe":5611,"To":5612,"ax":5613,"cal":5614,"fine":5615,"part":5616,"uriz":5617,"vard":5618,"Ġsolution":5619,"Ġtort":5620,"Ġmousse":5621,"att":5622,"ington":5623,"ĠCereal":5624,"Ġinter":5625,"ourmet":5626,"ĠPeek":5627,"Ġlye":5628,"Ġbuttery":5629,"ĠFree":5630,"Ġreplace":5631,"Ġsyrupy":5632,"psi":5633,"acky":5634,"Ġpacks":5635,"Ġdirect":5636,"Ġthinner":5637,"estring":5638,"estive":5639,"Ġfreezes":5640,"ĠRoquefort":5641,"ubbed":5642,"ĠBananas":5643,"ildren":5644,"ĠStep":5645,"pends":5646,"wheels":5647,"ĠFrito":5648,"ĠDeer":5649,"icotti":5650,"ingersnaps":5651,"Ġeaten":5652,"Cho":5653,"without":5654,"ĠHello":5655,"Ġlasagne":5656,"ĠBrunch":5657,"ermouth":5658,"ĠHerbed":5659,"ĠPlum":5660,"Ġtested":5661,"ĠSmoothie":5662,"ĠHarvard":5663,"Ġappetizer":5664,"ĠPimento":5665,"Ġcontinuously":5666,"Diabetic":5667,"Ġfifth":5668,"Oeuvres":5669,"urized":5670,"Minute":5671,"\\\\":5672,"burger":5673,"iar":5674,"rat":5675,"rich":5676,"tand":5677,"wrap":5678,"Ġbrie":5679,"Ġpres":5680,"ilver":5681,"rets":5682,"ĠClassic":5683,"Ġins":5684,"Ġ21":5685,"ĠBus":5686,"Ġhome":5687,"Ġvermouth":5688,"ĠCopper":5689,"thod":5690,"ĠFiesta":5691,"Ġbeca":5692,"astic":5693,"Ġrequ":5694,"coal":5695,"quet":5696,"Ġspecial":5697,"ĠHill":5698,"ida":5699,"Ġcupcakes":5700,"sharp":5701,"loins":5702,"Ġexcellent":5703,"ĠNest":5704,"ĠNog":5705,"enster":5706,"Ġothers":5707,"aged":5708,"ĠCornish":5709,"Ġresults":5710,"Ġrigatoni":5711,"Ġtubes":5712,"Ġkids":5713,"ĠUnmold":5714,"ĠTacos":5715,"apples":5716,"Ġlimas":5717,"athy":5718,"Ġblocks":5719,"ĠColor":5720,"Ġsprings":5721,"Ġsprig":5722,"Ġpuffs":5723,"Ġoverbeat":5724,"Ġbrine":5725,"Ġwrapped":5726,"ĠFranks":5727,"Ġadvance":5728,"ĠShells":5729,"Ġreheated":5730,"ĠMuenster":5731,"ĠHollandaise":5732,"Ġdehydrated":5733,"ĠSnickerdoodles":5734,"Ġdaily":5735,"Ġtortellini":5736,"cer":5737,"cially":5738,"dew":5739,"eks":5740,"ftened":5741,"fait":5742,"gent":5743,"ginal":5744,"over":5745,"rus":5746,"vals":5747,"yed":5748,"Ġels":5749,"Ġtough":5750,"atzo":5751,"Ġfun":5752,"Ġfondue":5753,"ĠCav":5754,"itional":5755,"Ġear":5756,"Ġho":5757,"ĠTie":5758,"unpeeled":5759,"Ġveg":5760,"Ġvirgin":5761,"Ġthumb":5762,"ĠAhead":5763,"ĠCore":5764,"Ġsteep":5765,"ripe":5766,"irds":5767,"Ġleeks":5768,"Ġgranola":5769,"urst":5770,"ĠOat":5771,"ĠKeebler":5772,"ucy":5773,"Ġprepar":5774,"Ġliquor":5775,"iffon":5776,"Ġziti":5777,"Ġcrisply":5778,"Ġheart":5779,"Ġpatience":5780,"Ġpasteurized":5781,"ĠPepperoni":5782,"flour":5783,"Ġtrim":5784,"Ġunderstanding":5785,"ĠTriscuit":5786,"Ġsterile":5787,"mixed":5788,"Ġfinished":5789,"prefer":5790,"ĠPinto":5791,"Ġappetizers":5792,"ĠBorden":5793,"From":5794,"ĠPennies":5795,"ĠMillionaire":5796,"Not":5797,"Orange":5798,"black":5799,"ever":5800,"ect":5801,"lers":5802,"overs":5803,"rins":5804,"Ġbals":5805,"Ġtip":5806,"Ġpast":5807,"Ġmound":5808,"ative":5809,"recipe":5810,"ala":5811,"alo":5812,"alent":5813,"icro":5814,"ĠSweetened":5815,"ĠBou":5816,"ĠBits":5817,"ĠBig":5818,"ĠParsley":5819,"ĠTown":5820,"Ġvary":5821,"tock":5822,"ĠWacky":5823,"asted":5824,"ĠStraw":5825,"Ġcones":5826,"ĠHel":5827,"lender":5828,"Ġgrams":5829,"Ġcarob":5830,"uffalo":5831,"Ġliking":5832,"ĠButtercream":5833,"Ġbagels":5834,"Ġdirects":5835,"pepper":5836,"pecially":5837,"Ġdeter":5838,"Quick":5839,"Ġpock":5840,"ivalent":5841,"stitos":5842,"ailable":5843,"Ġsprinkling":5844,"Ġincrease":5845,"ĠPerrins":5846,"ĠLondon":5847,"ĠButterfingers":5848,"Style":5849,"Ġrabbit":5850,"Ġclosely":5851,"ĠMelba":5852,"ĠTartar":5853,"ĠTony":5854,"uggets":5855,"Ġelse":5856,"Ġpreparing":5857,"'re":5858,"Butter":5859,"ais":5860,"eon":5861,"gresso":5862,"ior":5863,"sl":5864,"Ġ75":5865,"Ġsouffle":5866,"Ġok":5867,"Ġbal":5868,"Ġbrew":5869,"Ġmain":5870,"ale":5871,"Ġcholesterol":5872,"Ġamon":5873,"ĠBut":5874,"ĠBrie":5875,"ĠBermuda":5876,"ĠPicante":5877,"ĠPina":5878,"ĠPizzas":5879,"Ġlimes":5880,"ĠMaster":5881,"Ġvelveeta":5882,"Ġnumber":5883,"Ġcrisscross":5884,"ĠRib":5885,"ĠDeath":5886,"ĠWor":5887,"ĠLily":5888,"ĠLady":5889,"Ġ80":5890,"Ġsoap":5891,"eye":5892,"Ġraise":5893,"ĠVeal":5894,"ĠPepsi":5895,"ĠYams":5896,"Ġhoneydew":5897,"Ġscr":5898,"ĠEggnog":5899,"softened":5900,"ĠGrated":5901,"ĠPete":5902,"Ġslivers":5903,"buttered":5904,"ĠManwich":5905,"Ġstrainer":5906,"prepared":5907,"ĠSwanson":5908,"Ġshoestring":5909,"Ġsorghum":5910,"Ġsleeve":5911,"Ġtails":5912,"Ġoverlapping":5913,"ĠGenerously":5914,"Ġbriefly":5915,"Ġbecause":5916,"ĠStraws":5917,"325":5918,"Bran":5919,"ae":5920,"salt":5921,"Ġ0":5922,"iness":5923,"Ġpip":5924,"Ġpaint":5925,"Ġfield":5926,"lemon":5927,"ĠSue":5928,"ĠScore":5929,"ĠBeet":5930,"ĠBurger":5931,"ĠPush":5932,"raSweet":5933,"Ġhum":5934,"isque":5935,"allon":5936,"right":5937,"monds":5938,"ĠChiffon":5939,"Ġcrisco":5940,"ĠDole":5941,"nap":5942,"stir":5943,"Ġseam":5944,"ĠLima":5945,"ĠWho":5946,"ĠReheat":5947,"ĠEv":5948,"izes":5949,"ĠPeople":5950,"ĠBrowns":5951,"ĠCheeseburger":5952,"Ġtenderness":5953,"Ġtenderloins":5954,"Ġthicker":5955,"Ġwait":5956,"ĠFlor":5957,"ĠMargarine":5958,"Ġcomplete":5959,"ĠNutmeg":5960,"bons":5961,"pherd":5962,"ĠDefrost":5963,"Ġracks":5964,"chocolate":5965,"ĠPrune":5966,"ĠAlternately":5967,"ĠBasil":5968,"ĠTwinkie":5969,"ĠExtra":5970,"ĠLasagne":5971,"Ġrotel":5972,"ĠShoepeg":5973,"Ġpulls":5974,"Ġrises":5975,"Ġcalled":5976,"ĠLouisiana":5977,"ĠScramble":5978,"Ġcharcoal":5979,"ĠShepherd":5980,"ĠPaso":5981,"Ġintervals":5982,"Ġbalsamic":5983,"Ġokay":5984,"Ġpiping":5985,"Lay":5986,"Sugar":5987,"Wh":5988,"Yields":5989,"amb":5990,"abo":5991,"back":5992,"po":5993,"esh":5994,"Ġpush":5995,"Ġfeed":5996,"Ġfrench":5997,"ĠCashew":5998,"ĠSesame":5999,"ĠBot":6000,"ĠPic":6001,"ĠPlain":6002,"Ġpet":6003,"Ġhom":6004,"ioneer":6005,"ĠTsp":6006,"unior":6007,"Ġorzo":6008,"Ġstone":6009,"iener":6010,".).":6011,"Ġwhat":6012,"ĠDilute":6013,"colored":6014,"stad":6015,"ĠFamily":6016,"ĠSpeed":6017,"berg":6018,"Ġseven":6019,"ĠLift":6020,"ĠLingu":6021,"iman":6022,"Ġrow":6023,"ĠReal":6024,"uffed":6025,"Ġslit":6026,"Ġexact":6027,"ĠNilla":6028,"Ġextracts":6029,"Ġyoung":6030,"Ġthickening":6031,"ĠPeanuts":6032,"Ġhandfuls":6033,"ĠTostitos":6034,"Ġforming":6035,"ortant":6036,"ĠContains":6037,"void":6038,"ĠDivan":6039,"Ġgrilled":6040,"Ġlimp":6041,"ĠCroquettes":6042,"ĠSmash":6043,"ĠFrosty":6044,"Ġprick":6045,"ĠProgresso":6046,"Ġshaped":6047,"!!!":6048,"ĠSnicker":6049,"Ġloosen":6050,"Ġplums":6051,"actur":6052,"Ġmanuf":6053,"packed":6054,"ĠQueso":6055,"ĠColada":6056,"Broccoli":6057,"ĠGrandmother":6058,"Ġhusks":6059,"ĠPorcupine":6060,"Chocolate":6061,"ĠBouquet":6062,"Ġmanufactur":6063,",\\":6064,"App":6065,"Eyed":6066,"Sh":6067,"__":6068,"ao":6069,"aver":6070,"cus":6071,"cress":6072,"cini":6073,"giveness":6074,"hard":6075,"lub":6076,"set":6077,"skin":6078,"tBake":6079,"vily":6080,"will":6081,"Ġsodium":6082,"Ġmachine":6083,"ilar":6084,"Ġ29":6085,"Ġacorn":6086,"Ġdilute":6087,"ĠBell":6088,"ĠBlender":6089,"ĠPilaf":6090,"ĠTaste":6091,"Ġcoats":6092,"Ġjunior":6093,"monia":6094,"ipes":6095,"thin":6096,"ĠRye":6097,"ĠWait":6098,"Ġovermix":6099,"ĠFunnel":6100,"oleo":6101,"ĠSpring":6102,"omet":6103,"Ġ65":6104,"ĠHalf":6105,"ĠGri":6106,"Ġkinds":6107,"ĠJoy":6108,"ĠKrisp":6109,"ĠVinaigrette":6110,"Ġsalads":6111,"ĠSavory":6112,"Ġchilli":6113,"Ġpackaged":6114,"acao":6115,"ĠShortening":6116,"reeze":6117,"Ġtablespoonful":6118,"Ġstands":6119,"Ġfryers":6120,"Ġquant":6121,"Ġquail":6122,"Ġammonia":6123,"ĠSeasoned":6124,"Ġconcentrated":6125,"ĠWashington":6126,"Ġpopsicle":6127,"Ġequals":6128,"ĠNeiman":6129,"Ġopening":6130,"tein":6131,"Ġfriendship":6132,"ĠOriginal":6133,"ĠAnn":6134,"ĠLiver":6135,"Ġwrappers":6136,"Ġadjust":6137,"Ġfalls":6138,"bbles":6139,"Ġespecially":6140,"ĠBuckeyes":6141,"Ġscorching":6142,"Ġskewers":6143,"Ġcurls":6144,"walnuts":6145,"ĠPersimmon":6146,"ĠTriscuits":6147,"Ġamong":6148,"35":6149,"Cool":6150,"Duncan":6151,"dried":6152,"med":6153,"mor":6154,"mushroom":6155,"rone":6156,"vies":6157,"wood":6158,"yes":6159,"zel":6160,"Ġcard":6161,"Ġcoll":6162,"Ġcacao":6163,"erran":6164,"Ġbel":6165,"Ġbra":6166,"Ġtasty":6167,"Ġtahini":6168,"Ġfancy":6169,"Ġchowder":6170,"ĠCor":6171,"leave":6172,"lease":6173,"Ġinvert":6174,"Ġtotal":6175,"aken":6176,"Ġdredge":6177,"Ġeight":6178,"ĠBag":6179,"ĠPaint":6180,"ĠPioneer":6181,"Ġpeck":6182,"ggy":6183,"Ġhull":6184,"cheese":6185,"ĠComs":6186,"Ġforgiveness":6187,"rif":6188,"Ġbroiled":6189,"Ġsafe":6190,"ĠWel":6191,"adian":6192,"ĠFancy":6193,"ĠFondue":6194,"Ġroux":6195,"Ġspace":6196,"ĠSponge":6197,"ĠLunch":6198,"apes":6199,"ĠHome":6200,"ĠGourmet":6201,"ressed":6202,"Ġalways":6203,"Ġkitchen":6204,"ĠOmelet":6205,"ĠEsp":6206,"ĠEsc":6207,"ĠEye":6208,"ĠJar":6209,"Ġlaughter":6210,"ĠThrow":6211,"ĠButternut":6212,"estrone":6213,"Ġcolors":6214,"Ġdepends":6215,"ĠFruitcake":6216,"ĠSlightly":6217,"ĠSelect":6218,"ĠLeftover":6219,"Ġcrescents":6220,"Ġtwist":6221,"Ġcurly":6222,"ĠLove":6223,"Ġsmok":6224,"Ġneck":6225,"flake":6226,"Ġgrilling":6227,"Ġhamburgers":6228,"Ġgoing":6229,"ĠBob":6230,"ĠHearty":6231,"ibut":6232,"crumbled":6233,"Ġmostaccioli":6234,"Ġbrick":6235,"Italian":6236,"ĠPinwheels":6237,"Ġtransfer":6238,"ĠAdjust":6239,"yalty":6240,"ĠGeorg":6241,"Ġequivalent":6242,"Ġxxxx":6243,"Ġscrambled":6244,"Marcus":6245,"Ġdollop":6246,"Ġdetergent":6247,"ĠFlorida":6248,"ĠSpeedy":6249,"Ġexactly":6250,"Ġmanufacturer":6251,"ĠComstock":6252,"%)":6253,"BQ":6254,"Club":6255,"lien":6256,"nic":6257,"nier":6258,"ura":6259,"uces":6260,"Ġcured":6261,"Ġbuds":6262,"Ġmul":6263,"Ġfunnel":6264,"Ġwok":6265,"Ġavoid":6266,"ĠSang":6267,"ĠSubstitute":6268,"ĠBel":6269,"ĠBBQ":6270,"raspberry":6271,"Ġhope":6272,"ists":6273,"ĠMore":6274,"ĠTry":6275,"ĠTreat":6276,"Ġcod":6277,"allow":6278,"Ġstar":6279,"ria":6280,"Ġcrunch":6281,"Ġleek":6282,"ĠWind":6283,"ĠWestern":6284,"Ġjulien":6285,"illing":6286,"ĠFillets":6287,"cones":6288,"Ġsea":6289,"ĠLarge":6290,"aper":6291,"Ġkaro":6292,"Ġpapers":6293,"ĠSaucy":6294,"Ġtenders":6295,"Ġlayered":6296,"ĠMoist":6297,"ĠCanadian":6298,"ĠMarnier":6299,"ĠMember":6300,"Ġmugs":6301,"ava":6302,"ĠWalnuts":6303,"ĠMolded":6304,"Ġabsorbent":6305,"Ġburning":6306,"Ġstacks":6307,"fryer":6308,"Ġtouched":6309,"Ġwonderful":6310,"Ġswiss":6311,"Ġrectangles":6312,"eather":6313,"Ġhollowed":6314,"ĠElephant":6315,"Ġcavity":6316,"ĠBusy":6317,"popped":6318,"Appetiz":6319,"ĠSangria":6320,"22":6321,"Be":6322,"Fly":6323,"diced":6324,"ged":6325,"kins":6326,"ming":6327,"pie":6328,"powder":6329,"Ġrain":6330,"Ġburgers":6331,"Ġtry":6332,"Ġwere":6333,"ĠCrispies":6334,"Ġtots":6335,"ition":6336,"ĠSliced":6337,"ĠPaul":6338,"Ġgl":6339,"Ġglo":6340,"ĠMound":6341,"ĠMade":6342,"ĠTet":6343,"ĠTips":6344,"cean":6345,"Ġstream":6346,"oks":6347,"ĠChildren":6348,"Ġsac":6349,"ĠDolly":6350,"ĠFa":6351,"ĠLen":6352,"ĠStri":6353,"ĠHum":6354,"imal":6355,"Ġbreadsticks":6356,"Ġrock":6357,"anana":6358,"ĠInc":6359,"ĠSauteed":6360,"Ġqts":6361,"lenda":6362,"Ġcroiss":6363,"Ġcenters":6364,"ĠLobster":6365,"Ġstale":6366,"othered":6367,"ampi":6368,"ĠEngland":6369,"ĠNutraSweet":6370,"affy":6371,"ĠUnbaked":6372,"ĠHappy":6373,"ĠPancake":6374,"Ġmoderately":6375,"Ġfollowed":6376,"Ġscallion":6377,"ĠShredded":6378,"ĠCatfish":6379,"Ġhardened":6380,"ĠBox":6381,"rounded":6382,"Stir":6383,"ĠBonbons":6384,"ĠMedal":6385,"ĠAmish":6386,"Ġsafflower":6387,"preferably":6388,"Ġbalance":6389,"ĠWorld":6390,"ometimes":6391,"ĠGriff":6392,"ĠGeorgia":6393,"60":6394,"Al":6395,"Cream":6396,"OT":6397,"On":6398,"Sw":6399,"gna":6400,"ippy":6401,"non":6402,"pr":6403,"squ":6404,"such":6405,"uke":6406,"ze":6407,"Ġ.":6408,"Ġcork":6409,"erne":6410,"ari":6411,"Ġpouch":6412,"Ġml":6413,"Ġmatzo":6414,"onion":6415,"andel":6416,"Ġchange":6417,"Ġwatch":6418,"Ġinde":6419,"spray":6420,"rock":6421,"Ġav":6422,"itely":6423,"ĠSilk":6424,"ĠBush":6425,"ĠBark":6426,"ĠBurrit":6427,"ĠPesto":6428,"Ġgiblets":6429,"razz":6430,"Ġlift":6431,"ĠMars":6432,"ĠMulled":6433,"Ġunble":6434,"Ġchoose":6435,"mboo":6436,"ĠChar":6437,"ĠChest":6438,"ups":6439,"irrel":6440,"ĠRuth":6441,"ĠSplenda":6442,"ĠLush":6443,"ĠIced":6444,"ashell":6445,"Ġbeefy":6446,"Ġbamboo":6447,"Ġdraining":6448,"Ġ57":6449,"ĠGre":6450,"ĠEach":6451,"ĠEaster":6452,"table":6453,"ĠKielbasa":6454,"ĠNon":6455,"ĠNachos":6456,"ĠShoo":6457,"ĠYour":6458,"ĠMost":6459,"Ġpickled":6460,"ogen":6461,"Ġheavily":6462,"ĠFlip":6463,"ĠFilled":6464,"ĠQuickie":6465,"Ġthroughout":6466,"ĠLoaves":6467,"ĠScampi":6468,"ĠSugared":6469,"ĠGreens":6470,"Ġbreaking":6471,"Ġbloss":6472,"Ġflowerpot":6473,"ĠBrickle":6474,"ĠSteamed":6475,"ĠSecure":6476,"Ġfitting":6477,"Ġprotein":6478,"ĠMiniature":6479,"Ġpineapples":6480,"Ġanchovies":6481,"finitely":6482,"Ġsaffron":6483,"Ġjackets":6484,"ĠGlor":6485,"Ġdisappears":6486,"Ġsimilar":6487,"Ġdirectly":6488,"Appetizer":6489,"ĠTetrazz":6490,"ĠGriffin":6491,"gnac":6492,"Ġunbleached":6493,"Car":6494,"One":6495,"car":6496,"cub":6497,"calorie":6498,"cipes":6499,"gra":6500,"ike":6501,"lite":6502,"make":6503,"mini":6504,"put":6505,"tally":6506,"vi":6507,"wurst":6508,"Ġ??":6509,"Ġcrowd":6510,"Ġsla":6511,"Ġsink":6512,"Ġsizz":6513,"ester":6514,"Ġprop":6515,"remove":6516,"only":6517,"ened":6518,"Ġchew":6519,"rout":6520,"itrus":6521,"Ġeigh":6522,"ĠSweeten":6523,"ĠBill":6524,"ĠBudd":6525,"ĠBubble":6526,"ĠPart":6527,"ĠPile":6528,"ĠPort":6529,"raps":6530,"Ġhouse":6531,"ĠTap":6532,"ĠTakes":6533,"ĠTaffy":6534,"unbeaten":6535,"chwe":6536,"Ġunw":6537,"Ġminestrone":6538,"illas":6539,"ĠChurch":6540,"ĠChunky":6541,"Ġwhiz":6542,"Ġwhere":6543,"ĠWaver":6544,"ĠLor":6545,"vender":6546,"arsely":6547,"armalade":6548,"Ġkahlua":6549,"ĠOut":6550,"ĠJew":6551,"ĠKe":6552,"Ġpapaya":6553,"ĠCovered":6554,"ĠThins":6555,"ĠYork":6556,"ĠButtered":6557,"pected":6558,"Ġspreadable":6559,"Ġstemmed":6560,"ĠFruity":6561,"Ġcereals":6562,"ĠFlank":6563,"Ġsmashed":6564,"ĠMince":6565,"ĠMonster":6566,"unschwe":6567,"aiqu":6568,"ĠUnder":6569,"nergy":6570,"ĠMuffin":6571,"ĠTwice":6572,"layer":6573,"Ġreached":6574,"Ġrunny":6575,"ĠSticky":6576,"ĠSecrets":6577,"ĠHalve":6578,"ĠWonderful":6579,"Ġdistribute":6580,"Ġpocket":6581,"Ġbelow":6582,"ĠIncrease":6583,"Ġindefinitely":6584,"ĠMarsala":6585,"ogenized":6586,"Ġblossoms":6587,"ĠTetrazzini":6588,"ĠWaverly":6589,"unschweiger":6590,"'ll":6591,"Me":6592,"\\.":6593,"bot":6594,"han":6595,"keep":6596,"press":6597,"tS":6598,"wick":6599,"Ġsy":6600,"Ġsilver":6601,"Ġsizes":6602,"eros":6603,"Ġbisquick":6604,"Ġbund":6605,"Ġton":6606,"Ġtropical":6607,"Ġmill":6608,"ille":6609,"ones":6610,"ality":6611,"ouff":6612,"Ġwinter":6613,"ically":6614,"Ġeye":6615,"ĠSmall":6616,"ĠBloss":6617,"ĠPri":6618,"ĠPres":6619,"Ġsalts":6620,"ĠMam":6621,"ĠMarmalade":6622,"Ġeggnog":6623,"Ġcreaming":6624,"Ġstre":6625,"Ġwatercress":6626,"Ġjo":6627,"rien":6628,"Ġnachos":6629,"Ġsaved":6630,"Ġsavory":6631,"ĠRos":6632,"ĠFant":6633,"urry":6634,"Ġsponge":6635,"ĠLad":6636,"ĠHor":6637,"Ġmelting":6638,"ĠReplace":6639,"abag":6640,"Ġpuddings":6641,"ĠOle":6642,"Ġpoured":6643,"ucc":6644,"issors":6645,"Ġiceberg":6646,"Ġgingerbread":6647,"Ġlowest":6648,"acc":6649,"Ġdesign":6650,"Ġmouth":6651,"Ġsteel":6652,"inda":6653,"Ġrim":6654,"ĠRoyal":6655,"Ġpoints":6656,"Ġhardens":6657,"Ġneeds":6658,"ĠGram":6659,"Ġcauliflowerets":6660,"Ġconsider":6661,"Ġshallot":6662,"ĠMincemeat":6663,"Ġkeeping":6664,"ĠSugarless":6665,"ĠCongo":6666,"Ġsomething":6667,"ĠUnwrap":6668,"Ġbroiling":6669,"Ġbackfin":6670,"Ġdeluxe":6671,"Ġveggie":6672,"Ġpreferably":6673,"Ġpreference":6674,"Ġindividually":6675,"Ġgoes":6676,"retch":6677,"ĠCremor":6678,"ĠLike":6679,"Ġvarious":6680,"Ġseems":6681,"Ġshoots":6682,"ĠWilted":6683,"Ġrubber":6684,"Ġbucket":6685,"Ġinsides":6686,"Ġscrubbed":6687,"Ġrows":6688,"Ġglut":6689,"Ġ???":6690,"ĠCremora":6691,"26":6692,"Eagle":6693,"Mo":6694,"Make":6695,"Very":6696,"With":6697,"bake":6698,"cinnamon":6699,"ditional":6700,"grated":6701,"gallon":6702,"ler":6703,"mis":6704,"sk":6705,"sweetened":6706,"Ġcour":6707,"Ġswee":6708,"arrow":6709,"Ġbrittle":6710,"Ġpatter":6711,"Ġpuffy":6712,"Ġmacaroons":6713,"onde":6714,"Ġfix":6715,"Ġfile":6716,"Ġfashioned":6717,"ĠCalor":6718,"ĠCitrus":6719,"sprinkle":6720,"Ġ370":6721,"Ġdots":6722,"Ġeyes":6723,"ĠBav":6724,"ĠBuffalo":6725,"Ġgent":6726,"ised":6727,"Ġlatt":6728,"Ġthink":6729,"otted":6730,"usel":6731,"verted":6732,"Ġnarrow":6733,"ĠChuck":6734,"ĠCherries":6735,"ient":6736,"ĠRain":6737,"ĠRabb":6738,"ĠWipe":6739,"ĠWinter":6740,"cold":6741,"ĠFun":6742,"ĠFud":6743,"ĠFig":6744,"Ġrecipes":6745,"Ġrinds":6746,"Ġspiced":6747,"Ġseashell":6748,"ĠStre":6749,"ĠImper":6750,"shaped":6751,"Ġbeaters":6752,"ĠGall":6753,"ardi":6754,"ĠOwn":6755,"ĠEas":6756,"ĠEnd":6757,"ĠJu":6758,"ĠJif":6759,"ĠNature":6760,"Ġloyalty":6761,"eady":6762,"extra":6763,"Ġfind":6764,"Ġpicks":6765,"ĠBrandy":6766,"Ġscissors":6767,"iving":6768,"Ġfolding":6769,"Ġdrip":6770,"Ġperiod":6771,"unswick":6772,"Ġclusters":6773,"luded":6774,"ĠSmothered":6775,"ĠTwin":6776,"Ġscald":6777,"ĠNectar":6778,"freshing":6779,"ĠClou":6780,"Ġincluded":6781,"ĠBrunswick":6782,"ĠPerk":6783,"ĠDirty":6784,"ĠBlonde":6785,"ĠLiquid":6786,"Ġcolada":6787,"Ġdiagonal":6788,"creamy":6789,"ĠKidney":6790,"strawberries":6791,"Ġimportant":6792,"ĠRosemary":6793,"Ġplantains":6794,"abobs":6795,"Ġhomogenized":6796,"rifice":6797,"Ġavailable":6798,"Ġeighths":6799,"ĠTapioca":6800,"according":6801,"Ġpattern":6802,"ĠCalories":6803,"Ġlattice":6804,"ĠImperial":6805,"\")":6806,".'":6807,"400":6808,"Ro":6809,"Ritz":6810,"baking":6811,"each":6812,"freeze":6813,"lin":6814,"lins":6815,"pa":6816,"pour":6817,"sts":6818,"soup":6819,"tine":6820,"uel":6821,"van":6822,"Ġca":6823,"intz":6824,"Ġsilk":6825,"Ġsole":6826,"anges":6827,"Ġbuy":6828,"Ġbought":6829,"Ġtan":6830,"Ġtra":6831,"Ġtater":6832,"eslaw":6833,"Ġparch":6834,"Ġmot":6835,"ilt":6836,"real":6837,"allet":6838,"Ġwiener":6839,"garian":6840,"ĠColl":6841,"leberry":6842,"level":6843,"ppiness":6844,"ities":6845,"Ġdec":6846,"ĠScones":6847,"ĠBour":6848,"ĠBarb":6849,"ĠPierce":6850,"rack":6851,"raft":6852,"Ġvent":6853,"Ġunpopped":6854,"Ġcane":6855,"tilled":6856,"Ġshaking":6857,"Ġshiny":6858,"Ġsauces":6859,"ires":6860,"ody":6861,"ĠFoil":6862,"ĠFestive":6863,"comm":6864,"ĠLinda":6865,"Ġsoggy":6866,"oughy":6867,"Ġking":6868,"ĠOther":6869,"oren":6870,"ĠEvery":6871,"ĠJerk":6872,"Ġhalibut":6873,"ĠCrushed":6874,"Ġanimal":6875,"Ġouter":6876,"ecially":6877,"arina":6878,"ĠCornmeal":6879,"Ġcoleslaw":6880,"ude":6881,"ĠFruited":6882,"Ġaccent":6883,"screw":6884,"Ġunsliced":6885,"Ġquiche":6886,"Ġ240":6887,"ĠCanapes":6888,"reath":6889,"ĠAlmonds":6890,"Ġmarinara":6891,"plus":6892,"Ġworking":6893,"ĠPopovers":6894,"reacher":6895,"Ġdecorative":6896,"Ġbrickle":6897,"ĠSnowballs":6898,"Ġsuper":6899,"Ġprod":6900,"cious":6901,"Ġdistilled":6902,"ĠTemper":6903,"Ġhelps":6904,"ĠSandies":6905,"ĠPimiento":6906,"ĠEleg":6907,"ĠSauterne":6908,"Ġluncheon":6909,"ĠCarolina":6910,"ĠFettuccine":6911,"Ġbuttons":6912,"Ġjigger":6913,"ĠJudy":6914,"Ġrequired":6915,"ĠHillshire":6916,"Ġbrewed":6917,"Ġconsideration":6918,"ĠBavarian":6919,"ĠRainbow":6920,"ĠRabbit":6921,"ĠCloud":6922,"(\"":6923,"--":6924,"Apple":6925,"American":6926,"Baked":6927,"Corn":6928,"Crock":6929,"Egg":6930,"Lime":6931,"au":6932,"des":6933,"fill":6934,"fashioned":6935,"jo":6936,"ply":6937,"smooth":6938,"tCo":6939,"inate":6940,"Ġob":6941,"Ġbush":6942,"Ġpli":6943,"Ġmiracle":6944,"Ġmallet":6945,"utabag":6946,"reck":6947,"alaya":6948,"ends":6949,"garlic":6950,"Ġtostad":6951,"itas":6952,"Ġdent":6953,"Ġdirt":6954,"ĠBoy":6955,"ĠPace":6956,"get":6957,"Ġpebbles":6958,"Ġhun":6959,"isbury":6960,"Ġcognac":6961,"Ġflip":6962,"Ġflute":6963,"uscious":6964,"Ġminus":6965,"Ġcanister":6966,"ĠCoarsely":6967,"ellen":6968,"ĠCholesterol":6969,"ĠRounds":6970,"ĠRellen":6971,"ĠDad":6972,"ĠDuring":6973,"ĠWedges":6974,"Ġgroup":6975,"pplement":6976,"adam":6977,"Ġcorners":6978,"ĠSpry":6979,"umbers":6980,"ĠLope":6981,"Ġ64":6982,"ĠHand":6983,"ĠHold":6984,"ops":6985,"ĠGingersnaps":6986,"ĠSalisbury":6987,"Ġalone":6988,"Ġalcohol":6989,"ĠKiss":6990,"ĠVien":6991,"ĠThere":6992,"ĠRolled":6993,"Ġsquirrel":6994,"ĠNuggets":6995,"ĠCheesecakes":6996,"Ġenrich":6997,"Ġthickly":6998,"Ġcontaining":6999,"Ġbagel":7000,"Ġcranapple":7001,"risk":7002,"ĠCorning":7003,"Ġpicked":7004,"Ġbasic":7005,"Ġturned":7006,"Ġknives":7007,"ĠMinutes":7008,"Ġsealing":7009,"type":7010,"ĠUncooked":7011,"oyu":7012,"what":7013,"Ġdrinks":7014,"ibby":7015,"mixture":7016,"ĠOysters":7017,"Ġpearl":7018,"Coconut":7019,"Ġtouching":7020,"ĠSecret":7021,"Ġdusted":7022,"ĠSeafoam":7023,"ĠLogs":7024,"Ġsecurely":7025,"Ġcontinually":7026,"Ġmanicotti":7027,"Ġcreate":7028,"Crust":7029,"ĠBorax":7030,"ĠCrescents":7031,"Ġpalms":7032,"ĠHamburgers":7033,"coholic":7034,"ĠNana":7035,"Pepper":7036,"ĠCaviar":7037,"Layer":7038,"ambalaya":7039,"ĠLinguine":7040,"ĠKrispie":7041,"Ġcollard":7042,"ĠEspecially":7043,"Ġrainbow":7044,"Ġcorkscrew":7045,"Ġchewy":7046,"Ġsymp":7047,"ĠJerky":7048,"adamia":7049,"Brien":7050,"French":7051,"Inch":7052,"Time":7053,"blue":7054,"bacon":7055,"fir":7056,"ipping":7057,"sin":7058,"tw":7059,"tarian":7060,"va":7061,"wash":7062,"work":7063,"wens":7064,"~)":7065,"Ġess":7066,"Ġserves":7067,"Ġsimple":7068,"Ġour":7069,"Ġbow":7070,"Ġbrisk":7071,"Ġtester":7072,"Ġpol":7073,"Ġpray":7074,"Ġpesto":7075,"Ġmounds":7076,"iles":7077,"ĠCatsup":7078,"ĠCrowd":7079,"orice":7080,"Ġdeeds":7081,"tery":7082,"ĠSelf":7083,"ĠBri":7084,"ĠBone":7085,"ĠBisque":7086,"Ġgas":7087,"Ġgame":7088,"ased":7089,"Ġsalty":7090,"ĠMor":7091,"ĠMicro":7092,"Ġeggbeat":7093,"Ġthing":7094,"chool":7095,"Ġstor":7096,"ders":7097,"Ġbrook":7098,"Ġbroad":7099,"Ġshoe":7100,"redients":7101,"Ġleg":7102,"ĠWet":7103,"tact":7104,"cool":7105,"Ġadds":7106,"oma":7107,"Ġsemis":7108,"ĠLuscious":7109,"ĠStand":7110,"Ġcracklings":7111,"iment":7112,"ĠReyn":7113,"ĠOcean":7114,"egetarian":7115,"izon":7116,"Ġslotted":7117,"ĠVirgin":7118,"Ġ120":7119,"ĠShip":7120,"ĠYear":7121,"peach":7122,"etting":7123,"ĠCornflake":7124,"Ġdills":7125,"ĠBegin":7126,"Ġstanding":7127,"ĠForest":7128,"Ġtacos":7129,"miah":7130,"Ġturnip":7131,"Ġscatter":7132,"Ġtwists":7133,"iva":7134,"Ġperch":7135,"Ġperfor":7136,"ĠJacks":7137,"ĠCrisps":7138,"Ġelastic":7139,"Ġlengths":7140,"Ġgarnished":7141,"Ġskimmed":7142,"ĠRaisins":7143,"ĠDribble":7144,"ĠWatermelon":7145,"Ġallowing":7146,"ĠSeeds":7147,"ĠDilly":7148,"eremiah":7149,"ĠDonuts":7150,"ĠLamb":7151,"Ġbrushing":7152,"Ġdecoration":7153,"ĠGranola":7154,"ĠFinally":7155,"ĠGrahams":7156,"Ġmonth":7157,"ĠChewies":7158,"ĠPlan":7159,"ĠTenderloin":7160,"ĠHungarian":7161,"Ġscraped":7162,"ĠBraised":7163,"ĠSchilling":7164,"Ġimpro":7165,"ĠJohnny":7166,"Ġcitric":7167,"Ġcitron":7168,"ĠMacadamia":7169,"Ġskewer":7170,"Ġholidays":7171,"ĠSamuel":7172,"Ġreplacement":7173,"Ġvegies":7174,"ĠHelen":7175,"ĠEvans":7176,"andelion":7177,"ĠGlorified":7178,"graham":7179,"Ġslab":7180,"Ġfilets":7181,"ĠTemperature":7182,"Ġpliable":7183,"Ġenriched":7184,"Ġsympathy":7185,"Ġeggbeater":7186,"Ġsemisweet":7187,"ĠReynold":7188,"300":7189,"800":7190,"Don":7191,"Energy":7192,"Mex":7193,"Re":7194,"bles":7195,"cord":7196,"deep":7197,"een":7198,"fire":7199,"hal":7200,"ject":7201,"must":7202,"mettes":7203,"net":7204,"opper":7205,"tor":7206,"wheat":7207,"wreck":7208,"ĠQ":7209,"Ġiced":7210,"Ġcamp":7211,"ero":7212,"ert":7213,"Ġ115":7214,"anks":7215,"Ġbird":7216,"Ġtreat":7217,"Ġtied":7218,"Ġtaking":7219,"Ġtaken":7220,"Ġpier":7221,"Ġpurch":7222,"Ġpizzas":7223,"Ġmg":7224,"Ġmine":7225,"Ġface":7226,"Ġwil":7227,"Ġwing":7228,"ĠCapp":7229,"leans":7230,"original":7231,"spread":7232,"Ġaverage":7233,"ĠSin":7234,"ĠSan":7235,"ĠSwee":7236,"ĠPast":7237,"Ġgly":7238,"Ġgif":7239,"asa":7240,"ggie":7241,"ggest":7242,"Ġhulled":7243,"Ġlife":7244,"ĠMust":7245,"ĠMounds":7246,"Ġflesh":7247,"Ġthose":7248,"usk":7249,"used":7250,"Ġcanner":7251,"redded":7252,"oka":7253,"Ġjoy":7254,"Ġshoyu":7255,"Ġsaut":7256,"vege":7257,"irth":7258,"thick":7259,"ĠRoka":7260,"ĠWin":7261,"ĠFull":7262,"ĠFool":7263,"amate":7264,"Ġseams":7265,"ĠLibby":7266,"ĠString":7267,"ĠStrat":7268,"Ġcone":7269,"vest":7270,"shake":7271,"Ġcrumbles":7272,"iminate":7273,"iest":7274,"ĠGen":7275,"ĠGumbo":7276,"Ġhotter":7277,"book":7278,"Ġkeros":7279,"ĠOwens":7280,"ĠJe":7281,"ĠJean":7282,"ult":7283,"ĠKings":7284,"Ġexpected":7285,"ucer":7286,"Ġupon":7287,"ĠNOT":7288,"Ġsweetness":7289,"Ġprebaked":7290,"aced":7291,"ĠYam":7292,"Ġmashing":7293,"ĠBreaded":7294,"Ġsifting":7295,"ĠSear":7296,"ĠGras":7297,"Ġpina":7298,"ĠSome":7299,"Ġhorizon":7300,"ĠBeefy":7301,"ĠMargar":7302,"ĠConcord":7303,"Ġperfect":7304,"irty":7305,"Ġpops":7306,"Ġmarinating":7307,"ĠOrleans":7308,"which":7309,"ĠMarshmallows":7310,"ĠScallops":7311,"Ġendive":7312,"Ġbitters":7313,"ĠMaid":7314,"Ġscalloped":7315,"Ġdiscarding":7316,"ĠBlan":7317,"ĠPlus":7318,"ĠParfait":7319,"acting":7320,"assion":7321,"ĠSara":7322,"Ġdevein":7323,"ĠTemp":7324,"Ġmangoes":7325,"yler":7326,"ĠWilder":7327,"ĠThinly":7328,"ĠFasten":7329,"tPut":7330,"iodized":7331,"Ġpresweetened":7332,"Ġearly":7333,"ĠRibbon":7334,"errano":7335,"ĠWelch":7336,"Ġjulienne":7337,"Ġsacrifice":7338,"Ġproper":7339,"ouffer":7340,"ĠLadle":7341,"ĠHorseradish":7342,"Ġglutamate":7343,"Ġsweeter":7344,"Ġdente":7345,"ĠLopez":7346,"washing":7347,"ĠShipwreck":7348,"ĠReynolds":7349,"Ġglycer":7350,"Ġgifts":7351,"irthday":7352,"Ġkerosene":7353,"Gar":7354,"He":7355,"Lo":7356,"Pean":7357,"So":7358,"Soup":7359,"Tom":7360,"glass":7361,"ha":7362,"iri":7363,"mies":7364,"son":7365,"tub":7366,"val":7367,"Ġcy":7368,"Ġcling":7369,"Ġsna":7370,"Ġburrit":7371,"Ġtarts":7372,"Ġpu":7373,"Ġpierce":7374,"ennel":7375,"ingly":7376,"ica":7377,"ĠClay":7378,"ĠCacci":7379,"Ġintact":7380,"Ġsugared":7381,"ĠSus":7382,"ĠSens":7383,"ĠSex":7384,"ĠBa":7385,"ĠBirds":7386,"last":7387,"ĠPate":7388,"ĠPreacher":7389,"Ġgives":7390,"Ġgetting":7391,"Ġhush":7392,"Ġhare":7393,"isters":7394,"ĠTer":7395,"ĠTen":7396,"ĠTurt":7397,"Ġcoal":7398,"Ġcobbler":7399,"Ġflu":7400,"chuck":7401,"ĠAsp":7402,"Ġmins":7403,"ĠCoco":7404,"tops":7405,"Ġmark":7406,"Ġsaucer":7407,"ĠDan":7408,"ĠDuck":7409,"ĠDav":7410,"ĠWare":7411,"Ġbakes":7412,"napp":7413,"naments":7414,"etit":7415,"Ġcorner":7416,"member":7417,"ersion":7418,"ĠSparkling":7419,"berally":7420,"ĠLucky":7421,"ĠSteep":7422,"ĠStouffer":7423,"ĠCooker":7424,"ĠHen":7425,"ids":7426,"shopper":7427,"acher":7428,"Ġdishwashing":7429,"ĠGod":7430,"inks":7431,"ĠStirring":7432,"llo":7433,"abisco":7434,"Ġapprox":7435,"ĠOR":7436,"ĠEither":7437,"ĠJeremiah":7438,"Ġexch":7439,"ĠCutlets":7440,"ĠThat":7441,"Ġitalian":7442,"ĠChoice":7443,"Ġplump":7444,"ĠCarne":7445,"ĠFloren":7446,"ĠSoy":7447,"ĠLoos":7448,"Ġarran":7449,"Ġparticles":7450,"ystery":7451,"Ġflattened":7452,"ĠHappiness":7453,"ĠSmoke":7454,"Ġkneading":7455,"Ġindent":7456,"Ġsteamer":7457,"Ġfrosted":7458,"ĠSouthw":7459,"Ġfriend":7460,"Ġgoose":7461,"marshmallow":7462,"Ġstrings":7463,"Ġrotating":7464,"Ġwonton":7465,"bean":7466,"beans":7467,"Ġsnacks":7468,"ĠSundae":7469,"ĠPowdered":7470,"ĠHarvest":7471,"Ġbatches":7472,"Ġcrepe":7473,"bbie":7474,"Ġcontinuing":7475,"ĠTrash":7476,"tPour":7477,"Ġdrumsticks":7478,"Ġcomino":7479,"ĠJane":7480,"zelnuts":7481,"Ġbraunschweiger":7482,"cubed":7483,"aiquiri":7484,"uccino":7485,"skim":7486,"Ġperforations":7487,"ĠCappuccino":7488,"ĠStrata":7489,"ĠGrasshopper":7490,"ĠWilderness":7491,")(":7492,"Batter":7493,"Cup":7494,"Del":7495,"Fail":7496,"Ida":7497,"My":7498,"Old":7499,"Pre":7500,"Peek":7501,"Un":7502,"Yum":7503,"cat":7504,"down":7505,"eck":7506,"found":7507,"ging":7508,"grease":7509,"grape":7510,"makes":7511,"sifted":7512,"tre":7513,"ume":7514,"warm":7515,"Ġcould":7516,"inted":7517,"Ġsometimes":7518,"Ġtrout":7519,"Ġpor":7520,"Ġpare":7521,"Ġphy":7522,"Ġmush":7523,"Ġmess":7524,"Ġmatch":7525,"Ġweather":7526,"garnish":7527,"icient":7528,"icorice":7529,"ĠCast":7530,"ĠCant":7531,"ppos":7532,"elle":7533,"Ġsuff":7534,"Ġable":7535,"ĠBologna":7536,"ĠPur":7537,"Ġgold":7538,"Ġgingersnaps":7539,"raine":7540,"ĠMen":7541,"ĠMorning":7542,"ĠMystery":7543,"ĠTiger":7544,"ungreased":7545,"Ġthrow":7546,"ote":7547,"chilled":7548,"Ġunif":7549,"ĠCom":7550,"Ġforks":7551,"tosh":7552,"mble":7553,"Ġnap":7554,"ĠDie":7555,"ĠWar":7556,"ĠWest":7557,"ĠWyler":7558,"color":7559,"stuffed":7560,"Ġgrand":7561,"Ġjuiced":7562,"adillas":7563,"ighten":7564,"Ġrather":7565,"Ġspear":7566,"amount":7567,"ĠLee":7568,"ĠLong":7569,"ĠId":7570,"Ġcontains":7571,"Ġdishpan":7572,"ĠGarb":7573,"ĠReally":7574,"ĠOur":7575,"ĠOsc":7576,"ĠOptional":7577,"ĠIng":7578,"ĠJon":7579,"ĠKosher":7580,"Ġhalve":7581,"acker":7582,"liquid":7583,"Ġcovers":7584,"ĠNumbers":7585,"estyle":7586,"Ġfinal":7587,"Ġplay":7588,"105":7589,"ĠSlit":7590,"Ġripen":7591,"Ġcrown":7592,"ngth":7593,"Ġhandled":7594,"Ġtempera":7595,"Ġstiffen":7596,"ubbing":7597,"ĠFlan":7598,"ĠSoap":7599,"ĠMeatball":7600,"ĠOregano":7601,"ĠPeppermint":7602,"angy":7603,"ĠScatter":7604,"Ġmemb":7605,"Ġparfait":7606,"Ġsomewhat":7607,"ĠAlmost":7608,"ĠCrumbs":7609,"flon":7610,"ĠCrustless":7611,"ĠStewed":7612,"ĠWilli":7613,"Ġtrifle":7614,"Ġdelic":7615,"ĠEnough":7616,"ĠCrunchies":7617,"ĠRoma":7618,"addy":7619,"Ġdecorations":7620,"Ġdumpling":7621,"ĠTotal":7622,"Ġpulled":7623,"Ġsecret":7624,"ĠPlant":7625,"ĠCrepes":7626,"ĠStarting":7627,"Ġresemble":7628,"ĠFrank":7629,"Ġvari":7630,"ĠServing":7631,"ĠWhiskey":7632,"broccoli":7633,"Ġfasten":7634,"Ġcrystall":7635,"ĠSupplement":7636,"ordfish":7637,"ĠHealth":7638,"Ġesc":7639,"Cookies":7640,"ĠGeorge":7641,"Ġequally":7642,"Ġjiggers":7643,"ĠEdible":7644,"ĠJudges":7645,"...":7646,"ĠWhoop":7647,"Ġquantity":7648,"ĠEscallop":7649,"ĠWindows":7650,"ĠLentil":7651,"ĠStrips":7652,"Swiss":7653,"sprayed":7654,"ĠBurritos":7655,"Ġstrength":7656,"Ġcourse":7657,"ĠBoursin":7658,"ĠElegant":7659,"Ġbushel":7660,"ĠRellenos":7661,"ĠVienna":7662,"Ġessence":7663,"ĠVirginia":7664,"ĠFoolproof":7665,"Ġhorizontally":7666,"Peanut":7667,"ĠTurtles":7668,"Ġfluid":7669,"napps":7670,"ĠLoosen":7671,"Ġphyllo":7672,"Ġuniform":7673,"ĠOscar":7674,"'ve":7675,"250":7676,"36":7677,"Bean":7678,"Fruit":7679,"High":7680,"Pam":7681,"Rais":7682,"Serv":7683,"Ste":7684,"ains":7685,"bab":7686,"bama":7687,"dash":7688,"either":7689,"fy":7690,"finger":7691,"follow":7692,"gan":7693,"giving":7694,"hand":7695,"sodium":7696,"tMix":7697,"wd":7698,"Ġcas":7699,"Ġschool":7700,"eral":7701,"Ġtangy":7702,"ils":7703,"alad":7704,"Ġfrit":7705,"Ġfestive":7706,"Ġcherv":7707,"ĠCle":7708,"ĠCraw":7709,"Ġ27":7710,"Ġsuey":7711,"Ġeff":7712,"Ġeagle":7713,"ĠSee":7714,"ĠSim":7715,"ĠPurple":7716,"ĠPriz":7717,"inet":7718,"rami":7719,"Ġpeels":7720,"Ġhang":7721,"Ġlicorice":7722,"ĠMarb":7723,"uncovered":7724,"Ġthings":7725,"usually":7726,"chunky":7727,"ĠAle":7728,"Ġmince":7729,"Ġmints":7730,"ĠCoated":7731,"Ġstretch":7732,"toasted":7733,"Ġnog":7734,"Ġshelf":7735,"Ġshaping":7736,"Ġattra":7737,"ĠChach":7738,"ĠChurn":7739,"ĠDonna":7740,"ĠDark":7741,"stead":7742,"stess":7743,"Ġgrater":7744,"Ġrefreshing":7745,"ummy":7746,"Ġrutabag":7747,"Ġrubbing":7748,"Ġsplash":7749,"omino":7750,"Ġyears":7751,"serving":7752,"ĠLick":7753,"apid":7754,"shredded":7755,"ĠRequ":7756,"abet":7757,"ĠSalted":7758,"ĠSalami":7759,"Ġappears":7760,"Ġcarne":7761,"ĠJen":7762,"ĠKabobs":7763,"Ġslight":7764,"Ġhazelnuts":7765,"osodium":7766,"Ġfillings":7767,"Ġsquirt":7768,"ĠNight":7769,"ĠNeed":7770,"Ġuses":7771,"Ġpreparation":7772,"Ġchilling":7773,"Ġthinned":7774,"ĠChoco":7775,"fectioners":7776,"Ġtears":7777,"ĠFrosts":7778,"ĠSouper":7779,"ĠTofu":7780,"Ġscrew":7781,"Ġchestnut":7782,"ĠFlaky":7783,"Ġarea":7784,"Ġsmell":7785,"ĠMarie":7786,"Ġperk":7787,"Ġnever":7788,"ĠAlways":7789,"Ġagainst":7790,"ĠGoodies":7791,"Ġtoward":7792,"ĠPeachy":7793,"whipped":7794,"Ġdiabetic":7795,"ford":7796,"Ġeliminate":7797,"ĠDorito":7798,"Ġgrainy":7799,"aho":7800,"ĠPops":7801,"ĠDilled":7802,"Potato":7803,"Ġfriends":7804,"Ġitself":7805,"Ġsolids":7806,"Ġmonosodium":7807,"Strawber":7808,"Ġwords":7809,"Ġshortbread":7810,"ĠVeggies":7811,"Ġliner":7812,"ĠBacardi":7813,"Ġomitted":7814,"Ġomitting":7815,"Ġribbon":7816,"Ġtrans":7817,"ĠBraz":7818,"ĠEarly":7819,"ĠSchnapps":7820,"Intosh":7821,"Ġcaviar":7822,"ĠCarolyn":7823,"Ġ260":7824,"ĠAlabama":7825,"overnight":7826,"Ġhumor":7827,"ĠBottle":7828,"ĠBottom":7829,"ĠPicnic":7830,"ĠBelieve":7831,"Ġgloves":7832,"print":7833,"violi":7834,"ĠBuddig":7835,"ĠPartially":7836,"Ġunwrapped":7837,"ĠLorraine":7838,"Ġjoint":7839,"ĠStreusel":7840,"firm":7841,"Ġbriskly":7842,"Ġprayer":7843,"peaches":7844,"Ġpierced":7845,"Ġpurchased":7846,"vegetable":7847,"ĠBlanket":7848,"ĠAspic":7849,"marshmallows":7850,"pposite":7851,"ackerel":7852,"Ġmembran":7853,"ĠWilliams":7854,"Ġchervil":7855,"ĠPrize":7856,"ĠChachere":7857,"100":7858,"55":7859,"Cake":7860,"Candy":7861,"Diet":7862,"Gran":7863,"Hot":7864,"Jiffy":7865,"Pec":7866,"Rise":7867,"Roll":7868,"Sa":7869,"Velveeta":7870,"We":7871,"amon":7872,"but":7873,"bite":7874,"best":7875,"dark":7876,"iut":7877,"lt":7878,"luc":7879,"luck":7880,"long":7881,"mashed":7882,"nes":7883,"pint":7884,"rates":7885,"tStir":7886,"wie":7887,"Ġut":7888,"Ġscore":7889,"Ġopposite":7890,"Ġtend":7891,"Ġproof":7892,"Ġma":7893,"Ġmicro":7894,"ona":7895,"oncini":7896,"ended":7897,"Ġfeel":7898,"ĠConey":7899,"orp":7900,"Ġsuet":7901,"Ġ320":7902,"ĠSally":7903,"ĠBu":7904,"ĠBak":7905,"ĠPit":7906,"ĠPos":7907,"ĠPone":7908,"Ġgh":7909,"olf":7910,"Ġher":7911,"Ġhol":7912,"ĠMunch":7913,"ĠToll":7914,"ĠTahini":7915,"Ġvegetarian":7916,"Ġcocon":7917,"Ġcheesecake":7918,"ott":7919,"chi":7920,"ches":7921,"ĠAw":7922,"ceed":7923,"Ġmineral":7924,"Ġsteady":7925,"vera":7926,"atore":7927,"Ġshots":7928,"iev":7929,"ĠChron":7930,"ĠChutney":7931,"oupon":7932,"ĠRapid":7933,"ĠDrum":7934,"ĠDaddy":7935,"ĠWeek":7936,"colates":7937,"ste":7938,"ushaw":7939,"ado":7940,"taur":7941,"ĠFla":7942,"ĠFire":7943,"Ġrecomm":7944,"comp":7945,"umqu":7946,"Ġrange":7947,"bert":7948,"amels":7949,"ĠStella":7950,"Ġconverted":7951,"ĠWhirl":7952,"ĠHolly":7953,"Ġcracklins":7954,"should":7955,"ifter":7956,"Ġmaybe":7957,"imum":7958,"ĠGu":7959,"board":7960,"oughts":7961,"Ġheatproof":7962,"abel":7963,"orean":7964,"erved":7965,"after":7966,"ĠNice":7967,"ĠNabisco":7968,"Ġyellows":7969,"iano":7970,"ĠPrecook":7971,"ago":7972,"ĠSherry":7973,"Ġplaster":7974,"Ġdoves":7975,"aults":7976,"sciut":7977,"Ġtemp":7978,"roximate":7979,"Ġcrabs":7980,"kets":7981,"Ġbutcher":7982,"ucker":7983,"ĠDoes":7984,"ĠLoin":7985,"Ġstopping":7986,"ango":7987,"Ġdropping":7988,"Ġmethod":7989,"inesap":7990,"phabet":7991,"Ġsubstitutes":7992,"ĠMethod":7993,"ahum":7994,"ĠTwist":7995,"Ġtriple":7996,"Ġcheap":7997,"crunchy":7998,"Ġscooped":7999,"Ġscalding":8000,"ĠDills":8001,"Ġsteaming":8002,"ĠCavender":8003,"ĠSpritz":8004,"ĠProsciut":8005,"Ġdoubles":8006,"ĠBlanch":8007,"Ġblintz":8008,"Ġfitted":8009,"ĠLiqu":8010,"ĠHostess":8011,"ĠBonnie":8012,"ĠBonnet":8013,"ĠComplet":8014,"ĠCompote":8015,"ĠTortillas":8016,"Ġmangos":8017,"ĠPenny":8018,"Ġcrystal":8019,"ĠTeflon":8020,"ĠRotate":8021,"ĠSchool":8022,"sicles":8023,"Ġstraws":8024,"ĠQuesadillas":8025,"Ġpalm":8026,"uyere":8027,"Ġweight":8028,"Ġdistributed":8029,"Ġdisappear":8030,"Note":8031,"piece":8032,"ĠHumm":8033,"Ġcroissant":8034,"squeeze":8035,"ĠCharl":8036,"ĠChestnuts":8037,"ĠJewish":8038,"ĠUnderwood":8039,"pression":8040,"Ġparchment":8041,"Ġwilted":8042,"Garlic":8043,"Tomato":8044,"ĠCacciatore":8045,"ĠFlorentine":8046,"grapefruit":8047,"trem":8048,"Ġsufficient":8049,"ĠComfort":8050,"Ġescape":8051,"ĠEscalloped":8052,"Ġattractive":8053,"Ġtransluc":8054,"ĠBrazil":8055,"Pecan":8056,"Ġcoconuts":8057,"ĠChronicles":8058,"ĠProsciutto":8059,"Ġtranslucent":8060,"\"(":8061,"33":8062,"64":8063,"Beef":8064,"Banana":8065,"Cauliflower":8066,"Camp":8067,"Drop":8068,"Green":8069,"Kraft":8070,"Optional":8071,"az":8072,"bran":8073,"burgers":8074,"banana":8075,"dog":8076,"fa":8077,"fold":8078,"gran":8079,"ias":8080,"lis":8081,"min":8082,"pth":8083,"ruc":8084,"si":8085,"ska":8086,"salted":8087,"tB":8088,"tip":8089,"uct":8090,"ville":8091,"Ġ=":8092,"Ġato":8093,"Ġcatch":8094,"argarine":8095,"Ġbu":8096,"Ġtines":8097,"Ġpic":8098,"Ġpenne":8099,"Ġmil":8100,"Ġfennel":8101,"Ġfaults":8102,"Ġchurch":8103,"ĠCarb":8104,"ĠCenter":8105,"rots":8106,"Ġsund":8107,"itan":8108,"itter":8109,"ixie":8110,"ĠSad":8111,"ĠSop":8112,"ĠSuc":8113,"ĠSide":8114,"ĠSatur":8115,"ĠBre":8116,"ĠBurn":8117,"olbas":8118,"isette":8119,"ĠMark":8120,"ĠMolly":8121,"Ġvinaigrette":8122,"Ġcobs":8123,"Ġflours":8124,"ĠAg":8125,"Ġcanes":8126,"ĠCokes":8127,"elly":8128,"tore":8129,"rip":8130,"Ġpepperoncini":8131,"Ġnorm":8132,"Ġshanks":8133,"ĠChi":8134,"ĠChunk":8135,"Ġwho":8136,"ĠDO":8137,"ĠDomino":8138,"ĠWraps":8139,"Ġpowders":8140,"constit":8141,"coated":8142,"Ġroughy":8143,"Ġyear":8144,"ĠLand":8145,"ĠLakes":8146,"ĠStar":8147,"ĠIts":8148,"ĠHas":8149,"ĠHom":8150,"ĠHens":8151,"ĠHurry":8152,"ify":8153,"Ġsoaking":8154,"abin":8155,"ĠEvenly":8156,"ĠJambalaya":8157,"ĠKay":8158,"Ġremains":8159,"Ġliberally":8160,"ĠVan":8161,"ĠVic":8162,"ĠViva":8163,"ĠPeter":8164,"Ġrefrigeration":8165,"Ġclover":8166,"ksgiving":8167,"Ġupright":8168,"ĠNahum":8169,"ĠChilled":8170,"Ġenhan":8171,"Ġpreced":8172,"Ġotherwise":8173,"ĠShir":8174,"ĠItaliano":8175,"Ġtabasco":8176,"semi":8177,"fulness":8178,"ogi":8179,"vaporated":8180,"Ġpinches":8181,"mium":8182,"uckle":8183,"ĠSquirt":8184,"ĠFlounder":8185,"Ġjellyroll":8186,"ĠOnly":8187,"Ġsmile":8188,"Ġcompany":8189,"ĠGruyere":8190,"ĠZiti":8191,"ĠConfectioners":8192,"Ġmelons":8193,"unsalted":8194,"Ġparboiled":8195,"ĠDumpling":8196,"Ġherbed":8197,"ĠDoroth":8198,"mavera":8199,"Ġtinted":8200,"ĠToasties":8201,"Ġ360":8202,"ĠHeap":8203,"iblet":8204,"ĠRuby":8205,"ĠManicotti":8206,"ĠMcButter":8207,"ĠMcIntosh":8208,"Ġwrapper":8209,"Ġproced":8210,"boiling":8211,"Ġworth":8212,"ĠGoes":8213,"Ġsectioned":8214,"Ġmicrowaved":8215,"ylvan":8216,"Ġstays":8217,"ĠScrambled":8218,"ĠFettucini":8219,"ĠPorcupines":8220,"ĠThanksgiving":8221,"Ġdrummettes":8222,"Ġguests":8223,"ĠNestea":8224,"Ġhoag":8225,"Ġpastrami":8226,"slightly":8227,"Ġ290":8228,"Ġquantities":8229,"Ġcardamon":8230,"ĠCordon":8231,"ĠGrey":8232,"ĠBlossoms":8233,"ĠPrimavera":8234,"ĠFantastic":8235,"ĠEasiest":8236,"Ġperiodically":8237,"Pepperidge":8238,"Ġstorage":8239,"Ġcycle":8240,"Ġsnapper":8241,"ĠSusan":8242,"Ġgooseberries":8243,"ĠIngredients":8244,"ĠWhoopie":8245,"Raisin":8246,"ĠCrawfish":8247,"ĠRequest":8248,"wieback":8249,"taurant":8250,"Campbell":8251,"Ġatop":8252,"olbassi":8253,"Ġpreceding":8254,".;":8255,";\\":8256,"Jack":8257,"Kay":8258,"Put":8259,"Red":8260,"Serve":8261,"Yield":8262,"aid":8263,"burg":8264,"fetti":8265,"falf":8266,"hel":8267,"hold":8268,"oot":8269,"off":8270,"pound":8271,"sylvan":8272,"tes":8273,"ues":8274,"zetti":8275,"Ġread":8276,"Ġ__":8277,"Ġcasser":8278,"Ġsat":8279,"Ġsand":8280,"Ġsake":8281,"Ġsifter":8282,"ana":8283,"Ġblu":8284,"Ġbisque":8285,"Ġtree":8286,"Ġpig":8287,"Ġplease":8288,"Ġmight":8289,"Ġmackerel":8290,"atures":8291,"refriger":8292,"also":8293,"aloupe":8294,"Ġfound":8295,"Ġfeet":8296,"Ġfruc":8297,"ĠCabin":8298,"spberries":8299,"spaper":8300,"Ġtoaster":8301,"Ġab":8302,"Ġaj":8303,"Ġdressed":8304,"Ġdandelion":8305,"Ġever":8306,"ĠSol":8307,"ĠSna":8308,"ĠSize":8309,"ĠSizz":8310,"ĠSirloin":8311,"ĠBirthday":8312,"ĠPa":8313,"ĠPier":8314,"ĠPoupon":8315,"Ġgreas":8316,"Ġgift":8317,"Ġhu":8318,"Ġhit":8319,"Ġhuckle":8320,"ĠMacaroon":8321,"Ġvol":8322,"Ġversion":8323,"Ġfluff":8324,"Ġthought":8325,"Ġthoughts":8326,"Ġmilks":8327,"Ġunmold":8328,"Ġunused":8329,"Ġchopping":8330,"tose":8331,"verbs":8332,"rift":8333,"Ġnor":8334,"Ġname":8335,"Ġnuggets":8336,"Ġshav":8337,"ĠChab":8338,"Ġwhirl":8339,"ĠDis":8340,"ĠDian":8341,"ĠWell":8342,"ĠWrapped":8343,"Ġjugs":8344,"Ġoily":8345,"ĠFit":8346,"ĠFizz":8347,"etchup":8348,"Ġrubbed":8349,"oman":8350,"omargarine":8351,"serts":8352,"Ġcond":8353,"ĠWhipping":8354,"ific":8355,"iments":8356,"ĠGer":8357,"ĠGlass":8358,"oody":8359,"Ġhotdog":8360,"arsn":8361,"ĠRefill":8362,"Ġalfalf":8363,"ĠOccasion":8364,"ĠEven":8365,"ĠEps":8366,"Ġoleomargarine":8367,"uffles":8368,"ĠKr":8369,"ĠKathy":8370,"ĠBroth":8371,"Ġmeaty":8372,"Ġlad":8373,"Ġextrem":8374,"ĠVer":8375,"othing":8376,"ĠThumb":8377,"Ġitem":8378,"Ġtenderized":8379,"tained":8380,"ranberry":8381,"Ġdoughnuts":8382,"Ġdoughnut":8383,"awba":8384,"Ġfinally":8385,"Ġconfectioner":8386,"Ġliquified":8387,"Ġdepth":8388,"ĠCaramels":8389,"clear":8390,"ĠRob":8391,"Ġhandling":8392,"Ġpopping":8393,"ounty":8394,"ĠGrass":8395,"same":8396,"ĠDozen":8397,"Ġbringing":8398,"Ġcrockpot":8399,"Ġhighest":8400,"Ġdribble":8401,"ĠPatty":8402,"Ġbarrel":8403,"ĠApproximately":8404,"Ġclings":8405,"ividual":8406,"Ġdrinking":8407,"ĠDipping":8408,"ĠMilkshake":8409,"ĠPost":8410,"athan":8411,"Ġindic":8412,"anky":8413,"ĠRoman":8414,"ĠPercolator":8415,"Ġaccomp":8416,"ĠCatawba":8417,"Ġdecorator":8418,"Ġdecorating":8419,"endy":8420,"Ġmeasured":8421,"ĠBloody":8422,"Ġsuitable":8423,"Ġwraps":8424,"ĠParis":8425,"ĠDollies":8426,"broken":8427,"ĠTequila":8428,"ĠRiver":8429,"ĠFlavored":8430,"Ġ465":8431,"ĠCloves":8432,"ĠSmoky":8433,"ĠStay":8434,"Ġcrepes":8435,"Ġcombining":8436,"Ġcalls":8437,"ĠPennsylvan":8438,"Ġsorrow":8439,"Ġchecking":8440,"Ġplantain":8441,"Ġguava":8442,"slice":8443,"Ġmulti":8444,"powdered":8445,"ĠFaith":8446,"Ġcroissants":8447,"ĠMostaccioli":8448,"carrots":8449,"miniature":8450,"Ġbundle":8451,"Ġgentle":8452,"ĠCollins":8453,"two":8454,"ĠPlanters":8455,"ĠCastleberry":8456,"ĠCantaloupe":8457,"ĠIdaho":8458,"Servings":8459,"Step":8460,"ĠClear":8461,"Ġeffect":8462,"ĠSimply":8463,"Granny":8464,"ĠPosition":8465,"ĠRapidRise":8466,"Ġblintzes":8467,"granulated":8468,"Ġpicnic":8469,"ripture":8470,"Ġnormal":8471,"constituted":8472,"ĠShirley":8473,"ĠDorothy":8474,"Ġprocedure":8475,"Ġcasseroles":8476,"Ġfructose":8477,"Ġhuckleberries":8478,"Ġshavings":8479,"ĠChablis":8480,"Ġalfalfa":8481,"ĠEpsom":8482,"Ġextremely":8483,"ĠPennsylvania":8484,"!).":8485,"An":8486,"Best":8487,"Ex":8488,"Grand":8489,"Glazed":8490,"Made":8491,"Noodle":8492,"Pillsbury":8493,"Rec":8494,"Save":8495,"Vegetab":8496,"awn":8497,"air":8498,"batter":8499,"bacher":8500,"cur":8501,"crack":8502,"dip":8503,"ele":8504,"flow":8505,"faced":8506,"grain":8507,"lb":8508,"ral":8509,"sour":8510,"tF":8511,"tat":8512,"tel":8513,"tie":8514,"tta":8515,"uese":8516,"ugel":8517,"weg":8518,"Ġ`":8519,"Ġcou":8520,"Ġcrimp":8521,"Ġclaw":8522,"Ġcushaw":8523,"ince":8524,"Ġsnap":8525,"erit":8526,"Ġomelet":8527,"Ġoval":8528,"Ġbirds":8529,"edic":8530,"Ġtre":8531,"Ġtam":8532,"Ġtim":8533,"esa":8534,"Ġpen":8535,"Ġmic":8536,"atic":8537,"ility":8538,"almond":8539,"ency":8540,"enbacher":8541,"Ġfeta":8542,"Ġwid":8543,"leaf":8544,"Ġ38":8545,"Ġage":8546,"Ġduty":8547,"Ġdaiquiri":8548,"ĠSilver":8549,"ĠPizz":8550,"ĠPita":8551,"ĠPassion":8552,"olks":8553,"isin":8554,"ising":8555,"Ġluck":8556,"ĠMr":8557,"ĠMid":8558,"ĠMain":8559,"ĠMaw":8560,"ĠMelon":8561,"ĠMango":8562,"Ġ(#":8563,"oto":8564,"using":8565,"ĠAma":8566,"ĠAsse":8567,"Ġunthawed":8568,"Ġunseasoned":8569,"Ġcannot":8570,"Ġstudd":8571,"Ġstops":8572,"Ġnose":8573,"ienies":8574,"vey":8575,"ĠRipe":8576,"ĠWreath":8577,"ĠWendy":8578,"Ġoverripe":8579,"Ġgrating":8580,"ĠFan":8581,"ĠFay":8582,"nda":8583,"quarts":8584,"Ġspots":8585,"Ġyummy":8586,"serve":8587,"ĠLace":8588,"ĠII":8589,"ĠHol":8590,"ĠHanky":8591,"Ġcracks":8592,"opened":8593,"ctarin":8594,"ĠGive":8595,"ĠGather":8596,"bohyd":8597,"Ġwhitefish":8598,"leness":8599,"ĠRem":8600,"ĠRefresh":8601,"Ġalphabet":8602,"Ġkiss":8603,"orever":8604,"ĠJun":8605,"ĠJus":8606,"ĠKat":8607,"ĠKorean":8608,"Ġservice":8609,"ĠCreams":8610,"ĠCreamettes":8611,"ĠVern":8612,"ĠPears":8613,"Ġletting":8614,"entine":8615,"Ġgrahams":8616,"Ġsky":8617,"Ġskillets":8618,"ĠNa":8619,"ĠNib":8620,"ĠNeeds":8621,"gest":8622,"Ġsett":8623,"Ġprev":8624,"Ġtenderize":8625,"ĠPretty":8626,"parately":8627,"heated":8628,"Ġdirection":8629,"ĠCornstarch":8630,"separate":8631,"ĠLayers":8632,"Ġcolorful":8633,"Ġzip":8634,"Ġoreo":8635,"neck":8636,"Ġ160":8637,"ĠGrapes":8638,"Ġquality":8639,"ĠToo":8640,"ĠTopped":8641,"ĠDelite":8642,"Ġscraps":8643,"ively":8644,"igan":8645,"Ġanytime":8646,"Ġpatted":8647,"Ġhors":8648,"ĠWithout":8649,"ĠRedenbacher":8650,"Ġchive":8651,"Ġconcentrates":8652,"ĠScr":8653,"ĠScripture":8654,"ĠMayer":8655,"Ġnectarin":8656,"ĠOrnaments":8657,"when":8658,"ĠHaddock":8659,"Ġcaramelized":8660,"Ġdisp":8661,"ĠCampfire":8662,"ĠChef":8663,"dobo":8664,"Ġfourth":8665,"Ġfilet":8666,"Ġworkable":8667,"ĠCroutons":8668,"ĠPock":8669,"ĠGrandpa":8670,"Ġtoweling":8671,"Chicken":8672,"Ġallowed":8673,"Ġbulb":8674,"Ġfoams":8675,"ĠBarley":8676,"These":8677,"ĠProverbs":8678,"ĠFoods":8679,"Ġcurdle":8680,"Ġtypes":8681,"Ġdecorated":8682,"ĠBase":8683,"ĠRomanoff":8684,"ĠHeart":8685,"Ġprune":8686,"ĠExch":8687,"ĠTortellini":8688,"Ġnewspaper":8689,"Ġreseal":8690,"Ġsecrets":8691,"ĠNorth":8692,"Stuffed":8693,"Ġdusting":8694,"ĠElmer":8695,"Ġliverwurst":8696,"ĠRiches":8697,"ĠRichards":8698,"uguese":8699,"Ġcircular":8700,"finely":8701,"ĠMaryland":8702,"Ġcounting":8703,"Ġ234":8704,"Ġ280":8705,"Ġdampened":8706,"uchen":8707,"Ġpale":8708,"Ġsleeves":8709,"ĠSkinny":8710,"ĠPigs":8711,"Ġcoming":8712,"Ġscramble":8713,"Ġdabs":8714,"ĠColorado":8715,"ĠCavat":8716,"Ġhuman":8717,"When":8718,"skinless":8719,"ĠEscort":8720,"ĠWindow":8721,"ĠChestnut":8722,"Ġsizzling":8723,"Ġhousehold":8724,"ĠKemp":8725,"Ġtongs":8726,"ĠGalliano":8727,"Ġproduct":8728,"tCover":8729,"halves":8730,"ĠSanta":8731,"Ġarranged":8732,"ĠRomaine":8733,"ĠPlantation":8734,"ĠMarble":8735,"Strawberry":8736,"Ġrecommended":8737,"umquats":8738,"ĠHummus":8739,"ĠSaturday":8740,"ĠVictor":8741,"Ġhoagie":8742,"Ġbluing":8743,"Ġvolume":8744,"ĠDiane":8745,"arsnips":8746,"wegian":8747,"ĠAmaz":8748,"Ġstudded":8749,"Ġnectarines":8750,"27":8751,"450":8752,"Bisquick":8753,"Break":8754,"Col":8755,"Day":8756,"Dump":8757,"Kids":8758,"La":8759,"Like":8760,"More":8761,"Miracle":8762,"Ori":8763,"Ph":8764,"Sto":8765,"They":8766,"Will":8767,"Wesson":8768,"bies":8769,"clo":8770,"eas":8771,"full":8772,"gah":8773,"herb":8774,"house":8775,"iole":8776,"mers":8777,"muff":8778,"oa":8779,"purple":8780,"rice":8781,"see":8782,"sie":8783,"tips":8784,"uet":8785,"vit":8786,"via":8787,"zer":8788,"Ġarm":8789,"Ġiodized":8790,"Ġcal":8791,"Ġcor":8792,"Ġcrow":8793,"Ġcase":8794,"inom":8795,"Ġselt":8796,"ane":8797,"anger":8798,"aron":8799,"Ġopa":8800,"Ġbarbecued":8801,"Ġbright":8802,"Ġbody":8803,"Ġtint":8804,"Ġpilaf":8805,"Ġmalt":8806,"Ġmasa":8807,"ational":8808,"atwurst":8809,"ilee":8810,"uting":8811,"uture":8812,"alcoholic":8813,"enta":8814,"oug":8815,"Ġfarm":8816,"Ġfeels":8817,"Ġchang":8818,"ĠCath":8819,"ĠCafe":8820,"orit":8821,"reau":8822,"rod":8823,"rot":8824,"Ġach":8825,"iterran":8826,"ĠBer":8827,"ĠBite":8828,"ĠBund":8829,"ĠBubb":8830,"ĠBatch":8831,"ĠBuy":8832,"ĠBird":8833,"ĠParm":8834,"ĠPower":8835,"Ġgolf":8836,"Ġpeg":8837,"Ġpeace":8838,"gged":8839,"Ġhad":8840,"Ġheal":8841,"Ġhurry":8842,"ĠMush":8843,"ĠMim":8844,"ĠMoon":8845,"ĠMich":8846,"ĠMild":8847,"ĠMachine":8848,"ĠMallow":8849,"ĠTar":8850,"allions":8851,"Ġflan":8852,"otash":8853,"uster":8854,"ĠAut":8855,"ĠAid":8856,"ĠAdobo":8857,"Ġunpared":8858,"Ġunmelted":8859,"Ġchoy":8860,"Ġminimum":8861,"eller":8862,"elled":8863,"tsugar":8864,"Ġstars":8865,"Ġstain":8866,"Ġforget":8867,"okneck":8868,"Ġjel":8869,"Ġjim":8870,"Ġnine":8871,"Ġnest":8872,"Ġshamp":8873,"Ġsays":8874,"ckrich":8875,"irin":8876,"Ġwheel":8877,"ĠDapple":8878,"ĠDab":8879,"ĠDone":8880,"ĠDec":8881,"ĠDifferent":8882,"ĠDais":8883,"ĠWeed":8884,"ĠWanda":8885,"ĠWinesap":8886,"odles":8887,"ansas":8888,"start":8889,"illo":8890,"tac":8891,"ĠFu":8892,"ĠFle":8893,"ĠFeed":8894,"Ġcorns":8895,"mear":8896,"Ġrep":8897,"Ġrelease":8898,"Ġreconstituted":8899,"quant":8900,"quarter":8901,"umn":8902,"ighter":8903,"ĠSpider":8904,"ĠSpark":8905,"Ġcray":8906,"ĠLyn":8907,"ĠLabel":8908,"ĠIi":8909,"ĠHow":8910,"ĠHerman":8911,"imate":8912,"mos":8913,"mouth":8914,"Ġros":8915,"ĠRemember":8916,"ubilee":8917,"Ġdrying":8918,"abul":8919,"Ġkrispies":8920,"Ġkool":8921,"Ġcutlet":8922,"ĠOodles":8923,"ĠEr":8924,"ĠEast":8925,"aints":8926,"erving":8927,"ĠJess":8928,"ĠJubilee":8929,"uffet":8930,"ĠKo":8931,"ĠKetchup":8932,"ĠKuchen":8933,"Ġexp":8934,"Ġjellos":8935,"enty":8936,"ĠCutout":8937,"ĠMelted":8938,"Ġraised":8939,"Ġenamel":8940,"Ġpremium":8941,"acing":8942,"Ġthickest":8943,"Ġwarmth":8944,"roproof":8945,"ĠChoy":8946,"Ġfoods":8947,"Ġpeelings":8948,"Ġcolby":8949,"ĠBeck":8950,"Ġspooned":8951,"ĠSlide":8952,"Ġcroquettes":8953,"Ġcrookneck":8954,"ĠSaucepan":8955,"ĠSeparately":8956,"ĠTopper":8957,"ĠTurnip":8958,"ĠFills":8959,"Ġpatting":8960,"ĠEggless":8961,"Ġoccasions":8962,"Ġpartic":8963,"Ġsmash":8964,"ĠMinced":8965,"ĠMaria":8966,"Ġcompressed":8967,"ample":8968,"ĠZippy":8969,"gsicles":8970,"ĠMayo":8971,"Ġfolded":8972,"ĠCons":8973,"ĠConfetti":8974,"ĠDreams":8975,"ĠDreamy":8976,"ĠPickin":8977,"ĠCheezy":8978,"ĠCandies":8979,"oya":8980,"ĠDelightful":8981,"ĠRaspberries":8982,"intreau":8983,"ĠCrabbies":8984,"ĠCheer":8985,"Ġclay":8986,"ĠPank":8987,"ĠFarms":8988,"eggs":8989,"Ġfiling":8990,"appa":8991,"ingersnap":8992,"ahi":8993,"Ġicy":8994,"ĠTurk":8995,"ĠSmucker":8996,"Ġtrip":8997,"Ġsurround":8998,"Ġdelights":8999,"Ġconsomm":9000,"available":9001,"ĠPopsicles":9002,"ĠUsually":9003,"ĠMomma":9004,"flowerets":9005,"orbet":9006,"Ġincorp":9007,"ĠLaughter":9008,"Ġways":9009,"arbecues":9010,"ĠWorks":9011,"ĠWorking":9012,"ibb":9013,"ĠNewman":9014,"ĠPolly":9015,"Ġdevils":9016,"ĠSnowball":9017,"ĠBlond":9018,"Ġfrankfurter":9019,"aturated":9020,"Ġblot":9021,"Ġdietetic":9022,"ĠTenderize":9023,"ĠStromb":9024,"ĠMediterran":9025,"Ġpersonal":9026,"ĠSunny":9027,"ĠOlives":9028,"ĠLastly":9029,"ĠPenuch":9030,"Ġcrushing":9031,"ĠParker":9032,"ĠMagn":9033,"Ġhowever":9034,"ĠIndividual":9035,"ĠHarvey":9036,"ĠBraise":9037,"ĠBuckle":9038,"ĠFettucine":9039,"234":9040,"236":9041,"Ġappearance":9042,"Ġducks":9043,"ĠWhoppers":9044,"Ġpetite":9045,"Ġpetals":9046,"ĠLinguini":9047,"ĠLuncheon":9048,"Also":9049,"zech":9050,"ariation":9051,"Ġmatzoh":9052,"bottom":9053,"Ġbundles":9054,"ĠBlossom":9055,"Ġgentleness":9056,"ĠJuicy":9057,"Ġtanger":9058,"Ġmotor":9059,"Ġmotion":9060,"Ġtostado":9061,"Ġhungry":9062,"cooled":9063,"Ġimproves":9064,"ĠQue":9065,"ĠJeff":9066,"Ġglycerin":9067,"ĠDavis":9068,"Ġexchange":9069,"ĠSouthwestern":9070,"ĠPuritan":9071,"ĠDieter":9072,"ĠJonathan":9073,"Ġdelicately":9074,"Ġvariation":9075,"wdust":9076,"Ġmembrane":9077,"ĠCompletely":9078,"Ġsundae":9079,"itterlings":9080,"ĠHomestyle":9081,"Ġenhancer":9082,"ĠSolo":9083,"Ġaccompan":9084,"Recipe":9085,"eritage":9086,"Ġmicroproof":9087,"Ġprevious":9088,"ĠAmazing":9089,"Breakfast":9090,"muffin":9091,"inomoto":9092,"Ġseltzer":9093,"Ġopaque":9094,"ĠBundles":9095,"ĠParmig":9096,"Ġshampoo":9097,"ĠDaisy":9098,"abulous":9099,"Ġincorpor":9100,"ĠMediterranean":9101,"750":9102,"AT":9103,"Bread":9104,"Cut":9105,"Crack":9106,"Dip":9107,"Dish":9108,"Dough":9109,"ER":9110,"Ever":9111,"Flavor":9112,"Filled":9113,"Hershey":9114,"Its":9115,"Mc":9116,"Mustard":9117,"Mores":9118,"Non":9119,"Parmesan":9120,"Top":9121,"band":9122,"brush":9123,"cchi":9124,"del":9125,"divided":9126,"ein":9127,"fse":9128,"good":9129,"gener":9130,"hea":9131,"homemade":9132,"iber":9133,"jalapeno":9134,"lightly":9135,"outs":9136,"pink":9137,"paper":9138,"rite":9139,"sift":9140,"salad":9141,"tCook":9142,"tCool":9143,"uan":9144,"uerb":9145,"vis":9146,"wor":9147,"watch":9148,"Ġcu":9149,"Ġcer":9150,"Ġcure":9151,"Ġcabb":9152,"Ġcreat":9153,"Ġcents":9154,"into":9155,"inding":9156,"Ġserrano":9157,"anzo":9158,"Ġbok":9159,"Ġbri":9160,"Ġbuffalo":9161,"Ġtil":9162,"Ġpyrex":9163,"Ġphe":9164,"Ġparsnips":9165,"Ġmorn":9166,"Ġmellow":9167,"Ġmex":9168,"Ġmalted":9169,"atkins":9170,"rect":9171,"alley":9172,"already":9173,"Ġfar":9174,"Ġfuture":9175,"Ġwreath":9176,"icus":9177,"icama":9178,"space":9179,"elve":9180,"Ġ232":9181,"Ġ230":9182,"roger":9183,"Ġ310":9184,"Ġau":9185,"Ġact":9186,"itam":9187,"itters":9188,"Ġdisc":9189,"ĠSny":9190,"ĠSnap":9191,"ĠSerrano":9192,"ĠBis":9193,"ĠBern":9194,"ĠBible":9195,"ĠBasting":9196,"olph":9197,"rab":9198,"raight":9199,"asts":9200,"ĠMus":9201,"ĠMatzo":9202,"ddess":9203,"Ġbutterfinger":9204,"ĠTip":9205,"ĠTray":9206,"ĠTerry":9207,"ĠTass":9208,"unken":9209,"Ġvac":9210,"Ġthirty":9211,"ĠAust":9212,"ĠAcorn":9213,"Ġunopened":9214,"ĠCointreau":9215,"ellmann":9216,"Ġstom":9217,"Ġstated":9218,"Ġstuck":9219,"tobell":9220,"Ġjal":9221,"rik":9222,"Ġpeppered":9223,"Ġshedd":9224,"Ġshowers":9225,"ĠChick":9226,"ĠCharm":9227,"ĠRh":9228,"ĠRight":9229,"ĠRise":9230,"ĠDiced":9231,"ĠDates":9232,"ĠWood":9233,"odel":9234,"odas":9235,"adise":9236,"ĠFra":9237,"ĠFeeds":9238,"ĠFeather":9239,"ĠFabulous":9240,"coon":9241,"Ġfroth":9242,"Ġruns":9243,"ĠSprouts":9244,"omit":9245,"omatic":9246,"Ġpotted":9247,"amom":9248,"amarina":9249,"Ġyam":9250,"umble":9251,"ĠLy":9252,"ĠLill":9253,"ĠLess":9254,"ĠStores":9255,"Ġsource":9256,"ĠIre":9257,"Ġconf":9258,"ĠCookbook":9259,"ĠHuck":9260,"ĠHope":9261,"shortening":9262,"ĠGh":9263,"ĠGlow":9264,"lene":9265,"arse":9266,"Ġrope":9267,"ĠRegular":9268,"ĠRefried":9269,"ables":9270,"Ġboxed":9271,"Ġkale":9272,"Ġgrass":9273,"ĠOh":9274,"ĠOp":9275,"ĠOmit":9276,"ĠEckrich":9277,"Ġisn":9278,"ĠInn":9279,"ĠJigg":9280,"ĠJem":9281,"ulk":9282,"Ġjells":9283,"ĠKar":9284,"ĠKix":9285,"ĠKir":9286,"ĠKern":9287,"ĠKugel":9288,"lock":9289,"Ġslim":9290,"Ġlaugh":9291,"Ġliving":9292,"ĠVick":9293,"ĠCrusts":9294,"mple":9295,"Ġshreds":9296,"Ġ125":9297,"ĠThick":9298,"ĠThyme":9299,"ĠThirty":9300,"Ġang":9301,"lied":9302,"ĠBrowned":9303,"ĠNine":9304,"ĠNell":9305,"ĠNancy":9306,"ĠJellied":9307,"Ġoutdo":9308,"Ġsettle":9309,"ĠSher":9310,"ĠPotluck":9311,"issolved":9312,"ĠUlt":9313,"Ġmove":9314,"Ġfines":9315,"ĠCorny":9316,"Ġlique":9317,"Ġplaces":9318,"Ġdove":9319,"Ġsteps":9320,"Ġgelatins":9321,"Ġplant":9322,"Ġheadspace":9323,"Ġevaporates":9324,"Ġyourself":9325,"scous":9326,"ĠBrandied":9327,"ĠTodd":9328,"Ġscotch":9329,"Ġscrub":9330,"ĠFrying":9331,"itzel":9332,"Ġseparates":9333,"Ġlastly":9334,"ĠLooks":9335,"ĠMexi":9336,"Ġaroma":9337,"ĠMarvel":9338,"ĠMaraschino":9339,"ĠMarzetti":9340,"angles":9341,"ĠScott":9342,"ortment":9343,"ĠContin":9344,"ĠConnie":9345,"Ġdrizz":9346,"ĠPicking":9347,"ĠMarinara":9348,"ĠCandi":9349,"Ġpounded":9350,"ĠPatch":9351,"Ġherbes":9352,"Ġherbal":9353,"Ġdijon":9354,"liter":9355,"ĠAllspice":9356,"ĠDivine":9357,"ailey":9358,"Ġsurp":9359,"nocchi":9360,"ĠPackage":9361,"Ġsunshine":9362,"Ġfoaming":9363,"ĠRusset":9364,"oeuvres":9365,"Ġassortment":9366,"Ġholding":9367,"Ġacini":9368,"ĠJoan":9369,"ĠGrapefruit":9370,"ielbasi":9371,"theart":9372,"Ġinstructed":9373,"Ġfinishing":9374,"Ġsqueezing":9375,"ĠAnisette":9376,"rolled":9377,"ĠCurd":9378,"ĠCubes":9379,"Ġswordfish":9380,"Ġwrapping":9381,"ĠFranco":9382,"ĠFrangel":9383,"Ġbathtub":9384,"Ġfigure":9385,"Ġdiamond":9386,"ĠGoddess":9387,"ĠSarah":9388,"ront":9389,"Ġricher":9390,"igger":9391,"Ġnavel":9392,"Ġthreads":9393,"Ġmanner":9394,"Ġtrust":9395,"ĠFriend":9396,"Ġmedley":9397,"ĠSandy":9398,"ĠCaptain":9399,"Ġpersimmons":9400,"Ġcalling":9401,"ynes":9402,"ĠJohnson":9403,"ĠMelta":9404,"ĠForgiveness":9405,"olutely":9406,"ĠAmount":9407,"Ġcitrus":9408,"Brown":9409,"ĠWonder":9410,"Ġhusk":9411,"Ġcountertop":9412,"walnut":9413,"Ġinserting":9414,"erkins":9415,"Peach":9416,"raten":9417,"floured":9418,"Ġpockets":9419,"ĠMasterpiece":9420,"Ġcardamom":9421,"ĠWelsh":9422,"ĠLeftovers":9423,"Ġsmokies":9424,"Ġjulienned":9425,"ĠBurrito":9426,"Caramel":9427,"viously":9428,"tServe":9429,"ĠFantasy":9430,"ĠOleo":9431,"Mozzarella":9432,"ĠFudgsicles":9433,"Roasted":9434,"Ġvented":9435,"tCombine":9436,"Ġsquirrels":9437,"ĠSweetheart":9438,"uski":9439,"Ġburrito":9440,"Ġpuppies":9441,"Ġfriendly":9442,"Delicious":9443,"ĠMenthe":9444,"Ġnapkins":9445,"Ġripened":9446,"Ġcrowns":9447,"baby":9448,"Ġfritters":9449,"inetti":9450,"Sausage":9451,"Ġmagarine":9452,"Ġholders":9453,"ĠLiqueur":9454,"Ġmilder":9455,"ĠSuccess":9456,"ĠBrenda":9457,"ĠBurnt":9458,"Ġajinomoto":9459,"Ġgreasing":9460,"ĠGerber":9461,"Ġladle":9462,"ĠRobin":9463,"Ġtamari":9464,"ĠAssemble":9465,"ĠRefresher":9466,"ĠJunket":9467,"ĠRichardson":9468,"viticus":9469,"Ġstainless":9470,"ĠLynn":9471,"Ġparticular":9472,"ĠStromboli":9473,"ĠPenuche":9474,"Ġtangerine":9475,"uerbraten":9476,"worth":9477,"Ġcabbages":9478,"Ġpheas":9479,"Ġmornings":9480,"ĠTassies":9481,"Ġstomach":9482,"Ġshedded":9483,"ĠJemima":9484,"ĠUltimate":9485,"**":9486,".*":9487,"31":9488,"Ap":9489,"Ar":9490,"And":9491,"Blue":9492,"Cabbage":9493,"Cranberry":9494,"Date":9495,"Drain":9496,"El":9497,"Fl":9498,"Fresh":9499,"Hour":9500,"Hellmann":9501,"Karo":9502,"Let":9503,"Links":9504,"Mon":9505,"Out":9506,"Oro":9507,"Pan":9508,"Rhubarb":9509,"Ready":9510,"SG":9511,"Wrapped":9512,"bber":9513,"bowl":9514,"both":9515,"banese":9516,"bably":9517,"bird":9518,"cauliflower":9519,"candy":9520,"done":9521,"discard":9522,"equal":9523,"evaporated":9524,"field":9525,"gu":9526,"gro":9527,"gly":9528,"golden":9529,"glish":9530,"ians":9531,"ki":9532,"mat":9533,"mie":9534,"mother":9535,"metal":9536,"mints":9537,"oven":9538,"pudding":9539,"pork":9540,"rind":9541,"sch":9542,"slow":9543,"tou":9544,"tto":9545,"tart":9546,"tied":9547,"tist":9548,"tSp":9549,"uum":9550,"vin":9551,"var":9552,"vie":9553,"wine":9554,"weed":9555,"west":9556,"ype":9557,"zos":9558,"inos":9559,"ination":9560,"incl":9561,"Ġsort":9562,"anie":9563,"aringly":9564,"Ġbud":9565,"Ġbigger":9566,"edral":9567,"Ġph":9568,"Ġpail":9569,"Ġpass":9570,"Ġmus":9571,"Ġmacaroon":9572,"Ġmass":9573,"atel":9574,"ilet":9575,"ilies":9576,"utti":9577,"onara":9578,"ali":9579,"alk":9580,"ening":9581,"enee":9582,"oula":9583,"Ġfur":9584,"Ġforever":9585,"Ġcheez":9586,"Ġchitterlings":9587,"Ġwind":9588,"Ġwipe":9589,"ĠCind":9590,"Ġinject":9591,"ppe":9592,"ppin":9593,"ppey":9594,"Ġ270":9595,"Ġ33":9596,"Ġ34":9597,"Ġasp":9598,"Ġaid":9599,"Ġdra":9600,"Ġdream":9601,"Ġdye":9602,"ĠSor":9603,"ĠSort":9604,"ĠSyl":9605,"ĠBol":9606,"ĠBap":9607,"ĠBisc":9608,"ĠBoo":9609,"ĠBrew":9610,"ĠBarbecues":9611,"ĠBailey":9612,"ĠPi":9613,"ĠPla":9614,"ĠPudd":9615,"ĠPul":9616,"ĠPoultry":9617,"Ġgourmet":9618,"Ġgingersnap":9619,"Ġpepe":9620,"Ġhog":9621,"Ġhere":9622,"isins":9623,"isible":9624,"Ġlighten":9625,"ĠMt":9626,"ĠMicrow":9627,"ĠMile":9628,"ĠMSG":9629,"ĠTB":9630,"ĠTree":9631,"unks":9632,"Ġvisible":9633,"Ġfluted":9634,"ota":9635,"chatel":9636,"Ġuntoasted":9637,"Ġchocolates":9638,"ĠCod":9639,"ells":9640,"Ġstop":9641,"Ġwatery":9642,"tilage":9643,"Ġjicama":9644,"ĠAdditional":9645,"Ġshow":9646,"Ġshank":9647,"ĠChic":9648,"ĠChive":9649,"Ġmarket":9650,"Ġcruet":9651,"that":9652,"then":9653,"they":9654,"ĠRare":9655,"ĠRig":9656,"ĠRoux":9657,"ĠRoughy":9658,"ĠRanger":9659,"ĠDen":9660,"ĠDain":9661,"ĠDaff":9662,"ĠDunk":9663,"ĠWing":9664,"ĠWorch":9665,"ĠWiener":9666,"ĠWatkins":9667,"nament":9668,"stew":9669,"Ġgrinding":9670,"adillo":9671,"Ġoils":9672,"Ġcookbook":9673,"ĠFe":9674,"Ġbea":9675,"measure":9676,"Ġreg":9677,"concent":9678,"coarse":9679,"urkey":9680,"Ġritz":9681,"Ġsparingly":9682,"ĠSpec":9683,"ĠSpud":9684,"ĠSpear":9685,"omen":9686,"omme":9687,"Ġyet":9688,"ĠLu":9689,"ĠLim":9690,"ĠLuc":9691,"ĠState":9692,"ĠStretch":9693,"Ġconven":9694,"shakes":9695,"oper":9696,"achel":9697,"Ġbreaded":9698,"ĠGallon":9699,"ĠGoya":9700,"antime":9701,"uddy":9702,"Ġalfredo":9703,"Ġappetit":9704,"ĠOo":9705,"ĠOats":9706,"Ġcarnation":9707,"Ġcartilage":9708,"ĠEtou":9709,"ĠInside":9710,"ĠKal":9711,"ĠKind":9712,"ĠKroger":9713,"Ġslip":9714,"Ġravioli":9715,"Ġ130":9716,"ĠVodka":9717,"ĠVermicelli":9718,"Ġsofter":9719,"Ġhaving":9720,"ĠThing":9721,"ĠSawdust":9722,"ĠSauerbraten":9723,"ĠName":9724,"Ġenglish":9725,"ĠPrep":9726,"Ġsmoothly":9727,"ĠShaker":9728,"Ġdesserts":9729,"Ġ72":9730,"Ġcrank":9731,"ects":9732,"ĠUgly":9733,"Ġmoose":9734,"rises":9735,"Ġdoing":9736,"Ġstep":9737,"lown":9738,"Ġsimmered":9739,"ĠMouth":9740,"ĠBear":9741,"Ġstandard":9742,"Ġfatback":9743,"Ġfoiled":9744,"ĠSlim":9745,"ĠCarter":9746,"Ġrid":9747,"izzards":9748,"ĠRome":9749,"ĠRoom":9750,"ĠRobert":9751,"udget":9752,"ĠSets":9753,"Ġcandle":9754,"Ġpointed":9755,"Ġminiatures":9756,"ĠLeviticus":9757,"ĠTurnovers":9758,"ĠArk":9759,"Ġpinwheels":9760,"ĠSock":9761,"Ġhearty":9762,"Ġheaped":9763,"ossum":9764,"Ġknow":9765,"some":9766,"soften":9767,"potatoes":9768,"Ġdarker":9769,"ritious":9770,"ĠCont":9771,"icier":9772,"ĠTaters":9773,"unset":9774,"pickling":9775,"Ġtowards":9776,"flat":9777,"Ġpreheating":9778,"ĠOrzo":9779,"ĠOrville":9780,"wheel":9781,"ĠCrusty":9782,"plum":9783,"Ġ180":9784,"Ġpintos":9785,"Ġdipper":9786,"ĠAppetit":9787,"Ġgarnishing":9788,"outh":9789,"ĠFarmer":9790,"Ġwhichever":9791,"ĠCroiss":9792,"ĠChrist":9793,"depends":9794,"Ġkindly":9795,"ĠTwister":9796,"ĠTwists":9797,"Ġdelight":9798,"ĠSkins":9799,"ĠSkyl":9800,"ĠDrip":9801,"Ġdonuts":9802,"Ġlasts":9803,"ĠPuffed":9804,"ĠNeuf":9805,"ĠWalla":9806,"ĠBarely":9807,"Ġwhisking":9808,"mmun":9809,"mmmm":9810,"istant":9811,"Ġburns":9812,"ĠTruffles":9813,"Ġincreased":9814,"ĠLaura":9815,"added":9816,"ĠBenedic":9817,"!!)":9818,"Ġpowered":9819,"ĠPolenta":9820,"ĠPolynes":9821,"Ġbrussels":9822,"ĠSnowd":9823,"ĠClams":9824,"ĠAnise":9825,"ĠNorwegian":9826,"ĠIslands":9827,"ĠMcKay":9828,"ĠCuban":9829,"ĠFranc":9830,"ĠParadise":9831,"Ġproceed":9832,"Ġdisjo":9833,"udson":9834,"Ġfingertips":9835,"Ġblades":9836,"Ġseem":9837,"ĠSuggest":9838,"ĠLouise":9839,"ĠPapa":9840,"ĠWaffle":9841,"Ġ236":9842,"ĠWishbone":9843,"ĠGouda":9844,"Ġescar":9845,"Ġdampen":9846,"ĠBuckeye":9847,"Ġlotion":9848,"ĠScramblers":9849,"ĠHalves":9850,"Frozen":9851,"browned":9852,"Spinach":9853,"ĠEdna":9854,"ĠMillionaires":9855,"Ġoverlap":9856,"Mixture":9857,"Ġdollar":9858,"ĠDrunken":9859,"partially":9860,"Ġhoisin":9861,"ĠExtract":9862,"Ġrotelle":9863,"ĠKrispy":9864,"Ġhulls":9865,"ĠEspresso":9866,"mingbird":9867,"ĠMadeira":9868,"ĠStrip":9869,"ĠHummingbird":9870,"zebel":9871,"Ġunwashed":9872,"ĠMamaw":9873,"ĠFudgy":9874,"Ġtraditional":9875,"ĠCollard":9876,"desired":9877,"Ġgroups":9878,"blueberry":9879,"ĠMorgan":9880,"Ġimprove":9881,"Mexican":9882,"ĠSweets":9883,"ĠWinning":9884,"ĠGenoa":9885,"ĠJezebel":9886,"ĠMargaret":9887,"Ġglycerine":9888,"Heart":9889,"Ġburritos":9890,"ĠHenry":9891,"Ġcrystallized":9892,"Ġcasing":9893,"Ġrutabagas":9894,"Ġdiabetics":9895,"Weight":9896,"Ġutens":9897,"Ġgherkins":9898,"Ġherring":9899,"ĠMunchies":9900,"faits":9901,"ĠCarbonara":9902,"ĠSopa":9903,"ootball":9904,"Ġsatis":9905,"ĠPierogi":9906,"Ġhuge":9907,"Ġthoughtfulness":9908,"Ġhotdogs":9909,"ĠThumbprint":9910,"Ġindicated":9911,"Excellent":9912,"ĠFaye":9913,"bohydrate":9914,"Ġdispos":9915,"ĠPockets":9916,"Ġresealable":9917,"ĠVictoria":9918,"Stove":9919,"ĠCathedral":9920,"oritos":9921,"ĠMichigan":9922,"ĠAutumn":9923,"Ġjimmies":9924,"tacular":9925,"quartered":9926,"ĠBecky":9927,"Ġtripled":9928,"ĠQueen":9929,"Ġaccompaniment":9930,"Cracker":9931,"generous":9932,"heavy":9933,"tobello":9934,"ĠHuckleberry":9935,"Ġoutdoor":9936,"ĠMarvelous":9937,"ĠFrangelico":9938,"Apricot":9939,"Monterey":9940,"mati":9941,"ĠCindy":9942,"ĠBaptist":9943,"ĠRigatoni":9944,"ĠSpectacular":9945,"ĠLimas":9946,"ĠSkyline":9947,"ĠNeufchatel":9948,"ĠPolynesian":9949,"Ġdisjointed":9950,"Ġescarole":9951,"Ang":9952,"Ahead":9953,"Better":9954,"Crisp":9955,"Des":9956,"Dutch":9957,"Double":9958,"En":9959,"Eng":9960,"German":9961,"Ha":9962,"Honey":9963,"Heritage":9964,"MM":9965,"Mrs":9966,"Nor":9967,"Pet":9968,"Rising":9969,"Tastes":9970,"\\)":9971,"bby":9972,"body":9973,"bulk":9974,"cie":9975,"cider":9976,"dill":9977,"drop":9978,"diet":9979,"dissolved":9980,"ez":9981,"eque":9982,"her":9983,"haw":9984,"ipper":9985,"ios":9986,"iago":9987,"jar":9988,"jita":9989,"jects":9990,"ker":9991,"koe":9992,"lude":9993,"luski":9994,"men":9995,"nies":9996,"neath":9997,"nitzel":9998,"pine":9999}