#version: 0.2
Ġ <
N E
X T
NE XT
E N
I N
R E
S T
Ġ c
IN G
D I
T S
EN TS
RE DI
ING REDI
INGREDI ENTS
NE R
T I
i n
Ġ s
e r
A R
ST AR
STAR T
EN D
Ġ 1
O N
R U
IN ST
TI ON
C TION
RU CTION
INST RUCTION
INSTRUCTION S
a n
a r
Ġ o
Ġ b
e d
Ġ t
e s
Ġ p
Ġ m
a t
i l
u t
r e
o n
a l
e n
o u
an d
Ġ f
L E
P E
C I
RE CI
RECI PE
T LE
TI TLE
Ġc h
Ġ and
in g
Ġ w
g ar
i c
Ġ C
l e
Ġ in
Ġt o
s p
o r
p p
e l
a k
Ġ 2
ou r
re a
r o
Ġs u
Ġsu gar
Ġ a
Ġ 3
i t
Ġ d
Ġ e
Ġo n
t er
i x
Ġ S
Ġ B
l a
Ġ P
in e
Ġs al
Ġ g
o l
g e
r a
Ġp e
a s
Ġt sp
Ġ h
g g
i s
Ġ l
Ġsal t
ut ter
Ġ M
i on
Ġe gg
rea m
ak e
d d
Ġb utter
es e
u n
Ġ T
e ese
o w
Ġ v
Ġ (
Ġc o
Ġc ream
al l
Ġf l
Ġch eese
Ġt h
ic k
il k
u s
o t
Ġon ion
c h
Ġfl our
Ġo f
Ġo r
Ġm ilk
Ġ A
Ġ un
c e
Ġch o
ic e
Ġm in
Ġm ix
it h
Ġc an
ĠC o
t s
el l
Ġs t
r ed
e at
Ġw ith
at er
Ġf or
Ġegg s
Ġw ater
Ġmin ut
t il
t o
v er
Ġminut es
0 0
Ġ j
o k
r i
b sp
Ġun til
ĠT bsp
pp er
e e
il la
an illa
Ġv anilla
Ġ 4
m on
Ġpe pper
Ġo z
ĠM ix
ĠA dd
d er
pp ed
m b
Ġb ro
Ġ n
at o
Ġs h
Ġ at
i e
ĠC h
Ġm ar
r y
Ġc r
Ġs a
c k
Ġcho pped
i en
u p
ick en
Ġth e
v e
Ġin to
red ien
Ġ ing
Ġing redien
Ġingredien ts
g h
u ce
ĠB ake
w n
i p
ou p
i r
Ġ le
. )
Ġw h
t h
Ġ R
at e
l ic
Ġs oup
Ġ D
Ġ W
ow der
Ġp owder
Ġb ak
o d
rea d
5 0
n a
c ol
ut s
an s
Ġbak ing
s t
Ġch icken
Ġj u
Ġg r
Ġo ver
pp le
gar ine
Ġbro wn
Ġmar garine
or n
us h
il l
Ġju ice
Ġb o
Ġsa uce
a d
m all
k g
Ġp kg
ato es
Ġo il
th er
Ġ3 50
Ġ all
Ġco ok
t a
l es
Ġ F
a y
n d
e t
Ġp an
r es
Ġl b
l y
Ġb e
Ġp ie
Ġc orn
a pple
ine apple
m e
is h
Ġw ell
u re
Ġl ar
as t
er s
Ġ re
Ġlar ge
Ġp ineapple
c on
u r
c o
ge ther
Ġto gether
Ġle mon
Ġf ro
ĠP our
ra in
u m
Ġa dd
o le
q u
i gh
Ġs p
ou nd
us t
Ġ r
in ch
o m
re en
t en
col ate
ĠS p
Ġh our
Ġto m
a m
el t
b er
Ġ y
Ġn uts
Ġs e
Ġg reen
u mb
Ġp ot
Ġs mall
rea s
g er
t ure
er y
Ġc ra
igh t
Ġmix ture
at ed
s er
ĠS t
Ġbo il
Ġc ake
ro om
Ġ L
Ġs our
ĠW h
ĠCo ok
Ġc on
Ġ 6
od a
Ġ I
Ġs oda
a p
Ġs lic
v es
Ġ H
i d
Ġpe c
ee f
Ġcho colate
Ġwh it
Ġ gar
Ġ 8
ush room
mb ine
in na
inna mon
ine gar
v en
Ġonion s
Ġcra ck
Ġv inegar
el ery
c es
Ġc elery
Ġc up
as h
Ġc innamon
la ce
Ġm ushroom
Ġgar lic
f f
s h
Ġgr ound
Ġm ay
ol d
Ġto p
o p
a ge
is e
Ġpec ans
Ġb eef
Ġst ick
Ġpot atoes
as ser
a ch
asser ole
Ġb a
Ġd rain
ĠCo ol
ee t
z en
Ġb read
Ġcr umb
Ġd ish
i es
Ġm elt
Ġ 5
ri es
ĠCo mbine
c t
i m
er ve
Ġb eat
Ġ G
m o
ar d
Ġor an
u it
ed i
on na
onna ise
Ġh ot
o od
Ġmay onnaise
Ġs o
i f
Ġo ven
Ġ 9
Ġ x
ak es
in k
Ġfro zen
ip s
ra w
Ġmelt ed
Ġpe an
b o
edi um
ed d
an t
Ġwhit e
ĠSt ir
ĠWh ip
ou gh
edd ar
u dd
Ġh eat
res s
ow l
Ġch ips
udd ing
Ġm edium
con ut
Ġgr ated
Ġst ir
Ġr ice
Ġb owl
Ġ ro
ar s
f ri
ĠP lace
Ġ1 0
ĠR e
Ġc ar
i re
l en
l l
r ink
u b
reas ed
Ġd ry
ĠCh eddar
fri ger
o on
Ġcrumb s
Ġbe ans
ĠS al
ĠP ut
Ġco conut
Ġ3 0
ast e
raw ber
ar m
a b
Ġg ra
bo ut
Ġ al
Ġbo x
rink le
Ġtom atoes
ush ed
Ġslic ed
Ġ k
c col
ccol i
Ġp udding
Ġa pp
Ġcr ushed
r ing
ust ard
Ġtom ato
o re
Ġth en
d ed
on e
Ġsh or
Ġpowder ed
Ġdrain ed
Ġoran ge
Ġ O
ar t
Ġc ut
Ġ E
ten ing
Ġpean ut
e ge
Ġshor tening
ta b
Ġhour s
ege tab
el y
in s
an an
Ġa bout
Ġ is
a in
Ġt aste
Ġba con
Ġm ustard
st ant
er v
Ġcrack ers
Ġo le
Ġole o
Ġj ell
u ff
Ġst rawber
Ġg reased
ĠSal ad
Ġ J
Ġb ake
ĠI n
Ġ K
ress ing
w eet
Ġa s
ĠC ake
r uit
u l
y r
yr up
l o
ĠB ro
ĠS erve
Ġm eat
e a
Ġs yrup
Ġcook ed
res h
Ġs l
ĠB eat
Ġb ot
Ġapp les
Ġbeat en
Ġboil ing
Ġcan s
Ġs erv
Ġ ra
i z
Ġv egetab
Ġro ll
mall ow
sh mallow
Ġ la
Ġfro m
Ġsh ell
Ġp our
Ġbro ccoli
Ġch il
co a
Ġre m
Ġl ight
ĠP ie
Ġrem ain
Ġch er
Ġ red
as on
ĠC ream
Ġ1 3
Ġe x
Ġ1 5
Ġl i
v or
Ġp ap
Ġco coa
Ġ V
u c
Ġco ol
Ġf ir
Ġb anan
a f
Ġserv ing
Ġremain ing
ĠP e
Ġc asserole
Ġf resh
Ġd ressing
m p
Ġso f
ĠC r
Ġh al
m er
ĠSp rinkle
Ġh a
ĠC asserole
Ġmar shmallow
Ġ2 0
Ġcr ust
Ġre friger
us age
Ġjell o
ten ed
Ġcar ro
mo ve
Ġf ill
ĠCo ver
or k
ol l
Ġb len
Ġ1 2
Ġsh red
ot h
Ġc lo
ar e
k s
s s
h am
Ġshred ded
mb ur
u e
Ġcrack er
ic ed
pp ing
Ġin stant
Ġpie ces
Ġslic es
sh ire
is s
Ġgra ham
a ck
ter shire
or ces
Ġle t
orces tershire
le y
p s
Ġse ason
n uts
ĠW orcestershire
ĠSp read
Ġb all
en t
ĠT h
m ilk
ct ion
la vor
Ġfill ing
Ġbanan as
Ġmarshmallow s
Ġd iced
o il
) .
ĠM akes
Ġsal ad
ĠC ut
Ġ an
at s
e y
Ġha mbur
Ġsa usage
Ġcarro ts
l i
Ġ4 5
Ġ it
re e
Ġf ruit
Ġs k
Ġwh i
Ġc old
Ġla y
ĠM elt
ĠR oll
ĠBro wn
Ġe ach
Ġn ut
Ġco ver
Ġbutter milk
ak ed
id e
2 5
ars ley
s e
Ġchil i
ĠRe move
Ġp arsley
ĠS a
Ġj ar
ĠCh icken
Ġf lavor
ĠL et
Ġ us
Ġhambur ger
Ġ up
Ġ N
Ġs qu
Ġo li
Ġwh ole
ood les
Ġstrawber ries
ell ow
ber ry
t le
g es
ing er
f ore
Ġra is
me g
Ġcook ie
le t
Ġp ork
la ck
Ġrais ins
Ġnut meg
Ġpepper s
un ch
Ġse ed
Ġcup s
Ġy ellow
Ġs weet
Ġ ice
ĠCh ill
Ġhal f
e ed
Ġn oodles
e w
Ġbe fore
Ġsh eet
ĠCh eese
Ġ en
e al
Ġo ut
Ġc ub
im mer
Ġmushroom s
d s
ion al
ĠT op
ĠD ip
Ġw al
ĠD rain
i an
ĠJ ell
arm es
armes an
en der
Ġs et
Ġb lack
on i
Ġl ow
Ġfir st
is c
Ġg inger
ab b
ad e
Ġclo ves
Ġd one
Ġt ender
abb age
if t
ĠP armesan
Ġp re
ĠH eat
Ġch ill
ar ch
Ġp ack
en s
um p
7 5
Ġl o
Ġseason ing
a c
Ġt ea
ĠP re
ur n
Ġo ther
Ġstir ring
Ġwal nuts
me al
st arch
a g
isc uit
Ġcorn starch
mo oth
Ġp ut
Ġth ick
Ġ q
Ġd es
Ġcher ry
Ġq t
Ġbro th
ta in
ĠS h
er ves
t ional
to m
d ens
dens ed
Ġs mooth
ri ed
p an
Ġwhit es
at or
e ad
Ġs erve
ch in
Ġn ot
t ra
Ġal mon
Ġ3 25
Ġw arm
Ġbot tom
ĠB utter
ĠA nd
Ġcon densed
es s
reas ts
c c
Ġ Y
len d
Ġvegetab le
a ve
Ġcon tain
Ġex tra
k a
r an
Ġba g
iss ol
ĠB lend
Ġ3 75
all y
Ġc abbage
Ġsauce pan
ro p
ight ly
ĠP ot
Ġb reasts
Ġy ol
op tional
Ġd ough
ĠI t
i me
ĠR ice
Ġlay er
Ġp lace
Ġpe ach
Ġon e
ri sp
Ġ4 0
i red
ar b
ut e
Ġd ash
Ġsof tened
Ġrefriger ator
it e
Ġpap er
Ġvegetab les
Ġball s
ree z
ac ar
Ġdes ired
h eat
Ġcook ing
il let
qu ick
at ely
Ġ are
Ġstick s
Ġ if
p e
Ġwhi pped
Ġd ire
es t
Ġh am
n ight
iz e
ĠRe friger
acar oni
Ġth in
p ar
a w
la ss
is co
Ġoran ges
uc umb
ar in
Ġb ell
' s
ĠCh o
Ġ2 5
Ġ 7
Ġover night
ĠB oil
e x
ri ka
Ġcontain er
ĠCook ies
Ġpap rika
Ġb y
ĠCr isco
ĠRefriger ate
Ġb iscuit
ee p
al ian
Ġsk illet
ro w
ri mp
Ġf ood
Ġa pple
Ġ4 00
et t
ĠCho colate
e c
ĠIt alian
Ġextra ct
Ġf in
Ġcr an
Ġcher ries
f e
old en
Ġ U
ber ries
Ġstrawber ry
Ġpe el
el v
ee ta
elv eeta
Ġsp read
at ter
Ġt ime
Ġyol ks
c ed
Ġc ucumb
reas e
Ġm o
p t
Ġw a
Ġto pping
v y
ĠB read
qu art
ic row
one y
ĠV elveeta
r and
r is
w ee
Ġpe as
fe ction
sp oon
Ġm ash
Ġus e
Ġtea spoon
Ġcon fection
Ġp la
el s
ĠC orn
ĠS erves
ta ge
z z
e ast
Ġconfection ers
Ġm acaroni
ĠB ring
Ġs ize
icrow ave
Ġfl akes
ce pt
Ġlight ly
o g
Ġg olden
Ġli qu
Ġm ore
at ure
d ing
k in
Ġc ol
Ġun co
ic h
Ġfin ely
Ġmin ced
Ġwa x
Ġ Ġ
ow er
Ġt ab
Ġy east
Ġ res
Ġy ou
uc chin
ats up
ucchin i
ough ly
Ġco t
Ġsof t
a co
Ġpeach es
Ġcot tage
in ach
Ġp t
or oughly
Ġc atsup
Ġst e
1 0
Ġmix ed
ĠL ay
Ġso y
Ġs immer
o s
t on
ĠD rop
Ġflavor ing
Ġsl ightly
Ġsp rinkle
ump kin
p oon
les poon
el at
ĠM o
Ġoli ves
Ġtab lespoon
Ġcol or
an o
Ġex cept
Ġth oroughly
Ġroll s
Ġm ake
Ġliqu id
1 6
Ġbutter ed
t uce
Ġg elat
Ġk et
Ġd ill
Ġp l
Ġh oney
r ic
ĠPre heat
b le
wee tened
Ġserving s
Ġ3 5
Ġpean uts
Ġlo af
Ġlet tuce
Ġst and
ĠB e
at meal
Ġto r
ction s
Ġof f
ett i
Ġfir m
il e
ĠF old
Ġd e
Ġp im
Ġsh rimp
y le
Ġp ick
c ent
l ue
ing s
ok ed
gh etti
a ghetti
n ch
ĠWh en
ch up
ĠS l
Ġli me
and arin
til la
i ff
Ġket chup
Ġcho ps
Ġmash ed
Ġch un
f ul
Ġo ats
it s
Ġsp oon
is quick
Ġh ead
ĠT o
Ġb atter
Ġf reez
re g
1 2
el f
el la
it tle
ur p
Ġst uff
Ġw ill
Ġf ry
l ed
Ġ z
ĠB isquick
Ġcub es
ar p
Ġrefriger ate
Ġun b
ĠLay er
Ġw ine
Ġco mbine
Ġoli ve
ar ella
zz arella
Ġen ough
Ġas ide
Ġtor tilla
Ġsh arp
ic an
Ġm uff
Ġpot ato
re nch
Ġd o
ran ge
Ġgelat in
ta il
Ġm eal
ou n
as y
reg ano
ck tail
g reased
Ġf at
Ġo regano
Ġbiscuit s
ris ing
arb ec
Ġpack age
ĠF rench
Ġt aco
Ġon to
l ower
ĠF or
ĠMo zzarella
Ġal e
o se
ĠF ruit
Ġblen d
u d
en to
k ey
ar es
v ed
Ġcover ed
or ated
Ġflour ed
v ap
Ġunb aked
er b
Ġcucumb ers
ĠB all
f ter
Ġs elf
Ġz ucchini
Ġl on
Ġe vap
Ġblen der
Ġw af
Ġf oil
issol ve
ap e
Ġsp inach
ĠTh en
in d
Ġevap orated
Ġm andarin
Ġsl ice
Ġpim ento
i el
c an
Ġs ift
Ġalmon ds
Ġy our
Ġth aw
Ġth is
Ġdire ctions
Ġstuff ing
Ġf ine
ĠR o
Ġsp aghetti
ver ed
Ġbot tle
er ry
Ġblen ded
ĠPot ato
arbec ue
Ġsqu ash
Ġp umpkin
Ġmix ing
or ding
ĠPe an
Ġres t
Ġa cc
Ġl ittle
Ġd ried
ra y
Ġro ast
Ġco cktail
ces s
ĠC ar
Ġcook ies
Ġpla in
Ġacc ording
Ġo atmeal
Ġlemon ade
Ġa p
Ġcra b
Ġ ri
ĠBro ccoli
ĠS w
ĠPean ut
Ġp o
Ġbrown ed
t ed
Ġpeel ed
Ġp inch
un a
ĠB rand
ĠE asy
ĠS ift
ff ee
ag le
Ġt ur
Ġcar ton
Ġsift ed
n e
Ġth icken
Ġste ak
Ġt art
ro x
Q u
Ġsl ow
ĠM ake
i der
Ġwhi pping
ĠA pple
Ġthaw ed
Ġt e
ĠE agle
ĠSa uce
urp ose
rox im
a ul
ar k
Ġv ery
stant ly
Ġcon stantly
c le
Ġg lass
roxim ately
Ġc ro
Ġ Qu
Ġalmon d
Ġh and
Ġfor m
Ġwaf ers
Ġ1 6
er n
k e
ar o
aul if
aulif lower
ĠS immer
ĠS e
n ed
ĠSp oon
s c
iz z
Ġclo ve
ud ge
Ġh ea
at es
p urpose
Ġc and
Ġr ound
ĠU se
l d
Ġp ans
Ġ 50
ĠK aro
oun t
ĠB aked
mp er
ĠY iel
Ġwh en
ĠSl ice
n g
u ally
ou ble
ĠG rease
Ġhea vy
Ġh ard
b read
Ġcub ed
Ġcran berry
ou s
Ġcolor ing
Ġbak ed
Ġpre par
ric ot
ar ts
Ġt ub
m i
Ġ3 00
as il
Ġfor k
ĠG ra
Ġt urn
Ġmuff in
read y
mper ature
l ish
Ġc ider
ĠS to
Ġsqu ares
id es
Ġmin i
un d
Ġc le
Ġte mperature
ĠH ot
ot ch
ĠD issolve
s a
Ġmix er
ĠCh op
k ra
Ġun s
Ġd issol
a ves
Ġprepar ed
ĠL e
Ġst ri
Ġs ides
re ak
ĠSw iss
ĠP unch
Ġb lue
s weet
u ck
izz a
Ġb on
Ġm icrowave
Ġn eed
ur t
Ġwh ile
ĠS oup
ĠSa ute
Ġst iff
Ġ ready
n ey
Ġin ch
Ġhal ves
Ġd ates
Ġse mi
pp y
Ġj ust
sc otch
ĠD el
Ġtart ar
Ġs c
er eal
ĠF ro
Ġminut e
risp ies
est nuts
og urt
Ġj ars
ra p
Ġshell s
ic es
Ġlay ers
Ġd ouble
Ġun greased
ĠP udding
Ġcorn meal
st yle
i o
ĠP ress
Ġtablespoon s
Ġ qu
lass es
ĠS weet
ĠD o
ul ar
Ġch estnuts
u ll
d ually
Ġc auliflower
i a
Ġb ut
Ġs ide
ow n
Ġapp roximately
Ġle ast
Ġchil ies
Ġc ereal
ĠT urn
Ġk id
Ġa m
ĠSt rawber
Ġt w
i v
f at
ĠK rispies
ĠS qu
Ġg ood
Ġstri ps
it z
Ġc ur
Ġa fter
ven ly
ĠF ry
Ġunco vered
ĠS o
Ġkid ney
i ra
re me
Ġt una
Ġd ay
ip e
Ġcran berries
Ġb asil
ub b
Ġcrumb led
Ġchun ks
Ġap ricot
Ġy ogurt
Ġk ern
ira cle
st ing
ct ed
ĠStrawber ry
ĠG r
ĠLe mon
ĠB anan
Ġtur key
Ġb ring
Ġmo lasses
ast ry
n ish
ĠF l
ver al
ee z
Ġunco oked
Ġslow ly
as co
ĠM iracle
ĠR itz
Ġdissol ved
Ġse veral
Ġd ip
i g
Ġh ash
Ġra sp
ee ts
v el
ĠF udge
Ġdire cted
p are
ĠBanan a
ĠT ab
Ġcr es
ĠF ill
ĠPot atoes
Ġbutter scotch
Ġc risp
Ġ2 4
ĠTh is
ĠC ra
Ġli ke
Ġb ubb
ĠS et
ĠTab asco
g ular
Ġsk in
Ġkern el
c ipe
Ġre move
Ġf ew
h ub
hub arb
Ġ raw
ser t
Ġh e
Ġh or
ad ish
en ter
ok e
sp ice
ĠSh ape
u gar
Ġcres cent
ĠA r
ĠE gg
ser adish
an ch
b s
Ġpec an
Ġan y
Ġp in
Ġs weetened
Ġn on
Ġse par
Ġb ou
t in
ill on
Ġall spice
Ġla st
ĠM eat
Ġjell y
Ġc enter
Ġe venly
ĠB eef
Ġbou illon
ent ly
as ta
Ġst al
Ġp astry
Ġpl ate
ĠBall s
Ġb its
Ġam ount
Ġcan ned
ĠC an
a uce
ap en
Ġco ffee
al apen
Ġhor seradish
Ġcar am
Ġb arbecue
m s
Ġw eed
Ġg rease
r ough
ĠP ineapple
Ġseason ed
ter s
Ġsal sa
ĠO n
Ġth rough
Ġbanan a
ĠSto re
ĠM ex
ĠR ed
Ġd own
ter n
Ġre gular
il d
Ġcon s
ĠW ith
Ġst ew
b l
Ġ ar
ro cess
Ġthe m
Ġp at
Ġtortilla s
Ġle aves
ĠL o
ĠM icrowave
Ġchill ed
Ġtub e
Ġk n
ĠPre pare
Ġp aste
ĠQu ick
cc as
a vor
ccas ion
m eat
Ġboil er
Ġco at
ĠYiel ds
ĠF reez
Ġo ccasion
us ts
avor ite
erb et
Ġp ress
t z
mer ican
Ġp art
Ġfreez e
Ġf ish
Ġoccasion ally
ĠD ressing
Ġr ind
uff y
ĠSal t
ĠY ou
ĠM ar
s o
Ġmini ature
Ġcr usts
p es
m es
Ġcream y
Ġj alapen
Ġcle an
ĠPe can
Ġst o
c orn
Ġcro ck
Ġtw o
Ġ quick
ĠM in
Ġuns weetened
ĠT ake
Ġd eep
ver y
Ġsal mon
Ġlon g
ĠA merican
Ġs m
ĠI f
Ġbox es
ĠSe ason
p ot
cent r
oth er
Ġfreez er
ĠG ar
les s
Ġth at
Ġbot h
Ġsh all
Ġsp eed
chin o
as chino
Ġfl aked
Ġ room
Ġco mp
ful s
1 5
m an
Ġ *
Ġcon centr
Ġch i
ĠPe el
ĠS ugar
Ġ Z
ĠPe pper
Ġmar aschino
a bout
ĠR anch
re at
Ġd ark
T el
am p
ĠMex ican
ĠBe ans
it os
Ġsp ray
Ġri pe
Ġch uck
Ġh igh
Ġbrown s
Ġto ast
Ġus ing
ess on
el ess
Ġblue berries
Ġapples auce
Ġgra pes
Ġsh erbet
Ġ4 25
ĠM ay
Ġgr an
ed ges
Ġcomp let
Ġcand y
Ġe very
Ġf old
ĠW esson
at ion
c ake
Ġpack ed
Ġk eep
Ġboil ed
en ne
Ġfl uffy
rea st
Ġwax ed
ĠV egetab
Ġconcentr ate
ĠO range
ĠSa usage
u er
ĠI ce
is ten
Ġlon ger
ĠB reak
ĠO re
ex t
y s
Ġp rocess
ĠS c
Ġsp ices
kra ut
vel op
uer kraut
Ġpick les
n ot
Ġle an
Ġcool ed
Ġchun k
Ġ4 50
an g
il ed
ta ch
Ġsqu are
ay enne
Ġg al
ĠW ash
Ġshall ow
on g
Ġf ull
ĠCo conut
Ġr hubarb
ĠN o
Ġen velop
Ġb unch
Ġbon eless
Ġcomplet ely
Ġc ayenne
Ġcream ed
Ġd ro
l ing
um in
ĠE ng
is tach
ĠB r
Ġco mes
Ġde g
sp ar
2 0
Ġsp ice
istach io
ĠG reen
Ġh as
Ġstal ks
Ġp er
Ġrasp berry
Ġp ar
Ġcorn bread
Ġf ried
Ġmay o
ĠM on
ĠD ream
ir t
Ġthin ly
Ġ im
w ich
ul ated
Ġcucumb er
ĠFreez e
ĠP ick
Ġr ings
ĠFor m
il ad
Ġd ri
Ġb ars
ĠP ound
Ġor der
er ries
Ġp asta
Ġcarro t
ĠH igh
ĠAr range
Ġb reast
Ġse al
ĠC on
ĠEng lish
Ġbubb ly
ĠM arin
Ġdo zen
Ġpo ppy
Ġe le
Ġpre tz
Ġbeat ing
Ġm old
Ġthicken ed
Ġb ite
Ġgran ulated
U p
i ous
un s
a ff
Ġcur ry
ĠD es
Ġm el
Ġf avorite
ut ed
and wich
ĠS our
ĠB ars
rain ed
Ġp op
1 4
ar y
y me
in es
ĠDes sert
Ġjalapen o
ĠCh erry
re es
Ġus ed
Ġgra pe
Ġn e
Ġth yme
ĠN ut
in ed
ĠLo af
ĠJell o
Ġ6 0
b all
Ġb erries
Ġal tern
Ġdeg rees
Ġneed ed
la z
Ġto ss
Ġso me
ĠVegetab le
Ġseed s
und t
or t
c y
Ġp izza
an y
Ġon ce
Ġp unch
b on
ĠTo ss
ĠW rap
spar ag
sparag us
Ġha ve
f t
ĠCr an
Ġan other
Ġgra vy
m edi
Ġp ound
medi ately
Ġar ound
Ġqu ar
p ick
or s
Ġ -
Ġm e
ĠCh eez
i ed
Ġco ars
Ġadd it
ct ric
ap ing
ĠWh iz
Ġse con
Ġto oth
Ġpick le
tin ue
ĠK n
Ġre cipe
ĠU n
Ġtooth pick
ĠA l
Ġbe en
Ġele ctric
ĠBe an
ĠP ork
ĠCran berry
Ġdro ps
a i
' t
Ġfl at
Ġfro sting
ĠSt uff
Ġa g
Ġb et
ĠC and
ĠP et
Ġlemon s
ĠB undt
o y
Ġenvelop e
Ġsh erry
Ġmar in
Ġsa uerkraut
ĠP at
ic ious
ĠD ump
st ic
i dd
Ġag ain
ou ld
ĠG ood
if e
ĠCh il
t ies
g el
ĠL ine
p en
Ġpla stic
Ġcho ice
c a
ĠK eep
ĠSt e
ĠGra dually
ĠB lue
st it
ĠPe ach
Ġpretz els
Ġd rop
p h
res erves
t y
Ġr ise
ĠRoll s
v o
ĠChil i
f l
Ġadd ing
i ve
ĠTh e
w h
Ġan gel
ĠGar nish
Ġchi ves
Ġcrab meat
ĠCr umb
ĠSqu ash
Ġfry ing
n ut
Ġto w
ĠT ater
b y
ĠB arbecue
ball s
Ġseasoning s
ot s
Ġmel ts
Ġpimento s
N o
Ġh erb
ĠH am
o ol
Ġp istachio
ĠT om
Ġwh ip
heat ed
Ġsh ape
Ġim mediately
k en
Ġkn ife
ĠCar ro
c ad
a me
Ġun d
Ġb eets
e g
ĠB iscuit
isten cy
Ġto o
Ġbro il
ĠP izza
Ġpl us
ĠOn ion
Ġcons istency
Ġal so
p eat
Ġsu b
vo cad
Ġr um
n er
Ġhe aping
aff in
Ġgra dually
Ġre lish
ĠMin ute
Ġpar affin
er man
ĠO ld
Ġsalt ed
ĠP umpkin
ĠP am
iz ed
ĠRed uce
c akes
il uted
bl er
Ġwh eat
ors els
ĠO r
la w
Ġm orsels
Ġp reserves
ĠJ ack
oll ow
Ġb ay
Ġsub stit
Ġ1 4
ĠSh rimp
ĠMar shmallow
Ġbro ken
ĠCr ust
ĠDel ight
Ġo ys
Ġco ated
Ġch eddar
co oked
ĠF ried
Ġmo is
v ing
unch y
in t
Ġ1 1
Ġb ar
ĠG erman
Ġg ently
all on
ĠZ ucchini
Ġle af
Ġpepper oni
ĠOre o
o me
ĠSp inach
. \
Ġ1 8
ĠC up
ĠM ash
Ġrefriger ated
e ts
Ġn ext
Ġpre heated
ĠA fter
Ġl en
Ġsto ve
p l
ĠH a
t ing
Ġpop corn
Ġa sparagus
ĠS up
im es
b bler
es ame
ĠA ng
Ġa vocad
Ġflavor ed
ĠBiscuit s
ĠCand y
Ġadd ed
a ce
le ts
ĠA pp
Ġ art
Ġtoast ed
l it
Ġcaram els
ol es
Ġheat ed
ĠC risp
ĠM uff
pping s
Ġhand s
ĠT ea
ĠCra b
f ree
ĠA cc
ĠR a
all op
h ey
Ġba ck
w ise
Ġdri ppings
ĠP h
am el
ĠF r
Ġnon fat
irt ight
ĠAcc ent
Ġa irtight
Ġg allon
bo iled
ĠC amp
ĠCo bbler
ĠAng el
Ġb rand
A ll
Ġst ore
Ġ quart
in y
ins e
iff y
ers hey
Ġday s
Ġroll ed
og s
ak ing
m ade
ĠCrumb le
Ġbe an
Ġo un
Ġaltern ately
Ġyol k
j oy
Ġb uns
ant e
Ġcho p
ĠCra ck
Ġl id
o ut
ĠH ershey
Ġsa ge
ĠT aco
n ess
Ġbag s
Ġc l
Ġw ee
ĠBrown ies
ic ante
Ġon ly
f or
ĠJ iffy
Ġcaram el
er i
Ġs esame
Ġre al
Ġd i
qu al
ĠCar amel
ĠCh e
iv id
b ell
Ġsepar ate
Ġpin to
ĠD iv
Ġteaspoon s
Ġ el
Ġthe y
ĠMuff ins
ĠK ool
Ġm ild
Ġt ightly
ĠA ll
t c
Ġ2 50
Ġc la
ĠRe peat
ĠO atmeal
Ġpie ce
Ġmuff ins
ĠFro sting
Ġsoup s
) ,
ĠC reme
Ġgar nish
ĠV eg
ĠRo ast
ĠF resh
pl ant
ĠG reat
laz e
Ġpat ties
m a
on s
ĠD or
Ġbot t
zz le
Ġcorn fl
g th
Ġb reak
ĠPick les
A id
th ing
b ow
ĠC abbage
Ġm ade
ion s
Ġturn ing
u k
ĠCamp bell
Ġlen gth
w e
ĠD e
d o
ĠHa mbur
ĠCr ush
in ner
Ġe tc
b its
Ġp icante
ĠSh ake
Ġf our
Ġp it
ĠYiel d
un can
ap le
Ġsecon ds
ĠSp ray
ĠDel icious
Ġt imes
ome made
f er
Ġart ich
ry e
Ġspoon fuls
Ġ rye
Ġsh ake
Ġcr unchy
Ġform s
Ġ ic
Ġ edges
Ġw rap
mo st
ph ia
el phia
ilad elphia
ĠSte ak
ĠSt ew
Ġra ck
er ing
ol id
Ġwh is
ĠP an
Ġc umin
ĠK ra
Ġst age
Ġg i
Ġt ap
Ġserv ed
Ġpe ars
ĠPh iladelphia
in i
Ġsl i
Ġprocess or
Ġs andwich
i al
f ast
ĠCorn bread
Ġic ing
Ġcub e
Ġbe er
Ġsubstit ute
ip ton
Ġres erv
Ġfry er
ĠM acaroni
Ġe at
ĠP art
Ġap art
Ġbe g
Ġg rain
ĠD uncan
Ġsm oke
ĠSup reme
ĠD ot
ĠDor itos
Ġfirm ly
Ġaddit ional
Ġth ree
ĠCh ip
l u
a h
ĠD i
ĠL ipton
Ġo kra
Ġsepar ated
io ca
Ġst yle
ering ue
a il
Ġb r
Ġof ten
Ġmin t
ter ey
Ġju ices
Ġcorn ed
ĠH ines
Ġchunk y
Ġhambur g
Ġn o
mer ic
ĠWh ile
Ġroll ing
Ġre mo
Ġw ash
Ġsk im
ĠF arm
Ġal most
Ġtur meric
Ġquar ter
ĠV al
Ġsa ute
Ġcle ar
i ble
Ġpick ling
we en
Ġst ill
Ġsh ould
ĠMon terey
Ġel bow
ĠSqu ares
Ġf il
Ġ \
ut ons
Ġhe arts
Ġlar d
al or
Ġbet ween
ĠHambur ger
Ġblue berry
o la
Ġsli vered
Ġcand ied
Ġlength wise
w ay
Ġl ess
Ġtap ioca
f lavor
ĠVal ley
Ġm aple
g s
Ġgr ill
n y
e gg
st ick
ĠBlue berry
Ġba by
Ġt id
Ġcoars ely
Ġwh ich
ĠT una
co op
l ings
ĠKn ead
ĠM ushroom
Ġthicken s
Ġcro utons
us s
Ġh oles
k et
Ġstew ed
ĠCo ffee
ĠW ill
Ġ '
ing ers
Ġd issolve
Ġevery thing
a pp
i ally
ĠM e
ĠM ilk
Ġbott les
Ġcornfl akes
ou l
id ge
ĠPart y
Ġtid bits
c ing
s ize
Ġgi ven
Ġsh eets
Ġd ogs
Ġs q
ĠTom ato
bl ong
Ġ "
Ġw edges
Ġskin less
ĠBr ush
ĠG rand
Ġw ork
ic ot
idd en
ut h
y re
ĠH omemade
Ġsu re
ash ion
flavor ed
yre x
Ġo blong
Ġ &
Ġwee ks
ĠChop s
Ġd rink
Ġcrumb ly
an ish
ĠC ro
ĠH idden
Ġsto ck
d e
ĠC ustard
Ġbroil er
ĠB est
ĠStuff ed
f ten
Ġw ings
ien to
ĠMarin ate
ur ing
Ġegg plant
om me
ĠWh ite
Ġri bs
ĠKra ft
Ġtop s
Ġ5 5
ĠP o
ĠRe cipe
Ġmo der
ĠSo ften
n ation
Ġpo pped
1 3
ĠT w
ĠFro st
ĠPepper idge
ĠP yrex
Ġsu r
ĠFro zen
Ġg laze
ĠS m
Ġfil lets
Ġpim iento
Ġt ins
fri ed
us e
Ġcons omme
Ġt ake
Ġp ure
ĠCh ris
Ġwith out
Ġqu arts
Ġcontain ers
ĠSo ak
in ese
Ġin st
ir on
f ro
ĠDiv ide
ĠT ots
ĠCar nation
Ġcla ms
t m
ĠT ur
umin um
ĠCarro t
Ġbo ard
ĠSp aghetti
Ġch e
as ure
ĠSto ve
ĠSc allop
ĠCon tinue
ew arm
uk ewarm
ĠEgg s
C h
ĠSl ow
ĠCh inese
Ġw ant
h ead
ĠS law
Ġal uminum
Ġcon tinue
ĠL ow
Ġb est
ĠBreak fast
am s
icot ta
s mall
or m
Ġm akes
Ġrasp berries
Ġl ukewarm
ĠCream y
ag na
ĠT ang
Ġf ollow
ĠBro il
Ġinch es
Ġf udge
Ġl im
Ġteaspoon fuls
ĠFr itos
ĠD ish
ach o
Ġtow el
ĠJ ust
Ġp ies
ĠS k
Ġt ri
t ry
in a
ien ers
ĠButter milk
u ch
ĠD ough
ĠO ven
aw ai
ĠAll ow
Ġmoder ate
Ġste ms
or ed
Ġg et
Ġsc all
awai ian
ĠRa is
inch es
at ch
ut ch
ĠD ri
ge al
ĠP op
ĠH awaiian
Ġk ind
ĠR icotta
Ġf re
Ġc utter
ĠW ater
Ġsur f
Ġd el
ous ly
ĠChris tm
ra g
ĠC akes
Ġb ark
Ġin ser
Ġmeat balls
ĠCo at
al ted
oul try
ĠGr ill
Ġinser ted
to ver
Ġm eringue
ĠSal mon
d ry
Ġex cess
qu ently
ĠSt yle
Ġfre quently
w ith
Ġme in
Ġlo aves
Ġoys ter
Ġred uce
wee ten
n ing
Ġun der
ĠSp anish
Ġbrand y
1 1
ĠI cing
f tover
ic y
ĠChristm as
Ġsurf ace
na ck
Ġall ow
ĠSlow ly
Ġp ink
Ġp oultry
ĠV anilla
Ġj am
Ġkn ead
Ġsu n
c r
ĠD utch
Ġre fried
pe el
Ġd on
Ġfresh ly
Ġwal nut
Ġco mb
Ġcar e
m ary
ĠH oney
ood le
ĠApp les
rag on
Ġspray ed
ĠCrack er
ĠB a
ar ragon
Ġpart y
ec or
j on
ai ry
ĠP ack
Ġund rained
Ġund iluted
Ġapricot s
Ġgelat ine
Ġquarter ed
Ġhal ved
Ġsugar s
ĠS andwich
Ġbon ed
Ġcoars e
od ka
ĠS n
Ġb one
et iz
Ġquick ly
Ġscall ions
et urn
ĠR eturn
ĠC ucumb
Ġro se
Ġcrumb le
Ġseed less
Ġoun ce
Ġchil es
eez e
ĠH ash
ss ible
en er
ĠDri zzle
Ġ iron
Ġb lo
Ġl ined
ant ro
il antro
Ġl is
peel ed
o am
ĠE n
ct ar
ĠRais in
ĠD ill
Ġt arragon
ĠS eal
ff le
ĠDi jon
ĠScallop ed
u al
Ġb ig
n o
ing le
Ġl it
Ġcare ful
ĠCr unch
ash ew
Ġquar ters
er m
cess ary
ed ge
ĠCro ck
m y
op le
Ġc ilantro
Ġp arts
Ġfl ower
Ġne cessary
Ġa head
Ġlis ted
4 6
ĠCh ex
Ġt bsp
ab le
f lower
Ġs weeten
Ġv odka
Ġbeg ins
Ġb ul
al s
Ġs it
ĠJ o
Ġw ieners
Ġrose mary
ĠTh aw
ĠTo ast
ĠR el
Ġavocad o
e ar
s ide
il y
a ges
ĠPan cakes
Ġpe ak
Ġthick ness
un t
lo in
Ġpart ially
ch o
ĠR uss
ĠT ex
co ok
is t
Ġmeat s
Ġmarin ate
ĠC innamon
Ġe qual
ĠRel ish
ĠT ri
ĠH ell
idd le
ĠM andarin
b u
our bon
Ġle ftover
ĠGr ate
ak er
Ġmois t
Ġc alor
Ġsp lit
Ġsteak s
Ġsc al
Ġw ood
Ġd inner
Ġs coop
Ġsp rink
ĠGar lic
Ġtow els
Ġsm oked
Ġuns alted
Ġmarin ade
Ġin d
ount ry
er e
Ġl ite
ro uts
ĠS eed
Ġla s
Ġs ingle
ĠL ea
Ġbet ter
Ġavocad os
ĠSe par
Ġcl ub
ashion ed
ĠTur key
ĠCh ess
m int
Ġun flavored
ĠR hubarb
ĠCarro ts
eat en
ĠU s
Ġt in
Ġlim a
ĠP asta
ĠO ne
Ġsun flower
Ġch ow
Ġal um
ĠMeat balls
ĠN ext
ĠGrand ma
Ġfruit s
Ġm iddle
Ġblo ck
ee ps
Ġnon stick
bu ry
Ġchi pped
bo ve
ris ket
Ġv egg
Ġa bove
Ġne ctar
ĠY um
Ġo pen
Ġartich oke
ĠR inse
om iny
Ġpin t
Ġwhis k
es es
Ġp ul
at h
Ġf oam
ĠB lack
Ġen joy
Ġw ire
ĠRuss ian
i pped
Ġoys ters
ĠC a
ĠL ightly
d ish
Ġr inse
Ġskin ned
Ġwood en
Ġpan cake
ich e
Ġw ild
ĠM om
app roximately
ĠSepar ate
as ter
ĠL ime
ec ial
t e
u ice
Ġwaf er
ĠFl our
Ġaddit ion
Ġpre fer
ĠP r
c ans
olid ay
ĠV ery
Ġbul k
is on
Ġc ashew
f resh
ĠB ur
Ġb urn
ĠEn joy
Ġde v
ĠTex as
ĠUs ing
Ġste am
Ġpe ople
ĠSp iced
man n
ĠW al
Ġwash ed
Ġglass es
Ġsp routs
i er
ĠGr ind
Ġche eses
Ġgreen s
Ġsweeten er
Ġo wn
ĠCheese cake
Ġreserv ed
ĠDump lings
ĠBa con
Ġm aking
Ġcut ting
ĠSo uth
ivid ed
ill s
th s
s ave
Ġm uch
en ison
Ġc ap
it y
me ter
co ver
Ġsp ring
Ġen d
ĠP uff
ĠM old
Ġg reat
Ġpl atter
Ġg ener
Ġpeak s
Ġn acho
ĠN e
ag ne
Ġp r
e ars
ĠD ate
ĠSp lit
Ġpul p
ĠOre os
ilad a
ĠMarin ated
Ġ edge
ar ge
laz ed
ĠB atter
f ish
Ġpit ted
Ġvegg ies
an k
ĠHeat h
ĠC ol
Ġd ivided
Ġpepper mint
o f
Ġgr its
Ġcolor ed
Ġdes sert
ĠL a
Ġh old
Ġsof ten
ills bury
Ġremain der
Ġsecon d
Ġscal ded
ĠO f
Ġd ot
Ġsa me
Ġmois tened
ĠD ice
ĠB ran
en ts
Ġst arts
ĠA p
ĠGra vy
ĠD on
urp le
ĠCucumb er
Ġle vel
bon ed
ĠHell mann
Ġt ray
c up
es y
Ġind ivid
at ing
or b
ĠFl ake
Ġb ourbon
rea ch
Ġr ing
Ġfro st
Ġbubb les
P ot
ver s
Ġin c
ĠB ar
Ġs n
Ġbrown ie
ĠP illsbury
Ġle ave
Ġde boned
un cooked
Ġse ctions
ie t
Ġstal k
ĠPo ppy
Ġar range
T h
Ġdo z
m ay
ĠUn cover
Ġb it
Ġa bs
Ġun peeled
ett uc
ĠTom atoes
Ġpure e
a dd
ĠF ish
Ġseed ed
f ruit
Ġbr ush
ĠLea ve
Ġst art
ĠSp ecial
und rained
ing u
Ġcoat ing
Ġoun ces
ĠGra pe
Ġremo ving
bo x
Ġb as
ĠChe esy
ĠF avorite
Ġth ese
Ġlas agna
a v
or ted
Ġlit er
th y
r u
Ġ2 75
ok es
Ġdissol ves
Ġit s
aw ay
Ġroast ing
Ġc akes
ĠP u
Ġroast ed
ĠR om
Ġas s
Ġt iny
Ġf ran
Ġbunch es
ĠAp ricot
ou se
Ġsalt ine
Ġy ams
ĠR es
Ġc ustard
p le
ĠQu iche
ĠCo cktail
ĠT r
Ġabs orb
Ġsh ap
Ġflat ten
al ade
ĠC l
Ġra dish
Ġcook er
Ġbon es
Ġcream er
Ġjalapen os
ro of
Ġ reach
in al
Ġd uring
o e
ĠW ork
Ġcar away
dd le
Ġth an
ĠSh red
p tional
Ġpound s
ĠC auliflower
lu a
ah lua
Ġpe ar
1 8
Ġbe co
m m
b as
Ġp urple
ou ch
Ġh ominy
Ġbeat er
ĠAl tern
l and
Ġc ir
ĠCook ie
Ġround ed
o ck
Ġf ive
Ġw ide
orm el
Ġl ine
ĠC al
ri ddle
ĠE qual
F at
ĠI r
f ry
ĠB en
ĠA unt
ĠP ea
gh t
Ġartich okes
Ġs ter
ou ffle
Ġen ch
t urn
und iluted
Ġcomb ined
Ġp ort
Ġsa ve
Ġflower ets
ĠP ro
ĠWh eat
a ving
ĠAr t
Ġe asy
ĠS nack
Ġcand ies
Ġb risket
ĠH ormel
Ġass orted
Ġfl ake
Ġst ack
isc ard
Ġcareful ly
b one
ĠK eeps
Ġtoothpick s
ĠSouth ern
Ġf ri
c ut
ĠFl at
ĠBr ittle
ĠB o
ĠSal sa
ĠH oliday
ĠUn cle
Ġreserv ing
Ġremo ved
ĠBe fore
Ġlo ok
h igh
t al
sp berry
Ġco me
ĠO ver
ĠG ran
Ġg riddle
mon d
Ġflavor s
ĠGra ham
ĠRes erve
am ily
ĠSa ve
ĠSe ven
! !
Ġre ct
ex cept
ĠG olden
Ġal ong
Ġf ire
ĠSp r
Ġle aving
ĠIr ish
Ġcur d
l arge
Ġwhis key
ut eed
ar eri
Ġr ins
ĠApp etiz
Ġfoam y
ĠArt ich
Ġcon geal
Ġso ak
Ġen ding
Ġspoon ful
ĠK ahlua
Ġradish es
Ġench ilada
Ġre turn
Ġr un
Ġindivid ual
ĠFlat ten
Ġsp ri
Ġl ump
Ġc ored
Ġcalor ies
Ġg o
ĠH ave
Ġinst ru
areri bs
ĠP ies
Ġsk ins
Ġch ip
ar ter
iel bas
pen ding
u g
es tle
ĠD inner
Ġdel icious
Ġrins ed
Ġcashew s
ĠJ am
Ġs olid
ĠI s
ĠCo coa
Ġfollow ing
ecor ate
er mo
Ġdri zzle
L e
Ġin side
ĠMushroom s
Ġp ers
Ġw ay
Ġres erve
Ġfin ish
Ġc reme
ĠN oodles
i k
r ise
Ġlime ade
Ġmar m
ĠArtich oke
Ġmarm alade
on d
Ġover b
ĠN ot
ĠFr it
M akes
ĠM a
Ġt ight
Ġgrape fruit
wh ite
Ġdi pping
Ġst ring
ĠPop corn
j or
ĠG o
ĠF ood
la y
ĠButter scotch
Ġ3 2
Ġpo int
g ers
ĠS urp
y e
la in
Ġl ingu
ĠRom ano
i b
ĠCup s
Ġm on
l ow
Ġsandwich es
Ġket tle
Ġpack et
Ġpr un
le an
ĠG inger
ĠN estle
asil y
ĠC at
Ġa c
ĠP er
oup le
Ġtw ice
uc ed
m ix
ĠR ub
ĠPre tz
ĠMe asure
Le mon
ĠPuff s
ad y
m mer
p roof
and er
ĠSt ick
ĠPick led
en ough
Ġe asily
li me
m ar
Ġs ized
Ġb ran
id al
Ġhard en
Ġc ouple
ĠD irt
ĠC re
ĠN oodle
ĠAltern ate
ĠH e
Ġpo ssible
ĠP istachio
ĠFill ing
ĠG ently
ĠFl uff
lu ding
ĠSpr ite
3 2
d ge
ĠN ew
ĠG lazed
ig s
Ġpin ts
ĠDe v
ĠSk illet
Ġw et
Ġboil s
Ġinstru ctions
idal ia
ĠSurp rise
arbec u
ĠTw ink
ak i
fro zen
Ġo ptional
Ġd ump
ith er
Ġsp ears
Ġh ole
Ġv enison
Ġ3 6
ĠIce box
Ġster il
d airy
Ġf ingers
jor am
Ġoil ed
al f
ĠR am
ĠS ouffle
ĠA sparagus
ig inal
ielbas a
r s
Ġmar joram
orn ing
Ġa way
ĠP rocess
Ġspread ing
d a
Ġsteril ized
Ġt ouch
ĠL as
ĠO ys
Ġshap es
2 1
amp agne
Ġ +
mp ty
ĠSt rain
ĠRam en
Ġt y
Ġt all
ĠCh ow
Ġinst ead
S erves
ĠPat ties
Ġhot s
ĠRa spberry
ĠSandwich es
Ġround s
pp ies
ven t
ĠC ountry
cr umb
ĠCo ke
ir l
Ġf ettuc
Ġsa uteed
ĠSa uerkraut
ĠApples auce
Ġri ght
y aki
ĠCol by
j un
ĠA n
ĠCrack ers
Ġcup cake
ĠRe a
Ġn ight
ĠF in
z o
Ġmo isten
Ġteaspoon ful
Ġme asure
Ġk ra
ĠE x
Ġtor n
ir loin
ĠV idalia
eri yaki
ĠF ail
Ġpre vent
Ġprun es
Ġp uff
u la
res erve
ou b
ĠH ea
Ġsc allop
d rained
u ac
Ġstiff ly
am ole
Ġred uced
ast ing
Ġkra ut
uac amole
l ined
ĠM ill
ĠMay onnaise
u pper
ab et
Ġcl oth
arbecu ed
C o
z y
ĠB aking
an ge
ĠRefriger ator
Ġstuff ed
ĠAl mond
af e
Ġbeg in
ĠRea Lemon
2 8
ĠO il
Ġw ra
ĠP l
th e
um mer
ift ed
ĠC la
Ġsalt ines
ĠSp icy
ĠButter f
Ġme as
ĠW ings
ans fer
Ġsqu eeze
ĠSh oe
Ġmo st
ĠMon key
ro ss
ĠPe cans
ĠGran ny
ĠPe g
Ġherb s
ra mb
ĠMarin ade
mo re
wh ile
Ġdo es
Ġty pe
s ugar
Ġd oub
ĠP inch
o x
ĠS ea
ĠNe ver
ĠM rs
ĠCa jun
Ġf amily
ĠS ummer
lic ed
ĠTh ese
B ake
g ate
Ġdev il
Ġspri gs
ĠM ustard
Ġcan ning
Ġp ull
y our
iss es
Ġnon dairy
ĠSte am
ĠP ol
Ġth ermo
Ġhand le
Ġp armesan
ĠCo le
ĠF ir
ĠN uts
ĠSn ick
Ġ ent
ĠH erb
oun ts
ĠAl so
Ġblen ding
Ġg erm
ĠD ay
ĠH ouse
Ġw on
Ġd ice
Ġdish es
Ġfri dge
or r
Ġ4 8
ed ish
Ġs law
Ġs irloin
Ġ1 7
Ġp ower
Ġg um
re t
Ġen ds
u res
al ina
ĠB ay
Ġenvelop es
eri os
ĠSn ow
U ps
m edium
ĠB l
ĠWater gate
Ġp od
ĠC lean
ĠP ink
ĠCh ew
qu e
ĠSl ush
ĠO ri
Ġthermo meter
Ġb l
u x
d en
h ot
Ġor iginal
oup e
lo ppy
ey ed
Ġblack berries
cho pped
est y
Ġunb eaten
or y
ĠN or
Ġcrisp y
d ough
Ġv eal
ĠKn orr
Ġm orning
Ġsp areribs
Ġstick y
b utter
Ġcan ola
ĠF ashioned
p lain
ĠSqu eeze
ĠC ur
ĠMix ture
Ġde pending
ĠCat alina
Ġover cook
ĠChe erios
ĠD eep
Ġco re
ett es
ĠKn ox
3 0
ĠT ear
ĠCon geal
Ġabsorb ed
ĠMill ion
ĠM an
ĠJell y
ĠSw edish
abet ic
ĠB arbecued
ĠT or
Ġro aster
al e
ch er
el on
Ġent ire
Ġo ld
ss e
Ġdi pped
Ġpan cakes
ĠI mp
ĠTri m
ĠPu ppies
s afe
ĠC ub
Ġn ew
ĠNot e
Ġb asting
ĠSh ort
Ġf ree
Ġcan tal
Ġr ese
Ġse c
Ġbeco mes
Ġ1 00
Ġbrown ies
Ġlo in
ĠD ouble
Ġfro thy
if orn
Ġdash es
ux e
iforn ia
ĠOys ter
ĠB aste
Ġst rain
ĠSeason s
Ġ2 00
Ġth ir
ĠH ush
ag u
Ġdoub led
C ola
ĠSt art
ĠRe ady
Ġscallop s
Ġd og
ĠS loppy
ra pe
Ġliqu e
Ġreach es
ĠIs land
us ages
ush y
ĠE at
ĠE nch
s ized
Ġf it
Ġsu p
ore ts
Ġd iscard
Ġshor t
Ġhand ful
ĠOnion s
crumb s
ĠCo ca
Ġclean ed
F ree
Ġam ounts
ĠT ender
Ġpack ets
Ġpack ages
Ġsc ant
ĠCal ifornia
! )
Ġst r
Ġk ielbasa
j uice
Ġcarton s
ĠHea venly
Ġl ater
Ġpec tin
an ce
Ġsp at
ĠSea f
ro ll
ĠT ot
Ġro t
ĠC ot
ct ive
Ġwee k
Ġoverb ake
m ent
Ġd airy
ĠS erv
ĠTor tilla
i w
Ġfl orets
ĠGrill ed
s elf
ĠB eets
o z
Ġp ro
ĠM c
Ġsqu eez
ĠTwink ies
Ġf igs
ĠW atch
ĠR agu
ĠW arm
Ġnut meat
m it
ry st
um ps
C an
Ġd iet
Ġmeas uring
am a
ĠFir st
o ssible
Ġs ix
ĠPepper s
Ġspat ula
Ġm any
Ġf a
Ġpl um
Ġnutmeat s
r ound
ou sse
ĠP lay
ĠZ esty
Ġcantal oupe
Ġlique ur
ĠT ort
b eaten
ĠWh is
ang le
Ġe ither
S t
pper s
ĠLemon ade
ĠFrit ters
re l
Ġw ish
Ġw ould
Ġhalf way
en d
ur k
ĠL i
ĠJ uice
ig or
g in
re w
ĠImp ossible
Ġbread crumbs
aw ry
Ġfry pan
Ġv igor
gh orn
Ġsepar ately
F or
ett y
Ġrese mb
ell ent
at ur
al d
Ġpepper corn
ĠG laze
it ch
wh ole
Ġstr ong
ĠS yrup
bo il
ĠPr al
Ġvigor ously
c ellent
Ġv ar
ick ory
Ġlb s
Ġb eet
ĠB owl
ĠH o
Ġbowl s
Ġpre pare
ang o
h e
m ents
ĠCot tage
urk ee
iw i
f ur
Ġp ats
Ġd ia
ĠS coop
ĠL on
ĠGr ound
b aked
et ter
Ġra b
ĠTo pping
ĠLayer ed
Ġde bone
iff er
Ġpar ed
Ġs w
un k
im ple
Ġsprink led
ĠCla m
I f
ĠS ec
ĠO pen
lo ss
Ġlo ve
ĠA s
Ġsa usages
Ġn oodle
ĠL awry
1 7
d on
ent al
ag on
Ġgener ously
Ġcro ss
k fur
ĠC ider
Ġe ven
Ġpretz el
Ġn ice
Ġre peat
ĠStuff ing
Ġlo g
m elon
ĠSp ice
ĠW af
ĠSt ro
uk es
Ġwork s
) ;
ĠT ime
ĠO li
ul ly
Ġuns ifted
ĠCh owder
ĠQu ik
ĠTr ansfer
ce meat
N uts
ĠB etty
am i
Ġshell ed
ĠPretz el
ĠD urkee
ast es
ĠLas agna
ĠLon ghorn
j ust
Ġhead s
ĠVegetab les
ang les
Ġpimiento s
ĠJo es
en n
Ġl ink
la ir
ĠCo mp
ĠEgg plant
Ġl umps
ĠM il
Ġse af
Ġstick ing
Ġseaf ood
ĠB on
ten der
Ġsqueez ed
Ġsu mmer
ĠB as
Ġle ft
Ġpit cher
ĠPe ar
Ch eese
t ures
Ġg ets
ĠButterf inger
r ant
us ters
ĠD oll
Ġan ise
fro st
mm ed
e ms
g ano
u ds
Ġg one
red ge
Ġlar ger
igh s
ĠMon de
p re
ĠB reasts
ĠCongeal ed
Ġw or
ĠB aker
Ġclo s
Ġne ar
bs ter
Ġb ath
Ġlo os
Ġstri p
b ro
c ream
Ġb ur
Ġf ast
ĠU ps
Ġfran kfur
Ġcla m
ĠAppetiz er
iffer ent
Ġch ampagne
ĠCand ied
ĠCrisp ix
ĠP ar
ĠM eringue
ĠE c
ĠDev iled
Ġa ctive
ther n
ĠIn stant
ĠD ash
ĠF ran
im mon
ĠCub e
gano ff
ĠS un
ĠM y
Ġs nack
ip lo
Ġcut lets
Ġbubb ling
ĠWal nut
Ġport ions
Ġf ully
ĠP in
Ġro ot
re n
Ġto pped
ro ps
Ġk iwi
reg ular
Ġinc luding
ĠC elery
la sh
Ġmix tures
Ġmon ths
Ġgr ate
iplo c
Ġli ver
Ġo uts
ĠD ecorate
alor ie
M icrowave
t i
Ġt ips
en ess
Ġse ction
umb o
ph ant
Ġgener ous
Ġpeppercorn s
ri e
a ct
Ġaltern ating
Ġsn ipped
Th is
ĠBe er
Ġmold s
for m
R oni
Ġt est
Ġcol ander
ĠSc ald
ĠL ight
Ġcir cle
ĠEc lair
Ġcr ush
ĠO kra
ĠE mpty
Ġsubstit uted
Ġc ukes
ĠF at
Ġe ars
edd ing
Ġstart ing
ĠStro ganoff
A dd
b e
Ġf la
Ġth ighs
ell ini
ĠR um
ĠL ast
pe cans
Ġc ountry
as s
ĠE l
ĠCream ed
Ġtopping s
Ġcur rant
Ġcap s
ĠCre ole
ĠSeaf ood
re ats
Ġla mb
ĠMo ck
ĠWhis k
ĠMil not
ĠUps ide
Ġt am
ĠB etter
ĠP owder
Ġflavoring s
ĠZ iploc
Ġcomb in
ĠF ollow
Ġpod s
ĠDel uxe
ĠMex ic
ĠSm ith
Ġouts ide
o sh
v ol
Ġo mit
Ġh ock
ell i
ĠL ower
ĠMo lasses
Ġdro pped
in z
ĠS ar
ate ver
Ġoven proof
Ġlingu ine
ĠOri ental
Ġdia meter
Ġdump lings
ĠNor thern
Ġw orcestershire
ĠC old
ĠMin i
Ġdon eness
p id
ĠB ea
ĠD ogs
Ġblack berry
Ġmel on
Ġsprink les
ĠBur gers
Ġdev iled
itch en
M ay
Ġsu it
Ġresemb les
et al
ound s
ĠSup er
Ġp ine
ĠP ull
ver age
Ġr ich
ĠV egg
Ġsec ure
Ġcross wise
Ġp oke
ast y
ĠSh ell
Ġaltern ate
Ġf inger
Ġchicken s
ĠPe as
Ġs ee
Ġd ust
Ġd ecor
Ġpers on
es ts
ĠS mooth
ol og
Ġh ickory
Ġa d
ĠW edding
ĠH un
ĠTh oroughly
vol one
olog na
Ġst arch
ĠY ogurt
ĠMash ed
Ġcir c
Ġl g
Ġth read
Ġlow er
Ġbl anch
f ort
Ġco la
mb o
ĠSh erbet
ĠR eese
ĠCorn ed
Ġfrankfur ters
Ġ #
Ġm ango
it ation
ĠM ed
ĠBeat ers
so ft
Ġsn ow
Ġr is
al es
ĠM iss
Ġsmall er
acar oon
ĠPol ish
ĠTort e
2 4
Ġfran ks
ĠA mb
Ġra pid
li ke
Ġdi agon
ĠM eal
ro s
Ġsp icy
ĠFreez es
ĠR ich
ĠK ey
in ity
ĠS oda
ĠCr unchy
Ġste m
Ġbreak fast
ĠServ ings
h y
ĠW ine
Ġtender loin
Ġmo zzarella
ĠHe inz
Ġn a
Ġde er
h alf
ĠD ry
ĠH ar
Ġm ed
ol i
ĠT reats
tin i
atur al
Ġd iv
Ġliquid s
ous and
ilad as
Ġscoop s
D own
m elt
ĠK id
fe ct
ĠPro volone
e ta
el ve
ak y
Ġl ots
if ic
ĠBoil ed
Ġturn s
m ild
ĠRoast ed
r ated
at in
Ġr ub
Ġcrack ed
Ġsup reme
D o
Y ou
ĠT est
Ġit ems
Ġbott led
ĠOli ve
an ese
ub ble
ĠP astry
ĠR ot
Ġco als
ĠDiv inity
Ġblanch ed
in stant
Ġb un
Ġfl ank
Ġcon tin
Ġde ve
ĠFreez er
ĠYum my
Ġri b
Ġcornfl ake
s ic
ĠM other
ĠM ag
ĠMar y
J ell
L ow
b a
Ġwater melon
ĠTh ousand
osh er
Ġdiv ide
Ġd ifferent
Ġsal ami
Ġl in
Ġpress ed
w are
al t
ab ly
vor y
Ġim itation
r it
Ġh en
Ġst ored
ĠK isses
ĠCrisp y
ĠChe ck
orm ick
ir gin
C ormick
ic al
Ġon es
ĠTh ree
ĠCrab meat
er d
Ġ2 3
ĠP ark
ver t
Ġthe ir
ĠD rink
ĠW aff
ĠG ou
Ġwa ffle
ĠTo ffee
Ġpit a
Ġm ace
Ġd is
Ġro tini
Ġac ross
Ġc uts
Ġwh atever
ĠR i
it es
ĠJ alapen
e els
ĠT arts
Ġk e
ĠSh eet
ĠMe an
ond ue
ĠS und
Ġbrown ing
ĠI m
Ġro ma
Ġset ting
Ġc ryst
an gular
Ġg uacamole
ĠM ama
ĠT e
ĠY ellow
ĠY east
ĠDi abetic
ros ia
d y
Ġg loss
Ġh ow
ĠW e
Ġbar ley
Ġcalor ie
u les
ĠL ou
ĠI nd
Ġfill ed
Ġus ually
ĠAmb rosia
ĠMean while
i um
Ġbutter nut
Ġcool s
Ġke pt
Ġt ill
ĠC res
Ġgr ind
? ?
ick el
Ġcool ing
Ġcover ing
il ute
ĠS imple
Ġle gs
ĠTh ey
ĠIm mediately
g reen
p lace
Ġ X
Ġt eriyaki
Ġfla me
Ġn atural
Ġli vers
ful ly
Ġport ion
b an
an cy
eat h
way s
Ġtam ales
Ġroma ine
l ight
Ġm etal
ie ve
ap anese
Ġfollow s
ĠA t
ĠF ive
ĠDoll ar
C r
f u
Ġgran ules
ĠCl usters
Ġd iluted
ĠM el
ĠD og
b ur
f in
z ola
Ġb erry
Ġh ollow
Ġfl o
ĠA u
Ġmin cemeat
Ġse ts
Ġlook s
Ġd amp
til s
ĠTw o
2 9
Ġprocess ed
ĠBea u
Ġ2 8
Ġgallon s
Ġrect angular
Ġna vy
c l
to gether
Ġtab le
ĠSo ft
Ġcombin ation
r um
ĠS ure
ĠBas ic
ĠV inegar
Ġb la
ach os
ran spar
uss els
ĠEnch iladas
melt ed
3 50
I t
ĠRo ck
Ġcutter s
ranspar ent
Ġt r
ĠSp am
Ġpla ced
ark ling
ĠMc Cormick
ĠJalapen o
e an
h n
ĠB or
ump ern
Ġbas e
Ġloos ely
Ġm an
ĠC are
ĠA bout
ta ins
ĠVegg ie
i gg
Ġt ex
ĠN ow
r on
ĠL og
ĠN acho
ĠCup cakes
ĠStick s
Ġcirc les
umpern ickel
t ty
er to
iz er
Ġpat ty
Ġpress ure
Ġleftover s
b el
n og
ĠS and
Ġchil e
Ġlen tils
Ġprefer red
ĠMag ic
a ved
ĠJ apanese
he aping
c ine
Ġb ologna
Ġm ust
Ġf all
ĠC lo
ĠM or
ĠM edium
ĠAppetiz ers
Ġtex ture
d or
o ey
ĠP oke
Ġh el
ow ers
ĠF eta
ĠBrown ie
Ġput ting
ar ian
ĠE ver
Ġfour ths
Ġbas ket
Ġlink s
ĠR ing
ĠD ried
Ġse g
Ġso aked
c ts
Ġc or
ee k
Ġbe ing
Ġgar den
Ġan cho
Ġdes ire
Ġz est
und y
Ġtri mmed
F ashioned
Ġsu ch
Ġl unch
Ġsa ving
Ġslic ing
Ġlid s
Ġburn er
ĠWaff les
g undy
Ġt ransparent
ĠC erto
un n
Ġsh o
ĠW a
ĠFl uffy
ok ies
Ġ4 6
ĠCh ips
ic o
ĠS ue
ill y
Ġapp etiz
Ġchil d
Ġ7 0
Ġart ific
ĠPu ppy
ĠC ap
ĠW ild
Ġal together
ĠLa zy
ĠMexic orn
f le
Ġc re
un til
ĠA m
ĠV enison
ĠTh in
ĠJo hn
U se
x x
ut ney
ĠB y
Ġso on
ĠE ar
rop ical
Ġshall ots
in o
Ġd ecorate
ĠS ch
ĠB uck
eal thy
m old
y l
ĠP ure
Ġele phant
ĠPral ines
on ge
it a
an ts
as e
as sa
ĠT art
Ġpour ing
Ġtender izer
ĠCho pped
Ġsimmer ing
ĠEx cellent
Ġseg ments
i pp
Ġlo gs
Ġcap ers
Ġrect angle
Ġlump y
elve t
Ġb atch
ac c
ĠCare fully
dor f
p er
s liced
ol ly
can ned
Ġkern els
ĠBr ussels
Ġth ere
mb er
Ġartific ial
g o
in der
Ġm icrow
Ġpe a
ĠD ust
Ġsteam ed
ĠWal dorf
ĠF lavor
ur ch
hy d
f ingers
na ps
ĠJ ul
Ġpers immon
Ġdeve ined
Ġl ot
ĠCo la
Ġsh akes
Ġbar ely
stick s
y ou
Ġh omemade
ell o
od ium
ĠB ac
Ġsp ir
ĠCrock er
Ġthir ds
R ice
Ġc ount
Ġg umbo
ir d
Ġpl ates
ĠMon te
Ġmarin ated
ĠKra ut
ĠTur tle
Ġm y
Ġw e
ĠC ow
st rawber
ĠQuick ly
cr ushed
Ġc at
am ic
Ġlo ose
Ġb ed
Ġb aste
ĠM ud
ie ty
Ġtablespoon fuls
Ġtri angles
ĠPr ick
ĠPure e
p ack
Ġg re
Ġingredien t
Ġpkg s
Ġwarm ed
ĠSk or
ĠBur gundy
assa il
I n
ĠH i
Ġgar ban
Ġsk ew
ation s
ĠSc ramb
ic elli
ard en
ĠFin ish
Ġbegin ning
ĠPark ay
y ellow
es to
Ġp umpernickel
Ġle e
Ġ30 3
Ġpre tty
Ġdeg ree
Ġrab bits
ĠComp any
acaroon s
ĠW ish
ĠV elvet
Ġus ual
ĠGr atin
Ġseal ed
Ġwor ms
ĠRi bs
dd ock
der ful
ain t
fro m
Ġcontin u
. .
or ch
et to
me let
se ason
Ġcar bon
Ġclo se
Ġsc ramb
ĠMa zola
ĠD iet
ĠW on
Ġr ump
Ġ5 00
raw s
ĠJ im
Ġbr ick
erm icelli
Ġbla de
Ġ1 9
ĠD redge
ĠW assail
Ġbe verage
Ġk osher
ĠSnick ers
Ġdiagon ally
Ġt ests
ĠT eriyaki
iel d
ĠCucumb ers
Ġgum my
ĠSar an
n ie
Ġ es
ĠS ta
upper ware
Ġrapid ly
ĠGou lash
unn el
ar a
sh ine
Ġ2 2
Ġa ir
ĠS upper
ĠF ri
oun ce
Ġte ar
ĠSc r
ĠPer fect
b it
igh ts
Ġla dy
Ġup side
ĠStrawber ries
Ġrot ary
ĠWaf ers
ch icken
ian a
oun der
ĠSour dough
mar garine
ĠLou is
Ġsl ushy
Ġsc rap
Ġcongeal ed
Ġcarbon ated
t P
Ġf illet
as ier
Ġlo bster
ano la
Ġ2 25
ĠA mar
Ġmar ble
ree k
Ġdel i
ĠBlack berry
f red
y n
ut y
col ator
Ġju mbo
ĠG arden
uck y
Ġfl aky
ĠW ay
ĠPeach es
ĠTri ple
Ġbeco me
M ix
Ġform ed
Ġqu ite
fred o
g ry
ĠB ra
ĠB ab
ĠR ings
Ġcon ten
ĠMin t
Th e
or d
ĠR aw
na d
Ġcook s
ĠK itchen
ĠTo st
m ate
ard s
ĠBar rel
Ġclos ed
ĠAmar etto
k es
or ange
ĠP ap
Ġv ermicelli
ĠE le
Ġsl its
Ġmois ture
Ch eddar
Ġlit ers
Ġlin ers
o o
ĠIn sert
ue ur
Ġdoes n
Ġcat fish
N ut
ĠP or
ol ut
ĠT ra
af ing
i oli
Ġe qu
ĠB reast
ĠB uns
ĠM ousse
ĠCook ed
ĠH al
Ġde frost
ĠSw ans
ĠRot el
F ry
Ġp ri
Ġf ries
le e
Ġim p
Ġeat ing
que fort
nad ine
Ġc all
in c
ĠP are
Ġco b
Ġn ic
ĠH our
ĠG uacamole
ĠTh icken
ĠGr its
c ial
Ġp ressing
Ġch ick
ĠC alorie
le u
Ġwith in
th a
F ried
u red
en the
ĠB erry
ĠWh ipped
sh ip
par ed
Ġtor t
Ġdo or
ull ed
Ġvar iety
ĠM ac
ĠT upperware
Ġst rained
ĠF our
ĠRo quefort
ĠPo or
als amic
S ueur
Ġc av
in ds
ĠS kin
ĠK ing
Ġlayer ing
Ġturn ips
cl oth
ĠP reserves
Ġfl owers
st on
Ġju g
ĠL ittle
Ġsl ush
Ġpuff ed
ĠChew y
Ġgre nadine
Ġnic ely
u v
ĠB risket
ĠP im
Ġre ally
Ġbut ton
ĠMilk y
ath er
ĠSnack s
4 0
O r
in ter
Ġm ushy
ĠM aple
Ġcho pper
co vered
wh eels
ĠA ny
ĠH unt
iss ipp
ĠLet tuce
Ġhold s
ĠMiss issipp
Ġspir al
ĠMississipp i
Ġch afing
Ġcheese cloth
oun tain
Ġchunk ed
ĠCur ry
ĠH ealthy
ĠLe Sueur
Ġtort ellini
c ents
Ġe asier
ter ol
if ied
Ġjell ed
ĠSc otch
oles terol
ello gg
B one
op e
Ġgum d
ĠEar th
S p
m et
o vers
Ġc ast
Ġm ousse
ĠB leu
ri z
Ġn ow
ĠF ix
Ġsp arkling
ĠSh ould
Ġliqu or
Ġlingu ini
ĠGinger bread
O s
b b
ĠA d
ir ly
ĠF lo
ach ed
Ġk eeps
ĠSa ut
Ġbit ter
ret te
Ġc ard
ig rette
ĠMor ton
Ġgarban zo
Ġlady fingers
k ing
t eg
Ġe ar
ĠR ound
am ous
Ġal ready
Ġsc orch
ina igrette
av able
Ġfinish ed
Ġmix es
ĠF ast
ĠF ettuc
oles law
ĠKid s
en ce
ĠC oleslaw
Ġst ay
ĠK ellogg
ĠTh an
pe as
Ġpla cing
r us
ĠG old
Ġha ddock
ĠQu es
Ġtray s
end ship
Ġnear ly
Ġflo at
ĠAr m
ĠSc rape
ible ts
v anilla
Ġsh aved
Ġrais in
oun ter
Ġris ing
ĠM ountain
Ġj ack
ĠMix ed
lic es
Ġheat ing
Ġp urpose
Ġw as
ĠMo isten
Ġstew ing
ĠNut ty
cook ing
Ġfa irly
Ġconten ts
i us
s es
Ġs ieve
ĠF ashion
ĠIn vert
ĠGo oey
ĠSund ay
Ġc ounter
Ġ2 6
ĠCres cent
Ġgumd rops
Ġ2 1
Ġst arter
ri b
ĠTh ank
ĠCar ol
ĠUn roll
ug ge
ĠPretz els
ĠSt arter
ĠCook ing
Ġ9 0
Ġgrain s
Ġpure ed
ĠMillion a
Ġthir d
Ġmicrow avable
w ell
Ġf if
Ġch ar
qu ake
Ġha ir
Ġcur l
ingers naps
Ġrun ning
sic le
ĠBuck ey
ĠJul ius
Ġto fu
Ġsa ff
umb er
Ġpart ly
ĠSeason ing
uns weetened
ĠCur ried
bur ger
inc luding
d ay
i ger
t Add
it i
Ġv elveeta
Ġgr inder
Ġbe ca
ĠG reek
ress o
mmer cial
c ross
Ġb ubble
ĠM u
Ġco le
Ġcra w
ĠG e
iscuit s
ĠDe an
t Bake
it rus
ĠB ing
Ġg lazed
pe g
ĠTri fle
i ander
Ġt ail
to p
Ġsour dough
Ġde hyd
ĠSun shine
Ġchild ren
ĠEarth quake
Ġbeca use
F ro
u y
Ġg ive
Ġpre cooked
ĠMo ist
ĠAl fredo
ĠSm oked
Ġfettuc cine
Ġwra pped
ĠClo se
olut ion
Ġe mpty
ĠR ose
elat in
Ġspoon s
oul der
ĠJim my
Ġcraw fish
ĠP as
ĠCh ipped
th aw
ĠCra zy
ĠOr teg
ĠFin ely
C al
p ineapple
Ġs lee
Ġg ro
ĠD iscard
Ġconcentr ated
Ġche ck
Ġspring s
P ineapple
Ġm ug
ough t
ĠN iblets
ĠPick le
ĠPor cup
in ts
Ġch utney
ĠT astes
ĠA la
ĠW il
ĠG l
ul ts
ĠRo ad
ĠFro m
Ġtoss ing
Ġbr ine
ĠRock y
Ġhel p
w ater
Ġh oliday
ĠT on
ĠA vocad
ĠWh ole
ash ed
Ġk isses
ĠU p
ĠBr unch
Ġb alsamic
Ġt akes
ĠP enn
Ġco mmercial
Ġstir red
ĠRe ub
Ġsyrup y
ran ts
Ġpeel ing
Ġmash er
Cr isco
ĠCola da
un peeled
mon ia
ĠMar tha
ĠHun gry
ĠBab y
w al
ĠP izz
un e
ĠH ard
ies ta
Ġwa ff
with out
ĠShort bread
ĠMel ba
season ed
2 3
h ol
Ġa while
ĠB rie
Ġh ens
ĠR un
ĠF inger
len ty
ĠUn mold
ĠBo ston
ĠOver night
Ġskew ers
s alt
Ġd ate
ĠG elatin
Ġcur rants
Ġfettuc ini
Ġcryst als
k y
Ġd rum
ĠB ites
ĠH ominy
ig n
ĠMin ts
ĠCl ub
bro wn
1 9
S weet
ĠT ropical
Ġcup cakes
ist rib
Ġsprink ling
Ġblock s
ĠDev il
b eat
Ġs im
Ġd oll
ĠCh ampagne
ĠBro iled
pre fer
Ġcor iander
Ġwaff les
and a
ĠT own
Ġsh oulder
ĠF amous
iv al
Ġpri or
ĠAvocad o
Ġh o
ch a
Ġ4 75
Ġam monia
ier ce
ĠMed ley
ĠTost itos
ĠFlo at
es ar
ĠG et
bo y
ĠJ an
row d
ett e
ĠQu aker
sc ant
fl our
Ġchick peas
y al
es tern
il a
ĠM acaroons
iss cross
eed s
iff on
ĠQu arter
ĠCon densed
ĠGrand m
ĠTr iscuits
ĠPar boil
ĠCow boy
E asy
f ill
Ġ 75
Ġs or
ĠS lices
ĠE d
Ġplum s
ĠPin wheels
a x
t ime
ĠB eet
ĠB uds
ch erry
Ġgr anola
ĠH ay
ĠSh e
Ġper colator
ĠPh illy
ĠDe bone
ĠCa esar
ĠShell s
ugge ts
r one
Ġs olution
ro ut
Ġd ab
ĠP ina
Ġg lue
Ġfl ounder
st ack
co hol
ĠG i
ĠIn to
Ġstrain er
Ġhock s
Ġre heat
qu ettes
Ġra ise
ĠFor g
Ġtw ist
ĠWatch ers
Ġfif th
7 0
our met
est rone
Ġfreez ing
oy u
app les
ĠOrteg a
o b
Ġp res
or es
ĠB ourbon
Ġr anch
ĠFrost ed
ĠSnick erd
Ġtest ed
ĠD ew
op s
ĠCool er
ĠOn ce
ĠPl um
e el
f oil
Ġp lenty
ic les
ĠW ieners
co re
Ġsp ins
im a
Ġjell ied
Ġlo ses
Ġhe art
Ġscramb led
Ġdehyd rated
L ay
d rain
g y
ut es
re cipe
Ġg el
ĠF il
co al
ĠShred ded
ĠBo b
ĠEnch ilada
Ġad v
ĠReub en
T o
il af
al a
ir ds
ĠSp areribs
ack y
ĠY ork
ĠY ams
ĠSteak s
ĠTang y
Ġsw irl
d uty
l ien
Ġo at
Ġju lien
ĠF ree
ĠJ ud
ent ucky
ud a
ĠShort cake
Ġgloss y
c ery
Ġt ie
Ġchill ies
Ġsc rape
ĠFill ed
stit ute
ĠWaf er
ĠPim ento
c risp
ra pped
Ġapp ear
ĠO melet
Ġpre heat
Ġunco ver
ail able
strawber ry
g round
Ġf ondue
ĠB us
ĠF iesta
ĠSk im
Ġwra ppers
ĠShoe peg
ĠHar v
ĠScramb le
ĠScr ub
ĠArm our
f ine
Ġb uck
Ġt astes
Ġto ffee
Ġh om
Ġover la
Ġre place
ĠSt raws
est ring
ĠCan ned
Ġtoss ed
ĠGe or
f a
ĠS ix
Ġpe ck
un baked
ĠCo re
Ġsa ck
ĠN an
aff y
Ġancho vy
Ġdefrost ed
ĠHarv ard
4 5
c er
d ew
Ġb al
at t
ot ten
lass ic
ĠCorn ish
Ġres ults
ĠSw irl
ĠPepper oni
) *
s kin
u gs
Ġh ome
ĠK entucky
Ġla bel
ival ent
u gh
ĠT asty
ĠD rops
Ġre qu
ĠPre go
Ġthick er
Ġdire cts
Ġfreez es
ĠFl akes
bon eless
cho colate
ĠLouis iana
4 8
n ic
u f
Ġj igg
Ġsh oyu
ĠF ingers
Ġcon es
Ġprepar ing
pen ds
Ġtri angle
ĠPas o
i od
in ute
ĠT am
ens ter
Ġde ter
ĠMar garine
ĠPet e
Ġtin foil
Ġfa ith
Ġrab bit
unk y
B ro
y ed
Ġt ip
ĠP ort
Ġst eep
Ġre heated
ĠSp onge
ber g
Ġ8 0
len der
ĠE v
cr ust
ĠForg otten
ĠSnickerd oodles
ĠD anish
Ġro w
Ġpack s
Ġpr ick
fry er
ĠInd ian
Ġgro cery
f ly
Ġm enthe
Ġv ary
Ġsc r
Ġshap ed
pack ed
Ġlee ks
ĠMilliona ire
Ġw ok
ic nic
Ġcrust y
Ġyou ng
ah ini
ĠJo e
ond on
ĠAn n
Co ok
ĠHay stack
ĠGi ant
f tened
k ins
Ġp ush
at oni
ege t
ĠK risp
uc y
Ġdire ct
Ġlas agne
ib ut
w ill
ĠS u
ĠS am
ub stitute
Ġform ing
ĠDel ights
Ġrack s
Ġeat en
Ġpuff s
ĠHo bo
ĠSta ck
thaw ed
Ġadv ance
o ver
Ġm aker
Ġin ter
ĠS liced
ĠB its
Ġpe e
ri pe
ĠD ilute
ĠH alf
Ġother s
Ġtub es
ĠPral ine
Ġd uck
ĠCh iffon
ay a
qu et
Ġthin ner
St yle
ĠMu enster
eget arian
3 75
i ves
Ġt en
en e
and y
ĠT reat
Ġv irgin
ien er
ĠL ondon
par ation
Ġhoney dew
ĠSeason ed
ĠHell o
Ġcontinu ously
ĠBuckey es
\ \
c ini
Ġ ??
Ġb undt
Ġd ec
Ġco m
gh um
th od
om s
Ġbottom s
Ġany thing
Ġdi ppers
Ġgrill ed
mix ed
ĠPin to
c ially
and ing
Ġto tal
Ġa corn
ĠH el
ĠSl ightly
Ġkid s
ubb ed
ĠDough nuts
Ġspri g
ĠHe art
ĠHerb ed
r itos
Ġd istrib
ĠF ries
Ġx xx
ĠBanan as
Ġtri m
erm uda
ĠGl or
prefer ably
c al
Ġw edge
it ely
ĠW or
Ġju icy
ĠCal ico
fin itely
uv res
A pp
Ġb ra
le ct
it ional
ĠP ig
Ġg u
Ġg in
is ter
ĠT affy
Ġst raw
ĠCh ile
Ġsoup y
st ir
ĠG ener
Ġel se
ĠMe in
ĠFrit o
Ġchar coal
Fro m
G reat
a is
b ack
e ver
an ger
Ġin de
ĠS esame
ĠB ig
ĠT aste
om et
ĠL ingu
ĠN achos
ĠLo bster
so ftened
ĠWal nuts
ĠFran ks
ĠWe ight
Ġappetiz er
O range
g ent
or a
ĠP ers
Ġmin estrone
ee bler
Ġsa vory
ien ce
qu ila
Ġpap ers
Ġsalad s
pe cially
ĠPean uts
Ġoverb eat
Ġscrap ing
Ġequ ivalent
G ood
Ġb uds
Ġp al
ĠRe al
og en
ĠEgg nog
ĠTon y
O e
b ble
Ġc oll
Ġt asty
ĠB ou
Ġco d
Ġst ro
Ġcr isco
ĠD own
ĠRe heat
ĠN og
ag ed
Ġpo ck
ild ren
Ġburn ing
ĠChew s
Ġslee ve
g resso
ou x
ing ton
Ġin sert
Ġd redge
ĠB ermuda
ĠP ile
Ġl imes
ot e
ĠL ite
ĠJ oy
Ġex act
ĠMo cha
Ġcrisp ly
bon s
enn el
wal nuts
3 25
t and
ri ght
ĠR ye
na p
ĠH or
ĠSa vory
Ġsho estring
Ġ?? ?
Ġinde finitely
B ran
Ġth umb
Ġsh aker
ĠF ondue
Ġse am
ĠL arge
Ġtub s
de pending
butter ed
Ġbur ger
Ġb rew
ĠC lassic
ak en
Ġd ilute
Ġice box
lend a
Ġcenter s
Ġpop sicle
ĠBor den
. ,
O T
p art
r ins
s ter
Ġf ashion
le mon
ĠB un
Ġpe t
ot tom
ĠR ib
ĠW acky
Ġse a
ĠPre paration
Ġstal e
Ġne ck
we iger
ĠSm okies
ath y
Ġac id
ĠFri endship
Ġtail s
omet imes
a bo
d ried
e on
v als
ĠP ilaf
Ġn umber
ĠTh ins
ble ached
ĠSo y
fl ake
ĠQues o
ĠGrandm other
u riz
Ġm ound
ĠT ie
Ġn achos
.) .
Ġwh at
th is
ast ic
Ġpart ies
ĠMuff in
Ġlim as
c innamon
l ub
Ġb el
Ġf ile
to ck
ĠF amily
ast ed
ĠL ima
iz es
Ġstand s
iel ds
Ġqu ail
ĠCan ad
ĠEx tra
Ġclos ely
uriz ed
D i
b eef
g inal
Ġt ough
ĠB ell
Ġh ouse
Ġcr unch
st anding
ĠH ors
ĠH ollow
uff ed
ĠK eebler
ĠDe er
ĠPan cake
Ġbr ittle
Ġpear l
ĠSec ure
ĠHaystack s
ogen ized
c ress
e m
Ġw atch
ĠC ereal
ĠB ag
ĠP arsley
all ow
Ġcr isscross
ĠH oll
Ġ5 7
ĠV inaigrette
Ġchill i
Ġcomplet e
Ġequal s
ĠLi ver
ĠSmooth ie
ĠBus y
Ġb rie
el le
ĠCh ar
th in
Ġli king
Ġz iti
ĠCon tains
vo id
ĠPro gresso
ĠSue y
ĠAm ish
d iced
m ushroom
v ily
il ar
Ġw ing
ĠB asil
ch weiger
est nut
ĠGr ated
uns chweiger
ĠDiv an
ĠPizz as
ĠShe ph
Ġexact ly
M o
e er
Ġc it
en ed
ĠS weetened
un beaten
ch eese
ir rel
ĠH ill
ĠG ourmet
ĠE ye
ĠIn c
Ġes pecially
ĠPorcup ine
Ġsor ghum
ĠGener ously
s k
Ġ1 50
Ġf eed
Ġf ennel
Ġch urn
ĠB lender
ĠP esto
Ġegg nog
ĠL ady
ach ine
anan a
Ġcolor s
Ġlength s
lu ded
icot ti
Ġindivid ually
ermo uth
2 2
c alorie
i or
u ces
ĠCo pper
Ġri g
ĠDe frost
ĠToast ed
i ar
Ġp aint
at a
ĠB uff
ĠSt ri
ĠY our
Ġpick led
Ġpaste urized
ĠBur ger
Ġfettuc ine
Ġbal ance
mon ds
ĠR ain
ĠV irgin
Ġpl an
Ġte quila
Ġbut t
Ġtouch ed
Ġhollow ed
ĠWa it
ĠPap rika
B utter
E yed
M inute
p ie
at ive
ĠC itrus
ĠS mall
Ġl ye
Ġbutter y
Ġun bleached
Ġsh ot
ĠD r
Ġal ways
Ġthrough out
Ġsli vers
Ġwant ed
Ġinc luded
rit o
Ġhom ogenized
ĠSheph erd
at zo
Ġw inter
ĠC ryst
Ġso ap
ĠO at
Qu ick
mi ah
Ch o
ere miah
ĠAd just
ĠTam ale
Ġdeter gent
A l
C ool
P e
R e
il ver
sh arp
Ġmelt ing
ĠCheese burger
Ġout er
est ive
Ġtablespoon ful
iv ing
Ġgrill ing
te in
Ġmon th
Ġwon derful
Lay er
in ess
Ġs ouffle
Ġt ater
it ion
Ġe ye
ĠB udd
is ts
ĠF ig
ĠSp ring
ĠL or
Ġro ck
ĠE sp
ĠE sc
ĠSa ucy
Ġtender ness
Ġbag els
Ġlayer ed
Ġqu iche
ms tock
reat h
ĠPer rins
ĠPenn ies
C lub
S our
al o
Ġa v
ĠB ubble
ĠP ri
ĠButter cream
ĠOri ginal
ugh ter
Ġrig atoni
A pple
M ar
p o
u el
Ġto ts
ĠM ars
ow s
col ored
ly cer
ĠH ome
ĠE aster
ey e
ĠWash ington
ort ant
Ġster ile
!! !
Ġfit ting
ĠTart ar
Ġstro kes
Ġm ain
or tening
Ġ2 9
ĠP eek
gg y
ĠM ore
Ġor zo
ĠR uth
ĠSt ring
ĠSm other
ĠPr une
p owder
s uch
Ġin s
ĠCo mstock
ĠF ant
Ġsp ecial
Ġex cellent
ble ts
Ġcurl s
anda ise
v ies
ĠC ong
ĠP lain
ĠD eath
qu id
ĠL ush
ĠE nd
ĠJ er
ĠPe ople
Ġpack aged
ĠSte p
ail y
ĠCro quettes
Ġinc rease
ĠCl ou
Ġgo es
acc ioli
Ġoverla pping
ĠHor seradish
' re
i pping
u ra
y es
Ġw il
Ġg lycer
ĠM ounds
Ġv ermouth
Ġfl ip
ĠCh uck
ĠW estern
ĠF ancy
reez e
pe pper
Ġfin d
ud e
Ġhea vily
Ġfold ing
Ġbreak ing
Ġrect angles
ĠTwink ie
ret ch
Ġappetiz ers
W h
i ke
s l
Ġc a
Ġt aking
Ġt ahini
Ġch olesterol
sp ray
Ġa void
Ġd aily
Ġl ift
Ġco ats
ot t
Ġk itchen
ps i
pl ants
Ġhamburg ers
ĠBa v
Ġreach ed
s et
t ally
gar ian
ĠP en
ĠM ound
ĠA head
Ġst one
ver ly
ĠCh erries
ĠH and
ĠCover ed
ĠN est
ĠButter ed
Ġspread able
Ġseal ing
Ġflower pot
Ġad just
Ġsim ilar
Ġjulien ne
Ġinter vals
ĠPers immon
ĠBav arian
B ri
\ .
k ay
l ite
Ġt rout
Ġm l
ĠP ush
Ġh us
ĠM aster
Ġr oux
Ġ6 5
Ġk inds
ĠTh at
Ġqu ant
Ġunder standing
ĠBon bons
ĠHoll andaise
% )
a e
i ppy
n on
r ich
w rap
ĠC ashew
ra Sweet
Ġh ull
Ġwater cress
ip es
ĠL ad
Ġgra ms
lo ins
Ġsl it
Ġcres cents
ĠPop overs
ĠTortilla s
Ġear ly
Ġjack ets
ĠGlor ified
ĠBou quet
Ġbrie fly
ĠVirgin ia
Ġav ailable
, \
ar row
Ġt ra
Ġp ouch
Ġf rench
ot ted
Ġbeef y
ĠK ielbasa
ĠSo me
Ġpat ience
ĠTaco s
ĠMe mber
Ġpro d
Ġcall ed
Ġdoll op
Ġpee k
ĠCong o
an ges
ĠC or
Ġe ight
ĠS ubstitute
ur st
ĠN OT
ĠHambur g
Ġtr ansfer
ĠHal ve
Ġbel ow
O ne
z e
Ġs odium
re ts
Ġf ix
ic ro
ĠS an
ĠB is
Ġg l
Ġegg plants
Ġn arrow
Ġsh aking
ĠR os
ĠSp eed
ĠO ther
ĠBr ick
ĠPart ially
Ġdis app
ĠThin ly
ĠCryst al
c ar
Ġ .
re y
Ġch ange
un ior
Ġst or
Ġj o
ill ed
ĠF a
ĠF un
ĠSp lenda
ap ed
ĠJ u
ĠJ eremiah
ĠPe psi
Ġtender s
Ġri m
ĠSm ok
Ġscall ion
ĠLas agne
ĠWon derful
ĠSwans on
Di abetic
" )
I da
ĠT ap
ĠT oll
ok s
ĠCh ildren
co mm
Ġfry ers
ĠFrost y
Bro ccoli
ĠRain bow
Bri en
g allon
v al
Ġp esto
Ġch owder
ĠS core
ĠM ulled
Ġover mix
Ġde pends
ĠCrisp s
fa it
ĠS uc
ĠL ily
tab le
Ġpour ed
Ġice berg
ĠRo yal
Ġcro iss
Ġsc iss
ĠCa v
ĠMars ala
Ġs izes
Ġf un
ĠD an
um m
Ġcrack lings
ĠSugar less
ĠRais ins
Ġkind ness
ĠAltern ately
Ġfall s
Ġdirect ly
Oe uvres
Ġfile ts
c us
es ter
Ġf ancy
ĠP ate
ĠP ace
ĠP icante
ĠF ool
ĠE ach
ul t
ĠButter nut
Ġgi blets
Ġopen ing
round ed
Ġcola da
It alian
Ġcav ity
ĠSmother ed
ĠClou d
ĠLad le
a o
Ġf unnel
le ave
Ġe igh
ĠP ierce
na ments
Ġse ven
ĠL en
Ġbread s
ĠO ut
Ġsl otted
Ġlow est
ĠFruit y
ĠCol or
Ġabsorb ent
ĠSnow balls
tP our
App etiz
M ex
Ġg ingersnaps
ĠT akes
ĠCo m
Ġsh iny
Ġpudding s
ĠJ ean
Ġhal ibut
ĠBrown s
arin a
Ġsm ok
Ġkeep ing
ĠHambur gers
Ġrun ny
ĠCre m
ĠHun garian
Ġsciss ors
Ġ 0
Ġb ought
Ġp ast
ĠC rispies
ĠB ark
ĠT ry
up s
ash ell
old s
ĠN illa
Ġneed s
ĠLo ve
Ġfollow ed
ĠButterf ingers
Ġpro tein
pre pared
Ġrub ber
Ġman uf
Ġscorch ing
abo bs
Ġmanuf act
R itz
b ake
e en
l ins
w urst
ar i
col d
Ġtender loins
Ġhard ens
ĠLe ftover
ĠFl ip
ĠMin cemeat
ner gy
ĠNe ctar
ĠPowder ed
ĠMed al
ĠSam uel
Ġeigh ths
b lack
h ard
t S
Ġo kay
ĠS weeten
ver ted
Ġwh iz
ĠSt eep
ac ao
Ġmoder ately
Ġsee ms
ĠWa verly
ĠKrisp ie
e ck
p ress
~ )
Ġt ry
Ġp ip
Ġin vert
Ġse ams
ĠSa uteed
ĠCorn meal
Ġcur ly
ĠUn baked
fresh ing
ĠMold ed
ĠLi ke
Ġancho vies
ĠEle phant
ĠWor ld
ĠCanad ian
ĠCrem ora
Ġmanufact ur
m ed
s weetened
Ġsa uces
ĠD olly
ĠL unch
ab ag
ĠMar gar
amp i
ĠEng land
ĠNut raSweet
Ġgarnish ed
ĠGran ola
ĠStick y
Ġbra unschweiger
3 5
6 0
a mon
g ed
es law
Ġm atzo
re move
Ġa mon
it o
ĠB ut
Ġg lo
ĠM am
Ġv eg
Ġthicken ing
Ġhand fuls
Ġcereal s
Ġkn ives
Ġallow ing
ĠOys ters
ĠSpeed y
4 00
S w
Y ields
s on
il le
and el
ĠP aint
Ġh ulled
ĠW el
ĠF unnel
ĠI ced
ap es
Ġsqu irrel
ead y
Ġcol eslaw
Ġprefer ence
ĠLa mb
Ġharden ed
Ġsup er
Ġpine apples
Ġris es
ĠEv ans
A merican
z el
Ġ rain
Ġp rop
Ġmin ts
ĠCh urch
Ġsp ace
Ġdrain ing
Ġbread sticks
im ent
ab isco
ĠN ight
Ġdes ign
Ġextra cts
mper ial
ĠLo aves
Ġper iod
ĠPl an
Ġpull s
ĠFil lets
Ġpip ing
S h
Ġc acao
Ġb und
re al
it as
Ġd ent
ĠP aul
ĠW et
Ġgr oup
ĠF oil
Ġsp onge
am els
ĠWh o
Ġbeat ers
iz on
Ġthick ly
Ġlim p
Ġdel uxe
bro ccoli
Ġbrick le
Ġsaff lower
ĠInc rease
Ġamon g
n ier
ter y
is bury
Ġv egetarian
Ġfl u
til led
ĠI mperial
im an
ĠRe place
Ġcar ob
ĠJ ar
ĠV eal
ĠCorn flake
ĠMin ce
ĠGreen s
ah um
ĠMan wich
ĠSec rets
w o
Ġb ird
Ġt aken
Ġp atter
Ġm ugs
on es
ĠB ush
ĠM ust
us el
Ġst ar
to ps
ĠCh estnuts
ĠW ind
ĠW ipe
ber ally
arm alade
ĠJ ew
ett ing
Ġpla y
ĠBe gin
Ġturn ip
ĠMar nier
Ġsaff ron
ĠJer ky
C ream
d es
p ut
Ġb ush
on de
ro ck
Ġsugar ed
ra ck
gg ie
ion eer
us c
us ed
Ġj unior
ĠSt r
ĠStir ring
ough y
ĠN abisco
Ġginger bread
ĠSe lect
ĠSugar ed
ĠMon ster
ĠNe iman
.. .
ĠEle g
ĠJud ges
Ġrow s
Cho colate
ĠTap ioca
Ġpatter n
D uncan
M e
g ia
g rated
s al
u ke
v ioli
er o
Ġch ew
ĠB arb
ĠA le
con es
ven der
ĠSal isbury
ĠN uggets
ĠCho ice
Ġwa it
ĠCorn ing
ĠCar amels
Ġhor izon
ĠBo x
ĠBl an
ĠTender loin
ĠCres cents
yl er
Ġgl ut
Appetiz er
w ood
w heat
Ġt reat
Ġm ounds
Ġto st
ĠP res
ĠM armalade
ĠT sp
Ġsa fe
ir es
ĠD ole
ans l
ur ry
am om
umb ers
ĠG ri
Ġal cohol
ĠJ e
ĠK iss
ĠSh oo
Ġcontain ing
ĠQuick ie
ĠSc ampi
Ġdri p
ĠPop s
Ġfrost ed
Ġtouch ing
Ġpal m
( "
S ugar
c ipes
e ct
Ġs imple
la b
ra spberry
Ġh um
Ġst re
Ġst ream
ĠR ell
ĠR ounds
ĠG all
ĠRe yn
ĠO le
uc ent
ĠN ahum
ĠSh erry
ĠBrand y
Ġsm ashed
Ġbroil ing
Ġcl usters
Ġprefer ably
Ġbrush ing
ĠCat fish
Ġsw iss
Ġdis tilled
eath er
Ġtr ansl
ope z
bb les
att ice
B e
O n
a mb
l er
l ers
Ġs ole
on ion
Ġ3 70
ĠM ade
Ġbro iled
Ġsa ved
Ġse ashell
ĠE very
ĠV er
ind a
urt les
Ġpin a
ĠHa ppy
allop ed
ĠScallop s
ĠGraham s
Ġlunch eon
ĠRose mary
ĠBuff alo
Ġtransl ucent
3 00
C ar
E gg
P ec
Y um
Ġc ork
Ġb ow
Ġp u
Ġp uffy
ĠS ex
ĠB B
ĠT ips
Ġle g
Ġwh ere
Ġ6 4
sh ake
Ġk aro
ĠK ings
eal th
pe ach
ĠFruit cake
ĠGra m
ĠUn cooked
ĠStew ed
ĠDirt y
Ġdiagon al
Ġholiday s
Ġmanufactur er
Ġflu id
ĠReyn olds
F rench
f ashioned
t Mix
Ġc ould
er ne
Ġm achine
ut abag
Ġw iener
Ġsu et
ĠB one
as ed
as ant
Ġsalt s
ĠT urtles
Ġfl uff
ĠL ift
Ġbag el
ĠPl us
Ġmost accioli
Ġcard amon
Ġrequ ired
ĠCom fort
ĠRell en
ĠBB Q
' ll
d itional
k eep
er ran
Ġb isquick
Ġm ine
ĠW edges
ad o
ĠF ull
ĠL opez
ĠG ingersnaps
ĠO wn
ĠO ptional
Ġwork ing
ĠCre pes
Ġloos en
Ġimp ortant
Ġxxx x
Ġbrew ed
F ly
f etti
h old
l in
Ġc as
Ġs ilk
Ġo ur
on a
Ġcho ose
ien t
am ount
id a
ars n
Ġq ts
Ġmo uth
ĠNut meg
Ġlee k
ĠGeor gia
Mar cus
b aking
d ark
k i
s ee
v an
w arm
Ġ Q
Ġc rowd
Ġm iracle
Ġw ere
it ies
ĠS in
ĠB irds
ol f
ra ps
ĠT en
illa s
ĠD uring
ad am
om an
ĠSt and
ĠV ien
ĠUn der
ĠTw in
ĠTw ist
Ġvegg ie
Ġgo ing
ĠSteam ed
cream y
ĠBor ax
ĠJohn ny
Ġpock et
adam ia
2 6
p r
s mooth
es h
ge t
Ġth row
ch ange
ĠF estive
ole o
id s
ars ely
Ġla ughter
ĠTh row
ĠTw ice
lay er
ĠSeaf oam
Ġdecor ation
Ġscr ubbed
po pped
ĠFool proof
V ery
c ub
n et
Ġs erves
Ġp arch
Ġm ush
ra ight
ĠT et
Ġcheese cake
ĠD O
ies t
im p
ac ed
ys tery
mix ture
ĠMini ature
Ġsecure ly
Ġdust ed
sic les
Ġcard amom
ĠCarol ina
Pec an
f ir
h er
p our
w ash
Ġ iced
Ġp ol
ĠP ioneer
Ġg etting
gg est
Ġcream ing
Ġsh elf
col or
ĠSt re
ĠSh ortening
ĠFl ank
Ġme mb
Ġsteam ing
ĠBl onde
Ġcre pe
acc ording
Ġpres weetened
Ġbuck et
ĠEsc alloped
f reeze
m akes
w ick
il t
Ġd irt
ĠS ilk
ra zz
Ġl attice
Ġun pared
Ġmin us
pple ment
Ġcorn ers
ĠL ee
ĠL inda
sh red
im um
Ġk ale
ĠN umbers
Ġste mmed
sc i
ĠPepper mint
Ġmarin ara
Ġdel ic
strawber ries
ĠHeart y
Ġdistrib ute
Ġins ides
Ġhorizon tally
ĠTet razz
C orn
E agle
d own
g ra
i ven
p a
Ġ1 15
or iginal
ĠB loss
Ġg as
ĠM ystery
ĠCh unky
ĠH umm
Ġstand ing
ĠBr uns
Ch icken
ĠSnick er
Ġbur gers
Cr ust
ĠGri ff
C auliflower
e ither
f ire
m ake
t ie
Ġp urch
Ġm ot
Ġf ashioned
ĠC rowd
Ġd ots
Ġju iced
ill ing
ĠI d
Ġcover s
ĠCho co
Ġtw ists
ĠGo es
mbo o
ĠTetrazz ini
L ime
Ġs ink
Ġt anger
Ġt ester
il es
Ġf ound
Ġf ield
Ġch estnut
ĠB el
ĠM orning
Ġfl ute
ĠH olly
Ġcrock pot
fl on
av a
ĠLingu ine
Ġmemb ran
sci ut
ĠBruns wick
s in
Ġo val
Ġt ropical
pp s
ĠB rew
ĠCo co
ĠW inter
na c
Ġr inds
Ġba mboo
ĠG umbo
Ġal one
Ġk ing
ĠCream ettes
Ġli berally
ĠTh ere
Ġtab asco
Ġste el
ĠCrust less
ĠEn ough
mar shmallow
Co conut
ĠSaut erne
ĠBrick le
iven ess
ĠGriff in
sciut to
b ut
b les
Ġs ilver
Ġb ris
ou ff
ce an
ĠF ud
ĠE as
ĠK et
ĠRoll ed
ĠN on
est yle
ec ially
ĠFruit ed
sc rew
ĠSc atter
ai qu
ĠSm ash
add y
ĠChew ies
St ir
Ġmango es
ĠTe mperature
ĠBudd ig
B aked
g nac
ic ally
le ase
sp rinkle
Ġe yes
ĠP it
Ġh ush
ĠW yler
Ġsp iced
Ġr ather
ĠWh ipping
erv ing
ĠCheese cakes
Ġpo ints
alor ies
ĠWater melon
ĠDill y
ĠMac adamia
Ġchew y
b ite
e ach
s qu
Ġt ong
le vel
ĠCh olesterol
na pps
Ġre comm
ress ed
Ġpre baked
sc ar
Ġcons ider
Ġme thod
Ġflat tened
ty pe
ĠMarshmallow s
ĠRom a
ĠPro sciutto
Ġwon ton
ĠBl anch
Ġfast en
ĠSund ae
ĠFettuc cine
ĠJan e
ĠRib bon
spray ed
1 00
E nergy
R o
Ġc ured
ar ing
on ly
ic a
ĠB ill
ĠP ast
Ġsh oe
ĠD ad
Ġre cipes
ĠH old
ĠG u
ard i
ĠO scar
Ġmeat y
se ed
Ġpick s
ĠSl it
ĠBur ritos
ĠMa id
Ġsection ed
act ing
Ġdecor ative
Ġimp ro
Ġjigg er
ĠHel en
ĠBis que
Ġdent e
Ġbush el
Ġbris k
D on
s ka
v a
Ġs wee
Ġs lab
Ġo b
Ġb uy
Ġp ier
Ġm ul
Ġf r
sp read
ĠP icnic
ĠCh utney
ĠD uck
ad a
om a
ves t
ng th
Ġturn ed
Ġ24 0
ĠLo os
Ġknead ing
Ġind ent
ĠComp let
Ġman icotti
ĠSand ies
Ġrain bow
g iving
Ġc amp
Ġo melet
Ġp icnic
Ġm ill
Ġco bbler
ri a
Ġpepper on
ĠCh ach
od y
Ġr are
Ġpeel s
Ġsome thing
ĠUn wrap
ĠJack s
Ġel astic
ĠDri bble
Ġend ive
ielbas i
ĠTort ellini
sk im
Ġwil ted
Ġcork screw
H ot
P ean
S oup
m in
Ġc our
Ġp arsn
Ġm atch
al ity
it an
ĠB ri
ĠB oy
ra ft
ch i
Ġcan ner
Ġst raight
Ġsa c
Ġso ggy
ks giving
ĠDo zen
Ġper fect
ĠAl monds
wh ipped
Ġtri ple
Ġblo ss
ĠSouth w
ĠSpr itz
Ġcryst all
ĠTe flon
Ġcontinu ing
marshmallow s
V elveeta
Y ield
z etti
Ġs izz
Ġf o
ĠC alories
Ġn uggets
ĠW are
sh aped
ore n
ĠCr ushed
ĠCan apes
wh at
Ġback fin
ĠKid ney
ron icles
ĠSch napps
Ġreplace ment
rich ed
usc ious
g rain
r ate
t ine
en ded
and ar
ĠS cones
Ġun w
ĠCo arsely
ĠCh ronicles
ĠR abb
ĠW rapped
ber t
Ġcon verted
ĠO w
Ġcauliflower ets
for d
Ġscal ding
Ġequ ally
Ġcit ric
Ġquant ity
ĠEleg ant
shred ded
D el
O ld
d eep
g lass
l uck
m ust
s ts
v ious
ĠB ottom
Ġegg beat
Ġv inaigrette
Ġst raws
to se
ri f
ĠWh irl
ĠK e
Ġen riched
ful ness
Ġhand ling
Ġdro pping
Ġper for
Ġche ap
Pot ato
ĠServ ing
Ġvar ious
Ġcontin ually
ĠThan ksgiving
Ġdrum sticks
Pe pper
ĠRellen os
ĠChach ere
F ail
N ot
b lue
u ct
Ġs and
Ġt ied
Ġp ray
Ġm al
Ġa verage
Ġ3 8
ĠB ak
Ġv ent
Ġth ing
Ġmin s
Ġbro ad
Ġr utabag
am ate
ĠSal ami
uc tose
Ġsqu irt
pe cted
Ġgi ves
ĠFin ally
Ġwe ight
Ġhouse hold
ĠSan ta
Ġglut amate
ĠKet chup
Pean ut
ĠRabb it
M ake
S a
a u
y mp
in tz
Ġs ometimes
er os
Ġp roof
Ġm ang
ĠC le
ĠP ur
ĠP igs
Ġco gnac
Ġun popped
Ġcan e
der s
mb le
ve ge
Ġsp ear
Ġr oughy
ser ving
if orm
ĠO R
ĠJ if
ĠMin utes
Ġgo ose
Ġsnack s
Ġdecor ations
ĠHar vest
Ġes c
Ġscrap ed
ĠHill shire
Ġstor age
ĠBlan ket
andar ins
Ġeggbeat er
Ġmang os
C rock
a ins
f alf
m ini
m ettes
s oup
Ġc ase
Ġp izz
ĠC lay
ĠB ug
Ġg old
us ing
ĠA sp
Ġst retch
Ġmar k
ĠD ecor
ĠD addy
ĠW est
ĠSp arkling
ĠL ogs
ĠH en
ĠV an
af ter
ĠCar ne
uck le
Ġsc rew
ang ria
ĠRub y
ĠWhis key
ĠDoll ies
Ġscramb le
ĠFettuc ini
ĠNan a
skin less
Ġcroiss ants
Ġfr uctose
falf a
an e
Ġm ight
al aya
or p
Ġsu ff
is ed
Ġsalt y
Ġun mold
Ġfor g
st uffed
ĠL uscious
uc er
ĠN ice
ian o
ĠBread ed
Ġpick ed
Ġevap or
ke ts
iv a
ĠCon fetti
Ġagain st
wh ich
ĠDon uts
Ġbas ic
ĠPer k
Co okies
be an
Ġcombin ing
ĠFlavor ed
ĠTra sh
cohol ic
ĠCav iar
ĠStre usel
Ġconsider ation
R ais
c ord
j o
Ġc y
Ġc ling
Ġm andarins
ic ient
ĠC raw
ĠC enter
Ġto aster
Ġh ang
ch ool
Ġun iform
ta ct
ĠSp ry
Ġcon tains
ĠH om
ll o
Ġal falfa
ĠK abobs
ex tra
Ġpl ump
Ġtaco s
pl us
Ġskim med
Ġrib bon
Ġ23 8
ĠGou da
ĠSch ool
ĠLen til
Ġstre ngth
ĠLoos en
ĠOw ens
I nch
b anana
f ollow
z er
Ġ =
Ġp ale
Ġp ierce
Ġm acaroons
re ck
Ġf rit
ĠC oll
ix ie
ĠS angria
ra ine
ĠM arb
ĠM ark
Ġth ose
ok a
ĠW eek
ĠSp routs
Ġdish wash
ĠG od
ĠIn n
uc c
Ġgraham s
Ġlet ting
Ġper k
ĠDill ed
Ġrot ating
Ġresemb le
ĠScramb led
ĠSu pplement
ĠPlan ters
ĠVien na
Ġmal let
R oll
a z
l ie
Ġm alt
gar nish
ĠS us
ĠB ologna
Ġh ope
ĠCo ated
Ġst op
Ġfor ks
ver a
Ġsh av
ĠR oka
ĠW in
Ġbak es
Ġcar ne
Ġpap aya
os ition
uns alted
Ġsubstit utes
ivid ual
Ġprun e
ĠBon net
Ġsho ots
ĠStri ps
ĠEsp ecially
ĠSuc cess
amb alaya
Ġpurch ased
Ġpepperon cini
Ġperfor ations
ĠAsp ic
Ġshav ings
t B
ĠB ird
ine t
Ġg ift
is in
ĠCh i
ĠR h
ĠD ie
ĠSt ar
ĠK osher
Ġsweet ness
ĠY am
Ġuns liced
ĠFl an
ĠMar ie
Ġsome what
ĠCrumb s
Ġcaramel ized
Ġpinto s
Ġcla y
ah o
Ġsteam er
crumb led
Ġdiscard ing
Ġbutton s
bb ie
Ġcoll ards
ĠLor raine
Ġglycer in
Ġpu ppies
Ġparch ment
Ġbrisk ly
Ġforg iveness
ucc ino
- -
6 4
m ies
p ound
Ġp li
Ġch anges
le ans
pp iness
Ġfl uted
ell s
st ead
ĠH ank
Ġhot ter
Ġrem ains
ĠN eed
os odium
ĠEgg less
ĠBeef y
Ġpart icles
Ġne ver
ma vera
ĠDor ito
app uccino
ĠPop sicles
ĠCrunch ies
Ġstack s
Ġinstru cted
ib by
boil ing
Ġomit ted
ĠVegg ies
Ġbatch es
yal ty
ĠGeor ge
ĠWho op
ĠCraw fish
W e
a id
Ġt arts
Ġp en
ĠP ass
Ġg ame
is ters
Ġcan ister
co mp
elt zer
ĠRe ally
ĠPe ars
Ġhal ve
ss um
Ġpre vious
Ġfin al
Ġcran apple
Ġfat back
Ġri pen
ĠDo es
ĠSqu irt
Ġfri end
Ġfri endship
Ġwra pper
Ġlin er
Ġhel ps
uy ere
andel ion
Ġbloss oms
C up
b ran
i ri
Ġs eltzer
Ġt on
Ġp he
Ġin tact
ĠS elf
ĠT er
um my
Ġk rispies
Ġra violi
Ġex change
se par
Ġup on
ĠMo st
ĠFl or
Ġshall ot
ĠCon fection
ĠOr naments
ĠOr leans
Ġmon osodium
ĠPl ant
Ġskew er
Ġ26 0
Ġjigg ers
powder ed
ze bel
Ġdisapp ears
Ġesc ape
Ġsuff icient
Ġpli able
Ġb u
Ġm g
en ds
Ġf eet
Ġa ble
Ġe ff
Ġh un
Ġth ink
ri p
Ġsa ucer
ĠR ipe
ĠD ark
Ġgr ater
Ġcon e
if ter
if ts
Ġapp ears
ent y
ĠN a
ĠTo fu
ĠFor est
Ġte mper
ĠGr uyere
Ġbring ing
ĠMar zetti
ĠApp roximately
ĠWill i
Ġtri fle
Ġscal d
Ġcoll ard
Ġprod uct
zel nuts
ĠJe zebel
ymp athy
Ġcy cle
B anana
b ottom
c rack
h al
m is
t wo
ar garine
at ic
Ġf ace
Ġsu ey
ĠS na
ĠP one
Ġh are
Ġl ife
Ġst ain
ĠR ap
ĠW reath
Ġre freshing
Ġcrumb les
ĠO cean
Ġde p
Ġprepar ation
ĠCon cord
uch en
cr unchy
ĠOli ves
Ġjo int
Ġglo ves
Ġprop er
gra ham
aiqu iri
ĠComplet ely
F ruit
g ood
z il
Ġc rimp
ut ure
Ġa u
ĠS imp
Ġg ifts
ĠM elon
Ġfl esh
Ġun used
Ġn og
Ġsa ut
redien ts
th ick
ĠW raps
ta ur
ĠG lass
bo ok
Ġpinch es
ĠGra s
Ġar ea
ĠZ ippy
Ġpar fait
ĠBar ley
ĠWork ing
ug u
ĠSnow ball
Ġfa j
bro ken
Ġdeve in
yl van
ĠWil ted
ĠJud y
ĠFant asy
sl ightly
ĠCor don
pr int
cub ed
fir m
Ġparsn ips
Rais in
ĠFlor ida
2 50
T ime
U n
g ran
l ong
u es
Ġc al
Ġs ympathy
ro ts
ĠS ize
ĠP ita
ol o
ĠM ich
ĠM acaroon
ĠM enthe
Ġun seasoned
ĠCh unk
ir th
ĠH ickory
ĠRe qu
ĠRe fill
Ġk iss
uff les
Ġyellow s
Ġstiff en
Ġsc atter
ĠGood ies
Ġtow ard
ĠCrust y
St rawber
Ġcre ate
Ġcre pes
riz e
ĠJew ish
peach es
Ġtanger ine
vege table
Ġdishwash ing
ylvan ia
3 3
h ouse
s ylvania
t Co
Ġc itrus
Ġs na
Ġp hy
Ġf uture
gar lic
ĠP urple
un covered
Ġco bs
Ġst ops
ĠD ixie
Ġbe a
Ġsp lash
ĠG en
ĠG rey
bo ard
Ġex p
Ġset tle
ĠPre cook
ĠY ear
Ġdill s
Ġcrab s
ĠFl aky
Ġar ran
ĠMilk shake
Ġwra ps
Ġvar i
Ġdecor ating
Ġpersimmon s
Mo ist
ĠEas iest
taur ant
Ġphy llo
! ).
. '
H e
M y
P am
R eady
S te
a wn
f ound
v it
er t
Ġo re
Ġp or
ĠM unch
ĠA ma
wn s
Ġex pected
ĠV iva
li quid
ĠSh ip
ran berry
Ġpo pping
ĠFl oren
ĠMay er
ĠAl most
stit uted
Ġherb ed
Ġsubstit ut
uch e
reach er
Ġshort bread
ĠLi quid
ĠComp ote
ĠLast ly
Ġomit ting
ĠTe mp
ord fish
ĠLingu ini
press ion
Ġbund le
Ġrecomm ended
ĠWhoop ie
ugu ese
N ote
R ec
Ġ ato
Ġp are
Ġf ig
ĠC ant
ĠC atsup
ĠC appuccino
Ġg reas
un greased
Ġmin ce
Ġmin imum
ĠD ab
st e
Ġover ripe
ĠF ire
om argarine
ĠI i
ood y
Ġk ielbasi
ĠO regano
Ġole omargarine
Ġha zelnuts
tain ed
ĠSe ar
Ġmel ons
ail ey
Ġfil et
ĠSm uck
Ġmeas ured
ĠTot al
ĠSch illing
ĠQues ad
ĠGall iano
erran o
ĠId aho
ĠWilli ams
ĠRap id
Ġdep th
ĠAma z
Ġato p
K raft
L o
L et
l ightly
v ille
w ork
in ce
Ġs at
Ġp enne
Ġ2 7
ĠB und
ĠP ic
ĠP rize
Ġh er
ĠM ild
us ter
us ually
ot tle
ch e
ch unky
ĠW iener
ĠF an
me mber
con stituted
Ġr ubbed
Ġy ear
ap er
Ġcrack lins
ĠJ ambalaya
ĠK ar
oth ing
ĠN ature
Ġpla ces
10 5
ĠMay o
ĠCon s
Ġbr unch
ĠPo st
Ġsec ret
ĠBac ardi
Ġcav iar
ĠPorcup ines
Ġdrum mettes
ĠPri mavera
Sw iss
Ġpier ced
Rec ipe
B est
M iracle
T om
e qual
g rape
j ell
t Sp
u me
Ġm icro
re friger
Ġw reath
ĠC arb
Ġg her
ol ks
Ġpe bbles
Ġh ol
ĠM icro
ĠD rum
Ġre g
ĠL ucky
ĠL ibby
Ġro pe
Ġdry ing
ĠO ats
ĠIn g
ĠK o
lo af
ĠN ancy
Ġen h
Ġthin ned
ĠCho y
iv ely
ĠSo ap
Ġsm okies
ĠPo ck
Ġbur rito
ĠInd ividual
Ġgu ests
Ġcit ron
ĠWel ch
Ġmembran e
Ġswee ter
ĠHank y
ĠSimp ly
ĠAmaz ing
) (
S o
S erv
T op
_ _
b est
l t
o pper
t Stir
w eg
Ġs its
er al
Ġb irds
ĠB ailey
ra b
ĠM ango
Ġadd s
Ġk eros
ens ive
Ġlo se
Ġpeel ings
og i
ĠSto p
sa me
ĠSoup er
ĠSc ott
Ġpar boil
ĠPeach y
ĠChe f
Ġbit ters
Ġsolid s
Ġway s
ĠFood s
ĠPer colator
ĠSar a
ĠWon der
ĠBra zil
Ġcall s
ĠEd ible
Ġdab s
Ġdistrib uted
ĠPen uche
Ġhus ks
ĠJu icy
ĠStr ata
intz es
irth day
weg ian
Ġkeros ene
M ores
R ise
S al
l is
m ers
s odium
Ġ read
Ġs core
er it
Ġt ines
Ġm a
ic us
ĠC ab
sp ace
ĠP ier
ĠA corn
ĠD av
ĠSt ella
Ġcon d
Ġdish pan
ĠV odka
Ġste p
Ġte mp
ĠSe as
Ġbut cher
Ġsm ell
Ġpar boiled
irt y
Ġdrink s
ĠCro utons
ĠWork s
Ġpro ced
ĠPenn sylvania
Ġcom ino
Ġpock ets
ĠFant astic
Ġcour se
ĠBug les
gran ulated
vit icus
A n
C ut
b ab
c lo
f old
f ull
h a
i as
s alted
t or
t ips
u gel
w ie
w reck
in os
Ġs ifter
Ġb right
Ġt ang
Ġm ess
ĠC as
pp os
Ġa ct
Ġe ver
ĠB ubb
la st
to asted
ĠL ace
sh ould
ĠO h
ĠE venly
ĠJ ub
ĠK athy
Ġsl ight
ĠPe ter
Ġpre ced
Ġsmooth ly
Ġham mer
ĠTurn ip
Ġhor s
ĠWith out
Ġpop s
ĠPat ty
ĠCa vender
ĠGo o
Ġdump ling
Ġscallop ed
Ġthread s
iod ized
Ġglycer ine
Ġmul ti
ĠCle ar
ĠPur itan
ĠShip wreck
ĠBund les
erit age
* *
G ar
b ably
m etal
t D
w ine
at el
il ee
ut ti
Ġa ge
Ġe agle
ĠS ens
ĠS ally
ĠP reacher
Ġg ent
as ts
ĠA ut
Ġat tra
ie v
ĠD ifferent
ers ion
co ol
ĠI ts
ĠG irl
ĠG ather
ĠSal ted
ĠE t
ul ous
ĠCut lets
se mi
ĠGra ss
ĠOn ly
Ġne ct
Ġmarin ating
Ġdi abetic
ĠChe er
Ġwork able
Ġdrink ing
ĠRuss et
Ġ36 0
Ġrot el
ĠSec ret
ĠFran k
Ġwe ak
tP ut
ĠTra il
ĠUnder wood
ouff er
Ġunw rapped
Sa usage
Ġeff ect
Ġstain less
Serv ings
ĠCab in
Ġproced ure
ĠJub ilee
Ġpreced ing
C andy
I ts
R ed
Ġc atch
re m
al i
Ġd eeds
ĠS op
ĠP a
ĠP arm
Ġl igh
to re
ĠD om
ĠF la
et ic
Ġcorn er
ĠL and
sh opper
ab lis
ĠE ither
Ġ12 0
ent ine
ĠN eeds
Ġhead space
ĠFro sts
ĠMeat ball
Ġconcentr ates
ĠZ iti
ĠAl ways
ph abet
ĠSm oke
Ġinc l
Ġits elf
Ġstring s
ib b
Ġpull ed
Ġliver wurst
ĠSuper Moist
Ġhow ever
Mix ture
ĠEsp resso
ĠSmok y
Mex ican
Ġveg ies
ĠQ ue
ĠBloss oms
Strawber ry
' ve
C amp
K ids
W ith
j ack
p udding
s our
s ifted
in n
Ġs chool
Ġp ass
Ġm us
at elli
ro ger
ĠB it
Ġg olf
us ki
Ġflour s
to sh
co ated
um n
om atic
ĠSt ouffer
asser oles
rink les
Ġk ahlua
Ġapp rox
ĠO ur
ĠE ven
ĠCr usts
Ġchill ing
ag ie
Ġdough nuts
Ġmash ing
Ġsift ing
mi um
ĠDel ite
ĠDiv ine
ĠFarm s
orm al
Ġtri p
Ġallow ed
ĠGrape fruit
Ġac comp
cl ude
ĠBra ised
Ġcheck ing
flour ed
car rots
ĠFa j
ĠMargar et
Pepper idge
Ġfrit ters
Ġtemper a
mis weet
ĠGras shopper
ĠRapid Rise
C ol
E x
b and
w d
z os
Ġb ud
Ġf arm
Ġf eel
ro t
ĠS wee
ĠB our
Ġh ad
ĠM oon
un ks
Ġth ough
Ġth ings
Ġn or
ĠCh ablis
ĠF ay
ser ve
ĠL ong
ĠCook er
ĠH ow
Ġis n
erv ed
ĠK uchen
ĠV egetarian
oil ed
Ġup right
let t
ump t
Ġlo yalty
arin es
vap orated
ubb ing
Ġjelly roll
ĠPick in
Ġdri bble
ĠPat ch
ĠCla ms
ĠMan icotti
ĠStart ing
ĠPar fait
Ġ23 4
Ġ23 6
ĠClo ves
acc i
uv re
wie back
G reen
P re
b atter
g ah
r ice
Ġc reat
in ation
Ġt im
es a
ut if
Ġch erv
ĠC acci
ĠS ide
ĠS olo
ĠT ass
Ġv ol
Ġst uck
Ġj oy
Ġn ormal
ve y
ĠD onna
ans as
ĠH ens
im al
if y
ink s
ab ulous
ĠK l
ĠItalian o
Ġconfection er
Ġstand ard
amp le
ĠJo an
Ġscoop ed
ik o
ĠPark er
ĠPim iento
ĠWil der
Ġjulien ned
Ġplan tains
Ġdisapp ear
ĠHom estyle
Ġcherv il
. ;
4 50
J ack
S ave
b ird
s i
Ġm ex
al oupe
Ġf eels
or ice
ĠS ad
ol bas
ĠM allow
Ġmin eral
Ġwh eel
ĠD one
col ates
Ġse misweet
ach er
ab el
ĠBro th
Ġla d
ĠTh umb
Ġit em
ĠCorn starch
ĠTo pped
roxim ate
Ġ16 0
ĠFl ounder
Ġcomp any
ĠTater s
Ġinc orp
Th ese
ond ra
St uffed
Ġbur ritos
Ġcirc ular
over night
ĠWind ows
Ġpray er
Ġpizz as
Ġevapor ates
rip ture
ĠFloren tine
Ġnect arines
B ean
D iet
H igh
L ike
O ptional
f inger
g ing
m en
t ub
Ġc asseroles
Ġt an
Ġp yrex
Ġf ar
ĠC oney
ĠB ottle
Ġh ere
ĠT iger
Ġsh uck
ĠCh estnut
Ġmar bles
oup on
Ġwh o
Ġwh irl
me asure
con densed
qu arts
am arina
ĠH as
ĠH urry
ĠG or
bo hyd
ĠJ on
ĠJ un
ĠTh ick
Ġout do
Ġdough nut
Ġz ip
ĠGra pes
ig an
Ġsm iles
Ġfold ed
ĠSc ripture
do bo
Ġgrain y
Ġfil ing
ingers nap
Ġcurd le
Ġ17 0
ĠBon nie
ĠFran co
ĠRot ate
In tosh
allow een
Ġtong s
ĠRoma ine
Ġcrystall ized
Ġfaj ita
ĠRequ est
ĠTass ies
B eef
J iffy
b ies
m ing
in clude
Ġs nap
Ġp ail
Ġm alted
ĠC ast
ro ot
Ġ3 20
it ting
ĠM ush
ĠA g
Ġun roll
Ġpepper ed
ir s
nd a
Ġre constituted
Ġr ubbing
ĠH ealth
Ġmay be
im ate
mo s
Ġso aking
Ġro ots
ĠO ran
oll ip
ges t
Ġpinch ing
ĠLe viticus
ĠTurn overs
ĠLo in
Ġsm ile
Ġpound ed
Ġind ic
Ġfri ends
ĠHea ven
ĠBuckey e
Ġpet ite
ĠSin ful
Ġdelic ately
Ġmot ion
rif ice
ĠMarb le
ĠQuesad illas
Tom ato
Camp bell
1 10
8 00
B isquick
C ake
C ranberry
G ran
P ut
f our
g an
l ittle
Ġ1 10
rea u
ĠP i
ĠP oupon
ra mi
ĠM id
ĠT ip
ch uck
ch illed
ce ed
ĠCo int
Ġst ores
ie ved
ĠL ick
ĠH alloween
ĠG arb
ĠK ay
ĠK ugel
lo ck
ps om
Ġfilling s
ĠN ell
Ġrais ed
Ġen amel
Ġtender ized
ĠSh ir
Ġhand led
ĠSo ck
ĠMar aschino
Ġbar rel
erm ent
orb et
av ailable
ĠRomano ff
ĠNor wegian
ĠHal ibut
ĠAla b
23 4
Ġappear ance
ĠExtra ct
ĠStri p
Ġimpro ves
ĠSouthw estern
Ste p
Gar lic
Ġvol ume
olbas si
P h
b oth
e le
g rease
i ber
o uts
p la
p ork
Ġ ut
in ted
Ġs ing
Ġb arbecued
Ġf arina
ic orice
ĠS nap
ĠB urn
Ġh r
ĠT arragon
Ġth ought
ch atel
Ġst ars
ato re
Ġsh aping
Ġsh ots
Ġsa ys
ĠD iced
ĠD ian
ĠW ar
ĠF izz
Ġr ange
om m
ap ricot
Ġgra m
Ġapp rop
ore an
ĠN ine
ĠPot luck
ĠU g
os ter
ĠRo b
ines ap
ĠSeed s
Ġcap ful
ank ee
ĠMa e
Ġfettuc cini
Ġdoub les
ĠSun ny
be ans
ĠRich ards
ba con
Ġcryst al
ĠNan ny
uf chatel
Al so
ĠWind ow
ĠHen ry
ĠCant aloupe
Ġattra ctive
ĠOran ges
ĠCoint reau
ĠShir ley
ĠAlab ama
Ġapprop ri
3 1
G lazed
M ade
S e
a ces
d rop
g ur
p ensive
Ġs ard
Ġt ree
re ct
ou ffee
le as
pp a
ro d
ĠS ee
ĠP ul
ĠM r
ĠCo d
Ġwater y
Ġsh ow
th at
con d
Ġcon t
Ġcon ven
Ġro s
ĠE m
ege burger
ĠSa usages
ĠY ankee
Ġspoon ing
Ġdo ves
ia h
Ġsepar ating
Ġpat ted
Ġsto pping
Ġhigh est
lit er
ĠCrab bies
ĠCamp fire
Ġsqueez ing
Ġ28 0
Ġho isin
Ġho agie
Ġdec orated
Ġgu ava
Mo zzarella
Ġ29 0
Ġphe asant
ĠPlant ation
ĠQue en
ĠCacci atore
ĠWilder ness
Ġappropri ate
D ay
F resh
p int
Ġc er
an a
Ġp ra
Ġp ile
at ures
Ġw ipe
ĠC rinkles
Ġsu gah
Ġd andelion
Ġpe g
ĠCh ick
st ess
ill er
et it
Ġsp eck
ĠL akes
ĠH ol
Ġcrack s
uff in
ack er
Ġan g
ĠN ame
ĠN ib
ĠSh er
issol ved
pe an
Ġdire ction
Ġfin ally
sa iah
Ġcur ing
Ġ* *
Ġherb al
ĠBur rito
ĠWheat ies
Ġtam ari
Ġsee m
Ġmed ley
bur g
Ġman ner
yn es
ĠYork shire
Ġperiod ically
Ġsac rifice
ĠAut umn
ĠParm ig
Ġincl ude
2 7
B atter
G rand
N on
O ut
c il
f itting
t Cook
t Re
at i
on ger
ing bird
ĠS ister
ĠB ible
Ġl icorice
ĠM ah
Ġor naments
ĠA dobo
Ġst eady
Ġbro ok
Ġn ose
th en
ĠW ondra
ad os
ĠF abulous
Ġr uns
Ġheat proof
mbur ger
ĠLay ers
ĠTo o
ĠQu ail
Ġany time
ĠMarin ara
wh eel
Ġcl ings
ĠDe bbie
ĠMe thod
ĠNe ufchatel
add ed
ik k
Ġbl intzes
Ġdia mond
ĠBon eless
Ġperson al
ĠRi ver
Ġbitter sweet
ĠMilliona ires
ĠAla ska
pie ce
Ġquant ities
Ġsquirrel s
Ġhum or
Ġcas ing
ĠConfection ers
ĠDom ino
ĠBour sin
Gran ny
ĠUg ly
" (
F illed
O ro
V egetab
f se
m uffin
s olid
Ġ `
Ġ ess
Ġ upper
Ġc ure
Ġp h
il ity
al ready
Ġf aul
Ġw eather
ro l
ĠP aste
dd ess
ĠT rout
ĠA w
Ġun melted
Ġcan es
ell er
Ġfor get
Ġ4 2
ĠR ight
ad s
ta c
ĠF eeds
res erving
ĠSt retch
ĠL u
ĠI da
op ened
ach el
im ents
Ġal phabet
Ġsl ip
Ġrefriger ation
ĠCut out
ĠY ears
ĠBoil ing
Ġcolor ful
ĠRo bert
Ġevery one
ĠDump ling
ĠFarm er
de pends
ath an
may be
ĠRom an
Ġlook ing
ĠGo ddess
ĠAn ise
ĠPol ynes
ĠBl oody
Ġpro bably
ĠPar is
ĠMary land
Ġdamp en
ĠSand y
ĠFettuc ine
Ġcounter top
ĠCarol yn
Ġoverla p
Ġscr ub
Ġpet als
ĠHumm ingbird
Ġfo ams
Ġgoose berries
ĠSus an
grape fruit
ĠPier ogi
ĠEt ouffee
ĠFaj itas
Ġlad le
M ustard
b lend
f y
f aced
h and
h ea
Ġc u
Ġb uff
il s
Ġch urch
Ġw id
or iz
our i
Ġsu ggest
Ġd uty
la h
ĠM art
Ġco con
Ġco ff
ch iko
Ġcan not
Ġn ine
ĠD ates
od ge
st ems
ĠF it
Ġre tain
Ġsp ots
Ġsp aring
ĠSp ark
ĠL y
ĠCook book
ĠI saiah
im in
ĠG er
ĠG low
ars e
Ġex ten
li ed
ĠBe ar
ne ck
ĠPress ure
oy a
wh en
ness ee
ering ues
Ġtowel ing
ĠToast ies
Ġwhisk ing
ĠCol le
Ġench iladas
!! !!
ĠLi que
Ġwor ds
Ġfinger tips
Ġdecor ator
ĠMiss ouri
fin ely
Ġdamp ened
ĠCap tain
Ġstay s
Ġpal ms
Ġhus k
Ġstor ing
Ġsmok y
ĠLunch eon
Ġsna pper
Ġore o
ĠSmuck er
Ġaccomp an
umpt ious
ĠCast le
Ġcocon uts
Ġsparing ly
4 25
D ouble
K aro
S erve
T astes
b r
c i
i ole
j ar
p acho
q t
r ind
s ift
Ġc rispies
an ks
Ġo pa
Ġb or
Ġt uck
Ġt int
Ġp ain
Ġm ellow
Ġf eta
ro wn
Ġa ch
Ġ3 10
ĠS ilver
ĠB re
Ġh it
ĠM ist
Ġcan n
ver bs
mon t
co b
qu ant
Ġy ummy
ĠL ife
Ġsour ce
ĠI I
ĠRe freshing
Ġcut let
ĠE psom
ĠK at
Ġdressing s
Ġha ving
ĠTh om
Ġit alian
ĠBrown ed
Ġnut rit
Ġother wise
ex pensive
Ġste ps
out h
app a
ĠSepar ately
ĠLi vers
ĠMexic o
ĠHar vey
Ġslee ves
ĠKrisp y
ĠPen ny
Ġcroiss ant
ĠBarb ara
On ion
az pacho
Ġarran ged
ĠIng redients
lt imate
ĠScott ish
wd ust
ĠPolynes ian
Ġopa que
. *
7 50
D ough
E R
H eritage
M ushroom
b reak
d ouble
h erb
i pper
l b
t ip
ar on
Ġo ppos
Ġb and
Ġb ibb
Ġp ig
Ġf erment
Ġch ang
ĠC afe
Ġd ream
ĠS ur
Ġg ourmet
ĠM er
ĠM aw
ĠM olly
Ġ( .
all ions
ch anges
Ġj al
ĠD is
ĠD ec
ĠW ell
Ġju gs
ush aw
Ġr icotta
ĠSp ec
ĠRe member
Ġas se
Ġ13 0
ĠV ern
ĠChill i
ĠU ltimate
Ġz esty
Ġz wieback
cle ar
Ġcro quettes
ount y
uns ifted
ĠCran berries
ĠHa ddock
ĠHa ppiness
Ġdi sp
ĠGrand pa
ĠSk ins
ik i
Ġlingu ica
ĠAn nie
ĠStro mb
Ġfrankfur ter
ĠMexic ali
ĠSar ah
Ġbla des
Ġ46 5
Ġmicrow aved
Ġgarban zos
tP lace
fill ed
ĠPort uguese
sl ice
Ġtra ditional
Ġpast rami
Ġbund les
ĠTen nessee
Del icious
ĠWin ning
Ġbu il
Ġbea utif
Ġhol ders
Ġma garine
Ġgent le
ikk oman
tac ular
G erman
N oodle
c auliflower
m ashed
t F
u zz
Ġ )
Ġ arm
Ġt il
Ġm il
Ġm ic
il i
Ġf ur
Ġf estive
ĠC rimp
Ġa mber
Ġd isc
Ġd ressed
ĠS irloin
ĠB irthday
Ġh urry
Ġh ealth
ĠM achine
ĠT id
ĠT iny
Ġv is
Ġcho y
Ġcho pping
ĠCo kes
ĠAdd itional
Ġsh ank
ĠW eed
om it
Ġse le
id ed
Ġbread ed
ĠG allon
ĠG azpacho
ĠBro oks
Ġchil is
ĠCream s
ĠCr isscross
Ġjello s
Ġclo ver
li ve
ag o
Ġfood s
ĠMo uth
Ġte ars
ĠTurn ips
ĠLo oks
so me
Ġsm ash
ĠChil ies
ĠDor oth
ĠBa ggie
Ġac ini
ĠNor th
23 6
23 8
Ġcom ing
Ġhull s
Ġprop ort
ĠBel ieve
Ġrutabag as
Ġvari ation
Ġsubstitut ing
ĠRichards on
Ġsard ines
ĠParmig iana
Ġfaul ts
oriz o
ĠSpec tacular
; \
L a
M on
M eat
h omemade
o ff
r at
t el
w ashed
Ġs er
Ġw esson
el ves
ĠS atur
ĠB ol
ĠP ine
Ġg iving
ch es
ĠA b
til l
Ġn est
Ġsh amp
Ġat tach
ir in
ĠD unk
ĠW inesap
st art
Ġgr atin
Ġcorn s
co arse
Ġy ears
ĠSt ate
ĠL yn
ĠG um
Ġal fredo
ĠO k
ĠJ umb
ĠJ une
ĠK roger
ĠK ikkoman
Ġan imal
ĠChill ed
rop roof
Ġ7 2
eep ot
row root
ĠSl ip
ind y
Ġacc ent
Ġar rowroot
Ġfour th
ĠDi pping
ĠTw ists
Ġsur round
Ġbul gur
Ġgo oey
Ġ36 5
Ġty pes
ĠMc Butter
ĠMc Intosh
ĠWaff le
ĠDiabetic s
ĠAm ount
ĠEar ly
Ġfix ed
ĠHumm us
Ro asted
mini ature
Ġpen cil
ĠSna ppy
Ġgher kins
ĠJun ket
acker el
Ġmic roproof
Ġshamp oo
B lue
H ershey
M c
P an
P eek
R hubarb
d ivided
i sp
n es
il lets
al so
Ġ2 30
Ġ2 70
Ġd ull
Ġd ru
ĠB er
ĠB ull
ĠP ico
is ins
un ion
Ġ( #
Ġco al
Ġmilk s
ri dge
th ey
ĠD ais
ĠW agon
od es
st one
ĠF e
ĠF le
ĠF eather
co conut
Ġsp in
ĠI re
ĠG ive
Ġwhite fish
udd ed
ĠRe m
len e
len ded
ĠO z
uff le
ĠV ic
ift een
Ġthick est
ĠSh oney
Ġdough y
ĠRefriger ated
ĠCho ose
ris es
ĠTo pper
ĠFl ute
Ġpin wheels
ĠMex i
Ġdark en
ĠCheez y
ĠCand ies
Ġtid bit
Ch ill
Ġdel ight
Ġfoam ing
Ġbit es
Ġbas s
ĠTr uffles
oe uvres
ĠLas ts
ĠFir m
Ġnew sp
Ġrese al
Ġfit ted
ĠHo stess
Ġna vel
ĠMel ta
ĠFast en
ais er
Ġcrunch ed
ĠWel sh
ĠOle o
ĠBel g
Ġindent ation
Ġsizz ling
ĠPass ion
hal ves
He art
ĠPock ets
bab y
Ġtang y
Ġtrip led
bohyd rate
Ġess ence
hea vy
Ġcoff eepot
ĠLique ur
ĠStromb oli
ĠDoroth y
5 5
A ny
D ish
W ill
f ield
g on
s low
t est
t rem
Ġc law
Ġm eet
en b
sp berries
Ġsu nd
it t
la d
Ġh uckle
ch op
Ġor ien
ĠA mos
Ġun less
Ġun opened
Ġn ame
ur key
Ġfro th
qu arter
ĠSp ider
Ġy et
ser ts
ĠL ake
Ġbread ing
ĠRe fresh
ore ver
ul k
ĠSa wdust
Ġus es
ĠJell ied
ĠPre p
und ry
Ġtw enty
Ġcons omm
Ġpat ting
ĠMin ced
Ġcomplet ed
ĠCrack ling
Ġsurf aces
ĠAn ne
ĠBl ond
Ġbl ot
Ġrot elle
atur ated
Ġeven ing
ĠBas e
Ġsuit able
ĠJohn son
ĠJoy ce
ĠNest ea
ĠMargar ita
Ġgroup s
des ired
ĠGall o
ona ise
ĠFud gy
We ight
Ġgreas ing
Ġreg isters
inn ers
Ġoppos ite
Ġorien tal
T wo
c elery
c chi
j ect
l or
n itz
r al
v els
Ġ ST
Ġc abb
Ġb igg
at ional
ic ama
or itos
ĠS it
ĠB uy
Ġh og
is ette
ĠM ain
ĠM eringues
ĠT ahini
Ġcream ier
ot ash
ĠA id
Ġcho colates
Ġst udded
Ġsh ut
ĠR ind
ĠW is
ĠF ra
Ġre lease
con om
ĠSt ores
ĠWh at
ĠE r
ĠPie ces
ĠPe ggy
Ġsof ter
Ġshred s
ess ie
Ġsoy a
ĠBrand ied
ĠLe g
Ġtw is
ĠCon tin
Ġmold ed
Ġic y
ĠPack age
Ġpul se
ĠPro verbs
ĠNew man
arbecu es
Ġsw ordfish
ĠBor der
ĠScr atch
wal nut
ĠHel per
stir ring
Ġwatch ing
Pe ach
Wh ite
Ġjo ints
ĠColor ado
Ġdelic ate
ĠKe mp
Ġrutabag a
ĠMunch ies
Ġoutdo or
Ġcont rol
Vegetab le
Ġbuil ding
ĠDais y
Ġhuckle berries
A ng
B read
D ip
g ie
l s
o st
o ven
r ite
u um
Ġ iodized
Ġs ake
Ġs ince
ar ed
Ġb ody
es ide
Ġm oon
al most
al coholic
ou la
it al
ĠB ow
Ġh rs
is o
ĠM im
ĠT ilt
Ġj im
Ġn ap
ĠD apple
ĠD ale
ĠW at
ill o
ĠL es
ĠL uck
ĠG h
ĠRe fried
Ġk ool
Ġk abobs
ĠJ igg
ĠK im
ĠK iller
Ġmeat ball
ĠMelt ed
ac uum
Ġdo ing
ud el
ĠFry ing
ĠRed enb
fl at
ĠDi pped
Ġstock pot
Ġsun shine
no cchi
Ġpr al
Ġbas kets
Ġass ort
ĠAn na
Ġwra pping
Ġpull ing
ĠCub es
ĠServ ed
ĠEl mer
24 0
ĠTra ditional
brown ed
Ġsim mers
Ġheart y
Ġdec rease
ĠChar lie
ĠLor na
tS erve
Ġsuper fine
ero os
ĠBak ers
ĠDie ter
separ ate
Ġhun gry
ĠMich igan
ĠKar en
Ex cellent
Ġthough ts
ĠKl uski
irs ch
Ġthought fulness
Ġros amarina
Ġcu ppa
Ġaccompan iment
gon zola
Ġcabb ages
ĠRedenb acher
G o
H o
M a
d iscard
e vaporated
g lish
l ot
t t
t to
t Let
w atch
y d
Ġb lu
ed ic
es is
Ġm om
le af
Ġ3 3
it ter
it erran
ĠS or
ĠS errano
ĠB ite
ĠP udd
ĠP osition
Ġg izz
is ch
ĠM as
ĠM od
ĠM icrow
00 0
ok ay
ok neck
Ġsh e
ĠCh urn
ĠCh ange
ĠD ar
Ġbe ar
sh ortening
ant ime
ĠK orean
Ġla undry
ĠMelt ing
Ġen glish
ĠPre tty
ĠSh o
Ġmo chiko
os ity
Ġde velop
Ġspoon ed
ĠTo dd
Ġyour self
Ġri d
Ġkn ow
ĠMar vel
ĠDream s
pen d
ca o
wh atever
Ġ14 0
Ġcl ou
ĠKra zy
ĠPo ached
ĠLea f
ĠArtich okes
bur gers
Ġfall ing
ĠScotch eroos
Ġdrum ettes
istrib ute
Ġdoll ar
ĠOmelet te
Oe uvre
Ġcod fish
ĠBuff et
car ole
ĠFa ith
sal ad
Ġhum an
ĠBloss om
Ġripen ed
Ġsat is
ĠCons omme
ĠSop a
ĠGor gonzola
Ġconven tional
Ġcann ellini
ĠIre ne
ĠFirm ly
Ġassort ment
iterran ean
M ore
O atmeal
P armesan
P illsbury
c or
d ip
i els
m icrowave
r d
t until
t Cool
w or
x tail
Ġs ort
Ġb le
Ġt reats
Ġm illet
en ta
Ġf aster
ĠC ath
ĠC ity
ĠC indy
ak o
Ġd aiquiri
ĠS li
ĠB u
ĠB atch
la p
ĠP ower
Ġg ather
Ġg ingersnap
gg ing
ĠM ike
Ġbutter fly
ell ed
ck rich
ĠD oon
ĠW all
ad as
ĠH us
ĠK irsch
ĠPe bbles
ĠTh irty
pe ct
ĠMo ve
ĠSl ide
ĠGra ce
Ġqu ality
Ġsepar ates
centr ate
Ġper ch
ĠCon t
ĠUn bel
ĠAl ice
ĠBlue berries
ĠOr ville
ĠJack ie
ĠHa zel
ĠRa violi
Ġburn s
Ġgener osity
ĠGo ose
ĠHe ap
Ġdevil s
ĠMed iterranean
ĠMel ts
Ġes carole
ĠScr umptious
Ġpri me
Ġcav ities
ĠSkin ny
ign on
Ġrequ ire
Bro wn
Ġduck s
ĠCanad a
ĠEsc ort
Ġlift ing
Ġpicnic s
min ced
Ġher ring
jell y
ĠThumb print
Ġincorp orated
Ph illy
ĠSher ried
ĠColle ge
ĠOz ark
ĠRefresh er
Ang el
3 6
8 0
D ump
F ashion
S to
U P
c ider
e in
h orn
r ick
Ġ i
Ġs ieved
Ġp its
Ġp ipe
at ini
al mond
ou g
Ġf an
Ġto tally
Ġa ut
Ġa merican
Ġd ra
ĠS ole
ĠS ort
ĠB alsamic
la s
gg ed
gg ies
ĠT B
ĠT ree
Ġco ke
ch unks
Ġj icama
Ġsh anks
ĠCh ives
Ġsa y
Ġthe ms
Ġwh eels
ĠD ain
ĠD istribute
ĠW anda
ĠW oman
Ġgr ating
Ġbo at
ĠF eed
ĠF illet
ur b
Ġtom at
ĠH erman
ĠG ib
Ġgra ss
Ġk olbassi
ĠK ris
ĠV ari
ĠTh ing
Ġsk illets
ĠN othing
ag ination
ĠSh ish
pe can
Ġmo ve
Ġtab lets
Ġres taurant
ton s
ĠSqu irrel
Ġhash brown
ĠOr zo
Ġcl uster
ail s
Ġtin ted
Ġburn t
ĠBo ats
Ġgo at
Ġfinish ing
ĠFran c
Ġdeter m
Ġinsert ing
Ġwinter green
ura cao
Ġadjust ed
Ġcas ings
Ġmot or
Ġtong ue
inet ti
refriger ated
ĠCarb on
iev able
ĠJon athan
ĠDian e
ĠCastle berry
ĠTid bits
ĠGum drop
Ġreseal able
ĠBelg ian
trem ely
Ġsund ae
Ġblu ing
Ġthems elves
B reak
E ng
H am
K n
O ri
S P
c and
d ash
d issolved
e asant
g en
g ro
m inute
v inegar
Ġo pt
Ġb ri
Ġf avor
Ġf iber
Ġin expensive
pp in
Ġ3 4
Ġd id
ĠS izz
ĠS ometimes
ĠP al
ĠP kg
Ġpe pe
Ġh unk
Ġh ealthy
is ing
ĠM ess
ĠT okay
ot a
ot o
ĠCo b
Ġsh rink
Ġsh own
ĠR on
ĠD aiquiri
ĠF ace
et ta
me ar
con sin
ĠRe eses
Ġapp ly
ĠE th
ĠIn stead
ĠK en
Ġra men
ĠV ick
Ġrefriger ating
ac ing
ĠSh aron
ĠCorn y
Ġsimmer ed
Ġcolor ings
Ġde pend
ĠRo y
Ġpo ssum
Ġcle ans
tin to
ĠRed ford
ĠSc rew
Ġdri zz
ĠToss ed
Ġaddit ions
ĠDump lins
ĠGood ie
ĠApp ly
ĠPh easant
Ġel imin
Ġgarnish ing
Ġpit as
ĠPan ky
Ġwash ing
Ġsur rounded
ist urb
ĠMom ents
ĠBo at
ĠMa x
ĠMa jor
ĠGo op
ĠSurp rises
ĠSummer time
Ġwor th
ĠSun flower
Ġcrush ing
ĠRich es
ĠRot ini
yl ine
Ġca pped
ott led
ĠDan iels
pour ri
Ġcamp fire
ĠSouthw est
blue berry
ĠDecor ator
ĠRh odes
ĠWreath s
tCo mbine
ĠFay e
ĠBre nda
ĠSur round
Ġvis ible
ĠBol ts
Ġbigg er
ĠWis consin
Ġjim mies
ĠWat kins
isch mann
Ġhashbrown s
Eng lish
! \
A r
C rack
E ver
H a
M om
P ie
P et
b etter
b ulk
n i
p ine
t ri
t with
Ġm id
Ġm acaroon
Ġch ex
Ġch orizo
ic er
Ġin ner
Ġa b
ĠS co
ĠB ee
ĠM en
ĠM ul
Ġun thawed
Ġun toasted
Ġst ate
Ġj us
ir ts
ĠR are
ĠD ress
ĠW ood
Ġgr and
ill i
Ġoil s
ĠF lower
co mb
ĠSp ir
ĠL ill
ĠL abel
Ġcon ch
ĠG re
ĠG riddle
Ġbox ed
ĠE ckrich
Ġserv ice
Ġla vender
ĠSh arp
ĠButter y
Ġliqu ified
Ġde pression
Ġdo ve
ĠCar ter
ĠCar ib
Ġcro okneck
ĠLe gs
ĠTab lespoon
ĠFill s
Ġcrisp ness
Ġnon metal
Ġar oma
ĠMin ted
Ġlong ways
Ġchi ve
ĠPick ing
Ġpop overs
fl akes
ĠRa ise
ĠCrack lin
Ġcl umps
egg s
Ġsur p
ĠChris t
Ġdon uts
ĠCrock pot
ĠHe arts
ĠCub ed
roll ed
Ġrot ate
ĠPear l
Ġdust ing
elve ty
Ġsho vel
ĠSta y
ĠBra unschweiger
olut ely
Ġho op
Ġbuck wheat
Ġrequ ires
Wh en
Ġtost ada
squ eeze
ĠMost accioli
tSp rinkle
Ġenh an
Ġact ing
ĠBubb les
ĠHol y
lah oma
Mon terey
ĠLyn n
ĠOk lahoma
ĠTB SP
I G
L ight
O O
W esson
i ans
p kg
r ust
s ing
t Roll
Ġ ,
Ġc yl
Ġc ushaw
Ġ1 75
an zo
Ġp ilaf
at wurst
on to
ĠC ould
pp e
el i
ĠS ic
ĠS ingle
ĠB ry
ĠB isc
ĠP urpose
ĠT utti
Ġv ersion
Ġv acuum
ot ti
ell mann
Ġn eat
ĠCh al
ĠCh ive
ck y
ck er
ĠR ig
ĠD awn
ĠW ee
ta h
igh ten
Ġsp ot
ĠSt ud
ĠH ope
ĠG lad
Ġro asts
friger ate
ĠE mer
ely n
ĠJ ug
Ġfill s
Ġ12 5
ĠTh read
Ġsk y
Ġsqu irts
Ġen clo
Ġset t
Ġpla ster
ĠSl im
ĠRo me
Ġpo ached
ĠSe cond
ĠDo h
Ġdri pping
ĠCand i
ĠVal entine
Ġfil o
ĠCoffee cake
ĠSk ew
ĠSk yline
ĠCoat ing
ĠLa ura
Ġinc reased
ĠCl ar
Ġentire ly
ĠTender ize
ĠScoop s
Ġris en
Ġ23 5
Ġdis color
Ġcor rect
ĠAm ounts
ĠSta ys
ĠBra ise
Sp ice
Sp inach
Ġhom estyle
fa its
ĠBag el
ĠLady fingers
pie ces
ĠNest les
Ġprod uce
ĠLeftover s
ĠStr udel
Me thod
ĠVer mont
Ġsac ch
ĠColl ins
Ġprevious ly
ĠAg ain
Ġindic ated
Ġsing les
Ġcer amic
Ġang le
ĠMelta ways
ĠJigg lers
ĠPudd in
wor th
ĠUnbel ievable
Sto ve
ĠGib let
Ġcyl inder
C innamon
D es
I R
L ite
N estle
R a
b lended
c ture
j u
m ise
m ati
v ie
v irgin
Ġc uke
Ġb ok
Ġt asting
Ġp ic
Ġm other
ĠC ans
le ftover
Ġsu pper
ĠS age
ĠS naps
ĠB ul
ĠP umpernickel
is a
Ġl uck
ĠM ile
ri ft
Ġsh aken
up er
ĠW itch
ad ise
mall y
Ġse lect
Ġpot luck
ĠL ollip
ĠH ead
op t
ĠG ul
Ġso uth
udd y
ab les
ĠO ccasion
ĠE ast
Ġex tremely
mp t
ey es
Ġpre mium
ĠSh akes
ran ce
Ġbag u
Ġgelat ins
Ġmeal y
ĠRo ot
Ġtur tle
ĠAr k
bl ers
ĠMar ia
Ġpar ing
Ġme antime
wh ip
ĠRa spberries
ĠChe es
Ġcla use
ĠTw enty
Ch ow
Ġdel ights
ĠMom ma
Ġcap ellini
Ġsoften s
iffer ence
Ġrich er
ĠLou ise
ĠSch nitz
ĠPap er
ĠAla sk
ĠJan et
ĠFil et
ĠBus ter
ĠInc red
ĠRos y
ĠMam aw
ĠPres to
Car rot
Ġpol y
Ġfo ot
ĠColl ard
ĠNa vy
tCo ver
ĠMild red
ĠDrum sticks
ĠBit ters
Ġcreat ive
ĠSatur day
Ġattach ed
ĠJumb les
ĠVic tor
ĠContin ental
Ġgizz ards
ĠMarvel ous
ĠSopa ip
ĠCath ed
ĠCarbon ara
ĠAlask an
) :
D rop
F l
H ellmann
S pan
b ig
b ought
c anola
d ogs
f amily
g olden
g ener
i os
l ots
l ukewarm
p et
t ake
t art
t the
t Chill
w est
w ards
y olks
Ġt ried
Ġt end
Ġm en
Ġm as
Ġm ass
Ġm ackerel
at z
at kes
al monds
en se
ĠC one
ĠC ilantro
Ġe ase
ĠB ack
ĠB unch
ĠB arbecues
ĠP uffy
un cture
ĠT reas
ĠT int
Ġv ert
ĠA sh
ĠA sse
ĠCo mm
Ġst ated
ater s
til age
Ġsh are
Ġsh owers
Ġcr ink
ien ne
ĠR anger
ĠD ee
ĠD ia
ĠW ing
ad ina
Ġy am
ĠL uc
ĠL eek
id ent
ĠG ame
ĠG oya
Ġcar tilage
ĠO ff
ĠO mit
ĠE nergy
ĠK ern
ĠK iwi
Ġmeat less
Ġsl ide
Ġli kes
Ġha ppiness
ĠTh yme
). \
se veral
ucumb er
Ġpeel er
rand s
Ġsc raps
bl ing
Ġar omatic
ĠMin estrone
ĠPepper ed
Ġhigh er
ĠDream sicle
ĠCon nie
Ġ18 0
ĠCup cake
ĠSup erb
Ġcaramel ize
ah i
ĠCro wn
Ch erry
Ġdon ut
ĠDill s
ĠLa ughter
ĠRes taurant
mm m
ĠJam a
Ġpers ons
ond ant
ĠPol ly
oz e
he m
Ġbur st
Ġcre ole
ĠBuck le
Fro zen
Ġsim p
ĠEd na
Ġpush ing
Ġpee king
Al coholic
Ġtater s
Ġca use
Ġca jun
ĠDan non
Ġsmok ing
Ġtost ados
Ġmembran es
Ġob tain
Ġenh ance
ĠDav is
Ġdiabetic s
Ġligh ter
ĠPi quant
ĠBurn t
ĠGer ber
Ġbor der
Ġmil der
Ġfur ther
rat en
Mc Cormick
ĠFle ischmann
ital ini
itter lings
ĠDoon e
Ġelimin ate
ĠCarib bean
ĠSic il
ĠRig atoni
ĠCathed ral
A T
A s
B a
C on
G ra
H our
H oney
L ea
M M
P o
T hey
c andy
h i
m ie
m other
n eath
o a
p ink
s till
u ge
u erb
v in
in to
Ġs lash
en a
Ġch eez
ĠC all
el ma
ak s
it am
Ġd ew
Ġd iff
Ġd italini
Ġe m
ĠS ub
ĠP ay
ĠP ain
Ġl ines
un ge
ĠT a
ch erries
ell es
Ġst ud
ri de
Ġn appa
Ġsh ows
ĠR est
ĠW olf
Ġpowder s
Ġoil y
ay lor
qu ite
Ġy ield
ĠL il
ĠL ess
ap s
ĠH orn
ĠH ole
Ġcrumb ling
im itation
ĠRe g
ĠO l
ĠIn side
ĠK ring
ĠK ind
Ġra me
Ġfir mer
mp le
Ġnut ty
Ġtender ize
Ġcran k
Ġmo ck
ĠCar bohydrate
ĠPeanut ty
sa usage
ĠLe fse
Ġstri pe
ĠFro g
ĠLemon y
tin es
ĠLo ver
Ġcomp ressed
Ġim agination
Ġaltern ative
ĠDe pending
Ġgi ant
uss el
ĠGrand s
ĠDri p
Ġunder neath
Ġbul b
ĠUs ed
Ġopen ed
Ġpul ver
ĠAp art
ĠBo hem
Ġmon terey
ĠAn isette
Co ver
Ġcantal oup
ĠMc K
mit ation
Ġwor ry
mber t
Ġ19 75
ĠHal ves
ĠEd ition
abo b
ĠPri me
non fat
Ġpouch es
Ġsmok er
ĠJe ff
ouff l
ĠGen esis
Sal ad
ĠDav id
ĠSwee ts
Ġtim ing
ĠSolo mon
Ġmex ican
Ġnewsp aper
ĠST IR
ĠCont adina
ĠRare bit
Des sert
Ġsimp ly
ĠSicil ian
uerb raten
ĠBohem ian
' m
B etter
E m
H en
L L
M ock
b owl
b ody
b ottled
c atelli
j in
j alapen
s ure
t butter
Ġc uracao
Ġs errano
Ġt arter
Ġt ilt
es ta
Ġp reserve
Ġp osition
il ize
Ġw at
ĠC ame
ĠC anola
sp icy
Ġd ie
Ġd ries
ĠS ter
ĠS tained
la sic
ĠP A
ol ph
ra isins
is to
ĠA f
Ġst ur
to pping
Ġsh aring
ĠCh ap
ĠR oughy
na ment
ill os
ĠF red
ast ime
Ġr oughly
om oto
edi ble
Ġoven safe
Ġheat s
Ġk ey
Ġk aiser
ĠE ight
ĠE conom
ĠSalad s
ĠJ erry
ĠK r
ĠK ansas
Ġsl im
Ġli ving
ĠPe ppy
ĠN ips
ĠN ippy
Ġpre made
ĠSh aker
ĠRo ca
cle an
ĠFl ako
Ġbou quet
Ġprocess ing
ĠAl ba
cad ine
ĠAng inetti
ĠDe pression
ĠPan k
Ġelbow s
Ġfil ter
ĠMe m
Ġwork ed
Ch ildren
Ch ili
ĠChristm astime
Ġallow s
Ġbul bs
Ġlas ts
ĠYum mies
ĠPr onto
Ġhold ing
ĠApricot s
ĠBen edic
ĠPro mise
ĠHea vy
ĠDay s
ĠCur d
ĠIsland s
Ġstrip ed
ĠPar faits
ĠPin wheel
ĠHun ter
fu me
ĠRock s
ĠJul ie
Ġchar ity
ĠDevil s
Ġsor row
Ġswirl s
ĠEv elyn
Ġplan tain
ĠHand le
ĠCav atini
ĠVer de
Ġshoe peg
Ġfriend ly
separ ated
Un cle
ĠTemp ura
Ġread s
Ġcond iments
Col by
lett es
ĠPul se
tRe move
Ġjal ape
Ġclou dy
ĠHus band
Break fast
Crack er
Ra spberry
Ġsouth ern
ĠSchnitz el
ĠSopaip illas
jin omoto
A head
A unt
C abbage
H E
K eep
M rs
O re
P ol
R es
T ex
T ang
W ork
a ir
b or
b ra
h oney
n oon
s m
s immer
t all
t for
t urkey
u le
v is
Ġ __
er ta
Ġo xtail
Ġb low
Ġt a
Ġm ac
at ma
on y
ou sc
Ġf owl
Ġch iffon
Ġw rit
ic ular
ĠC am
or bs
Ġsugar less
Ġa jinomoto
Ġd ips
ĠS orbet
ĠB art
Ġg row
ĠT re
Ġv egeburger
ot ic
ĠA lo
Ġun it
Ġfor th
ĠR adish
Ġbak er
od as
od les
na h
st iff
Ġbo ok
Ġsauce pot
Ġwell s
Ġlar gest
Ġre freeze
Ġsp e
Ġsp ec
ĠL ar
ĠL ump
ĠI mitation
ap t
ĠH um
ĠH op
ire ctions
ĠE ating
anan as
ĠV ersion
Ġball oon
Ġpack ing
Ġwarm ing
ĠBread sticks
ĠBe th
ĠBe ach
ĠBe cky
Ġpinch ed
ĠSauce pan
Ġhand y
ĠSe mi
Ġmini atures
ĠMeat loaf
ĠLo vers
ĠSalt ine
ĠMar sh
ĠSc and
Ġper fume
Ġseal able
ĠCon serve
uns et
ai k
ĠPet ite
pen uts
wh ites
Ġdi jon
ĠCro iss
ĠSm art
flower ets
Ġabs orbs
ĠGinger ed
ĠAn tip
Ġcloth es
Co b
Co oked
ĠBl ush
Ġshort cake
end y
ĠLi qu
ĠPar adise
Ġcor es
per iment
ĠPap a
Ġcall ing
ugge t
Ġfif ths
ĠHard ee
Ġdoll ops
ĠSu ggest
ĠChar lot
Ġwil t
fir st
hal ved
ĠNib bles
Ġwid th
Ġsuggest ed
Ġbeautif ul
Ġser rated
Ġtomat illos
cand ied
Ġfavor ites
ĠSco ut
ĠChrist ian
IG H
ĠWee ks
ĠAsse mble
Hen ry
ousc ous
ĠCharlot te
D ill
H erb
L ipton
N ever
S c
S outh
T ra
W al
Y ogurt
e que
p al
s ometimes
v ian
z on
in ding
Ġs ounds
ar n
Ġb is
ed ged
Ġt urp
Ġp le
Ġp lease
Ġm ag
on ions
ĠC our
ĠC ayenne
ĠC ounty
Ġin verted
pp ey
Ġsu pp
Ġa sh
Ġd ou
ĠS unset
ĠP oultry
ĠP leas
as ilk
ĠM ad
ĠM atzo
un g
un ken
ch eck
ver n
ri k
Ġ4 3
Ġsh ine
ĠR ise
ĠW ake
ĠF on
ĠF uzz
ers e
Ġr itz
ĠSp ear
Ġy o
Ġy ields
Ġcra y
ĠL ucy
ĠL ively
ĠH ull
ĠH uckle
mo uth
Ġoven s
Ġro ses
ĠRe gular
ĠRe freeze
ĠE ve
ĠJ enn
ĠJ umbo
Ġas k
Ġpour able
ĠV lasic
Ġball er
oni al
Ġnot e
ĠMo chi
ĠFor ce
Ġaccording ly
ĠSw ordfish
Ġcro wns
ĠQu arts
Ġsc ored
Ġbut tah
ĠCan ning
ĠLo ops
ĠLo catelli
ĠRanch o
istach ios
Ġ- -
ĠGood y
ĠSte m
fl ow
Ġcl ump
Ġdi pper
ĠCaramel ize
ĠAll spice
Ġwhich ever
Ġche er
ina vian
Ġunder side
ĠUs ually
ĠTr uffle
ĠBo mb
irl s
ĠAlmond ine
ĠFir eside
Ġpower ed
ĠBl t
ĠCub an
Ġdiet etic
Ġtest ing
ĠEl len
Jell o
ĠJalapen os
ban ger
Ġcre m
Ġcount ing
ĠFri end
Ġpres erved
ĠSwirl s
ĠEv a
Ġthumb print
Ġfeed ing
ze ch
Ġpu ppy
ĠGram ma
Ġimpro ve
rif ic
ĠDecor ating
Ġwreath s
Ġligh ten
Ġnor mally
pean uts
isp ride
ĠMicrow aved
ĠWall banger
ĠEth el
ĠBisc otti
Ġcantaloup es
ĠAf ric
Ġwrit ten
Ġturp entine
' d
A nd
D e
D rain
D ried
D utch
G rape
P ro
S nack
l onger
m arin
m ints
r ator
s lices
s ubstitute
t ta
t Top
u a
u an
w ard
Ġc ent
Ġc row
in f
Ġb ad
Ġp am
Ġw ind
ic ier
ĠC umin
Ġ3 1
it ty
Ġd inners
ĠB ish
ĠB erries
ĠP ra
ol k
Ġh uge
ĠM t
ĠM yr
ĠM att
ĠT bs
ĠT aylor
ow a
Ġfl an
ch ips
ts ugar
Ġst om
ok ing
ri d
ĠR iv
ĠD airy
ĠW orch
ĠW ispride
ad illo
Ġre n
co coa
Ġfro g
om en
Ġse ar
umb le
ĠSt ars
ĠI vory
Ġmay onaise
mo der
arm int
Ġgra y
ĠO oey
ĠJ ose
ĠJ em
ĠK ix
ĠK ath
ul s
Ġli ve
Ġcool er
oth pick
ps on
ĠPre mium
Ġdes serts
ĠPot pourri
12 0
ĠFruit s
ĠCar l
Ġcro wn
Ġhe aped
Ġlast ly
Ġpat tie
Ġseal s
Ġpop over
ĠAl pine
wh ere
Ġtow ards
Ġherb es
Ġstove top
ĠDor is
Ġbr atwurst
idge t
ĠDish pan
rag rance
ist ant
ĠLea ves
Ġburn ed
ĠCol onial
Ġfran k
fry ing
Ġlump ing
ĠEx change
ĠEx changes
ĠClean er
Ġvar ied
ĠFran kfur
ĠEclair s
Ġrib eye
Ġflo ats
ĠCap s
ĠAm anda
Ġcard board
ĠMu eller
23 5
Ġpreheat ing
Ġneck s
ĠBudd y
Wh ip
ult ip
Ġtost ado
Ġtanger ines
seed less
Ġcamp ing
min us
Ġ38 0
tSp read
ĠSens ations
Ġshuck ed
Ġut ens
Ġpra wns
ĠLu au
ĠSpark le
Ġproport ions
Ġdrizz led
ĠGlad ys
Ġsacch arin
ĠArk ansas
Span ish
gener ous
Ġdew berries
Ġdiff ic
ĠCame mbert
Ġstur dy
Res erve
Tex as
apt ist
ĠJem ima
4 2
B etty
C ucumber
O ven
P art
b let
d in
d ition
f lied
h ere
i ppers
m aker
p inch
p rocess
t Makes
u i
u ggest
w ax
Ġ $
Ġs cones
er ed
an n
Ġo l
Ġp istachios
Ġm iso
Ġch itterlings
or i
Ġsu c
Ġ3 15
Ġd raw
Ġd utch
Ġd ifference
ĠB et
ĠB asting
ĠB elle
ĠB aptist
ĠP la
ĠP ac
as to
Ġh is
Ġl r
ĠM at
ĠM erry
ĠT ar
ĠT erry
ĠT ray
ow ax
Ġv idalia
Ġco ca
Ġfl ow
Ġth irty
ot le
ot tage
ĠA ss
ĠA my
to f
Ġj er
ri an
Ġ4 4
ĠCh er
ĠR ay
ĠD ips
ĠW endy
st ew
ĠF ork
um qu
Ġr iced
Ġr icer
ĠL isa
ĠL atkes
ĠI owa
ĠH er
ĠH ock
Ġ8 5
sh akes
im my
ĠG rain
Ġro pes
Ġcar ing
Ġcar nation
arm s
Ġjell s
ĠV en
ĠV ege
uc ts
Ġblen ds
se al
ĠSa van
ĠN ap
Ġwarm th
Ġbottom ed
Ġspread s
cept ion
ind eer
Ġpo inted
ĠSe ts
Ġdissol ving
ĠDel i
Ġsc rod
ĠSqu are
ĠCra bs
Ġkn ot
pot atoes
Ġcomp l
Ġdark er
ĠPound s
fl aked
ĠDelight ful
ĠPh y
Ġcl ar
Ġel der
gs icles
Ch ris
ĠSn ip
ĠBar ely
ĠIr on
ĠOver lap
Ġstring y
ĠPl ate
butter milk
Ġshort ly
ĠHo pping
ĠPar owax
be fore
ĠAmb er
ĠMag n
ĠInd iana
Ġflo ating
Ġbrick s
Ġimp orted
ĠPizz elles
ĠEd ith
ĠSpring time
Ġhus band
ĠSuc c
ĠColor ful
Ġglut en
Ġstre usel
Car amel
Car nation
ĠGram my
Ġperfect ly
Ġevapor ate
ĠMark et
ĠGen oa
Ġfig ure
equal s
Ġfarm er
Ġtim er
ĠGarb anzo
Ġbuff et
ĠKat ie
Ġnutrit ious
ĠVern ors
Ġtwis ted
ls berg
ĠMim i
Ġpral ines
Ġaut omatic
ĠDain ties
ĠFranc isco
ĠClar et
ĠIncred ible
ĠVictor ia
Ġcrink le
ĠDia mond
ĠJama ican
ĠSter ilize
ĠAntip asto
ĠHuckle berry
Ġstom ach
ĠSavan nah
A m
B erry
B undt
C rab
\ )
b ag
b by
d one
f ood
k n
l an
l ine
m as
o blong
r il
r are
r int
s ie
s tore
t akes
t ied
u et
v ia
z a
Ġ ide
Ġ edible
Ġs ound
Ġs eep
Ġs orbet
es quite
Ġm orn
at ively
ut ion
and ine
Ġf orever
ĠC u
ĠC athy
le gs
sp it
el bow
Ġa id
it ake
Ġd ye
Ġd oritos
ĠS ieve
ĠS yl
ĠB an
ĠB ern
ĠP om
Ġh olly
Ġsalt pet
Ġegg roll
Ġbutter flied
ĠT y
ĠT ah
Ġv elvety
Ġco co
all ic
us ual
ot al
ĠCo mb
Ġsh aky
ie ties
ĠR is
ĠR ick
ĠD andelion
od e
od ate
od ized
Ġgr inding
Ġbrown ness
ad es
ĠF o
ĠF uss
con centrate
ĠSp ices
ĠSp ears
ĠL iz
ĠH yd
Ġcup fuls
Ġba ggie
ard ee
edd ings
ab e
Ġapp etit
Ġsyrup s
Ġli k
Ġfill o
Ġseason s
ĠSa uerbraten
Ġen sure
oni odized
Ġtea cup
ĠSh eath
tom atoes
Ġsmooth er
ĠAnd es
Ġfin es
Ġpl ant
Ġthaw ing
ĠAr n
ĠCan e
ĠRed uced
so ver
Ġclean ing
ĠZ e
ĠZ esta
amp en
Ġhigh ly
ys on
Ġmel ba
ĠHa ir
ĠApp etit
thing ton
Ġsli ver
Ġbr ushed
de frost
Ġsun ny
erm ark
ĠJo gging
cook ie
bu y
Ġnectar ine
ĠEqual s
ĠMa ine
ĠGo of
ĠNew burg
Ġmost ly
ĠPol ska
ĠPol enta
ĠBl ot
ĠCot ton
Ġpro ceed
St uff
Ġvar ieties
ĠFran ces
Ġfla x
ron t
ĠMor gan
Ġdehyd rator
skin ned
Ġcom mon
ĠWor thington
part ment
ĠBun ny
ĠChar les
Al mond
ĠCor in
Sw ans
ĠJar lsberg
Ġparch ed
Ġob tained
ĠBoy ardee
ĠFan nie
ha mburger
cool ed
ĠCheer wine
ĠLick in
ĠGarb age
lock s
ĠNell ie
Grand ma
ĠThom pson
Ġchang ing
Ġdarken ing
ĠSpider s
ĠLes lie
ĠSho estring
ĠBry an
ĠWitch es
Ġrame kins
ĠMcK ay
Ġspe armint
ĠScand inavian
ĠBish op
Ġdiffic ult
ĠSucc otash
spit ality
Ġsaltpet re
ĠHyd rox
? )
B ur
D ate
F reez
G inger
H ealthy
I ce
K id
L aw
L arge
M int
P urpose
P ort
S E
Z erta
a es
b ber
b illy
c ur
c ayenne
d iet
i mble
k er
l ies
w rapped
y ps
Ġo cc
Ġb ugs
Ġb ias
Ġt ell
Ġf its
Ġf amous
Ġf ifteen
Ġch ard
ĠC lass
ĠC ort
el a
Ġsugar y
Ġ3 9
Ġd red
ĠS en
ĠS ass
ĠS atin
ĠB ix
ĠB reeze
ĠB achel
Ġg m
Ġg rained
Ġg elled
ra s
as ants
ĠM us
ĠM ason
ĠM ull
ĠM uddy
Ġbutter cream
un der
ĠT unnel
Ġco on
ĠA c
ĠA live
Ġsh ears
Ġmar ket
ien ies
gh urt
th ird
ĠR ave
ĠR achel
ĠD a
ĠD en
ĠD ig
ĠF ar
ĠF ake
ĠF ric
me as
ĠSp ud
reas ing
ĠL im
ĠWh ites
ĠH on
ĠH ang
ĠH erm
id ea
Ġcup ful
ĠG al
ĠG ail
ĠG nocchi
Ġhot dogs
Ġso ck
Ġcar p
rink led
Ġk iw
ĠJ ason
ĠK ola
ĠK ale
ĠCream sicle
ĠN atural
ĠN umber
Ġlo ck
ac y
par ts
ett ie
ec ts
Ġliqu ify
ich es
Ġmeal s
ĠFor get
ĠRo om
Ġacc um
ĠCar away
Ġcand le
sa uce
Ġpart icular
ĠBr u
Ġag ed
ĠCrumb led
ĠCamp er
ĠPart ly
tm as
head s
ĠPuff ed
Ġfrost y
ĠFrit t
ĠAn other
ĠPl atter
Ġsup ermark
Ġshort est
Ġpro v
Can ned
ĠHo ppin
Ġsw amp
ĠBas s
uds on
ĠSund aes
ĠSoft asilk
Ġcombination s
ĠAm andine
ĠWish bone
Ġconten t
ĠTra ppey
met allic
ĠPas sover
ĠWil son
ĠBob oli
Ġprick ed
ĠSu z
ĠGlor ia
ĠChar coal
ĠHill billy
ĠBudd ies
Ġrock s
ĠMaster piece
ĠFun ny
Ġmatzo h
ĠMam ie
Ġdesign s
Sh rimp
ĠJew el
ĠVien n
ĠFud gsicles
ĠEas tern
seed s
Ġpizz elle
jo inted
Ġplump ed
tB eat
Ġphe asants
ĠTer rific
Ġarran ging
ĠPock et
tub e
Ġut ility
pean ut
Ġach ieve
Ġasse mb
Ġsele ction
Ġnap kin
ĠMod el
ĠVari ation
gen cy
Ġenclo se
Ġvert ically
Ba con
Ġpulver ized
Ġjalape o
Pol ish
ĠTre et
Ġdou bling
inf andel
Ġlr g
Chris tmas
Ġmorn ings
Port uguese
Ġkiw is
E d
E ye
H ors
J immy
V idalia
Y our
c arp
d ill
e ven
f ew
g ies
h or
h ow
i vers
j onnaise
p res
p arsley
t ight
v ar
Ġ idea
Ġc ab
Ġs ense
ar ant
Ġo vals
Ġb ind
Ġb ows
es ome
Ġp asty
Ġp ones
Ġm atter
Ġm idget
Ġf ront
Ġw all
ic le
ĠC rinkle
le p
or ate
ro asted
Ġd om
ĠS ny
ĠB arbec
ol ive
Ġh im
is k
ĠM alt
ĠT uck
ĠT bl
ĠT ouch
Ġv ents
Ġv iole
ĠA ir
Ġun cut
Ġun wrap
red uced
Ġsh ade
ĠCh ic
ĠCh unks
ir is
th irds
ĠR and
ĠD ave
ĠD ime
Ġbak ery
Ġbrown ish
ĠF oster
Ġre pla
Ġr at
ĠSp uds
am ed
ber ts
Ġcra ft
ĠSt one
ĠL B
ĠL in
ĠL ye
Ġcon f
ĠH IGH
sh ell
Ġ5 3
ĠG in
ĠG ay
ĠG ems
ĠG ene
Ġoven ware
Ġ9 5
Ġ9 6
Ġcar ving
ĠPut ty
Ġapp roximate
ĠO s
ĠE ll
ĠJ en
ĠJ us
ĠK ielbasi
ĠV egeburger
Ġlo ins
ĠSh ut
ĠSh uck
ĠCho c
Ġcol by
os able
ĠBe verage
ous in
ĠDo ve
Ġtw elve
ĠSo ci
eez ed
Ġcrisp ier
Ġstew s
ĠLo is
Ġkn ock
Ġoccasion s
so ften
corn bread
ĠZ infandel
Ġgran ular
Ġevery day
uns aturated
ary l
ĠPat io
ĠPat rick
ĠCaramel ized
ĠDi jonnaise
Ġbr ats
Ġsaute ing
app rox
tm ix
Ch ild
cr usts
Ġcomb o
ĠHoney ed
Ġflower ettes
ĠLime ade
ĠWal la
Th ree
ĠCl ara
ĠAunt ie
Ġcongeal s
Ġoverb rown
ĠFrit ter
ĠAn ts
ĠMill er
the art
Ġent ree
ĠHerb s
Ġsec uring
Ġsw ir
unk ist
pre pare
Ġdis jointed
Ġhel d
Ġspir als
Ġgre et
Ġcav atelli
ather ine
ĠNan nie
part ially
Di jon
ĠDr unken
ĠPri de
po ssum
Ġtra sh
ĠJu ly
Ġpast el
Sw edish
ĠMade ira
Ġpol ish
squ are
ĠPast ies
Ġmul let
ĠDuck ling
Ġsizz le
Ġsizz les
Ġvent ed
ĠSus ie
ĠTemp t
Ġgreas y
refriger ate
Ġgher kin
Ġcond iment
ĠSwee theart
Ġnor thern
ĠMid night
ele ctric
Se ason
ĠEm ma
ĠMah atma
ĠDec rease
Ġasse mble
quarter ed
Ġmid way
vie w
Ġbagu ette
Ġpoly unsaturated
ĠComm union
Lea ve
itam in
jalapen o
ĠPA M
ĠBart lett
ĠAlo ha
Ġbis que
ĠAfric an
moder ate
Ġsuc cess
ĠPac ific
Ġelder berries
ĠFritt ata
carp one
ĠBarbec ups
2 00
B o
C alorie
E n
F r
F ast
F lavor
F udge
G r
G rease
G reek
I nd
J apanese
L inks
M acaroni
O W
O ver
O live
R ising
S G
b reasts
b aco
b led
b ananas
o ok
p ea
p urch
r oughly
s weeten
s kins
t orn
t own
v ely
Ġc ame
Ġc ult
Ġc ouscous
Ġs ass
Ġs odas
ar ound
es tershire
Ġm unch
al uminum
gar d
sp ir
sp lit
ak ers
Ġ2 20
Ġa ff
Ġ3 40
it ed
Ġd isturb
ĠS uch
ĠS olution
ĠB lo
la va
Ġg laz
ge on
as se
Ġh ar
Ġl y
Ġl ollip
ese ed
ĠT ing
Ġv ine
Ġth igh
ot to
ch ill
ĠA ge
ĠA nch
Ġun whipped
ce p
ell y
Ġj iffy
Ġn oniodized
Ġsa id
ĠR ump
ĠR utabag
ĠD aff
ĠD ams
ĠD oodle
ĠD oub
ĠD andy
ĠD aiqu
ans ion
Ġbo ys
ta dd
ta co
et ime
ish ness
Ġre l
Ġsp l
Ġpot s
ven ts
ĠG lo
if etime
ink ies
ress ion
Ġstir r
ĠRe ception
len gth
Ġdry er
ĠE tc
ain ing
ĠJ ay
ĠBro ken
iz ing
Ġex ample
af ras
Ġflavor ful
ĠN one
ĠSh ower
ĠButter horn
ess el
ĠBoil er
Ġmo cha
os ed
ĠBe v
Ġfirm ness
Ġde fat
Ġde partment
Ġri ms
Ġri vels
Ġtart ness
Ġhand les
izz le
Ġsc otch
Ġafter noon
ĠRitz y
bs ters
Ġregular ly
ĠMar gie
ĠBr er
ĠMon t
ĠCon es
ĠSte ph
Ġsub mer
ĠAng ost
ĠAcc ents
Ġback s
do es
ĠMilk less
Ch eck
Ġtri mm
ĠDough nut
peel ing
Pot atoes
may onnaise
ĠPro ven
ĠRea Lime
ĠFin nish
Ġmeasure ments
ĠButterf ly
Ġmeas ures
ĠImp ortant
ĠTender s
Ġstr onger
roll ing
Ġdia monds
Ġrepeat ing
ĠTime y
ĠFran gel
ĠRum aki
Ġperson ality
ĠAt tach
ĠWa x
season ing
ĠEle ctric
Ġ26 5
Ġgro wn
ĠWil t
ĠWil ma
Ġhelp ing
Ġbuck eye
Ġscr atch
App les
thin ly
Cho pped
ĠFa ir
Ġpast ries
ĠWho ppers
Ġseashell s
ĠEvery day
ĠRellen o
ĠJohnny cake
Ġrecomm end
ĠBri de
ĠBri dge
Ġhang ing
bottom ed
Ġore os
work s
ĠPic c
ĠFan ny
ĠRob in
ĠMethod ist
Ġpain ts
ĠMist akes
Ġchang ed
Ġclover leaf
Ġdru g
ĠTodd y
ĠLollip ops
ĠTreas ure
Ġem uls
ĠFuzz y
ĠWorch estershire
ĠJose ph
Ġjer ky
Ġocc ur
ĠBachel or
Fr utti
baco re
ĠAngost ura
2 75
9 0
A p
B eat
C E
C ustard
C risp
D urkee
M elt
M ac
O R
S auce
W atch
W rapped
b q
c are
d issolve
d eli
e qu
g u
g ento
i itake
l ice
m ustard
o ise
p urple
p aper
r ong
s ub
s ingle
t at
t Cut
z le
Ġ ant
Ġc lassic
Ġs naps
an ie
Ġt rench
Ġt ons
Ġp i
Ġp ith
ut on
re ll
al ley
Ġf acing
ĠC ukes
sp ring
Ġ2 32
Ġsu pplement
ĠS mear
ĠS ouffl
ĠS unkist
ĠB and
la ine
ĠP ups
ĠP uncture
Ġg ot
as iest
gg er
Ġl ifetime
ĠM ignon
un o
un es
ĠT ub
ĠT ail
ĠT andy
Ġco mm
ĠA ust
ĠA bs
Ġst reak
Ġeggs h
Ġn one
Ġn ickel
Ġsh ark
ĠCh amp
Ġmar bled
Ġle ak
ĠR en
ĠR us
ĠR ita
ĠD uke
ĠD ampen
ĠW eep
st em
Ġover flow
ush i
ill ow
ad just
ĠF res
ĠF igs
ĠF ather
ers ey
Ġre member
Ġsp rite
Ġsp icier
Ġy um
ĠL ew
Ġsour ed
ĠWh ippers
ĠH og
Ġcrumb ed
bo at
ĠE s
ĠE mp
ĠJ r
Ġla ugh
ĠV ich
Ġseason al
ĠTh ai
Ġsk irt
let e
Ġpre cook
Ġlo bsters
ĠPre pared
ĠSh ave
Ġwarm er
ex ample
Ġres ult
Ġres pect
Ġsoy bean
Ġexcept ion
Ġfoil ed
can ning
ĠCar ob
Ġte pid
ĠSe ction
Ġturn er
ĠHot s
ĠChop stick
Ġneed le
Ġtw inkies
tin a
ĠMeat s
ĠLo ok
ĠMexican a
Ġmold ing
Ġpop sicles
ĠUn fold
nut meg
pl um
lu g
gs tore
ĠGrand e
ĠTur k
Ġche esy
Ġtri o
ĠPop eye
ĠWater cress
Ġsit ting
ĠTri angles
ĠMom my
ĠCol man
Ġstart ed
ĠCl uster
oe uvre
Ġrins ing
ĠJam es
ĠEx otic
Ġvar ies
ĠAs ian
Ġsummer time
pre heated
pre cooked
act us
ass ion
ĠSmooth ies
Ġad ults
Ġtr ust
ĠSand ra
ĠDiet etic
Ġ19 0
ĠTost ado
ĠReub ens
Ġho spitality
Ġbuck eyes
ĠBou illon
Ġpet it
ĠBag els
Ġprod ucts
ĠRos ie
ĠSmok ey
ĠSuc aryl
Ġglo ve
Sh ould
ĠBarb eque
ĠAle x
ĠPres ident
ĠEvery one
ĠNon fat
Ġsand ies
Ġpray ers
Ġfrit ter
ĠMarb led
ĠSna pper
Ġvari ations
He inz
ĠSmuck ers
So ft
ĠCas a
ĠCas ino
ĠPa ula
pla stic
Ġshow ing
ĠEm ily
ĠAw esome
br ush
ĠThom as
Ġdisc s
Ġsele cted
Ġsatis fy
ĠRoy ale
Ha mburger
ĠTablespoon s
ĠLuc ille
ĠReg ina
South ern
ĠArn old
ĠLim as
ĠHerm its
ĠVienn ese
Ġcab inet
ĠDaiqu iris
Ap ricot
* .
A N
B or
B owl
B lack
C old
F ish
G olden
H un
H ormel
J ust
N or
O f
R om
R ich
S k
S ubstitute
T ake
T ater
a ur
b ar
b urn
b anese
c ie
e z
e ther
g a
i ver
k oe
m ash
m aster
r oni
r inse
s n
s ed
Ġ reas
Ġc aster
Ġc actus
in utes
in stead
Ġs cent
Ġs loppy
er a
an as
Ġb ing
Ġp ump
Ġp ads
Ġm irin
at ar
ut ing
en ies
Ġf le
Ġch al
ĠC uts
ĠC ele
ĠC ousin
ĠC atherine
Ġin f
Ġto es
sp ices
sp rinkled
pp ie
ak a
rea der
ro ved
Ġ3 7
Ġd unk
ĠS cent
ĠB ud
ĠB essie
la sting
ĠP ars
ĠP enne
ĠP sal
Ġg ath
ol itan
Ġh ay
Ġl uke
ĠM al
ĠM SG
un whipped
ĠT i
ĠT im
ĠT rop
ĠT yson
Ġth roughly
us to
Ġcan apes
ĠCo mbo
Ġfor ce
Ġ4 20
Ġn ests
ĠCh ild
ry lic
Ġing red
.) *
ĠR y
ĠR oula
ĠD ukes
na y
Ġover cooked
Ġcook book
ĠF all
ers on
con fection
igh ter
Ġr and
om i
am es
Ġpot ted
Ġsmall est
Ġcra m
ĠL ore
ĠI c
ĠH all
Ġcup board
sh rimp
ach e
edd ed
ĠRe mo
ĠRe view
ub an
ab an
ab asco
ĠO uts
ĠO pal
ĠE ars
ĠE vaporated
ĠJ unior
ĠIn f
lo ose
Ġla id
Ġex changes
ĠV in
ĠV ary
oth ers
ss ib
ĠTh ings
li er
ĠN ests
meg ran
ĠPre bake
tom ato
ec a
kin d
Ġcot ton
Ġz ipper
ud es
Ġri mmed
udge t
Ġround ing
Ġmicrowave able
Ġcrisp s
Ġ24 2
Ġ24 8
tern ational
Ġsm other
Ġtoast y
velop e
ĠCran apple
Ġbrand s
Ġbreak s
ĠDe cker
Ġfil m
app roximate
ĠRais ed
Ġlis t
Ġprefer able
Ġspring y
Ġpr ong
Ġbas mati
ĠTr iscuit
Ġbeco ming
ĠPro tein
Ġsoak s
Ġlump ia
Ġac rylic
ĠPer ky
ĠMill ie
Co vered
ĠHerb al
ĠNor ma
ĠCur rant
ĠTender ness
Ġcross ways
bro th
ĠBea uty
ĠTe quila
igg le
ĠClo ve
Ġcor d
Ġlot ion
pack aged
ĠAny thing
Sp icy
Ġear then
Ġjack et
Ġhelp ings
Ġpres ent
ĠTam ales
ĠHel p
ĠPri or
Ġmain tain
ĠMargar itas
ĠEleg ante
Ġpurch ase
Ġindent ations
blue berries
ĠBak lava
tB lend
ĠDoes n
Ġbea ver
Ġexp osed
Ġhol der
tD rain
ĠSens ation
jack s
ĠStrip ed
Ġband s
slow ly
ĠFra ppe
ĠMas carpone
gro ves
ĠMax well
Ġenhan cer
ĠAsh ley
Wal nut
Ġyo ghurt
Ġwind ow
ĠMyr tle
Part y
din ary
Ġide al
ĠSass y
how ever
ĠChic ago
Ġdefat ted
ĠPicc ata
ĠLew is
ĠVich y
megran ate
7 6
: \
B r
B y
C ottage
D ream
E L
F aced
L awry
M or
S mall
S pe
S ize
S imple
S alt
T urn
a el
a ven
c ountry
c ass
h ave
i ago
j ects
m aw
n eed
n ite
s andwich
t w
t Serves
t water
t cheese
v ak
in ers
Ġs oul
Ġs ided
Ġb irthday
Ġt affy
Ġt ighten
Ġp k
Ġp iles
Ġm esh
Ġf iesta
Ġw edged
Ġw eddings
ĠC ard
ĠC ord
sp aghetti
it ian
ĠS lash
ĠS illy
ĠS odium
ĠB at
ĠB akes
ĠB illy
ĠP aw
ĠP ipe
ĠP ipp
ĠP lug
ol ia
Ġpe ace
Ġsalt pe
utter ed
ĠM eg
ĠM aking
ĠM iddle
ĠM abel
ĠT in
Ġv ein
Ġth ins
us es
ot es
Ġflour ing
Ġor nament
ith in
ts t
Ġst rands
Ġpepper mints
ĠCh a
ĠCh an
Ġcr uet
Ġle fse
th ians
ĠR ag
ĠR oux
ĠW right
od us
Ġbo oze
ĠF ield
Ġbe ads
ast urt
Ġre ar
ur gers
Ġsp anish
Ġr ough
ĠSp a
ĠSp ace
Ġy arn
ĠSt arch
ĠL unn
ĠL ane
ĠH odge
ĠG ro
ĠG len
ĠG ingersnap
Ġcar cass
len ess
ĠSal tines
Ġal bacore
Ġshor ter
ĠO V
ĠE laine
ĠJ ord
ĠK iev
ĠK elly
Ġsl ant
Ġra d
Ġex c
ĠV ar
ĠV ermicelli
mp s
oth ings
ĠTh elma
ĠN ina
let te
Ġen ter
Ġblack ened
Ġpre vents
ĠSh asta
est ic
Ġ7 50
Ġfin er
Ġmo ving
ĠTo othpick
Ġunb uttered
oun g
ĠSe veral
ĠLe an
ĠLe vel
ĠLe ft
Ġsc um
Ġ24 5
Ġany more
Ġpin wheel
tin y
ĠMeat y
rough t
tern al
ĠLo yalty
tz el
ĠMar ian
ext ured
aff ein
ĠNut rit
ĠSte ve
wh ipping
ĠCrust ed
ĠHa v
ĠPh il
ĠChe ap
ivid ing
Ġgarnish es
ĠVeg ie
Ġgi blet
ĠCro ss
ĠPo ach
Ġoyster ettes
ĠBa ggies
ĠEn t
cho ose
ĠCl ark
ĠPro ceed
ĠGran nie
ĠMa ui
ret t
ĠSnow d
ĠSnow flake
ĠSlush y
ĠShort cut
Ġsec rets
Ġlique fy
ĠWatch er
St art
Ġbath tub
ĠSun rise
ass ee
ĠEl iz
Ġdis k
ĠTe am
ĠInd ones
ĠMor nay
ĠEver green
Ġimp rint
ĠHour s
ĠFettuc cini
ĠGl ory
ĠFil es
To pped
Ġinter est
Ġstro ganoff
ĠHor se
ĠBut tons
Ġwait ing
Yum my
squ eezed
ĠComplet e
follow s
ĠDie ters
ste p
inos aur
tRe frigerate
Ġph one
Ġbuff alo
Ġexten ding
Ġnutrit ional
Ġdisp osable
tF old
Ġproport ion
Ġdru gstore
Ġdeterm ine
Ġopt ion
ĠFlower pot
ĠLill ian
ĠBenedic t
ĠCroiss ants
Ġple asant
Ġmag ic
Ġclar ified
abe th
ĠCorin thians
ĠCort land
Ġsock eye
arant eed
ĠSoci ables
ĠAnch o
length wise
confection ers
Ġsaltpe ter
asturt ium
affein ated
8 5
A S
A fter
C ould
D O
E l
J ud
K ool
O ther
P ick
P unch
P asta
S qu
T abasco
c ould
d g
d al
d iluted
g ant
g rate
h att
i que
k it
o h
p y
p at
p len
p ints
t it
t ea
u ry
y rian
Ġc e
Ġc ents
er oll
er gy
Ġt umb
Ġt ent
Ġp leas
Ġp isto
Ġm ussels
al ded
ou ille
Ġf ats
Ġf ist
Ġf ails
Ġw agon
ic orn
ĠC H
ĠC el
ĠC ass
ĠC reek
ro se
ro ken
ro ma
Ġa igs
Ġd ress
Ġd ividing
ter rey
ĠS on
ĠS ipper
ĠP il
ĠP av
Ġh ugs
Ġh anger
gg i
ĠT ies
ĠT ina
ĠT anger
Ġv e
Ġ( \
Ġcream s
ick y
ick ers
ch ee
Ġor dinary
ĠA na
ĠA rab
Ġun ti
Ġcho ke
Ġst ead
til ly
Ġj un
illa mo
der n
der berry
Ġsh edded
ĠCh im
ĠCh ard
ĠCh ik
gh ur
Ġwh ether
ĠR ud
ĠR yes
ĠD in
od il
ĠF ifteen
ĠF orever
res erved
Ġre frozen
co on
Ġfro gs
ĠL ater
ĠH oles
ĠH eritage
ĠH udson
Ġcrack ling
op er
Ġ5 6
Ġ5 50
ĠG el
ĠG ets
ĠG orp
ĠRe cipes
ĠRe union
art i
ĠJ unk
ĠK er
ĠK not
ĠK olbassi
ul u
lo vak
Ġsl ower
Ġra mps
Ġred ness
ĠTh er
Ġlay ing
ĠN ava
ĠN ettie
ĠTop s
ĠSh awn
cc a
aw ax
Ġmo ose
pt ion
os a
ĠMo ore
Ġbatter ed
Ġunb roken
Ġpo pper
Ġuns elf
io la
Ġqu es
Ġtw in
Ġtw irls
Ġhe ap
ĠAr go
ĠMeat less
Ġar en
Ġar ri
Ġquick er
ĠPepper corn
Ġsome one
ĠKn own
Ġflat tening
ĠChil es
Ġleaf y
ĠAng els
ĠRa gged
ĠPo ints
tm inutes
Ch eez
ĠSk y
ĠSk ippy
Ġfre ely
Ġlit re
Ġcap fuls
ĠCal z
ĠCal yps
Ġgrapefruit s
arbecu ing
Co ated
ĠPl unge
Ġpro volone
Ġsix ths
Ġsw ell
ĠAs iago
enn is
ĠBon bon
ĠBas ket
ĠSar gento
ĠInd ent
rum k
ĠWay s
ĠBra d
ĠPap rik
ĠAny time
ĠScotch aro
ĠForg iveness
Cook ing
ĠStack s
Ġten ds
Ġfeed er
ĠLady finger
Ġins ure
ĠJu lep
ĠDan iel
Ġtry ing
ĠUnder standing
cub es
ĠStre et
ĠPast ries
Ġparsn ip
ĠSpritz er
ĠLand ers
Ġmus cadine
Ġincorp orate
ĠLick ing
Ġcer tain
Ġexten d
Ġbeautif ully
Ġble ach
ĠGoose berry
oug at
ĠEmer ald
rift y
ĠKern el
ĠTa vern
ĠEconom y
ĠPank ies
Ġoxtail s
ultip ly
process ed
ĠAss orted
umqu ats
ĠHock s
ĠSyl via
ĠTy pe
ĠTah itian
ĠFric assee
ĠTbl s
ĠOs good
Ġcult ured
Ġsass afras
ĠDams on
ĠFrangel ico
ĠAbs olutely
Ġeggsh ell
ĠEs ther
Rom ano
Ġrand om
ĠCord ial
ĠJord an
ĠEliz abeth
ĠIndones ian
hatt an
illamo ok
ĠCalyps o
) )
. ")
5 00
A cc
B ag
F our
I L
J eremiah
K roger
M aw
N ew
P l
P er
P lace
P ork
R ea
R anch
R oy
S un
S ometimes
S erving
V anilla
c ithin
e es
h el
j ello
k iwi
p it
p ure
p op
r ates
s oda
s esame
t ich
t together
u ine
w in
y ro
Ġc ow
Ġc ell
Ġs old
Ġo cean
Ġb end
Ġb rought
Ġt row
Ġt ape
Ġt sub
Ġp ate
Ġp add
Ġp oster
Ġm ingle
en cher
Ġf iddle
Ġf ritos
ĠC ir
ĠC reat
Ġin ternal
Ġto ler
sp inach
ro z
Ġsu cc
it ters
Ġe a
ĠS ing
ĠS lime
ĠB i
ĠB ed
ĠB ath
ĠB ama
ĠP os
ĠP lease
Ġg erman
Ġg nocchi
is tle
ĠM orsels
un thawed
ĠT ightly
Ġv elvet
Ġv essel
ick s
us y
us illi
ot ball
ch ard
ĠA h
ĠA z
ĠA re
Ġun frozen
Ġcho c
ĠCo met
Ġfor t
ver ages
ĠMix ing
Ġn ights
Ġsh er
Ġsh iitake
Ġsa zon
ip ino
Ġle cithin
ĠR edd
ĠD ing
ĠD raw
ĠD ales
ĠW ink
ĠW inner
na m
st uff
st ru
st rong
Ġju dge
Ġju dg
Ġover work
ĠF ine
ĠF ly
ĠF oam
ĠF ondant
con s
co me
co mes
Ġlemon y
qu is
Ġsp uds
ĠL ot
ĠL ord
ĠL inks
ĠWh eel
ĠCook s
ap olitan
ĠH int
ĠH ugs
ct or
im als
im ilar
Ġ9 8
ĠRe indeer
tab les
ĠJ es
ĠJ ones
ĠK al
ĠBeat er
ĠBeat en
Ġli ber
uc ing
ĠCover s
Ġshred ding
iss y
Ġfruit y
ĠN ear
ĠN othings
Ġen v
Ġginger ale
Ġlo st
Ġlo ves
Ġlo ving
ag en
ĠSh el
ĠSh ow
ĠButter less
ĠY osh
arb on
ĠCho colates
ex pected
ĠBread s
Ġres istant
Ġsoft ball
Ġsoy beans
ĠTo ad
ĠFor t
Ġthaw s
ĠCar ve
Ġpo ach
Ġcro uton
ĠQu art
Ġhand shakes
ĠLe ona
Ġstri pes
ĠDel mon
ira ble
Ġcrisp er
Ġcrisp ed
Ġcoffee maker
ĠMin nie
Ġsm ith
pot ato
Ġcomp assion
ĠPeel ed
ĠBr ine
ĠDream y
uns liced
ĠUn stuffed
eri or
ma x
ĠDe b
Ġbr u
Ġremo val
ĠFarm ers
ĠWill ie
Ch e
ĠOven s
Ġkind ly
Ġunder beat
Ġknead ed
ĠPack ets
cho ice
ĠMom s
ĠWal king
Ġgener ic
ĠCol ored
Ġdot ted
may o
Ġbas ed
ĠWheat s
ĠGran ulated
!! )
ĠIs le
ĠGo bs
Ġac comm
crumb le
Co ffee
ĠBl intz
ĠMan hattan
Ġ100 0
Ġdiscard ed
ĠLi berally
Ġclos ing
Ġbur gundy
ĠEl la
ĠEl derberry
ĠFollow ing
Ġad here
ĠRich ard
ĠHar ris
Ġlin ing
Ġdis ks
Ġflo or
Ġflo ss
ĠScramb lers
ĠBab e
ĠBab ies
Nut raSweet
Sp aghetti
ĠFix in
ĠAd olph
Ġear lier
ĠArm adillo
ĠGe b
ĠSnickerd oodle
Ġadv ice
Ġbal m
rins ed
Mo dern
ĠLor i
ĠCashew s
ĠSmok ie
ĠBut t
Ġbush els
Ġhum id
Ġbow tie
Ġsilk s
ĠSin ce
Ġgold fish
Ġstretch ing
Ġfaj itas
firm ly
Un cooked
Ġsat iny
ĠKo ok
ĠBrazil ian
ppos ed
Ġgent leness
four th
gan ic
ĠMart in
Ġach ieved
Ġmom ent
Kn ead
Ġdid n
ĠVick i
Ar tich
Ġab und
Ġsurp rise
ĠSkew er
ĠGul f
Ġ__ _
ĠLump ia
Ġsupp ly
marin ated
Ġren der
ĠBet ween
Freez es
meas ured
Ġassemb led
ĠSny der
ĠRand all
Ġgreet ings
ĠDaff odil
ĠFres ca
ĠWhippers naps
ĠCele br
ssib ly
Spe cial
ĠPipp in
ĠChan tilly
ĠHav arti
Jud ges
plen ish
ĠTanger ine
Ġstead ily
Ġunself ishness
ĠRagged y
ĠScotcharo os
Rea Lemon
Ġtrow el
Ġjudg ment
ĠYosh ida
Ġaccomm odate
2 30
2 60
4 4
A D
A d
A t
B aker
D ipped
D oritos
F illing
G u
J O
J on
J oy
L on
M ust
M edium
M arin
M outh
O uts
P ound
P ink
P udding
P ea
P ark
P izza
Q ue
S uggest
T ip
T una
T upperware
V eg
W ip
W ish
Z ucchini
b iscuit
b asil
c at
c enter
d ifferent
f reez
f ace
f oam
h aw
h ane
k ern
l ar
l ard
m el
n oodles
p ro
p into
s yrup
t les
t flour
t otal
u let
u rop
w a
w agon
Ġ EN
Ġ ign
Ġc ass
Ġs mear
ar oni
Ġb arbecuing
Ġt re
Ġt al
Ġt acky
es pecially
Ġp igs
Ġp illow
Ġm ater
Ġm ort
Ġm ah
Ġm ahi
on t
on ed
al y
al tern
en ing
Ġf izz
Ġf ail
Ġf ondant
Ġf ragrance
ing ly
Ġw ife
ro y
ro ast
Ġsu ds
Ġsu bs
Ġsu pposed
Ġa ig
Ġa mple
Ġd ig
Ġd raft
Ġe yed
Ġon o
ĠS zech
ĠB al
ĠB lair
ĠB ounty
ĠB bq
ĠP ats
ĠP fe
ĠP out
ĠP arsn
Ġg lit
ol ina
ra m
ra ge
gg ression
ĠM s
ĠM cc
ĠM mm
ĠM irin
Ġbutter finger
un ce
ĠT ransparent
ĠT illamook
Ġco st
Ġco ins
Ġth er
Ġth imble
us ch
ch unk
ĠA v
Ġun heated
Ġun refrigerated
Ġst ones
Ġwater s
ri er
ĠMix er
ĠMix master
mb r
Ġn othing
Ġn ugget
ie f
ip er
ĠR al
ĠR ol
ĠR andy
ĠD ro
ĠD irections
ĠW ipes
Ġpowder y
na cho
ĠF ern
ĠF oo
et zle
Ġbe verages
con stitute
co at
Ġfro sts
Ġsp ade
Ġsp lenda
Ġsp aced
Ġsp acing
ten d
ten s
ten mann
am eat
ber ta
ĠSt ripe
ĠH ood
ĠH ag
id ence
sh ells
ĠCool ers
Ġbread stick
ct ic
ĠG lue
bo ck
edd y
ĠRe c
Ġ30 5
ring s
ĠO ak
ĠE st
ĠE qu
ĠJ ersey
ĠIn ternational
ĠK ate
lo oks
ĠBro ok
ĠBro ther
Ġex periment
ĠV iole
Ġ20 2
ent ic
ĠTh ose
ĠTh rifty
lack y
ift y
Ġchill s
Ġlo vely
tain ing
ĠY et
aw ba
ĠU m
og ies
os es
Ġfat ty
Ġlon ghorn
Ġpo megranate
Ġte ap
sc allions
izz ard
Ġcand les
ĠGra mm
sa ute
sa ving
ĠLe che
ĠDel ic
Ġsc reen
ull ers
ĠSo mbr
ĠAr th
Ġnon metallic
ĠCan ape
ĠMex ene
Ġcons isten
ĠQuick y
ĠQuick ies
ĠMar ge
Ġcrock ery
ĠRanch er
Ġspray ing
Ġgran ny
ong y
Ġper cent
Ġpar awax
Ġdri ve
ĠCon tain
bon es
pick ling
Ġme ans
ĠKn ife
ĠKn ock
ĠAl ma
Ġmarin ates
ph a
ots ie
ĠTea cakes
Ġback bone
ĠDor a
ĠDot tie
Ch ip
ĠSeed less
Ġopen er
te en
Ġplatter s
ĠNe apolitan
ĠLa vender
Ġinc reasing
add ing
add itional
ru ly
ĠBo o
Ġreturn s
Ġsolid ly
ĠMa ggie
ĠMa ggi
ĠCat awba
Ġac cep
Ġdump lins
ĠPol ka
ĠCole man
Ġgum mi
ĠBl intzes
Ġbl ood
butter nut
ĠTort oni
ango st
he im
cream ed
Ġwe igh
ĠPap aya
ĠScotch ies
Ġcast or
Ġho ok
ĠJan ice
ĠGrandm om
fill ing
ĠHalf way
Ġdec af
Ġdec affeinated
Ġacid ity
Butter milk
Re frigerate
Ġtra dition
ĠRos amarina
comm end
Ġrain y
ĠVer a
ĠGu ilt
seed ed
Ġswee tening
Ġpen et
ĠNa vel
crack er
Ġexp and
Ġexp ansion
tD rop
ĠSens ational
Ġmex icorn
Ġshuck s
Ġoutdo ors
ĠAw ake
oula de
Ma zola
Ġgather ings
Ori ental
OO K
Ġdiscolor ing
Ġcylinder s
mpt ly
Ġmas a
ĠCam ps
aik on
ĠBlush ing
Ġutens il
ĠHer ring
ĠBru lee
Ġdom estic
Ġviole ts
Ġrat io
ĠRutabag a
Ġoccur s
equ ivalent
Ġreas on
Ġearthen ware
Ġexc luding
ĠPav lo
ĠTher esa
ĠNava jo
Roy al
yro foam
Ġsucc otash
Ġsher bert
ĠRedd i
Artich oke
JO Y
Lon ghorn
ĠEN JOY
Ġmort ar
Ġglit ter
Ġaccep table
7 7
B ob
C re
C elery
D irt
E sp
F ood
K orean
R eal
S m
S ome
T akes
U M
W heat
W rap
Y ellow
b ou
b age
b ubb
c s
c ast
c ia
c alor
c ranberry
d om
d ressing
d ump
f ts
h om
l tra
m ans
n ew
p u
p aste
t ar
t sp
t milk
t una
v ance
w et
x ible
Ã ©
Ġc li
Ġc ala
in is
Ġs atur
Ġs aturated
er ate
Ġo possum
Ġb ic
Ġb land
Ġb usy
Ġt rees
Ġp a
Ġp ign
Ġp ike
Ġm at
Ġm od
il o
il ing
on el
en velope
Ġf ool
Ġf usilli
Ġw ise
ĠC ri
le en
Ġin t
pp les
Ġsu lt
Ġa ges
Ġa jar
Ġe asiest
ĠS at
ĠB unk
ĠB rey
ĠB locks
ĠB udget
ĠP ream
Ġg rid
ol s
Ġpe koe
Ġsalt water
ĠM I
ĠM ur
Ġbutter s
un wrapped
ĠT an
ĠT all
ĠT rees
Ġv an
all ion
all ible
ick le
ch io
Ġmilk shake
ĠA riz
ĠA ggression
Ġun expected
ĠCo on
ts y
Ġst ix
ri age
Ġn asturtium
Ġsh op
Ġsh eep
ĠCh ee
ĠCh arms
ry n
redien t
th ree
th ighs
ĠR ust
ĠD ick
ĠD ang
ĠW iggle
na ise
Ġgr it
Ġover heat
ta ck
ĠF owl
res t
Ġre fill
co m
igh bor
Ġsp ider
Ġsp ongy
ery l
ĠL izz
ĠH an
ĠH asty
ĠH OT
Ġgar bage
ash a
sh ape
Ġ5 4
ĠG ull
onna y
Ġhot ness
udd le
Ġheat h
ll is
Ġgra penuts
Ġk abob
Ġapp et
Ġorange ade
ĠO c
ĠO odles
ĠE urop
ĠJ ill
ĠJ ars
ĠJ essie
ĠK abob
ul ate
ĠV itamin
ĠPe cor
Ġsof rito
Ġcrust ed
iss a
ley e
ĠSa uer
ĠSa uced
ĠN es
ĠN appa
Ġput ty
ĠButter worth
ĠAnd y
ĠAnd rew
ĠY olks
Ġconfection ary
Ġsoft ly
Ġpl ants
ĠSl op
ĠTo ppings
oun ces
can non
Ġsquash ed
Ġcocktail s
Qu ik
ĠSe ashell
Ġwhen ever
ĠGra penuts
ĠSoup s
ĠFro ot
Ġam ar
ĠSqu aw
Ġgood s
ĠGr oup
ĠLemon s
ĠFl owers
ĠTab le
Ġhe ight
ĠAr ound
anch ed
ild a
Ġpat is
Ġdeep er
Ġsm al
Ġspray s
wich es
Ġele gant
aff e
ĠDes serts
ors el
ĠUn usual
ĠThe m
ĠOr chard
Ġlen til
ting redients
ĠApp roximate
ĠFresh ly
ma id
uk i
Ġlength ways
uth entic
ĠSm ells
ĠScallop ini
Ch i
Ch inese
ĠPop over
ĠEn tenmann
ĠJo ys
ear ing
Ġind ex
ĠBlack well
ĠNe ck
Th en
Ġabs olutely
fry ers
Ġstack ed
Ġstack ing
ĠBo ys
mond in
Ġcurd led
idal ias
Ġtouch es
ĠEx odus
ĠPl uck
Ġthermo s
30 3
ĠImp ro
ĠShort ly
roll s
Ġsw itch
ĠBon es
ĠEl vis
ĠEl sie
Ġrich ly
Do es
Ġman age
ĠSand ers
ĠEver lasting
ĠJul ia
Ġ19 9
ĠFri j
Ġtear ing
Ġlady finger
ĠWay ne
ĠTost ada
ĠFour th
ĠSkin ner
ĠAd ams
ĠSaut Ã©
ĠTon ight
ĠDevil ish
ĠTown house
Ġreheat ing
Ġpres ifted
ĠTam my
Cook ie
ĠWor ms
Re ally
ĠEnd ive
ĠClou ds
pepper mint
Ġtra il
ĠBis kit
ĠLen tils
Appetiz ers
hard t
ĠMam ma
ĠPlan tains
Ġgroup er
ĠBlan kets
ĠEvery thing
26 5
ĠPast or
ĠPast el
Ġomelet te
Ġcour age
Ġmatch stick
ĠKe bab
Ġcheap er
jo int
Ġuniform ly
ĠTer ri
ĠTer esa
Ġhun ks
Time y
Ġcal ves
ĠMich elle
ĠMich ael
ste ak
jell ied
ĠMicro cook
Ġpass ed
Pre paration
Pre tzel
four ths
ĠRob usto
Ġpra ct
Ġtuck ing
ĠRem aining
ĠBlond ies
Ġpral ine
ĠSor ghum
ĠSli vered
ĠBu ild
isturb ed
tri m
comb ined
ĠSpir it
ĠChal up
ĠGul den
Ġslash es
ĠPain ts
ĠHorn s
Ġwat ah
ĠChap ter
Work s
Ġspec ified
ĠHop scotch
ĠLiqu ify
Ġcheer fulness
ĠBomb ay
ĠFrankfur ter
Ġcompl iments
ĠPhy llis
kn ead
ĠRis otto
ĠFo otball
defrost ed
Ġdred ging
Ġsupermark et
Ed ible
Ġswir ling
Ġsubmer ged
ĠEmp an
ĠRoula den
ĠIc icle
ĠInf allible
Mor ton
ĠToothpick s
ĠNutrit ious
ĠSnowd rift
Ġtumb ler
ĠAna heim
ĠKer r
quis ite
ĠWheats worth
Ġabund ant
ĠCelebr ation
Ġtre ated
Ġmater ial
Ġono in
ĠPats y
Ġteap ot
Ġconsisten t
Ġpenet rate
ĠPavlo va
calor ic
pu ppies
ĠAriz ona
. /
1 25
3 60
4 9
A bout
A ka
C asserole
F inger
H idden
H oliday
L ings
M s
M an
M ary
P op
P ear
R A
S n
S ea
S ide
S uper
T ry
T est
T urkey
b rand
c el
c coon
d u
d rum
d irections
f el
f ive
h ickory
l ump
m aking
n ett
n umber
p unch
p istachio
p jacks
r un
r ub
t ion
t elli
v ier
w eed
Ġ er
Ġc ave
an ten
an ces
Ġb x
Ġt iss
Ġt extured
Ġp one
Ġp aw
Ġm ir
Ġm idd
Ġm ax
Ġm esquite
at ile
al at
al one
Ġf ud
Ġch our
Ġw it
Ġw edding
Ġw oman
Ġw ienies
gar ten
ic ing
ic chio
ĠC e
ĠC ure
ĠC arm
ĠC ray
ak k
Ġsu ck
Ġd eseed
ĠS i
ĠS ake
ĠS ett
ĠB ess
ĠB ors
ĠB ugs
ĠP ans
ĠP anch
ĠP int
ĠP igg
Ġg un
Ġh ind
Ġl ip
Ġl ate
ĠM ick
ĠM any
ĠT imes
Ġv alley
ick er
ĠA ud
ĠA roma
ce tta
ĠCo st
ĠCo me
ts weet
ell ane
Ġst yrofoam
to ber
ri pen
ĠAdd ing
Ġn ougat
Ġsh erb
ĠCh amb
Ġsa mple
th ough
ĠR oni
ĠR io
ĠR uffles
ĠD al
ĠD ak
ĠW as
ĠW aik
st ini
st ance
Ġover stir
ĠF u
ay as
ure en
ers atile
Ġre used
ur ger
Ġsp r
Ġcra zy
ĠSt raw
ĠL iving
ĠWh atever
ĠH ut
ĠH arden
ash i
im ahi
ĠG erm
ĠG ummy
mo on
Ġ9 9
ĠRe ba
ĠCheddar y
ab urgers
ĠE lean
ĠJ et
ĠK it
ĠK ir
ĠK aiser
lo oking
Ġra ccoon
Ġroll er
Ġred ucing
Ġ15 5
ĠV ol
ĠV ermouth
ĠV erse
oll ie
ĠSa w
ĠSa ff
ĠN ick
ĠN ugget
ĠDrain ed
isc ellane
ĠSh edd
ĠY uban
Ġare as
ĠCorn flakes
Ġpl unge
ĠBe tsy
ĠSl um
Ġz iploc
Ġunb l
ican a
ud ites
Ġlon gest
ĠRo Tel
ĠCar rie
Ġpo ut
ne ver
Ġte as
ĠSto ck
ĠLe banese
Ġblue fish
uck er
Ġqu ah
Ġgood ness
ig ator
pare ils
Ġskin ny
Ġhe el
Ġhe ights
ĠAr roz
ĠAr ctic
Ġany where
ĠMar g
Ġcomp art
ĠZ ap
Ġkeep er
ĠBr ussel
ĠBr usch
Ġper f
ĠCon centrate
ĠAl pha
ĠKeep ing
fl owers
Ġund isturbed
eg s
Ġ18 5
ĠPh ill
ĠFr ont
ĠCamp ers
ĠCrack le
Ġel k
ĠPart ies
ĠDi ppers
ĠPo int
ĠPo ssum
ĠTw ister
ĠSm ores
Ġche erios
ĠGrill ing
Ġoyster ette
ĠBa mb
Ġblo oms
cook ies
Ġmoist ness
ĠYum s
ĠPr ince
ĠPr unes
ĠBatter ed
ĠCol cannon
ĠAp ril
Ġreach ing
ĠBo j
areri b
ond a
ĠGo b
mar aschino
ĠCre pe
ĠEx quisite
ĠHea vily
ĠCla ir
ĠSnow y
ĠBl iss
ĠBl itz
Ġpro mptly
he aped
ĠAs k
pre heat
bro il
Ġfla mes
ĠHar ri
Ġmed allions
Ġbun ny
ĠTe en
ĠTe as
ĠInd ies
fin ish
Ġlunch meat
ĠWa sp
inder garten
ĠJul ienne
In stead
ĠBra id
ĠSkin less
Ġgumd rop
ĠOrteg o
Ġgro o
stack s
ĠFil ipino
App roved
Ġgu est
part y
Ġca uses
Ġtra ce
ĠSome thing
Ġfix ings
car amel
ĠLen a
ĠJean ette
Ġmanufactur ers
ĠMam my
ĠMam maw
Ġveg ie
ĠPaul ine
cub e
Ġpol enta
Corn bread
ĠHold ing
ĠGu ava
Ġbloss om
Ġcrystall ize
ĠRh ine
Ġsna pped
Ġexp ensive
Ġsubstitut ions
ĠQuesad illa
ĠPic tsweet
che es
Sal sa
ĠCheer io
Red uced
Ġpass ion
Ġmus lin
Ġcreat ing
bohyd rates
Ġcrystal ized
Ġconven ient
Grand mother
ĠParis ian
Ġferment ation
ĠDis joint
ches tershire
Blue berry
ĠBer tha
Ġnap kins
36 5
Ġdra wn
Ori ginal
ĠMul let
ĠMul ti
Ġdiscolor ation
Ġpotluck s
Ġfoot ball
ĠKring le
ĠKr unch
clean ed
sm oked
ĠLar ry
Tra ditional
Ġash es
ĠFon tina
ĠMatt ie
ĠKath ryn
ĠComb ination
Ġlik ed
ĠHon or
Ġparticular ly
ĠModel ing
ĠJen ny
Ġknock wurst
Flavor ed
Gr illed
purch ased
ĠBlo x
Ġhar der
Ġlollip op
Apples auce
care ful
ĠRen ee
ĠTurk ish
Ġpump kins
Ġfle xible
Ġgath ering
ĠSpa etzle
Ġve ins
Ġjun iper
ĠChard onnay
ĠShawn ee
ĠPaprik as
pit ted
Ġfiddle heads
ĠAz t
Ġliber al
ĠDelmon ico
ĠSzech uan
ĠSombr ero
angost inos
Esp ecially
Ġsult anas
ĠPecor ino
ĠBors ch
Ġsherb ets
ĠWaik iki
iscellane ous
) !
1 15
3 4
A part
B ar
B ra
B as
B arbecued
C K
C ountry
D rink
G arb
H ave
H omemade
K eeps
L Y
M ilk
M other
O U
O mit
P our
P yrex
R agu
S low
S ummer
W ater
W ash
c ereal
d irt
f sa
f ied
h aps
h ook
j a
n ies
o ss
o atmeal
p astry
p ort
r ump
s ided
t b
t greased
t te
t This
z ag
Ġ ry
Ġ kg
Ġs ch
Ġs orted
Ġs lender
an na
ar ters
Ġo dor
Ġb less
Ġb leu
Ġb reader
ed ly
Ġt er
Ġt ank
Ġp wd
re constituted
re gard
on ges
en ian
ou le
ou ston
Ġf ed
Ġf ra
Ġf ake
Ġf ans
Ġf ib
ĠC O
ĠC utter
ĠC ough
ĠC ape
ĠC ount
ĠC ushaw
le c
le ft
Ġin ject
el p
Ġ2 10
Ġa f
Ġa gar
Ġa is
ĠS er
ĠS im
ĠS yrian
ĠB E
ĠB ris
ĠB og
ĠB aco
Ġg ou
Ġg els
ĠM i
ĠM ey
ĠM ead
ĠM andel
ĠM ackerel
ĠT ia
ĠT ong
ĠT umble
Ġcream iness
Ġfl ipping
ĠA way
Ġun processed
Ġmin d
ĠCo al
to ff
to bell
Ġj el
Ġj ams
Ġj ambalaya
ok o
ri m
ee th
ĠCh ina
Ġmar ks
Ġcr me
th icken
ĠD uff
ĠD ressed
ĠD inners
ĠW y
ĠW ed
ĠW ow
ĠW ea
ĠW oody
st rained
st rip
ad ed
ther e
ĠF re
ĠF loss
ĠF lash
Ġpan cetta
con e
co cktail
co arsely
um i
qu ito
Ġsp are
Ġsp oil
Ġr us
Ġr uss
Ġse en
ĠL it
ĠL uke
ĠWh it
ĠWh eels
ĠI g
ĠH ills
Ġgar ni
Ġcrack le
sh allow
sh elled
op hane
ĠG a
ĠG ol
if er
Ġ9 2
Ġ9 7
Ġro m
Ġcar ry
Ġcar bohydrate
Ġcar bohydrates
ab lo
Ġk umquats
Ġis land
ĠJ ess
ĠK a
ĠK ap
ul ates
Ġex pect
ĠV iv
ĠV iet
ĠCr me
ue v
ent ury
ĠTh ought
li o
ĠBrown berry
se cond
Ġen ergy
Ġlo op
Ġdes irable
ĠSh an
ĠSh all
ĠSh oyu
Ġsmooth ness
ĠAnd rea
ĠY ule
ĠY olk
ĠY oung
Ġdash er
Ġthin ness
Ġapple jack
ĠU ltra
Ġconfection ery
os et
ĠBe verly
ĠTo gether
ĠTo otsie
Ġfat tening
ĠFor d
ĠBall ard
Ġacc ur
ĠSw izzle
Ġpo ssibly
Qu art
ĠQu ant
ĠSpoon bread
ĠGra ms
Ġcle ars
ĠHot el
Ġblue ing
Ġbon bons
Ġtartar ic
ĠPress ed
Ġcur ling
ig zag
Ġhor se
Ġnon alcoholic
Ġnon pareils
Ġbouillon s
ĠLo ving
ĠFreez ing
ĠMar ion
so y
so ak
Ġcrock s
Ġcomp le
Ġ* (
ĠZ ip
ĠZ ero
ĠZ wieback
ĠZ atar
ĠRanch ero
Ġgran ite
ĠBreak stone
ĠSc ra
ĠNo el
ĠBr itt
ĠPick ling
ĠCon ch
Ġmel d
pick le
ĠUn fried
ĠHam mer
ĠTom my
ĠAng ie
ĠChe v
do ors
Ġfour s
ah tar
app earing
ĠSm iles
cr ush
Ġsweeten ers
ily n
ĠRuss ell
ĠMom a
ĠPr in
ĠCol onel
ĠLa ine
Ġsn ip
Th ere
av ian
ĠCal ab
Ġflake y
ug ula
ĠAn t
ĠPol lo
Ġwon der
ĠBl izzard
ĠHo ff
ĠLon ger
Ġwor ld
ĠMy ers
Ġfla g
Ġtam ale
Ġrub y
rit is
green s
Ġtable top
Ġseg ment
ĠTart lets
Ġmicrow aves
Ġmicrow aving
urch ase
hyd rated
.. ..
ĠFri day
ĠFri ends
Ġscrap er
teg a
ĠArm enian
Ġchar red
Fro st
Cal ifornia
ĠGrandm ama
Ġsteep ed
Ġdec rust
cal illi
lemon ade
ĠHoll and
ĠLiver wurst
Re move
Mar tha
ĠCor iander
ĠRos ettes
sal sa
sal tines
Ġhorizon tal
ĠPres erved
Be ans
ĠStand ard
pr ints
ĠLee ks
ĠHolly wood
ĠCoco ons
Ro os
ĠBill ie
ĠGu aranteed
ĠBri an
Ġcrystall izes
Ġcheap est
vege tables
ĠWin nie
tB ring
Ġton ic
crack ed
Ġproper ly
Ġpor ous
Ġpor cel
ĠFloren ce
ĠWilliams burg
ĠDrum mettes
ĠIng redient
ĠKo lacky
Ġmess y
ĠBubb ly
utif ul
Diet etic
ĠMah i
ĠParis ienne
ĠSpark ler
ĠBear naise
Ġhusk ed
ĠDis appearing
ĠAb by
Pan cakes
ĠBull s
ĠRem oulade
Ġgrass y
Kn orr
Ġgrand mother
ĠLill ie
ĠEmer gency
Ġsett led
Po ppy
ĠPay day
Ġdie ts
ĠLiqu or
ĠWake field
Ġcray fish
stew ed
Am ount
ĠSen ator
ĠMus cadine
ĠDen ver
ĠKola ches
Ġconf idence
ĠGin ny
ĠEll ie
Ġoverbrown ing
Ġly chees
Ġspl atter
ĠButterhorn s
ĠBridge ford
Ġemuls ified
Bor den
ĠPars on
ĠPsal ms
ĠRemo ver
ĠReview s
tit ude
tea spoon
ĠKnot s
Ġrandom ly
Acc ent
Ġtoler ance
ĠJes us
arbon ate
ĠGeb hardt
Ġrender ed
ĠRec ip
ĠViole t
bou illon
Ġbic arbonate
ĠBunk er
ĠEurop ean
Ġamar etto
Ġmanage able
ĠFrij oles
Ġmax imum
ĠDak ota
Ġcompart ment
ĠBrusch etta
Ġperf orated
Ġais le
ĠJess ica
ĠViet nam
ĠZatar ain
Ġporcel ain
% ).
. (
2 32
5 3
A K
A L
B ul
B arbecue
B oiled
C a
C oke
C ups
D anish
G round
H eat
H ome
H awaiian
I T
I mp
J o
K ing
K ra
K eebler
L ighter
M ash
M andarin
M aid
N OT
O x
O ff
P istachio
P roof
R uss
S ee
S esame
T e
T ot
T bsp
V E
W ild
a zz
b ot
c od
c ap
c ount
c rock
d ec
d og
e f
e ction
e venly
e asier
f avorite
g r
g ently
h is
i ot
i rie
k uchen
l uski
m ill
n el
n est
n ext
p ed
p izza
s w
s age
t es
t aste
t one
t egg
t In
t Then
v oy
v able
w ild
z ie
z oni
Ġ @
Ġ ir
Ġ ans
Ġ uv
Ġc m
Ġc lass
in ate
in ning
Ġs y
Ġs atin
Ġ1 12
ar able
Ġb are
Ġb arb
Ġb eside
ed ience
Ġp un
Ġp ushed
Ġp estle
Ġp uncture
Ġm ole
Ġm atz
ut ettes
al ks
en go
Ġf olks
Ġch ic
Ġch inese
ing on
Ġw and
ic s
ĠC ry
ĠC zech
Ġto pper
or ox
pp i
el and
el ine
ak u
ak or
ro odles
Ġa sp
Ġ3 30
Ġd ue
Ġd ime
Ġd aikon
Ġe c
Ġe ights
ĠS ack
ĠS till
ĠB ib
ĠP od
ĠP urchase
Ġpe pp
Ġh on
Ġh orn
Ġh ershey
is ser
Ġl ie
Ġl ipton
Ġsalt ing
ĠM op
ĠM eet
ĠM ack
ĠM illet
ĠM uch
ĠM ouse
ĠM usc
ĠM others
ĠT al
ĠT ator
ĠT ails
Ġmilk y
ĠA ct
ĠA cini
ĠA parts
ĠA uthentic
Ġun thaw
ith uan
Ġcan isters
ĠCo ast
ĠCo ff
ĠCo ins
eat er
ver ting
Ġj et
Ġoz s
Ġn et
Ġn ail
Ġn av
Ġn amed
Ġsh ish
ĠCh afing
Ġcr ump
Ġwh ey
ĠR at
ĠR ush
ĠD od
ĠD eg
ĠW ra
ĠW ife
ĠW edge
col n
st and
st raight
Ġgr ouse
Ġcook outs
ĠF ul
ĠF reak
ĠF ennel
ĠF iber
ĠF ragrance
et y
Ġbe ars
ur ts
co la
co ck
co ffee
co bs
qu ette
Ġsp ry
Ġr u
Ġcra ppie
ĠSt ru
ĠL ion
ĠL ink
ĠL umber
ĠL OW
Ġcon tra
Ġ6 6
ĠI cy
ĠH ere
Ġcrack ing
sh iny
Ġground s
ach ers
Ġba gged
ĠG ard
ĠG one
ĠG ala
uit able
Ġso il
if th
Ġx x
Ġro d
Ġro ds
ĠRe ames
ab i
ore gano
ĠE ase
ĠIn expensive
ĠIn ez
ĠK ick
ĠK itty
Ġmeat loaf
ĠV i
ĠV ent
ĠV idalias
mp his
ĠCr uda
ĠCr ullers
Ġha ppy
Ġcrust less
ĠTh ighs
ĠTh under
ĠCut outs
ats u
li qu
ĠSa ver
Ġjar red
ĠN ich
let tuce
Ġnutmeg s
Ġbefore hand
eal and
Ġlo vers
ag ies
ĠSh ore
Ġsmooth ing
ĠY ulet
ka h
ĠPot s
arb or
Ġpaper ed
Ġ25 2
ich ang
Ġsoy ameat
Ġde press
ĠTo asts
Ġwill ing
ĠSw itch
ĠSift ed
Ġtur tles
Ġte abag
sc alded
und red
Ġbon y
Ġmicrowave proof
Ġstiff ens
ĠFro thy
ig ra
ig ne
ugar ed
ĠAr my
Ġany one
ĠCan non
Ġar ugula
ĠMar riage
ĠMar ilyn
ĠMar engo
Ġdeep ly
ĠAmerican a
Ġsm ells
ĠSeason ings
Ġevery body
uer to
Ġfull s
ĠMon terrey
ĠForm ula
ĠCran k
ĠUn sweetened
ĠAl la
ĠCrumb ly
cad ines
Ġund issolved
Ġsub stance
ĠOld e
ĠOr nament
Ġmois ter
Ġbean less
ĠCrack ed
tc rust
Ġfil berts
ĠMe mphis
de hydrated
Ch op
Ġtri pe
rag rant
ĠPack ed
ĠCrunch es
Ġbul ghur
ĠThaw ed
ĠTri o
Ġopen ings
iche ver
ĠDon ut
Ġsn ug
Th at
Ġbas in
ĠCl orox
ĠAltern ating
ĠBen nett
turn ed
ĠPro d
Le ftover
low ing
ĠStick ies
ula h
Ġovercook ing
ĠWarm er
Ġrepeat edly
Ġwor chestershire
Ġnear est
ĠLight ning
ass ie
ass orted
ĠHun ting
ĠMiss ion
ĠTe acher
ĠWe igh
ĠCare ful
Ġfall en
ĠEver clear
Ġlunch es
Ġartific ially
ĠCap ers
ĠJohn nie
ĠBuck et
ĠBuck wheat
Ġspir it
ĠVelvet ta
ĠWon ton
ĠJim mie
Ġ19 8
Ġmarble ize
ĠPor ridge
bb ins
ĠAd vance
ĠFlo ating
Ġear th
ĠPizz elle
ĠJan ie
apples auce
Ġpres erving
ĠDew berry
crisp y
Ġjigg le
Bro iled
ĠPort ions
ĠAnn ivers
Ġcom inos
ĠPers on
Ġbel ieve
ĠBell s
ĠDr unk
ĠSpring er
Mar shmallow
ĠHand i
ĠRos es
ĠOther wise
ĠLen ten
ĠJean ne
black berry
tS tore
tS lice
Ġglo b
ĠBegin ning
Me asure
Ġour s
ĠFud gies
ada if
Ġunw ashed
ĠKe vin
au ge
follow ing
inet te
ĠNeed ed
ĠConfection s
Ġbu ild
Ġhun ger
awn y
Ġpor table
Ġsubstitut ion
ĠCant on
ste am
Ġact iv
ĠGoo ber
ĠGirl s
ĠFaj ita
Pre pare
Ġunroll ed
Ġindic ates
Ph iladelphia
Se ven
ĠCod fish
ĠChick pea
ĠMart ini
Ġbor ic
Mc Intosh
Ġdelight ful
Ġclaw s
ĠGh ost
Go oey
ĠDar lene
ĠHazel nut
ĠVari ations
ĠPal m
Ġab ility
Ġneat ly
Ġneat ness
ĠLollip op
Ġmen u
ĠCall ed
ĠKring la
ĠMem ory
ĠBenedic tine
Ġspec ific
ĠCour se
Ġcray ons
ĠJenn ifer
ĠFrankfur ters
Ġutens ils
ĠVen us
ĠVege x
Ġcompl iment
ĠPhy llo
ĠMagn ific
ĠGoof y
Stuff ing
cur d
En ough
ĠDoub les
Ġrel atively
Ġstirr ers
ĠMont real
ĠSteph anie
Ġtrimm ing
Ġpi geon
ĠChamp ion
ĠRus se
ĠTrop icana
eca use
Ġprong s
ĠMeg an
ĠOV ER
ĠHorse back
ĠAncho vy
Squ ash
Ġpisto lettes
Ġques o
Ġarri ve
Ġcell ophane
Ġpadd le
ĠAh oy
Park ay
kern el
ĠHag el
ĠDelic ate
ĠArth ur
Ġsatur ate
ĠBrey ers
ĠEmpan adas
Ġabundant ly
Ġtiss ue
Ġdeseed ed
ĠAud rey
ĠElean or
ĠSlum g
Ġunbl anched
Bas ic
Ġfib ers
ĠMey er
tobell o
Ġruss et
ĠThought fulness
Ġdecrust ed
ĠVietnam ese
Ġchic ory
ithuan ian
Ġteabag s
ĠAnnivers ary
6 5
A Y
B oil
B its
B asil
B oo
D ressing
E D
F un
F ran
G rain
G rated
H and
H unt
H eath
K a
L l
L ou
L and
L ittle
L ibby
M ild
N D
N e
N umber
O IL
P umpkin
R ound
S loppy
T aste
U sa
U sing
W on
b els
b ottle
c ir
c les
c ano
c ase
c rab
d ue
d elli
f igs
g as
g ue
k o
k id
k ely
l iness
m olina
n atural
o or
p ing
s uff
s irloin
s uggest
t It
t well
t Layer
t baking
t pour
u co
y ram
Ġ :
Ġ ?
Ġ ...
RE AD
Ġc t
Ġc am
Ġc ity
Ġc ounts
Ġs ouffl
an ket
ar ly
ar range
Ġo per
Ġt ate
Ġt ad
Ġt ies
Ġt unnel
Ġt asted
Ġt eeth
Ġp ad
Ġp ur
Ġp oked
Ġp air
Ġp cs
Ġm et
Ġm ud
at ouille
il et
en ie
en uine
ou st
ou li
Ġf ern
Ġf auce
Ġf aced
Ġch ix
Ġw orm
ic c
ĠC iv
ĠC ora
le aves
le aving
Ġin verting
or ts
or anges
rea ctive
Ġa ction
Ġa but
Ġd ental
ĠS la
ĠS ab
ĠS af
ĠS uck
ĠS lee
ĠB oth
la it
ĠP un
ĠP ow
ĠP ring
ĠP ray
ĠP roof
ĠP ila
Ġg ash
Ġg lu
Ġpe per
Ġtsp s
Ġh urt
Ġh int
Ġl ick
Ġl ifted
Ġl angostinos
ĠM ir
ĠM ardi
ĠM iso
ĠM esquite
ĠM orsel
dd ed
dd ie
un bleached
ĠT v
ĠT ell
ĠT ee
ĠT ira
ĠT ons
ĠT yler
ĠT ighten
ĠT roy
ĠT eddy
Ġv er
Ġ( $
Ġ( *
all ie
Ġth ousand
Ġor ig
Ġor ganic
ĠA B
ĠA st
ĠA qu
ĠA ND
Ġun prepared
Ġun floured
ĠCo gnac
Ġj owl
Ġj oe
ok ee
ri vel
der son
Ġsh in
Ġsh ave
Ġat te
ĠCh ate
ĠCh orizo
ĠCh eryl
Ġmar gar
Ġmar tini
ck s
ve al
ir st
ir ard
th ese
th ew
ĠR edi
ĠR ang
ĠD y
ĠD inosaur
ĠW ear
ĠW ienies
st ri
st ring
st ale
Ġgr istle
ush ian
ush ki
Ġbo y
ĠF ew
ĠF ag
ĠF east
ĠF avor
ĠF airy
ĠF ifty
Ġcorn stick
Ġcorn cobs
me lets
ish a
Ġre fresh
Ġre plenish
Ġtogether s
qu itos
qu ets
qu ik
Ġsp oke
Ġsp aces
ten tion
ĠSp lash
ĠSp rout
am ari
ĠL an
ĠL am
ĠL if
ĠL attice
ĠL ela
ĠL acy
ĠL ithuanian
Ġ6 00
ĠI mm
ap ers
ap uno
ĠH at
ĠH aw
ĠH oe
ĠH ass
ĠH ilda
sh eet
op lait
Ġba ggies
Ġdrain s
Ġbread board
Ġ5 8
ĠG ift
ĠG ray
ĠG ina
ĠG loss
ant i
ĠRe be
ĠRe constitute
len eck
oon s
ĠSal at
Ġgra vies
Ġk anten
ĠO unce
art on
ĠE ss
ĠE dge
tab ella
ĠJ ac
ĠK y
ĠK ake
ĠK orn
ĠK idd
ĠK ah
ĠK ona
Ġsl at
Ġra sh
Ġla cy
Ġla bels
Ġred skin
Ġred uces
ĠCream ette
Ġpap ayas
ĠV illa
ĠV elvety
ĠPe pe
Ġshred der
Ġclo ck
ĠSpread s
oil a
Ġan isette
Ġan imals
Ġfruit ed
Ġfruit cake
ĠN u
ĠN utter
Ġsqu ish
Ġpre t
Ġlo qu
Ġlo cal
ac ity
Ġdes c
ĠSh oulder
ĠY o
ĠY oplait
ran ging
ĠPot ted
Ġ7 8
Ġfin est
ĠU mm
Ġmo chi
og ie
Ġcol der
Ġcol lect
os lovak
ĠMo o
ĠMo ose
ano ver
Ġliquid y
ric ol
ĠBe ars
ĠBe ulah
Ġtor te
Ġfirm s
ĠFor ms
ud y
erb ian
ĠCar n
Ġcrab apples
Qu aker
Qu iche
Ġhea vier
Ġtub ular
mi ddle
ĠGra pen
Ġuns ul
Ġuns ugared
ĠPudding s
ĠDo ves
ĠDo ggie
Ġside ways
ĠSqu ish
Ġafter wards
ĠSo ftened
ira delli
ĠGr ub
ĠFl op
ĠFl aked
ĠCan n
ms on
Ġcons um
Ġfish ing
ĠSalt y
ĠMar co
so aked
Ġsto pped
ĠMin nes
centr ated
Ġcomp arable
ĠZ ealand
ĠRanch ers
Ġhigh ball
Ġtoast ing
ĠMay onaise
ĠSc ot
ang el
ĠBr uce
Ġper haps
ĠMon a
Ġim mers
Ġdri er
Ġdri ps
ĠNut ra
Ġpound ing
ĠUn salted
ĠAl ou
ĠAl len
ĠAl phabet
fl orets
wh ichever
nut rit
.\ )
tc ream
ĠVeg ies
ĠGreat est
ĠDe lec
do or
Ġbeg un
ĠDi ablo
Ġremo vable
Ġskim p
uss en
ĠCro stini
de boned
ĠSm ack
ĠSm ile
Ġche f
Ġche z
Ch ik
small er
ĠBroil er
ĠJust in
ĠWater s
Ġexcess ive
ĠHoney comb
ĠSn o
Ġblo om
no ck
ĠTex ture
Ġscoop ing
ĠWal ker
Ġcap acity
ĠNe bra
Ġsn ake
Th an
av as
ĠTr ix
ĠTr ue
ĠCal a
turn ing
ĠSnack ers
ĠBo bbie
ĠBo otle
ĠHoliday s
!! !!!
Ġalong side
Ġcurd ling
ug al
ĠJam ie
ik es
Ġoverb lend
ĠRub ber
ĠDev on
ĠProcess or
ĠEx periment
Co co
ĠNor a
Cola s
ĠTender loins
Ġpro te
Can ning
ĠPlay dough
atur ally
boil er
Ġrab e
Ġsw ish
ĠBas kin
ĠBas mati
ĠPin ts
ĠEl bow
ĠBea ver
ĠBea utiful
ĠPull ed
ĠPeas ant
ĠSmooth y
Ġdiv inity
ific ial
Ġrib bons
ĠWe enies
ĠMel issa
29 0
Ġtr ue
Ġtr unk
Ġcor ing
ĠEar l
ino is
Ġwe aken
Ġwe iners
ĠFinish ed
Ġcontinu ous
Ġfillet ed
ĠTost adas
ĠTra dition
Sp rinkle
Sp ray
ĠFix ins
Ġscorch es
Ġsor rel
ĠEd ges
ĠShe ila
att les
ĠGlor ious
Ġgu ess
ĠGener al
ĠReheat s
Ġbrew er
ĠStri pes
Ġplan ning
Al most
Ġwil ts
car rot
ĠJu an
ĠColor ing
Ġpast ina
ĠDolly s
Sh ake
Sh oe
Ġplay ing
Ġtost adas
Car rots
warm ed
imp ortant
Ġdirt y
ĠId eal
Ġsink s
ĠPit ts
Ġwonton s
Ro ast
ĠGu ests
Ġswee ts
ĠLoos ely
Ġcamp hor
ĠBri dal
oren tine
ĠBak ery
ĠDecor ations
ĠColl ards
tB oil
crack ers
Ġcal c
Ġscatter ed
Strawber ries
Ġsmell ing
full s
ĠCas ey
ĠOh io
ĠFla g
Ġincl udes
With out
Ġmus cadines
ĠEven ing
Ġaccomp any
ĠHow ever
ĠJoan n
ĠMid west
ĠNib blers
ĠMart y
ĠLy nch
ĠColle en
Ġferment ed
ĠWell ington
ĠVern or
Ġarm s
Ġser ver
ĠSatur ate
itt lings
ĠEr in
Ġtwis ting
oven s
Ġmoon s
ĠGh iradelli
Ġble ached
ĠSli pper
Ġdra fts
ĠDain ty
ĠPal mas
ĠRon zoni
ĠVick ie
ĠSpir al
Ġenhan ces
Ġsett ling
ĠSkew ers
ju iced
ju ana
Ġpic tures
Ġbagu ettes
Ġstud y
ĠKind ness
Ġta pped
Ġmac apuno
ĠRadish es
ĠMarsh a
ĠCroiss ant
ĠCour t
ĠPleas ing
ĠJenn ie
Pro gresso
ĠPra irie
ĠRiv els
Ġren net
Ġol der
ĠNap ole
ĠMagn olia
ĠBern ie
Ġaccum ulated
Ġaccum ulates
Ġprov ide
pres weetened
ĠTouch down
Ind ian
Ġglaz ing
Ġtrimm ings
ĠProven ce
ĠTail gate
ĠAust in
Ġoverflow ing
Hun garian
Nor wegian
ĠLore ne
Ġsoul s
tst ir
ĠEnt ire
ĠArab ic
ĠChim ichang
ĠRud olph
ĠCalz one
Ġtsub ushi
stru ction
max imum
Ġign ite
Ġsuds y
rage ous
ĠGramm ie
ĠLizz ie
ĠGull iver
ĠOc tober
ĠKebab s
Ġcave telli
ĠChamb ord
Ġquah ogs
ĠAzt ec
Ġry es
oule h
ĠTong ue
Ġrom ano
ĠViv ian
ĠPrin cess
ĠParson age
Ġec lair
Ġpepp ah
isser ie
Ġnav al
ĠRat atouille
ĠYulet ide
uco p
Ġfauce t
ĠRebe cca
ĠGrapen ut
ĠMinnes ota
nutrit ive
ĠNebra ska
2 70
3 7
4 75
A ust
A parts
B on
B all
B ac
B ig
D ry
E ase
G e
H alf
I d
I CK
J if
K ist
M O
M il
M icrow
M iddle
O h
O at
O il
O ur
P T
P ioneer
R ome
R oman
S l
S ch
S uch
S imilar
T w
T art
U R
W ay
X CE
a iety
a ugh
b reast
c um
c asserole
c ran
c ashew
c iety
f les
f rito
f arms
g al
g rap
h add
k atsu
l ty
m arb
m acaroni
m atic
n ers
n eeds
p asta
p uffed
p odge
r ish
s ea
s li
t x
t is
t pan
t esy
t juice
t Can
t If
t Do
t brown
t pepper
t bake
t Yields
t then
t Melt
u ie
u ppy
w ide
y a
y on
Ġ /
Ġ ;
Ġ PE
Ġ ream
Ġ lace
Ġc oup
Ġc amel
Ġc alf
Ġc appuccino
Ġc affe
Ġs la
Ġs ip
Ġs op
Ġs lo
Ġs lack
Ġs ings
Ġs omen
er land
an za
ar ita
Ġo x
Ġo ccas
Ġb en
Ġb ug
Ġb arbecues
Ġb ounces
Ġt ipping
Ġt ricol
Ġp ark
Ġp oking
Ġm ent
Ġm ature
Ġm ons
Ġm ountain
Ġm ult
Ġm ignon
Ġm ultip
ut en
ut ton
re ngth
re commend
en uts
Ġf ant
Ġf ore
Ġf ragrant
Ġw aste
gar den
gar ban
ĠC ed
ĠC HE
le ph
le aven
Ġin vol
el ing
Ġsu l
Ġa de
Ġ3 45
Ġd am
Ġd ams
Ġe mer
Ġe conom
ĠS is
ĠS ip
ĠS lo
ĠS ham
ĠS ymp
ĠB ok
ĠB alt
ĠB OIL
ĠP oles
ĠP itas
ĠP odge
ĠP isto
Ġsal e
Ġg enuine
Ġg aiety
Ġpe aked
as u
Ġh ares
is er
is en
ĠM ee
ĠM ight
ĠM alted
ion ed
un flavored
un ity
un seasoned
ĠT O
ĠT ast
ow el
Ġco pper
Ġfl orentine
Ġth ank
ick ed
us ta
us ale
ot ion
ĠA void
ĠA ggie
Ġun ripe
Ġun available
Ġun filled
Ġun usual
ts e
ts h
Ġst amp
Ġj r
ri bs
Ġvanilla h
mon o
Ġn aturally
Ġsh rivel
ĠCh ix
ĠCh oux
Ġmar sh
Ġcr iss
Ġcr udites
Ġsa ver
Ġsa vor
Ġsa voy
ien da
ĠR ip
ĠR ad
ĠD ur
ĠD oodles
ĠD ella
ĠD erb
ĠD uch
ĠD uper
ĠW ip
od ay
st rain
st rength
Ġgr itty
ad ent
ĠF er
ĠF ol
ĠF are
ĠF ide
ĠF est
ĠF its
ĠF iddle
ĠF ully
Ġpan try
con centrated
co als
qu in
igh lty
Ġr ush
Ġr eroll
ĠSp in
am ab
reas es
Ġcra isins
ĠSt ra
ĠSt iff
ĠSt anding
ĠSt alks
ĠL g
ĠL ab
ĠL ots
ĠL ora
ĠL ared
ĠL aban
ĠL ulu
Ġsour s
Ġcon ne
ĠI ll
ĠH y
ĠH ip
ĠH ula
ĠH ero
ĠH undred
ĠH anover
sh aw
sh ort
ach i
Ġba co
Ġ5 2
ct us
ct ively
im ore
ĠG reg
ĠG io
mo is
Ġso oo
ant ic
ant uck
ĠRe ad
ĠRe tain
ĠRe med
ĠRe arrange
ub s
arm acy
ab ric
Ġal ter
Ġk ill
Ġk elp
Ġshor ten
ĠO la
ĠO xtail
Ġcut outs
ĠE ra
ĠE asily
ĠE ddie
ain der
ĠJ os
ĠK on
ĠK amp
ĠK rumk
lo s
lo os
ea fter
Ġsl ighlty
ĠBeat ing
Ġla ban
Ġchil ie
Ġli dded
af in
ĠPe ak
ĠCr iss
ĠCr ump
Ġfill er
ue ts
ĠTh ird
ĠMelt y
ĠSa uces
ĠN ic
ĠN antuck
Ġwal leye
abb ouleh
ĠParmesan o
Ġpre tt
Ġpre packaged
ag ing
Ġdes ires
ĠSh a
ĠSh op
ĠSh are
ĠButter ball
ĠButter balls
ĠY ong
Ġdash i
Ġham s
Ġthin ning
row s
Ġcol le
Ġwax y
Ġtab let
Ġres ift
ile en
Ġde lete
Ġhead less
urp rise
Ġz igzag
Ġz ahtar
tail s
ĠFor ty
erb urger
ĠRo ger
ĠRo bbie
Ġri p
Ġri ver
ĠQu encher
Ġform ula
ĠSimmer ing
sc ramb
Ġhea venly
ĠGra ma
ĠGra de
ĠGra cie
sa ff
sa uteed
ĠLe on
ĠLe fsa
Ġstiff ness
Ġqu its
ull ion
Ġcur ried
ĠFry pan
ĠSo cial
ubb ard
ĠTab ouli
Ġfew er
Ġhe ar
Ġpin enuts
ĠOn es
ĠLo la
ĠLo op
ĠMar c
ĠMar jor
Ġsm idge
Ġcomp act
ĠRanch eros
Ġdark ened
ĠSc allions
Ġseal egs
ĠCon f
Ġpunch ed
ĠUn used
ĠAl berta
Ġag ent
ĠPet it
pen o
Ġsub tra
ĠPam med
ĠJack son
ĠShrimp ly
ĠAcc ording
Ġcaramel izes
ĠFresh like
ĠPan ned
ĠPart on
ĠDi sp
ĠDi able
Ġbr ussels
meric al
Ġskim ming
ĠCro utettes
ĠSm ell
ĠSpaghetti Os
ĠSk i
Ġtri ps
cr unch
ĠHoney dew
ĠBa ham
Ġrose water
ĠHash ed
ĠToast y
Ġsplit ting
ĠLea ving
Ġwhisk ed
Ġpul sing
ĠBlack berries
ĠCa ution
ĠCa ctus
ĠPr ud
fresh ly
Ġgener ally
ĠNe ighbor
ĠCol lect
ĠLa it
Ġsn akes
Ġsn ifter
Th ank
ĠSpecial s
ĠSpecial ty
ĠRes erving
Ġcurd les
Ġgo blets
Le viticus
ib les
ĠPer ch
mix ing
lime ade
ĠAn ita
ĠAn derson
Ġmeasure ment
Ġkra ft
Co bbler
ĠPl op
ĠCla us
ĠSnow flakes
Ġbl anket
butter scotch
ĠCur ly
ĠShort cakes
Ġstrain ing
Ġthir st
ĠEat en
Ġrot elli
Ġpro ject
Ġfa ces
Ġliqueur s
ald win
ĠOpen er
ĠMil o
tender s
ĠFran go
ĠSun be
ren to
ĠWhisk ers
Ġad ult
ĠAmb ers
ĠHar ry
ĠDrink s
ĠRi pple
ĠTe mper
ĠWe in
ĠInd ia
eath ers
Ġtr uffles
ĠMor avian
Ġsho vels
assa va
ĠTart e
ĠFlavor ing
ĠWon tons
tP ack
ĠBra um
ĠBab a
Sp iced
Sp rite
rib ed
ĠCarol ine
ĠWil ton
ĠAvocad os
ĠPizz aburgers
salt ine
Ġdrum stick
19 30
ĠGi ves
ĠBob by
Ġbuck ets
Ġsack s
att ie
ĠAnn ette
App roximately
Ġneck bones
lub bock
Ġtough ening
Ġcrunch ies
Ġpearl s
ĠBag s
Ġpaint brush
ĠRain y
Butter scotch
ĠCryst als
ĠJer usale
sl ush
Ġstone ware
Ġadjust ing
non stick
Ġtra vel
ĠFun fetti
ĠJu ices
ĠCom ing
Ġsmok ie
black berries
ĠBlan c
ĠPres ley
ĠPres by
On ly
gra vy
Crust ed
ĠId iot
ĠFud gie
ĠGu ess
Ġimpro ved
Ġob ject
Ġob edience
Ġmill igra
ĠBri g
ĠPerk ed
Ġdishwash er
isin art
ĠRh onda
ĠTer ah
ĠConfection er
Ġsufficient ly
Ġtemper atures
Un baked
che ap
ĠDrum stick
So ak
tor tilla
Ġattra ctively
ĠFla ming
ĠFla pjacks
Ġmus k
Col ored
Ġfeel ing
umpt ion
Ġmex i
Ġindic ate
ĠMid ori
Ġsuggest ions
Ġexten ded
ci ation
Ġpain ting
ĠMer lot
Ġdisp osition
ĠGallon s
nes day
ĠMelta way
ĠGh irard
ĠSli ver
Dump lings
Ġdeterm ines
Ġdeterm ined
gro cery
Ġbri quettes
ĠSizz lers
ĠCob blers
ĠMax ine
ĠChal k
ĠCandi quick
leftover s
Fl our
Ġmas ala
ĠEconom ical
Ġslim y
Ġ__ __
ĠMat thew
seal ed
ĠNap a
ĠBern ice
ĠZe bra
ĠCharles ton
Bur ger
Ġdred ged
Ġsupermark ets
Ġrepla cing
ĠTempt ation
Ġstirr er
Ġant lers
Ġlaugh s
Ġinf us
Ġhay stacks
ĠTi juana
ĠRy an
ĠLore tta
Ġrear ranging
ĠHodge podge
Ġrad icchio
ĠVar iety
Ġenter taining
ĠCel est
Per fect
ĠCir cus
stuff ing
cons istency
freez er
Ġtal cum
Ġmah imahi
ĠParsn ips
Ġther eafter
ĠRal ph
ĠOak farms
bubb ly
hom ogenized
Ġcala mondin
ĠMI X
ĠImpro ves
Ġpract ically
ĠChalup as
Ġchour ico
ĠPanch o
ripen ed
ĠBoj angles
ĠTeas ers
uev os
Ġaccur ately
ĠQuant ity
Kra ut
Ġans w
Ġdepress ions
ĠHunting ton
ĠCanton ese
ĠSlumg ullion
kid ney
yram ids
ĠSuck ers
ĠPila u
Ġorig in
ĠLif esa
ĠImm erse
ĠGloss y
ĠAlou ette
XCE PT
grap es
hadd ock
Ġcaffe ine
Ġoccas ional
Ġment ioned
leph one
Ġade qu
Ġdams ons
ĠSymp h
ĠBalt imore
ĠDerb y
amab oko
ĠLared o
ĠNantuck et
Ġprett ier
ĠMarjor ie
ĠSunbe am
ĠJerusale m
Ġmilligra ms
ĠGhirard elli
/ -
0 7
1 50
6 2
6 7
A sparagus
B l
B rand
B uck
B lender
C P
C oms
D inner
E at
E very
F F
F lo
F uss
G en
H ow
H ard
H ea
I s
I cing
I rish
K indergarten
L D
L ess
M ama
N oodles
N eed
P at
P ap
P arsley
P reg
P lay
P enn
P uppy
R oma
S S
S ure
T r
T y
T en
T or
T ender
T own
T otal
V ari
W or
W yler
W inesap
a gar
a ver
a verage
b la
b unch
b asco
b iscuits
b akk
c it
c as
c ored
c inis
d is
d ri
d ia
d inner
d rops
e ak
e ers
g n
g inger
g reat
g rind
h o
h u
h ound
h art
h omme
i gar
i ry
j i
j el
j umbo
k ids
l unch
l rab
l inks
m and
m or
m ight
n ake
n ette
o ter
p in
r hubarb
s en
t if
t Use
t To
t Brown
u h
u ght
u rie
u enster
v on
v ite
v ary
w an
y um
y ams
y ond
y olk
z ip
z ucchini
Ġ %
Ġc ash
in ing
Ġs ir
Ġs che
er board
an ne
an ny
ar ine
ar ning
ar ange
Ġo oze
Ġb asted
ed der
Ġt upperware
Ġt ennis
Ġt ureen
Ġt assie
Ġp uts
Ġp ore
Ġm ap
Ġm oney
Ġm usc
Ġm iles
il it
en th
Ġf ide
Ġch ol
Ġch ittlings
Ġw ave
Ġw estern
ĠC y
ĠC ach
ĠC li
ĠC arp
ĠC inder
ĠC ured
ĠC uke
ĠC OOK
Ġin k
Ġin doors
Ġto y
Ġto ld
Ġto day
sp here
or o
or ic
pp ine
el o
ak ia
Ġsu sp
it ial
Ġd rench
Ġd yed
Ġd inosaur
ĠS ir
ĠS ard
ĠS olid
ĠS oul
ĠS uki
ĠS uitable
ĠS erbian
ĠB il
ĠB um
ĠB less
ĠB ons
ĠB agna
ĠB agu
ĠB unn
ĠB ounce
ĠB right
ĠB ert
ĠB ibb
ĠB aldwin
la u
ĠP on
ĠP le
ĠP icken
ĠP ant
ĠP ump
ĠP ano
ĠP uerto
Ġg ator
ol is
ra pping
ra isin
ra spberries
Ġh idden
Ġh yd
ĠM all
ĠM age
ĠM os
ĠM ates
ĠM ogen
ĠM mmm
ĠM ultiply
ĠM CP
un less
ĠT V
ĠT our
ĠT un
ĠT eat
ĠT ruly
ow dy
Ġv ege
Ġv erb
Ġv itamin
Ġ( ?)
Ġco pped
Ġfl uting
ick peas
ch y
ch eddar
ch olesterol
ch ester
ch ili
ĠA ven
ĠA LL
Ġun fold
Ġun ique
Ġcho ices
ĠCo k
ĠCo oper
to il
to ast
to ph
ver ize
mb e
Ġn yl
Ġn iblets
Ġat tained
Ġat tention
ĠCh arm
ĠCh oke
Ġmar g
Ġmar kets
Ġsa f
Ġsa ves
Ġsa uted
ip ment
ir lo
Ġle aven
th oroughly
th ritis
ĠR ese
ĠR ies
ĠR eroll
ĠD ead
ĠD ramb
ĠD oug
ĠW ol
ĠW orces
ĠW eather
ĠW reck
na do
st rap
Ġbo ats
ta bout
ĠF el
ĠF as
ĠF eet
ĠF ox
ĠF erment
et ian
res istant
Ġbe yond
Ġre f
Ġre t
Ġre ce
Ġre fri
con verted
co mmercial
um er
ole y
qu es
Ġsp ark
ĠSp atz
ber net
Ġy ard
Ġy og
Ġse w
Ġpot tery
Ġpot pourri
reas y
ĠSt ix
ĠSt ol
ĠL ust
ĠL ac
ĠL ila
ĠL omi
ĠWh ere
Ġcon fetti
Ġcon struction
Ġ6 2
ap ia
ĠH it
ĠH ur
ĠH ats
ĠH ac
ĠH ug
ĠH olds
ĠH attie
ĠH uevos
Ġ8 4
ven tional
sh erry
Ġmay haw
op y
op en
op rop
ach es
ach ino
im ento
ĠG lenda
ĠG olf
ĠG her
mo ist
mo sphere
ood ly
if un
owl edge
Ġro ad
Ġ10 5
ĠRe lease
ĠRe asse
ire ct
ll ion
ab s
Ġal es
Ġal titude
Ġk rumk
Ġk ilo
Ġk luski
Ġapp eal
ore hound
ĠO ma
ĠO per
ĠO ption
ĠE p
ĠE yed
ĠE skim
ĠE XCEPT
tab lespoon
ins ide
Ġis oprop
Ġjell ing
Ġjell ies
ĠJ ade
ĠJ aco
ĠJ azz
ĠK if
ĠK adaif
iz ation
Ġpour s
ĠPie ce
Ġ13 5
Ġex pl
ĠV iola
ĠV oila
ĠCr itters
ss oise
Ġlet ters
ent ial
se c
ĠSa vers
ĠN at
ĠN ose
ĠN orm
ĠN av
ĠCheese burgers
Ġblack eyed
Ġlow ering
Ġtender izing
ĠPre tend
Ġdes kin
Ġsmooth ie
pan cake
tra ditional
ĠY ak
ĠY UM
pe ar
est one
ucumb ers
Ġbell s
Ġmo ved
pt une
ris ed
Ġliqu ors
ding ers
Ġsoft ness
Ġdill weed
ric ted
ble m
Ġde fl
Ġbatter s
ĠRo ss
ĠSw ish
ĠSw amp
Ġpo is
ider ation
Ġte en
Ġte achers
Ġte lephone
ark able
ĠGra b
Ġuns weet
ĠLe ban
Ġstri pped
ĠSoup ed
ĠSoup erior
Ġstiff er
ĠDel ish
ĠDel ites
ĠDo o
Ġgood ies
Ġcur ve
Ġcur ds
ĠSo ciety
ĠGr ouse
ĠFl ora
ĠAr lene
Ġnon aluminum
Ġbou llion
ĠOn o
bl in
Ġar thritis
ĠLo aded
ĠSalt less
ĠMar cus
Ġclean er
Ġlong wise
ĠGar y
Ġcomp ote
Ġ* **
ĠZ inger
ĠPepper y
ĠMay be
Ġfold s
ys ter
ĠBr at
ĠBr it
Ġper fection
Ġpar afin
ĠHigh land
ĠDes ert
Ġpop ular
ĠPat ience
ties t
ph ants
ken d
vocad o
ĠGerman y
pl ug
ĠHa ving
ĠAngel a
Ġchop lets
Ġcl ip
ĠCaramel ed
ĠCaramel itas
Ġcla bber
ĠDe ar
Ġpit ch
most ly
ĠPan ic
ĠPan fry
ah lau
Ġremo ves
ĠVal en
ola s
Ġgrill ers
ĠChris ty
tm ent
Ġche es
Ch oy
Ch olesterol
Ġtri angular
ĠDri ve
ĠPop sicle
Ġunder cooked
Ġunder cook
Ġunder bake
Ġlis tening
ist oric
ĠHell man
ĠHell mans
Ġwhisk ers
ĠCa bernet
ĠFlour less
ĠBur st
Ġdev otion
ĠWal k
ier a
Ġspring form
ĠNe ptune
Ġpulp y
ĠLa Choy
Ġsoften er
Ġdot ting
Ġring ed
Th yme
av it
Ġcustard s
ĠCl int
mm mm
bas e
ock s
ĠSnack ing
ĠBo bb
Ġchip otle
ĠMa z
ĠGo vern
Ġac com
mix er
Lemon ade
mar ine
Ġharden ing
ĠHe irlo
ĠTwink les
Ġdump ing
ĠFail s
ĠCla ire
ĠCla ud
ĠCla ussen
ret ty
ĠBay ou
ĠSlush es
ĠSlush ies
ĠTor ped
ĠTor nado
Ġspat ini
ĠServ ice
Ġsix teen
end ous
ĠHo agie
ĠOli o
Cheese cakes
ĠDoll op
Ġwor d
Ġwor chester
Ġloos ened
ĠFran ce
ĠEl k
ĠHun ts
Ġcirc us
ĠMed allions
Ġsnow balls
ĠMiss y
Ġlin en
Ġdis colored
ĠLou ella
bur gh
bur st
fin ite
ĠRock ef
bel ow
ĠClo ver
Ġsho pped
ĠCap er
ĠBac ahlau
Ġwe enies
Ġcat alina
Ġ19 5
Ġ19 30
ĠSta mp
ĠPerfect ly
Ġconten tment
ĠTost ados
ĠTra vel
ĠHal uski
Ġpri mavera
Ġcob blers
ston es
Or tega
Sp am
ĠAd am
ĠMu es
Ġspoons ful
ĠOrteg as
ĠGl uten
Ġhelp fulness
ĠTon katsu
ĠUp on
Ġho stess
Ġho agies
Ġpres erv
ĠPlum s
ĠFil bert
ĠPimento s
Ġuncover ing
fa ction
fa irly
Ġbal oney
Ġbal king
Ġdec reased
Ġcom merical
ĠHel oise
Ġbra ise
Ġgu avas
ĠPers ian
ĠPers ons
Ġcoll ar
Ġ??? .
Ġmound ing
mushroom s
Ġwing ettes
ĠBlender ize
Butter ed
Re gular
ĠSpring s
Ġ29 5
ĠRuth ie
Ġspecial ty
Wh ile
ĠHand ful
Ġrubber y
tS et
tS immer
tS alt
press ed
Ġpattern s
sal mon
ĠPres erving
Be fore
Be verage
Egg less
Egg plant
Ġfluff ier
Ġcas es
ĠQ t
Ġpol len
ĠNon alcoholic
Ġob jects
Ġindent ion
Ġpepperon cinis
Ġrare bit
min imum
Ġcour tesy
Ġmatch es
vious ly
ĠCle o
Ġunmold ing
Rais ins
Ġperk ed
ĠChi ppers
ĠChi anti
ĠStar light
ĠFlan nel
ĠHank ie
ĠNa omi
mis u
Ġcal amari
Ġfig ures
ste aks
ĠFire house
ĠCons istency
Ġreg ul
Ġtemp ra
clo se
Ġact ually
tD ip
ĠFrank lin
Col or
ĠJoan ne
ĠThumb prints
ĠPi ro
Ġthought ful
rect angular
ĠPul verize
Ġpra ise
ĠChick peas
Vegetab les
Ġph armacy
ĠLy nda
Ġaccompan ied
Ġpain ted
quant ity
break fast
Meat less
ĠAb alone
ĠRem arkable
Ġnewsp apers
ĠEr nie
ĠLes ueur
ĠLuck s
Go es
ĠMod e
Ġsatis faction
cor ro
ĠKris ti
Ġopt ions
Ġdrizz ling
Ġconch s
ĠStay man
Ġsett les
Ġpic ture
ĠChees ie
west bor
Ġvert ical
Po or
itam ins
ĠSub s
ĠOl der
Ġwat ts
ĠMem aw
Ġblow s
Ġta pping
ĠSuggest ions
ĠPleas in
ĠMatzo h
Ġcrow der
Ġcrow ds
ĠKath leen
ĠCher okee
umqu at
ĠVen etian
Am ish
ĠBan quet
Ġlik ely
Ġteacup s
ĠMull igan
Ġprov ides
hor seradish
Ġrepla ced
ĠLin coln
ĠGene va
Ġswir led
ĠTempt ations
Bo bs
En joy
purch ase
spir al
Ġaff ection
Ġly chee
Ġlollip ops
Ġspl its
does n
Ġcomm unity
plum s
AN T
Hun gry
Ġsmother ed
Br unch
Ġpleas er
ĠCreat ive
ĠSing les
Ġjudge ment
ĠShel by
ĠFort une
Ġbru ised
Ġhumid ity
ĠKook ie
Jon athan
Suggest ed
lar ger
pro bably
Ġcass ia
altern ate
ĠBrother s
ĠContain er
Ġpign oli
Ġmat zos
ĠCri mson
ĠSat ay
Ġappet ite
Ġer rands
Ġmir lit
Ġsuck ers
ĠSett lers
ĠPigg y
ĠVol cano
ĠSaw mill
ĠSaff ron
ĠBamb inos
ĠHarri et
Garb anzo
ĠMead ow
ĠWed nesday
ĠWea ver
Ġcomple ment
ĠBritt any
ĠHoff man
AK E
Russ ian
ingon berries
ĠCzech oslovak
ĠPod s
ĠDod gers
ĠWra ppers
ĠLumber jack
ĠNich olas
Ġwilling ness
igne ts
ĠPring les
ĠPray er
Ġgash es
ĠTira misu
Ġver de
ĠAB C
Ġatte mpt
ĠChate au
ĠRang oon
ĠVilla ge
ĠNu coa
Ġpret tiest
Ġdesc ribed
Ġimmers e
ĠRubber maid
ĠDevon shire
attles nake
ĠJuan ita
ĠNapole on
Sch illing
Ġsla bs
Ġtricol or
garban zo
Ġeconom ical
Ġthank fulness
ĠDuch ess
ĠFest ival
ĠIll inois
ĠRemed y
Ġsubtra ct
ĠPresby ter
Ġinfus ion
Ġansw er
ĠSymph ony
Coms tock
Preg o
lrab i
ĠPant ry
ĠTeat ime
Ġvege x
Ġverb ena
ĠAven ue
toph er
Ġnyl on
ĠDramb uie
Ġyog urts
ĠHac ienda
ĠReasse mble
ĠEskim o
Ġisoprop yl
ĠLeban on
ĠBobb i
ĠGovern or
Ġaccom odate
ĠRockef eller
westbor o
1 75
3 70
? ).
A way
A mos
B T
B ut
B ars
B lend
B ananas
B lan
C arb
D rained
D airy
E P
E r
E le
E ven
E qual
E LL
E SE
F ace
F eeds
G E
G old
G oya
H el
H ominy
H ealth
I ng
I EL
J am
K L
K risp
K ahlua
K entucky
K iller
L an
L ine
N eeds
O pen
P ig
P ank
S ec
S andwich
S urprise
T ri
T ur
T ony
U sed
V iva
W a
W ine
W eek
W iches
b ors
c ale
c arton
c ucumbers
d ilute
d hook
f udge
f ashion
f ancy
f isk
f ifth
g io
g lazed
g rown
g rim
h an
h our
h as
h ole
h ash
h ood
h are
h ower
i ge
i ros
j am
k ed
k ie
l icky
m al
n ons
o c
o es
o ats
p ul
p icante
p umpernickel
p lenty
p rod
r in
s or
s ole
s ides
s chool
t corn
t ear
t except
t be
t May
t top
t Yield
t When
t directions
t leneck
u z
u ka
v i
v ide
v ings
v ation
z or
Ġ rea
Ġ umb
Ġ ul
Ġ arbor
Ġc app
Ġs in
Ġs ick
Ġs no
er an
er ds
Ġo h
Ġo k
Ġb ee
Ġb urp
Ġb unt
Ġb ounce
ed y
ed erate
Ġt bl
Ġt ells
Ġp ts
Ġp om
Ġp os
Ġm er
Ġm ad
Ġm iss
Ġm ist
Ġm aster
Ġm eringues
Ġm ode
Ġm ultiply
at ten
at ured
il ro
il ies
il ized
al ed
al ie
en ces
en zie
and o
and owdy
Ġf abulous
Ġf abric
Ġf eathers
LE T
Ġch ina
Ġch ance
Ġch air
ing e
ing y
ing ue
ing lers
Ġw r
Ġw ip
Ġw ring
Ġw eep
Ġw ants
Ġw assail
Ġw omen
ĠC ree
ĠC atch
ĠC ouple
ĠC uracao
ĠC ouscous
ĠC entury
le igh
Ġin itial
or ino
or ito
el ope
ro le
ro tini
Ġsu nda
Ġsu cker
Ġa w
Ġa hi
Ġa spir
Ġd oil
Ġe vent
Ġe psom
Ġe aters
ter house
ĠS E
ĠS U
ĠS ay
ĠS tab
ĠS ne
ĠS ounds
ĠS odas
ĠS ushi
ĠS lovak
ĠS allie
ĠB os
ĠB utch
ĠB ier
ĠB ecause
ĠP us
ĠP ee
ĠP arch
ĠP rop
ĠP aff
ĠP reserve
ĠP andowdy
Ġg ri
Ġg irl
Ġg oya
Ġg auge
ol ulu
as so
Ġh ide
Ġh ipp
Ġh ero
gg s
gg ers
Ġl int
Ġl ily
ĠM E
ĠM m
ĠM and
ĠM ate
ĠM ans
ĠM aker
ĠM ills
ĠM ass
ĠM ello
ĠM ott
ĠM MM
ĠM ussel
ĠM BT
ĠM inglers
dd er
ĠT us
ĠT ack
ĠT ape
ĠT ai
ĠT eri
ĠT HE
ĠT awny
ĠT oday
Ġv ien
Ġv itamins
all ized
Ġfl ows
Ġth under
us ky
ot ie
ch en
ch ildren
ĠA ff
ĠA ld
Ġun able
Ġun mixed
ĠCo mes
ĠCo py
ts mall
Ġst oned
red ded
Ġfor dhook
to e
to ss
Ġj ob
ok ie
ok ey
ri ption
Ġ4 7
mon s
ĠMix tures
ĠAdd ed
ĠAdd ie
Ġbro ther
Ġbro ke
Ġn ature
ato s
Ġsh ops
Ġsh ared
Ġsh akers
Ġat mosphere
Ġmar achino
Ġsa mp
Ġsa go
up ia
ve ction
th ot
ĠR ic
ĠR ican
ĠR idge
ĠR ale
ĠR ising
ĠD ix
ĠD ul
ĠD aw
ĠD ings
ĠD ong
ĠD iana
ĠD odge
ĠD ennis
ĠD RA
ĠW yl
Ġbak in
st ar
Ġover all
Ġover done
Ġover looking
pple ments
Ġbrown er
orn o
ill ion
ill ie
ill ows
Ġcook ware
ta cc
les t
ĠF ile
ĠF arina
ĠF aced
ĠF olks
res ist
Ġcorn ish
Ġre la
co mbine
co ction
co se
um s
um an
um es
qu ence
qu arters
igh bors
Ġsp out
ĠSp l
ĠSp ot
ĠSp ins
ĠSp arerib
am ata
Ġse molina
Ġse quence
Ġpot hol
ĠL ard
ĠL ula
ĠL atin
ĠL eather
ĠL ana
Ġcon cent
Ġcon cord
Ġcon vection
Ġ6 28
ĠH art
ĠH os
ĠH awai
ĠH andy
Ġgar am
Ġ8 1
Ġcrack lin
Ġvinegar s
Ġgarlic s
ff ern
Ġbeef steak
Ġstick iness
asser i
ĠCool ed
ĠG ak
ĠG our
ĠG as
ĠG ot
ĠG lace
ĠG ird
if ies
ant ed
Ġro e
ars on
ĠRe v
ĠRe wrap
Ġcar ved
Ġdry ness
arm er
Ġk ick
Ġk its
Ġk osh
Ġk asha
Ġk amaboko
Ġapp lies
ĠO b
ĠO row
ĠO kay
ĠE z
ĠE ff
ĠE mm
ĠE asier
ĠE isen
ĠE ileen
uff led
ĠJ al
ĠJ udge
ĠJ amb
ĠIn vite
ĠK ist
ĠK au
ul i
ul less
Ġmeat ier
Ġsl ime
Ġra g
Ġra ppi
Ġla w
Ġred fish
ason ed
ĠCream er
Ġex per
ĠV ig
ĠV ersatile
ĠV augh
ĠPe p
mer ingue
Ġha pp
ue b
Ġlet ter
ĠTh imble
ĠSa me
ĠN in
ĠN eese
ĠN ite
ĠN ik
Ġsqu id
Ġrais es
ian ne
Ġpre ceed
Ġlo x
Ġlo ops
ac s
ĠPre fer
ĠPre tenders
ag an
ĠSh ine
ĠSh ot
ĠSh anks
Ġwarm s
ess a
ĠY es
ĠY IEL
ka una
ran ey
ute fisk
pe ppers
est ead
est imate
Ġ7 7
Ġ7 00
ĠU SE
pt ions
ĠBread ing
ĠCorn er
ĠCorn ell
og any
Ġcol umn
Ġunco ated
ich en
Ġtab s
Ġres p
ucchin is
ĠMo chiko
ric ia
ric ane
Ġde mit
ĠSl urp
ĠTo stit
ĠTo ppers
Ġz ucchinis
ud o
ud ent
Ġself less
ape ppa
ind ividual
Ġpimento es
Ġacc ord
ĠCar ole
ĠBrand i
Ġtur bot
Ġthicken er
Ġcro oked
ĠSe ab
ous el
Ġfork fuls
Ġturn overs
ĠSto kely
Ġcle aver
Ġbon bon
Ġqu encher
Ġbut ts
Ġtw irl
ĠSqu eak
ĠGr it
ĠCra ver
ĠCra ig
Ġhe aps
ĠAr ch
Ġpin apple
Ġpin head
tin ella
ĠBeef aroni
Ġstew er
ĠLo ck
ĠLo vin
Ġkn own
Ġkn ob
Ġkn owledge
Ġpart ridge
ĠMar ys
Ġsm id
amp ered
Ġchuck s
ĠMay field
ĠSc orch
ĠNo ah
ĠNo bby
ĠBr ats
ĠBr atwurst
Ġper m
ĠPick apeppa
Ġele ment
Ġele phants
uns weiger
ĠDes ired
ĠSour s
Ġme an
ĠKn ob
ĠUn leaven
ĠAl le
ĠPork y
ĠPet al
Ġmarin ades
ĠCarro ll
Ġbroil ers
ĠOnion y
ĠAfter noon
ĠHa upia
ĠAng le
ĠCrisp ed
ĠRa ilro
ĠFr utti
ĠCamp ing
Ġbrand ied
Ġyolk less
ĠCrack les
Ġcl own
Ġdi al
ĠChe ery
ĠChe eses
ivid ually
ĠAll igator
tc asserole
we ight
ĠDe pends
ĠPart ridge
Ġshould n
ĠMe me
ĠMe ma
de v
ĠPo sh
ĠPo ppin
ĠTw ix
Ġsur plus
ĠChris tine
ĠChris topher
Ġlim ited
ĠSk roodles
Ġsun light
ĠHoney moon
Ġlis ting
Ġlit tleneck
Ġthickness es
cook er
ist ance
ĠTri p
bu ds
Ġscal e
Ġwhisk y
ĠBlack ened
ĠBlack burn
Ġenjoy ed
ĠWal t
ĠNe cessary
ĠNe hi
ĠHeath er
ĠCol oss
ĠLa urie
Ġsn ickers
ĠRes ift
ĠIr resist
ĠPea ce
ĠPro vide
ĠBo ok
Ġfire place
Ġcongeal ing
Ġgo blet
ĠMa ude
ĠGo at
ĠPer fection
ĠDev ine
Ġsteril ize
Ġ+ /-
Ġty p
Ġtall ow
ĠAn imal
ĠEx ample
oub led
ox i
ĠHerb es
ĠSnow man
ĠBl ake
ĠOri gin
Ġbl isters
Ġrese t
ĠOyster ettes
ĠOyster ette
ĠHush puppies
Ġshort cakes
ĠTender izer
Ġrot oni
Ġpro jects
ĠMc Don
Ġsix th
ĠBowl s
ĠHo ec
Ġsw ells
ĠLawry s
ĠOli ver
ĠBas kets
ĠDoll ie
ĠDoll ars
ĠPar affin
ĠMy ra
Ġsnack ing
Ġouts ides
form ed
ĠMini atures
ĠBea con
ĠShell y
ĠSmooth ee
Ġlower ed
24 5
24 8
ĠRich mond
ĠDry ing
ĠHar old
Ġmed ic
ĠWe ber
ĠInd oor
Ġflame proof
Ġhollow s
ĠBor d
Ġman wich
ico ise
ĠFlavor ful
Ġspir its
Ġbed s
pack age
Ġ19 50
Ġ22 3
tP re
tP ress
ĠBra ch
ord inate
ĠTra vis
ĠHal ushki
inc rease
Ġcob b
ĠGold fish
Ġhair s
ĠMu le
wal k
19 40
ĠShe p
ĠPlum rose
Ġheart f
ĠSix ty
Ġrequ est
ĠPort ion
ĠSu sp
ĠSu et
ĠSu pplements
ĠStack ed
Ġpee p
ĠPinto s
Ġdistrib uting
Ġbra id
ĠExtra ord
ĠChar ity
sk illet
Quick ie
po int
Ġins ight
pepper oni
Ġstone ground
Ġprod uces
Ġfix in
ĠRos a
ĠRos arita
ĠOther s
comm ended
ĠCav atelli
ĠDan ny
ĠOut door
ĠOut rageous
Ġsmok ey
tS eal
ĠSweeten er
Ġglo bs
ĠPlan ter
ĠFoil ed
ĠImperial s
Ġstar ved
ĠJew els
Cream y
ĠEleg ance
lab ull
ĠEvery body
Egg s
Ġfluff s
keep ing
ĠUnder cook
ĠId ea
ĠKet tle
ĠPast rami
Ġpier ogi
Soup er
Ġmatch sticks
Del uxe
Sa uerkraut
Ġspear ed
ĠBug le
Ġmark ers
ĠHen ri
Ġhang s
Roll s
ĠSus ans
ĠWin n
Ġpen ny
Ġfriend liness
ĠRequ ired
ĠRequ ires
ste in
ĠPic calilli
ĠCons ideration
Ġmicro cook
refriger ator
Ġread ing
ĠSeas ide
clo ck
ĠBubb ling
ĠSop ap
inn i
Ġpass es
Ġmus ic
Ġfarm ers
ĠFay go
Pre heat
ĠSide walk
ĠKl ond
Ġdisappear ed
Ġlad ies
ĠAg nes
Ġenamel ed
Ġsing e
Ġsing ly
ĠDian ne
ĠRob ins
ĠSee ms
ĠPul p
ĠNib ble
ĠAw ard
Ġretain ing
ĠLy onnaise
ĠLy dia
Ġtuck ed
ER Y
ĠDec adent
Ġtil ting
Ġvis it
ĠCrisscross es
ĠNorth west
La zy
Peach es
edic ated
ĠSor rento
ĠDar n
Ġgather ed
las agna
Ġbri quets
ĠSizz ling
Ġshrink s
Ġapply ing
ĠWood s
comb ination
ĠGre c
Ġsurp rises
Ġenclo sed
ĠSkew ered
ĠVictor ian
ĠTreas ures
Gra ham
Ġslash ed
ĠFrog more
ĠJeff erson
jalapen os
ĠPank ys
Ore os
ĠHum us
ĠHum dingers
ĠSuggest ed
ĠSuggest ion
Sc alloped
ĠFon tinella
rid ges
ĠRiv el
ĠCu isinart
ĠBan nock
ĠZe pp
Bur gundy
ĠClass ico
ĠDen ise
ĠHon olulu
var ies
Ġviole t
tmix ture
Ġvine gah
Ġboys en
Crisp y
ĠTub e
Ġstreak s
Nor thern
Sk or
Sk illet
bar ely
Ġchal k
Ġchal lah
ĠPsal m
aban ero
ĠVichy ssoise
ĠCard amon
ĠBat tle
Ġrear range
ĠGlen n
ĠOV EN
ĠPhil ipp
ĠEnt ree
Ġinterest ing
ĠSon ny
ĠPil grim
Ġchoke cherry
ĠDin ty
ĠTops y
ĠCalz ones
Sun shine
ĠFly ing
ĠShow boat
Che esy
Ad just
Marin ated
cat fish
Ġsubs ide
Ġcli pped
Ġpa irs
ĠTall er
Ġsheep her
Ġpaw s
Ġfud gy
ĠMarg uer
ĠPhill ip
Ġgroo ves
ĠBorsch t
ĠCO LD
toff el
ĠGol fer
ĠScra bble
ĠChev re
Ca jun
Imp ortant
Ġbarb eque
Ġasp irin
ĠBib ing
Ġhon esty
ĠMeet ing
ĠMusc atel
Ġcrump led
ĠDeg laze
ĠFul labull
Ġcontra st
liqu or
Ġsnug ly
ĠProd uct
ĠSpringer le
ĠMagnific ent
ĠOVER B
Lou is
oust ades
ĠCiv il
ĠPow ell
Ġglu cose
ĠAst or
stri ps
ĠFavor ites
ĠLam agna
Ġloqu ats
ĠCarn ival
Ġprote ct
Ġweaken ed
ĠChimichang as
Ge or
Mil not
cashew s
sli vered
Ġslo e
Ġmons ter
ĠCHE ESE
Ġsul fur
Ġemer gency
ĠRad arange
ĠJos ie
ĠConf ederate
ĠPrud homme
ĠCelest ial
ĠLifesa vers
Vari ation
Ġsche me
ĠSard ine
ĠPano cha
ĠMage e
ĠSpatz le
ĠGher kins
ĠOper a
sec ret
ĠNorm andy
ĠNav aho
Ġpitch ers
ĠValen cia
ĠHeirlo om
Ġmirlit ons
ĠPresbyter ian
Lan tern
Sec ret
Ġul tra
Ġarbor io
Ġsunda es
Ġaspir ins
ĠSne aky
ĠPaff ord
ĠTus can
ĠRale igh
tacc ording
Ġconcent ric
ĠHos ey
ĠHawai i
ĠGird le
ĠEisen hower
ĠVig o
Ġpreceed ing
ĠYIEL D
ĠUnleaven ed
ĠRailro ad
ĠIrresist ible
! ),
' .
* ,
0 5
2 25
3 9
4 3
5 2
6 6
A I
A M
A ST
B L
B ush
B eer
B ased
C ra
C akes
C ereal
C itrus
C alories
C lock
D eep
D og
D iscard
E aster
E asier
F ig
F reeze
F rance
H ush
H ole
I E
J ar
J el
K no
L og
L eek
M P
M el
M art
M ain
M iss
M elon
M allow
N C
N est
N ame
N othing
N AI
O cean
P la
P oke
P lain
R Y
R ing
S ix
S ta
S am
S liced
S chool
T one
T oo
U s
W ell
Y ear
\ ).
a ide
a void
a irs
b ers
b eg
b lender
b rier
c ork
c ouple
c afe
c ucumber
c ription
d i
d iv
d ipped
e asy
e ons
f il
f la
f ies
f ined
f ettuc
f rey
f illets
g ain
g ive
h m
h ate
h ome
k ley
k eeps
k osher
k var
l id
m un
m ellow
m uch
m unk
m icelli
n ice
n ger
o sp
p ans
p ats
p aint
r up
r ds
r alian
r ation
r ather
s ies
s coop
s lee
s imilar
t id
t ex
t cook
t boil
t from
t chicken
t Fry
t anding
t Cream
t bottom
t Ar
t eggs
t Grease
u ri
v ish
v ita
y east
y ogurt
y uns
z ar
Ġ RE
Ġ urn
Ġ edged
Ġs eat
Ġs ign
er k
ON NAI
an i
ar ole
ar ified
Ġb reen
Ġb old
Ġb ump
ed e
Ġt i
Ġt ick
Ġt ast
Ġt ul
Ġt ired
Ġt aro
Ġt aker
Ġt ruly
Ġt umer
es ley
es ape
Ġp ing
Ġp as
Ġm or
Ġm ate
Ġm ull
Ġm ould
Ġm ama
Ġm allow
Ġm uddle
Ġm iscellaneous
Ġm uenster
il ia
re mo
re tain
al h
al le
en o
en os
ou ss
and ers
Ġf elt
Ġf lash
Ġch ese
Ġch ess
Ġch est
Ġch edder
Ġw in
Ġw ines
Ġw isk
ĠC it
ĠC ul
ĠC ork
ĠC ec
ĠC urt
ĠC ia
ĠC acao
ĠC AS
ĠC arson
Ġin a
Ġto asts
Ġto basco
sp iced
sp ort
or ough
pp led
el ish
ro m
Ġsu i
Ġa mp
Ġa ide
Ġa chi
Ġa dobo
Ġ3 35
it te
Ġd ead
Ġd icing
ter ia
ĠS P
ĠS til
ĠS ate
ĠS udd
ĠS tain
ĠS ult
ĠS cone
ĠB ank
ĠB ottled
ĠB lowing
la ch
la ire
ĠP ed
ĠP ix
ĠP up
ĠP ia
ĠP ines
ĠP ool
ĠP add
ĠP lenty
ĠP ike
ine ts
Ġsal al
Ġg lace
Ġg ave
Ġg ud
ra c
Ġpe aled
Ġh ate
Ġh op
Ġh ood
Ġh oll
Ġh ose
Ġh orehound
Ġh ulless
gg in
Ġl il
Ġl ak
Ġl ips
Ġl isten
Ġsalt less
utter s
ĠM un
ĠM udd
ĠM ellow
ĠM elv
ĠM ai
ĠM acho
ĠM ister
ĠM atz
ĠM ansion
ĠM ollie
ĠM AY
dd led
Ġbutter ing
Ġbutter flake
Ġbutter mints
ese asoned
un cut
un popped
ĠT at
ĠT raw
ĠT ally
ĠT ired
ĠT iff
ĠT aster
ĠT uno
ĠT abbouleh
Ġv ersatile
Ġco ils
Ġco ddled
all o
all s
Ġfl or
Ġcheese cakes
Ġcheese burgers
Ġth orough
ick ets
us ka
us ias
ch or
ch amel
ch ipped
Ġor ris
ĠA meric
ĠA de
ĠA da
ĠA aron
Ġun crushed
Ġun iodized
Ġun even
Ġun roasted
Ġun strained
Ġcho sen
Ġcan ape
ĠCo c
ĠCo bb
ts oup
ts alt
Ġst ab
til y
to o
to ppings
ver ty
ver micelli
Ġj ale
Ġ4 1
Ġ4 9
Ġn ippy
Ġsh ower
Ġsh ingle
Ġsh aving
Ġsh een
Ġat e
ĠCh eri
ĠCh itterlings
ĠCh eater
Ġmar row
Ġsa w
Ġsa ucy
Ġsa uerbraten
ien ts
ien te
ve in
ip t
Ġle aking
.) ,
Ġwh y
Ġwh ale
th eat
th yme
th ane
th usias
ĠR od
ĠR im
ĠR ange
ate m
ĠD un
ĠD abb
ĠD enn
ĠD ifference
ĠW o
ĠW ally
ĠW orm
ĠW imp
ĠW omen
na ch
st ores
Ġju icer
Ġju icier
Ġover nite
ad eller
Ġall igator
ta p
ta cle
ĠF ans
ĠF ind
ĠF itz
res p
ly n
Ġpie crust
Ġcorn ucop
ure thane
ast en
Ġre cept
Ġre use
Ġre eses
Ġre bake
Ġre cep
Ġre veal
ur ity
rain s
um et
Ġsp ills
Ġsp oiled
Ġsp arerib
Ġsp onges
Ġr h
Ġr ate
Ġr oni
Ġr uffle
Ġr icc
ĠSp rink
ĠSp are
ĠSp atini
ĠSp onges
am an
Ġse ared
umb s
ser ves
ĠSt up
ĠSt ead
ĠSt oned
ĠL ap
ĠL ub
ĠL one
ĠL ind
ĠL ib
ĠL ites
ĠL ott
ĠWh ir
Ġcon c
Ġcon vers
Ġcon tact
ĠI na
ĠI ces
ap ul
Ġslic er
ĠH arb
ĠH ouston
id o
Ġwhit ing
Ġcrack les
sh i
age lettes
zen gers
Ġbread crumb
Ġ5 1
Ġ5 25
im ed
ĠG un
ĠG ate
ĠG ur
ĠG uy
ĠG ert
ĠG yps
mo lasses
uit s
Ġro sin
Ġ10 15
ĠRe p
ĠRe pack
ĠRe wards
ĠRe plenish
Ġcar ve
Ġcar ib
ub e
ub bock
oon e
ĠSal ts
Ġgra de
Ġal ot
Ġk it
Ġk oh
ccol li
ĠO o
ĠO x
ĠO cc
ĠO ptions
Ġcut e
Ġcut out
ĠE con
ĠE lo
ĠE yes
Ġmustard s
uff ins
ĠJ el
ĠJ ail
ĠJ olly
ĠJ ody
ĠIn ject
ĠIn stru
ĠK C
ĠK el
ĠK ip
ĠK asserole
ĠK ne
ĠK elli
ĠK ashi
ĠK asseri
lo g
ĠBro ck
Ġsl ick
Ġra zor
ĠCream ora
Ġ15 1
ĠV it
ĠV elve
ĠV elma
ĠV ERY
Ġfresh en
Ġfresh ness
Ġsof tening
oll i
Ġclo vers
iss e
Ġball ed
ĠCut let
Ġan chor
Ġcold est
ĠRoll ups
25 5
ĠSa c
ĠSa u
ĠSa ucer
ĠN aked
ĠN els
ĠN atch
ĠN assa
ĠN ona
ĠN ational
ĠN oodly
Ġsqu ared
Ġrais ing
let ely
eed a
ew y
ew ay
Ġen thusias
Ġout ward
Ġginger root
Ġtender flake
Ġpre melted
Ġpre bake
Ġlo ved
Ġlo zengers
ag a
Ġdes ert
ĠSh ad
ĠSh ea
ĠSh eep
ĠSh ark
ĠY a
ĠY ello
ĠY oo
Ġextra s
ĠIt aly
arb y
arb ro
reez y
arin d
alian o
ĠItalian a
Ġcran raspberry
atter ing
pt ures
ris t
Ġyou nger
os ing
os well
ton ion
ton ions
16 0
Ġpl ug
ĠBe g
ĠBe ignets
ĠBe chamel
Ġde pt
Ġpick ing
Ġspoon fulls
ĠTo oth
Ġz a
Ġunb el
Ġmeal time
Ġyour s
ĠRo ach
ĠRo bbins
ĠCar la
Ġri blets
Ġpo ppers
ne arly
ĠQu iches
ern o
ĠSe go
ned erland
ĠSpoon burgers
sc r
Ġhard ness
ĠGra mp
sa ved
Ġsc ampi
ĠFro th
Ġqu in
ull s
ĠTurn over
iv re
Ġcur led
ĠSo oo
ig ned
Ġcrisp ix
Ġ24 6
ĠCra ppie
Ġhe els
Ġhor mel
ĠAr c
ĠAr gent
Ġnon reactive
Ġcenter piece
ĠCan ine
ĠOn to
Ġcons ume
Ġkn ots
Ġkn uckle
Ġfish y
Ġsto ut
corn meal
ĠMin er
ĠMin ty
Ġlong way
pot s
ĠGar licky
Ġdark ens
ĠSc alded
Ġdeg laze
spar ingly
ĠGreen brier
Ġper meat
Ġper man
Ġper mit
Ġdri pped
ĠHigh way
ĠMarin ating
Ġne ighbors
ĠNut ri
Ġaltern ated
pick ed
ĠUn ion
ĠUn thaw
ĠAl f
ĠAl uminum
ĠAl ison
ĠStuff in
ĠPat ti
ĠPat tie
ĠBlue fish
stit ution
ph ured
ĠCrumb les
Ġrelish es
ĠOr der
Ġmois tening
int eg
ĠHa agen
All ow
ĠVeg i
uk kah
we ar
ĠDe ans
fer ence
ĠStew art
ĠPan ther
Ġcumin o
ĠChip otle
ĠChip munk
ĠDi pper
Ġbr ussel
ĠFarm house
Ġless en
stick y
ĠMe antime
ĠMilk shakes
oul our
Ġstock s
de er
ĠWhite fish
ĠPo o
ĠPo ivre
ĠTw elve
tm edium
ĠTur meric
geal ed
ĠPack s
ĠPack et
ĠSn itz
ĠJo gger
Ġavocado es
cook s
Ġscoop er
ĠLea h
ĠLea ven
ath ans
Ġenjoy ment
ĠWal ter
Ġpr eseasoned
ĠLa ure
Ġlevel ing
cup s
orb ic
Ġinc is
ĠBar ber
Ġsn itz
Ġsn icker
ĠFish erman
Ġass ure
ĠCocktail s
ĠTr ust
ĠTr udy
ĠTr uman
ĠCal umet
ĠKeeps ake
ĠOver nite
!! !)
ĠGolden rod
Ġsolid ify
Le banese
ik er
ĠMa j
ĠMa ud
ĠMa zetti
ĠGo ing
ĠGo blin
Ġlingu esa
ib ble
Ġmon key
Ġac qu
ĠPer du
ĠPer due
ĠCre ate
ĠHe el
Ġty ing
ĠAn th
ĠAn imals
ĠEx cept
ĠEx press
Ġscallop ini
ĠCla bber
ret ion
Ġbl op
Ġbl ister
den cy
ĠCur l
ĠCur ls
Ġcantal ope
Ġstr udel
Ġrot isserie
Ġpro ven
Ġpro blem
ĠMc raney
Ġdiet ary
St udent
ĠHo ot
ĠHo ok
ĠHo isin
he el
Ġsw im
ĠClam ato
ĠMil anese
frost ed
Ġbur sts
ĠSun burst
ti ere
act ory
ĠRum ford
Ġlamb s
Ġfinger ling
Ġdecor atively
ĠHun ters
ros well
Do h
Ġdis integ
ĠIm agination
ĠWe bber
ĠLou ie
Ġflo ated
ĠBeau mont
cl arified
Ġtr ouble
Ġtr uffle
hn ny
Ġman ual
igg ly
Ġcre ated
xx x
Ġsoon er
go es
ĠFlavor s
In stant
ĠBra gg
ĠTra ce
ĠTra der
Sp lenda
ĠGold ie
Ġwas abi
umber land
Fro sting
ĠAla ga
ĠGl op
ĠRoad s
Ġhelp ful
ĠHard y
ĠHard tack
ĠRun ning
beat ing
ĠQuarter ed
ĠEd am
ĠEd wards
ob ers
Ġheart ful
Ġpreheat s
ĠCore y
berg ine
Ġscr umptious
ĠHobo s
Ġinter ior
Ġten dency
ene z
Ġdec ide
Ġdec ors
Ġcom for
Ġcom fort
Ġbra ve
Ġbra ids
Ġgu aranteed
ever ton
omet ime
Ġshoestring s
Ġpet its
Ġpet role
Ġcrisscross es
thin ned
sk i
Cho ose
Al ways
Re friger
ĠEsc arole
uel os
Ġins ulated
Ġins ist
ĠChuck wagon
Wh at
Ġca ution
ĠHand s
ĠLad ies
ĠCor rect
Ġtransfer red
Ġfix ing
ĠBis mix
ĠDan a
ĠOut er
Ġpast or
ĠNectar ine
tS a
tS poon
Ġveg i
ĠWel come
ĠWho pper
ĠJew ell
onde le
sal ata
ĠBox es
wood en
Ġtost itos
amom ile
Ġalcohol ic
ĠVer na
Pec ans
ĠSin fully
pour ing
Ġpol ite
gra m
gra ms
ĠFud ges
squ ash
ĠBlanch e
Ġpier ces
Ġpier cing
Ġmill ilit
min utes
Ġ38 00
Crock ery
Ġstretch ed
ĠDecor ative
Ġscrew top
ĠCenter s
ĠHom os
ĠHom estead
ĠGod s
Roll ed
az ine
ĠRh in
ĠRh ode
stead s
ĠDorito es
comp letely
separ ately
Ġbu ry
Ġsplash es
Ġpor tobello
ĠIi i
ĠKar toffel
ĠDrum ettes
Ġcitron ella
Ġcond ition
ĠGoo ch
Gar nish
iev ably
ĠFrank ie
ĠPa ella
ĠParm a
ĠFla mbe
ĠBit ter
ĠSwee ter
ĠHow ard
Pre p
Ġcreat ions
Ġjoy ful
iko i
ĠParker house
ĠPimiento s
Ġfar fel
Ġbarrel s
Ġros ette
Ġang inetti
ĠParmig iano
ĠMah ogany
Ġph iladelphia
Ġph osp
hand s
hand ful
ĠGer ald
!!!! !!
Ġmellow s
Mushroom s
ĠMer k
tF ill
tF reeze
Ġmil not
Meat balls
ĠAb ra
ĠDunk ing
ĠDunk ers
ĠBer ried
ĠRem ainder
ĠBelg ium
oven proof
ĠMim osa
Ġgizz ard
ĠMicrow avable
Ġrid ges
Ġsatis fied
ĠBu ry
ĠDoon es
ĠHus k
Brown ed
oug ats
Ġaut om
Ġdra m
ĠFranc is
Ori gin
Ġbri gh
ĠSizz lean
ĠMess y
Ġshrink age
ĠSpir ited
Ġservice berries
Ġsurp rised
OO D
ĠBry ant
Ġsacch arine
opt ion
ĠChees ed
ĠChees ies
Ġpoly urethane
ĠJama ica
Con tinue
Gra vy
Ġrame kin
Ġpulver ize
Ġwat tage
Ġjalape os
Work ing
Ġmac adamia
Ġple asure
ĠPleas er
Pro volone
Pro verbs
Ġwind ows
ĠPra wns
ĠPla ins
ĠPla stic
ĠTar heel
ĠPom ander
ĠCorin ne
Swans on
ĠAc id
ĠAc apul
ĠSuz ie
ĠSuz ette
Ġwall s
ĠSny ders
ĠGay le
Ġgreet ing
Ġsuccess ful
Ind ividual
Over night
ook y
Ġglaz es
ĠRutabag as
ĠMont ana
Ġsubmer ge
ĠProven cale
Ġdrug stores
Ġpi quant
ĠRus ks
ĠAlex ander
Bor der
Ġinf use
ĠPars lied
Ġgath ers
ĠRy zon
ĠOuts ide
Ġcord ial
Ġpk t
ĠAncho vies
dal las
Ġpisto lette
ĠRud y
Ġques ad
Pl us
hel d
Ġtsub ushian
ĠCir cle
istle toe
Ġvelvet ta
ĠLot ion
Ġbru ise
ĠKook y
freez es
ĠPfe ffern
ĠParsn ip
ĠRal ston
ĠEst ee
ĠEqu ally
ĠContain ers
paste urized
Ġpign olia
ĠMur ray
Ġ199 4
Ġmaterial s
Ġmidd les
ĠMick ey
ĠDal las
Ġspr inc
broil er
Bra zil
Ġinject or
ĠSim pl
Ġgou da
Ġgou lash
strip ed
ĠFloss ie
ĠIg nite
ĠShan non
ĠShall ot
Ġwonder fully
Te flon
Ġir ons
Ġmatz ah
Ġhorn s
Ġru in
Ġactiv ity
ĠChampion ship
Won derful
suff ering
ĠTee thing
ĠKah ula
Ġrash ers
ĠDelec table
Ġeclair s
Bac ardi
Microw aved
UR N
marb le
Ġfant astic
ĠCed ric
ĠSlo ven
ĠStiff ly
ĠLora ine
ĠGio ia
mois ture
Ġalter ed
ĠNic ole
ĠSha ggy
saff lower
ĠLeon ard
ĠBrig itte
Ġmusk rat
Ġadequ ate
Brand y
Gen esis
Hea venly
Pap rika
Penn sylvania
Ty pe
Wor ld
bla des
ĠCli ff
Ġsusp ended
ĠSuki yaki
ĠBil oxi
ĠWol fe
ĠHur ricane
Ġkrumk ake
ĠMues li
Ġregul ator
KL IN
Ġumb rel
Ġwr ung
Ġwip ed
Ġaw ful
ĠPus ser
ĠMussel man
ĠRic eland
ĠDRA IN
ĠFile ts
Ġrela x
Ġkosh ian
ĠKau kauna
Ġresp ons
Ġdemit asse
ĠTostit o
Ġperm its
ĠKnob by
dev il
Ġtyp ical
ĠMcDon ald
tPre heat
Ġboysen berries
ĠBibing ka
ĠTuscan y
BL KLIN
Kno x
slee ve
tAr range
ONNAI SE
Ġtul ip
Ġtumer ic
esape ake
Ġmull ing
ĠMAY ONNAISE
ĠTraw ler
ĠTiff any
Ġrecept ions
Ġrecep tacle
Ġricc ota
ĠStead man
ĠLott ie
Ġkoh lrabi
ĠElo ise
ĠVelve ta
ĠNels on
ĠNassa u
Ġenthusias m
Ġpetrole um
Ġphosp hate
ĠAcapul co
! (
' )
* )
+ .
. -
0 4
2 20
3 10
5 7
7 2
7 4
9 8
A v
A ir
A vocado
B ed
B el
B un
B akes
B udd
B ea
B iscuit
B iscuits
B irds
C at
C la
C ow
C ir
C ur
C raft
C entury
D D
D an
D ak
D ole
D eath
D edicated
E ast
E ight
F in
F ine
F ill
F ollow
F amily
F rit
F ritos
F rito
F irst
F armer
G ou
G et
G ul
G elatin
H int
I tal
I CE
K o
K al
K itchen
K ellogg
L i
L ima
L ondon
L OW
M u
M ah
N u
N ice
N ight
N ite
N ext
N ahum
N umbers
O RE
O le
O li
O unce
P r
P en
P ur
P ress
P ack
P ower
P ull
P ita
P uffed
R O
R eese
R inse
R icotta
R ye
S in
S ar
S and
S oy
S cr
S odium
S lice
T aco
T urk
U T
U m
V egg
V enison
W el
W arm
W ich
W edding
W acky
W right
W inning
Y es
\ ;
\ .)
a j
a um
a ise
a ire
b ri
c our
c atsup
c led
c ation
c ryst
c ured
c rowd
c ottage
d el
d ice
d ie
d ate
d ust
d rink
d ressed
d isp
e mpty
e ase
e asiest
f i
f ix
f ee
f lo
f ork
f eed
f ran
f ig
g ole
g lue
g elatin
h og
h ape
h istoric
i bl
i base
j e
j ul
k ney
k uy
l ou
l ion
l bs
l ima
l eseed
m g
m ine
m ish
m id
m icrow
m andarin
m aple
n ow
n ip
n ong
o mb
o ciation
o ppine
o yster
p ol
p ower
p ong
p erson
r or
r unk
r ucts
s ch
s old
s uit
s tock
s izes
t I
t ter
t ree
t ig
t balls
t arragon
t dish
t vanilla
t pineapple
t drain
t put
t boiling
t bacon
t bowl
t Keep
t Whip
t potatoes
t Take
t Turn
v iled
v odka
v acuum
v ril
w on
w en
w ire
w ieners
x ic
x ton
y er
y an
y un
y led
y oung
z est
Ġ ON
Ġ INST
Ġ iod
Ġc ul
in er
in ola
in both
Ġs ar
Ġs ed
Ġs el
Ġs ometime
er oy
an th
an other
ar ily
Ġo v
Ġo w
Ġo dd
Ġo melets
Ġb ans
Ġb bq
Ġb agelettes
ed el
Ġt ar
Ġt ine
Ġt ag
Ġt ined
Ġp il
Ġp ay
Ġp ly
Ġp age
Ġp urp
Ġp ace
Ġp enn
Ġp ounder
Ġp iling
Ġm ason
Ġm eets
Ġm oms
at us
at ives
il ey
il ton
ut ious
ut te
ut erne
re ally
re ments
re fined
al ways
al cohol
al ene
en g
en til
en ten
en ding
en cer
ou d
Ġf ellow
Ġf uss
Ġf lair
Ġch es
Ġch eat
Ġch im
Ġch lor
Ġch airs
Ġch amomile
Ġand ouille
ing ed
ing redients
Ġw is
Ġw ate
Ġw ob
Ġw att
Ġw ipes
Ġw etting
Ġw rite
Ġw rist
gar ia
ic t
ic ian
ic ia
ĠC art
ĠC ain
ĠC ave
ĠC ling
ĠC app
ĠC OO
ĠC assava
Ġin tens
Ġto ol
Ġto ppers
Ġto ols
Ġto ilet
sp ins
sp ears
or gio
pp ard
el os
el ia
ak in
Ġ2 12
Ġ2 24
our ish
ro ok
ro od
ro de
Ġsu ri
Ġsu ace
Ġa unt
Ġa bu
Ġa iry
Ġd a
Ġd il
Ġd ings
Ġd raws
Ġd arning
Ġd orito
Ġe ats
ĠS ol
ĠS om
ĠS oon
ĠS ain
ĠS ew
ĠS tom
ĠS umi
ĠS LOW
ĠB la
ĠB ad
ĠB ust
ĠB uit
ĠB yr
ĠB ang
ĠB uch
ĠB rag
ĠB ows
ĠB last
ĠB lock
ĠB uzz
ĠB lended
ĠB oone
ĠB reezy
la ces
ĠP ly
ĠP edi
ĠP arts
ĠP eri
ĠP ones
ĠP au
ĠP ikes
ĠP yramids
Ġg lad
Ġg irls
Ġg eran
ol t
ol te
ra h
ra id
ra se
ra eli
Ġpe quin
as a
as ide
Ġh at
Ġh ur
Ġh ik
Ġh arina
Ġh asten
is key
is ted
Ġl es
ĠM U
ĠM ice
ĠM um
ĠM ole
ĠM arch
ĠM oney
ĠM urp
ĠM ind
ĠM ount
ĠM und
ĠM ia
ĠM ira
ĠM andy
ĠM ali
ĠM istletoe
Ġbutter fingers
un i
un ces
un prepared
un opened
ĠT H
ĠT s
ĠT and
ĠT one
ĠT oni
ĠT ac
ĠT ag
ĠT asting
ĠT abo
ĠT rem
ĠT aku
ĠT illie
Ġv ers
Ġ( +
Ġco in
Ġco mmer
Ġco kes
Ġcream ery
Ġfl uffed
ick les
ot am
ch ip
ch et
ch ops
ch ickpeas
ĠA lic
ĠA li
ĠA do
ĠA ways
ĠA nad
ĠA DD
Ġun to
Ġun ne
Ġun chilled
Ġun creamed
Ġun shelled
Ġun sealed
Ġun glazed
Ġun frosted
Ġun refined
Ġcho ck
Ġcho osing
ĠCo als
ĠCo dy
ts auce
Ġst rand
Ġst ates
Ġst aple
Ġfor ty
Ġwater ed
to othpick
ver se
ri mon
pper y
Ġ4 35
ĠMix in
ĠMix es
ĠAdd s
mb s
mb les
Ġbro om
Ġn oon
Ġn umbers
Ġn ails
Ġn ickle
Ġn atured
Ġsh ip
Ġsh ad
Ġsh ips
Ġsh eath
ĠCh un
ĠCh eat
ĠCh ad
ĠCh art
ĠCh ico
ĠCh esapeake
Ġmar ry
Ġcr uets
Ġsa wdust
up e
icken s
gh ul
gh ai
th our
th rough
ĠR as
ĠR iz
ĠR ack
ĠR ac
ĠR ico
ĠR ene
ĠR ugal
ĠR ondele
ĠD u
ĠD ON
ĠD and
ĠD ol
ĠD ell
ĠD eal
ĠD rench
ĠD ort
ĠD ragon
ĠD ye
ĠD eeds
ĠD unky
ĠW ages
ĠW ells
ĠW rite
Ġbak on
read ed
col at
st a
Ġgr s
Ġgr inds
Ġgr ubs
Ġover fill
ad or
ad ian
Ġcook out
ĠF i
ĠF ound
ĠF aul
ĠF ines
ĠF inal
ĠF eel
ĠF reck
ĠF OR
ĠF oley
ay ne
et ite
Ġpan ko
Ġbe ach
Ġbe ard
ers h
ers ed
Ġre fle
con ds
ur al
ur ice
qu i
qu at
qu ante
Ġsp am
Ġsp ud
Ġsp ig
Ġsp rout
Ġsp ike
Ġr ust
Ġr uffled
ĠSp y
ĠSp ain
ĠSp ike
ĠSp eck
Ġhour ly
am ps
am ilies
Ġse ag
Ġse per
Ġgreen ish
Ġgreen beans
Ġpot ting
ser ted
ĠSt u
ĠSt or
ĠSt reg
ĠSt orm
ĠL is
ĠL ip
ĠL ender
ĠL aw
ĠL ex
ĠL ander
ĠL asting
ĠL ux
ĠL ingonberries
ĠL eroy
ĠWh am
ĠWh isp
ĠCook out
Ġcon sc
Ġ6 8
ĠI mo
ĠI ris
ĠI MO
ap ua
ĠH E
ĠH I
ĠH igg
ĠH ugh
ĠH ettie
id i
id ue
Ġchocolate y
Ġ8 9
ff er
op ita
op otam
Ġstick ers
asser ol
ach ary
Ġdrain age
Ġ5 9
ct in
im chee
ĠG la
ĠG ator
ĠG row
ĠG retch
ĠG aliano
ĠG OOD
mo osh
Ġhot dog
Ġso iled
Ġro b
Ġro p
Ġro aring
Ġ10 9
ĠRe vel
ĠRe bel
ĠRe warm
ĠRe agan
ĠRe commended
Ġcar b
Ġcar ries
arm el
ab a
ab ra
ab elle
Ġgra ded
Ġk eg
Ġk imchee
Ġapp lied
ring e
Ġtomato e
ĠO K
ĠO p
ĠO ly
ĠO reg
ĠO possum
ĠO melets
ĠO FF
ĠO unces
art ificial
ĠE ric
ĠE ld
ĠE den
ĠJ ol
ĠJ ump
ĠJ ingle
ĠIn ch
ĠIn fl
ĠIn clude
ĠK as
ĠK yle
ĠK end
ĠK rum
ĠK lub
ĠK een
ĠK ibb
ul ting
lo o
lo ok
lo se
ĠBro asted
ea ux
Ġsl op
Ġsl ips
Ġsl ots
Ġsl ander
mallow s
Ġla ces
Ġla zy
Ġshell roni
Ġred dish
ĠV e
ĠV ir
ĠV ong
ĠV igor
uc ers
af t
ĠPe pp
ĠPe king
ĠPe aks
ĠPe ctin
mp o
ĠCr um
ĠCr utch
Ġha ven
ĠCasserole groves
Ġfill ers
ss ip
mbur g
Ġlet t
ps e
ent e
ĠTh ink
ĠTh alh
Ġan n
ats um
ĠSa il
ĠSa zon
ĠN ee
ĠN ip
ĠN ance
ĠN unn
ĠN ita
ĠN ative
ĠN essel
ĠN alley
ĠN icoise
tle t
lack i
unch ies
ew s
Ġwal king
Ġblack en
oni que
abb a
Ġtender ly
Ġpre chilled
Ġlo ver
Ġlo cation
ag ers
ĠSh eets
ĠSh ots
ĠSh ane
ĠSh rub
Ġsmooth ed
Ġnot ed
Ġnot ch
ĠY uk
Ġcontain ed
ĠCho ck
Ġ25 5
Ġ7 4
Ġextract ed
ĠU P
ĠU nd
Ġmo ves
Ġwa vers
og ne
og ene
Ġtab oli
Ġres ort
Ġres idue
Ġres ulting
Ġcot ta
ĠMo c
ĠMo ss
ĠMo zz
Ġfirm ed
Ġde head
Ġde erburger
ĠTo otie
Ġfreez able
Ġstuff er
Ġz ing
Ġunb readed
Ġdo ctor
ĠFor rest
ĠBall oon
ape pper
ĠRo asts
ĠRo berta
Ġrest ricted
Ġacc ents
Ġri per
Ġpo or
Ġpo st
Ġpo ison
ĠBrand on
Ġglass y
ĠQu ay
ĠQu arters
ke es
ĠSe an
Ġhea ven
Ġturn over
ĠLe pre
uck les
ĠDel ta
ĠDel mar
Ġqu it
ĠDo c
ĠDo ct
ĠDo ctor
ĠTurn s
Ġtw ine
Ġtw igs
Ġcur ved
ĠSo frito
Ġkidney s
ĠGr in
ĠFl orets
ig as
ig old
ĠFudge mallow
ĠFill ings
Ġ24 3
Ġhor ses
ĠEgg plants
ĠEgg rolls
Ġany way
Ġnon greased
tin ed
ĠMeat za
ĠCan not
ĠCan yon
ĠRed fish
ĠLo ose
tz els
Ġpart ridges
ĠMar i
ĠMar la
ĠMar lene
ĠMar zip
Ġclean ly
Ġlong an
Ġsm art
Ġsm ack
Ġboth er
Ġcomp an
man y
ĠSugar free
ĠZ at
ĠSc ant
ĠSc allion
not s
ang ka
ĠBr on
Ġpar ents
Ġim medi
Ġim per
Ġdri pper
ĠCon stantly
ĠMarin a
ĠDes ign
Ġne ighbor
any thing
Ġpunch ing
Ġpunch bowl
Ġme mor
Ġtooth brush
ĠKn ow
ĠUn beat
ĠUn ivers
ĠUn ited
ĠUn ique
ĠUn eeda
ĠAl one
ĠAl ready
ĠAl though
Ġag o
ĠCand le
ĠDump lin
idd y
idd ie
ĠSte en
ĠPeach tree
fl uffy
cad abra
ĠPizza iola
Ġsub marine
ĠOr kney
Ġ11 8
Ġ18 00
ĠHa zelnuts
ĠSup erior
ĠApp rox
ĠApp leseed
ĠApp etite
ĠCrab cakes
allop s
for get
tc up
ĠRoast ing
ma hi
uk ee
ĠCampbell s
ĠDe bby
ĠDe kuy
ĠHambur gs
ĠPan ks
Ġsli ppery
ĠPart icular
ah ead
ah ua
ĠDi gg
ĠDi agon
Ġgrill s
ket eers
ĠWill y
ĠCro wns
ĠCro quette
ĠCustard s
ĠPo pped
ĠPo verty
ĠTw ins
ĠTw irl
ĠTw isters
ĠTw irls
Ġinst ructs
fro sting
tm argarine
ĠStove top
Ch ar
Ch ick
ĠDish es
Ġfre estone
Ġinser ts
ĠSalmon ettes
Ġpink ness
cr at
cr isscross
Ġblo b
ĠEn velope
ĠEn close
no ff
ĠCrunch ie
ĠJo sh
ĠJo ey
ĠTex Joy
Ġwood y
Ġwood chuck
Ġind ust
Ġind irect
ĠLea gue
ĠYum mie
ath ers
ĠCa uda
ĠPr ice
Ġbulk y
Ġburn et
ĠWal leye
Ġcap er
Ġpr int
ĠCol in
ĠAp ache
ĠDon ald
Ġinc reases
Ġinc rements
ĠPoppy cock
Ġarrange ment
add s
Ġbrush es
Ġbas es
Ġshap er
ĠCl ip
mm ican
ĠCal d
ĠIr ma
ĠArt ificial
ĠSnack in
Ġfri g
ĠBo om
ĠBo vril
ĠOver rock
ĠGran ma
Ġreturn ed
Ġreturn ing
Ġgo b
Ġgo o
Ġgo ssip
Ġdelicious ly
Le Sueur
ond airy
ĠMa ids
ĠGo ok
ĠGo sh
ĠMeasure ments
mar ie
ĠHe aping
ĠFluff o
vent ion
jun ior
ĠFin n
ĠEx cess
ĠEx pl
upper nong
28 0
28 5
ĠCla xton
ĠButterf lied
ĠPol onaise
Ġent rees
Ups ide
ĠMan z
Ġsec urity
Ġlique fies
ĠEat able
Ġshort ribs
Ġspat zle
Ġpro be
Can adian
St ew
Ġwish ed
end ar
Ġvigor ous
Ġresemb ling
Ġvar nish
Ġsw eat
Ġsw ift
Ġsw izzle
ĠOli via
ĠMil ano
ĠMil wa
ĠBas ed
Ġbath s
Ġbath room
ĠEc laire
iplo ck
ren t
Add itional
be ing
ĠEl mers
Ġtam arind
Ġcirc um
Ġsnow y
Ġsnow man
24 2
Do o
Ġdis regard
Ġgloss iness
ĠWe enie
ĠAt lan
Cr ush
fu red
ĠMel ody
ĠMel anie
Ġflo aters
ĠAu ction
29 5
ĠBeau fort
Ġ28 5
cl udes
together s
ĠSoft ies
Ġbla ded
Ġbase ball
ĠSand s
ĠMagic ally
Ġcor er
Ġcor resp
eek ness
Ġsho ot
ĠAm monia
ĠJohn ston
ĠSch w
ĠSch aum
Ġwe ights
ĠCow s
Ġcat tail
Ġbed time
Ġgre ater
In sert
Ġcontinu es
Ġ19 40
Ġscrap ings
ĠBra unsweiger
ĠPor tobello
ĠPor tabella
ĠTra cy
ĠHal usky
inc i
Ġnic er
ĠThicken s
ĠFour s
ĠMaple ine
Sp read
Ġchar coals
ĠGe m
Ġcheck s
Ġcheck erboard
ĠHard ing
ĠRun ner
ign ons
Ġdoll ars
Ġho oks
cha un
ĠGrandm as
ĠGrandm others
ax ed
ĠHay den
ĠGi orgio
Ġpres cription
To pping
ĠJud ith
ĠNan na
Ġjigg ly
crust ed
Ġprick ing
over flow
Ġdec reasing
Ġbra ss
Ġbra ised
stir red
back fin
ster ilized
ĠBun uelos
ĠRib eye
Ġneck lace
Ġneck bone
Ġacid s
ĠSoy bean
Ġmound ed
Ġtough er
ĠBell y
Ġcrisscross ing
ĠChar lies
ĠSheph erds
Mo st
ĠInc orp
Ġchurn ed
Ġplan ter
ĠCryst allized
Ġsoap y
ĠOat cakes
Pe ople
Re ub
Re indeer
ĠLor ann
Ġav oset
Wh ipped
sl ushy
Ġca ught
ott les
Ġtra ces
ĠNOT E
ĠBis qu
Ġjo in
Ġjo hnny
ĠFun eral
ĠSmok ing
ĠSuc re
ĠCav at
ĠLunch box
andel ions
ĠNight y
Ġdesign ated
Ġperiod s
ĠPlan ks
Sh oney
Sh ort
Sh redded
Cream ed
wood s
ĠShoo ter
Ġhum ility
On ions
ĠMade le
ĠVer onique
ĠTips y
Ġwhere ver
Ġloosen ing
Ġsilk y
pr icked
Ġpol ska
Ġpol lock
bles ki
Ġhush puppies
squ ares
Ġconsider ed
Ro bbins
Ġpier ogies
Ġcamp bell
Ġmatch ing
ĠBri ar
ĠBoy d
Ġunw rapping
Ġunw axed
Del ight
ĠBottom s
Ġ38 5
ĠBak k
ĠBak eless
Sa uterne
eros ol
Ġesc apes
Ġmark ed
Ġmark ings
Ġscrew ing
ĠCenter piece
extra ct
az a
ĠChi hu
ĠStar r
-- -
comp lete
Ġsna ppers
Ġvari able
Ste ak
Ste amed
Ġpor cup
Ġpor cini
Ġpor ridge
Ġpor tabella
ĠTemp le
ĠTemp ting
ĠDab s
ste mmed
Lo af
Lo oks
ĠPic ture
ĠPic adillo
ĠCons umption
Tom atoes
tSp ray
Ġmicro safe
ĠKo ch
ĠKo osa
Sal ata
ĠPier ogies
Ġtemp ura
Ġmess age
ĠBubb a
ĠGoo ie
tD issolve
ĠEt ta
ĠSop h
Ġpass ing
Ex ample
ĠBour gu
ĠMoon s
ĠCacci ator
Ġpail s
pla ced
ĠBurn s
Ġspeck led
Ġess ential
Ġph rase
hand le
Ġwid ths
ĠGer tie
!!!! !!!!
ĠLique fy
Ġach ote
Ġcann ister
ĠKat y
Ġdisp ose
tF orm
uzz a
Ġarm adillo
Ġtil apia
Ġhealth ier
tel ope
Ġattach ment
ĠJumb le
ĠBull dog
Ġsund ried
Ġbigg est
ĠMain tain
ĠFra me
ĠFra iche
ĠEr nest
tt es
ĠSor ry
ĠSho ppe
Ġrid ged
cor oons
Ġble ed
Ġble mish
ĠKris ty
Ġbri m
ĠSizz le
ĠRon nie
ĠKen ny
Ar men
tri mmed
ĠWood ford
ĠGre ta
ĠGre et
ĠGre nadine
Ġsurp rising
Ġenhan ced
ĠWee kend
Ġcorrect ly
Ġpic calilli
ĠBul g
ĠBul gar
ĠOccasion s
mpt u
ĠOff er
MM MM
ĠTa quitos
ĠHorn et
ĠReg al
ĠOl ga
Ġcrank ed
Ġdie ters
ĠShaker town
ĠMem or
HE W
Ore o
Ġgrow s
Ġgrow ing
ĠLar go
ĠHum an
Ġballoon s
ĠMad ness
ĠMad ril
rik ake
ĠFon ten
ĠBomb e
ĠFriend ly
ĠAfric a
De viled
Snack s
marin ate
Ġcrow ded
Ġcrow ding
ĠRiv iera
ĠAss ociation
ĠCher wine
ĠGrain s
Ġclar et
kn ife
Ġide as
ĠPom mes
Ġcoco ons
Ice box
Ġ39 5
ĠMus keteers
ĠAc res
ĠDa ughter
ĠGal ore
ĠBru ise
Ġassemb ling
pres ent
Ġrepla cer
ĠPacific a
sweeten er
Ġaff ord
Ġglaz y
Ġhar vest
Ġvine ger
ĠDoub led
ĠGlo b
ĠGlo op
ĠSteph en
ĠProven cal
Ġemuls ion
OR N
care fully
Ġant elope
spring field
sn ow
sn akes
Ġscent ed
Ġdunk ing
ĠScent ed
ĠTi mb
ĠTrop ic
Ġingred s
ĠVin cent
Ġpresent ed
ĠHelp ful
tw ice
ĠCard inal
ĠRag out
Ġrad i
ĠMarian ne
rett es
Ġproportion ally
Ġce as
Ġce ased
ĠCH ICK
ĠCel ia
ĠCass ie
Pl um
hel ps
Ġcell ar
ĠPos ole
Ġfort ified
ĠFoam y
ĠKal ua
Gu atem
center s
Ġcass is
altern ating
ĠDro pped
Ġexpand s
Ġreason able
Cre ole
Ġpa ella
Ġmod ific
Ġmod eling
Ġfool proof
ĠRust y
ĠFowl er
ĠNes cafe
Ġpract ice
ĠChalup a
Ġconsistent ly
Sn ow
Sn ickers
Super Moist
du ation
drum sticks
lump y
Ġmidd ling
ĠCarm el
ĠCray ons
ĠSi u
ĠSett ler
ĠFu ji
ĠFu rikake
Ġspr itz
ĠKir by
ĠPhill ips
ĠFront ier
Ġsch napps
Ġsch nitz
Ġaf raid
ĠBE AT
ĠBaco s
ĠMi ami
thicken ed
ĠDuff ie
ĠWow ie
Ġrus k
Ġrus ks
ĠKap usta
ĠShan ghai
ĠAnt oni
Bul garia
gr ill
Ġsy ringe
Ġpun ct
Ġlie mpo
ĠTator s
ĠCoff ees
stand ard
ĠStru f
ĠGard ens
Ġearth quake
ĠPerson al
Ġct n
Ġoper ating
Ġfern s
ĠSaf eway
ĠSlee p
ĠPun gent
ĠAqu avit
Ġmargar ita
ĠFag ioli
Ġreplenish ing
ĠEss ence
ĠKidd ie
Ġunsul phured
Ġunsul fured
ĠCann oli
Ġconsum ed
ĠCala mondin
ĠBootle gger
Ġcalc ium
Bon eless
Ġslack ed
Ġbug les
Ġinvol ved
ĠSham rock
ĠTast ee
Ġmarsh mellow
ĠFol ger
ĠFide os
Ġreroll ed
ĠKrumk aker
loos ely
Ġcolle cts
scramb led
ĠBaham ian
ĠTemper a
Ġorigin ally
Buck eyes
Ġfide o
ĠCinder ella
ĠBagu ette
Ġhyd rated
ĠTour tiere
ĠChoke cherry
ĠRies ling
ĠStol len
ĠJaco b
ĠKadaif i
Ġdeskin ned
pear l
Ġdefl ate
ĠClaud ia
ĠTorped o
ĠClover leaf
ĠTravel ing
Ġpreserv ative
ĠCzechoslovak ian
Blan ket
Ing redients
Tri ple
sor ghum
Ġtbl s
Ġpos ole
ando ori
ĠBier ocks
ĠProp ort
Ġgri ds
Ġvien na
ĠDul ce
ĠWyl ers
ĠOrow eat
Ġlaw ry
ĠAlle gro
ĠColoss al
ĠShep ard
Ġheartf elt
ĠSusp iros
ĠSopap illas
ĠKlond ike
ĠGrec ian
ĠZepp ole
Ġsheepher ders
ĠOVERB AKE
Geor gia
Us ually
div ide
tid bits
Ġtast ier
Ġmor al
remo ving
ĠCia mb
ĠCAS HEW
ĠSudd en
ĠPix ies
Ġholl andaise
Ġlil ikoi
ĠAmeric a
ĠCoc uzza
ĠDenn ison
ĠHarb ors
ĠGyps y
ĠOcc ident
ĠEcon o
ĠKel ley
Ġpermeat e
Ġperman ent
oulour akia
Ġincis ions
ĠAnth ony
Ġblister ed
tSa ute
ĠFudges icles
ĠAbra cadabra
ĠSloven ian
Budd ig
person al
inboth am
Ġpil ot
Ġply wood
Ġpenn ies
Ġwis dom
ĠCOO L
rood le
Ġsuri mi
ĠSain ts
ĠStom ach
ĠBuit oni
Ġgeran ium
ĠMurp hy
ĠMali bu
ĠTrem endous
Ġcommer cially
ĠAlic ia
rimon ial
ĠDort ch
Ġspig ot
Ġseag ull
ĠStreg a
ĠHigg inbotham
opotam us
ĠGretch en
ĠVigor ously
ĠThalh im
ĠNessel rode
ĠYuk on
Ġdehead ed
ĠLepre chaun
Ġimmedi ate
ĠDekuy per
ĠParticular ly
ĠDiagon ally
ĠMilwa ukee
ĠAtlan ta
ĠIncorp orate
ĠChihu ahua
ĠBourgu ignon
ĠCHICK EN
Guatem ala
Ġmarshmellow s
! ")
% .
. :
3 8
4 1
6 8
6 9
7 8
7 9
9 4
A H
A b
A RE
A de
A sk
B ow
B et
B urn
B aking
B ottom
B ones
B ER
B lended
C B
C and
C ole
C om
C op
C heat
C reme
C ashew
C ross
C erto
C urry
C uban
D ot
D oll
D ecor
D eer
D uper
E ither
E arly
F le
F ire
F ull
F avorite
F ive
F amous
G lass
G laze
G AH
H an
H or
H ill
H ouse
H ello
H oo
I P
I LL
J u
J ul
J ersey
K e
K ar
K at
K ay
K ey
K abobs
K ugel
L A
L il
L ing
L ick
L ot
L ast
L ightly
L icious
L ucky
M ate
M ight
M oon
M eal
M ag
M ounds
M ashed
M ache
M iscellaneous
M uffins
N ow
N ell
N iblets
N abisco
O w
O kay
P ine
P eri
P into
P imento
P retty
R h
R ot
R um
R am
R ite
R os
R adish
R ites
R elish
S an
S et
S ub
S ue
S ack
S eal
S ift
S kin
S elf
S coop
S ingle
S upper
T a
T ie
T ea
T each
T ER
T yson
T rim
V an
V inegar
V irgin
V egetarian
W orcestershire
W est
W eep
W urst
W ondra
W CB
Y ork
Y east
\ (
a ctive
b un
b od
b et
b eet
b ars
b aste
b ring
b arbecue
b uck
b ourbon
b ath
b ru
b ites
b lock
b ecause
b rows
c all
c res
c ant
c ustard
c abbage
c ious
c top
c iki
c arbon
c orbic
d ger
d eg
d ecor
d ale
d unk
d ipping
d iment
d ippers
d ampen
d oubled
e th
e very
e ctive
e mate
f o
f ar
f un
f res
f ers
f ries
f ling
f ields
g le
g ion
g us
g um
g ust
g ens
g rained
g olf
g auge
h h
h on
h us
h ang
h ollow
h olds
i h
i j
i u
i y
i mbo
i ott
j udge
k aka
k adeller
l n
l la
l ick
l ip
l ate
l ights
l antic
m ark
m atch
n ine
n uk
n oodle
n othing
n iki
o is
o by
o hi
o corro
p or
p uff
p oke
p imento
p retty
r r
s ilk
s to
s nack
s ummer
s uds
s light
s uckle
s uper
t ic
t ol
t are
t spoon
t bread
t other
t large
t ti
t You
t time
t chocolate
t pie
t Very
t vinegar
t whites
t cocoa
t plastic
t extured
t After
t noodles
t Wash
t Heat
t owel
t tablespoon
t refrigerator
t Allow
t Garnish
t Next
u ppe
v ine
v as
v elt
v ados
v vels
w t
w aff
w ife
w ik
w eeds
x ie
x pensive
y am
y ields
y locks
z i
z arella
z yme
z iti
Ġ IN
Ġ um
Ġ umm
Ġ LET
Ġ estimate
Ġc ou
Ġc ats
Ġc erto
Ġc ards
Ġc reases
Ġc assava
DI UM
in as
in ary
in tosh
in ako
Ġs ens
Ġs ister
Ġs atsum
Ġs iu
er es
er on
er ie
er ings
AR GE
an c
an ter
an ey
an berries
an tha
ar ney
ar ren
ar ium
Ġo hel
Ġo ctop
Ġb in
Ġb ir
Ġb ound
Ġb ene
Ġb ermuda
Ġb reath
Ġb reeze
Ġb usc
Ġb udget
Ġb rains
ed er
Ġt atoes
Ġt ack
Ġt ran
Ġt erry
Ġt bs
Ġt ext
Ġt act
Ġt iger
Ġt awny
es ides
es ians
es wax
Ġp ole
Ġp iled
Ġp pkg
Ġp uddle
Ġp yramids
Ġm ut
Ġm all
Ġm ushed
Ġm aid
Ġm itt
Ġm uddy
Ġm aters
Ġm akers
Ġm orsel
Ġm utton
Ġm atos
Ġm eekness
at ta
at able
ut eron
re mes
re ciation
on ic
on ite
on ding
al er
al ac
al ong
al yn
al inks
en ser
en berry
en anny
and ra
Ġf eat
Ġf ins
Ġf east
Ġf erm
Ġf eeds
Ġf amilies
PE R
Ġch or
Ġch ute
Ġw er
Ġw el
Ġw ea
Ġw atter
Ġw iggle
gar t
gar ding
ic ide
ic iness
ĠC ad
ĠC ates
ĠC law
ĠC amel
ĠC asseroles
ĠC affe
ĠC umberland
ĠC asserol
ĠC ORN
le g
le o
Ġin se
Ġin form
Ġin teg
Ġto e
Ġto ok
sp ecial
sp aper
pp o
pp es
pp able
el ow
el man
el inni
ak ies
ak opita
ro pped
ro utons
ro aster
ro gen
Ġsu m
Ġsu ppers
Ġa mb
it ing
it ive
it lins
it ori
Ġd al
Ġd ow
Ġd are
Ġd eal
Ġd abb
Ġd isco
Ġd ied
Ġd eri
Ġd uncan
Ġd anish
Ġd ug
Ġd ance
Ġd eath
Ġd anger
Ġd ixie
Ġd ances
Ġd andelions
Ġe mpt
ix on
ĠS A
ĠS y
ĠS ou
ĠS el
ĠS old
ĠS lender
ĠS ells
ĠS lap
ĠS ense
ĠS ony
ĠS issy
ĠB le
ĠB od
ĠB if
ĠB ain
ĠB ats
ĠB ead
ĠB enne
ĠB laz
ĠB lu
ĠB ills
ĠB low
ĠB ully
ĠB ette
ĠB acky
ĠB ulk
ĠB READ
ĠB ottles
la mb
la pse
ĠP b
ĠP RE
ĠP ip
ĠP ub
ĠP ruit
ĠP ail
ĠP ign
ĠP ixie
ĠP omm
ĠP ucker
ĠP akor
ĠP illows
ĠP ampered
ine xpensive
Ġsal at
Ġg ut
Ġg ain
Ġg ills
Ġg ems
Ġg oma
Ġg lowing
ol ing
ra wn
ra ising
Ġpe par
Ġpe psi
as ia
as eline
as mine
Ġh eal
Ġh ines
Ġh oe
Ġh ib
Ġh umm
Ġh aters
Ġh ubbard
Ġh abanero
is ine
is ion
is ting
Ġl ing
Ġl ies
Ġl ins
Ġl ights
Ġl uscious
ĠM ic
ĠM ak
ĠM it
ĠM ck
ĠM et
ĠM ap
ĠM ab
ĠM aul
ĠM unchy
ĠM ace
ĠM able
ĠM iche
ĠM indy
ĠM akers
ĠM ouss
dd en
Ġbutter cup
un ice
un pared
ĠT z
ĠT ut
ĠT it
ĠT ow
ĠT orn
ĠT ul
ĠT os
ĠT any
ĠT ears
ĠT arter
ĠT owel
ĠT asso
Ġv al
Ġv ap
Ġv ivid
Ġv era
Ġco mstock
Ġfl ush
Ġfl ore
Ġfl ats
Ġth y
Ġth rees
ot te
ch ile
Ġor n
Ġor tega
ĠA e
ĠA ub
ĠA mi
ĠA spar
ĠA ux
ĠA bb
ĠA va
ĠA bbie
Ġun stuffed
Ġun marinated
Ġun cracked
Ġun evenly
Ġun homogenized
ce mber
ice berg
Ġmin imal
Ġmin uets
Ġmix in
Ġmix able
ĠCo x
ĠCo ck
ĠCo ve
ĠCo ats
ĠCo ors
ĠCo bbles
ĠCo arse
ts o
ell on
ell ing
ell ers
Ġst ages
red uce
Ġwater ing
til los
to s
to ut
Ġj aw
Ġj ig
ok an
ri el
ri mmed
ri otic
ri ptures
ĠTbsp s
ee ee
Ġ4 70
Ġpepper y
der ness
mb ers
Ġbro oks
Ġn aco
Ġn ames
Ġn ibble
Ġn angka
Ġsh am
Ġsh im
Ġsh ift
Ġsh ella
Ġsh itake
ĠCh ief
Ġcr ickets
Ġsa u
Ġsa ue
Ġsa use
Ġsa ifun
ve t
ve tte
gh e
gh te
ĠBake well
ip line
ir ing
ir ico
ir noff
Ġle ts
Ġle ather
Ġle aks
.) )
.) \
Ġwh opper
th read
th row
th ouse
ĠR C
ĠR ee
ĠR id
ĠR ender
ĠR ite
ĠR ugel
ĠR abe
ĠR attlesnake
ĠR ICE
lic ity
lic ations
ĠD re
ĠD um
ĠD ap
ĠD ea
ĠD rag
ĠD uds
ĠD anola
ĠD aikon
ĠD inette
ĠW ien
ĠW op
ĠW ant
ĠW ars
ĠW ide
ĠW ag
ĠW ould
ĠW ass
ĠW yn
ĠW inks
ĠW iki
ĠW eddings
ĠW ELL
ĠW esley
Ġbak ers
na vy
col l
st i
st en
st asy
st itos
st ripe
Ġju mp
Ġju lep
Ġover do
Ġover boil
Ġover knead
Ġover crowd
Ġover hang
ill es
Ġsauce pans
ad ing
ta me
ĠF al
ĠF ur
ĠF ib
ĠF ramb
ĠF uel
ĠF rey
ĠF olk
ĠF umi
ĠF ifth
ĠF ido
ĠF actory
ay s
nd an
Ġbe ige
Ġbe eswax
Ġpie ced
Ġwell ness
Ġre cover
Ġre wrap
Ġre lie
Ġre indeer
Ġre constitute
Ġre warmed
con tain
con tains
ur er
ur ine
co s
co ming
co rettes
um ms
um ante
qu ash
qu ent
qu iche
Ġsp it
Ġsp ill
Ġsp ent
Ġsp orts
Ġsp attering
Ġr ake
Ġr uffles
Ġr ule
Ġr attlesnake
om y
om ing
ĠSp e
ĠSp unky
ĠSp rinkles
ĠSp ooky
ĠSp encer
ĠSp umante
am ato
ber y
Ġse aw
Ġse aring
umb ard
ight ing
ser vings
ĠSt ake
ĠSt ress
ĠL ie
ĠL ent
ĠL east
ĠL os
ĠL umps
ĠL inz
ĠL illy
ĠL olly
ĠL inds
ĠL ester
ĠL odge
ĠL ighter
ĠL utefisk
ĠL ARGE
Ġsour cream
ĠWh ips
ĠWh acky
Ġcon stant
Ġcon vention
Ġ6 1
ĠI va
ĠH ad
ĠH ab
ĠH ender
ĠH atch
ĠH edge
ĠH ipp
ĠH ints
ĠH arbor
Ġ8 2
Ġ8 6
ven ture
Ġcrack led
sh o
sh aved
sh ires
Ġground ed
Ġmay onna
op ie
op ers
op ales
Ġdrain er
Ġcrumb like
ĠG R
ĠG il
ĠG ee
ĠG reased
ĠG ab
ĠG ring
ĠG ent
ĠG erry
ĠG izz
ĠG lu
ĠG ross
ĠG lycer
ĠG etting
ĠG wen
mo crat
uit e
Ġso s
Ġso re
Ġso oth
Ġso se
Ġso cial
Ġso ze
Ġ9 3
Ġ9 4
ink er
ink ers
bo b
bo ys
ĠStir red
ough s
ough ts
udd les
Ġstir s
Ġro of
Ġro quefort
Ġro oster
fri dge
Ġ10 1
Ġ10 6
ĠRe am
ĠRe fri
ĠRe commend
Ġcar to
Ġcar bs
Ġcar afe
Ġcar amb
len a
len os
ll ie
ub ber
ĠCheddar s
ĠSal ve
ĠSal em
ĠPut o
ĠPut ting
ab ility
ab urger
Ġgra ce
Ġal t
Ġal though
Ġk al
Ġk risp
Ġk ett
Ġk asu
Ġshor tcrust
ĠO P
ĠO d
ĠO g
ĠO ra
ĠO dd
ĠO dor
ĠO ster
Ġcut up
ĠE mb
ĠE mper
ĠE ph
ĠE ug
ĠE gy
ĠE AS
ĠE unice
ĠE lena
tab ly
ins etti
Ġis in
erv o
ĠSalad fort
ĠJ ake
ĠJ ams
ĠJ ava
ĠJ icama
ĠIn ter
ĠK re
ĠK ro
ĠK ol
ĠK ee
ĠK ill
ĠK os
ĠK armel
ĠK wik
Ġas corbic
ul er
ul ty
yr tle
lo at
lo gs
ĠBro ccolli
Ġmeat iest
ea z
ea der
Ġsl ot
Ġsl id
Ġsl urp
Ġsl ides
ĠBeat rice
Ġra ve
Ġla p
Ġla wn
Ġshell ing
Ġrem ix
Ġrem ind
Ġlight ning
Ġex t
Ġex ceed
Ġli pped
vor ones
ĠV on
af er
ĠPe mmican
ĠPe cos
ĠCr is
ĠCr udites
ĠCr oustades
Ġhal ks
Ġha v
ham s
Ġinstant ly
ĠTh y
ĠTh rough
ĠTh ail
ĠTh irst
ĠTh oughts
Ġan ts
li k
li que
Ġsk ip
Ġsk immer
Ġcold s
Ġnut ri
Ġnut meal
se ction
ĠSa ves
ĠSa imin
ĠChicken s
Ġup s
Ġup ward
ĠN eat
ĠN oon
ĠN ail
ĠN ights
ĠN iger
ĠN uke
ĠN asturtium
ĠN ougat
ĠN ougats
Ġrais ings
meg a
meg rown
ĠChill y
ĠChill ies
ĠCheese y
Ġen zyme
immer ing
ĠJell ed
ĠJell ies
Ġblack eye
Ġlow fat
Ġpre greased
Ġpre popped
Ġpre fers
Ġchill y
Ġchill is
Ġpack aging
ens on
ac a
ĠPre boil
ag ach
ag ain
ag rap
Ġdes igned
Ġcherry stone
ĠSh ur
ĠSh io
ĠSh erman
ĠSh owers
ĠSh apes
ĠSh iitake
pan o
Ġnot ice
ĠButter s
ĠButter fl
ĠAnd re
ĠY e
ĠY ard
ĠY oun
ĠY OU
ĠY von
ran g
ran co
Ġdough like
ĠIt al
ĠIt em
est al
est im
par affin
par boiled
aw a
isco ch
ĠCho coholic
ĠCho colat
Ġ7 9
Ġfin ding
Ġcran king
ĠU pper
ĠU mmm
ĠU NC
ĠU tter
ced es
Ġmo zarella
pt e
Ġuse ful
Ġconfection s
ĠCorn sticks
ĠCorn cob
ĠCorn ucop
zz a
zz ie
og ers
Ġcol ogne
Ġcol lapse
ich i
Ġwax paper
Ġres istance
Ġsoy agen
os ene
Ġpl uck
Ġpl ank
ric t
ble ms
Ġ35 5
Ġ35 9
ĠBe ing
ĠBe ck
ĠBe enie
Ġde finite
Ġde corettes
Ġhead ful
Ġfreez ers
Ġz ero
Ġz iplock
Ġdo ggie
Ġmeal ed
erb urgers
ape o
ind ividually
ĠRo la
ĠRo by
ĠRo berts
ĠRo okie
ĠRo sti
ĠCar a
ĠCar r
ĠCar y
ĠCar ousel
Ġri pple
Ġri dge
Ġri ppled
Ġri vvels
Ġri ghte
ĠSw ing
ĠSw eep
Ġpo i
ne k
ĠMake up
ĠApple less
Ġte am
Ġte acher
Ġ16 5
Ġ16 6
aro la
ĠSimmer ed
ĠSe ctions
ĠSe conds
sc rap
sc rape
sc ald
izz lers
ous es
ous ness
arts horn
mi er
ĠGra duation
ĠSto ver
ĠHot dogs
Ġuns aturated
ĠLe o
ĠLe ta
uck wagon
Ġbon ito
ĠSoup y
Ġjust ice
Ġsc riptures
Ġqu iet
Ġqu ince
Ġqu iches
ĠDo or
ĠTurn ing
fat her
ĠSqu eez
ĠSqu eezed
ubb y
ĠGr inder
Ġturkey s
Ġbring s
ĠFl u
ĠFl ints
ĠFl ops
ĠCra ft
ĠAr ms
Ġnon nutritive
tin ted
tern ess
Ġcons umption
ĠLo mb
ĠLo ad
Ġkn ox
ĠMar cy
so corro
mes h
Ġquick ie
Ġquick est
ĠMin a
Ġlong suffering
Ġsm elt
ĠGar am
ĠGar ni
Ġcomp otes
ĠPeel ings
ĠZ el
ĠZ achary
amp les
ĠMay haw
Ġevery time
ĠIce berg
ĠBreak away
ĠBreak stones
ys ters
ĠSc alo
ĠSc rod
not e
ang led
Ġgal ic
ĠWash day
ĠCoconut ty
ĠBr ule
Ġper king
Ġpar faits
Ġpar enth
Ġpar agrap
ĠMon th
ĠPick ups
ĠCon ne
ĠCon ventional
ĠCon coction
ĠCon diment
Ġdozen s
Ġpoppy seed
uns ter
14 0
Ġne cess
Ġaltern atively
Ġsome where
ort land
cy cled
ĠCheez e
Ġcoars eness
ĠKn udson
ĠUn flavored
ĠAl ta
ĠAl ong
ĠAl cohol
ĠAl bert
ĠAl coholic
ĠBean ie
ĠPat ate
ĠPat ricia
ĠPat riotic
ĠChil ie
pen cil
ĠSte ven
stit utes
Ġdrop lets
fl ank
fl aky
fl ounder
wh iskey
ĠSquash ed
ĠPizza zz
ĠJack et
Ġ14 5
Ġ14 8
ĠShrimp ies
ĠAfter wards
ĠSup remes
ĠAng inette
Ġart ful
ĠCrisp ex
ĠMuff ulet
ĠRa ven
ĠRa ita
ĠPh oney
ĠPh yl
Ġcaramel izing
Ġdi ppable
Ġgarnish ment
ĠVeg as
ĠVeg alinks
ĠDe hyd
ĠDe bra
ĠDe vein
ĠDe uteron
ĠDe cember
ĠDe mocrat
ĠSteak house
ĠKra ck
Ġmint ues
ĠVal erie
flavor s
flavor ing
ny aku
ĠKnead ing
ket chup
app i
idge on
ĠCro ix
ĠCro sse
ĠCro uton
ĠPo megranate
ĠTw isted
ĠFrost ee
ĠFrost ies
ĠSm ashed
ĠSm acker
tm elt
ĠTur bot
Ġboard s
Ch a
Ch ess
Ch ex
Ch ive
Ch illed
Ch ewy
Ch uckwagon
small est
ĠTang ier
ĠSk ip
ĠSk ors
ĠSk ier
ĠSk oby
uch i
ĠRais ing
ĠDri ft
ĠPop ular
ĠPop tart
Ġfre ed
ĠGrill ers
Ġpink ing
Ġpink ish
ĠBa ir
Ġrose buds
Ġlit ter
erm it
Ġbul gar
ĠJo b
ĠJo jo
ĠJo ggin
unt eer
ĠRuss ia
ist ol
Ġscal es
Ġscal oppine
Ġwood s
Ġdinner time
ath es
ĠCa pped
ĠCa ins
ĠMom ent
te mperature
Ġprefer ences
ĠMold s
Ġgreat est
Ġgener ation
ĠCol umb
ĠCol ors
ĠLa va
ĠHellmann s
ĠBar c
ĠBar n
ĠBar on
ĠBar ry
ĠBar gain
Th in
Th aw
Ġbit terness
ĠFish y
ĠFish ing
ru g
ĠRes ults
ĠRes hape
Ġcustard y
ĠTr ick
ĠTr ish
ĠTr ouble
ĠTr uck
ĠTr uss
ĠCl oth
ĠCl own
18 0
ĠCal la
ĠBen ny
turn ip
ĠPro vel
ĠPro te
ĠPro bably
ĠWheat ables
ĠArt ic
Ġfri zzle
ĠFlat bread
ĠBo ard
ĠBo oze
mond ins
Ġfire proof
Ġinstru ction
ĠIs abelle
Ġfinish es
ond ies
ĠNot ice
ĠMa ureen
ĠMa urice
ĠGo bble
ĠGo obers
lay ers
Ġmon terrey
Ġac ts
ĠPer colate
ĠPer uv
ĠPer rin
ĠStick ers
Ġbran ches
ĠCre ates
ĠNew ton
ĠNew port
ĠTwink le
ĠProcess ed
ĠLas sies
crumb ly
ĠAn telope
Co mbine
Ġwra pples
ĠShoe make
ĠSteam ing
ĠPol o
ĠHouse wife
Ġwon ders
ĠBl arney
ĠClean ing
ĠNor i
ĠNor man
ĠNor way
ĠTor i
Ġlique fied
ĠIsland er
Ġsup erb
ĠTender flake
Ġstr ung
ĠTot ally
ment e
Ġpro gram
ĠMc don
ĠWarm ed
St ar
St ick
St icky
For mer
itch es
ĠHo b
ĠHo op
ĠHo spitality
he arts
Ġsw ing
loss om
ĠAs ada
enn ie
enn onite
ĠMil an
ĠBon ed
Cheese cake
Ġanise ed
pre tzel
pre viously
Ġwor er
Ġloos ens
Ġbur sting
Ġbur ghul
ĠPar amount
ĠFran ca
ĠSun ken
ĠFat tig
be er
Ġfla ming
Ġfla pjacks
ĠEl f
Ġrich ness
Ġfinger na
Ġperson ally
Ġad her
Ġthread ed
Ġblanch e
Ġsnow ball
ĠTest ed
Ġbun nies
Ġrib ble
ĠMag ical
ĠMag azine
ĠMary lou
Jell y
ĠDrink ing
Ġke bab
ĠInd e
ĠInd ians
ĠCres t
?? ?
Cr umb
fu ke
ĠRock port
Ġtr ick
Ġtr uck
Ġtr uss
Ġtr uth
ĠMcCormick s
Ġtex as
ĠMor es
Ġzest ed
Ġlunch eons
Ġsho es
Ġsho oter
ĠCap ri
ĠSch n
ĠSch ra
ĠPure ed
per ation
go oey
ĠDust y
ĠDust in
ĠJul iet
ĠPrick ly
Ġgre y
In ternational
yellow s
Ġcontinu ed
season al
season ings
Ġcarbon ation
ĠWon ders
Ġ19 00
Ġ19 17
ĠFri dge
ĠFri kadeller
bit ter
tP eel
ĠAmar etti
ĠBab ka
ĠPap ier
oo oo
ĠPor terhouse
Ġequ ipment
Ġimp ress
Ġimp ossible
Ġimp ression
Ġchick pea
ĠFour teen
ĠSkin ned
Ġspiral ing
ĠEarth en
Sp ices
bb ly
ĠAd vent
ĠAd ults
ĠFlo ats
teg o
Ġscorch ed
ĠFast est
Ġstay ing
ĠKellogg s
rus co
ĠGold ylocks
ĠQues a
well s
Ġslee p
ĠWil m
ĠRoad side
water ford
ĠTon ic
ĠShortbread s
19 0
ĠDevil icious
beat ers
prefer red
Ġho st
ĠJan is
ĠGrandm aw
ĠEd ibles
ĠShe ppard
ob ile
Ġpres liced
ĠFil o
To ss
To asted
To stitos
Ġhom ogene
ĠGeor gie
Ġpeck s
)* *
ĠEv ie
Ġvary ing
Cook er
ĠSu pp
ĠSam o
ĠSam antha
over ripe
Ġinter val
Ġduck ling
Ġten th
Ġdec ided
Ġcom frey
ĠWor th
Ġbra d
Ġgu ide
Ġgu arant
Ġcharcoal ed
Ġinde finite
ĠBig elow
ĠLingu ica
Ġpal ate
Ġstro ke
Ġthumb s
ĠClassic s
part ly
ĠRib bons
ĠSoy ameat
Ġbel ief
Ġtough ens
Ġcrunch iness
ĠHors ey
ĠParsley ed
Ġcrisscross ed
Mo lasses
sk imp
Ġbutt ter
ĠSmall er
ĠOat ies
Al pine
Pe as
Re heat
Layer ed
Ġeye brows
ĠPri ma
Mar garine
ĠHome coming
Ġmain ly
ĠPeek y
ĠFant asia
ĠJer k
ĠJer ome
ura ble
Wh o
Wh ole
Ġca using
Ġca utious
ĠPen uchi
ĠSome body
ĠCor on
Ġgl ory
ĠFa ces
ĠSmok elle
Ġovermix ing
Ġsciss or
Ġfun ny
umm ies
ĠJean nette
ĠBark er
tS ift
Ġpip inola
Ġglo bby
ĠLamb rusco
ĠJar ed
usel i
Ġstar light
rock s
ĠNabisco s
Ġchew s
ĠCorning ware
ĠPres chool
Sugar less
lab ub
Car olina
Yum s
Ġsilk en
pr ong
layer ed
her der
Ġpol k
Ġmemb ers
Corn flake
ĠBrew er
but t
ĠNon stick
ĠPit ted
Ġconsider ably
ĠGu is
Ġmul lets
Ġindent ions
Pean uts
ĠBri des
Ġcrystall izing
Ġunw anted
Del i
ĠKe ith
ĠKe isha
Pepper mint
Ġweight ed
Sa uced
ĠCle mente
Ġgoose berry
mini atures
ĠBug els
jo ys
Ġcy cles
Ġcling ing
ĠGod iva
az ines
ĠWin ona
ĠSuccess ful
tB atter
ĠBird ie
ĠBird feed
ĠChi pper
ĠDie ts
ĠWhoop ee
comp any
Ġskewer ed
Ġeff ective
Ġhun ters
ĠWilli am
ĠSna ppers
Fruit y
ĠSimp licity
Ġflesh ed
Ġsaut erne
Ġcal ico
Ġcal iente
Ġbea uty
Pam med
ĠFire less
ĠBund le
che aper
jell ed
ĠKo h
ĠKo ola
Ġma ids
Ġma ifun
Ġcond ite
An n
Cut out
wie bel
Ġmess ed
Ġact ual
ĠGoo ies
tD ot
ĠAut o
ĠPa ppy
ĠDom inos
ĠFla p
ĠFla ut
sour dough
Ġtrip les
Ex odus
ĠMoon shine
ĠJoan na
ĠWilder berry
Jack ie
Ġprayer ful
tub es
ĠGor ton
ĠJon nie
ĠJun gle
ĠThick ly
ĠAg lio
ĠHealth ful
ĠPi geon
ĠPi quante
ĠKay e
Ġenamel ware
iber ian
outs ide
ĠBurn ing
ĠWar ren
omm ie
Se cond
Ġsard ine
Ġcont rolled
Ġros ettes
Non edible
ĠMah imahi
Ġfaul t
ĠRoman ian
hand ler
Ġbuff ets
Ġcoff emate
ĠSpark lers
imin ate
rown ed
ĠBre i
ĠMist ake
Ġoppos um
ĠCafe teria
ĠMer maid
ĠDis aster
ĠDis regard
ĠDis gust
Ġdisp enser
tF l
Ġamber jack
Ġdisc retion
Ġdisc ipline
Ġhealth ful
ĠPine apples
ĠAb ate
ĠJumb os
Ġsurround ing
ĠFeather weight
Ġnewsp rint
Heart y
trem aining
itt les
ĠWis k
ĠEr ma
ĠEr rands
Ġtwis ty
ĠContin ually
Ġmoon light
ĠBow en
Ġjim my
Go op
Ma jor
tt aste
tt elli
Ġmom ents
ĠPudd le
ĠMas ala
ĠMod ified
ĠChurn ed
ĠDar rell
Ġclou d
wor ms
Brown ies
ĠFeed ers
Ġtomat illas
Ġtomat illo
Kn ife
ĠRon ald
ĠVick ers
ĠScrew ball
Ha ppy
tri fle
tri gue
Ġab alone
ĠMen udo
Ġgrand children
rust eaz
ĠChal et
ĠStud ent
ĠEmer il
ĠCandi Quick
Ġpic ant
ĠBul let
ĠBul gur
ĠOccasion ally
ĠIncred ibles
Fl at
gener ously
Ġtend ons
ĠComm ent
Ġcrink led
ĠDia monds
ĠWing ettes
ĠWing fling
ĠCrown ed
Con gealed
Gra m
Gra dually
ĠSub stitutes
ĠPay ne
ĠPain ting
ĠOl son
ĠKring les
ĠMcK enzie
Ġdie ting
ĠChap el
ĠFred a
ĠFred die
ĠKr issy
honey dew
Ġblow ing
Ġta quitos
ĠCam pan
ĠLar ger
ĠLump y
ĠHop i
Sc otch
Sc allion
Tra il
Tra ppey
Ġmag azines
Ġsupp ort
Ġdou bler
Ġyo gart
Ġcray on
Ġclump ing
ĠBomb s
De frost
De pression
Grape fruit
moder ately
Ġdraw ing
ĠPla ced
ĠPla cing
ĠMat rimonial
Ġflow ing
Ġjer k
ĠRay mond
seal ing
Ġhusband s
kn own
lan tern
ĠCu ervo
elbow s
ĠSyl labub
ĠBan ner
Ġgrinding s
ĠFo dder
ĠMcKay s
Bur gers
cur ly
ĠClass y
ela ise
ĠSen ate
ĠSen eca
ĠSass afras
meas uring
ĠKola che
ĠKola chy
ĠSuz anne
ĠJewel ed
hor izon
ĠTuck er
ĠLin iment
ĠEll iott
ĠJen na
ĠSoci able
ĠTempt ee
Gr its
Ġcult iv
Ġmunch ing
gard less
spir ation
Ġdisturb ing
ĠBlo om
ĠDaff le
Ġrel lenos
ĠGlo gg
ĠJay s
ĠFrangel ica
ĠJoseph ine
Crisp ed
Mac adamia
gu in
gu ava
Ġcomm iss
ĠAust rian
ĠTurk etti
Soft asilk
Ġsatisfy ing
burn s
Ġfle cks
Ġchal ky
Ġhay stack
ĠRoula des
ĠOuts tanding
ĠInf amous
Ġprong ed
EL Y
ĠGro o
Ġslant ed
ĠVar nish
Pick led
Ġpleas ing
ĠCH S
roma ine
ĠArab ian
Acc ording
Ġpadd les
ĠCreat ion
ĠPos oli
Ġfort une
Ġfort unes
nam ite
ĠJes se
ĠShel ley
Che ap
ĠGeb hart
ĠGulf wax
Gu ilt
Jon athans
Marin ate
Park er
lar gest
Ġsubs ides
ĠPfe iffer
chunk ed
ĠAv oset
ĠRol os
ĠDro ppings
ĠEst elle
ĠEqu ipment
ĠBrook lyn
ĠArth ritis
Ġreason ably
bubb les
dump lings
hom estyle
tsp eed
Ġvan ila
Ġvan ala
ĠHan ukkah
Ġappet ites
ĠSeashell s
ĠGroup er
ĠImpro mptu
Pop corn
Pop eye
brand y
drum mettes
Ġwit ness
ĠCarm en
ĠCray fish
ĠWas abi
ĠBoj angle
ĠTeen y
Ġgroo ve
Bar ley
Garb age
tb eg
Ġbless ing
Ġfra me
Ġfra ppe
ĠSer ver
ĠBris tol
ĠTumble weeds
ĠWy oming
ĠWea ve
ĠWhit ney
Ġexpect ing
ĠShall ots
ĠScra pple
ĠChev rie
ĠCalab aza
Ġsegment ed
Ġmicrowaves afe
Frost ed
Ġsplatter s
dec rease
sw iss
Ġir regular
Ġsy stem
Ġwand s
ĠMuch o
ĠMusc at
ĠAct ually
ĠFreak out
ĠStru edel
Ġcontra sting
ĠGard ner
ĠSwitch el
ĠMission ary
Marshmallow s
Won der
cir cle
suff icient
ĠSlee py
ĠPun kin
Ġpeper oni
ĠTroy er
ĠAqu arium
ĠDy namite
ĠJac ques
ĠYo ghurt
ĠMarco s
ĠPitts burg
ĠPitts burgh
ĠSlipper y
ĠCourt ney
Aust rian
Id eal
Sl ush
cran apple
Ġcoup ons
Ġben eath
Ġpark ay
Ġinvol ves
Ġdam aged
Ġdam aging
ĠPisto lettes
ĠMight y
tse ason
Ġshrivel ed
ĠRip en
ĠDur ango
ĠDur kees
ĠFiddle head
ĠLab or
Ġconne ct
Ġconne cted
ĠHero es
Ġsooo o
ĠKon bu
ĠCrump le
ĠCrump ets
scramb le
ĠMarc ella
ĠDisp ose
crunch ed
ĠWein berg
Eat able
Tr iscuits
dis tilled
dri zzle
igar o
mand ise
enth aler
ĠCy cle
ĠCach ares
ĠBunn ies
ĠPon che
ĠPle asure
Ġsaf ety
ĠWorces ter
ĠFas weet
Ġrece ipt
Ġrefri g
ĠJazz y
ĠKif li
Ġexpl ode
ĠNat alie
ĠYak itori
Ġchees ier
ĠMaz at
Hel en
Health ful
Sandwich es
pul p
Ġcapp ic
ĠCree ping
Ġdoil y
Ġevent ually
ĠSU GAH
ĠBos co
Ġhipp opotamus
ĠMass age
ĠSpl atter
Ġpothol der
ĠGour mandise
ĠEff ie
ĠJal apeo
Ġexper ience
ĠVaugh n
ueb en
ĠSlurp ee
Ġaccord ance
ĠSeab rook
Ġsmid gens
ĠScorch es
ĠTrip les
ĠHoec ake
Ġmedic ine
ĠBord eaux
ĠRobins on
ĠBattle town
ĠAstor ia
Pla ins
di abetic
Ġmallow s
Ġachi otes
ĠStil ton
ĠPed ro
ĠPadd ies
rac uda
ĠMelv in
ĠMatz a
Ġjale peno
ĠDabb le
ĠWimp ies
Ġcornucop ia
ĠSprink ling
Ġconvers ation
ĠGur ley
ĠVit aburger
ĠSau ers
ĠSheep herder
arbro il
ĠBeg inner
Ġunbel ievably
scr atch
Ġquin ces
ĠArgent ine
ĠHoot enanny
Ġdisinteg rated
Ġcomfor tably
Refriger ator
Ġmillilit er
ĠBitter sweet
ĠGerald ine
Ġautom obile
Ġbrigh ter
Ġquesad illas
Ġsprinc els
ĠSimpl ified
Ġumbrel las
Av ailable
Bel ieve
Cir ca
Ital y
Li quid
Oli ves
Pen ny
Pur itan
Scr umptious
Turk ish
Wel come
bri en
dust ed
disp osable
gole mono
ĠINST ANT
Ġcul ture
Ġsar an
Ġsel dom
Ġpurp oses
Ġfellow ship
Ġches nuts
Ġchlor ine
Ġwob ble
Ġabu rage
ĠSLOW LY
ĠPau lette
Ġhur ried
ĠTaku wan
ĠAnad ama
Ġunne cessary
ĠRac coon
ĠRugal ach
ĠFreck le
Ġrefle ctor
Ġseper ate
ĠStu art
Ġrop ey
ĠOly mp
ĠKibb ee
ĠVir g
ĠPepp ark
Ġpoison ous
Ġcompan ion
Ġimper fect
Ġmemor ies
ĠUnivers ity
ĠDigg ity
ĠManz anilla
Ġcircum ference
Ġcorresp onding
Reub en
Ġjohnny cake
bleski ver
Ġblemish es
Armen ian
ĠMadril ene
Ġceas es
Ġmodific ations
ĠAntoni o
ĠProport ions
ĠHarbors ide
Fle ischmann
Hill shire
Mag ic
Ow ens
Ram en
Teach er
bet ween
carbon ated
fres co
waff le
Ġohel o
Ġbusc uits
Ġtran sport
Ġmut ual
Ġferm ents
rogen ated
Ġempt ied
ĠSony a
ĠBacky ard
ĠPruit t
ĠPomm ery
Ġpepar nes
Ġhib achi
Ġlins eed
ĠMab ry
ĠMiche le
ĠTany a
ĠAspar tame
ĠCobbles tone
Ġjaw bone
Ġshella c
ĠRugel ach
ĠFib re
Ġseaw eed
ĠHender son
ĠGring o
Ġcaramb ola
Ġkett les
ĠOster izer
ĠEmper or
ĠEgy pt
insetti a
ĠThail and
ĠShio fuke
ĠButterfl ies
ĠYvon ne
ĠCornucop ias
osene ck
Ġrighte ousness
ĠFlints tone
Ġparagrap h
ĠMuffulet ta
ĠDeuteron omy
ĠPeruv ian
ĠMcdon ald
Ġhomogene ous
ĠDisgust ingly
ĠWingfling ers
" -
" .)
, *
, .
, ...
- (
3 20
4 7
5 8
5 9
6 85
7 00
9 3
9 9
? (
A e
A g
A z
A le
A ct
A bs
A round
A pr
B re
B ak
B ay
B eet
B utch
B eaten
B av
B ren
B rit
B ird
B uy
B ermuda
B ailey
B ounty
B rick
C ap
C ub
C are
C enter
C orning
C lassic
C lab
C aper
C rem
C ortland
D r
D ing
D or
D om
D eck
D awn
D ER
D oubled
E S
E e
E ach
E ckrich
E EP
F R
F ix
F is
F ri
F ound
F old
F ries
F oil
F ool
F orm
F ills
F eta
F ORE
G arden
G ala
H i
H al
H ol
H all
H IGH
I D
I CI
I saiah
J B
J r
J ew
J uice
K y
K on
K iss
K luski
K adaif
K iddie
L u
L unch
L uck
L ots
L osh
L opez
L atkes
L iberian
M r
M in
M at
M od
M id
M old
M alt
M ahi
M illion
M erk
N in
N ic
N ine
N ature
O uev
O lio
O ysters
P P
P a
P ak
P as
P ush
P ast
P im
P uff
P astry
P uffy
P ina
P igs
P ron
P lenty
P eel
P rize
P leas
P ral
P lan
P uerto
P ampered
R ub
R ead
R egg
R ob
R oses
S up
S op
S uc
S tra
S par
S ex
S ame
S ouffle
S he
S lices
S ilver
S imp
S olo
S tore
S cand
S mother
S tack
T EN
T ap
T arragon
T asty
T aken
T aters
T win
T ANT
T ube
U g
U RE
U LL
U CE
U ICK
V elvet
V idalias
W il
W ear
W estern
W ells
Y a
Y o
Y LE
Y am
Z a
Z esty
Z iploc
\ *
a otes
a vocado
b es
b ul
b ats
b ey
b ris
b ong
b atch
b risket
b igg
b ino
b bling
b locks
c la
c ot
c ies
c ade
c arb
c aster
c ott
c elyn
d le
d ot
d ad
d oll
d uck
d ull
d redge
d rib
d igas
d ropped
e igh
f it
f ol
f ra
f all
f ess
f ired
f illet
f est
f its
f ind
f ann
f alle
g i
g ther
g om
g ins
g lo
g uacamole
g otten
g ives
g ummy
g reasy
h en
h all
h ee
h ne
h ulled
h anna
h ouston
h ocks
i ers
i ian
i quick
i very
i ots
i able
i astes
i ardi
i spread
i orno
j im
j ars
k u
k ly
k ers
k akor
k nots
l g
l on
l im
l se
l akia
m ic
m ak
m our
m om
m ery
m ul
m ation
m orsels
m ores
m ada
m athes
n s
n u
n z
n an
n or
n as
n ia
n ial
n ik
n uggets
n oniodized
n ondairy
o aked
o ften
o val
p i
p ast
p ers
p ain
p aw
p ull
p ale
p burn
r ese
r uff
r ous
r ina
s q
s u
s y
s and
s un
s ur
s ery
s ack
s ort
s no
s ala
s ilver
s lap
t T
t as
t ice
t up
t nuts
t not
t by
t dry
t ouch
t low
t roll
t pecans
t Good
t Butter
t cold
t remove
t spread
t Make
t powdered
t Un
t uncovered
t little
t ouffee
t blend
t double
t flat
t golden
t done
t cookie
t refrigerate
t Knead
t Wrap
t Test
t Chop
t thoroughly
t While
t Line
t Continue
t Gradually
u ro
u mon
u der
u wa
u kah
v re
v our
v iche
w ind
w inter
w afer
x a
x see
y ing
z ier
z ank
z arn
z ianne
Ġ !
Ġ INGREDIENTS
Ġ ed
Ġ utter
Ġ ur
Ġ resh
Ġ ident
RE AM
ST YLE
Ġc el
Ġc is
Ġc ri
Ġc ust
Ġc ec
Ġc rease
Ġc inn
Ġc umquats
Ġc igar
Ġc umquat
in ded
in tage
in ton
in ations
Ġs il
Ġs on
Ġs ol
Ġs ell
Ġs ate
Ġs me
Ġs ent
Ġs ong
Ġs eeps
Ġs olut
Ġs lap
er le
er ated
er oni
er ms
Ġ1 16
ON ING
RU ST
an z
an ou
an ta
an ced
an ada
an avian
ar ely
ar ks
ar ned
ar ling
ar ones
Ġo ak
Ġo ye
Ġo pal
Ġb red
Ġb oll
Ġb isc
Ġb oney
Ġb aster
Ġb ib
Ġb inder
ed ar
ed ith
ed estal
Ġt ator
Ġt rap
Ġt amp
Ġt ipped
Ġt ier
Ġt ummy
Ġt uno
Ġt atar
Ġt eddy
Ġt inge
Ġt andoori
es alat
Ġp up
Ġp ars
Ġp len
Ġp ins
Ġp resh
Ġp ac
Ġp oun
Ġp ages
Ġp umpern
Ġp ico
Ġp ioneer
Ġp reacher
Ġp illows
Ġp agach
Ġp edestal
Ġm and
Ġm it
Ġm is
Ġm ice
Ġm op
Ġm oth
Ġm au
Ġm esa
Ġm ache
Ġm yrtle
at ine
at is
at to
at io
at ti
at kins
il ities
ut t
ut ies
ut era
re et
re peat
re te
on ian
on bu
on cini
on nas
al k
al la
al ee
al ad
al ings
al ai
al enn
al ita
al las
al though
al ayas
en y
en ch
ou let
ou fee
and ules
Ġf ell
Ġf ate
Ġf est
Ġf eets
Ġf ond
Ġf aint
Ġf eather
Ġf izzle
LE SS
Ġch ee
Ġch oriz
Ġch ichen
Ġch itlins
Ġch irico
Ġw ake
Ġw ien
Ġw rinkle
Ġw est
Ġw inner
Ġw inners
Ġw rinkled
gar a
ic ol
ic ure
ĠC in
ĠC er
ĠC ay
ĠC ly
ĠC inna
ĠC af
ĠC ats
ĠC ac
ĠC row
ĠC rease
ĠC ano
ĠC ind
ĠC io
ĠC ouch
ĠC yn
ĠC lemon
ĠC ze
ĠC AN
ĠC arton
ĠC zarn
ĠC REAM
ĠC RUST
le ge
le ctric
le atin
le ased
le quin
Ġin j
Ġin n
Ġin test
Ġin ward
Ġin tend
Ġto wn
Ġto ll
Ġto kay
Ġto xic
Ġto gther
sp el
sp ot
sp ark
sp ital
or le
or der
or ten
pp ino
el icious
el ini
el ander
Ġ2 21
our s
our ab
ro op
ro uted
Ġsu gg
Ġsu ger
Ġsu its
Ġsu dden
Ġa z
Ġa qu
Ġa pt
Ġa erate
Ġa erosol
it er
it or
it ate
it ure
it ions
it ude
Ġd ing
Ġd ad
Ġd ies
Ġd ens
Ġd ices
Ġd rag
Ġd ents
Ġd rape
Ġd itch
Ġd ais
Ġd yes
Ġd addy
Ġd runk
Ġe p
Ġe v
Ġe el
Ġe mp
Ġe els
Ġe mbers
Ġe touffee
Ġon y
Ġon yuns
Ġon gion
ter m
ter gent
ter koe
ĠS O
ĠS il
ĠS ak
ĠS eat
ĠS ri
ĠS um
ĠS id
ĠS ides
ĠS ig
ĠS ong
ĠS ons
ĠS uk
ĠS end
ĠS uds
ĠS ighs
ĠS aint
ĠS iesta
ĠS elle
ĠS umm
ĠS etting
ĠS lab
ĠS ouff
ĠS isters
ĠS ympathy
ĠS ER
ĠS elma
ĠS omen
ĠS ollie
ĠS moosh
ĠS athers
ĠS eder
ĠB udding
ĠB len
ĠB rink
ĠB ub
ĠB elv
ĠB urt
ĠB itz
ĠB unt
ĠB ist
ĠB oe
ĠB ramb
ĠB ret
ĠB asted
ĠB reath
ĠB ody
ĠB rem
ĠB IG
ĠB umble
ĠB URN
ĠB iscoch
la ger
ĠP ry
ĠP ir
ĠP ole
ĠP eep
ĠP ud
ĠP ape
ĠP asty
ĠP addy
ĠP illow
ĠP okey
ĠP ermit
ĠP fann
ine y
Ġsal ve
Ġsal ir
Ġsal isbury
Ġg it
Ġg ill
Ġg ogurt
Ġg ang
Ġg ula
Ġg au
Ġg aps
Ġg ames
Ġg allo
Ġg leatin
ol y
ol in
ol ate
ol ute
ol ted
ge e
ge ous
ra el
ra me
ra ils
Ġpe ter
as k
as eal
as tern
as seed
Ġh ers
Ġh ab
Ġh ats
Ġh ogs
Ġh atch
Ġh ug
Ġh afe
Ġh ops
Ġh inged
gg ist
is es
is ta
is ure
is ers
Ġl ic
Ġl ge
Ġl ake
Ġl ub
Ġl atter
Ġl uster
Ġl atkes
Ġl ung
Ġl ingon
Ġl ingonberries
ĠM IN
ĠM es
ĠM ine
ĠM ish
ĠM ach
ĠM atter
ĠM oun
ĠM eets
ĠM ort
ĠM ors
ĠM idge
ĠM atch
ĠM ange
ĠM andarins
ĠM ert
ĠM oody
ĠM idget
ĠM iscellaneous
ion aire
dd o
Ġbutter nuts
un ate
un ite
un cover
un ders
un reconstituted
ĠT il
ĠT ro
ĠT res
ĠT rain
ĠT um
ĠT ire
ĠT ried
ĠT ran
ĠT apen
ĠT ier
ĠT ank
ĠT uac
ĠT ax
ĠT ues
ĠT esta
ĠT sub
ĠT URN
ĠT aft
ow ine
ow ski
Ġv erse
Ġv entil
Ġv intage
Ġ( (
Ġco arsley
Ġco ordinate
Ġcream ettes
Ġfl ar
Ġfl ak
Ġfl ies
Ġfl atter
Ġfl ipped
Ġcheese ball
Ġth ro
Ġth ump
Ġth erm
Ġth ru
ick land
us o
ch an
ch ar
ch ow
ch ick
ch ives
ch ni
ch ief
ch mallows
Ġor gan
Ġmilk shakes
ĠA k
ĠA mp
ĠA ug
ĠA ik
ĠA ctive
ĠA be
ĠA go
ĠA jo
Ġun its
Ġun chopped
Ġun freeze
Ġun oiled
Ġun pitted
Ġun ripened
Ġun yun
Ġun stirred
Ġun pricked
Ġcho col
Ġcho coholic
Ġmin ed
Ġmin ty
Ġmix ers
Ġcan oe
ĠCo in
ĠCo ach
ĠCo mmercial
ĠCo bble
ĠCo sts
ts our
ts kin
ts te
ts lightly
ts lice
ell ia
ell inis
Ġst ap
Ġst ress
Ġst ains
Ġst amps
til izer
til well
to ven
to fl
to leo
ver ne
Ġj a
Ġj e
ok i
ok y
ri g
ri o
ri ding
ri do
illa c
Ġ4 10
Ġ4 15
mon a
mon y
mon th
mon ium
Ġpepper idge
der ia
mb ly
mb one
Ġbro w
Ġbro kley
Ġn utter
Ġn illa
Ġn ood
Ġn ips
Ġn asty
Ġn uke
Ġn ourish
Ġn opales
Ġsh ugar
ie th
ie flower
ĠCh ed
ĠCh at
ĠCh en
ĠCh ur
ĠCh ery
ĠCh ars
ĠCh est
ĠCh els
ĠCh ung
Ġmar gin
Ġmar riage
Ġmar sala
Ġmar chmallows
Ġcr ate
Ġcr itters
Ġcr oustades
Ġsa il
Ġsa uc
ck erd
ien a
up side
Ġthe t
ve ined
ve mber
gh an
gh am
gh ouse
ip h
ip le
ip ig
ir led
ir ling
Ġle av
Ġle arn
Ġle fsa
Ġle mun
Ġle arned
Ġle isure
th i
th ru
ĠR u
ĠR ow
ĠR ink
ĠR ins
ĠR af
ĠR aff
ĠR ouse
ĠR inal
ĠR ites
ĠR ounder
ĠR iblets
ĠR icotti
ĠR igan
ĠR ode
ĠR iley
ĠR ogers
ĠR ueben
lic ious
ĠD w
ĠD ou
ĠD am
ĠD ated
ĠD id
ĠD ries
ĠD ore
ĠD ud
ĠD ots
ĠD ouse
ĠD ance
ĠD rew
ĠD imple
ĠD yn
ĠD issolved
ĠD ago
ĠD ung
ĠD EL
ĠD arby
ĠW age
ĠW ise
ĠW ire
ĠW ege
ĠW amp
ĠW eg
ĠW ye
ĠW ives
ĠW urst
ĠW iches
ĠW icker
ĠW IT
ĠW ispread
Ġpowder ized
od i
od ing
od ity
na vel
na ppers
col by
st raw
st ars
st own
st arter
st eel
st retch
st yled
Ġju ise
Ġgr uel
Ġover s
Ġover ly
Ġover sized
Ġover grown
ush kie
Ġbo b
Ġbo ar
Ġbo ut
Ġbo ot
ad on
ad ia
ad ama
[...]
