{"<s>":0,"<pad>":1,"</s>":2,"<unk>":3,"<mask>":4,"!":5,"\"":6,"#":7,"$":8,"%":9,"&":10,"'":11,"(":12,")":13,"*":14,"+":15,",":16,"-":17,".":18,"/":19,"0":20,"1":21,"2":22,"3":23,"4":24,"5":25,"6":26,"7":27,"8":28,"9":29,":":30,";":31,"<":32,"=":33,">":34,"?":35,"@":36,"A":37,"B":38,"C":39,"D":40,"E":41,"F":42,"G":43,"H":44,"I":45,"J":46,"K":47,"L":48,"M":49,"N":50,"O":51,"P":52,"Q":53,"R":54,"S":55,"T":56,"U":57,"V":58,"W":59,"X":60,"Y":61,"Z":62,"[":63,"\\":64,"]":65,"^":66,"_":67,"`":68,"a":69,"b":70,"c":71,"d":72,"e":73,"f":74,"g":75,"h":76,"i":77,"j":78,"k":79,"l":80,"m":81,"n":82,"o":83,"p":84,"q":85,"r":86,"s":87,"t":88,"u":89,"v":90,"w":91,"x":92,"y":93,"z":94,"{":95,"|":96,"}":97,"~":98,"¡":99,"¢":100,"£":101,"¤":102,"¥":103,"¦":104,"§":105,"¨":106,"©":107,"ª":108,"«":109,"¬":110,"®":111,"¯":112,"°":113,"±":114,"²":115,"³":116,"´":117,"µ":118,"¶":119,"·":120,"¸":121,"¹":122,"º":123,"»":124,"¼":125,"½":126,"¾":127,"¿":128,"À":129,"Á":130,"Â":131,"Ã":132,"Ä":133,"Å":134,"Æ":135,"Ç":136,"È":137,"É":138,"Ê":139,"Ë":140,"Ì":141,"Í":142,"Î":143,"Ï":144,"Ð":145,"Ñ":146,"Ò":147,"Ó":148,"Ô":149,"Õ":150,"Ö":151,"×":152,"Ø":153,"Ù":154,"Ú":155,"Û":156,"Ü":157,"Ý":158,"Þ":159,"ß":160,"à":161,"á":162,"â":163,"ã":164,"ä":165,"å":166,"æ":167,"ç":168,"è":169,"é":170,"ê":171,"ë":172,"ì":173,"í":174,"î":175,"ï":176,"ð":177,"ñ":178,"ò":179,"ó":180,"ô":181,"õ":182,"ö":183,"÷":184,"ø":185,"ù":186,"ú":187,"û":188,"ü":189,"ý":190,"þ":191,"ÿ":192,"Ā":193,"ā":194,"Ă":195,"ă":196,"Ą":197,"ą":198,"Ć":199,"ć":200,"Ĉ":201,"ĉ":202,"Ċ":203,"ċ":204,"Č":205,"č":206,"Ď":207,"ď":208,"Đ":209,"đ":210,"Ē":211,"ē":212,"Ĕ":213,"ĕ":214,"Ė":215,"ė":216,"Ę":217,"ę":218,"Ě":219,"ě":220,"Ĝ":221,"ĝ":222,"Ğ":223,"ğ":224,"Ġ":225,"ġ":226,"Ģ":227,"ģ":228,"Ĥ":229,"ĥ":230,"Ħ":231,"ħ":232,"Ĩ":233,"ĩ":234,"Ī":235,"ī":236,"Ĭ":237,"ĭ":238,"Į":239,"į":240,"İ":241,"ı":242,"Ĳ":243,"ĳ":244,"Ĵ":245,"ĵ":246,"Ķ":247,"ķ":248,"ĸ":249,"Ĺ":250,"ĺ":251,"Ļ":252,"ļ":253,"Ľ":254,"ľ":255,"Ŀ":256,"ŀ":257,"Ł":258,"ł":259,"Ń":260,"Ġ<":261,"NE":262,"XT":263,"NEXT":264,"EN":265,"IN":266,"RE":267,"ST":268,"Ġc":269,"ING":270,"DI":271,"TS":272,"ENTS":273,"REDI":274,"INGREDI":275,"INGREDIENTS":276,"NER":277,"TI":278,"in":279,"Ġs":280,"er":281,"AR":282,"STAR":283,"START":284,"END":285,"Ġ1":286,"ON":287,"RU":288,"INST":289,"TION":290,"CTION":291,"RUCTION":292,"INSTRUCTION":293,"INSTRUCTIONS":294,"an":295,"ar":296,"Ġo":297,"Ġb":298,"ed":299,"Ġt":300,"es":301,"Ġp":302,"Ġm":303,"at":304,"il":305,"ut":306,"re":307,"on":308,"al":309,"en":310,"ou":311,"and":312,"Ġf":313,"LE":314,"PE":315,"CI":316,"RECI":317,"RECIPE":318,"TLE":319,"TITLE":320,"Ġch":321,"Ġand":322,"ing":323,"Ġw":324,"gar":325,"ic":326,"ĠC":327,"le":328,"Ġin":329,"Ġto":330,"sp":331,"or":332,"pp":333,"el":334,"ak":335,"Ġ2":336,"our":337,"rea":338,"ro":339,"Ġsu":340,"Ġsugar":341,"Ġa":342,"Ġ3":343,"it":344,"Ġd":345,"Ġe":346,"Ġon":347,"ter":348,"ix":349,"ĠS":350,"ĠB":351,"la":352,"ĠP":353,"ine":354,"Ġsal":355,"Ġg":356,"ol":357,"ge":358,"ra":359,"Ġpe":360,"as":361,"Ġtsp":362,"Ġh":363,"gg":364,"is":365,"Ġl":366,"Ġsalt":367,"utter":368,"ĠM":369,"ion":370,"Ġegg":371,"ream":372,"ake":373,"dd":374,"Ġbutter":375,"ese":376,"un":377,"ĠT":378,"eese":379,"ow":380,"Ġv":381,"Ġ(":382,"Ġco":383,"Ġcream":384,"all":385,"Ġfl":386,"Ġcheese":387,"Ġth":388,"ick":389,"ilk":390,"us":391,"ot":392,"Ġonion":393,"ch":394,"Ġflour":395,"Ġof":396,"Ġor":397,"Ġmilk":398,"ĠA":399,"Ġun":400,"ce":401,"Ġcho":402,"ice":403,"Ġmin":404,"Ġmix":405,"ith":406,"Ġcan":407,"ĠCo":408,"ts":409,"ell":410,"Ġst":411,"red":412,"eat":413,"Ġwith":414,"ater":415,"Ġfor":416,"Ġeggs":417,"Ġwater":418,"Ġminut":419,"til":420,"to":421,"ver":422,"Ġminutes":423,"00":424,"Ġj":425,"ok":426,"ri":427,"bsp":428,"Ġuntil":429,"ĠTbsp":430,"pper":431,"ee":432,"illa":433,"anilla":434,"Ġvanilla":435,"Ġ4":436,"mon":437,"Ġpepper":438,"Ġoz":439,"ĠMix":440,"ĠAdd":441,"der":442,"pped":443,"mb":444,"Ġbro":445,"Ġn":446,"ato":447,"Ġsh":448,"Ġat":449,"ie":450,"ĠCh":451,"Ġmar":452,"ry":453,"Ġcr":454,"Ġsa":455,"ck":456,"Ġchopped":457,"ien":458,"up":459,"icken":460,"Ġthe":461,"ve":462,"Ġinto":463,"redien":464,"Ġing":465,"Ġingredien":466,"Ġingredients":467,"gh":468,"uce":469,"ĠBake":470,"wn":471,"ip":472,"oup":473,"ir":474,"Ġle":475,".)":476,"Ġwh":477,"th":478,"ĠR":479,"ate":480,"lic":481,"Ġsoup":482,"ĠD":483,"ĠW":484,"owder":485,"Ġpowder":486,"Ġbak":487,"od":488,"read":489,"50":490,"na":491,"col":492,"uts":493,"ans":494,"Ġbaking":495,"st":496,"Ġchicken":497,"Ġju":498,"Ġgr":499,"Ġover":500,"pple":501,"garine":502,"Ġbrown":503,"Ġmargarine":504,"orn":505,"ush":506,"ill":507,"Ġjuice":508,"Ġbo":509,"Ġsauce":510,"ad":511,"mall":512,"kg":513,"Ġpkg":514,"atoes":515,"Ġoil":516,"ther":517,"Ġ350":518,"Ġall":519,"Ġcook":520,"ta":521,"les":522,"ĠF":523,"ay":524,"nd":525,"et":526,"Ġpan":527,"res":528,"Ġlb":529,"ly":530,"Ġbe":531,"Ġpie":532,"Ġcorn":533,"apple":534,"ineapple":535,"me":536,"ish":537,"Ġwell":538,"ure":539,"Ġlar":540,"ast":541,"ers":542,"Ġre":543,"Ġlarge":544,"Ġpineapple":545,"con":546,"ur":547,"co":548,"gether":549,"Ġtogether":550,"Ġlemon":551,"Ġfro":552,"ĠPour":553,"rain":554,"um":555,"Ġadd":556,"ole":557,"qu":558,"igh":559,"Ġsp":560,"ound":561,"ust":562,"Ġr":563,"inch":564,"om":565,"reen":566,"ten":567,"colate":568,"ĠSp":569,"Ġhour":570,"Ġtom":571,"am":572,"elt":573,"ber":574,"Ġy":575,"Ġnuts":576,"Ġse":577,"Ġgreen":578,"umb":579,"Ġpot":580,"Ġsmall":581,"reas":582,"ger":583,"ture":584,"ery":585,"Ġcra":586,"ight":587,"Ġmixture":588,"ated":589,"ser":590,"ĠSt":591,"Ġboil":592,"Ġcake":593,"room":594,"ĠL":595,"Ġsour":596,"ĠWh":597,"ĠCook":598,"Ġcon":599,"Ġ6":600,"oda":601,"ĠI":602,"Ġsoda":603,"ap":604,"Ġslic":605,"ves":606,"ĠH":607,"id":608,"Ġpec":609,"eef":610,"Ġchocolate":611,"Ġwhit":612,"Ġgar":613,"Ġ8":614,"ushroom":615,"mbine":616,"inna":617,"innamon":618,"inegar":619,"ven":620,"Ġonions":621,"Ġcrack":622,"Ġvinegar":623,"elery":624,"ces":625,"Ġcelery":626,"Ġcup":627,"ash":628,"Ġcinnamon":629,"lace":630,"Ġmushroom":631,"Ġgarlic":632,"ff":633,"sh":634,"Ġground":635,"Ġmay":636,"old":637,"Ġtop":638,"op":639,"age":640,"ise":641,"Ġpecans":642,"Ġbeef":643,"Ġstick":644,"Ġpotatoes":645,"asser":646,"ach":647,"asserole":648,"Ġba":649,"Ġdrain":650,"ĠCool":651,"eet":652,"zen":653,"Ġbread":654,"Ġcrumb":655,"Ġdish":656,"ies":657,"Ġmelt":658,"Ġ5":659,"ries":660,"ĠCombine":661,"ct":662,"im":663,"erve":664,"Ġbeat":665,"ĠG":666,"mo":667,"ard":668,"Ġoran":669,"uit":670,"edi":671,"onna":672,"onnaise":673,"Ġhot":674,"ood":675,"Ġmayonnaise":676,"Ġso":677,"if":678,"Ġoven":679,"Ġ9":680,"Ġx":681,"akes":682,"ink":683,"Ġfrozen":684,"ips":685,"raw":686,"Ġmelted":687,"Ġpean":688,"bo":689,"edium":690,"edd":691,"ant":692,"Ġwhite":693,"ĠStir":694,"ĠWhip":695,"ough":696,"eddar":697,"udd":698,"Ġheat":699,"ress":700,"owl":701,"Ġchips":702,"udding":703,"Ġmedium":704,"conut":705,"Ġgrated":706,"Ġstir":707,"Ġrice":708,"Ġbowl":709,"Ġro":710,"ars":711,"fri":712,"ĠPlace":713,"Ġ10":714,"ĠRe":715,"Ġcar":716,"ire":717,"len":718,"ll":719,"rink":720,"ub":721,"reased":722,"Ġdry":723,"ĠCheddar":724,"friger":725,"oon":726,"Ġcrumbs":727,"Ġbeans":728,"ĠSal":729,"ĠPut":730,"Ġcoconut":731,"Ġ30":732,"aste":733,"rawber":734,"arm":735,"ab":736,"Ġgra":737,"bout":738,"Ġal":739,"Ġbox":740,"rinkle":741,"Ġtomatoes":742,"ushed":743,"Ġsliced":744,"Ġk":745,"ccol":746,"ccoli":747,"Ġpudding":748,"Ġapp":749,"Ġcrushed":750,"ring":751,"ustard":752,"Ġtomato":753,"ore":754,"Ġthen":755,"ded":756,"one":757,"Ġshor":758,"Ġpowdered":759,"Ġdrained":760,"Ġorange":761,"ĠO":762,"art":763,"Ġcut":764,"ĠE":765,"tening":766,"Ġpeanut":767,"ege":768,"Ġshortening":769,"tab":770,"Ġhours":771,"egetab":772,"ely":773,"ins":774,"anan":775,"Ġabout":776,"Ġis":777,"ain":778,"Ġtaste":779,"Ġbacon":780,"Ġmustard":781,"stant":782,"erv":783,"Ġcrackers":784,"Ġole":785,"Ġoleo":786,"Ġjell":787,"uff":788,"Ġstrawber":789,"Ġgreased":790,"ĠSalad":791,"ĠJ":792,"Ġbake":793,"ĠIn":794,"ĠK":795,"ressing":796,"weet":797,"Ġas":798,"ĠCake":799,"ruit":800,"ul":801,"yr":802,"yrup":803,"lo":804,"ĠBro":805,"ĠServe":806,"Ġmeat":807,"ea":808,"Ġsyrup":809,"Ġcooked":810,"resh":811,"Ġsl":812,"ĠBeat":813,"Ġbot":814,"Ġapples":815,"Ġbeaten":816,"Ġboiling":817,"Ġcans":818,"Ġserv":819,"Ġra":820,"iz":821,"Ġvegetab":822,"Ġroll":823,"mallow":824,"shmallow":825,"Ġla":826,"Ġfrom":827,"Ġshell":828,"Ġpour":829,"Ġbroccoli":830,"Ġchil":831,"coa":832,"Ġrem":833,"Ġlight":834,"ĠPie":835,"Ġremain":836,"Ġcher":837,"Ġred":838,"ason":839,"ĠCream":840,"Ġ13":841,"Ġex":842,"Ġ15":843,"Ġli":844,"vor":845,"Ġpap":846,"Ġcocoa":847,"ĠV":848,"uc":849,"Ġcool":850,"Ġfir":851,"Ġbanan":852,"af":853,"Ġserving":854,"Ġremaining":855,"ĠPe":856,"Ġcasserole":857,"Ġfresh":858,"Ġdressing":859,"mp":860,"Ġsof":861,"ĠCr":862,"Ġhal":863,"mer":864,"ĠSprinkle":865,"Ġha":866,"ĠCasserole":867,"Ġmarshmallow":868,"Ġ20":869,"Ġcrust":870,"Ġrefriger":871,"usage":872,"Ġjello":873,"tened":874,"Ġcarro":875,"move":876,"Ġfill":877,"ĠCover":878,"ork":879,"oll":880,"Ġblen":881,"Ġ12":882,"Ġshred":883,"oth":884,"Ġclo":885,"are":886,"ks":887,"ss":888,"ham":889,"Ġshredded":890,"mbur":891,"ue":892,"Ġcracker":893,"iced":894,"pping":895,"Ġinstant":896,"Ġpieces":897,"Ġslices":898,"shire":899,"iss":900,"Ġgraham":901,"ack":902,"tershire":903,"orces":904,"Ġlet":905,"orcestershire":906,"ley":907,"ps":908,"Ġseason":909,"nuts":910,"ĠWorcestershire":911,"ĠSpread":912,"Ġball":913,"ent":914,"ĠTh":915,"milk":916,"ction":917,"lavor":918,"Ġfilling":919,"Ġbananas":920,"Ġmarshmallows":921,"Ġdiced":922,"oil":923,").":924,"ĠMakes":925,"Ġsalad":926,"ĠCut":927,"Ġan":928,"ats":929,"ey":930,"Ġhambur":931,"Ġsausage":932,"Ġcarrots":933,"li":934,"Ġ45":935,"Ġit":936,"ree":937,"Ġfruit":938,"Ġsk":939,"Ġwhi":940,"Ġcold":941,"Ġlay":942,"ĠMelt":943,"ĠRoll":944,"ĠBrown":945,"Ġeach":946,"Ġnut":947,"Ġcover":948,"Ġbuttermilk":949,"aked":950,"ide":951,"25":952,"arsley":953,"se":954,"Ġchili":955,"ĠRemove":956,"Ġparsley":957,"ĠSa":958,"Ġjar":959,"ĠChicken":960,"Ġflavor":961,"ĠLet":962,"Ġus":963,"Ġhamburger":964,"Ġup":965,"ĠN":966,"Ġsqu":967,"Ġoli":968,"Ġwhole":969,"oodles":970,"Ġstrawberries":971,"ellow":972,"berry":973,"tle":974,"ges":975,"inger":976,"fore":977,"Ġrais":978,"meg":979,"Ġcookie":980,"let":981,"Ġpork":982,"lack":983,"Ġraisins":984,"Ġnutmeg":985,"Ġpeppers":986,"unch":987,"Ġseed":988,"Ġcups":989,"Ġyellow":990,"Ġsweet":991,"Ġice":992,"ĠChill":993,"Ġhalf":994,"eed":995,"Ġnoodles":996,"ew":997,"Ġbefore":998,"Ġsheet":999,"ĠCheese":1000,"Ġen":1001,"eal":1002,"Ġout":1003,"Ġcub":1004,"immer":1005,"Ġmushrooms":1006,"ds":1007,"ional":1008,"ĠTop":1009,"ĠDip":1010,"Ġwal":1011,"ĠDrain":1012,"ian":1013,"ĠJell":1014,"armes":1015,"armesan":1016,"ender":1017,"Ġset":1018,"Ġblack":1019,"oni":1020,"Ġlow":1021,"Ġfirst":1022,"isc":1023,"Ġginger":1024,"abb":1025,"ade":1026,"Ġcloves":1027,"Ġdone":1028,"Ġtender":1029,"abbage":1030,"ift":1031,"ĠParmesan":1032,"Ġpre":1033,"ĠHeat":1034,"Ġchill":1035,"arch":1036,"Ġpack":1037,"ens":1038,"ump":1039,"75":1040,"Ġlo":1041,"Ġseasoning":1042,"ac":1043,"Ġtea":1044,"ĠPre":1045,"urn":1046,"Ġother":1047,"Ġstirring":1048,"Ġwalnuts":1049,"meal":1050,"starch":1051,"ag":1052,"iscuit":1053,"Ġcornstarch":1054,"mooth":1055,"Ġput":1056,"Ġthick":1057,"Ġq":1058,"Ġdes":1059,"Ġcherry":1060,"Ġqt":1061,"Ġbroth":1062,"tain":1063,"ĠSh":1064,"erves":1065,"tional":1066,"tom":1067,"dens":1068,"densed":1069,"Ġsmooth":1070,"ried":1071,"pan":1072,"Ġwhites":1073,"ator":1074,"ead":1075,"Ġserve":1076,"chin":1077,"Ġnot":1078,"tra":1079,"Ġalmon":1080,"Ġ325":1081,"Ġwarm":1082,"Ġbottom":1083,"ĠButter":1084,"ĠAnd":1085,"Ġcondensed":1086,"ess":1087,"reasts":1088,"cc":1089,"ĠY":1090,"lend":1091,"Ġvegetable":1092,"ave":1093,"Ġcontain":1094,"Ġextra":1095,"ka":1096,"ran":1097,"Ġbag":1098,"issol":1099,"ĠBlend":1100,"Ġ375":1101,"ally":1102,"Ġcabbage":1103,"Ġsaucepan":1104,"rop":1105,"ightly":1106,"ĠPot":1107,"Ġbreasts":1108,"Ġyol":1109,"optional":1110,"Ġdough":1111,"ĠIt":1112,"ime":1113,"ĠRice":1114,"Ġlayer":1115,"Ġplace":1116,"Ġpeach":1117,"Ġone":1118,"risp":1119,"Ġ40":1120,"ired":1121,"arb":1122,"ute":1123,"Ġdash":1124,"Ġsoftened":1125,"Ġrefrigerator":1126,"ite":1127,"Ġpaper":1128,"Ġvegetables":1129,"Ġballs":1130,"reez":1131,"acar":1132,"Ġdesired":1133,"heat":1134,"Ġcooking":1135,"illet":1136,"quick":1137,"ately":1138,"Ġare":1139,"Ġsticks":1140,"Ġif":1141,"pe":1142,"Ġwhipped":1143,"Ġdire":1144,"est":1145,"Ġham":1146,"night":1147,"ize":1148,"ĠRefriger":1149,"acaroni":1150,"Ġthin":1151,"par":1152,"aw":1153,"lass":1154,"isco":1155,"Ġoranges":1156,"ucumb":1157,"arin":1158,"Ġbell":1159,"'s":1160,"ĠCho":1161,"Ġ25":1162,"Ġ7":1163,"Ġovernight":1164,"ĠBoil":1165,"ex":1166,"rika":1167,"Ġcontainer":1168,"ĠCookies":1169,"Ġpaprika":1170,"Ġby":1171,"ĠCrisco":1172,"ĠRefrigerate":1173,"Ġbiscuit":1174,"eep":1175,"alian":1176,"Ġskillet":1177,"row":1178,"rimp":1179,"Ġfood":1180,"Ġapple":1181,"Ġ400":1182,"ett":1183,"ĠChocolate":1184,"ec":1185,"ĠItalian":1186,"Ġextract":1187,"Ġfin":1188,"Ġcran":1189,"Ġcherries":1190,"fe":1191,"olden":1192,"ĠU":1193,"berries":1194,"Ġstrawberry":1195,"Ġpeel":1196,"elv":1197,"eeta":1198,"elveeta":1199,"Ġspread":1200,"atter":1201,"Ġtime":1202,"Ġyolks":1203,"ced":1204,"Ġcucumb":1205,"rease":1206,"Ġmo":1207,"pt":1208,"Ġwa":1209,"Ġtopping":1210,"vy":1211,"ĠBread":1212,"quart":1213,"icrow":1214,"oney":1215,"ĠVelveeta":1216,"rand":1217,"ris":1218,"wee":1219,"Ġpeas":1220,"fection":1221,"spoon":1222,"Ġmash":1223,"Ġuse":1224,"Ġteaspoon":1225,"Ġconfection":1226,"Ġpla":1227,"els":1228,"ĠCorn":1229,"ĠServes":1230,"tage":1231,"zz":1232,"east":1233,"Ġconfectioners":1234,"Ġmacaroni":1235,"ĠBring":1236,"Ġsize":1237,"icrowave":1238,"Ġflakes":1239,"cept":1240,"Ġlightly":1241,"og":1242,"Ġgolden":1243,"Ġliqu":1244,"Ġmore":1245,"ature":1246,"ding":1247,"kin":1248,"Ġcol":1249,"Ġunco":1250,"ich":1251,"Ġfinely":1252,"Ġminced":1253,"Ġwax":1254,"ĠĠ":1255,"ower":1256,"Ġtab":1257,"Ġyeast":1258,"Ġres":1259,"Ġyou":1260,"ucchin":1261,"atsup":1262,"ucchini":1263,"oughly":1264,"Ġcot":1265,"Ġsoft":1266,"aco":1267,"Ġpeaches":1268,"Ġcottage":1269,"inach":1270,"Ġpt":1271,"oroughly":1272,"Ġcatsup":1273,"Ġste":1274,"10":1275,"Ġmixed":1276,"ĠLay":1277,"Ġsoy":1278,"Ġsimmer":1279,"os":1280,"ton":1281,"ĠDrop":1282,"Ġflavoring":1283,"Ġslightly":1284,"Ġsprinkle":1285,"umpkin":1286,"poon":1287,"lespoon":1288,"elat":1289,"ĠMo":1290,"Ġolives":1291,"Ġtablespoon":1292,"Ġcolor":1293,"ano":1294,"Ġexcept":1295,"Ġthoroughly":1296,"Ġrolls":1297,"Ġmake":1298,"Ġliquid":1299,"16":1300,"Ġbuttered":1301,"tuce":1302,"Ġgelat":1303,"Ġket":1304,"Ġdill":1305,"Ġpl":1306,"Ġhoney":1307,"ric":1308,"ĠPreheat":1309,"ble":1310,"weetened":1311,"Ġservings":1312,"Ġ35":1313,"Ġpeanuts":1314,"Ġloaf":1315,"Ġlettuce":1316,"Ġstand":1317,"ĠBe":1318,"atmeal":1319,"Ġtor":1320,"ctions":1321,"Ġoff":1322,"etti":1323,"Ġfirm":1324,"ile":1325,"ĠFold":1326,"Ġde":1327,"Ġpim":1328,"Ġshrimp":1329,"yle":1330,"Ġpick":1331,"cent":1332,"lue":1333,"ings":1334,"oked":1335,"ghetti":1336,"aghetti":1337,"nch":1338,"ĠWhen":1339,"chup":1340,"ĠSl":1341,"Ġlime":1342,"andarin":1343,"tilla":1344,"iff":1345,"Ġketchup":1346,"Ġchops":1347,"Ġmashed":1348,"Ġchun":1349,"ful":1350,"Ġoats":1351,"its":1352,"Ġspoon":1353,"isquick":1354,"Ġhead":1355,"ĠTo":1356,"Ġbatter":1357,"Ġfreez":1358,"reg":1359,"12":1360,"elf":1361,"ella":1362,"ittle":1363,"urp":1364,"Ġstuff":1365,"Ġwill":1366,"Ġfry":1367,"led":1368,"Ġz":1369,"ĠBisquick":1370,"Ġcubes":1371,"arp":1372,"Ġrefrigerate":1373,"Ġunb":1374,"ĠLayer":1375,"Ġwine":1376,"Ġcombine":1377,"Ġolive":1378,"arella":1379,"zzarella":1380,"Ġenough":1381,"Ġaside":1382,"Ġtortilla":1383,"Ġsharp":1384,"ican":1385,"Ġmuff":1386,"Ġpotato":1387,"rench":1388,"Ġdo":1389,"range":1390,"Ġgelatin":1391,"tail":1392,"Ġmeal":1393,"oun":1394,"asy":1395,"regano":1396,"cktail":1397,"greased":1398,"Ġfat":1399,"Ġoregano":1400,"Ġbiscuits":1401,"rising":1402,"arbec":1403,"Ġpackage":1404,"ĠFrench":1405,"Ġtaco":1406,"Ġonto":1407,"lower":1408,"ĠFor":1409,"ĠMozzarella":1410,"Ġale":1411,"ose":1412,"ĠFruit":1413,"Ġblend":1414,"ud":1415,"ento":1416,"key":1417,"ares":1418,"ved":1419,"Ġcovered":1420,"orated":1421,"Ġfloured":1422,"vap":1423,"Ġunbaked":1424,"erb":1425,"Ġcucumbers":1426,"ĠBall":1427,"fter":1428,"Ġself":1429,"Ġzucchini":1430,"Ġlon":1431,"Ġevap":1432,"Ġblender":1433,"Ġwaf":1434,"Ġfoil":1435,"issolve":1436,"ape":1437,"Ġspinach":1438,"ĠThen":1439,"ind":1440,"Ġevaporated":1441,"Ġmandarin":1442,"Ġslice":1443,"Ġpimento":1444,"iel":1445,"can":1446,"Ġsift":1447,"Ġalmonds":1448,"Ġyour":1449,"Ġthaw":1450,"Ġthis":1451,"Ġdirections":1452,"Ġstuffing":1453,"Ġfine":1454,"ĠRo":1455,"Ġspaghetti":1456,"vered":1457,"Ġbottle":1458,"erry":1459,"Ġblended":1460,"ĠPotato":1461,"arbecue":1462,"Ġsquash":1463,"Ġpumpkin":1464,"Ġmixing":1465,"ording":1466,"ĠPean":1467,"Ġrest":1468,"Ġacc":1469,"Ġlittle":1470,"Ġdried":1471,"ray":1472,"Ġroast":1473,"Ġcocktail":1474,"cess":1475,"ĠCar":1476,"Ġcookies":1477,"Ġplain":1478,"Ġaccording":1479,"Ġoatmeal":1480,"Ġlemonade":1481,"Ġap":1482,"Ġcrab":1483,"Ġri":1484,"ĠBroccoli":1485,"ĠSw":1486,"ĠPeanut":1487,"Ġpo":1488,"Ġbrowned":1489,"ted":1490,"Ġpeeled":1491,"Ġpinch":1492,"una":1493,"ĠBrand":1494,"ĠEasy":1495,"ĠSift":1496,"ffee":1497,"agle":1498,"Ġtur":1499,"Ġcarton":1500,"Ġsifted":1501,"ne":1502,"Ġthicken":1503,"Ġsteak":1504,"Ġtart":1505,"rox":1506,"Qu":1507,"Ġslow":1508,"ĠMake":1509,"ider":1510,"Ġwhipping":1511,"ĠApple":1512,"Ġthawed":1513,"Ġte":1514,"ĠEagle":1515,"ĠSauce":1516,"urpose":1517,"roxim":1518,"aul":1519,"ark":1520,"Ġvery":1521,"stantly":1522,"Ġconstantly":1523,"cle":1524,"Ġglass":1525,"roximately":1526,"Ġcro":1527,"ĠQu":1528,"Ġalmond":1529,"Ġhand":1530,"Ġform":1531,"Ġwafers":1532,"Ġ16":1533,"ern":1534,"ke":1535,"aro":1536,"aulif":1537,"auliflower":1538,"ĠSimmer":1539,"ĠSe":1540,"ned":1541,"ĠSpoon":1542,"sc":1543,"izz":1544,"Ġclove":1545,"udge":1546,"Ġhea":1547,"ates":1548,"purpose":1549,"Ġcand":1550,"Ġround":1551,"ĠUse":1552,"ld":1553,"Ġpans":1554,"Ġ50":1555,"ĠKaro":1556,"ount":1557,"ĠBaked":1558,"mper":1559,"ĠYiel":1560,"Ġwhen":1561,"ĠSlice":1562,"ng":1563,"ually":1564,"ouble":1565,"ĠGrease":1566,"Ġheavy":1567,"Ġhard":1568,"bread":1569,"Ġcubed":1570,"Ġcranberry":1571,"ous":1572,"Ġcoloring":1573,"Ġbaked":1574,"Ġprepar":1575,"ricot":1576,"arts":1577,"Ġtub":1578,"mi":1579,"Ġ300":1580,"asil":1581,"Ġfork":1582,"ĠGra":1583,"Ġturn":1584,"Ġmuffin":1585,"ready":1586,"mperature":1587,"lish":1588,"Ġcider":1589,"ĠSto":1590,"Ġsquares":1591,"ides":1592,"Ġmini":1593,"und":1594,"Ġcle":1595,"Ġtemperature":1596,"ĠHot":1597,"otch":1598,"ĠDissolve":1599,"sa":1600,"Ġmixer":1601,"ĠChop":1602,"kra":1603,"Ġuns":1604,"Ġdissol":1605,"aves":1606,"Ġprepared":1607,"ĠLe":1608,"Ġstri":1609,"Ġsides":1610,"reak":1611,"ĠSwiss":1612,"ĠPunch":1613,"Ġblue":1614,"sweet":1615,"uck":1616,"izza":1617,"Ġbon":1618,"Ġmicrowave":1619,"Ġneed":1620,"urt":1621,"Ġwhile":1622,"ĠSoup":1623,"ĠSaute":1624,"Ġstiff":1625,"Ġready":1626,"ney":1627,"Ġinch":1628,"Ġhalves":1629,"Ġdates":1630,"Ġsemi":1631,"ppy":1632,"Ġjust":1633,"scotch":1634,"ĠDel":1635,"Ġtartar":1636,"Ġsc":1637,"ereal":1638,"ĠFro":1639,"Ġminute":1640,"rispies":1641,"estnuts":1642,"ogurt":1643,"Ġjars":1644,"rap":1645,"Ġshells":1646,"ices":1647,"Ġlayers":1648,"Ġdouble":1649,"Ġungreased":1650,"ĠPudding":1651,"Ġcornmeal":1652,"style":1653,"io":1654,"ĠPress":1655,"Ġtablespoons":1656,"Ġqu":1657,"lasses":1658,"ĠSweet":1659,"ĠDo":1660,"ular":1661,"Ġchestnuts":1662,"ull":1663,"dually":1664,"Ġcauliflower":1665,"ia":1666,"Ġbut":1667,"Ġside":1668,"own":1669,"Ġapproximately":1670,"Ġleast":1671,"Ġchilies":1672,"Ġcereal":1673,"ĠTurn":1674,"Ġkid":1675,"Ġam":1676,"ĠStrawber":1677,"Ġtw":1678,"iv":1679,"fat":1680,"ĠKrispies":1681,"ĠSqu":1682,"Ġgood":1683,"Ġstrips":1684,"itz":1685,"Ġcur":1686,"Ġafter":1687,"venly":1688,"ĠFry":1689,"Ġuncovered":1690,"ĠSo":1691,"Ġkidney":1692,"ira":1693,"reme":1694,"Ġtuna":1695,"Ġday":1696,"ipe":1697,"Ġcranberries":1698,"Ġbasil":1699,"ubb":1700,"Ġcrumbled":1701,"Ġchunks":1702,"Ġapricot":1703,"Ġyogurt":1704,"Ġkern":1705,"iracle":1706,"sting":1707,"cted":1708,"ĠStrawberry":1709,"ĠGr":1710,"ĠLemon":1711,"ĠBanan":1712,"Ġturkey":1713,"Ġbring":1714,"Ġmolasses":1715,"astry":1716,"nish":1717,"ĠFl":1718,"veral":1719,"eez":1720,"Ġuncooked":1721,"Ġslowly":1722,"asco":1723,"ĠMiracle":1724,"ĠRitz":1725,"Ġdissolved":1726,"Ġseveral":1727,"Ġdip":1728,"ig":1729,"Ġhash":1730,"Ġrasp":1731,"eets":1732,"vel":1733,"ĠFudge":1734,"Ġdirected":1735,"pare":1736,"ĠBanana":1737,"ĠTab":1738,"Ġcres":1739,"ĠFill":1740,"ĠPotatoes":1741,"Ġbutterscotch":1742,"Ġcrisp":1743,"Ġ24":1744,"ĠThis":1745,"ĠCra":1746,"Ġlike":1747,"Ġbubb":1748,"ĠSet":1749,"ĠTabasco":1750,"gular":1751,"Ġskin":1752,"Ġkernel":1753,"cipe":1754,"Ġremove":1755,"Ġfew":1756,"hub":1757,"hubarb":1758,"Ġraw":1759,"sert":1760,"Ġhe":1761,"Ġhor":1762,"adish":1763,"enter":1764,"oke":1765,"spice":1766,"ĠShape":1767,"ugar":1768,"Ġcrescent":1769,"ĠAr":1770,"ĠEgg":1771,"seradish":1772,"anch":1773,"bs":1774,"Ġpecan":1775,"Ġany":1776,"Ġpin":1777,"Ġsweetened":1778,"Ġnon":1779,"Ġsepar":1780,"Ġbou":1781,"tin":1782,"illon":1783,"Ġallspice":1784,"Ġlast":1785,"ĠMeat":1786,"Ġjelly":1787,"Ġcenter":1788,"Ġevenly":1789,"ĠBeef":1790,"Ġbouillon":1791,"ently":1792,"asta":1793,"Ġstal":1794,"Ġpastry":1795,"Ġplate":1796,"ĠBalls":1797,"Ġbits":1798,"Ġamount":1799,"Ġcanned":1800,"ĠCan":1801,"auce":1802,"apen":1803,"Ġcoffee":1804,"alapen":1805,"Ġhorseradish":1806,"Ġcaram":1807,"Ġbarbecue":1808,"ms":1809,"Ġweed":1810,"Ġgrease":1811,"rough":1812,"ĠPineapple":1813,"Ġseasoned":1814,"ters":1815,"Ġsalsa":1816,"ĠOn":1817,"Ġthrough":1818,"Ġbanana":1819,"ĠStore":1820,"ĠMex":1821,"ĠRed":1822,"Ġdown":1823,"tern":1824,"Ġregular":1825,"ild":1826,"Ġcons":1827,"ĠWith":1828,"Ġstew":1829,"bl":1830,"Ġar":1831,"rocess":1832,"Ġthem":1833,"Ġpat":1834,"Ġtortillas":1835,"Ġleaves":1836,"ĠLo":1837,"ĠMicrowave":1838,"Ġchilled":1839,"Ġtube":1840,"Ġkn":1841,"ĠPrepare":1842,"Ġpaste":1843,"ĠQuick":1844,"ccas":1845,"avor":1846,"ccasion":1847,"meat":1848,"Ġboiler":1849,"Ġcoat":1850,"ĠYields":1851,"ĠFreez":1852,"Ġoccasion":1853,"usts":1854,"avorite":1855,"erbet":1856,"Ġpress":1857,"tz":1858,"merican":1859,"Ġpart":1860,"Ġfreeze":1861,"Ġfish":1862,"Ġoccasionally":1863,"ĠDressing":1864,"Ġrind":1865,"uffy":1866,"ĠSalt":1867,"ĠYou":1868,"ĠMar":1869,"so":1870,"Ġminiature":1871,"Ġcrusts":1872,"pes":1873,"mes":1874,"Ġcreamy":1875,"Ġjalapen":1876,"Ġclean":1877,"ĠPecan":1878,"Ġsto":1879,"corn":1880,"Ġcrock":1881,"Ġtwo":1882,"Ġquick":1883,"ĠMin":1884,"Ġunsweetened":1885,"ĠTake":1886,"Ġdeep":1887,"very":1888,"Ġsalmon":1889,"Ġlong":1890,"ĠAmerican":1891,"Ġsm":1892,"ĠIf":1893,"Ġboxes":1894,"ĠSeason":1895,"pot":1896,"centr":1897,"other":1898,"Ġfreezer":1899,"ĠGar":1900,"less":1901,"Ġthat":1902,"Ġboth":1903,"Ġshall":1904,"Ġspeed":1905,"chino":1906,"aschino":1907,"Ġflaked":1908,"Ġroom":1909,"Ġcomp":1910,"fuls":1911,"15":1912,"man":1913,"Ġ*":1914,"Ġconcentr":1915,"Ġchi":1916,"ĠPeel":1917,"ĠSugar":1918,"ĠZ":1919,"ĠPepper":1920,"Ġmaraschino":1921,"about":1922,"ĠRanch":1923,"reat":1924,"Ġdark":1925,"Tel":1926,"amp":1927,"ĠMexican":1928,"ĠBeans":1929,"itos":1930,"Ġspray":1931,"Ġripe":1932,"Ġchuck":1933,"Ġhigh":1934,"Ġbrowns":1935,"Ġtoast":1936,"Ġusing":1937,"esson":1938,"eless":1939,"Ġblueberries":1940,"Ġapplesauce":1941,"Ġgrapes":1942,"Ġsherbet":1943,"Ġ425":1944,"ĠMay":1945,"Ġgran":1946,"edges":1947,"Ġcomplet":1948,"Ġcandy":1949,"Ġevery":1950,"Ġfold":1951,"ĠWesson":1952,"ation":1953,"cake":1954,"Ġpacked":1955,"Ġkeep":1956,"Ġboiled":1957,"enne":1958,"Ġfluffy":1959,"reast":1960,"Ġwaxed":1961,"ĠVegetab":1962,"Ġconcentrate":1963,"ĠOrange":1964,"ĠSausage":1965,"uer":1966,"ĠIce":1967,"isten":1968,"Ġlonger":1969,"ĠBreak":1970,"ĠOre":1971,"ext":1972,"ys":1973,"Ġprocess":1974,"ĠSc":1975,"Ġspices":1976,"kraut":1977,"velop":1978,"uerkraut":1979,"Ġpickles":1980,"not":1981,"Ġlean":1982,"Ġcooled":1983,"Ġchunk":1984,"Ġ450":1985,"ang":1986,"iled":1987,"tach":1988,"Ġsquare":1989,"ayenne":1990,"Ġgal":1991,"ĠWash":1992,"Ġshallow":1993,"ong":1994,"Ġfull":1995,"ĠCoconut":1996,"Ġrhubarb":1997,"ĠNo":1998,"Ġenvelop":1999,"Ġbunch":2000,"Ġboneless":2001,"Ġcompletely":2002,"Ġcayenne":2003,"Ġcreamed":2004,"Ġdro":2005,"ling":2006,"umin":2007,"ĠEng":2008,"istach":2009,"ĠBr":2010,"Ġcomes":2011,"Ġdeg":2012,"spar":2013,"20":2014,"Ġspice":2015,"istachio":2016,"ĠGreen":2017,"Ġhas":2018,"Ġstalks":2019,"Ġper":2020,"Ġraspberry":2021,"Ġpar":2022,"Ġcornbread":2023,"Ġfried":2024,"Ġmayo":2025,"ĠMon":2026,"ĠDream":2027,"irt":2028,"Ġthinly":2029,"Ġim":2030,"wich":2031,"ulated":2032,"Ġcucumber":2033,"ĠFreeze":2034,"ĠPick":2035,"Ġrings":2036,"ĠForm":2037,"ilad":2038,"Ġdri":2039,"Ġbars":2040,"ĠPound":2041,"Ġorder":2042,"erries":2043,"Ġpasta":2044,"Ġcarrot":2045,"ĠHigh":2046,"ĠArrange":2047,"Ġbreast":2048,"Ġseal":2049,"ĠCon":2050,"ĠEnglish":2051,"Ġbubbly":2052,"ĠMarin":2053,"Ġdozen":2054,"Ġpoppy":2055,"Ġele":2056,"Ġpretz":2057,"Ġbeating":2058,"Ġmold":2059,"Ġthickened":2060,"Ġbite":2061,"Ġgranulated":2062,"Up":2063,"ious":2064,"uns":2065,"aff":2066,"Ġcurry":2067,"ĠDes":2068,"Ġmel":2069,"Ġfavorite":2070,"uted":2071,"andwich":2072,"ĠSour":2073,"ĠBars":2074,"rained":2075,"Ġpop":2076,"14":2077,"ary":2078,"yme":2079,"ines":2080,"ĠDessert":2081,"Ġjalapeno":2082,"ĠCherry":2083,"rees":2084,"Ġused":2085,"Ġgrape":2086,"Ġne":2087,"Ġthyme":2088,"ĠNut":2089,"ined":2090,"ĠLoaf":2091,"ĠJello":2092,"Ġ60":2093,"ball":2094,"Ġberries":2095,"Ġaltern":2096,"Ġdegrees":2097,"Ġneeded":2098,"laz":2099,"Ġtoss":2100,"Ġsome":2101,"ĠVegetable":2102,"Ġseeds":2103,"undt":2104,"ort":2105,"cy":2106,"Ġpizza":2107,"any":2108,"Ġonce":2109,"Ġpunch":2110,"bon":2111,"ĠToss":2112,"ĠWrap":2113,"sparag":2114,"sparagus":2115,"Ġhave":2116,"ft":2117,"ĠCran":2118,"Ġanother":2119,"Ġgravy":2120,"medi":2121,"Ġpound":2122,"mediately":2123,"Ġaround":2124,"Ġquar":2125,"pick":2126,"ors":2127,"Ġ-":2128,"Ġme":2129,"ĠCheez":2130,"ied":2131,"Ġcoars":2132,"Ġaddit":2133,"ctric":2134,"aping":2135,"ĠWhiz":2136,"Ġsecon":2137,"Ġtooth":2138,"Ġpickle":2139,"tinue":2140,"ĠKn":2141,"Ġrecipe":2142,"ĠUn":2143,"Ġtoothpick":2144,"ĠAl":2145,"Ġbeen":2146,"Ġelectric":2147,"ĠBean":2148,"ĠPork":2149,"ĠCranberry":2150,"Ġdrops":2151,"ai":2152,"'t":2153,"Ġflat":2154,"Ġfrosting":2155,"ĠStuff":2156,"Ġag":2157,"Ġbet":2158,"ĠCand":2159,"ĠPet":2160,"Ġlemons":2161,"ĠBundt":2162,"oy":2163,"Ġenvelope":2164,"Ġsherry":2165,"Ġmarin":2166,"Ġsauerkraut":2167,"ĠPat":2168,"icious":2169,"ĠDump":2170,"stic":2171,"idd":2172,"Ġagain":2173,"ould":2174,"ĠGood":2175,"ife":2176,"ĠChil":2177,"ties":2178,"gel":2179,"ĠLine":2180,"pen":2181,"Ġplastic":2182,"Ġchoice":2183,"ca":2184,"ĠKeep":2185,"ĠSte":2186,"ĠGradually":2187,"ĠBlue":2188,"stit":2189,"ĠPeach":2190,"Ġpretzels":2191,"Ġdrop":2192,"ph":2193,"reserves":2194,"ty":2195,"Ġrise":2196,"ĠRolls":2197,"vo":2198,"ĠChili":2199,"fl":2200,"Ġadding":2201,"ive":2202,"ĠThe":2203,"wh":2204,"Ġangel":2205,"ĠGarnish":2206,"Ġchives":2207,"Ġcrabmeat":2208,"ĠCrumb":2209,"ĠSquash":2210,"Ġfrying":2211,"nut":2212,"Ġtow":2213,"ĠTater":2214,"by":2215,"ĠBarbecue":2216,"balls":2217,"Ġseasonings":2218,"ots":2219,"Ġmelts":2220,"Ġpimentos":2221,"No":2222,"Ġherb":2223,"ĠHam":2224,"ool":2225,"Ġpistachio":2226,"ĠTom":2227,"Ġwhip":2228,"heated":2229,"Ġshape":2230,"Ġimmediately":2231,"ken":2232,"Ġknife":2233,"ĠCarro":2234,"cad":2235,"ame":2236,"Ġund":2237,"Ġbeets":2238,"eg":2239,"ĠBiscuit":2240,"istency":2241,"Ġtoo":2242,"Ġbroil":2243,"ĠPizza":2244,"Ġplus":2245,"ĠOnion":2246,"Ġconsistency":2247,"Ġalso":2248,"peat":2249,"Ġsub":2250,"vocad":2251,"Ġrum":2252,"ner":2253,"Ġheaping":2254,"affin":2255,"Ġgradually":2256,"Ġrelish":2257,"ĠMinute":2258,"Ġparaffin":2259,"erman":2260,"ĠOld":2261,"Ġsalted":2262,"ĠPumpkin":2263,"ĠPam":2264,"ized":2265,"ĠReduce":2266,"cakes":2267,"iluted":2268,"bler":2269,"Ġwheat":2270,"orsels":2271,"ĠOr":2272,"law":2273,"Ġmorsels":2274,"Ġpreserves":2275,"ĠJack":2276,"ollow":2277,"Ġbay":2278,"Ġsubstit":2279,"Ġ14":2280,"ĠShrimp":2281,"ĠMarshmallow":2282,"Ġbroken":2283,"ĠCrust":2284,"ĠDelight":2285,"Ġoys":2286,"Ġcoated":2287,"Ġcheddar":2288,"cooked":2289,"ĠFried":2290,"Ġmois":2291,"ving":2292,"unchy":2293,"int":2294,"Ġ11":2295,"Ġbar":2296,"ĠGerman":2297,"Ġgently":2298,"allon":2299,"ĠZucchini":2300,"Ġleaf":2301,"Ġpepperoni":2302,"ĠOreo":2303,"ome":2304,"ĠSpinach":2305,".\\":2306,"Ġ18":2307,"ĠCup":2308,"ĠMash":2309,"Ġrefrigerated":2310,"ets":2311,"Ġnext":2312,"Ġpreheated":2313,"ĠAfter":2314,"Ġlen":2315,"Ġstove":2316,"pl":2317,"ĠHa":2318,"ting":2319,"Ġpopcorn":2320,"Ġasparagus":2321,"ĠSup":2322,"imes":2323,"bbler":2324,"esame":2325,"ĠAng":2326,"Ġavocad":2327,"Ġflavored":2328,"ĠBiscuits":2329,"ĠCandy":2330,"Ġadded":2331,"ace":2332,"lets":2333,"ĠApp":2334,"Ġart":2335,"Ġtoasted":2336,"lit":2337,"Ġcaramels":2338,"oles":2339,"Ġheated":2340,"ĠCrisp":2341,"ĠMuff":2342,"ppings":2343,"Ġhands":2344,"ĠTea":2345,"ĠCrab":2346,"free":2347,"ĠAcc":2348,"ĠRa":2349,"allop":2350,"hey":2351,"Ġback":2352,"wise":2353,"Ġdrippings":2354,"ĠPh":2355,"amel":2356,"ĠFr":2357,"Ġnonfat":2358,"irtight":2359,"ĠAccent":2360,"Ġairtight":2361,"Ġgallon":2362,"boiled":2363,"ĠCamp":2364,"ĠCobbler":2365,"ĠAngel":2366,"Ġbrand":2367,"All":2368,"Ġstore":2369,"Ġquart":2370,"iny":2371,"inse":2372,"iffy":2373,"ershey":2374,"Ġdays":2375,"Ġrolled":2376,"ogs":2377,"aking":2378,"made":2379,"ĠCrumble":2380,"Ġbean":2381,"Ġoun":2382,"Ġalternately":2383,"Ġyolk":2384,"joy":2385,"Ġbuns":2386,"ante":2387,"Ġchop":2388,"ĠCrack":2389,"Ġlid":2390,"out":2391,"ĠHershey":2392,"Ġsage":2393,"ĠTaco":2394,"ness":2395,"Ġbags":2396,"Ġcl":2397,"Ġwee":2398,"ĠBrownies":2399,"icante":2400,"Ġonly":2401,"for":2402,"ĠJiffy":2403,"Ġcaramel":2404,"eri":2405,"Ġsesame":2406,"Ġreal":2407,"Ġdi":2408,"qual":2409,"ĠCaramel":2410,"ĠChe":2411,"ivid":2412,"bell":2413,"Ġseparate":2414,"Ġpinto":2415,"ĠDiv":2416,"Ġteaspoons":2417,"Ġel":2418,"Ġthey":2419,"ĠMuffins":2420,"ĠKool":2421,"Ġmild":2422,"Ġtightly":2423,"ĠAll":2424,"tc":2425,"Ġ250":2426,"Ġcla":2427,"ĠRepeat":2428,"ĠOatmeal":2429,"Ġpiece":2430,"Ġmuffins":2431,"ĠFrosting":2432,"Ġsoups":2433,"),":2434,"ĠCreme":2435,"Ġgarnish":2436,"ĠVeg":2437,"ĠRoast":2438,"ĠFresh":2439,"plant":2440,"ĠGreat":2441,"laze":2442,"Ġpatties":2443,"ma":2444,"ons":2445,"ĠDor":2446,"Ġbott":2447,"zzle":2448,"Ġcornfl":2449,"gth":2450,"Ġbreak":2451,"ĠPickles":2452,"Aid":2453,"thing":2454,"bow":2455,"ĠCabbage":2456,"Ġmade":2457,"ions":2458,"Ġturning":2459,"uk":2460,"ĠCampbell":2461,"Ġlength":2462,"we":2463,"ĠDe":2464,"do":2465,"ĠHambur":2466,"ĠCrush":2467,"inner":2468,"Ġetc":2469,"bits":2470,"Ġpicante":2471,"ĠShake":2472,"Ġfour":2473,"Ġpit":2474,"ĠYield":2475,"uncan":2476,"aple":2477,"Ġseconds":2478,"ĠSpray":2479,"ĠDelicious":2480,"Ġtimes":2481,"omemade":2482,"fer":2483,"Ġartich":2484,"rye":2485,"Ġspoonfuls":2486,"Ġrye":2487,"Ġshake":2488,"Ġcrunchy":2489,"Ġforms":2490,"Ġic":2491,"Ġedges":2492,"Ġwrap":2493,"most":2494,"phia":2495,"elphia":2496,"iladelphia":2497,"ĠSteak":2498,"ĠStew":2499,"Ġrack":2500,"ering":2501,"olid":2502,"Ġwhis":2503,"ĠPan":2504,"Ġcumin":2505,"ĠKra":2506,"Ġstage":2507,"Ġgi":2508,"Ġtap":2509,"Ġserved":2510,"Ġpears":2511,"ĠPhiladelphia":2512,"ini":2513,"Ġsli":2514,"Ġprocessor":2515,"Ġsandwich":2516,"ial":2517,"fast":2518,"ĠCornbread":2519,"Ġicing":2520,"Ġcube":2521,"Ġbeer":2522,"Ġsubstitute":2523,"ipton":2524,"Ġreserv":2525,"Ġfryer":2526,"ĠMacaroni":2527,"Ġeat":2528,"ĠPart":2529,"Ġapart":2530,"Ġbeg":2531,"Ġgrain":2532,"ĠDuncan":2533,"Ġsmoke":2534,"ĠSupreme":2535,"ĠDot":2536,"ĠDoritos":2537,"Ġfirmly":2538,"Ġadditional":2539,"Ġthree":2540,"ĠChip":2541,"lu":2542,"ah":2543,"ĠDi":2544,"ĠLipton":2545,"Ġokra":2546,"Ġseparated":2547,"ioca":2548,"Ġstyle":2549,"eringue":2550,"ail":2551,"Ġbr":2552,"Ġoften":2553,"Ġmint":2554,"terey":2555,"Ġjuices":2556,"Ġcorned":2557,"ĠHines":2558,"Ġchunky":2559,"Ġhamburg":2560,"Ġno":2561,"meric":2562,"ĠWhile":2563,"Ġrolling":2564,"Ġremo":2565,"Ġwash":2566,"Ġskim":2567,"ĠFarm":2568,"Ġalmost":2569,"Ġturmeric":2570,"Ġquarter":2571,"ĠVal":2572,"Ġsaute":2573,"Ġclear":2574,"ible":2575,"Ġpickling":2576,"ween":2577,"Ġstill":2578,"Ġshould":2579,"ĠMonterey":2580,"Ġelbow":2581,"ĠSquares":2582,"Ġfil":2583,"Ġ\\":2584,"utons":2585,"Ġhearts":2586,"Ġlard":2587,"alor":2588,"Ġbetween":2589,"ĠHamburger":2590,"Ġblueberry":2591,"ola":2592,"Ġslivered":2593,"Ġcandied":2594,"Ġlengthwise":2595,"way":2596,"Ġless":2597,"Ġtapioca":2598,"flavor":2599,"ĠValley":2600,"Ġmaple":2601,"gs":2602,"Ġgrill":2603,"ny":2604,"egg":2605,"stick":2606,"ĠBlueberry":2607,"Ġbaby":2608,"Ġtid":2609,"Ġcoarsely":2610,"Ġwhich":2611,"ĠTuna":2612,"coop":2613,"lings":2614,"ĠKnead":2615,"ĠMushroom":2616,"Ġthickens":2617,"Ġcroutons":2618,"uss":2619,"Ġholes":2620,"ket":2621,"Ġstewed":2622,"ĠCoffee":2623,"ĠWill":2624,"Ġ'":2625,"ingers":2626,"Ġdissolve":2627,"Ġeverything":2628,"app":2629,"ially":2630,"ĠMe":2631,"ĠMilk":2632,"Ġbottles":2633,"Ġcornflakes":2634,"oul":2635,"idge":2636,"ĠParty":2637,"Ġtidbits":2638,"cing":2639,"size":2640,"Ġgiven":2641,"Ġsheets":2642,"Ġdogs":2643,"Ġsq":2644,"ĠTomato":2645,"blong":2646,"Ġ\"":2647,"Ġwedges":2648,"Ġskinless":2649,"ĠBrush":2650,"ĠGrand":2651,"Ġwork":2652,"icot":2653,"idden":2654,"uth":2655,"yre":2656,"ĠHomemade":2657,"Ġsure":2658,"ashion":2659,"flavored":2660,"yrex":2661,"Ġoblong":2662,"Ġ&":2663,"Ġweeks":2664,"ĠChops":2665,"Ġdrink":2666,"Ġcrumbly":2667,"anish":2668,"ĠCro":2669,"ĠHidden":2670,"Ġstock":2671,"de":2672,"ĠCustard":2673,"Ġbroiler":2674,"ĠBest":2675,"ĠStuffed":2676,"ften":2677,"Ġwings":2678,"iento":2679,"ĠMarinate":2680,"uring":2681,"Ġeggplant":2682,"omme":2683,"ĠWhite":2684,"Ġribs":2685,"ĠKraft":2686,"Ġtops":2687,"Ġ55":2688,"ĠPo":2689,"ĠRecipe":2690,"Ġmoder":2691,"ĠSoften":2692,"nation":2693,"Ġpopped":2694,"13":2695,"ĠTw":2696,"ĠFrost":2697,"ĠPepperidge":2698,"ĠPyrex":2699,"Ġsur":2700,"ĠFrozen":2701,"Ġglaze":2702,"ĠSm":2703,"Ġfillets":2704,"Ġpimiento":2705,"Ġtins":2706,"fried":2707,"use":2708,"Ġconsomme":2709,"Ġtake":2710,"Ġpure":2711,"ĠChris":2712,"Ġwithout":2713,"Ġquarts":2714,"Ġcontainers":2715,"ĠSoak":2716,"inese":2717,"Ġinst":2718,"iron":2719,"fro":2720,"ĠDivide":2721,"ĠTots":2722,"ĠCarnation":2723,"Ġclams":2724,"tm":2725,"ĠTur":2726,"uminum":2727,"ĠCarrot":2728,"Ġboard":2729,"ĠSpaghetti":2730,"Ġche":2731,"asure":2732,"ĠStove":2733,"ĠScallop":2734,"ĠContinue":2735,"ewarm":2736,"ukewarm":2737,"ĠEggs":2738,"Ch":2739,"ĠSlow":2740,"ĠChinese":2741,"Ġwant":2742,"head":2743,"ĠSlaw":2744,"Ġaluminum":2745,"Ġcontinue":2746,"ĠLow":2747,"Ġbest":2748,"ĠBreakfast":2749,"ams":2750,"icotta":2751,"small":2752,"orm":2753,"Ġmakes":2754,"Ġraspberries":2755,"Ġlukewarm":2756,"ĠCreamy":2757,"agna":2758,"ĠTang":2759,"Ġfollow":2760,"ĠBroil":2761,"Ġinches":2762,"Ġfudge":2763,"Ġlim":2764,"Ġteaspoonfuls":2765,"ĠFritos":2766,"ĠDish":2767,"acho":2768,"Ġtowel":2769,"ĠJust":2770,"Ġpies":2771,"ĠSk":2772,"Ġtri":2773,"try":2774,"ina":2775,"ieners":2776,"ĠButtermilk":2777,"uch":2778,"ĠDough":2779,"ĠOven":2780,"awai":2781,"ĠAllow":2782,"Ġmoderate":2783,"Ġstems":2784,"ored":2785,"Ġget":2786,"Ġscall":2787,"awaiian":2788,"ĠRais":2789,"inches":2790,"atch":2791,"utch":2792,"ĠDri":2793,"geal":2794,"ĠPop":2795,"ĠHawaiian":2796,"Ġkind":2797,"ĠRicotta":2798,"Ġfre":2799,"Ġcutter":2800,"ĠWater":2801,"Ġsurf":2802,"Ġdel":2803,"ously":2804,"ĠChristm":2805,"rag":2806,"ĠCakes":2807,"Ġbark":2808,"Ġinser":2809,"Ġmeatballs":2810,"ĠCoat":2811,"alted":2812,"oultry":2813,"ĠGrill":2814,"Ġinserted":2815,"tover":2816,"Ġmeringue":2817,"ĠSalmon":2818,"dry":2819,"Ġexcess":2820,"quently":2821,"ĠStyle":2822,"Ġfrequently":2823,"with":2824,"Ġmein":2825,"Ġloaves":2826,"Ġoyster":2827,"Ġreduce":2828,"weeten":2829,"ning":2830,"Ġunder":2831,"ĠSpanish":2832,"Ġbrandy":2833,"11":2834,"ĠIcing":2835,"ftover":2836,"icy":2837,"ĠChristmas":2838,"Ġsurface":2839,"nack":2840,"Ġallow":2841,"ĠSlowly":2842,"Ġpink":2843,"Ġpoultry":2844,"ĠVanilla":2845,"Ġjam":2846,"Ġknead":2847,"Ġsun":2848,"cr":2849,"ĠDutch":2850,"Ġrefried":2851,"peel":2852,"Ġdon":2853,"Ġfreshly":2854,"Ġwalnut":2855,"Ġcomb":2856,"Ġcare":2857,"mary":2858,"ĠHoney":2859,"oodle":2860,"ĠApples":2861,"ragon":2862,"Ġsprayed":2863,"ĠCracker":2864,"ĠBa":2865,"arragon":2866,"Ġparty":2867,"ecor":2868,"jon":2869,"airy":2870,"ĠPack":2871,"Ġundrained":2872,"Ġundiluted":2873,"Ġapricots":2874,"Ġgelatine":2875,"Ġquartered":2876,"Ġhalved":2877,"Ġsugars":2878,"ĠSandwich":2879,"Ġboned":2880,"Ġcoarse":2881,"odka":2882,"ĠSn":2883,"Ġbone":2884,"etiz":2885,"Ġquickly":2886,"Ġscallions":2887,"eturn":2888,"ĠReturn":2889,"ĠCucumb":2890,"Ġrose":2891,"Ġcrumble":2892,"Ġseedless":2893,"Ġounce":2894,"Ġchiles":2895,"eeze":2896,"ĠHash":2897,"ssible":2898,"ener":2899,"ĠDrizzle":2900,"Ġiron":2901,"Ġblo":2902,"Ġlined":2903,"antro":2904,"ilantro":2905,"Ġlis":2906,"peeled":2907,"oam":2908,"ĠEn":2909,"ctar":2910,"ĠRaisin":2911,"ĠDill":2912,"Ġtarragon":2913,"ĠSeal":2914,"ffle":2915,"ĠDijon":2916,"ĠScalloped":2917,"ual":2918,"Ġbig":2919,"no":2920,"ingle":2921,"Ġlit":2922,"Ġcareful":2923,"ĠCrunch":2924,"ashew":2925,"Ġquarters":2926,"erm":2927,"cessary":2928,"edge":2929,"ĠCrock":2930,"my":2931,"ople":2932,"Ġcilantro":2933,"Ġparts":2934,"Ġflower":2935,"Ġnecessary":2936,"Ġahead":2937,"Ġlisted":2938,"46":2939,"ĠChex":2940,"Ġtbsp":2941,"able":2942,"flower":2943,"Ġsweeten":2944,"Ġvodka":2945,"Ġbegins":2946,"Ġbul":2947,"als":2948,"Ġsit":2949,"ĠJo":2950,"Ġwieners":2951,"Ġrosemary":2952,"ĠThaw":2953,"ĠToast":2954,"ĠRel":2955,"Ġavocado":2956,"ear":2957,"side":2958,"ily":2959,"ages":2960,"ĠPancakes":2961,"Ġpeak":2962,"Ġthickness":2963,"unt":2964,"loin":2965,"Ġpartially":2966,"cho":2967,"ĠRuss":2968,"ĠTex":2969,"cook":2970,"ist":2971,"Ġmeats":2972,"Ġmarinate":2973,"ĠCinnamon":2974,"Ġequal":2975,"ĠRelish":2976,"ĠTri":2977,"ĠHell":2978,"iddle":2979,"ĠMandarin":2980,"bu":2981,"ourbon":2982,"Ġleftover":2983,"ĠGrate":2984,"aker":2985,"Ġmoist":2986,"Ġcalor":2987,"Ġsplit":2988,"Ġsteaks":2989,"Ġscal":2990,"Ġwood":2991,"Ġdinner":2992,"Ġscoop":2993,"Ġsprink":2994,"ĠGarlic":2995,"Ġtowels":2996,"Ġsmoked":2997,"Ġunsalted":2998,"Ġmarinade":2999,"Ġind":3000,"ountry":3001,"ere":3002,"Ġlite":3003,"routs":3004,"ĠSeed":3005,"Ġlas":3006,"Ġsingle":3007,"ĠLea":3008,"Ġbetter":3009,"Ġavocados":3010,"ĠSepar":3011,"Ġclub":3012,"ashioned":3013,"ĠTurkey":3014,"ĠChess":3015,"mint":3016,"Ġunflavored":3017,"ĠRhubarb":3018,"ĠCarrots":3019,"eaten":3020,"ĠUs":3021,"Ġtin":3022,"Ġlima":3023,"ĠPasta":3024,"ĠOne":3025,"Ġsunflower":3026,"Ġchow":3027,"Ġalum":3028,"ĠMeatballs":3029,"ĠNext":3030,"ĠGrandma":3031,"Ġfruits":3032,"Ġmiddle":3033,"Ġblock":3034,"eeps":3035,"Ġnonstick":3036,"bury":3037,"Ġchipped":3038,"bove":3039,"risket":3040,"Ġvegg":3041,"Ġabove":3042,"Ġnectar":3043,"ĠYum":3044,"Ġopen":3045,"Ġartichoke":3046,"ĠRinse":3047,"ominy":3048,"Ġpint":3049,"Ġwhisk":3050,"eses":3051,"Ġpul":3052,"ath":3053,"Ġfoam":3054,"ĠBlack":3055,"Ġenjoy":3056,"Ġwire":3057,"ĠRussian":3058,"ipped":3059,"Ġoysters":3060,"ĠCa":3061,"ĠLightly":3062,"dish":3063,"Ġrinse":3064,"Ġskinned":3065,"Ġwooden":3066,"Ġpancake":3067,"iche":3068,"Ġwild":3069,"ĠMom":3070,"approximately":3071,"ĠSeparate":3072,"aster":3073,"ĠLime":3074,"ecial":3075,"te":3076,"uice":3077,"Ġwafer":3078,"ĠFlour":3079,"Ġaddition":3080,"Ġprefer":3081,"ĠPr":3082,"cans":3083,"oliday":3084,"ĠVery":3085,"Ġbulk":3086,"ison":3087,"Ġcashew":3088,"fresh":3089,"ĠBur":3090,"Ġburn":3091,"ĠEnjoy":3092,"Ġdev":3093,"ĠTexas":3094,"ĠUsing":3095,"Ġsteam":3096,"Ġpeople":3097,"ĠSpiced":3098,"mann":3099,"ĠWal":3100,"Ġwashed":3101,"Ġglasses":3102,"Ġsprouts":3103,"ier":3104,"ĠGrind":3105,"Ġcheeses":3106,"Ġgreens":3107,"Ġsweetener":3108,"Ġown":3109,"ĠCheesecake":3110,"Ġreserved":3111,"ĠDumplings":3112,"ĠBacon":3113,"Ġmaking":3114,"Ġcutting":3115,"ĠSouth":3116,"ivided":3117,"ills":3118,"ths":3119,"save":3120,"Ġmuch":3121,"enison":3122,"Ġcap":3123,"ity":3124,"meter":3125,"cover":3126,"Ġspring":3127,"Ġend":3128,"ĠPuff":3129,"ĠMold":3130,"Ġgreat":3131,"Ġplatter":3132,"Ġgener":3133,"Ġpeaks":3134,"Ġnacho":3135,"ĠNe":3136,"agne":3137,"Ġpr":3138,"ears":3139,"ĠDate":3140,"ĠSplit":3141,"Ġpulp":3142,"ĠOreos":3143,"ilada":3144,"ĠMarinated":3145,"Ġedge":3146,"arge":3147,"lazed":3148,"ĠBatter":3149,"fish":3150,"Ġpitted":3151,"Ġveggies":3152,"ank":3153,"ĠHeath":3154,"ĠCol":3155,"Ġdivided":3156,"Ġpeppermint":3157,"of":3158,"Ġgrits":3159,"Ġcolored":3160,"Ġdessert":3161,"ĠLa":3162,"Ġhold":3163,"Ġsoften":3164,"illsbury":3165,"Ġremainder":3166,"Ġsecond":3167,"Ġscalded":3168,"ĠOf":3169,"Ġdot":3170,"Ġsame":3171,"Ġmoistened":3172,"ĠDice":3173,"ĠBran":3174,"ents":3175,"Ġstarts":3176,"ĠAp":3177,"ĠGravy":3178,"ĠDon":3179,"urple":3180,"ĠCucumber":3181,"Ġlevel":3182,"boned":3183,"ĠHellmann":3184,"Ġtray":3185,"cup":3186,"esy":3187,"Ġindivid":3188,"ating":3189,"orb":3190,"ĠFlake":3191,"Ġbourbon":3192,"reach":3193,"Ġring":3194,"Ġfrost":3195,"Ġbubbles":3196,"Pot":3197,"vers":3198,"Ġinc":3199,"ĠBar":3200,"Ġsn":3201,"Ġbrownie":3202,"ĠPillsbury":3203,"Ġleave":3204,"Ġdeboned":3205,"uncooked":3206,"Ġsections":3207,"iet":3208,"Ġstalk":3209,"ĠPoppy":3210,"Ġarrange":3211,"Th":3212,"Ġdoz":3213,"may":3214,"ĠUncover":3215,"Ġbit":3216,"Ġabs":3217,"Ġunpeeled":3218,"ettuc":3219,"ĠTomatoes":3220,"Ġpuree":3221,"add":3222,"ĠFish":3223,"Ġseeded":3224,"fruit":3225,"Ġbrush":3226,"ĠLeave":3227,"Ġstart":3228,"ĠSpecial":3229,"undrained":3230,"ingu":3231,"Ġcoating":3232,"Ġounces":3233,"ĠGrape":3234,"Ġremoving":3235,"box":3236,"Ġbas":3237,"ĠCheesy":3238,"ĠFavorite":3239,"Ġthese":3240,"Ġlasagna":3241,"av":3242,"orted":3243,"Ġliter":3244,"thy":3245,"ru":3246,"Ġ275":3247,"okes":3248,"Ġdissolves":3249,"Ġits":3250,"away":3251,"Ġroasting":3252,"Ġcakes":3253,"ĠPu":3254,"Ġroasted":3255,"ĠRom":3256,"Ġass":3257,"Ġtiny":3258,"Ġfran":3259,"Ġbunches":3260,"ĠApricot":3261,"ouse":3262,"Ġsaltine":3263,"Ġyams":3264,"ĠRes":3265,"Ġcustard":3266,"ple":3267,"ĠQuiche":3268,"ĠCocktail":3269,"ĠTr":3270,"Ġabsorb":3271,"Ġshap":3272,"Ġflatten":3273,"alade":3274,"ĠCl":3275,"Ġradish":3276,"Ġcooker":3277,"Ġbones":3278,"Ġcreamer":3279,"Ġjalapenos":3280,"roof":3281,"Ġreach":3282,"inal":3283,"Ġduring":3284,"oe":3285,"ĠWork":3286,"Ġcaraway":3287,"ddle":3288,"Ġthan":3289,"ĠShred":3290,"ptional":3291,"Ġpounds":3292,"ĠCauliflower":3293,"lua":3294,"ahlua":3295,"Ġpear":3296,"18":3297,"Ġbeco":3298,"mm":3299,"bas":3300,"Ġpurple":3301,"ouch":3302,"Ġhominy":3303,"Ġbeater":3304,"ĠAltern":3305,"land":3306,"Ġcir":3307,"ĠCookie":3308,"Ġrounded":3309,"ock":3310,"Ġfive":3311,"Ġwide":3312,"ormel":3313,"Ġline":3314,"ĠCal":3315,"riddle":3316,"ĠEqual":3317,"Fat":3318,"ĠIr":3319,"fry":3320,"ĠBen":3321,"ĠAunt":3322,"ĠPea":3323,"ght":3324,"Ġartichokes":3325,"Ġster":3326,"ouffle":3327,"Ġench":3328,"turn":3329,"undiluted":3330,"Ġcombined":3331,"Ġport":3332,"Ġsave":3333,"Ġflowerets":3334,"ĠPro":3335,"ĠWheat":3336,"aving":3337,"ĠArt":3338,"Ġeasy":3339,"ĠSnack":3340,"Ġcandies":3341,"Ġbrisket":3342,"ĠHormel":3343,"Ġassorted":3344,"Ġflake":3345,"Ġstack":3346,"iscard":3347,"Ġcarefully":3348,"bone":3349,"ĠKeeps":3350,"Ġtoothpicks":3351,"ĠSouthern":3352,"Ġfri":3353,"cut":3354,"ĠFlat":3355,"ĠBrittle":3356,"ĠBo":3357,"ĠSalsa":3358,"ĠHoliday":3359,"ĠUncle":3360,"Ġreserving":3361,"Ġremoved":3362,"ĠBefore":3363,"Ġlook":3364,"high":3365,"tal":3366,"spberry":3367,"Ġcome":3368,"ĠOver":3369,"ĠGran":3370,"Ġgriddle":3371,"mond":3372,"Ġflavors":3373,"ĠGraham":3374,"ĠReserve":3375,"amily":3376,"ĠSave":3377,"ĠSeven":3378,"!!":3379,"Ġrect":3380,"except":3381,"ĠGolden":3382,"Ġalong":3383,"Ġfire":3384,"ĠSpr":3385,"Ġleaving":3386,"ĠIrish":3387,"Ġcurd":3388,"large":3389,"Ġwhiskey":3390,"uteed":3391,"areri":3392,"Ġrins":3393,"ĠAppetiz":3394,"Ġfoamy":3395,"ĠArtich":3396,"Ġcongeal":3397,"Ġsoak":3398,"Ġending":3399,"Ġspoonful":3400,"ĠKahlua":3401,"Ġradishes":3402,"Ġenchilada":3403,"Ġreturn":3404,"Ġrun":3405,"Ġindividual":3406,"ĠFlatten":3407,"Ġspri":3408,"Ġlump":3409,"Ġcored":3410,"Ġcalories":3411,"Ġgo":3412,"ĠHave":3413,"Ġinstru":3414,"areribs":3415,"ĠPies":3416,"Ġskins":3417,"Ġchip":3418,"arter":3419,"ielbas":3420,"pending":3421,"ug":3422,"estle":3423,"ĠDinner":3424,"Ġdelicious":3425,"Ġrinsed":3426,"Ġcashews":3427,"ĠJam":3428,"Ġsolid":3429,"ĠIs":3430,"ĠCocoa":3431,"Ġfollowing":3432,"ecorate":3433,"ermo":3434,"Ġdrizzle":3435,"Le":3436,"Ġinside":3437,"ĠMushrooms":3438,"Ġpers":3439,"Ġway":3440,"Ġreserve":3441,"Ġfinish":3442,"Ġcreme":3443,"ĠNoodles":3444,"ik":3445,"rise":3446,"Ġlimeade":3447,"Ġmarm":3448,"ĠArtichoke":3449,"Ġmarmalade":3450,"ond":3451,"Ġoverb":3452,"ĠNot":3453,"ĠFrit":3454,"Makes":3455,"ĠMa":3456,"Ġtight":3457,"Ġgrapefruit":3458,"white":3459,"Ġdipping":3460,"Ġstring":3461,"ĠPopcorn":3462,"jor":3463,"ĠGo":3464,"ĠFood":3465,"lay":3466,"ĠButterscotch":3467,"Ġ32":3468,"Ġpoint":3469,"gers":3470,"ĠSurp":3471,"ye":3472,"lain":3473,"Ġlingu":3474,"ĠRomano":3475,"ib":3476,"ĠCups":3477,"Ġmon":3478,"low":3479,"Ġsandwiches":3480,"Ġkettle":3481,"Ġpacket":3482,"Ġprun":3483,"lean":3484,"ĠGinger":3485,"ĠNestle":3486,"asily":3487,"ĠCat":3488,"Ġac":3489,"ĠPer":3490,"ouple":3491,"Ġtwice":3492,"uced":3493,"mix":3494,"ĠRub":3495,"ĠPretz":3496,"ĠMeasure":3497,"Lemon":3498,"ĠPuffs":3499,"ady":3500,"mmer":3501,"proof":3502,"ander":3503,"ĠStick":3504,"ĠPickled":3505,"enough":3506,"Ġeasily":3507,"lime":3508,"mar":3509,"Ġsized":3510,"Ġbran":3511,"idal":3512,"Ġharden":3513,"Ġcouple":3514,"ĠDirt":3515,"ĠCre":3516,"ĠNoodle":3517,"ĠAlternate":3518,"ĠHe":3519,"Ġpossible":3520,"ĠPistachio":3521,"ĠFilling":3522,"ĠGently":3523,"ĠFluff":3524,"luding":3525,"ĠSprite":3526,"32":3527,"dge":3528,"ĠNew":3529,"ĠGlazed":3530,"igs":3531,"Ġpints":3532,"ĠDev":3533,"ĠSkillet":3534,"Ġwet":3535,"Ġboils":3536,"Ġinstructions":3537,"idalia":3538,"ĠSurprise":3539,"arbecu":3540,"ĠTwink":3541,"aki":3542,"frozen":3543,"Ġoptional":3544,"Ġdump":3545,"ither":3546,"Ġspears":3547,"Ġhole":3548,"Ġvenison":3549,"Ġ36":3550,"ĠIcebox":3551,"Ġsteril":3552,"dairy":3553,"Ġfingers":3554,"joram":3555,"Ġoiled":3556,"alf":3557,"ĠRam":3558,"ĠSouffle":3559,"ĠAsparagus":3560,"iginal":3561,"ielbasa":3562,"rs":3563,"Ġmarjoram":3564,"orning":3565,"Ġaway":3566,"ĠProcess":3567,"Ġspreading":3568,"da":3569,"Ġsterilized":3570,"Ġtouch":3571,"ĠLas":3572,"ĠOys":3573,"Ġshapes":3574,"21":3575,"ampagne":3576,"Ġ+":3577,"mpty":3578,"ĠStrain":3579,"ĠRamen":3580,"Ġty":3581,"Ġtall":3582,"ĠChow":3583,"Ġinstead":3584,"Serves":3585,"ĠPatties":3586,"Ġhots":3587,"ĠRaspberry":3588,"ĠSandwiches":3589,"Ġrounds":3590,"ppies":3591,"vent":3592,"ĠCountry":3593,"crumb":3594,"ĠCoke":3595,"irl":3596,"Ġfettuc":3597,"Ġsauteed":3598,"ĠSauerkraut":3599,"ĠApplesauce":3600,"Ġright":3601,"yaki":3602,"ĠColby":3603,"jun":3604,"ĠAn":3605,"ĠCrackers":3606,"Ġcupcake":3607,"ĠRea":3608,"Ġnight":3609,"ĠFin":3610,"zo":3611,"Ġmoisten":3612,"Ġteaspoonful":3613,"Ġmeasure":3614,"Ġkra":3615,"ĠEx":3616,"Ġtorn":3617,"irloin":3618,"ĠVidalia":3619,"eriyaki":3620,"ĠFail":3621,"Ġprevent":3622,"Ġprunes":3623,"Ġpuff":3624,"ula":3625,"reserve":3626,"oub":3627,"ĠHea":3628,"Ġscallop":3629,"drained":3630,"uac":3631,"Ġstiffly":3632,"amole":3633,"Ġreduced":3634,"asting":3635,"Ġkraut":3636,"uacamole":3637,"lined":3638,"ĠMill":3639,"ĠMayonnaise":3640,"upper":3641,"abet":3642,"Ġcloth":3643,"arbecued":3644,"Co":3645,"zy":3646,"ĠBaking":3647,"ange":3648,"ĠRefrigerator":3649,"Ġstuffed":3650,"ĠAlmond":3651,"afe":3652,"Ġbegin":3653,"ĠReaLemon":3654,"28":3655,"ĠOil":3656,"Ġwra":3657,"ĠPl":3658,"the":3659,"ummer":3660,"ifted":3661,"ĠCla":3662,"Ġsaltines":3663,"ĠSpicy":3664,"ĠButterf":3665,"Ġmeas":3666,"ĠWings":3667,"ansfer":3668,"Ġsqueeze":3669,"ĠShoe":3670,"Ġmost":3671,"ĠMonkey":3672,"ross":3673,"ĠPecans":3674,"ĠGranny":3675,"ĠPeg":3676,"Ġherbs":3677,"ramb":3678,"ĠMarinade":3679,"more":3680,"while":3681,"Ġdoes":3682,"Ġtype":3683,"sugar":3684,"Ġdoub":3685,"ĠPinch":3686,"ox":3687,"ĠSea":3688,"ĠNever":3689,"ĠMrs":3690,"ĠCajun":3691,"Ġfamily":3692,"ĠSummer":3693,"liced":3694,"ĠThese":3695,"Bake":3696,"gate":3697,"Ġdevil":3698,"Ġsprigs":3699,"ĠMustard":3700,"Ġcanning":3701,"Ġpull":3702,"your":3703,"isses":3704,"Ġnondairy":3705,"ĠSteam":3706,"ĠPol":3707,"Ġthermo":3708,"Ġhandle":3709,"Ġparmesan":3710,"ĠCole":3711,"ĠFir":3712,"ĠNuts":3713,"ĠSnick":3714,"Ġent":3715,"ĠHerb":3716,"ounts":3717,"ĠAlso":3718,"Ġblending":3719,"Ġgerm":3720,"ĠDay":3721,"ĠHouse":3722,"Ġwon":3723,"Ġdice":3724,"Ġdishes":3725,"Ġfridge":3726,"orr":3727,"Ġ48":3728,"edish":3729,"Ġslaw":3730,"Ġsirloin":3731,"Ġ17":3732,"Ġpower":3733,"Ġgum":3734,"ret":3735,"Ġends":3736,"ures":3737,"alina":3738,"ĠBay":3739,"Ġenvelopes":3740,"erios":3741,"ĠSnow":3742,"Ups":3743,"medium":3744,"ĠBl":3745,"ĠWatergate":3746,"Ġpod":3747,"ĠClean":3748,"ĠPink":3749,"ĠChew":3750,"que":3751,"ĠSlush":3752,"ĠOri":3753,"Ġthermometer":3754,"Ġbl":3755,"ux":3756,"den":3757,"hot":3758,"Ġoriginal":3759,"oupe":3760,"loppy":3761,"eyed":3762,"Ġblackberries":3763,"chopped":3764,"esty":3765,"Ġunbeaten":3766,"ory":3767,"ĠNor":3768,"Ġcrispy":3769,"dough":3770,"Ġveal":3771,"ĠKnorr":3772,"Ġmorning":3773,"Ġspareribs":3774,"Ġsticky":3775,"butter":3776,"Ġcanola":3777,"ĠFashioned":3778,"plain":3779,"ĠSqueeze":3780,"ĠCur":3781,"ĠMixture":3782,"Ġdepending":3783,"ĠCatalina":3784,"Ġovercook":3785,"ĠCheerios":3786,"ĠDeep":3787,"Ġcore":3788,"ettes":3789,"ĠKnox":3790,"30":3791,"ĠTear":3792,"ĠCongeal":3793,"Ġabsorbed":3794,"ĠMillion":3795,"ĠMan":3796,"ĠJelly":3797,"ĠSwedish":3798,"abetic":3799,"ĠBarbecued":3800,"ĠTor":3801,"Ġroaster":3802,"ale":3803,"cher":3804,"elon":3805,"Ġentire":3806,"Ġold":3807,"sse":3808,"Ġdipped":3809,"Ġpancakes":3810,"ĠImp":3811,"ĠTrim":3812,"ĠPuppies":3813,"safe":3814,"ĠCub":3815,"Ġnew":3816,"ĠNote":3817,"Ġbasting":3818,"ĠShort":3819,"Ġfree":3820,"Ġcantal":3821,"Ġrese":3822,"Ġsec":3823,"Ġbecomes":3824,"Ġ100":3825,"Ġbrownies":3826,"Ġloin":3827,"ĠDouble":3828,"Ġfrothy":3829,"iforn":3830,"Ġdashes":3831,"uxe":3832,"ifornia":3833,"ĠOyster":3834,"ĠBaste":3835,"Ġstrain":3836,"ĠSeasons":3837,"Ġ200":3838,"Ġthir":3839,"ĠHush":3840,"agu":3841,"Ġdoubled":3842,"Cola":3843,"ĠStart":3844,"ĠReady":3845,"Ġscallops":3846,"Ġdog":3847,"ĠSloppy":3848,"rape":3849,"Ġlique":3850,"Ġreaches":3851,"ĠIsland":3852,"usages":3853,"ushy":3854,"ĠEat":3855,"ĠEnch":3856,"sized":3857,"Ġfit":3858,"Ġsup":3859,"orets":3860,"Ġdiscard":3861,"Ġshort":3862,"Ġhandful":3863,"ĠOnions":3864,"crumbs":3865,"ĠCoca":3866,"Ġcleaned":3867,"Free":3868,"Ġamounts":3869,"ĠTender":3870,"Ġpackets":3871,"Ġpackages":3872,"Ġscant":3873,"ĠCalifornia":3874,"!)":3875,"Ġstr":3876,"Ġkielbasa":3877,"juice":3878,"Ġcartons":3879,"ĠHeavenly":3880,"Ġlater":3881,"Ġpectin":3882,"ance":3883,"Ġspat":3884,"ĠSeaf":3885,"roll":3886,"ĠTot":3887,"Ġrot":3888,"ĠCot":3889,"ctive":3890,"Ġweek":3891,"Ġoverbake":3892,"ment":3893,"Ġdairy":3894,"ĠServ":3895,"ĠTortilla":3896,"iw":3897,"Ġflorets":3898,"ĠGrilled":3899,"self":3900,"ĠBeets":3901,"oz":3902,"Ġpro":3903,"ĠMc":3904,"Ġsqueez":3905,"ĠTwinkies":3906,"Ġfigs":3907,"ĠWatch":3908,"ĠRagu":3909,"ĠWarm":3910,"Ġnutmeat":3911,"mit":3912,"ryst":3913,"umps":3914,"Can":3915,"Ġdiet":3916,"Ġmeasuring":3917,"ama":3918,"ĠFirst":3919,"ossible":3920,"Ġsix":3921,"ĠPeppers":3922,"Ġspatula":3923,"Ġmany":3924,"Ġfa":3925,"Ġplum":3926,"Ġnutmeats":3927,"round":3928,"ousse":3929,"ĠPlay":3930,"ĠZesty":3931,"Ġcantaloupe":3932,"Ġliqueur":3933,"ĠTort":3934,"beaten":3935,"ĠWhis":3936,"angle":3937,"Ġeither":3938,"St":3939,"ppers":3940,"ĠLemonade":3941,"ĠFritters":3942,"rel":3943,"Ġwish":3944,"Ġwould":3945,"Ġhalfway":3946,"end":3947,"urk":3948,"ĠLi":3949,"ĠJuice":3950,"igor":3951,"gin":3952,"rew":3953,"ĠImpossible":3954,"Ġbreadcrumbs":3955,"awry":3956,"Ġfrypan":3957,"Ġvigor":3958,"ghorn":3959,"Ġseparately":3960,"For":3961,"etty":3962,"Ġresemb":3963,"ellent":3964,"atur":3965,"ald":3966,"Ġpeppercorn":3967,"ĠGlaze":3968,"itch":3969,"whole":3970,"Ġstrong":3971,"ĠSyrup":3972,"boil":3973,"ĠPral":3974,"Ġvigorously":3975,"cellent":3976,"Ġvar":3977,"ickory":3978,"Ġlbs":3979,"Ġbeet":3980,"ĠBowl":3981,"ĠHo":3982,"Ġbowls":3983,"Ġprepare":3984,"ango":3985,"he":3986,"ments":3987,"ĠCottage":3988,"urkee":3989,"iwi":3990,"fur":3991,"Ġpats":3992,"Ġdia":3993,"ĠScoop":3994,"ĠLon":3995,"ĠGround":3996,"baked":3997,"etter":3998,"Ġrab":3999,"ĠTopping":4000,"ĠLayered":4001,"Ġdebone":4002,"iffer":4003,"Ġpared":4004,"Ġsw":4005,"unk":4006,"imple":4007,"Ġsprinkled":4008,"ĠClam":4009,"If":4010,"ĠSec":4011,"ĠOpen":4012,"loss":4013,"Ġlove":4014,"ĠAs":4015,"Ġsausages":4016,"Ġnoodle":4017,"ĠLawry":4018,"17":4019,"don":4020,"ental":4021,"agon":4022,"Ġgenerously":4023,"Ġcross":4024,"kfur":4025,"ĠCider":4026,"Ġeven":4027,"Ġpretzel":4028,"Ġnice":4029,"Ġrepeat":4030,"ĠStuffing":4031,"Ġlog":4032,"melon":4033,"ĠSpice":4034,"ĠWaf":4035,"ĠStro":4036,"ukes":4037,"Ġworks":4038,");":4039,"ĠTime":4040,"ĠOli":4041,"ully":4042,"Ġunsifted":4043,"ĠChowder":4044,"ĠQuik":4045,"ĠTransfer":4046,"cemeat":4047,"Nuts":4048,"ĠBetty":4049,"ami":4050,"Ġshelled":4051,"ĠPretzel":4052,"ĠDurkee":4053,"astes":4054,"ĠLasagna":4055,"ĠLonghorn":4056,"just":4057,"Ġheads":4058,"ĠVegetables":4059,"angles":4060,"Ġpimientos":4061,"ĠJoes":4062,"enn":4063,"Ġlink":4064,"lair":4065,"ĠComp":4066,"ĠEggplant":4067,"Ġlumps":4068,"ĠMil":4069,"Ġseaf":4070,"Ġsticking":4071,"Ġseafood":4072,"ĠBon":4073,"tender":4074,"Ġsqueezed":4075,"Ġsummer":4076,"ĠBas":4077,"Ġleft":4078,"Ġpitcher":4079,"ĠPear":4080,"Cheese":4081,"tures":4082,"Ġgets":4083,"ĠButterfinger":4084,"rant":4085,"usters":4086,"ĠDoll":4087,"Ġanise":4088,"frost":4089,"mmed":4090,"ems":4091,"gano":4092,"uds":4093,"Ġgone":4094,"redge":4095,"Ġlarger":4096,"ighs":4097,"ĠMonde":4098,"pre":4099,"ĠBreasts":4100,"ĠCongealed":4101,"Ġwor":4102,"ĠBaker":4103,"Ġclos":4104,"Ġnear":4105,"bster":4106,"Ġbath":4107,"Ġloos":4108,"Ġstrip":4109,"bro":4110,"cream":4111,"Ġbur":4112,"Ġfast":4113,"ĠUps":4114,"Ġfrankfur":4115,"Ġclam":4116,"ĠAppetizer":4117,"ifferent":4118,"Ġchampagne":4119,"ĠCandied":4120,"ĠCrispix":4121,"ĠPar":4122,"ĠMeringue":4123,"ĠEc":4124,"ĠDeviled":4125,"Ġactive":4126,"thern":4127,"ĠInstant":4128,"ĠDash":4129,"ĠFran":4130,"immon":4131,"ĠCube":4132,"ganoff":4133,"ĠSun":4134,"ĠMy":4135,"Ġsnack":4136,"iplo":4137,"Ġcutlets":4138,"Ġbubbling":4139,"ĠWalnut":4140,"Ġportions":4141,"Ġfully":4142,"ĠPin":4143,"Ġroot":4144,"ren":4145,"Ġtopped":4146,"rops":4147,"Ġkiwi":4148,"regular":4149,"Ġincluding":4150,"ĠCelery":4151,"lash":4152,"Ġmixtures":4153,"Ġmonths":4154,"Ġgrate":4155,"iploc":4156,"Ġliver":4157,"Ġouts":4158,"ĠDecorate":4159,"alorie":4160,"Microwave":4161,"ti":4162,"Ġtips":4163,"eness":4164,"Ġsection":4165,"umbo":4166,"phant":4167,"Ġgenerous":4168,"Ġpeppercorns":4169,"rie":4170,"act":4171,"Ġalternating":4172,"Ġsnipped":4173,"This":4174,"ĠBeer":4175,"Ġmolds":4176,"form":4177,"Roni":4178,"Ġtest":4179,"Ġcolander":4180,"ĠScald":4181,"ĠLight":4182,"Ġcircle":4183,"ĠEclair":4184,"Ġcrush":4185,"ĠOkra":4186,"ĠEmpty":4187,"Ġsubstituted":4188,"Ġcukes":4189,"ĠFat":4190,"Ġears":4191,"edding":4192,"Ġstarting":4193,"ĠStroganoff":4194,"Add":4195,"be":4196,"Ġfla":4197,"Ġthighs":4198,"ellini":4199,"ĠRum":4200,"ĠLast":4201,"pecans":4202,"Ġcountry":4203,"ass":4204,"ĠEl":4205,"ĠCreamed":4206,"Ġtoppings":4207,"Ġcurrant":4208,"Ġcaps":4209,"ĠCreole":4210,"ĠSeafood":4211,"reats":4212,"Ġlamb":4213,"ĠMock":4214,"ĠWhisk":4215,"ĠMilnot":4216,"ĠUpside":4217,"Ġtam":4218,"ĠBetter":4219,"ĠPowder":4220,"Ġflavorings":4221,"ĠZiploc":4222,"Ġcombin":4223,"ĠFollow":4224,"Ġpods":4225,"ĠDeluxe":4226,"ĠMexic":4227,"ĠSmith":4228,"Ġoutside":4229,"osh":4230,"vol":4231,"Ġomit":4232,"Ġhock":4233,"elli":4234,"ĠLower":4235,"ĠMolasses":4236,"Ġdropped":4237,"inz":4238,"ĠSar":4239,"atever":4240,"Ġovenproof":4241,"Ġlinguine":4242,"ĠOriental":4243,"Ġdiameter":4244,"Ġdumplings":4245,"ĠNorthern":4246,"Ġworcestershire":4247,"ĠCold":4248,"ĠMini":4249,"Ġdoneness":4250,"pid":4251,"ĠBea":4252,"ĠDogs":4253,"Ġblackberry":4254,"Ġmelon":4255,"Ġsprinkles":4256,"ĠBurgers":4257,"Ġdeviled":4258,"itchen":4259,"May":4260,"Ġsuit":4261,"Ġresembles":4262,"etal":4263,"ounds":4264,"ĠSuper":4265,"Ġpine":4266,"ĠPull":4267,"verage":4268,"Ġrich":4269,"ĠVegg":4270,"Ġsecure":4271,"Ġcrosswise":4272,"Ġpoke":4273,"asty":4274,"ĠShell":4275,"Ġalternate":4276,"Ġfinger":4277,"Ġchickens":4278,"ĠPeas":4279,"Ġsee":4280,"Ġdust":4281,"Ġdecor":4282,"Ġperson":4283,"ests":4284,"ĠSmooth":4285,"olog":4286,"Ġhickory":4287,"Ġad":4288,"ĠWedding":4289,"ĠHun":4290,"ĠThoroughly":4291,"volone":4292,"ologna":4293,"Ġstarch":4294,"ĠYogurt":4295,"ĠMashed":4296,"Ġcirc":4297,"Ġlg":4298,"Ġthread":4299,"Ġlower":4300,"Ġblanch":4301,"fort":4302,"Ġcola":4303,"mbo":4304,"ĠSherbet":4305,"ĠReese":4306,"ĠCorned":4307,"Ġfrankfurters":4308,"Ġ#":4309,"Ġmango":4310,"itation":4311,"ĠMed":4312,"ĠBeaters":4313,"soft":4314,"Ġsnow":4315,"Ġris":4316,"ales":4317,"ĠMiss":4318,"Ġsmaller":4319,"acaroon":4320,"ĠPolish":4321,"ĠTorte":4322,"24":4323,"Ġfranks":4324,"ĠAmb":4325,"Ġrapid":4326,"like":4327,"Ġdiagon":4328,"ĠMeal":4329,"ros":4330,"Ġspicy":4331,"ĠFreezes":4332,"ĠRich":4333,"ĠKey":4334,"inity":4335,"ĠSoda":4336,"ĠCrunchy":4337,"Ġstem":4338,"Ġbreakfast":4339,"ĠServings":4340,"hy":4341,"ĠWine":4342,"Ġtenderloin":4343,"Ġmozzarella":4344,"ĠHeinz":4345,"Ġna":4346,"Ġdeer":4347,"half":4348,"ĠDry":4349,"ĠHar":4350,"Ġmed":4351,"oli":4352,"ĠTreats":4353,"tini":4354,"atural":4355,"Ġdiv":4356,"Ġliquids":4357,"ousand":4358,"iladas":4359,"Ġscoops":4360,"Down":4361,"melt":4362,"ĠKid":4363,"fect":4364,"ĠProvolone":4365,"eta":4366,"elve":4367,"aky":4368,"Ġlots":4369,"ific":4370,"ĠBoiled":4371,"Ġturns":4372,"mild":4373,"ĠRoasted":4374,"rated":4375,"atin":4376,"Ġrub":4377,"Ġcracked":4378,"Ġsupreme":4379,"Do":4380,"You":4381,"ĠTest":4382,"Ġitems":4383,"Ġbottled":4384,"ĠOlive":4385,"anese":4386,"ubble":4387,"ĠPastry":4388,"ĠRot":4389,"Ġcoals":4390,"ĠDivinity":4391,"Ġblanched":4392,"instant":4393,"Ġbun":4394,"Ġflank":4395,"Ġcontin":4396,"Ġdeve":4397,"ĠFreezer":4398,"ĠYummy":4399,"Ġrib":4400,"Ġcornflake":4401,"sic":4402,"ĠMother":4403,"ĠMag":4404,"ĠMary":4405,"Jell":4406,"Low":4407,"ba":4408,"Ġwatermelon":4409,"ĠThousand":4410,"osher":4411,"Ġdivide":4412,"Ġdifferent":4413,"Ġsalami":4414,"Ġlin":4415,"Ġpressed":4416,"ware":4417,"alt":4418,"ably":4419,"vory":4420,"Ġimitation":4421,"rit":4422,"Ġhen":4423,"Ġstored":4424,"ĠKisses":4425,"ĠCrispy":4426,"ĠCheck":4427,"ormick":4428,"irgin":4429,"Cormick":4430,"ical":4431,"Ġones":4432,"ĠThree":4433,"ĠCrabmeat":4434,"erd":4435,"Ġ23":4436,"ĠPark":4437,"vert":4438,"Ġtheir":4439,"ĠDrink":4440,"ĠWaff":4441,"ĠGou":4442,"Ġwaffle":4443,"ĠToffee":4444,"Ġpita":4445,"Ġmace":4446,"Ġdis":4447,"Ġrotini":4448,"Ġacross":4449,"Ġcuts":4450,"Ġwhatever":4451,"ĠRi":4452,"ites":4453,"ĠJalapen":4454,"eels":4455,"ĠTarts":4456,"Ġke":4457,"ĠSheet":4458,"ĠMean":4459,"ondue":4460,"ĠSund":4461,"Ġbrowning":4462,"ĠIm":4463,"Ġroma":4464,"Ġsetting":4465,"Ġcryst":4466,"angular":4467,"Ġguacamole":4468,"ĠMama":4469,"ĠTe":4470,"ĠYellow":4471,"ĠYeast":4472,"ĠDiabetic":4473,"rosia":4474,"dy":4475,"Ġgloss":4476,"Ġhow":4477,"ĠWe":4478,"Ġbarley":4479,"Ġcalorie":4480,"ules":4481,"ĠLou":4482,"ĠInd":4483,"Ġfilled":4484,"Ġusually":4485,"ĠAmbrosia":4486,"ĠMeanwhile":4487,"ium":4488,"Ġbutternut":4489,"Ġcools":4490,"Ġkept":4491,"Ġtill":4492,"ĠCres":4493,"Ġgrind":4494,"??":4495,"ickel":4496,"Ġcooling":4497,"Ġcovering":4498,"ilute":4499,"ĠSimple":4500,"Ġlegs":4501,"ĠThey":4502,"ĠImmediately":4503,"green":4504,"place":4505,"ĠX":4506,"Ġteriyaki":4507,"Ġflame":4508,"Ġnatural":4509,"Ġlivers":4510,"fully":4511,"Ġportion":4512,"ban":4513,"ancy":4514,"eath":4515,"ways":4516,"Ġtamales":4517,"Ġromaine":4518,"light":4519,"Ġmetal":4520,"ieve":4521,"apanese":4522,"Ġfollows":4523,"ĠAt":4524,"ĠFive":4525,"ĠDollar":4526,"Cr":4527,"fu":4528,"Ġgranules":4529,"ĠClusters":4530,"Ġdiluted":4531,"ĠMel":4532,"ĠDog":4533,"bur":4534,"fin":4535,"zola":4536,"Ġberry":4537,"Ġhollow":4538,"Ġflo":4539,"ĠAu":4540,"Ġmincemeat":4541,"Ġsets":4542,"Ġlooks":4543,"Ġdamp":4544,"tils":4545,"ĠTwo":4546,"29":4547,"Ġprocessed":4548,"ĠBeau":4549,"Ġ28":4550,"Ġgallons":4551,"Ġrectangular":4552,"Ġnavy":4553,"cl":4554,"together":4555,"Ġtable":4556,"ĠSoft":4557,"Ġcombination":4558,"rum":4559,"ĠSure":4560,"ĠBasic":4561,"ĠVinegar":4562,"Ġbla":4563,"achos":4564,"ranspar":4565,"ussels":4566,"ĠEnchiladas":4567,"melted":4568,"350":4569,"It":4570,"ĠRock":4571,"Ġcutters":4572,"ransparent":4573,"Ġtr":4574,"ĠSpam":4575,"Ġplaced":4576,"arkling":4577,"ĠMcCormick":4578,"ĠJalapeno":4579,"ean":4580,"hn":4581,"ĠBor":4582,"umpern":4583,"Ġbase":4584,"Ġloosely":4585,"Ġman":4586,"ĠCare":4587,"ĠAbout":4588,"tains":4589,"ĠVeggie":4590,"igg":4591,"Ġtex":4592,"ĠNow":4593,"ron":4594,"ĠLog":4595,"ĠNacho":4596,"ĠCupcakes":4597,"ĠSticks":4598,"Ġcircles":4599,"umpernickel":4600,"tty":4601,"erto":4602,"izer":4603,"Ġpatty":4604,"Ġpressure":4605,"Ġleftovers":4606,"bel":4607,"nog":4608,"ĠSand":4609,"Ġchile":4610,"Ġlentils":4611,"Ġpreferred":4612,"ĠMagic":4613,"aved":4614,"ĠJapanese":4615,"heaping":4616,"cine":4617,"Ġbologna":4618,"Ġmust":4619,"Ġfall":4620,"ĠClo":4621,"ĠMor":4622,"ĠMedium":4623,"ĠAppetizers":4624,"Ġtexture":4625,"dor":4626,"oey":4627,"ĠPoke":4628,"Ġhel":4629,"owers":4630,"ĠFeta":4631,"ĠBrownie":4632,"Ġputting":4633,"arian":4634,"ĠEver":4635,"Ġfourths":4636,"Ġbasket":4637,"Ġlinks":4638,"ĠRing":4639,"ĠDried":4640,"Ġseg":4641,"Ġsoaked":4642,"cts":4643,"Ġcor":4644,"eek":4645,"Ġbeing":4646,"Ġgarden":4647,"Ġancho":4648,"Ġdesire":4649,"Ġzest":4650,"undy":4651,"Ġtrimmed":4652,"Fashioned":4653,"Ġsuch":4654,"Ġlunch":4655,"Ġsaving":4656,"Ġslicing":4657,"Ġlids":4658,"Ġburner":4659,"ĠWaffles":4660,"gundy":4661,"Ġtransparent":4662,"ĠCerto":4663,"unn":4664,"Ġsho":4665,"ĠWa":4666,"ĠFluffy":4667,"okies":4668,"Ġ46":4669,"ĠChips":4670,"ico":4671,"ĠSue":4672,"illy":4673,"Ġappetiz":4674,"Ġchild":4675,"Ġ70":4676,"Ġartific":4677,"ĠPuppy":4678,"ĠCap":4679,"ĠWild":4680,"Ġaltogether":4681,"ĠLazy":4682,"ĠMexicorn":4683,"fle":4684,"Ġcre":4685,"until":4686,"ĠAm":4687,"ĠVenison":4688,"ĠThin":4689,"ĠJohn":4690,"Use":4691,"xx":4692,"utney":4693,"ĠBy":4694,"Ġsoon":4695,"ĠEar":4696,"ropical":4697,"Ġshallots":4698,"ino":4699,"Ġdecorate":4700,"ĠSch":4701,"ĠBuck":4702,"ealthy":4703,"mold":4704,"yl":4705,"ĠPure":4706,"Ġelephant":4707,"ĠPralines":4708,"onge":4709,"ita":4710,"ants":4711,"ase":4712,"assa":4713,"ĠTart":4714,"Ġpouring":4715,"Ġtenderizer":4716,"ĠChopped":4717,"Ġsimmering":4718,"ĠExcellent":4719,"Ġsegments":4720,"ipp":4721,"Ġlogs":4722,"Ġcapers":4723,"Ġrectangle":4724,"Ġlumpy":4725,"elvet":4726,"Ġbatch":4727,"acc":4728,"ĠCarefully":4729,"dorf":4730,"per":4731,"sliced":4732,"olly":4733,"canned":4734,"Ġkernels":4735,"ĠBrussels":4736,"Ġthere":4737,"mber":4738,"Ġartificial":4739,"go":4740,"inder":4741,"Ġmicrow":4742,"Ġpea":4743,"ĠDust":4744,"Ġsteamed":4745,"ĠWaldorf":4746,"ĠFlavor":4747,"urch":4748,"hyd":4749,"fingers":4750,"naps":4751,"ĠJul":4752,"Ġpersimmon":4753,"Ġdeveined":4754,"Ġlot":4755,"ĠCola":4756,"Ġshakes":4757,"Ġbarely":4758,"sticks":4759,"you":4760,"Ġhomemade":4761,"ello":4762,"odium":4763,"ĠBac":4764,"Ġspir":4765,"ĠCrocker":4766,"Ġthirds":4767,"Rice":4768,"Ġcount":4769,"Ġgumbo":4770,"ird":4771,"Ġplates":4772,"ĠMonte":4773,"Ġmarinated":4774,"ĠKraut":4775,"ĠTurtle":4776,"Ġmy":4777,"Ġwe":4778,"ĠCow":4779,"strawber":4780,"ĠQuickly":4781,"crushed":4782,"Ġcat":4783,"amic":4784,"Ġloose":4785,"Ġbed":4786,"Ġbaste":4787,"ĠMud":4788,"iety":4789,"Ġtablespoonfuls":4790,"Ġtriangles":4791,"ĠPrick":4792,"ĠPuree":4793,"pack":4794,"Ġgre":4795,"Ġingredient":4796,"Ġpkgs":4797,"Ġwarmed":4798,"ĠSkor":4799,"ĠBurgundy":4800,"assail":4801,"In":4802,"ĠHi":4803,"Ġgarban":4804,"Ġskew":4805,"ations":4806,"ĠScramb":4807,"icelli":4808,"arden":4809,"ĠFinish":4810,"Ġbeginning":4811,"ĠParkay":4812,"yellow":4813,"esto":4814,"Ġpumpernickel":4815,"Ġlee":4816,"Ġ303":4817,"Ġpretty":4818,"Ġdegree":4819,"Ġrabbits":4820,"ĠCompany":4821,"acaroons":4822,"ĠWish":4823,"ĠVelvet":4824,"Ġusual":4825,"ĠGratin":4826,"Ġsealed":4827,"Ġworms":4828,"ĠRibs":4829,"ddock":4830,"derful":4831,"aint":4832,"from":4833,"Ġcontinu":4834,"..":4835,"orch":4836,"etto":4837,"melet":4838,"season":4839,"Ġcarbon":4840,"Ġclose":4841,"Ġscramb":4842,"ĠMazola":4843,"ĠDiet":4844,"ĠWon":4845,"Ġrump":4846,"Ġ500":4847,"raws":4848,"ĠJim":4849,"Ġbrick":4850,"ermicelli":4851,"Ġblade":4852,"Ġ19":4853,"ĠDredge":4854,"ĠWassail":4855,"Ġbeverage":4856,"Ġkosher":4857,"ĠSnickers":4858,"Ġdiagonally":4859,"Ġtests":4860,"ĠTeriyaki":4861,"ield":4862,"ĠCucumbers":4863,"Ġgummy":4864,"ĠSaran":4865,"nie":4866,"Ġes":4867,"ĠSta":4868,"upperware":4869,"Ġrapidly":4870,"ĠGoulash":4871,"unnel":4872,"ara":4873,"shine":4874,"Ġ22":4875,"Ġair":4876,"ĠSupper":4877,"ĠFri":4878,"ounce":4879,"Ġtear":4880,"ĠScr":4881,"ĠPerfect":4882,"bit":4883,"ights":4884,"Ġlady":4885,"Ġupside":4886,"ĠStrawberries":4887,"Ġrotary":4888,"ĠWafers":4889,"chicken":4890,"iana":4891,"ounder":4892,"ĠSourdough":4893,"margarine":4894,"ĠLouis":4895,"Ġslushy":4896,"Ġscrap":4897,"Ġcongealed":4898,"Ġcarbonated":4899,"tP":4900,"Ġfillet":4901,"asier":4902,"Ġlobster":4903,"anola":4904,"Ġ225":4905,"ĠAmar":4906,"Ġmarble":4907,"reek":4908,"Ġdeli":4909,"ĠBlackberry":4910,"fred":4911,"yn":4912,"uty":4913,"colator":4914,"Ġjumbo":4915,"ĠGarden":4916,"ucky":4917,"Ġflaky":4918,"ĠWay":4919,"ĠPeaches":4920,"ĠTriple":4921,"Ġbecome":4922,"Mix":4923,"Ġformed":4924,"Ġquite":4925,"fredo":4926,"gry":4927,"ĠBra":4928,"ĠBab":4929,"ĠRings":4930,"Ġconten":4931,"ĠMint":4932,"The":4933,"ord":4934,"ĠRaw":4935,"nad":4936,"Ġcooks":4937,"ĠKitchen":4938,"ĠTost":4939,"mate":4940,"ards":4941,"ĠBarrel":4942,"Ġclosed":4943,"ĠAmaretto":4944,"kes":4945,"orange":4946,"ĠPap":4947,"Ġvermicelli":4948,"ĠEle":4949,"Ġslits":4950,"Ġmoisture":4951,"Cheddar":4952,"Ġliters":4953,"Ġliners":4954,"oo":4955,"ĠInsert":4956,"ueur":4957,"Ġdoesn":4958,"Ġcatfish":4959,"Nut":4960,"ĠPor":4961,"olut":4962,"ĠTra":4963,"afing":4964,"ioli":4965,"Ġequ":4966,"ĠBreast":4967,"ĠBuns":4968,"ĠMousse":4969,"ĠCooked":4970,"ĠHal":4971,"Ġdefrost":4972,"ĠSwans":4973,"ĠRotel":4974,"Fry":4975,"Ġpri":4976,"Ġfries":4977,"lee":4978,"Ġimp":4979,"Ġeating":4980,"quefort":4981,"nadine":4982,"Ġcall":4983,"inc":4984,"ĠPare":4985,"Ġcob":4986,"Ġnic":4987,"ĠHour":4988,"ĠGuacamole":4989,"ĠThicken":4990,"ĠGrits":4991,"cial":4992,"Ġpressing":4993,"Ġchick":4994,"ĠCalorie":4995,"leu":4996,"Ġwithin":4997,"tha":4998,"Fried":4999,"ured":5000,"enthe":5001,"ĠBerry":5002,"ĠWhipped":5003,"ship":5004,"pared":5005,"Ġtort":5006,"Ġdoor":5007,"ulled":5008,"Ġvariety":5009,"ĠMac":5010,"ĠTupperware":5011,"Ġstrained":5012,"ĠFour":5013,"ĠRoquefort":5014,"ĠPoor":5015,"alsamic":5016,"Sueur":5017,"Ġcav":5018,"inds":5019,"ĠSkin":5020,"ĠKing":5021,"Ġlayering":5022,"Ġturnips":5023,"cloth":5024,"ĠPreserves":5025,"Ġflowers":5026,"ston":5027,"Ġjug":5028,"ĠLittle":5029,"Ġslush":5030,"Ġpuffed":5031,"ĠChewy":5032,"Ġgrenadine":5033,"Ġnicely":5034,"uv":5035,"ĠBrisket":5036,"ĠPim":5037,"Ġreally":5038,"Ġbutton":5039,"ĠMilky":5040,"ather":5041,"ĠSnacks":5042,"40":5043,"Or":5044,"inter":5045,"Ġmushy":5046,"ĠMaple":5047,"Ġchopper":5048,"covered":5049,"wheels":5050,"ĠAny":5051,"ĠHunt":5052,"issipp":5053,"ĠLettuce":5054,"Ġholds":5055,"ĠMississipp":5056,"Ġspiral":5057,"ĠMississippi":5058,"Ġchafing":5059,"Ġcheesecloth":5060,"ountain":5061,"Ġchunked":5062,"ĠCurry":5063,"ĠHealthy":5064,"ĠLeSueur":5065,"Ġtortellini":5066,"cents":5067,"Ġeasier":5068,"terol":5069,"ified":5070,"Ġjelled":5071,"ĠScotch":5072,"olesterol":5073,"ellogg":5074,"Bone":5075,"ope":5076,"Ġgumd":5077,"ĠEarth":5078,"Sp":5079,"met":5080,"overs":5081,"Ġcast":5082,"Ġmousse":5083,"ĠBleu":5084,"riz":5085,"Ġnow":5086,"ĠFix":5087,"Ġsparkling":5088,"ĠShould":5089,"Ġliquor":5090,"Ġlinguini":5091,"ĠGingerbread":5092,"Os":5093,"bb":5094,"ĠAd":5095,"irly":5096,"ĠFlo":5097,"ached":5098,"Ġkeeps":5099,"ĠSaut":5100,"Ġbitter":5101,"rette":5102,"Ġcard":5103,"igrette":5104,"ĠMorton":5105,"Ġgarbanzo":5106,"Ġladyfingers":5107,"king":5108,"teg":5109,"Ġear":5110,"ĠRound":5111,"amous":5112,"Ġalready":5113,"Ġscorch":5114,"inaigrette":5115,"avable":5116,"Ġfinished":5117,"Ġmixes":5118,"ĠFast":5119,"ĠFettuc":5120,"oleslaw":5121,"ĠKids":5122,"ence":5123,"ĠColeslaw":5124,"Ġstay":5125,"ĠKellogg":5126,"ĠThan":5127,"peas":5128,"Ġplacing":5129,"rus":5130,"ĠGold":5131,"Ġhaddock":5132,"ĠQues":5133,"Ġtrays":5134,"endship":5135,"Ġnearly":5136,"Ġfloat":5137,"ĠArm":5138,"ĠScrape":5139,"iblets":5140,"vanilla":5141,"Ġshaved":5142,"Ġraisin":5143,"ounter":5144,"Ġrising":5145,"ĠMountain":5146,"Ġjack":5147,"ĠMixed":5148,"lices":5149,"Ġheating":5150,"Ġpurpose":5151,"Ġwas":5152,"ĠMoisten":5153,"Ġstewing":5154,"ĠNutty":5155,"cooking":5156,"Ġfairly":5157,"Ġcontents":5158,"ius":5159,"ses":5160,"Ġsieve":5161,"ĠFashion":5162,"ĠInvert":5163,"ĠGooey":5164,"ĠSunday":5165,"Ġcounter":5166,"Ġ26":5167,"ĠCrescent":5168,"Ġgumdrops":5169,"Ġ21":5170,"Ġstarter":5171,"rib":5172,"ĠThank":5173,"ĠCarol":5174,"ĠUnroll":5175,"ugge":5176,"ĠPretzels":5177,"ĠStarter":5178,"ĠCooking":5179,"Ġ90":5180,"Ġgrains":5181,"Ġpureed":5182,"ĠMilliona":5183,"Ġthird":5184,"Ġmicrowavable":5185,"well":5186,"Ġfif":5187,"Ġchar":5188,"quake":5189,"Ġhair":5190,"Ġcurl":5191,"ingersnaps":5192,"Ġrunning":5193,"sicle":5194,"ĠBuckey":5195,"ĠJulius":5196,"Ġtofu":5197,"Ġsaff":5198,"umber":5199,"Ġpartly":5200,"ĠSeasoning":5201,"unsweetened":5202,"ĠCurried":5203,"burger":5204,"including":5205,"day":5206,"iger":5207,"tAdd":5208,"iti":5209,"Ġvelveeta":5210,"Ġgrinder":5211,"Ġbeca":5212,"ĠGreek":5213,"resso":5214,"mmercial":5215,"cross":5216,"Ġbubble":5217,"ĠMu":5218,"Ġcole":5219,"Ġcraw":5220,"ĠGe":5221,"iscuits":5222,"ĠDean":5223,"tBake":5224,"itrus":5225,"ĠBing":5226,"Ġglazed":5227,"peg":5228,"ĠTrifle":5229,"iander":5230,"Ġtail":5231,"top":5232,"Ġsourdough":5233,"Ġdehyd":5234,"ĠSunshine":5235,"Ġchildren":5236,"ĠEarthquake":5237,"Ġbecause":5238,"Fro":5239,"uy":5240,"Ġgive":5241,"Ġprecooked":5242,"ĠMoist":5243,"ĠAlfredo":5244,"ĠSmoked":5245,"Ġfettuccine":5246,"Ġwrapped":5247,"ĠClose":5248,"olution":5249,"Ġempty":5250,"ĠRose":5251,"elatin":5252,"Ġspoons":5253,"oulder":5254,"ĠJimmy":5255,"Ġcrawfish":5256,"ĠPas":5257,"ĠChipped":5258,"thaw":5259,"ĠCrazy":5260,"ĠOrteg":5261,"ĠFinely":5262,"Cal":5263,"pineapple":5264,"Ġslee":5265,"Ġgro":5266,"ĠDiscard":5267,"Ġconcentrated":5268,"Ġcheck":5269,"Ġsprings":5270,"Pineapple":5271,"Ġmug":5272,"ought":5273,"ĠNiblets":5274,"ĠPickle":5275,"ĠPorcup":5276,"ints":5277,"Ġchutney":5278,"ĠTastes":5279,"ĠAla":5280,"ĠWil":5281,"ĠGl":5282,"ults":5283,"ĠRoad":5284,"ĠFrom":5285,"Ġtossing":5286,"Ġbrine":5287,"ĠRocky":5288,"Ġhelp":5289,"water":5290,"Ġholiday":5291,"ĠTon":5292,"ĠAvocad":5293,"ĠWhole":5294,"ashed":5295,"Ġkisses":5296,"ĠUp":5297,"ĠBrunch":5298,"Ġbalsamic":5299,"Ġtakes":5300,"ĠPenn":5301,"Ġcommercial":5302,"Ġstirred":5303,"ĠReub":5304,"Ġsyrupy":5305,"rants":5306,"Ġpeeling":5307,"Ġmasher":5308,"Crisco":5309,"ĠColada":5310,"unpeeled":5311,"monia":5312,"ĠMartha":5313,"ĠHungry":5314,"ĠBaby":5315,"wal":5316,"ĠPizz":5317,"une":5318,"ĠHard":5319,"iesta":5320,"Ġwaff":5321,"without":5322,"ĠShortbread":5323,"ĠMelba":5324,"seasoned":5325,"23":5326,"hol":5327,"Ġawhile":5328,"ĠBrie":5329,"Ġhens":5330,"ĠRun":5331,"ĠFinger":5332,"lenty":5333,"ĠUnmold":5334,"ĠBoston":5335,"ĠOvernight":5336,"Ġskewers":5337,"salt":5338,"Ġdate":5339,"ĠGelatin":5340,"Ġcurrants":5341,"Ġfettucini":5342,"Ġcrystals":5343,"ky":5344,"Ġdrum":5345,"ĠBites":5346,"ĠHominy":5347,"ign":5348,"ĠMints":5349,"ĠClub":5350,"brown":5351,"19":5352,"Sweet":5353,"ĠTropical":5354,"Ġcupcakes":5355,"istrib":5356,"Ġsprinkling":5357,"Ġblocks":5358,"ĠDevil":5359,"beat":5360,"Ġsim":5361,"Ġdoll":5362,"ĠChampagne":5363,"ĠBroiled":5364,"prefer":5365,"Ġcoriander":5366,"Ġwaffles":5367,"anda":5368,"ĠTown":5369,"Ġshoulder":5370,"ĠFamous":5371,"ival":5372,"Ġprior":5373,"ĠAvocado":5374,"Ġho":5375,"cha":5376,"Ġ475":5377,"Ġammonia":5378,"ierce":5379,"ĠMedley":5380,"ĠTostitos":5381,"ĠFloat":5382,"esar":5383,"ĠGet":5384,"boy":5385,"ĠJan":5386,"rowd":5387,"ette":5388,"ĠQuaker":5389,"scant":5390,"flour":5391,"Ġchickpeas":5392,"yal":5393,"estern":5394,"ila":5395,"ĠMacaroons":5396,"isscross":5397,"eeds":5398,"iffon":5399,"ĠQuarter":5400,"ĠCondensed":5401,"ĠGrandm":5402,"ĠTriscuits":5403,"ĠParboil":5404,"ĠCowboy":5405,"Easy":5406,"fill":5407,"Ġ75":5408,"Ġsor":5409,"ĠSlices":5410,"ĠEd":5411,"Ġplums":5412,"ĠPinwheels":5413,"ax":5414,"time":5415,"ĠBeet":5416,"ĠBuds":5417,"cherry":5418,"Ġgranola":5419,"ĠHay":5420,"ĠShe":5421,"Ġpercolator":5422,"ĠPhilly":5423,"ĠDebone":5424,"ĠCaesar":5425,"ĠShells":5426,"uggets":5427,"rone":5428,"Ġsolution":5429,"rout":5430,"Ġdab":5431,"ĠPina":5432,"Ġglue":5433,"Ġflounder":5434,"stack":5435,"cohol":5436,"ĠGi":5437,"ĠInto":5438,"Ġstrainer":5439,"Ġhocks":5440,"Ġreheat":5441,"quettes":5442,"Ġraise":5443,"ĠForg":5444,"Ġtwist":5445,"ĠWatchers":5446,"Ġfifth":5447,"70":5448,"ourmet":5449,"estrone":5450,"Ġfreezing":5451,"oyu":5452,"apples":5453,"ĠOrtega":5454,"ob":5455,"Ġpres":5456,"ores":5457,"ĠBourbon":5458,"Ġranch":5459,"ĠFrosted":5460,"ĠSnickerd":5461,"Ġtested":5462,"ĠDew":5463,"ops":5464,"ĠCooler":5465,"ĠOnce":5466,"ĠPlum":5467,"eel":5468,"foil":5469,"Ġplenty":5470,"icles":5471,"ĠWieners":5472,"core":5473,"Ġspins":5474,"ima":5475,"Ġjellied":5476,"Ġloses":5477,"Ġheart":5478,"Ġscrambled":5479,"Ġdehydrated":5480,"Lay":5481,"drain":5482,"gy":5483,"utes":5484,"recipe":5485,"Ġgel":5486,"ĠFil":5487,"coal":5488,"ĠShredded":5489,"ĠBob":5490,"ĠEnchilada":5491,"Ġadv":5492,"ĠReuben":5493,"To":5494,"ilaf":5495,"ala":5496,"irds":5497,"ĠSpareribs":5498,"acky":5499,"ĠYork":5500,"ĠYams":5501,"ĠSteaks":5502,"ĠTangy":5503,"Ġswirl":5504,"duty":5505,"lien":5506,"Ġoat":5507,"Ġjulien":5508,"ĠFree":5509,"ĠJud":5510,"entucky":5511,"uda":5512,"ĠShortcake":5513,"Ġglossy":5514,"cery":5515,"Ġtie":5516,"Ġchillies":5517,"Ġscrape":5518,"ĠFilled":5519,"stitute":5520,"ĠWafer":5521,"ĠPimento":5522,"crisp":5523,"rapped":5524,"Ġappear":5525,"ĠOmelet":5526,"Ġpreheat":5527,"Ġuncover":5528,"ailable":5529,"strawberry":5530,"ground":5531,"Ġfondue":5532,"ĠBus":5533,"ĠFiesta":5534,"ĠSkim":5535,"Ġwrappers":5536,"ĠShoepeg":5537,"ĠHarv":5538,"ĠScramble":5539,"ĠScrub":5540,"ĠArmour":5541,"fine":5542,"Ġbuck":5543,"Ġtastes":5544,"Ġtoffee":5545,"Ġhom":5546,"Ġoverla":5547,"Ġreplace":5548,"ĠStraws":5549,"estring":5550,"ĠCanned":5551,"Ġtossed":5552,"ĠGeor":5553,"fa":5554,"ĠSix":5555,"Ġpeck":5556,"unbaked":5557,"ĠCore":5558,"Ġsack":5559,"ĠNan":5560,"affy":5561,"Ġanchovy":5562,"Ġdefrosted":5563,"ĠHarvard":5564,"45":5565,"cer":5566,"dew":5567,"Ġbal":5568,"att":5569,"otten":5570,"lassic":5571,"ĠCornish":5572,"Ġresults":5573,"ĠSwirl":5574,"ĠPepperoni":5575,")*":5576,"skin":5577,"ugs":5578,"Ġhome":5579,"ĠKentucky":5580,"Ġlabel":5581,"ivalent":5582,"ugh":5583,"ĠTasty":5584,"ĠDrops":5585,"Ġrequ":5586,"ĠPrego":5587,"Ġthicker":5588,"Ġdirects":5589,"Ġfreezes":5590,"ĠFlakes":5591,"boneless":5592,"chocolate":5593,"ĠLouisiana":5594,"48":5595,"nic":5596,"uf":5597,"Ġjigg":5598,"Ġshoyu":5599,"ĠFingers":5600,"Ġcones":5601,"Ġpreparing":5602,"pends":5603,"Ġtriangle":5604,"ĠPaso":5605,"iod":5606,"inute":5607,"ĠTam":5608,"enster":5609,"Ġdeter":5610,"ĠMargarine":5611,"ĠPete":5612,"Ġtinfoil":5613,"Ġfaith":5614,"Ġrabbit":5615,"unky":5616,"Bro":5617,"yed":5618,"Ġtip":5619,"ĠPort":5620,"Ġsteep":5621,"Ġreheated":5622,"ĠSponge":5623,"berg":5624,"Ġ80":5625,"lender":5626,"ĠEv":5627,"crust":5628,"ĠForgotten":5629,"ĠSnickerdoodles":5630,"ĠDanish":5631,"Ġrow":5632,"Ġpacks":5633,"Ġprick":5634,"fryer":5635,"ĠIndian":5636,"Ġgrocery":5637,"fly":5638,"Ġmenthe":5639,"Ġvary":5640,"Ġscr":5641,"Ġshaped":5642,"packed":5643,"Ġleeks":5644,"ĠMillionaire":5645,"Ġwok":5646,"icnic":5647,"Ġcrusty":5648,"Ġyoung":5649,"ahini":5650,"ĠJoe":5651,"ondon":5652,"ĠAnn":5653,"Cook":5654,"ĠHaystack":5655,"ĠGiant":5656,"ftened":5657,"kins":5658,"Ġpush":5659,"atoni":5660,"eget":5661,"ĠKrisp":5662,"ucy":5663,"Ġdirect":5664,"Ġlasagne":5665,"ibut":5666,"will":5667,"ĠSu":5668,"ĠSam":5669,"ubstitute":5670,"Ġforming":5671,"ĠDelights":5672,"Ġracks":5673,"Ġeaten":5674,"Ġpuffs":5675,"ĠHobo":5676,"ĠStack":5677,"thawed":5678,"Ġadvance":5679,"over":5680,"Ġmaker":5681,"Ġinter":5682,"ĠSliced":5683,"ĠBits":5684,"Ġpee":5685,"ripe":5686,"ĠDilute":5687,"ĠHalf":5688,"Ġothers":5689,"Ġtubes":5690,"ĠPraline":5691,"Ġduck":5692,"ĠChiffon":5693,"aya":5694,"quet":5695,"Ġthinner":5696,"Style":5697,"ĠMuenster":5698,"egetarian":5699,"375":5700,"ives":5701,"Ġten":5702,"ene":5703,"andy":5704,"ĠTreat":5705,"Ġvirgin":5706,"iener":5707,"ĠLondon":5708,"paration":5709,"Ġhoneydew":5710,"ĠSeasoned":5711,"ĠHello":5712,"Ġcontinuously":5713,"ĠBuckeyes":5714,"\\\\":5715,"cini":5716,"Ġ??":5717,"Ġbundt":5718,"Ġdec":5719,"Ġcom":5720,"ghum":5721,"thod":5722,"oms":5723,"Ġbottoms":5724,"Ġanything":5725,"Ġdippers":5726,"Ġgrilled":5727,"mixed":5728,"ĠPinto":5729,"cially":5730,"anding":5731,"Ġtotal":5732,"Ġacorn":5733,"ĠHel":5734,"ĠSlightly":5735,"Ġkids":5736,"ubbed":5737,"ĠDoughnuts":5738,"Ġsprig":5739,"ĠHeart":5740,"ĠHerbed":5741,"ritos":5742,"Ġdistrib":5743,"ĠFries":5744,"Ġxxx":5745,"ĠBananas":5746,"Ġtrim":5747,"ermuda":5748,"ĠGlor":5749,"preferably":5750,"cal":5751,"Ġwedge":5752,"itely":5753,"ĠWor":5754,"Ġjuicy":5755,"ĠCalico":5756,"finitely":5757,"uvres":5758,"App":5759,"Ġbra":5760,"lect":5761,"itional":5762,"ĠPig":5763,"Ġgu":5764,"Ġgin":5765,"ister":5766,"ĠTaffy":5767,"Ġstraw":5768,"ĠChile":5769,"Ġsoupy":5770,"stir":5771,"ĠGener":5772,"Ġelse":5773,"ĠMein":5774,"ĠFrito":5775,"Ġcharcoal":5776,"From":5777,"Great":5778,"ais":5779,"back":5780,"ever":5781,"anger":5782,"Ġinde":5783,"ĠSesame":5784,"ĠBig":5785,"ĠTaste":5786,"omet":5787,"ĠLingu":5788,"ĠNachos":5789,"ĠLobster":5790,"softened":5791,"ĠWalnuts":5792,"ĠFranks":5793,"ĠWeight":5794,"Ġappetizer":5795,"Orange":5796,"gent":5797,"ora":5798,"ĠPers":5799,"Ġminestrone":5800,"eebler":5801,"Ġsavory":5802,"ience":5803,"quila":5804,"Ġpapers":5805,"Ġsalads":5806,"pecially":5807,"ĠPeanuts":5808,"Ġoverbeat":5809,"Ġscraping":5810,"Ġequivalent":5811,"Good":5812,"Ġbuds":5813,"Ġpal":5814,"ĠReal":5815,"ogen":5816,"ĠEggnog":5817,"ĠTony":5818,"Oe":5819,"bble":5820,"Ġcoll":5821,"Ġtasty":5822,"ĠBou":5823,"Ġcod":5824,"Ġstro":5825,"Ġcrisco":5826,"ĠDown":5827,"ĠReheat":5828,"ĠNog":5829,"aged":5830,"Ġpock":5831,"ildren":5832,"Ġburning":5833,"ĠChews":5834,"Ġsleeve":5835,"gresso":5836,"oux":5837,"ington":5838,"Ġinsert":5839,"Ġdredge":5840,"ĠBermuda":5841,"ĠPile":5842,"Ġlimes":5843,"ote":5844,"ĠLite":5845,"ĠJoy":5846,"Ġexact":5847,"ĠMocha":5848,"Ġcrisply":5849,"bons":5850,"ennel":5851,"walnuts":5852,"325":5853,"tand":5854,"right":5855,"ĠRye":5856,"nap":5857,"ĠHor":5858,"ĠSavory":5859,"Ġshoestring":5860,"Ġ???":5861,"Ġindefinitely":5862,"Bran":5863,"Ġthumb":5864,"Ġshaker":5865,"ĠFondue":5866,"Ġseam":5867,"ĠLarge":5868,"Ġtubs":5869,"depending":5870,"buttered":5871,"Ġburger":5872,"Ġbrew":5873,"ĠClassic":5874,"aken":5875,"Ġdilute":5876,"Ġicebox":5877,"lenda":5878,"Ġcenters":5879,"Ġpopsicle":5880,"ĠBorden":5881,".,":5882,"OT":5883,"part":5884,"rins":5885,"ster":5886,"Ġfashion":5887,"lemon":5888,"ĠBun":5889,"Ġpet":5890,"ottom":5891,"ĠRib":5892,"ĠWacky":5893,"Ġsea":5894,"ĠPreparation":5895,"Ġstale":5896,"Ġneck":5897,"weiger":5898,"ĠSmokies":5899,"athy":5900,"Ġacid":5901,"ĠFriendship":5902,"Ġtails":5903,"ometimes":5904,"abo":5905,"dried":5906,"eon":5907,"vals":5908,"ĠPilaf":5909,"Ġnumber":5910,"ĠThins":5911,"bleached":5912,"ĠSoy":5913,"flake":5914,"ĠQueso":5915,"ĠGrandmother":5916,"uriz":5917,"Ġmound":5918,"ĠTie":5919,"Ġnachos":5920,".).":5921,"Ġwhat":5922,"this":5923,"astic":5924,"Ġparties":5925,"ĠMuffin":5926,"Ġlimas":5927,"cinnamon":5928,"lub":5929,"Ġbel":5930,"Ġfile":5931,"tock":5932,"ĠFamily":5933,"asted":5934,"ĠLima":5935,"izes":5936,"Ġstands":5937,"ields":5938,"Ġquail":5939,"ĠCanad":5940,"ĠExtra":5941,"Ġclosely":5942,"urized":5943,"Di":5944,"beef":5945,"ginal":5946,"Ġtough":5947,"ĠBell":5948,"Ġhouse":5949,"Ġcrunch":5950,"standing":5951,"ĠHors":5952,"ĠHollow":5953,"uffed":5954,"ĠKeebler":5955,"ĠDeer":5956,"ĠPancake":5957,"Ġbrittle":5958,"Ġpearl":5959,"ĠSecure":5960,"ĠHaystacks":5961,"ogenized":5962,"cress":5963,"em":5964,"Ġwatch":5965,"ĠCereal":5966,"ĠBag":5967,"ĠParsley":5968,"allow":5969,"Ġcrisscross":5970,"ĠHoll":5971,"Ġ57":5972,"ĠVinaigrette":5973,"Ġchilli":5974,"Ġcomplete":5975,"Ġequals":5976,"ĠLiver":5977,"ĠSmoothie":5978,"ĠBusy":5979,"Ġbrie":5980,"elle":5981,"ĠChar":5982,"thin":5983,"Ġliking":5984,"Ġziti":5985,"ĠContains":5986,"void":5987,"ĠProgresso":5988,"ĠSuey":5989,"ĠAmish":5990,"diced":5991,"mushroom":5992,"vily":5993,"ilar":5994,"Ġwing":5995,"ĠBasil":5996,"chweiger":5997,"estnut":5998,"ĠGrated":5999,"unschweiger":6000,"ĠDivan":6001,"ĠPizzas":6002,"ĠSheph":6003,"Ġexactly":6004,"Mo":6005,"eer":6006,"Ġcit":6007,"ened":6008,"ĠSweetened":6009,"unbeaten":6010,"cheese":6011,"irrel":6012,"ĠHill":6013,"ĠGourmet":6014,"ĠEye":6015,"ĠInc":6016,"Ġespecially":6017,"ĠPorcupine":6018,"Ġsorghum":6019,"ĠGenerously":6020,"sk":6021,"Ġ150":6022,"Ġfeed":6023,"Ġfennel":6024,"Ġchurn":6025,"ĠBlender":6026,"ĠPesto":6027,"Ġeggnog":6028,"ĠLady":6029,"achine":6030,"anana":6031,"Ġcolors":6032,"Ġlengths":6033,"luded":6034,"icotti":6035,"Ġindividually":6036,"ermouth":6037,"22":6038,"calorie":6039,"ior":6040,"uces":6041,"ĠCopper":6042,"Ġrig":6043,"ĠDefrost":6044,"ĠToasted":6045,"iar":6046,"Ġpaint":6047,"ata":6048,"ĠBuff":6049,"ĠStri":6050,"ĠYour":6051,"Ġpickled":6052,"Ġpasteurized":6053,"ĠBurger":6054,"Ġfettucine":6055,"Ġbalance":6056,"monds":6057,"ĠRain":6058,"ĠVirgin":6059,"Ġplan":6060,"Ġtequila":6061,"Ġbutt":6062,"Ġtouched":6063,"Ġhollowed":6064,"ĠWait":6065,"ĠPaprika":6066,"Butter":6067,"Eyed":6068,"Minute":6069,"pie":6070,"ative":6071,"ĠCitrus":6072,"ĠSmall":6073,"Ġlye":6074,"Ġbuttery":6075,"Ġunbleached":6076,"Ġshot":6077,"ĠDr":6078,"Ġalways":6079,"Ġthroughout":6080,"Ġslivers":6081,"Ġwanted":6082,"Ġincluded":6083,"rito":6084,"Ġhomogenized":6085,"ĠShepherd":6086,"atzo":6087,"Ġwinter":6088,"ĠCryst":6089,"Ġsoap":6090,"ĠOat":6091,"Quick":6092,"miah":6093,"Cho":6094,"eremiah":6095,"ĠAdjust":6096,"ĠTamale":6097,"Ġdetergent":6098,"Al":6099,"Cool":6100,"Pe":6101,"Re":6102,"ilver":6103,"sharp":6104,"Ġmelting":6105,"ĠCheeseburger":6106,"Ġouter":6107,"estive":6108,"Ġtablespoonful":6109,"iving":6110,"Ġgrilling":6111,"tein":6112,"Ġmonth":6113,"Ġwonderful":6114,"Layer":6115,"iness":6116,"Ġsouffle":6117,"Ġtater":6118,"ition":6119,"Ġeye":6120,"ĠBudd":6121,"ists":6122,"ĠFig":6123,"ĠSpring":6124,"ĠLor":6125,"Ġrock":6126,"ĠEsp":6127,"ĠEsc":6128,"ĠSaucy":6129,"Ġtenderness":6130,"Ġbagels":6131,"Ġlayered":6132,"Ġquiche":6133,"mstock":6134,"reath":6135,"ĠPerrins":6136,"ĠPennies":6137,"Club":6138,"Sour":6139,"alo":6140,"Ġav":6141,"ĠBubble":6142,"ĠPri":6143,"ĠButtercream":6144,"ĠOriginal":6145,"ughter":6146,"Ġrigatoni":6147,"Apple":6148,"Mar":6149,"po":6150,"uel":6151,"Ġtots":6152,"ĠMars":6153,"ows":6154,"colored":6155,"lycer":6156,"ĠHome":6157,"ĠEaster":6158,"eye":6159,"ĠWashington":6160,"ortant":6161,"Ġsterile":6162,"!!!":6163,"Ġfitting":6164,"ĠTartar":6165,"Ġstrokes":6166,"Ġmain":6167,"ortening":6168,"Ġ29":6169,"ĠPeek":6170,"ggy":6171,"ĠMore":6172,"Ġorzo":6173,"ĠRuth":6174,"ĠString":6175,"ĠSmother":6176,"ĠPrune":6177,"powder":6178,"such":6179,"Ġins":6180,"ĠComstock":6181,"ĠFant":6182,"Ġspecial":6183,"Ġexcellent":6184,"blets":6185,"Ġcurls":6186,"andaise":6187,"vies":6188,"ĠCong":6189,"ĠPlain":6190,"ĠDeath":6191,"quid":6192,"ĠLush":6193,"ĠEnd":6194,"ĠJer":6195,"ĠPeople":6196,"Ġpackaged":6197,"ĠStep":6198,"aily":6199,"ĠCroquettes":6200,"Ġincrease":6201,"ĠClou":6202,"Ġgoes":6203,"accioli":6204,"Ġoverlapping":6205,"ĠHorseradish":6206,"'re":6207,"ipping":6208,"ura":6209,"yes":6210,"Ġwil":6211,"Ġglycer":6212,"ĠMounds":6213,"Ġvermouth":6214,"Ġflip":6215,"ĠChuck":6216,"ĠWestern":6217,"ĠFancy":6218,"reeze":6219,"pepper":6220,"Ġfind":6221,"ude":6222,"Ġheavily":6223,"Ġfolding":6224,"Ġbreaking":6225,"Ġrectangles":6226,"ĠTwinkie":6227,"retch":6228,"Ġappetizers":6229,"Wh":6230,"ike":6231,"sl":6232,"Ġca":6233,"Ġtaking":6234,"Ġtahini":6235,"Ġcholesterol":6236,"spray":6237,"Ġavoid":6238,"Ġdaily":6239,"Ġlift":6240,"Ġcoats":6241,"ott":6242,"Ġkitchen":6243,"psi":6244,"plants":6245,"Ġhamburgers":6246,"ĠBav":6247,"Ġreached":6248,"set":6249,"tally":6250,"garian":6251,"ĠPen":6252,"ĠMound":6253,"ĠAhead":6254,"Ġstone":6255,"verly":6256,"ĠCherries":6257,"ĠHand":6258,"ĠCovered":6259,"ĠNest":6260,"ĠButtered":6261,"Ġspreadable":6262,"Ġsealing":6263,"Ġflowerpot":6264,"Ġadjust":6265,"Ġsimilar":6266,"Ġjulienne":6267,"Ġintervals":6268,"ĠPersimmon":6269,"ĠBavarian":6270,"Bri":6271,"\\.":6272,"kay":6273,"lite":6274,"Ġtrout":6275,"Ġml":6276,"ĠPush":6277,"Ġhus":6278,"ĠMaster":6279,"Ġroux":6280,"Ġ65":6281,"Ġkinds":6282,"ĠThat":6283,"Ġquant":6284,"Ġunderstanding":6285,"ĠBonbons":6286,"ĠHollandaise":6287,"%)":6288,"ae":6289,"ippy":6290,"non":6291,"rich":6292,"wrap":6293,"ĠCashew":6294,"raSweet":6295,"Ġhull":6296,"Ġwatercress":6297,"ipes":6298,"ĠLad":6299,"Ġgrams":6300,"loins":6301,"Ġslit":6302,"Ġcrescents":6303,"ĠPopovers":6304,"ĠTortillas":6305,"Ġearly":6306,"Ġjackets":6307,"ĠGlorified":6308,"ĠBouquet":6309,"Ġbriefly":6310,"ĠVirginia":6311,"Ġavailable":6312,",\\":6313,"arrow":6314,"Ġtra":6315,"Ġpouch":6316,"Ġfrench":6317,"otted":6318,"Ġbeefy":6319,"ĠKielbasa":6320,"ĠSome":6321,"Ġpatience":6322,"ĠTacos":6323,"ĠMember":6324,"Ġprod":6325,"Ġcalled":6326,"Ġdollop":6327,"Ġpeek":6328,"ĠCongo":6329,"anges":6330,"ĠCor":6331,"Ġeight":6332,"ĠSubstitute":6333,"urst":6334,"ĠNOT":6335,"ĠHamburg":6336,"Ġtransfer":6337,"ĠHalve":6338,"Ġbelow":6339,"One":6340,"ze":6341,"Ġsodium":6342,"rets":6343,"Ġfix":6344,"icro":6345,"ĠSan":6346,"ĠBis":6347,"Ġgl":6348,"Ġeggplants":6349,"Ġnarrow":6350,"Ġshaking":6351,"ĠRos":6352,"ĠSpeed":6353,"ĠOther":6354,"ĠBrick":6355,"ĠPartially":6356,"Ġdisapp":6357,"ĠThinly":6358,"ĠCrystal":6359,"car":6360,"Ġ.":6361,"rey":6362,"Ġchange":6363,"unior":6364,"Ġstor":6365,"Ġjo":6366,"illed":6367,"ĠFa":6368,"ĠFun":6369,"ĠSplenda":6370,"aped":6371,"ĠJu":6372,"ĠJeremiah":6373,"ĠPepsi":6374,"Ġtenders":6375,"Ġrim":6376,"ĠSmok":6377,"Ġscallion":6378,"ĠLasagne":6379,"ĠWonderful":6380,"ĠSwanson":6381,"Diabetic":6382,"\")":6383,"Ida":6384,"ĠTap":6385,"ĠToll":6386,"oks":6387,"ĠChildren":6388,"comm":6389,"Ġfryers":6390,"ĠFrosty":6391,"Broccoli":6392,"ĠRainbow":6393,"Brien":6394,"gallon":6395,"val":6396,"Ġpesto":6397,"Ġchowder":6398,"ĠScore":6399,"ĠMulled":6400,"Ġovermix":6401,"Ġdepends":6402,"ĠCrisps":6403,"fait":6404,"ĠSuc":6405,"ĠLily":6406,"table":6407,"Ġpoured":6408,"Ġiceberg":6409,"ĠRoyal":6410,"Ġcroiss":6411,"Ġsciss":6412,"ĠCav":6413,"ĠMarsala":6414,"Ġsizes":6415,"Ġfun":6416,"ĠDan":6417,"umm":6418,"Ġcracklings":6419,"ĠSugarless":6420,"ĠRaisins":6421,"Ġkindness":6422,"ĠAlternately":6423,"Ġfalls":6424,"Ġdirectly":6425,"Oeuvres":6426,"Ġfilets":6427,"cus":6428,"ester":6429,"Ġfancy":6430,"ĠPate":6431,"ĠPace":6432,"ĠPicante":6433,"ĠFool":6434,"ĠEach":6435,"ult":6436,"ĠButternut":6437,"Ġgiblets":6438,"Ġopening":6439,"rounded":6440,"Ġcolada":6441,"Italian":6442,"Ġcavity":6443,"ĠSmothered":6444,"ĠCloud":6445,"ĠLadle":6446,"ao":6447,"Ġfunnel":6448,"leave":6449,"Ġeigh":6450,"ĠPierce":6451,"naments":6452,"Ġseven":6453,"ĠLen":6454,"Ġbreads":6455,"ĠOut":6456,"Ġslotted":6457,"Ġlowest":6458,"ĠFruity":6459,"ĠColor":6460,"Ġabsorbent":6461,"ĠSnowballs":6462,"tPour":6463,"Appetiz":6464,"Mex":6465,"Ġgingersnaps":6466,"ĠTakes":6467,"ĠCom":6468,"Ġshiny":6469,"Ġpuddings":6470,"ĠJean":6471,"Ġhalibut":6472,"ĠBrowns":6473,"arina":6474,"Ġsmok":6475,"Ġkeeping":6476,"ĠHamburgers":6477,"Ġrunny":6478,"ĠCrem":6479,"ĠHungarian":6480,"Ġscissors":6481,"Ġ0":6482,"Ġbought":6483,"Ġpast":6484,"ĠCrispies":6485,"ĠBark":6486,"ĠTry":6487,"ups":6488,"ashell":6489,"olds":6490,"ĠNilla":6491,"Ġneeds":6492,"ĠLove":6493,"Ġfollowed":6494,"ĠButterfingers":6495,"Ġprotein":6496,"prepared":6497,"Ġrubber":6498,"Ġmanuf":6499,"Ġscorching":6500,"abobs":6501,"Ġmanufact":6502,"Ritz":6503,"bake":6504,"een":6505,"lins":6506,"wurst":6507,"ari":6508,"cold":6509,"Ġtenderloins":6510,"Ġhardens":6511,"ĠLeftover":6512,"ĠFlip":6513,"ĠMincemeat":6514,"nergy":6515,"ĠNectar":6516,"ĠPowdered":6517,"ĠMedal":6518,"ĠSamuel":6519,"Ġeighths":6520,"black":6521,"hard":6522,"tS":6523,"Ġokay":6524,"ĠSweeten":6525,"verted":6526,"Ġwhiz":6527,"ĠSteep":6528,"acao":6529,"Ġmoderately":6530,"Ġseems":6531,"ĠWaverly":6532,"ĠKrispie":6533,"eck":6534,"press":6535,"~)":6536,"Ġtry":6537,"Ġpip":6538,"Ġinvert":6539,"Ġseams":6540,"ĠSauteed":6541,"ĠCornmeal":6542,"Ġcurly":6543,"ĠUnbaked":6544,"freshing":6545,"ĠMolded":6546,"ĠLike":6547,"Ġanchovies":6548,"ĠElephant":6549,"ĠWorld":6550,"ĠCanadian":6551,"ĠCremora":6552,"Ġmanufactur":6553,"med":6554,"sweetened":6555,"Ġsauces":6556,"ĠDolly":6557,"ĠLunch":6558,"abag":6559,"ĠMargar":6560,"ampi":6561,"ĠEngland":6562,"ĠNutraSweet":6563,"Ġgarnished":6564,"ĠGranola":6565,"ĠSticky":6566,"Ġbraunschweiger":6567,"35":6568,"60":6569,"amon":6570,"ged":6571,"eslaw":6572,"Ġmatzo":6573,"remove":6574,"Ġamon":6575,"ito":6576,"ĠBut":6577,"Ġglo":6578,"ĠMam":6579,"Ġveg":6580,"Ġthickening":6581,"Ġhandfuls":6582,"Ġcereals":6583,"Ġknives":6584,"Ġallowing":6585,"ĠOysters":6586,"ĠSpeedy":6587,"400":6588,"Sw":6589,"Yields":6590,"son":6591,"ille":6592,"andel":6593,"ĠPaint":6594,"Ġhulled":6595,"ĠWel":6596,"ĠFunnel":6597,"ĠIced":6598,"apes":6599,"Ġsquirrel":6600,"eady":6601,"Ġcoleslaw":6602,"Ġpreference":6603,"ĠLamb":6604,"Ġhardened":6605,"Ġsuper":6606,"Ġpineapples":6607,"Ġrises":6608,"ĠEvans":6609,"American":6610,"zel":6611,"Ġrain":6612,"Ġprop":6613,"Ġmints":6614,"ĠChurch":6615,"Ġspace":6616,"Ġdraining":6617,"Ġbreadsticks":6618,"iment":6619,"abisco":6620,"ĠNight":6621,"Ġdesign":6622,"Ġextracts":6623,"mperial":6624,"ĠLoaves":6625,"Ġperiod":6626,"ĠPlan":6627,"Ġpulls":6628,"ĠFillets":6629,"Ġpiping":6630,"Sh":6631,"Ġcacao":6632,"Ġbund":6633,"real":6634,"itas":6635,"Ġdent":6636,"ĠPaul":6637,"ĠWet":6638,"Ġgroup":6639,"ĠFoil":6640,"Ġsponge":6641,"amels":6642,"ĠWho":6643,"Ġbeaters":6644,"izon":6645,"Ġthickly":6646,"Ġlimp":6647,"Ġdeluxe":6648,"broccoli":6649,"Ġbrickle":6650,"Ġsafflower":6651,"ĠIncrease":6652,"Ġamong":6653,"nier":6654,"tery":6655,"isbury":6656,"Ġvegetarian":6657,"Ġflu":6658,"tilled":6659,"ĠImperial":6660,"iman":6661,"ĠReplace":6662,"Ġcarob":6663,"ĠJar":6664,"ĠVeal":6665,"ĠCornflake":6666,"ĠMince":6667,"ĠGreens":6668,"ahum":6669,"ĠManwich":6670,"ĠSecrets":6671,"wo":6672,"Ġbird":6673,"Ġtaken":6674,"Ġpatter":6675,"Ġmugs":6676,"ones":6677,"ĠBush":6678,"ĠMust":6679,"usel":6680,"Ġstar":6681,"tops":6682,"ĠChestnuts":6683,"ĠWind":6684,"ĠWipe":6685,"berally":6686,"armalade":6687,"ĠJew":6688,"etting":6689,"Ġplay":6690,"ĠBegin":6691,"Ġturnip":6692,"ĠMarnier":6693,"Ġsaffron":6694,"ĠJerky":6695,"Cream":6696,"des":6697,"put":6698,"Ġbush":6699,"onde":6700,"rock":6701,"Ġsugared":6702,"rack":6703,"ggie":6704,"ioneer":6705,"usc":6706,"used":6707,"Ġjunior":6708,"ĠStr":6709,"ĠStirring":6710,"oughy":6711,"ĠNabisco":6712,"Ġgingerbread":6713,"ĠSelect":6714,"ĠSugared":6715,"ĠMonster":6716,"ĠNeiman":6717,"...":6718,"ĠEleg":6719,"ĠJudges":6720,"Ġrows":6721,"Chocolate":6722,"ĠTapioca":6723,"Ġpattern":6724,"Duncan":6725,"Me":6726,"gia":6727,"grated":6728,"sal":6729,"uke":6730,"violi":6731,"ero":6732,"Ġchew":6733,"ĠBarb":6734,"ĠAle":6735,"cones":6736,"vender":6737,"ĠSalisbury":6738,"ĠNuggets":6739,"ĠChoice":6740,"Ġwait":6741,"ĠCorning":6742,"ĠCaramels":6743,"Ġhorizon":6744,"ĠBox":6745,"ĠBlan":6746,"ĠTenderloin":6747,"ĠCrescents":6748,"yler":6749,"Ġglut":6750,"Appetizer":6751,"wood":6752,"wheat":6753,"Ġtreat":6754,"Ġmounds":6755,"Ġtost":6756,"ĠPres":6757,"ĠMarmalade":6758,"ĠTsp":6759,"Ġsafe":6760,"ires":6761,"ĠDole":6762,"ansl":6763,"urry":6764,"amom":6765,"umbers":6766,"ĠGri":6767,"Ġalcohol":6768,"ĠJe":6769,"ĠKiss":6770,"ĠShoo":6771,"Ġcontaining":6772,"ĠQuickie":6773,"ĠScampi":6774,"Ġdrip":6775,"ĠPops":6776,"Ġfrosted":6777,"Ġtouching":6778,"Ġpalm":6779,"(\"":6780,"Sugar":6781,"cipes":6782,"ect":6783,"Ġsimple":6784,"lab":6785,"raspberry":6786,"Ġhum":6787,"Ġstre":6788,"Ġstream":6789,"ĠRell":6790,"ĠRounds":6791,"ĠGall":6792,"ĠReyn":6793,"ĠOle":6794,"ucent":6795,"ĠNahum":6796,"ĠSherry":6797,"ĠBrandy":6798,"Ġsmashed":6799,"Ġbroiling":6800,"Ġclusters":6801,"Ġpreferably":6802,"Ġbrushing":6803,"ĠCatfish":6804,"Ġswiss":6805,"Ġdistilled":6806,"eather":6807,"Ġtransl":6808,"opez":6809,"bbles":6810,"attice":6811,"Be":6812,"On":6813,"amb":6814,"ler":6815,"lers":6816,"Ġsole":6817,"onion":6818,"Ġ370":6819,"ĠMade":6820,"Ġbroiled":6821,"Ġsaved":6822,"Ġseashell":6823,"ĠEvery":6824,"ĠVer":6825,"inda":6826,"urtles":6827,"Ġpina":6828,"ĠHappy":6829,"alloped":6830,"ĠScallops":6831,"ĠGrahams":6832,"Ġluncheon":6833,"ĠRosemary":6834,"ĠBuffalo":6835,"Ġtranslucent":6836,"300":6837,"Car":6838,"Egg":6839,"Pec":6840,"Yum":6841,"Ġcork":6842,"Ġbow":6843,"Ġpu":6844,"Ġpuffy":6845,"ĠSex":6846,"ĠBB":6847,"ĠTips":6848,"Ġleg":6849,"Ġwhere":6850,"Ġ64":6851,"shake":6852,"Ġkaro":6853,"ĠKings":6854,"ealth":6855,"peach":6856,"ĠFruitcake":6857,"ĠGram":6858,"ĠUncooked":6859,"ĠStewed":6860,"ĠDirty":6861,"Ġdiagonal":6862,"Ġholidays":6863,"Ġmanufacturer":6864,"Ġfluid":6865,"ĠReynolds":6866,"French":6867,"fashioned":6868,"tMix":6869,"Ġcould":6870,"erne":6871,"Ġmachine":6872,"utabag":6873,"Ġwiener":6874,"Ġsuet":6875,"ĠBone":6876,"ased":6877,"asant":6878,"Ġsalts":6879,"ĠTurtles":6880,"Ġfluff":6881,"ĠLift":6882,"Ġbagel":6883,"ĠPlus":6884,"Ġmostaccioli":6885,"Ġcardamon":6886,"Ġrequired":6887,"ĠComfort":6888,"ĠRellen":6889,"ĠBBQ":6890,"'ll":6891,"ditional":6892,"keep":6893,"erran":6894,"Ġbisquick":6895,"Ġmine":6896,"ĠWedges":6897,"ado":6898,"ĠFull":6899,"ĠLopez":6900,"ĠGingersnaps":6901,"ĠOwn":6902,"ĠOptional":6903,"Ġworking":6904,"ĠCrepes":6905,"Ġloosen":6906,"Ġimportant":6907,"Ġxxxx":6908,"Ġbrewed":6909,"Fly":6910,"fetti":6911,"hold":6912,"lin":6913,"Ġcas":6914,"Ġsilk":6915,"Ġour":6916,"ona":6917,"Ġchoose":6918,"ient":6919,"amount":6920,"ida":6921,"arsn":6922,"Ġqts":6923,"Ġmouth":6924,"ĠNutmeg":6925,"Ġleek":6926,"ĠGeorgia":6927,"Marcus":6928,"baking":6929,"dark":6930,"ki":6931,"see":6932,"van":6933,"warm":6934,"ĠQ":6935,"Ġcrowd":6936,"Ġmiracle":6937,"Ġwere":6938,"ities":6939,"ĠSin":6940,"ĠBirds":6941,"olf":6942,"raps":6943,"ĠTen":6944,"illas":6945,"ĠDuring":6946,"adam":6947,"oman":6948,"ĠStand":6949,"ĠVien":6950,"ĠUnder":6951,"ĠTwin":6952,"ĠTwist":6953,"Ġveggie":6954,"Ġgoing":6955,"ĠSteamed":6956,"creamy":6957,"ĠBorax":6958,"ĠJohnny":6959,"Ġpocket":6960,"adamia":6961,"26":6962,"pr":6963,"smooth":6964,"esh":6965,"get":6966,"Ġthrow":6967,"change":6968,"ĠFestive":6969,"oleo":6970,"ids":6971,"arsely":6972,"Ġlaughter":6973,"ĠThrow":6974,"ĠTwice":6975,"layer":6976,"ĠSeafoam":6977,"Ġdecoration":6978,"Ġscrubbed":6979,"popped":6980,"ĠFoolproof":6981,"Very":6982,"cub":6983,"net":6984,"Ġserves":6985,"Ġparch":6986,"Ġmush":6987,"raight":6988,"ĠTet":6989,"Ġcheesecake":6990,"ĠDO":6991,"iest":6992,"imp":6993,"aced":6994,"ystery":6995,"mixture":6996,"ĠMiniature":6997,"Ġsecurely":6998,"Ġdusted":6999,"sicles":7000,"Ġcardamom":7001,"ĠCarolina":7002,"Pecan":7003,"fir":7004,"her":7005,"pour":7006,"wash":7007,"Ġiced":7008,"Ġpol":7009,"ĠPioneer":7010,"Ġgetting":7011,"ggest":7012,"Ġcreaming":7013,"Ġshelf":7014,"color":7015,"ĠStre":7016,"ĠShortening":7017,"ĠFlank":7018,"Ġmemb":7019,"Ġsteaming":7020,"ĠBlonde":7021,"Ġcrepe":7022,"according":7023,"Ġpresweetened":7024,"Ġbucket":7025,"ĠEscalloped":7026,"freeze":7027,"makes":7028,"wick":7029,"ilt":7030,"Ġdirt":7031,"ĠSilk":7032,"razz":7033,"Ġlattice":7034,"Ġunpared":7035,"Ġminus":7036,"pplement":7037,"Ġcorners":7038,"ĠLee":7039,"ĠLinda":7040,"shred":7041,"imum":7042,"Ġkale":7043,"ĠNumbers":7044,"Ġstemmed":7045,"sci":7046,"ĠPeppermint":7047,"Ġmarinara":7048,"Ġdelic":7049,"strawberries":7050,"ĠHearty":7051,"Ġdistribute":7052,"Ġinsides":7053,"Ġhorizontally":7054,"ĠTetrazz":7055,"Corn":7056,"Eagle":7057,"down":7058,"gra":7059,"iven":7060,"pa":7061,"Ġ115":7062,"original":7063,"ĠBloss":7064,"Ġgas":7065,"ĠMystery":7066,"ĠChunky":7067,"ĠHumm":7068,"Ġstanding":7069,"ĠBruns":7070,"Chicken":7071,"ĠSnicker":7072,"Ġburgers":7073,"Crust":7074,"ĠGriff":7075,"Cauliflower":7076,"either":7077,"fire":7078,"make":7079,"tie":7080,"Ġpurch":7081,"Ġmot":7082,"Ġfashioned":7083,"ĠCrowd":7084,"Ġdots":7085,"Ġjuiced":7086,"illing":7087,"ĠId":7088,"Ġcovers":7089,"ĠChoco":7090,"Ġtwists":7091,"ĠGoes":7092,"mboo":7093,"ĠTetrazzini":7094,"Lime":7095,"Ġsink":7096,"Ġtanger":7097,"Ġtester":7098,"iles":7099,"Ġfound":7100,"Ġfield":7101,"Ġchestnut":7102,"ĠBel":7103,"ĠMorning":7104,"Ġflute":7105,"ĠHolly":7106,"Ġcrockpot":7107,"flon":7108,"ava":7109,"ĠLinguine":7110,"Ġmembran":7111,"sciut":7112,"ĠBrunswick":7113,"sin":7114,"Ġoval":7115,"Ġtropical":7116,"pps":7117,"ĠBrew":7118,"ĠCoco":7119,"ĠWinter":7120,"nac":7121,"Ġrinds":7122,"Ġbamboo":7123,"ĠGumbo":7124,"Ġalone":7125,"Ġking":7126,"ĠCreamettes":7127,"Ġliberally":7128,"ĠThere":7129,"Ġtabasco":7130,"Ġsteel":7131,"ĠCrustless":7132,"ĠEnough":7133,"marshmallow":7134,"Coconut":7135,"ĠSauterne":7136,"ĠBrickle":7137,"iveness":7138,"ĠGriffin":7139,"sciutto":7140,"but":7141,"bles":7142,"Ġsilver":7143,"Ġbris":7144,"ouff":7145,"cean":7146,"ĠFud":7147,"ĠEas":7148,"ĠKet":7149,"ĠRolled":7150,"ĠNon":7151,"estyle":7152,"ecially":7153,"ĠFruited":7154,"screw":7155,"ĠScatter":7156,"aiqu":7157,"ĠSmash":7158,"addy":7159,"ĠChewies":7160,"Stir":7161,"Ġmangoes":7162,"ĠTemperature":7163,"ĠBuddig":7164,"Baked":7165,"gnac":7166,"ically":7167,"lease":7168,"sprinkle":7169,"Ġeyes":7170,"ĠPit":7171,"Ġhush":7172,"ĠWyler":7173,"Ġspiced":7174,"Ġrather":7175,"ĠWhipping":7176,"erving":7177,"ĠCheesecakes":7178,"Ġpoints":7179,"alories":7180,"ĠWatermelon":7181,"ĠDilly":7182,"ĠMacadamia":7183,"Ġchewy":7184,"bite":7185,"each":7186,"squ":7187,"Ġtong":7188,"level":7189,"ĠCholesterol":7190,"napps":7191,"Ġrecomm":7192,"ressed":7193,"Ġprebaked":7194,"scar":7195,"Ġconsider":7196,"Ġmethod":7197,"Ġflattened":7198,"type":7199,"ĠMarshmallows":7200,"ĠRoma":7201,"ĠProsciutto":7202,"Ġwonton":7203,"ĠBlanch":7204,"Ġfasten":7205,"ĠSundae":7206,"ĠFettuccine":7207,"ĠJane":7208,"ĠRibbon":7209,"sprayed":7210,"100":7211,"Energy":7212,"Ro":7213,"Ġcured":7214,"aring":7215,"only":7216,"ica":7217,"ĠBill":7218,"ĠPast":7219,"Ġshoe":7220,"ĠDad":7221,"Ġrecipes":7222,"ĠHold":7223,"ĠGu":7224,"ardi":7225,"ĠOscar":7226,"Ġmeaty":7227,"seed":7228,"Ġpicks":7229,"ĠSlit":7230,"ĠBurritos":7231,"ĠMaid":7232,"Ġsectioned":7233,"acting":7234,"Ġdecorative":7235,"Ġimpro":7236,"Ġjigger":7237,"ĠHelen":7238,"ĠBisque":7239,"Ġdente":7240,"Ġbushel":7241,"Ġbrisk":7242,"Don":7243,"ska":7244,"va":7245,"Ġswee":7246,"Ġslab":7247,"Ġob":7248,"Ġbuy":7249,"Ġpier":7250,"Ġmul":7251,"Ġfr":7252,"spread":7253,"ĠPicnic":7254,"ĠChutney":7255,"ĠDuck":7256,"ada":7257,"oma":7258,"vest":7259,"ngth":7260,"Ġturned":7261,"Ġ240":7262,"ĠLoos":7263,"Ġkneading":7264,"Ġindent":7265,"ĠComplet":7266,"Ġmanicotti":7267,"ĠSandies":7268,"Ġrainbow":7269,"giving":7270,"Ġcamp":7271,"Ġomelet":7272,"Ġpicnic":7273,"Ġmill":7274,"Ġcobbler":7275,"ria":7276,"Ġpepperon":7277,"ĠChach":7278,"ody":7279,"Ġrare":7280,"Ġpeels":7281,"Ġsomething":7282,"ĠUnwrap":7283,"ĠJacks":7284,"Ġelastic":7285,"ĠDribble":7286,"Ġendive":7287,"ielbasi":7288,"ĠTortellini":7289,"skim":7290,"Ġwilted":7291,"Ġcorkscrew":7292,"Hot":7293,"Pean":7294,"Soup":7295,"min":7296,"Ġcour":7297,"Ġparsn":7298,"Ġmatch":7299,"ality":7300,"itan":7301,"ĠBri":7302,"ĠBoy":7303,"raft":7304,"chi":7305,"Ġcanner":7306,"Ġstraight":7307,"Ġsac":7308,"Ġsoggy":7309,"ksgiving":7310,"ĠDozen":7311,"Ġperfect":7312,"ĠAlmonds":7313,"whipped":7314,"Ġtriple":7315,"Ġbloss":7316,"ĠSouthw":7317,"ĠSpritz":7318,"Ġcrystall":7319,"ĠTeflon":7320,"Ġcontinuing":7321,"marshmallows":7322,"Velveeta":7323,"Yield":7324,"zetti":7325,"Ġsizz":7326,"Ġfo":7327,"ĠCalories":7328,"Ġnuggets":7329,"ĠWare":7330,"shaped":7331,"oren":7332,"ĠCrushed":7333,"ĠCanapes":7334,"what":7335,"Ġbackfin":7336,"ĠKidney":7337,"ronicles":7338,"ĠSchnapps":7339,"Ġreplacement":7340,"riched":7341,"uscious":7342,"grain":7343,"rate":7344,"tine":7345,"ended":7346,"andar":7347,"ĠScones":7348,"Ġunw":7349,"ĠCoarsely":7350,"ĠChronicles":7351,"ĠRabb":7352,"ĠWrapped":7353,"bert":7354,"Ġconverted":7355,"ĠOw":7356,"Ġcauliflowerets":7357,"ford":7358,"Ġscalding":7359,"Ġequally":7360,"Ġcitric":7361,"Ġquantity":7362,"ĠElegant":7363,"shredded":7364,"Del":7365,"Old":7366,"deep":7367,"glass":7368,"luck":7369,"must":7370,"sts":7371,"vious":7372,"ĠBottom":7373,"Ġeggbeat":7374,"Ġvinaigrette":7375,"Ġstraws":7376,"tose":7377,"rif":7378,"ĠWhirl":7379,"ĠKe":7380,"Ġenriched":7381,"fulness":7382,"Ġhandling":7383,"Ġdropping":7384,"Ġperfor":7385,"Ġcheap":7386,"Potato":7387,"ĠServing":7388,"Ġvarious":7389,"Ġcontinually":7390,"ĠThanksgiving":7391,"Ġdrumsticks":7392,"Pepper":7393,"ĠRellenos":7394,"ĠChachere":7395,"Fail":7396,"Not":7397,"blue":7398,"uct":7399,"Ġsand":7400,"Ġtied":7401,"Ġpray":7402,"Ġmal":7403,"Ġaverage":7404,"Ġ38":7405,"ĠBak":7406,"Ġvent":7407,"Ġthing":7408,"Ġmins":7409,"Ġbroad":7410,"Ġrutabag":7411,"amate":7412,"ĠSalami":7413,"uctose":7414,"Ġsquirt":7415,"pected":7416,"Ġgives":7417,"ĠFinally":7418,"Ġweight":7419,"Ġhousehold":7420,"ĠSanta":7421,"Ġglutamate":7422,"ĠKetchup":7423,"Peanut":7424,"ĠRabbit":7425,"Make":7426,"Sa":7427,"au":7428,"ymp":7429,"intz":7430,"Ġsometimes":7431,"eros":7432,"Ġproof":7433,"Ġmang":7434,"ĠCle":7435,"ĠPur":7436,"ĠPigs":7437,"Ġcognac":7438,"Ġunpopped":7439,"Ġcane":7440,"ders":7441,"mble":7442,"vege":7443,"Ġspear":7444,"Ġroughy":7445,"serving":7446,"iform":7447,"ĠOR":7448,"ĠJif":7449,"ĠMinutes":7450,"Ġgoose":7451,"Ġsnacks":7452,"Ġdecorations":7453,"ĠHarvest":7454,"Ġesc":7455,"Ġscraped":7456,"ĠHillshire":7457,"Ġstorage":7458,"ĠBlanket":7459,"andarins":7460,"Ġeggbeater":7461,"Ġmangos":7462,"Crock":7463,"ains":7464,"falf":7465,"mini":7466,"mettes":7467,"soup":7468,"Ġcase":7469,"Ġpizz":7470,"ĠClay":7471,"ĠBug":7472,"Ġgold":7473,"using":7474,"ĠAsp":7475,"Ġstretch":7476,"Ġmark":7477,"ĠDecor":7478,"ĠDaddy":7479,"ĠWest":7480,"ĠSparkling":7481,"ĠLogs":7482,"ĠHen":7483,"ĠVan":7484,"after":7485,"ĠCarne":7486,"uckle":7487,"Ġscrew":7488,"angria":7489,"ĠRuby":7490,"ĠWhiskey":7491,"ĠDollies":7492,"Ġscramble":7493,"ĠFettucini":7494,"ĠNana":7495,"skinless":7496,"Ġcroissants":7497,"Ġfructose":7498,"falfa":7499,"ane":7500,"Ġmight":7501,"alaya":7502,"orp":7503,"Ġsuff":7504,"ised":7505,"Ġsalty":7506,"Ġunmold":7507,"Ġforg":7508,"stuffed":7509,"ĠLuscious":7510,"ucer":7511,"ĠNice":7512,"iano":7513,"ĠBreaded":7514,"Ġpicked":7515,"Ġevapor":7516,"kets":7517,"iva":7518,"ĠConfetti":7519,"Ġagainst":7520,"which":7521,"ĠDonuts":7522,"Ġbasic":7523,"ĠPerk":7524,"Cookies":7525,"bean":7526,"Ġcombining":7527,"ĠFlavored":7528,"ĠTrash":7529,"coholic":7530,"ĠCaviar":7531,"ĠStreusel":7532,"Ġconsideration":7533,"Rais":7534,"cord":7535,"jo":7536,"Ġcy":7537,"Ġcling":7538,"Ġmandarins":7539,"icient":7540,"ĠCraw":7541,"ĠCenter":7542,"Ġtoaster":7543,"Ġhang":7544,"chool":7545,"Ġuniform":7546,"tact":7547,"ĠSpry":7548,"Ġcontains":7549,"ĠHom":7550,"llo":7551,"Ġalfalfa":7552,"ĠKabobs":7553,"extra":7554,"Ġplump":7555,"Ġtacos":7556,"plus":7557,"Ġskimmed":7558,"Ġribbon":7559,"Ġ238":7560,"ĠGouda":7561,"ĠSchool":7562,"ĠLentil":7563,"Ġstrength":7564,"ĠLoosen":7565,"ĠOwens":7566,"Inch":7567,"banana":7568,"follow":7569,"zer":7570,"Ġ=":7571,"Ġpale":7572,"Ġpierce":7573,"Ġmacaroons":7574,"reck":7575,"Ġfrit":7576,"ĠColl":7577,"ixie":7578,"ĠSangria":7579,"raine":7580,"ĠMarb":7581,"ĠMark":7582,"Ġthose":7583,"oka":7584,"ĠWeek":7585,"ĠSprouts":7586,"Ġdishwash":7587,"ĠGod":7588,"ĠInn":7589,"ucc":7590,"Ġgrahams":7591,"Ġletting":7592,"Ġperk":7593,"ĠDilled":7594,"Ġrotating":7595,"Ġresemble":7596,"ĠScrambled":7597,"ĠSupplement":7598,"ĠPlanters":7599,"ĠVienna":7600,"Ġmallet":7601,"Roll":7602,"az":7603,"lie":7604,"Ġmalt":7605,"garnish":7606,"ĠSus":7607,"ĠBologna":7608,"Ġhope":7609,"ĠCoated":7610,"Ġstop":7611,"Ġforks":7612,"vera":7613,"Ġshav":7614,"ĠRoka":7615,"ĠWin":7616,"Ġbakes":7617,"Ġcarne":7618,"Ġpapaya":7619,"osition":7620,"unsalted":7621,"Ġsubstitutes":7622,"ividual":7623,"Ġprune":7624,"ĠBonnet":7625,"Ġshoots":7626,"ĠStrips":7627,"ĠEspecially":7628,"ĠSuccess":7629,"ambalaya":7630,"Ġpurchased":7631,"Ġpepperoncini":7632,"Ġperforations":7633,"ĠAspic":7634,"Ġshavings":7635,"tB":7636,"ĠBird":7637,"inet":7638,"Ġgift":7639,"isin":7640,"ĠChi":7641,"ĠRh":7642,"ĠDie":7643,"ĠStar":7644,"ĠKosher":7645,"Ġsweetness":7646,"ĠYam":7647,"Ġunsliced":7648,"ĠFlan":7649,"ĠMarie":7650,"Ġsomewhat":7651,"ĠCrumbs":7652,"Ġcaramelized":7653,"Ġpintos":7654,"Ġclay":7655,"aho":7656,"Ġsteamer":7657,"crumbled":7658,"Ġdiscarding":7659,"Ġbuttons":7660,"bbie":7661,"Ġcollards":7662,"ĠLorraine":7663,"Ġglycerin":7664,"Ġpuppies":7665,"Ġparchment":7666,"Ġbriskly":7667,"Ġforgiveness":7668,"uccino":7669,"--":7670,"64":7671,"mies":7672,"pound":7673,"Ġpli":7674,"Ġchanges":7675,"leans":7676,"ppiness":7677,"Ġfluted":7678,"ells":7679,"stead":7680,"ĠHank":7681,"Ġhotter":7682,"Ġremains":7683,"ĠNeed":7684,"osodium":7685,"ĠEggless":7686,"ĠBeefy":7687,"Ġparticles":7688,"Ġnever":7689,"mavera":7690,"ĠDorito":7691,"appuccino":7692,"ĠPopsicles":7693,"ĠCrunchies":7694,"Ġstacks":7695,"Ġinstructed":7696,"ibby":7697,"boiling":7698,"Ġomitted":7699,"ĠVeggies":7700,"Ġbatches":7701,"yalty":7702,"ĠGeorge":7703,"ĠWhoop":7704,"ĠCrawfish":7705,"We":7706,"aid":7707,"Ġtarts":7708,"Ġpen":7709,"ĠPass":7710,"Ġgame":7711,"isters":7712,"Ġcanister":7713,"comp":7714,"eltzer":7715,"ĠReally":7716,"ĠPears":7717,"Ġhalve":7718,"ssum":7719,"Ġprevious":7720,"Ġfinal":7721,"Ġcranapple":7722,"Ġfatback":7723,"Ġripen":7724,"ĠDoes":7725,"ĠSquirt":7726,"Ġfriend":7727,"Ġfriendship":7728,"Ġwrapper":7729,"Ġliner":7730,"Ġhelps":7731,"uyere":7732,"andelion":7733,"Ġblossoms":7734,"Cup":7735,"bran":7736,"iri":7737,"Ġseltzer":7738,"Ġton":7739,"Ġphe":7740,"Ġintact":7741,"ĠSelf":7742,"ĠTer":7743,"ummy":7744,"Ġkrispies":7745,"Ġravioli":7746,"Ġexchange":7747,"separ":7748,"Ġupon":7749,"ĠMost":7750,"ĠFlor":7751,"Ġshallot":7752,"ĠConfection":7753,"ĠOrnaments":7754,"ĠOrleans":7755,"Ġmonosodium":7756,"ĠPlant":7757,"Ġskewer":7758,"Ġ260":7759,"Ġjiggers":7760,"powdered":7761,"zebel":7762,"Ġdisappears":7763,"Ġescape":7764,"Ġsufficient":7765,"Ġpliable":7766,"Ġbu":7767,"Ġmg":7768,"ends":7769,"Ġfeet":7770,"Ġable":7771,"Ġeff":7772,"Ġhun":7773,"Ġthink":7774,"rip":7775,"Ġsaucer":7776,"ĠRipe":7777,"ĠDark":7778,"Ġgrater":7779,"Ġcone":7780,"ifter":7781,"ifts":7782,"Ġappears":7783,"enty":7784,"ĠNa":7785,"ĠTofu":7786,"ĠForest":7787,"Ġtemper":7788,"ĠGruyere":7789,"Ġbringing":7790,"ĠMarzetti":7791,"ĠApproximately":7792,"ĠWilli":7793,"Ġtrifle":7794,"Ġscald":7795,"Ġcollard":7796,"Ġproduct":7797,"zelnuts":7798,"ĠJezebel":7799,"ympathy":7800,"Ġcycle":7801,"Banana":7802,"bottom":7803,"crack":7804,"hal":7805,"mis":7806,"two":7807,"argarine":7808,"atic":7809,"Ġface":7810,"Ġsuey":7811,"ĠSna":7812,"ĠPone":7813,"Ġhare":7814,"Ġlife":7815,"Ġstain":7816,"ĠRap":7817,"ĠWreath":7818,"Ġrefreshing":7819,"Ġcrumbles":7820,"ĠOcean":7821,"Ġdep":7822,"Ġpreparation":7823,"ĠConcord":7824,"uchen":7825,"crunchy":7826,"ĠOlives":7827,"Ġjoint":7828,"Ġgloves":7829,"Ġproper":7830,"graham":7831,"aiquiri":7832,"ĠCompletely":7833,"Fruit":7834,"good":7835,"zil":7836,"Ġcrimp":7837,"uture":7838,"Ġau":7839,"ĠSimp":7840,"Ġgifts":7841,"ĠMelon":7842,"Ġflesh":7843,"Ġunused":7844,"Ġnog":7845,"Ġsaut":7846,"redients":7847,"thick":7848,"ĠWraps":7849,"taur":7850,"ĠGlass":7851,"book":7852,"Ġpinches":7853,"ĠGras":7854,"Ġarea":7855,"ĠZippy":7856,"Ġparfait":7857,"ĠBarley":7858,"ĠWorking":7859,"ugu":7860,"ĠSnowball":7861,"Ġfaj":7862,"broken":7863,"Ġdevein":7864,"ylvan":7865,"ĠWilted":7866,"ĠJudy":7867,"ĠFantasy":7868,"slightly":7869,"ĠCordon":7870,"print":7871,"cubed":7872,"firm":7873,"Ġparsnips":7874,"Raisin":7875,"ĠFlorida":7876,"250":7877,"Time":7878,"Un":7879,"gran":7880,"long":7881,"ues":7882,"Ġcal":7883,"Ġsympathy":7884,"rots":7885,"ĠSize":7886,"ĠPita":7887,"olo":7888,"ĠMich":7889,"ĠMacaroon":7890,"ĠMenthe":7891,"Ġunseasoned":7892,"ĠChunk":7893,"irth":7894,"ĠHickory":7895,"ĠRequ":7896,"ĠRefill":7897,"Ġkiss":7898,"uffles":7899,"Ġyellows":7900,"Ġstiffen":7901,"Ġscatter":7902,"ĠGoodies":7903,"Ġtoward":7904,"ĠCrusty":7905,"Strawber":7906,"Ġcreate":7907,"Ġcrepes":7908,"rize":7909,"ĠJewish":7910,"peaches":7911,"Ġtangerine":7912,"vegetable":7913,"Ġdishwashing":7914,"ylvania":7915,"33":7916,"house":7917,"sylvania":7918,"tCo":7919,"Ġcitrus":7920,"Ġsna":7921,"Ġphy":7922,"Ġfuture":7923,"garlic":7924,"ĠPurple":7925,"uncovered":7926,"Ġcobs":7927,"Ġstops":7928,"ĠDixie":7929,"Ġbea":7930,"Ġsplash":7931,"ĠGen":7932,"ĠGrey":7933,"board":7934,"Ġexp":7935,"Ġsettle":7936,"ĠPrecook":7937,"ĠYear":7938,"Ġdills":7939,"Ġcrabs":7940,"ĠFlaky":7941,"Ġarran":7942,"ĠMilkshake":7943,"Ġwraps":7944,"Ġvari":7945,"Ġdecorating":7946,"Ġpersimmons":7947,"Moist":7948,"ĠEasiest":7949,"taurant":7950,"Ġphyllo":7951,"!).":7952,".'":7953,"He":7954,"My":7955,"Pam":7956,"Ready":7957,"Ste":7958,"awn":7959,"found":7960,"vit":7961,"ert":7962,"Ġore":7963,"Ġpor":7964,"ĠMunch":7965,"ĠAma":7966,"wns":7967,"Ġexpected":7968,"ĠViva":7969,"liquid":7970,"ĠShip":7971,"ranberry":7972,"Ġpopping":7973,"ĠFloren":7974,"ĠMayer":7975,"ĠAlmost":7976,"stituted":7977,"Ġherbed":7978,"Ġsubstitut":7979,"uche":7980,"reacher":7981,"Ġshortbread":7982,"ĠLiquid":7983,"ĠCompote":7984,"ĠLastly":7985,"Ġomitting":7986,"ĠTemp":7987,"ordfish":7988,"ĠLinguini":7989,"pression":7990,"Ġbundle":7991,"Ġrecommended":7992,"ĠWhoopie":7993,"uguese":7994,"Note":7995,"Rec":7996,"Ġato":7997,"Ġpare":7998,"Ġfig":7999,"ĠCant":8000,"ĠCatsup":8001,"ĠCappuccino":8002,"Ġgreas":8003,"ungreased":8004,"Ġmince":8005,"Ġminimum":8006,"ĠDab":8007,"ste":8008,"Ġoverripe":8009,"ĠFire":8010,"omargarine":8011,"ĠIi":8012,"oody":8013,"Ġkielbasi":8014,"ĠOregano":8015,"Ġoleomargarine":8016,"Ġhazelnuts":8017,"tained":8018,"ĠSear":8019,"Ġmelons":8020,"ailey":8021,"Ġfilet":8022,"ĠSmuck":8023,"Ġmeasured":8024,"ĠTotal":8025,"ĠSchilling":8026,"ĠQuesad":8027,"ĠGalliano":8028,"errano":8029,"ĠIdaho":8030,"ĠWilliams":8031,"ĠRapid":8032,"Ġdepth":8033,"ĠAmaz":8034,"Ġatop":8035,"Kraft":8036,"Lo":8037,"Let":8038,"lightly":8039,"ville":8040,"work":8041,"ince":8042,"Ġsat":8043,"Ġpenne":8044,"Ġ27":8045,"ĠBund":8046,"ĠPic":8047,"ĠPrize":8048,"Ġher":8049,"ĠMild":8050,"uster":8051,"usually":8052,"ottle":8053,"che":8054,"chunky":8055,"ĠWiener":8056,"ĠFan":8057,"member":8058,"constituted":8059,"Ġrubbed":8060,"Ġyear":8061,"aper":8062,"Ġcracklins":8063,"ĠJambalaya":8064,"ĠKar":8065,"othing":8066,"ĠNature":8067,"Ġplaces":8068,"105":8069,"ĠMayo":8070,"ĠCons":8071,"Ġbrunch":8072,"ĠPost":8073,"Ġsecret":8074,"ĠBacardi":8075,"Ġcaviar":8076,"ĠPorcupines":8077,"Ġdrummettes":8078,"ĠPrimavera":8079,"Swiss":8080,"Ġpierced":8081,"Recipe":8082,"Best":8083,"Miracle":8084,"Tom":8085,"equal":8086,"grape":8087,"jell":8088,"tSp":8089,"ume":8090,"Ġmicro":8091,"refriger":8092,"Ġwreath":8093,"ĠCarb":8094,"Ġgher":8095,"olks":8096,"Ġpebbles":8097,"Ġhol":8098,"ĠMicro":8099,"ĠDrum":8100,"Ġreg":8101,"ĠLucky":8102,"ĠLibby":8103,"Ġrope":8104,"Ġdrying":8105,"ĠOats":8106,"ĠIng":8107,"ĠKo":8108,"loaf":8109,"ĠNancy":8110,"Ġenh":8111,"Ġthinned":8112,"ĠChoy":8113,"ively":8114,"ĠSoap":8115,"Ġsmokies":8116,"ĠPock":8117,"Ġburrito":8118,"ĠIndividual":8119,"Ġguests":8120,"Ġcitron":8121,"ĠWelch":8122,"Ġmembrane":8123,"Ġsweeter":8124,"ĠHanky":8125,"ĠSimply":8126,"ĠAmazing":8127,")(":8128,"So":8129,"Serv":8130,"Top":8131,"__":8132,"best":8133,"lt":8134,"opper":8135,"tStir":8136,"weg":8137,"Ġsits":8138,"eral":8139,"Ġbirds":8140,"ĠBailey":8141,"rab":8142,"ĠMango":8143,"Ġadds":8144,"Ġkeros":8145,"ensive":8146,"Ġlose":8147,"Ġpeelings":8148,"ogi":8149,"ĠStop":8150,"same":8151,"ĠSouper":8152,"ĠScott":8153,"Ġparboil":8154,"ĠPeachy":8155,"ĠChef":8156,"Ġbitters":8157,"Ġsolids":8158,"Ġways":8159,"ĠFoods":8160,"ĠPercolator":8161,"ĠSara":8162,"ĠWonder":8163,"ĠBrazil":8164,"Ġcalls":8165,"ĠEdible":8166,"Ġdabs":8167,"Ġdistributed":8168,"ĠPenuche":8169,"Ġhusks":8170,"ĠJuicy":8171,"ĠStrata":8172,"intzes":8173,"irthday":8174,"wegian":8175,"Ġkerosene":8176,"Mores":8177,"Rise":8178,"Sal":8179,"lis":8180,"mers":8181,"sodium":8182,"Ġread":8183,"Ġscore":8184,"erit":8185,"Ġtines":8186,"Ġma":8187,"icus":8188,"ĠCab":8189,"space":8190,"ĠPier":8191,"ĠAcorn":8192,"ĠDav":8193,"ĠStella":8194,"Ġcond":8195,"Ġdishpan":8196,"ĠVodka":8197,"Ġstep":8198,"Ġtemp":8199,"ĠSeas":8200,"Ġbutcher":8201,"Ġsmell":8202,"Ġparboiled":8203,"irty":8204,"Ġdrinks":8205,"ĠCroutons":8206,"ĠWorks":8207,"Ġproced":8208,"ĠPennsylvania":8209,"Ġcomino":8210,"Ġpockets":8211,"ĠFantastic":8212,"Ġcourse":8213,"ĠBugles":8214,"granulated":8215,"viticus":8216,"An":8217,"Cut":8218,"bab":8219,"clo":8220,"fold":8221,"full":8222,"ha":8223,"ias":8224,"salted":8225,"tor":8226,"tips":8227,"ugel":8228,"wie":8229,"wreck":8230,"inos":8231,"Ġsifter":8232,"Ġbright":8233,"Ġtang":8234,"Ġmess":8235,"ĠCas":8236,"ppos":8237,"Ġact":8238,"Ġever":8239,"ĠBubb":8240,"last":8241,"toasted":8242,"ĠLace":8243,"should":8244,"ĠOh":8245,"ĠEvenly":8246,"ĠJub":8247,"ĠKathy":8248,"Ġslight":8249,"ĠPeter":8250,"Ġpreced":8251,"Ġsmoothly":8252,"Ġhammer":8253,"ĠTurnip":8254,"Ġhors":8255,"ĠWithout":8256,"Ġpops":8257,"ĠPatty":8258,"ĠCavender":8259,"ĠGoo":8260,"Ġdumpling":8261,"Ġscalloped":8262,"Ġthreads":8263,"iodized":8264,"Ġglycerine":8265,"Ġmulti":8266,"ĠClear":8267,"ĠPuritan":8268,"ĠShipwreck":8269,"ĠBundles":8270,"eritage":8271,"**":8272,"Gar":8273,"bably":8274,"metal":8275,"tD":8276,"wine":8277,"atel":8278,"ilee":8279,"utti":8280,"Ġage":8281,"Ġeagle":8282,"ĠSens":8283,"ĠSally":8284,"ĠPreacher":8285,"Ġgent":8286,"asts":8287,"ĠAut":8288,"Ġattra":8289,"iev":8290,"ĠDifferent":8291,"ersion":8292,"cool":8293,"ĠIts":8294,"ĠGirl":8295,"ĠGather":8296,"ĠSalted":8297,"ĠEt":8298,"ulous":8299,"ĠCutlets":8300,"semi":8301,"ĠGrass":8302,"ĠOnly":8303,"Ġnect":8304,"Ġmarinating":8305,"Ġdiabetic":8306,"ĠCheer":8307,"Ġworkable":8308,"Ġdrinking":8309,"ĠRusset":8310,"Ġ360":8311,"Ġrotel":8312,"ĠSecret":8313,"ĠFrank":8314,"Ġweak":8315,"tPut":8316,"ĠTrail":8317,"ĠUnderwood":8318,"ouffer":8319,"Ġunwrapped":8320,"Sausage":8321,"Ġeffect":8322,"Ġstainless":8323,"Servings":8324,"ĠCabin":8325,"Ġprocedure":8326,"ĠJubilee":8327,"Ġpreceding":8328,"Candy":8329,"Its":8330,"Red":8331,"Ġcatch":8332,"rem":8333,"ali":8334,"Ġdeeds":8335,"ĠSop":8336,"ĠPa":8337,"ĠParm":8338,"Ġligh":8339,"tore":8340,"ĠDom":8341,"ĠFla":8342,"etic":8343,"Ġcorner":8344,"ĠLand":8345,"shopper":8346,"ablis":8347,"ĠEither":8348,"Ġ120":8349,"entine":8350,"ĠNeeds":8351,"Ġheadspace":8352,"ĠFrosts":8353,"ĠMeatball":8354,"Ġconcentrates":8355,"ĠZiti":8356,"ĠAlways":8357,"phabet":8358,"ĠSmoke":8359,"Ġincl":8360,"Ġitself":8361,"Ġstrings":8362,"ibb":8363,"Ġpulled":8364,"Ġliverwurst":8365,"ĠSuperMoist":8366,"Ġhowever":8367,"Mixture":8368,"ĠEspresso":8369,"ĠSmoky":8370,"Mexican":8371,"Ġvegies":8372,"ĠQue":8373,"ĠBlossoms":8374,"Strawberry":8375,"'ve":8376,"Camp":8377,"Kids":8378,"With":8379,"jack":8380,"pudding":8381,"sour":8382,"sifted":8383,"inn":8384,"Ġschool":8385,"Ġpass":8386,"Ġmus":8387,"atelli":8388,"roger":8389,"ĠBit":8390,"Ġgolf":8391,"uski":8392,"Ġflours":8393,"tosh":8394,"coated":8395,"umn":8396,"omatic":8397,"ĠStouffer":8398,"asseroles":8399,"rinkles":8400,"Ġkahlua":8401,"Ġapprox":8402,"ĠOur":8403,"ĠEven":8404,"ĠCrusts":8405,"Ġchilling":8406,"agie":8407,"Ġdoughnuts":8408,"Ġmashing":8409,"Ġsifting":8410,"mium":8411,"ĠDelite":8412,"ĠDivine":8413,"ĠFarms":8414,"ormal":8415,"Ġtrip":8416,"Ġallowed":8417,"ĠGrapefruit":8418,"Ġaccomp":8419,"clude":8420,"ĠBraised":8421,"Ġchecking":8422,"floured":8423,"carrots":8424,"ĠFaj":8425,"ĠMargaret":8426,"Pepperidge":8427,"Ġfritters":8428,"Ġtempera":8429,"misweet":8430,"ĠGrasshopper":8431,"ĠRapidRise":8432,"Col":8433,"Ex":8434,"band":8435,"wd":8436,"zos":8437,"Ġbud":8438,"Ġfarm":8439,"Ġfeel":8440,"rot":8441,"ĠSwee":8442,"ĠBour":8443,"Ġhad":8444,"ĠMoon":8445,"unks":8446,"Ġthough":8447,"Ġthings":8448,"Ġnor":8449,"ĠChablis":8450,"ĠFay":8451,"serve":8452,"ĠLong":8453,"ĠCooker":8454,"ĠHow":8455,"Ġisn":8456,"erved":8457,"ĠKuchen":8458,"ĠVegetarian":8459,"oiled":8460,"Ġupright":8461,"lett":8462,"umpt":8463,"Ġloyalty":8464,"arines":8465,"vaporated":8466,"ubbing":8467,"Ġjellyroll":8468,"ĠPickin":8469,"Ġdribble":8470,"ĠPatch":8471,"ĠClams":8472,"ĠManicotti":8473,"ĠStarting":8474,"ĠParfait":8475,"Ġ234":8476,"Ġ236":8477,"ĠCloves":8478,"acci":8479,"uvre":8480,"wieback":8481,"Green":8482,"Pre":8483,"batter":8484,"gah":8485,"rice":8486,"Ġcreat":8487,"ination":8488,"Ġtim":8489,"esa":8490,"utif":8491,"Ġcherv":8492,"ĠCacci":8493,"ĠSide":8494,"ĠSolo":8495,"ĠTass":8496,"Ġvol":8497,"Ġstuck":8498,"Ġjoy":8499,"Ġnormal":8500,"vey":8501,"ĠDonna":8502,"ansas":8503,"ĠHens":8504,"imal":8505,"ify":8506,"inks":8507,"abulous":8508,"ĠKl":8509,"ĠItaliano":8510,"Ġconfectioner":8511,"Ġstandard":8512,"ample":8513,"ĠJoan":8514,"Ġscooped":8515,"iko":8516,"ĠParker":8517,"ĠPimiento":8518,"ĠWilder":8519,"Ġjulienned":8520,"Ġplantains":8521,"Ġdisappear":8522,"ĠHomestyle":8523,"Ġchervil":8524,".;":8525,"450":8526,"Jack":8527,"Save":8528,"bird":8529,"si":8530,"Ġmex":8531,"aloupe":8532,"Ġfeels":8533,"orice":8534,"ĠSad":8535,"olbas":8536,"ĠMallow":8537,"Ġmineral":8538,"Ġwheel":8539,"ĠDone":8540,"colates":8541,"Ġsemisweet":8542,"acher":8543,"abel":8544,"ĠBroth":8545,"Ġlad":8546,"ĠThumb":8547,"Ġitem":8548,"ĠCornstarch":8549,"ĠTopped":8550,"roximate":8551,"Ġ160":8552,"ĠFlounder":8553,"Ġcompany":8554,"ĠTaters":8555,"Ġincorp":8556,"These":8557,"ondra":8558,"Stuffed":8559,"Ġburritos":8560,"Ġcircular":8561,"overnight":8562,"ĠWindows":8563,"Ġprayer":8564,"Ġpizzas":8565,"Ġevaporates":8566,"ripture":8567,"ĠFlorentine":8568,"Ġnectarines":8569,"Bean":8570,"Diet":8571,"High":8572,"Like":8573,"Optional":8574,"finger":8575,"ging":8576,"men":8577,"tub":8578,"Ġcasseroles":8579,"Ġtan":8580,"Ġpyrex":8581,"Ġfar":8582,"ĠConey":8583,"ĠBottle":8584,"Ġhere":8585,"ĠTiger":8586,"Ġshuck":8587,"ĠChestnut":8588,"Ġmarbles":8589,"oupon":8590,"Ġwho":8591,"Ġwhirl":8592,"measure":8593,"condensed":8594,"quarts":8595,"amarina":8596,"ĠHas":8597,"ĠHurry":8598,"ĠGor":8599,"bohyd":8600,"ĠJon":8601,"ĠJun":8602,"ĠThick":8603,"Ġoutdo":8604,"Ġdoughnut":8605,"Ġzip":8606,"ĠGrapes":8607,"igan":8608,"Ġsmiles":8609,"Ġfolded":8610,"ĠScripture":8611,"dobo":8612,"Ġgrainy":8613,"Ġfiling":8614,"ingersnap":8615,"Ġcurdle":8616,"Ġ170":8617,"ĠBonnie":8618,"ĠFranco":8619,"ĠRotate":8620,"Intosh":8621,"alloween":8622,"Ġtongs":8623,"ĠRomaine":8624,"Ġcrystallized":8625,"Ġfajita":8626,"ĠRequest":8627,"ĠTassies":8628,"Beef":8629,"Jiffy":8630,"bies":8631,"ming":8632,"include":8633,"Ġsnap":8634,"Ġpail":8635,"Ġmalted":8636,"ĠCast":8637,"root":8638,"Ġ320":8639,"itting":8640,"ĠMush":8641,"ĠAg":8642,"Ġunroll":8643,"Ġpeppered":8644,"irs":8645,"nda":8646,"Ġreconstituted":8647,"Ġrubbing":8648,"ĠHealth":8649,"Ġmaybe":8650,"imate":8651,"mos":8652,"Ġsoaking":8653,"Ġroots":8654,"ĠOran":8655,"ollip":8656,"gest":8657,"Ġpinching":8658,"ĠLeviticus":8659,"ĠTurnovers":8660,"ĠLoin":8661,"Ġsmile":8662,"Ġpounded":8663,"Ġindic":8664,"Ġfriends":8665,"ĠHeaven":8666,"ĠBuckeye":8667,"Ġpetite":8668,"ĠSinful":8669,"Ġdelicately":8670,"Ġmotion":8671,"rifice":8672,"ĠMarble":8673,"ĠQuesadillas":8674,"Tomato":8675,"Campbell":8676,"110":8677,"800":8678,"Bisquick":8679,"Cake":8680,"Cranberry":8681,"Gran":8682,"Put":8683,"four":8684,"gan":8685,"little":8686,"Ġ110":8687,"reau":8688,"ĠPi":8689,"ĠPoupon":8690,"rami":8691,"ĠMid":8692,"ĠTip":8693,"chuck":8694,"chilled":8695,"ceed":8696,"ĠCoint":8697,"Ġstores":8698,"ieved":8699,"ĠLick":8700,"ĠHalloween":8701,"ĠGarb":8702,"ĠKay":8703,"ĠKugel":8704,"lock":8705,"psom":8706,"Ġfillings":8707,"ĠNell":8708,"Ġraised":8709,"Ġenamel":8710,"Ġtenderized":8711,"ĠShir":8712,"Ġhandled":8713,"ĠSock":8714,"ĠMaraschino":8715,"Ġbarrel":8716,"erment":8717,"orbet":8718,"available":8719,"ĠRomanoff":8720,"ĠNorwegian":8721,"ĠHalibut":8722,"ĠAlab":8723,"234":8724,"Ġappearance":8725,"ĠExtract":8726,"ĠStrip":8727,"Ġimproves":8728,"ĠSouthwestern":8729,"Step":8730,"Garlic":8731,"Ġvolume":8732,"olbassi":8733,"Ph":8734,"both":8735,"ele":8736,"grease":8737,"iber":8738,"outs":8739,"pla":8740,"pork":8741,"Ġut":8742,"inted":8743,"Ġsing":8744,"Ġbarbecued":8745,"Ġfarina":8746,"icorice":8747,"ĠSnap":8748,"ĠBurn":8749,"Ġhr":8750,"ĠTarragon":8751,"Ġthought":8752,"chatel":8753,"Ġstars":8754,"atore":8755,"Ġshaping":8756,"Ġshots":8757,"Ġsays":8758,"ĠDiced":8759,"ĠDian":8760,"ĠWar":8761,"ĠFizz":8762,"Ġrange":8763,"omm":8764,"apricot":8765,"Ġgram":8766,"Ġapprop":8767,"orean":8768,"ĠNine":8769,"ĠPotluck":8770,"ĠUg":8771,"oster":8772,"ĠRob":8773,"inesap":8774,"ĠSeeds":8775,"Ġcapful":8776,"ankee":8777,"ĠMae":8778,"Ġfettuccini":8779,"Ġdoubles":8780,"ĠSunny":8781,"beans":8782,"ĠRichards":8783,"bacon":8784,"Ġcrystal":8785,"ĠNanny":8786,"ufchatel":8787,"Also":8788,"ĠWindow":8789,"ĠHenry":8790,"ĠCantaloupe":8791,"Ġattractive":8792,"ĠOranges":8793,"ĠCointreau":8794,"ĠShirley":8795,"ĠAlabama":8796,"Ġappropri":8797,"31":8798,"Glazed":8799,"Made":8800,"Se":8801,"aces":8802,"drop":8803,"gur":8804,"pensive":8805,"Ġsard":8806,"Ġtree":8807,"rect":8808,"ouffee":8809,"leas":8810,"ppa":8811,"rod":8812,"ĠSee":8813,"ĠPul":8814,"ĠMr":8815,"ĠCod":8816,"Ġwatery":8817,"Ġshow":8818,"that":8819,"cond":8820,"Ġcont":8821,"Ġconven":8822,"Ġros":8823,"ĠEm":8824,"egeburger":8825,"ĠSausages":8826,"ĠYankee":8827,"Ġspooning":8828,"Ġdoves":8829,"iah":8830,"Ġseparating":8831,"Ġpatted":8832,"Ġstopping":8833,"Ġhighest":8834,"liter":8835,"ĠCrabbies":8836,"ĠCampfire":8837,"Ġsqueezing":8838,"Ġ280":8839,"Ġhoisin":8840,"Ġhoagie":8841,"Ġdecorated":8842,"Ġguava":8843,"Mozzarella":8844,"Ġ290":8845,"Ġpheasant":8846,"ĠPlantation":8847,"ĠQueen":8848,"ĠCacciatore":8849,"ĠWilderness":8850,"Ġappropriate":8851,"Day":8852,"Fresh":8853,"pint":8854,"Ġcer":8855,"ana":8856,"Ġpra":8857,"Ġpile":8858,"atures":8859,"Ġwipe":8860,"ĠCrinkles":8861,"Ġsugah":8862,"Ġdandelion":8863,"Ġpeg":8864,"ĠChick":8865,"stess":8866,"iller":8867,"etit":8868,"Ġspeck":8869,"ĠLakes":8870,"ĠHol":8871,"Ġcracks":8872,"uffin":8873,"acker":8874,"Ġang":8875,"ĠName":8876,"ĠNib":8877,"ĠSher":8878,"issolved":8879,"pean":8880,"Ġdirection":8881,"Ġfinally":8882,"saiah":8883,"Ġcuring":8884,"Ġ**":8885,"Ġherbal":8886,"ĠBurrito":8887,"ĠWheaties":8888,"Ġtamari":8889,"Ġseem":8890,"Ġmedley":8891,"burg":8892,"Ġmanner":8893,"ynes":8894,"ĠYorkshire":8895,"Ġperiodically":8896,"Ġsacrifice":8897,"ĠAutumn":8898,"ĠParmig":8899,"Ġinclude":8900,"27":8901,"Batter":8902,"Grand":8903,"Non":8904,"Out":8905,"cil":8906,"fitting":8907,"tCook":8908,"tRe":8909,"ati":8910,"onger":8911,"ingbird":8912,"ĠSister":8913,"ĠBible":8914,"Ġlicorice":8915,"ĠMah":8916,"Ġornaments":8917,"ĠAdobo":8918,"Ġsteady":8919,"Ġbrook":8920,"Ġnose":8921,"then":8922,"ĠWondra":8923,"ados":8924,"ĠFabulous":8925,"Ġruns":8926,"Ġheatproof":8927,"mburger":8928,"ĠLayers":8929,"ĠToo":8930,"ĠQuail":8931,"Ġanytime":8932,"ĠMarinara":8933,"wheel":8934,"Ġclings":8935,"ĠDebbie":8936,"ĠMethod":8937,"ĠNeufchatel":8938,"added":8939,"ikk":8940,"Ġblintzes":8941,"Ġdiamond":8942,"ĠBoneless":8943,"Ġpersonal":8944,"ĠRiver":8945,"Ġbittersweet":8946,"ĠMillionaires":8947,"ĠAlaska":8948,"piece":8949,"Ġquantities":8950,"Ġsquirrels":8951,"Ġhumor":8952,"Ġcasing":8953,"ĠConfectioners":8954,"ĠDomino":8955,"ĠBoursin":8956,"Granny":8957,"ĠUgly":8958,"\"(":8959,"Filled":8960,"Oro":8961,"Vegetab":8962,"fse":8963,"muffin":8964,"solid":8965,"Ġ`":8966,"Ġess":8967,"Ġupper":8968,"Ġcure":8969,"Ġph":8970,"ility":8971,"already":8972,"Ġfaul":8973,"Ġweather":8974,"rol":8975,"ĠPaste":8976,"ddess":8977,"ĠTrout":8978,"ĠAw":8979,"Ġunmelted":8980,"Ġcanes":8981,"eller":8982,"Ġforget":8983,"Ġ42":8984,"ĠRight":8985,"ads":8986,"tac":8987,"ĠFeeds":8988,"reserving":8989,"ĠStretch":8990,"ĠLu":8991,"ĠIda":8992,"opened":8993,"achel":8994,"iments":8995,"Ġalphabet":8996,"Ġslip":8997,"Ġrefrigeration":8998,"ĠCutout":8999,"ĠYears":9000,"ĠBoiling":9001,"Ġcolorful":9002,"ĠRobert":9003,"Ġeveryone":9004,"ĠDumpling":9005,"ĠFarmer":9006,"depends":9007,"athan":9008,"maybe":9009,"ĠRoman":9010,"Ġlooking":9011,"ĠGoddess":9012,"ĠAnise":9013,"ĠPolynes":9014,"ĠBloody":9015,"Ġprobably":9016,"ĠParis":9017,"ĠMaryland":9018,"Ġdampen":9019,"ĠSandy":9020,"ĠFettucine":9021,"Ġcountertop":9022,"ĠCarolyn":9023,"Ġoverlap":9024,"Ġscrub":9025,"Ġpetals":9026,"ĠHummingbird":9027,"Ġfoams":9028,"Ġgooseberries":9029,"ĠSusan":9030,"grapefruit":9031,"ĠPierogi":9032,"ĠEtouffee":9033,"ĠFajitas":9034,"Ġladle":9035,"Mustard":9036,"blend":9037,"fy":9038,"faced":9039,"hand":9040,"hea":9041,"Ġcu":9042,"Ġbuff":9043,"ils":9044,"Ġchurch":9045,"Ġwid":9046,"oriz":9047,"ouri":9048,"Ġsuggest":9049,"Ġduty":9050,"lah":9051,"ĠMart":9052,"Ġcocon":9053,"Ġcoff":9054,"chiko":9055,"Ġcannot":9056,"Ġnine":9057,"ĠDates":9058,"odge":9059,"stems":9060,"ĠFit":9061,"Ġretain":9062,"Ġspots":9063,"Ġsparing":9064,"ĠSpark":9065,"ĠLy":9066,"ĠCookbook":9067,"ĠIsaiah":9068,"imin":9069,"ĠGer":9070,"ĠGlow":9071,"arse":9072,"Ġexten":9073,"lied":9074,"ĠBear":9075,"neck":9076,"ĠPressure":9077,"oya":9078,"when":9079,"nessee":9080,"eringues":9081,"Ġtoweling":9082,"ĠToasties":9083,"Ġwhisking":9084,"ĠColle":9085,"Ġenchiladas":9086,"!!!!":9087,"ĠLique":9088,"Ġwords":9089,"Ġfingertips":9090,"Ġdecorator":9091,"ĠMissouri":9092,"finely":9093,"Ġdampened":9094,"ĠCaptain":9095,"Ġstays":9096,"Ġpalms":9097,"Ġhusk":9098,"Ġstoring":9099,"Ġsmoky":9100,"ĠLuncheon":9101,"Ġsnapper":9102,"Ġoreo":9103,"ĠSmucker":9104,"Ġaccompan":9105,"umptious":9106,"ĠCastle":9107,"Ġcoconuts":9108,"Ġsparingly":9109,"425":9110,"Double":9111,"Karo":9112,"Serve":9113,"Tastes":9114,"br":9115,"ci":9116,"iole":9117,"jar":9118,"pacho":9119,"qt":9120,"rind":9121,"sift":9122,"Ġcrispies":9123,"anks":9124,"Ġopa":9125,"Ġbor":9126,"Ġtuck":9127,"Ġtint":9128,"Ġpain":9129,"Ġmellow":9130,"Ġfeta":9131,"rown":9132,"Ġach":9133,"Ġ310":9134,"ĠSilver":9135,"ĠBre":9136,"Ġhit":9137,"ĠMist":9138,"Ġcann":9139,"verbs":9140,"mont":9141,"cob":9142,"quant":9143,"Ġyummy":9144,"ĠLife":9145,"Ġsource":9146,"ĠII":9147,"ĠRefreshing":9148,"Ġcutlet":9149,"ĠEpsom":9150,"ĠKat":9151,"Ġdressings":9152,"Ġhaving":9153,"ĠThom":9154,"Ġitalian":9155,"ĠBrowned":9156,"Ġnutrit":9157,"Ġotherwise":9158,"expensive":9159,"Ġsteps":9160,"outh":9161,"appa":9162,"ĠSeparately":9163,"ĠLivers":9164,"ĠMexico":9165,"ĠHarvey":9166,"Ġsleeves":9167,"ĠKrispy":9168,"ĠPenny":9169,"Ġcroissant":9170,"ĠBarbara":9171,"Onion":9172,"azpacho":9173,"Ġarranged":9174,"ĠIngredients":9175,"ltimate":9176,"ĠScottish":9177,"wdust":9178,"ĠPolynesian":9179,"Ġopaque":9180,".*":9181,"750":9182,"Dough":9183,"ER":9184,"Heritage":9185,"Mushroom":9186,"break":9187,"double":9188,"herb":9189,"ipper":9190,"lb":9191,"tip":9192,"aron":9193,"Ġoppos":9194,"Ġband":9195,"Ġbibb":9196,"Ġpig":9197,"Ġferment":9198,"Ġchang":9199,"ĠCafe":9200,"Ġdream":9201,"ĠSur":9202,"Ġgourmet":9203,"ĠMer":9204,"ĠMaw":9205,"ĠMolly":9206,"Ġ(.":9207,"allions":9208,"changes":9209,"Ġjal":9210,"ĠDis":9211,"ĠDec":9212,"ĠWell":9213,"Ġjugs":9214,"ushaw":9215,"Ġricotta":9216,"ĠSpec":9217,"ĠRemember":9218,"Ġasse":9219,"Ġ130":9220,"ĠVern":9221,"ĠChilli":9222,"ĠUltimate":9223,"Ġzesty":9224,"Ġzwieback":9225,"clear":9226,"Ġcroquettes":9227,"ounty":9228,"unsifted":9229,"ĠCranberries":9230,"ĠHaddock":9231,"ĠHappiness":9232,"Ġdisp":9233,"ĠGrandpa":9234,"ĠSkins":9235,"iki":9236,"Ġlinguica":9237,"ĠAnnie":9238,"ĠStromb":9239,"Ġfrankfurter":9240,"ĠMexicali":9241,"ĠSarah":9242,"Ġblades":9243,"Ġ465":9244,"Ġmicrowaved":9245,"Ġgarbanzos":9246,"tPlace":9247,"filled":9248,"ĠPortuguese":9249,"slice":9250,"Ġtraditional":9251,"Ġpastrami":9252,"Ġbundles":9253,"ĠTennessee":9254,"Delicious":9255,"ĠWinning":9256,"Ġbuil":9257,"Ġbeautif":9258,"Ġholders":9259,"Ġmagarine":9260,"Ġgentle":9261,"ikkoman":9262,"tacular":9263,"German":9264,"Noodle":9265,"cauliflower":9266,"mashed":9267,"tF":9268,"uzz":9269,"Ġ)":9270,"Ġarm":9271,"Ġtil":9272,"Ġmil":9273,"Ġmic":9274,"ili":9275,"Ġfur":9276,"Ġfestive":9277,"ĠCrimp":9278,"Ġamber":9279,"Ġdisc":9280,"Ġdressed":9281,"ĠSirloin":9282,"ĠBirthday":9283,"Ġhurry":9284,"Ġhealth":9285,"ĠMachine":9286,"ĠTid":9287,"ĠTiny":9288,"Ġvis":9289,"Ġchoy":9290,"Ġchopping":9291,"ĠCokes":9292,"ĠAdditional":9293,"Ġshank":9294,"ĠWeed":9295,"omit":9296,"Ġsele":9297,"ided":9298,"Ġbreaded":9299,"ĠGallon":9300,"ĠGazpacho":9301,"ĠBrooks":9302,"Ġchilis":9303,"ĠCreams":9304,"ĠCrisscross":9305,"Ġjellos":9306,"Ġclover":9307,"live":9308,"ago":9309,"Ġfoods":9310,"ĠMouth":9311,"Ġtears":9312,"ĠTurnips":9313,"ĠLooks":9314,"some":9315,"Ġsmash":9316,"ĠChilies":9317,"ĠDoroth":9318,"ĠBaggie":9319,"Ġacini":9320,"ĠNorth":9321,"236":9322,"238":9323,"Ġcoming":9324,"Ġhulls":9325,"Ġproport":9326,"ĠBelieve":9327,"Ġrutabagas":9328,"Ġvariation":9329,"Ġsubstituting":9330,"ĠRichardson":9331,"Ġsardines":9332,"ĠParmigiana":9333,"Ġfaults":9334,"orizo":9335,"ĠSpectacular":9336,";\\":9337,"La":9338,"Mon":9339,"Meat":9340,"homemade":9341,"off":9342,"rat":9343,"tel":9344,"washed":9345,"Ġser":9346,"Ġwesson":9347,"elves":9348,"ĠSatur":9349,"ĠBol":9350,"ĠPine":9351,"Ġgiving":9352,"ches":9353,"ĠAb":9354,"till":9355,"Ġnest":9356,"Ġshamp":9357,"Ġattach":9358,"irin":9359,"ĠDunk":9360,"ĠWinesap":9361,"start":9362,"Ġgratin":9363,"Ġcorns":9364,"coarse":9365,"Ġyears":9366,"ĠState":9367,"ĠLyn":9368,"ĠGum":9369,"Ġalfredo":9370,"ĠOk":9371,"ĠJumb":9372,"ĠJune":9373,"ĠKroger":9374,"ĠKikkoman":9375,"Ġanimal":9376,"ĠChilled":9377,"roproof":9378,"Ġ72":9379,"eepot":9380,"rowroot":9381,"ĠSlip":9382,"indy":9383,"Ġaccent":9384,"Ġarrowroot":9385,"Ġfourth":9386,"ĠDipping":9387,"ĠTwists":9388,"Ġsurround":9389,"Ġbulgur":9390,"Ġgooey":9391,"Ġ365":9392,"Ġtypes":9393,"ĠMcButter":9394,"ĠMcIntosh":9395,"ĠWaffle":9396,"ĠDiabetics":9397,"ĠAmount":9398,"ĠEarly":9399,"Ġfixed":9400,"ĠHummus":9401,"Roasted":9402,"miniature":9403,"Ġpencil":9404,"ĠSnappy":9405,"Ġgherkins":9406,"ĠJunket":9407,"ackerel":9408,"Ġmicroproof":9409,"Ġshampoo":9410,"Blue":9411,"Hershey":9412,"Mc":9413,"Pan":9414,"Peek":9415,"Rhubarb":9416,"divided":9417,"isp":9418,"nes":9419,"illets":9420,"also":9421,"Ġ230":9422,"Ġ270":9423,"Ġdull":9424,"Ġdru":9425,"ĠBer":9426,"ĠBull":9427,"ĠPico":9428,"isins":9429,"union":9430,"Ġ(#":9431,"Ġcoal":9432,"Ġmilks":9433,"ridge":9434,"they":9435,"ĠDais":9436,"ĠWagon":9437,"odes":9438,"stone":9439,"ĠFe":9440,"ĠFle":9441,"ĠFeather":9442,"coconut":9443,"Ġspin":9444,"ĠIre":9445,"ĠGive":9446,"Ġwhitefish":9447,"udded":9448,"ĠRem":9449,"lene":9450,"lended":9451,"ĠOz":9452,"uffle":9453,"ĠVic":9454,"ifteen":9455,"Ġthickest":9456,"ĠShoney":9457,"Ġdoughy":9458,"ĠRefrigerated":9459,"ĠChoose":9460,"rises":9461,"ĠTopper":9462,"ĠFlute":9463,"Ġpinwheels":9464,"ĠMexi":9465,"Ġdarken":9466,"ĠCheezy":9467,"ĠCandies":9468,"Ġtidbit":9469,"Chill":9470,"Ġdelight":9471,"Ġfoaming":9472,"Ġbites":9473,"Ġbass":9474,"ĠTruffles":9475,"oeuvres":9476,"ĠLasts":9477,"ĠFirm":9478,"Ġnewsp":9479,"Ġreseal":9480,"Ġfitted":9481,"ĠHostess":9482,"Ġnavel":9483,"ĠMelta":9484,"ĠFasten":9485,"aiser":9486,"Ġcrunched":9487,"ĠWelsh":9488,"ĠOleo":9489,"ĠBelg":9490,"Ġindentation":9491,"Ġsizzling":9492,"ĠPassion":9493,"halves":9494,"Heart":9495,"ĠPockets":9496,"baby":9497,"Ġtangy":9498,"Ġtripled":9499,"bohydrate":9500,"Ġessence":9501,"heavy":9502,"Ġcoffeepot":9503,"ĠLiqueur":9504,"ĠStromboli":9505,"ĠDorothy":9506,"55":9507,"Any":9508,"Dish":9509,"Will":9510,"field":9511,"gon":9512,"slow":9513,"test":9514,"trem":9515,"Ġclaw":9516,"Ġmeet":9517,"enb":9518,"spberries":9519,"Ġsund":9520,"itt":9521,"lad":9522,"Ġhuckle":9523,"chop":9524,"Ġorien":9525,"ĠAmos":9526,"Ġunless":9527,"Ġunopened":9528,"Ġname":9529,"urkey":9530,"Ġfroth":9531,"quarter":9532,"ĠSpider":9533,"Ġyet":9534,"serts":9535,"ĠLake":9536,"Ġbreading":9537,"ĠRefresh":9538,"orever":9539,"ulk":9540,"ĠSawdust":9541,"Ġuses":9542,"ĠJellied":9543,"ĠPrep":9544,"undry":9545,"Ġtwenty":9546,"Ġconsomm":9547,"Ġpatting":9548,"ĠMinced":9549,"Ġcompleted":9550,"ĠCrackling":9551,"Ġsurfaces":9552,"ĠAnne":9553,"ĠBlond":9554,"Ġblot":9555,"Ġrotelle":9556,"aturated":9557,"Ġevening":9558,"ĠBase":9559,"Ġsuitable":9560,"ĠJohnson":9561,"ĠJoyce":9562,"ĠNestea":9563,"ĠMargarita":9564,"Ġgroups":9565,"desired":9566,"ĠGallo":9567,"onaise":9568,"ĠFudgy":9569,"Weight":9570,"Ġgreasing":9571,"Ġregisters":9572,"inners":9573,"Ġopposite":9574,"Ġoriental":9575,"Two":9576,"celery":9577,"cchi":9578,"ject":9579,"lor":9580,"nitz":9581,"ral":9582,"vels":9583,"ĠST":9584,"Ġcabb":9585,"Ġbigg":9586,"ational":9587,"icama":9588,"oritos":9589,"ĠSit":9590,"ĠBuy":9591,"Ġhog":9592,"isette":9593,"ĠMain":9594,"ĠMeringues":9595,"ĠTahini":9596,"Ġcreamier":9597,"otash":9598,"ĠAid":9599,"Ġchocolates":9600,"Ġstudded":9601,"Ġshut":9602,"ĠRind":9603,"ĠWis":9604,"ĠFra":9605,"Ġrelease":9606,"conom":9607,"ĠStores":9608,"ĠWhat":9609,"ĠEr":9610,"ĠPieces":9611,"ĠPeggy":9612,"Ġsofter":9613,"Ġshreds":9614,"essie":9615,"Ġsoya":9616,"ĠBrandied":9617,"ĠLeg":9618,"Ġtwis":9619,"ĠContin":9620,"Ġmolded":9621,"Ġicy":9622,"ĠPackage":9623,"Ġpulse":9624,"ĠProverbs":9625,"ĠNewman":9626,"arbecues":9627,"Ġswordfish":9628,"ĠBorder":9629,"ĠScratch":9630,"walnut":9631,"ĠHelper":9632,"stirring":9633,"Ġwatching":9634,"Peach":9635,"White":9636,"Ġjoints":9637,"ĠColorado":9638,"Ġdelicate":9639,"ĠKemp":9640,"Ġrutabaga":9641,"ĠMunchies":9642,"Ġoutdoor":9643,"Ġcontrol":9644,"Vegetable":9645,"Ġbuilding":9646,"ĠDaisy":9647,"Ġhuckleberries":9648,"Ang":9649,"Bread":9650,"Dip":9651,"gie":9652,"ls":9653,"ost":9654,"oven":9655,"rite":9656,"uum":9657,"Ġiodized":9658,"Ġsake":9659,"Ġsince":9660,"ared":9661,"Ġbody":9662,"eside":9663,"Ġmoon":9664,"almost":9665,"alcoholic":9666,"oula":9667,"ital":9668,"ĠBow":9669,"Ġhrs":9670,"iso":9671,"ĠMim":9672,"ĠTilt":9673,"Ġjim":9674,"Ġnap":9675,"ĠDapple":9676,"ĠDale":9677,"ĠWat":9678,"illo":9679,"ĠLes":9680,"ĠLuck":9681,"ĠGh":9682,"ĠRefried":9683,"Ġkool":9684,"Ġkabobs":9685,"ĠJigg":9686,"ĠKim":9687,"ĠKiller":9688,"Ġmeatball":9689,"ĠMelted":9690,"acuum":9691,"Ġdoing":9692,"udel":9693,"ĠFrying":9694,"ĠRedenb":9695,"flat":9696,"ĠDipped":9697,"Ġstockpot":9698,"Ġsunshine":9699,"nocchi":9700,"Ġpral":9701,"Ġbaskets":9702,"Ġassort":9703,"ĠAnna":9704,"Ġwrapping":9705,"Ġpulling":9706,"ĠCubes":9707,"ĠServed":9708,"ĠElmer":9709,"240":9710,"ĠTraditional":9711,"browned":9712,"Ġsimmers":9713,"Ġhearty":9714,"Ġdecrease":9715,"ĠCharlie":9716,"ĠLorna":9717,"tServe":9718,"Ġsuperfine":9719,"eroos":9720,"ĠBakers":9721,"ĠDieter":9722,"separate":9723,"Ġhungry":9724,"ĠMichigan":9725,"ĠKaren":9726,"Excellent":9727,"Ġthoughts":9728,"ĠKluski":9729,"irsch":9730,"Ġthoughtfulness":9731,"Ġrosamarina":9732,"Ġcuppa":9733,"Ġaccompaniment":9734,"gonzola":9735,"Ġcabbages":9736,"ĠRedenbacher":9737,"Go":9738,"Ho":9739,"Ma":9740,"discard":9741,"evaporated":9742,"glish":9743,"lot":9744,"tt":9745,"tto":9746,"tLet":9747,"watch":9748,"yd":9749,"Ġblu":9750,"edic":9751,"esis":9752,"Ġmom":9753,"leaf":9754,"Ġ33":9755,"itter":9756,"iterran":9757,"ĠSor":9758,"ĠSerrano":9759,"ĠBite":9760,"ĠPudd":9761,"ĠPosition":9762,"Ġgizz":9763,"isch":9764,"ĠMas":9765,"ĠMod":9766,"ĠMicrow":9767,"000":9768,"okay":9769,"okneck":9770,"Ġshe":9771,"ĠChurn":9772,"ĠChange":9773,"ĠDar":9774,"Ġbear":9775,"shortening":9776,"antime":9777,"ĠKorean":9778,"Ġlaundry":9779,"ĠMelting":9780,"Ġenglish":9781,"ĠPretty":9782,"ĠSho":9783,"Ġmochiko":9784,"osity":9785,"Ġdevelop":9786,"Ġspooned":9787,"ĠTodd":9788,"Ġyourself":9789,"Ġrid":9790,"Ġknow":9791,"ĠMarvel":9792,"ĠDreams":9793,"pend":9794,"cao":9795,"whatever":9796,"Ġ140":9797,"Ġclou":9798,"ĠKrazy":9799,"ĠPoached":9800,"ĠLeaf":9801,"ĠArtichokes":9802,"burgers":9803,"Ġfalling":9804,"ĠScotcheroos":9805,"Ġdrumettes":9806,"istribute":9807,"Ġdollar":9808,"ĠOmelette":9809,"Oeuvre":9810,"Ġcodfish":9811,"ĠBuffet":9812,"carole":9813,"ĠFaith":9814,"salad":9815,"Ġhuman":9816,"ĠBlossom":9817,"Ġripened":9818,"Ġsatis":9819,"ĠConsomme":9820,"ĠSopa":9821,"ĠGorgonzola":9822,"Ġconventional":9823,"Ġcannellini":9824,"ĠIrene":9825,"ĠFirmly":9826,"Ġassortment":9827,"iterranean":9828,"More":9829,"Oatmeal":9830,"Parmesan":9831,"Pillsbury":9832,"cor":9833,"dip":9834,"iels":9835,"microwave":9836,"rd":9837,"tuntil":9838,"tCool":9839,"wor":9840,"xtail":9841,"Ġsort":9842,"Ġble":9843,"Ġtreats":9844,"Ġmillet":9845,"enta":9846,"Ġfaster":9847,"ĠCath":9848,"ĠCity":9849,"ĠCindy":9850,"ako":9851,"Ġdaiquiri":9852,"ĠSli":9853,"ĠBu":9854,"ĠBatch":9855,"lap":9856,"ĠPower":9857,"Ġgather":9858,"Ġgingersnap":9859,"gging":9860,"ĠMike":9861,"Ġbutterfly":9862,"elled":9863,"ckrich":9864,"ĠDoon":9865,"ĠWall":9866,"adas":9867,"ĠHus":9868,"ĠKirsch":9869,"ĠPebbles":9870,"ĠThirty":9871,"pect":9872,"ĠMove":9873,"ĠSlide":9874,"ĠGrace":9875,"Ġquality":9876,"Ġseparates":9877,"centrate":9878,"Ġperch":9879,"ĠCont":9880,"ĠUnbel":9881,"ĠAlice":9882,"ĠBlueberries":9883,"ĠOrville":9884,"ĠJackie":9885,"ĠHazel":9886,"ĠRavioli":9887,"Ġburns":9888,"Ġgenerosity":9889,"ĠGoose":9890,"ĠHeap":9891,"Ġdevils":9892,"ĠMediterranean":9893,"ĠMelts":9894,"Ġescarole":9895,"ĠScrumptious":9896,"Ġprime":9897,"Ġcavities":9898,"ĠSkinny":9899,"ignon":9900,"Ġrequire":9901,"Brown":9902,"Ġducks":9903,"ĠCanada":9904,"ĠEscort":9905,"Ġlifting":9906,"Ġpicnics":9907,"minced":9908,"Ġherring":9909,"jelly":9910,"ĠThumbprint":9911,"Ġincorporated":9912,"Philly":9913,"ĠSherried":9914,"ĠCollege":9915,"ĠOzark":9916,"ĠRefresher":9917,"Angel":9918,"36":9919,"80":9920,"Dump":9921,"Fashion":9922,"Sto":9923,"UP":9924,"cider":9925,"ein":9926,"horn":9927,"rick":9928,"Ġi":9929,"Ġsieved":9930,"Ġpits":9931,"Ġpipe":9932,"atini":9933,"almond":9934,"oug":9935,"Ġfan":9936,"Ġtotally":9937,"Ġaut":9938,"Ġamerican":9939,"Ġdra":9940,"ĠSole":9941,"ĠSort":9942,"ĠBalsamic":9943,"las":9944,"gged":9945,"ggies":9946,"ĠTB":9947,"ĠTree":9948,"Ġcoke":9949,"chunks":9950,"Ġjicama":9951,"Ġshanks":9952,"ĠChives":9953,"Ġsay":9954,"Ġthems":9955,"Ġwheels":9956,"ĠDain":9957,"ĠDistribute":9958,"ĠWanda":9959,"ĠWoman":9960,"Ġgrating":9961,"Ġboat":9962,"ĠFeed":9963,"ĠFillet":9964,"urb":9965,"Ġtomat":9966,"ĠHerman":9967,"ĠGib":9968,"Ġgrass":9969,"Ġkolbassi":9970,"ĠKris":9971,"ĠVari":9972,"ĠThing":9973,"Ġskillets":9974,"ĠNothing":9975,"agination":9976,"ĠShish":9977,"pecan":9978,"Ġmove":9979,"Ġtablets":9980,"Ġrestaurant":9981,"tons":9982,"ĠSquirrel":9983,"Ġhashbrown":9984,"ĠOrzo":9985,"Ġcluster":9986,"ails":9987,"Ġtinted":9988,"Ġburnt":9989,"ĠBoats":9990,"Ġgoat":9991,"Ġfinishing":9992,"ĠFranc":9993,"Ġdeterm":9994,"Ġinserting":9995,"Ġwintergreen":9996,"uracao":9997,"Ġadjusted":9998,"Ġcasings":9999,"Ġmotor":10000,"Ġtongue":10001,"inetti":10002,"refrigerated":10003,"ĠCarbon":10004,"ievable":10005,"ĠJonathan":10006,"ĠDiane":10007,"ĠCastleberry":10008,"ĠTidbits":10009,"ĠGumdrop":10010,"Ġresealable":10011,"ĠBelgian":10012,"tremely":10013,"Ġsundae":10014,"Ġbluing":10015,"Ġthemselves":10016,"Break":10017,"Eng":10018,"Ham":10019,"Kn":10020,"Ori":10021,"SP":10022,"cand":10023,"dash":10024,"dissolved":10025,"easant":10026,"gen":10027,"gro":10028,"minute":10029,"vinegar":10030,"Ġopt":10031,"Ġbri":10032,"Ġfavor":10033,"Ġfiber":10034,"Ġinexpensive":10035,"ppin":10036,"Ġ34":10037,"Ġdid":10038,"ĠSizz":10039,"ĠSometimes":10040,"ĠPal":10041,"ĠPkg":10042,"Ġpepe":10043,"Ġhunk":10044,"Ġhealthy":10045,"ising":10046,"ĠMess":10047,"ĠTokay":10048,"ota":10049,"oto":10050,"ĠCob":10051,"Ġshrink":10052,"Ġshown":10053,"ĠRon":10054,"ĠDaiquiri":10055,"ĠFace":10056,"etta":10057,"mear":10058,"consin":10059,"ĠReeses":10060,"Ġapply":10061,"ĠEth":10062,"ĠInstead":10063,"ĠKen":10064,"Ġramen":10065,"ĠVick":10066,"Ġrefrigerating":10067,"acing":10068,"ĠSharon":10069,"ĠCorny":10070,"Ġsimmered":10071,"Ġcolorings":10072,"Ġdepend":10073,"ĠRoy":10074,"Ġpossum":10075,"Ġcleans":10076,"tinto":10077,"ĠRedford":10078,"ĠScrew":10079,"Ġdrizz":10080,"ĠTossed":10081,"Ġadditions":10082,"ĠDumplins":10083,"ĠGoodie":10084,"ĠApply":10085,"ĠPheasant":10086,"Ġelimin":10087,"Ġgarnishing":10088,"Ġpitas":10089,"ĠPanky":10090,"Ġwashing":10091,"Ġsurrounded":10092,"isturb":10093,"ĠMoments":10094,"ĠBoat":10095,"ĠMax":10096,"ĠMajor":10097,"ĠGoop":10098,"ĠSurprises":10099,"ĠSummertime":10100,"Ġworth":10101,"ĠSunflower":10102,"Ġcrushing":10103,"ĠRiches":10104,"ĠRotini":10105,"yline":10106,"Ġcapped":10107,"ottled":10108,"ĠDaniels":10109,"pourri":10110,"Ġcampfire":10111,"ĠSouthwest":10112,"blueberry":10113,"ĠDecorator":10114,"ĠRhodes":10115,"ĠWreaths":10116,"tCombine":10117,"ĠFaye":10118,"ĠBrenda":10119,"ĠSurround":10120,"Ġvisible":10121,"ĠBolts":10122,"Ġbigger":10123,"ĠWisconsin":10124,"Ġjimmies":10125,"ĠWatkins":10126,"ischmann":10127,"Ġhashbrowns":10128,"English":10129,"!\\":10130,"Ar":10131,"Crack":10132,"Ever":10133,"Ha":10134,"Mom":10135,"Pie":10136,"Pet":10137,"better":10138,"bulk":10139,"ni":10140,"pine":10141,"tri":10142,"twith":10143,"Ġmid":10144,"Ġmacaroon":10145,"Ġchex":10146,"Ġchorizo":10147,"icer":10148,"Ġinner":10149,"Ġab":10150,"ĠSco":10151,"ĠBee":10152,"ĠMen":10153,"ĠMul":10154,"Ġunthawed":10155,"Ġuntoasted":10156,"Ġstate":10157,"Ġjus":10158,"irts":10159,"ĠRare":10160,"ĠDress":10161,"ĠWood":10162,"Ġgrand":10163,"illi":10164,"Ġoils":10165,"ĠFlower":10166,"comb":10167,"ĠSpir":10168,"ĠLill":10169,"ĠLabel":10170,"Ġconch":10171,"ĠGre":10172,"ĠGriddle":10173,"Ġboxed":10174,"ĠEckrich":10175,"Ġservice":10176,"Ġlavender":10177,"ĠSharp":10178,"ĠButtery":10179,"Ġliquified":10180,"Ġdepression":10181,"Ġdove":10182,"ĠCarter":10183,"ĠCarib":10184,"Ġcrookneck":10185,"ĠLegs":10186,"ĠTablespoon":10187,"ĠFills":10188,"Ġcrispness":10189,"Ġnonmetal":10190,"Ġaroma":10191,"ĠMinted":10192,"Ġlongways":10193,"Ġchive":10194,"ĠPicking":10195,"Ġpopovers":10196,"flakes":10197,"ĠRaise":10198,"ĠCracklin":10199,"Ġclumps":10200,"eggs":10201,"Ġsurp":10202,"ĠChrist":10203,"Ġdonuts":10204,"ĠCrockpot":10205,"ĠHearts":10206,"ĠCubed":10207,"rolled":10208,"Ġrotate":10209,"ĠPearl":10210,"Ġdusting":10211,"elvety":10212,"Ġshovel":10213,"ĠStay":10214,"ĠBraunschweiger":10215,"olutely":10216,"Ġhoop":10217,"Ġbuckwheat":10218,"Ġrequires":10219,"When":10220,"Ġtostada":10221,"squeeze":10222,"ĠMostaccioli":10223,"tSprinkle":10224,"Ġenhan":10225,"Ġacting":10226,"ĠBubbles":10227,"ĠHoly":10228,"lahoma":10229,"Monterey":10230,"ĠLynn":10231,"ĠOklahoma":10232,"ĠTBSP":10233,"IG":10234,"Light":10235,"OO":10236,"Wesson":10237,"ians":10238,"pkg":10239,"rust":10240,"sing":10241,"tRoll":10242,"Ġ,":10243,"Ġcyl":10244,"Ġcushaw":10245,"Ġ175":10246,"anzo":10247,"Ġpilaf":10248,"atwurst":10249,"onto":10250,"ĠCould":10251,"ppe":10252,"eli":10253,"ĠSic":10254,"ĠSingle":10255,"ĠBry":10256,"ĠBisc":10257,"ĠPurpose":10258,"ĠTutti":10259,"Ġversion":10260,"Ġvacuum":10261,"otti":10262,"ellmann":10263,"Ġneat":10264,"ĠChal":10265,"ĠChive":10266,"cky":10267,"cker":10268,"ĠRig":10269,"ĠDawn":10270,"ĠWee":10271,"tah":10272,"ighten":10273,"Ġspot":10274,"ĠStud":10275,"ĠHope":10276,"ĠGlad":10277,"Ġroasts":10278,"frigerate":10279,"ĠEmer":10280,"elyn":10281,"ĠJug":10282,"Ġfills":10283,"Ġ125":10284,"ĠThread":10285,"Ġsky":10286,"Ġsquirts":10287,"Ġenclo":10288,"Ġsett":10289,"Ġplaster":10290,"ĠSlim":10291,"ĠRome":10292,"Ġpoached":10293,"ĠSecond":10294,"ĠDoh":10295,"Ġdripping":10296,"ĠCandi":10297,"ĠValentine":10298,"Ġfilo":10299,"ĠCoffeecake":10300,"ĠSkew":10301,"ĠSkyline":10302,"ĠCoating":10303,"ĠLaura":10304,"Ġincreased":10305,"ĠClar":10306,"Ġentirely":10307,"ĠTenderize":10308,"ĠScoops":10309,"Ġrisen":10310,"Ġ235":10311,"Ġdiscolor":10312,"Ġcorrect":10313,"ĠAmounts":10314,"ĠStays":10315,"ĠBraise":10316,"Spice":10317,"Spinach":10318,"Ġhomestyle":10319,"faits":10320,"ĠBagel":10321,"ĠLadyfingers":10322,"pieces":10323,"ĠNestles":10324,"Ġproduce":10325,"ĠLeftovers":10326,"ĠStrudel":10327,"Method":10328,"ĠVermont":10329,"Ġsacch":10330,"ĠCollins":10331,"Ġpreviously":10332,"ĠAgain":10333,"Ġindicated":10334,"Ġsingles":10335,"Ġceramic":10336,"Ġangle":10337,"ĠMeltaways":10338,"ĠJigglers":10339,"ĠPuddin":10340,"worth":10341,"ĠUnbelievable":10342,"Stove":10343,"ĠGiblet":10344,"Ġcylinder":10345,"Cinnamon":10346,"Des":10347,"IR":10348,"Lite":10349,"Nestle":10350,"Ra":10351,"blended":10352,"cture":10353,"ju":10354,"mise":10355,"mati":10356,"vie":10357,"virgin":10358,"Ġcuke":10359,"Ġbok":10360,"Ġtasting":10361,"Ġpic":10362,"Ġmother":10363,"ĠCans":10364,"leftover":10365,"Ġsupper":10366,"ĠSage":10367,"ĠSnaps":10368,"ĠBul":10369,"ĠPumpernickel":10370,"isa":10371,"Ġluck":10372,"ĠMile":10373,"rift":10374,"Ġshaken":10375,"uper":10376,"ĠWitch":10377,"adise":10378,"mally":10379,"Ġselect":10380,"Ġpotluck":10381,"ĠLollip":10382,"ĠHead":10383,"opt":10384,"ĠGul":10385,"Ġsouth":10386,"uddy":10387,"ables":10388,"ĠOccasion":10389,"ĠEast":10390,"Ġextremely":10391,"mpt":10392,"eyes":10393,"Ġpremium":10394,"ĠShakes":10395,"rance":10396,"Ġbagu":10397,"Ġgelatins":10398,"Ġmealy":10399,"ĠRoot":10400,"Ġturtle":10401,"ĠArk":10402,"blers":10403,"ĠMaria":10404,"Ġparing":10405,"Ġmeantime":10406,"whip":10407,"ĠRaspberries":10408,"ĠChees":10409,"Ġclause":10410,"ĠTwenty":10411,"Chow":10412,"Ġdelights":10413,"ĠMomma":10414,"Ġcapellini":10415,"Ġsoftens":10416,"ifference":10417,"Ġricher":10418,"ĠLouise":10419,"ĠSchnitz":10420,"ĠPaper":10421,"ĠAlask":10422,"ĠJanet":10423,"ĠFilet":10424,"ĠBuster":10425,"ĠIncred":10426,"ĠRosy":10427,"ĠMamaw":10428,"ĠPresto":10429,"Carrot":10430,"Ġpoly":10431,"Ġfoot":10432,"ĠCollard":10433,"ĠNavy":10434,"tCover":10435,"ĠMildred":10436,"ĠDrumsticks":10437,"ĠBitters":10438,"Ġcreative":10439,"ĠSaturday":10440,"Ġattached":10441,"ĠJumbles":10442,"ĠVictor":10443,"ĠContinental":10444,"Ġgizzards":10445,"ĠMarvelous":10446,"ĠSopaip":10447,"ĠCathed":10448,"ĠCarbonara":10449,"ĠAlaskan":10450,"):":10451,"Drop":10452,"Fl":10453,"Hellmann":10454,"Span":10455,"big":10456,"bought":10457,"canola":10458,"dogs":10459,"family":10460,"golden":10461,"gener":10462,"ios":10463,"lots":10464,"lukewarm":10465,"pet":10466,"take":10467,"tart":10468,"tthe":10469,"tChill":10470,"west":10471,"wards":10472,"yolks":10473,"Ġtried":10474,"Ġtend":10475,"Ġmen":10476,"Ġmas":10477,"Ġmass":10478,"Ġmackerel":10479,"atz":10480,"atkes":10481,"almonds":10482,"ense":10483,"ĠCone":10484,"ĠCilantro":10485,"Ġease":10486,"ĠBack":10487,"ĠBunch":10488,"ĠBarbecues":10489,"ĠPuffy":10490,"uncture":10491,"ĠTreas":10492,"ĠTint":10493,"Ġvert":10494,"ĠAsh":10495,"ĠAsse":10496,"ĠComm":10497,"Ġstated":10498,"aters":10499,"tilage":10500,"Ġshare":10501,"Ġshowers":10502,"Ġcrink":10503,"ienne":10504,"ĠRanger":10505,"ĠDee":10506,"ĠDia":10507,"ĠWing":10508,"adina":10509,"Ġyam":10510,"ĠLuc":10511,"ĠLeek":10512,"ident":10513,"ĠGame":10514,"ĠGoya":10515,"Ġcartilage":10516,"ĠOff":10517,"ĠOmit":10518,"ĠEnergy":10519,"ĠKern":10520,"ĠKiwi":10521,"Ġmeatless":10522,"Ġslide":10523,"Ġlikes":10524,"Ġhappiness":10525,"ĠThyme":10526,").\\":10527,"several":10528,"ucumber":10529,"Ġpeeler":10530,"rands":10531,"Ġscraps":10532,"bling":10533,"Ġaromatic":10534,"ĠMinestrone":10535,"ĠPeppered":10536,"Ġhigher":10537,"ĠDreamsicle":10538,"ĠConnie":10539,"Ġ180":10540,"ĠCupcake":10541,"ĠSuperb":10542,"Ġcaramelize":10543,"ahi":10544,"ĠCrown":10545,"Cherry":10546,"Ġdonut":10547,"ĠDills":10548,"ĠLaughter":10549,"ĠRestaurant":10550,"mmm":10551,"ĠJama":10552,"Ġpersons":10553,"ondant":10554,"ĠPolly":10555,"oze":10556,"hem":10557,"Ġburst":10558,"Ġcreole":10559,"ĠBuckle":10560,"Frozen":10561,"Ġsimp":10562,"ĠEdna":10563,"Ġpushing":10564,"Ġpeeking":10565,"Alcoholic":10566,"Ġtaters":10567,"Ġcause":10568,"Ġcajun":10569,"ĠDannon":10570,"Ġsmoking":10571,"Ġtostados":10572,"Ġmembranes":10573,"Ġobtain":10574,"Ġenhance":10575,"ĠDavis":10576,"Ġdiabetics":10577,"Ġlighter":10578,"ĠPiquant":10579,"ĠBurnt":10580,"ĠGerber":10581,"Ġborder":10582,"Ġmilder":10583,"Ġfurther":10584,"raten":10585,"McCormick":10586,"ĠFleischmann":10587,"italini":10588,"itterlings":10589,"ĠDoone":10590,"Ġeliminate":10591,"ĠCaribbean":10592,"ĠSicil":10593,"ĠRigatoni":10594,"ĠCathedral":10595,"AT":10596,"As":10597,"Ba":10598,"Con":10599,"Gra":10600,"Hour":10601,"Honey":10602,"Lea":10603,"MM":10604,"Po":10605,"They":10606,"candy":10607,"hi":10608,"mie":10609,"mother":10610,"neath":10611,"oa":10612,"pink":10613,"still":10614,"uge":10615,"uerb":10616,"vin":10617,"into":10618,"Ġslash":10619,"ena":10620,"Ġcheez":10621,"ĠCall":10622,"elma":10623,"aks":10624,"itam":10625,"Ġdew":10626,"Ġdiff":10627,"Ġditalini":10628,"Ġem":10629,"ĠSub":10630,"ĠPay":10631,"ĠPain":10632,"Ġlines":10633,"unge":10634,"ĠTa":10635,"cherries":10636,"elles":10637,"Ġstud":10638,"ride":10639,"Ġnappa":10640,"Ġshows":10641,"ĠRest":10642,"ĠWolf":10643,"Ġpowders":10644,"Ġoily":10645,"aylor":10646,"quite":10647,"Ġyield":10648,"ĠLil":10649,"ĠLess":10650,"aps":10651,"ĠHorn":10652,"ĠHole":10653,"Ġcrumbling":10654,"imitation":10655,"ĠReg":10656,"ĠOl":10657,"ĠInside":10658,"ĠKring":10659,"ĠKind":10660,"Ġrame":10661,"Ġfirmer":10662,"mple":10663,"Ġnutty":10664,"Ġtenderize":10665,"Ġcrank":10666,"Ġmock":10667,"ĠCarbohydrate":10668,"ĠPeanutty":10669,"sausage":10670,"ĠLefse":10671,"Ġstripe":10672,"ĠFrog":10673,"ĠLemony":10674,"tines":10675,"ĠLover":10676,"Ġcompressed":10677,"Ġimagination":10678,"Ġalternative":10679,"ĠDepending":10680,"Ġgiant":10681,"ussel":10682,"ĠGrands":10683,"ĠDrip":10684,"Ġunderneath":10685,"Ġbulb":10686,"ĠUsed":10687,"Ġopened":10688,"Ġpulver":10689,"ĠApart":10690,"ĠBohem":10691,"Ġmonterey":10692,"ĠAnisette":10693,"Cover":10694,"Ġcantaloup":10695,"ĠMcK":10696,"mitation":10697,"Ġworry":10698,"mbert":10699,"Ġ1975":10700,"ĠHalves":10701,"ĠEdition":10702,"abob":10703,"ĠPrime":10704,"nonfat":10705,"Ġpouches":10706,"Ġsmoker":10707,"ĠJeff":10708,"ouffl":10709,"ĠGenesis":10710,"Salad":10711,"ĠDavid":10712,"ĠSweets":10713,"Ġtiming":10714,"ĠSolomon":10715,"Ġmexican":10716,"Ġnewspaper":10717,"ĠSTIR":10718,"ĠContadina":10719,"ĠRarebit":10720,"Dessert":10721,"Ġsimply":10722,"ĠSicilian":10723,"uerbraten":10724,"ĠBohemian":10725,"'m":10726,"Better":10727,"Em":10728,"Hen":10729,"LL":10730,"Mock":10731,"bowl":10732,"body":10733,"bottled":10734,"catelli":10735,"jin":10736,"jalapen":10737,"sure":10738,"tbutter":10739,"Ġcuracao":10740,"Ġserrano":10741,"Ġtarter":10742,"Ġtilt":10743,"esta":10744,"Ġpreserve":10745,"Ġposition":10746,"ilize":10747,"Ġwat":10748,"ĠCame":10749,"ĠCanola":10750,"spicy":10751,"Ġdie":10752,"Ġdries":10753,"ĠSter":10754,"ĠStained":10755,"lasic":10756,"ĠPA":10757,"olph":10758,"raisins":10759,"isto":10760,"ĠAf":10761,"Ġstur":10762,"topping":10763,"Ġsharing":10764,"ĠChap":10765,"ĠRoughy":10766,"nament":10767,"illos":10768,"ĠFred":10769,"astime":10770,"Ġroughly":10771,"omoto":10772,"edible":10773,"Ġovensafe":10774,"Ġheats":10775,"Ġkey":10776,"Ġkaiser":10777,"ĠEight":10778,"ĠEconom":10779,"ĠSalads":10780,"ĠJerry":10781,"ĠKr":10782,"ĠKansas":10783,"Ġslim":10784,"Ġliving":10785,"ĠPeppy":10786,"ĠNips":10787,"ĠNippy":10788,"Ġpremade":10789,"ĠShaker":10790,"ĠRoca":10791,"clean":10792,"ĠFlako":10793,"Ġbouquet":10794,"Ġprocessing":10795,"ĠAlba":10796,"cadine":10797,"ĠAnginetti":10798,"ĠDepression":10799,"ĠPank":10800,"Ġelbows":10801,"Ġfilter":10802,"ĠMem":10803,"Ġworked":10804,"Children":10805,"Chili":10806,"ĠChristmastime":10807,"Ġallows":10808,"Ġbulbs":10809,"Ġlasts":10810,"ĠYummies":10811,"ĠPronto":10812,"Ġholding":10813,"ĠApricots":10814,"ĠBenedic":10815,"ĠPromise":10816,"ĠHeavy":10817,"ĠDays":10818,"ĠCurd":10819,"ĠIslands":10820,"Ġstriped":10821,"ĠParfaits":10822,"ĠPinwheel":10823,"ĠHunter":10824,"fume":10825,"ĠRocks":10826,"ĠJulie":10827,"Ġcharity":10828,"ĠDevils":10829,"Ġsorrow":10830,"Ġswirls":10831,"ĠEvelyn":10832,"Ġplantain":10833,"ĠHandle":10834,"ĠCavatini":10835,"ĠVerde":10836,"Ġshoepeg":10837,"Ġfriendly":10838,"separated":10839,"Uncle":10840,"ĠTempura":10841,"Ġreads":10842,"Ġcondiments":10843,"Colby":10844,"lettes":10845,"ĠPulse":10846,"tRemove":10847,"Ġjalape":10848,"Ġcloudy":10849,"ĠHusband":10850,"Breakfast":10851,"Cracker":10852,"Raspberry":10853,"Ġsouthern":10854,"ĠSchnitzel":10855,"ĠSopaipillas":10856,"jinomoto":10857,"Ahead":10858,"Aunt":10859,"Cabbage":10860,"HE":10861,"Keep":10862,"Mrs":10863,"Ore":10864,"Pol":10865,"Res":10866,"Tex":10867,"Tang":10868,"Work":10869,"air":10870,"bor":10871,"bra":10872,"honey":10873,"noon":10874,"sm":10875,"simmer":10876,"tall":10877,"tfor":10878,"turkey":10879,"ule":10880,"vis":10881,"Ġ__":10882,"erta":10883,"Ġoxtail":10884,"Ġblow":10885,"Ġta":10886,"Ġmac":10887,"atma":10888,"ony":10889,"ousc":10890,"Ġfowl":10891,"Ġchiffon":10892,"Ġwrit":10893,"icular":10894,"ĠCam":10895,"orbs":10896,"Ġsugarless":10897,"Ġajinomoto":10898,"Ġdips":10899,"ĠSorbet":10900,"ĠBart":10901,"Ġgrow":10902,"ĠTre":10903,"Ġvegeburger":10904,"otic":10905,"ĠAlo":10906,"Ġunit":10907,"Ġforth":10908,"ĠRadish":10909,"Ġbaker":10910,"odas":10911,"odles":10912,"nah":10913,"stiff":10914,"Ġbook":10915,"Ġsaucepot":10916,"Ġwells":10917,"Ġlargest":10918,"Ġrefreeze":10919,"Ġspe":10920,"Ġspec":10921,"ĠLar":10922,"ĠLump":10923,"ĠImitation":10924,"apt":10925,"ĠHum":10926,"ĠHop":10927,"irections":10928,"ĠEating":10929,"ananas":10930,"ĠVersion":10931,"Ġballoon":10932,"Ġpacking":10933,"Ġwarming":10934,"ĠBreadsticks":10935,"ĠBeth":10936,"ĠBeach":10937,"ĠBecky":10938,"Ġpinched":10939,"ĠSaucepan":10940,"Ġhandy":10941,"ĠSemi":10942,"Ġminiatures":10943,"ĠMeatloaf":10944,"ĠLovers":10945,"ĠSaltine":10946,"ĠMarsh":10947,"ĠScand":10948,"Ġperfume":10949,"Ġsealable":10950,"ĠConserve":10951,"unset":10952,"aik":10953,"ĠPetite":10954,"penuts":10955,"whites":10956,"Ġdijon":10957,"ĠCroiss":10958,"ĠSmart":10959,"flowerets":10960,"Ġabsorbs":10961,"ĠGingered":10962,"ĠAntip":10963,"Ġclothes":10964,"Cob":10965,"Cooked":10966,"ĠBlush":10967,"Ġshortcake":10968,"endy":10969,"ĠLiqu":10970,"ĠParadise":10971,"Ġcores":10972,"periment":10973,"ĠPapa":10974,"Ġcalling":10975,"ugget":10976,"Ġfifths":10977,"ĠHardee":10978,"Ġdollops":10979,"ĠSuggest":10980,"ĠCharlot":10981,"Ġwilt":10982,"first":10983,"halved":10984,"ĠNibbles":10985,"Ġwidth":10986,"Ġsuggested":10987,"Ġbeautiful":10988,"Ġserrated":10989,"Ġtomatillos":10990,"candied":10991,"Ġfavorites":10992,"ĠScout":10993,"ĠChristian":10994,"IGH":10995,"ĠWeeks":10996,"ĠAssemble":10997,"Henry":10998,"ouscous":10999,"ĠCharlotte":11000,"Dill":11001,"Herb":11002,"Lipton":11003,"Never":11004,"Sc":11005,"South":11006,"Tra":11007,"Wal":11008,"Yogurt":11009,"eque":11010,"pal":11011,"sometimes":11012,"vian":11013,"zon":11014,"inding":11015,"Ġsounds":11016,"arn":11017,"Ġbis":11018,"edged":11019,"Ġturp":11020,"Ġple":11021,"Ġplease":11022,"Ġmag":11023,"onions":11024,"ĠCour":11025,"ĠCayenne":11026,"ĠCounty":11027,"Ġinverted":11028,"ppey":11029,"Ġsupp":11030,"Ġash":11031,"Ġdou":11032,"ĠSunset":11033,"ĠPoultry":11034,"ĠPleas":11035,"asilk":11036,"ĠMad":11037,"ĠMatzo":11038,"ung":11039,"unken":11040,"check":11041,"vern":11042,"rik":11043,"Ġ43":11044,"Ġshine":11045,"ĠRise":11046,"ĠWake":11047,"ĠFon":11048,"ĠFuzz":11049,"erse":11050,"Ġritz":11051,"ĠSpear":11052,"Ġyo":11053,"Ġyields":11054,"Ġcray":11055,"ĠLucy":11056,"ĠLively":11057,"ĠHull":11058,"ĠHuckle":11059,"mouth":11060,"Ġovens":11061,"Ġroses":11062,"ĠRegular":11063,"ĠRefreeze":11064,"ĠEve":11065,"ĠJenn":11066,"ĠJumbo":11067,"Ġask":11068,"Ġpourable":11069,"ĠVlasic":11070,"Ġballer":11071,"onial":11072,"Ġnote":11073,"ĠMochi":11074,"ĠForce":11075,"Ġaccordingly":11076,"ĠSwordfish":11077,"Ġcrowns":11078,"ĠQuarts":11079,"Ġscored":11080,"Ġbuttah":11081,"ĠCanning":11082,"ĠLoops":11083,"ĠLocatelli":11084,"ĠRancho":11085,"istachios":11086,"Ġ--":11087,"ĠGoody":11088,"ĠStem":11089,"flow":11090,"Ġclump":11091,"Ġdipper":11092,"ĠCaramelize":11093,"ĠAllspice":11094,"Ġwhichever":11095,"Ġcheer":11096,"inavian":11097,"Ġunderside":11098,"ĠUsually":11099,"ĠTruffle":11100,"ĠBomb":11101,"irls":11102,"ĠAlmondine":11103,"ĠFireside":11104,"Ġpowered":11105,"ĠBlt":11106,"ĠCuban":11107,"Ġdietetic":11108,"Ġtesting":11109,"ĠEllen":11110,"Jello":11111,"ĠJalapenos":11112,"banger":11113,"Ġcrem":11114,"Ġcounting":11115,"ĠFriend":11116,"Ġpreserved":11117,"ĠSwirls":11118,"ĠEva":11119,"Ġthumbprint":11120,"Ġfeeding":11121,"zech":11122,"Ġpuppy":11123,"ĠGramma":11124,"Ġimprove":11125,"rific":11126,"ĠDecorating":11127,"Ġwreaths":11128,"Ġlighten":11129,"Ġnormally":11130,"peanuts":11131,"ispride":11132,"ĠMicrowaved":11133,"ĠWallbanger":11134,"ĠEthel":11135,"ĠBiscotti":11136,"Ġcantaloupes":11137,"ĠAfric":11138,"Ġwritten":11139,"Ġturpentine":11140,"'d":11141,"And":11142,"De":11143,"Drain":11144,"Dried":11145,"Dutch":11146,"Grape":11147,"Pro":11148,"Snack":11149,"longer":11150,"marin":11151,"mints":11152,"rator":11153,"slices":11154,"substitute":11155,"tta":11156,"tTop":11157,"ua":11158,"uan":11159,"ward":11160,"Ġcent":11161,"Ġcrow":11162,"inf":11163,"Ġbad":11164,"Ġpam":11165,"Ġwind":11166,"icier":11167,"ĠCumin":11168,"Ġ31":11169,"itty":11170,"Ġdinners":11171,"ĠBish":11172,"ĠBerries":11173,"ĠPra":11174,"olk":11175,"Ġhuge":11176,"ĠMt":11177,"ĠMyr":11178,"ĠMatt":11179,"ĠTbs":11180,"ĠTaylor":11181,"owa":11182,"Ġflan":11183,"chips":11184,"tsugar":11185,"Ġstom":11186,"oking":11187,"rid":11188,"ĠRiv":11189,"ĠDairy":11190,"ĠWorch":11191,"ĠWispride":11192,"adillo":11193,"Ġren":11194,"cocoa":11195,"Ġfrog":11196,"omen":11197,"Ġsear":11198,"umble":11199,"ĠStars":11200,"ĠIvory":11201,"Ġmayonaise":11202,"moder":11203,"armint":11204,"Ġgray":11205,"ĠOoey":11206,"ĠJose":11207,"ĠJem":11208,"ĠKix":11209,"ĠKath":11210,"uls":11211,"Ġlive":11212,"Ġcooler":11213,"othpick":11214,"pson":11215,"ĠPremium":11216,"Ġdesserts":11217,"ĠPotpourri":11218,"120":11219,"ĠFruits":11220,"ĠCarl":11221,"Ġcrown":11222,"Ġheaped":11223,"Ġlastly":11224,"Ġpattie":11225,"Ġseals":11226,"Ġpopover":11227,"ĠAlpine":11228,"where":11229,"Ġtowards":11230,"Ġherbes":11231,"Ġstovetop":11232,"ĠDoris":11233,"Ġbratwurst":11234,"idget":11235,"ĠDishpan":11236,"ragrance":11237,"istant":11238,"ĠLeaves":11239,"Ġburned":11240,"ĠColonial":11241,"Ġfrank":11242,"frying":11243,"Ġlumping":11244,"ĠExchange":11245,"ĠExchanges":11246,"ĠCleaner":11247,"Ġvaried":11248,"ĠFrankfur":11249,"ĠEclairs":11250,"Ġribeye":11251,"Ġfloats":11252,"ĠCaps":11253,"ĠAmanda":11254,"Ġcardboard":11255,"ĠMueller":11256,"235":11257,"Ġpreheating":11258,"Ġnecks":11259,"ĠBuddy":11260,"Whip":11261,"ultip":11262,"Ġtostado":11263,"Ġtangerines":11264,"seedless":11265,"Ġcamping":11266,"minus":11267,"Ġ380":11268,"tSpread":11269,"ĠSensations":11270,"Ġshucked":11271,"Ġutens":11272,"Ġprawns":11273,"ĠLuau":11274,"ĠSparkle":11275,"Ġproportions":11276,"Ġdrizzled":11277,"ĠGladys":11278,"Ġsaccharin":11279,"ĠArkansas":11280,"Spanish":11281,"generous":11282,"Ġdewberries":11283,"Ġdiffic":11284,"ĠCamembert":11285,"Ġsturdy":11286,"Reserve":11287,"Texas":11288,"aptist":11289,"ĠJemima":11290,"42":11291,"Betty":11292,"Cucumber":11293,"Oven":11294,"Part":11295,"blet":11296,"din":11297,"dition":11298,"flied":11299,"here":11300,"ippers":11301,"maker":11302,"pinch":11303,"process":11304,"tMakes":11305,"ui":11306,"uggest":11307,"wax":11308,"Ġ$":11309,"Ġscones":11310,"ered":11311,"ann":11312,"Ġol":11313,"Ġpistachios":11314,"Ġmiso":11315,"Ġchitterlings":11316,"ori":11317,"Ġsuc":11318,"Ġ315":11319,"Ġdraw":11320,"Ġdutch":11321,"Ġdifference":11322,"ĠBet":11323,"ĠBasting":11324,"ĠBelle":11325,"ĠBaptist":11326,"ĠPla":11327,"ĠPac":11328,"asto":11329,"Ġhis":11330,"Ġlr":11331,"ĠMat":11332,"ĠMerry":11333,"ĠTar":11334,"ĠTerry":11335,"ĠTray":11336,"owax":11337,"Ġvidalia":11338,"Ġcoca":11339,"Ġflow":11340,"Ġthirty":11341,"otle":11342,"ottage":11343,"ĠAss":11344,"ĠAmy":11345,"tof":11346,"Ġjer":11347,"rian":11348,"Ġ44":11349,"ĠCher":11350,"ĠRay":11351,"ĠDips":11352,"ĠWendy":11353,"stew":11354,"ĠFork":11355,"umqu":11356,"Ġriced":11357,"Ġricer":11358,"ĠLisa":11359,"ĠLatkes":11360,"ĠIowa":11361,"ĠHer":11362,"ĠHock":11363,"Ġ85":11364,"shakes":11365,"immy":11366,"ĠGrain":11367,"Ġropes":11368,"Ġcaring":11369,"Ġcarnation":11370,"arms":11371,"Ġjells":11372,"ĠVen":11373,"ĠVege":11374,"ucts":11375,"Ġblends":11376,"seal":11377,"ĠSavan":11378,"ĠNap":11379,"Ġwarmth":11380,"Ġbottomed":11381,"Ġspreads":11382,"ception":11383,"indeer":11384,"Ġpointed":11385,"ĠSets":11386,"Ġdissolving":11387,"ĠDeli":11388,"Ġscrod":11389,"ĠSquare":11390,"ĠCrabs":11391,"Ġknot":11392,"potatoes":11393,"Ġcompl":11394,"Ġdarker":11395,"ĠPounds":11396,"flaked":11397,"ĠDelightful":11398,"ĠPhy":11399,"Ġclar":11400,"Ġelder":11401,"gsicles":11402,"Chris":11403,"ĠSnip":11404,"ĠBarely":11405,"ĠIron":11406,"ĠOverlap":11407,"Ġstringy":11408,"ĠPlate":11409,"buttermilk":11410,"Ġshortly":11411,"ĠHopping":11412,"ĠParowax":11413,"before":11414,"ĠAmber":11415,"ĠMagn":11416,"ĠIndiana":11417,"Ġfloating":11418,"Ġbricks":11419,"Ġimported":11420,"ĠPizzelles":11421,"ĠEdith":11422,"ĠSpringtime":11423,"Ġhusband":11424,"ĠSucc":11425,"ĠColorful":11426,"Ġgluten":11427,"Ġstreusel":11428,"Caramel":11429,"Carnation":11430,"ĠGrammy":11431,"Ġperfectly":11432,"Ġevaporate":11433,"ĠMarket":11434,"ĠGenoa":11435,"Ġfigure":11436,"equals":11437,"Ġfarmer":11438,"Ġtimer":11439,"ĠGarbanzo":11440,"Ġbuffet":11441,"ĠKatie":11442,"Ġnutritious":11443,"ĠVernors":11444,"Ġtwisted":11445,"lsberg":11446,"ĠMimi":11447,"Ġpralines":11448,"Ġautomatic":11449,"ĠDainties":11450,"ĠFrancisco":11451,"ĠClaret":11452,"ĠIncredible":11453,"ĠVictoria":11454,"Ġcrinkle":11455,"ĠDiamond":11456,"ĠJamaican":11457,"ĠSterilize":11458,"ĠAntipasto":11459,"ĠHuckleberry":11460,"Ġstomach":11461,"ĠSavannah":11462,"Am":11463,"Berry":11464,"Bundt":11465,"Crab":11466,"\\)":11467,"bag":11468,"bby":11469,"done":11470,"food":11471,"kn":11472,"lan":11473,"line":11474,"mas":11475,"oblong":11476,"ril":11477,"rare":11478,"rint":11479,"sie":11480,"store":11481,"takes":11482,"tied":11483,"uet":11484,"via":11485,"za":11486,"Ġide":11487,"Ġedible":11488,"Ġsound":11489,"Ġseep":11490,"Ġsorbet":11491,"esquite":11492,"Ġmorn":11493,"atively":11494,"ution":11495,"andine":11496,"Ġforever":11497,"ĠCu":11498,"ĠCathy":11499,"legs":11500,"spit":11501,"elbow":11502,"Ġaid":11503,"itake":11504,"Ġdye":11505,"Ġdoritos":11506,"ĠSieve":11507,"ĠSyl":11508,"ĠBan":11509,"ĠBern":11510,"ĠPom":11511,"Ġholly":11512,"Ġsaltpet":11513,"Ġeggroll":11514,"Ġbutterflied":11515,"ĠTy":11516,"ĠTah":11517,"Ġvelvety":11518,"Ġcoco":11519,"allic":11520,"usual":11521,"otal":11522,"ĠComb":11523,"Ġshaky":11524,"ieties":11525,"ĠRis":11526,"ĠRick":11527,"ĠDandelion":11528,"ode":11529,"odate":11530,"odized":11531,"Ġgrinding":11532,"Ġbrownness":11533,"ades":11534,"ĠFo":11535,"ĠFuss":11536,"concentrate":11537,"ĠSpices":11538,"ĠSpears":11539,"ĠLiz":11540,"ĠHyd":11541,"Ġcupfuls":11542,"Ġbaggie":11543,"ardee":11544,"eddings":11545,"abe":11546,"Ġappetit":11547,"Ġsyrups":11548,"Ġlik":11549,"Ġfillo":11550,"Ġseasons":11551,"ĠSauerbraten":11552,"Ġensure":11553,"oniodized":11554,"Ġteacup":11555,"ĠSheath":11556,"tomatoes":11557,"Ġsmoother":11558,"ĠAndes":11559,"Ġfines":11560,"Ġplant":11561,"Ġthawing":11562,"ĠArn":11563,"ĠCane":11564,"ĠReduced":11565,"sover":11566,"Ġcleaning":11567,"ĠZe":11568,"ĠZesta":11569,"ampen":11570,"Ġhighly":11571,"yson":11572,"Ġmelba":11573,"ĠHair":11574,"ĠAppetit":11575,"thington":11576,"Ġsliver":11577,"Ġbrushed":11578,"defrost":11579,"Ġsunny":11580,"ermark":11581,"ĠJogging":11582,"cookie":11583,"buy":11584,"Ġnectarine":11585,"ĠEquals":11586,"ĠMaine":11587,"ĠGoof":11588,"ĠNewburg":11589,"Ġmostly":11590,"ĠPolska":11591,"ĠPolenta":11592,"ĠBlot":11593,"ĠCotton":11594,"Ġproceed":11595,"Stuff":11596,"Ġvarieties":11597,"ĠFrances":11598,"Ġflax":11599,"ront":11600,"ĠMorgan":11601,"Ġdehydrator":11602,"skinned":11603,"Ġcommon":11604,"ĠWorthington":11605,"partment":11606,"ĠBunny":11607,"ĠCharles":11608,"Almond":11609,"ĠCorin":11610,"Swans":11611,"ĠJarlsberg":11612,"Ġparched":11613,"Ġobtained":11614,"ĠBoyardee":11615,"ĠFannie":11616,"hamburger":11617,"cooled":11618,"ĠCheerwine":11619,"ĠLickin":11620,"ĠGarbage":11621,"locks":11622,"ĠNellie":11623,"Grandma":11624,"ĠThompson":11625,"Ġchanging":11626,"Ġdarkening":11627,"ĠSpiders":11628,"ĠLeslie":11629,"ĠShoestring":11630,"ĠBryan":11631,"ĠWitches":11632,"Ġramekins":11633,"ĠMcKay":11634,"Ġspearmint":11635,"ĠScandinavian":11636,"ĠBishop":11637,"Ġdifficult":11638,"ĠSuccotash":11639,"spitality":11640,"Ġsaltpetre":11641,"ĠHydrox":11642,"?)":11643,"Bur":11644,"Date":11645,"Freez":11646,"Ginger":11647,"Healthy":11648,"Ice":11649,"Kid":11650,"Law":11651,"Large":11652,"Mint":11653,"Purpose":11654,"Port":11655,"SE":11656,"Zerta":11657,"aes":11658,"bber":11659,"billy":11660,"cur":11661,"cayenne":11662,"diet":11663,"imble":11664,"ker":11665,"lies":11666,"wrapped":11667,"yps":11668,"Ġocc":11669,"Ġbugs":11670,"Ġbias":11671,"Ġtell":11672,"Ġfits":11673,"Ġfamous":11674,"Ġfifteen":11675,"Ġchard":11676,"ĠClass":11677,"ĠCort":11678,"ela":11679,"Ġsugary":11680,"Ġ39":11681,"Ġdred":11682,"ĠSen":11683,"ĠSass":11684,"ĠSatin":11685,"ĠBix":11686,"ĠBreeze":11687,"ĠBachel":11688,"Ġgm":11689,"Ġgrained":11690,"Ġgelled":11691,"ras":11692,"asants":11693,"ĠMus":11694,"ĠMason":11695,"ĠMull":11696,"ĠMuddy":11697,"Ġbuttercream":11698,"under":11699,"ĠTunnel":11700,"Ġcoon":11701,"ĠAc":11702,"ĠAlive":11703,"Ġshears":11704,"Ġmarket":11705,"ienies":11706,"ghurt":11707,"third":11708,"ĠRave":11709,"ĠRachel":11710,"ĠDa":11711,"ĠDen":11712,"ĠDig":11713,"ĠFar":11714,"ĠFake":11715,"ĠFric":11716,"meas":11717,"ĠSpud":11718,"reasing":11719,"ĠLim":11720,"ĠWhites":11721,"ĠHon":11722,"ĠHang":11723,"ĠHerm":11724,"idea":11725,"Ġcupful":11726,"ĠGal":11727,"ĠGail":11728,"ĠGnocchi":11729,"Ġhotdogs":11730,"Ġsock":11731,"Ġcarp":11732,"rinkled":11733,"Ġkiw":11734,"ĠJason":11735,"ĠKola":11736,"ĠKale":11737,"ĠCreamsicle":11738,"ĠNatural":11739,"ĠNumber":11740,"Ġlock":11741,"acy":11742,"parts":11743,"ettie":11744,"ects":11745,"Ġliquify":11746,"iches":11747,"Ġmeals":11748,"ĠForget":11749,"ĠRoom":11750,"Ġaccum":11751,"ĠCaraway":11752,"Ġcandle":11753,"sauce":11754,"Ġparticular":11755,"ĠBru":11756,"Ġaged":11757,"ĠCrumbled":11758,"ĠCamper":11759,"ĠPartly":11760,"tmas":11761,"heads":11762,"ĠPuffed":11763,"Ġfrosty":11764,"ĠFritt":11765,"ĠAnother":11766,"ĠPlatter":11767,"Ġsupermark":11768,"Ġshortest":11769,"Ġprov":11770,"Canned":11771,"ĠHoppin":11772,"Ġswamp":11773,"ĠBass":11774,"udson":11775,"ĠSundaes":11776,"ĠSoftasilk":11777,"Ġcombinations":11778,"ĠAmandine":11779,"ĠWishbone":11780,"Ġcontent":11781,"ĠTrappey":11782,"metallic":11783,"ĠPassover":11784,"ĠWilson":11785,"ĠBoboli":11786,"Ġpricked":11787,"ĠSuz":11788,"ĠGloria":11789,"ĠCharcoal":11790,"ĠHillbilly":11791,"ĠBuddies":11792,"Ġrocks":11793,"ĠMasterpiece":11794,"ĠFunny":11795,"Ġmatzoh":11796,"ĠMamie":11797,"Ġdesigns":11798,"Shrimp":11799,"ĠJewel":11800,"ĠVienn":11801,"ĠFudgsicles":11802,"ĠEastern":11803,"seeds":11804,"Ġpizzelle":11805,"jointed":11806,"Ġplumped":11807,"tBeat":11808,"Ġpheasants":11809,"ĠTerrific":11810,"Ġarranging":11811,"ĠPocket":11812,"tube":11813,"Ġutility":11814,"peanut":11815,"Ġachieve":11816,"Ġassemb":11817,"Ġselection":11818,"Ġnapkin":11819,"ĠModel":11820,"ĠVariation":11821,"gency":11822,"Ġenclose":11823,"Ġvertically":11824,"Bacon":11825,"Ġpulverized":11826,"Ġjalapeo":11827,"Polish":11828,"ĠTreet":11829,"Ġdoubling":11830,"infandel":11831,"Ġlrg":11832,"Christmas":11833,"Ġmornings":11834,"Portuguese":11835,"Ġkiwis":11836,"Ed":11837,"Eye":11838,"Hors":11839,"Jimmy":11840,"Vidalia":11841,"Your":11842,"carp":11843,"dill":11844,"even":11845,"few":11846,"gies":11847,"hor":11848,"how":11849,"ivers":11850,"jonnaise":11851,"pres":11852,"parsley":11853,"tight":11854,"var":11855,"Ġidea":11856,"Ġcab":11857,"Ġsense":11858,"arant":11859,"Ġovals":11860,"Ġbind":11861,"Ġbows":11862,"esome":11863,"Ġpasty":11864,"Ġpones":11865,"Ġmatter":11866,"Ġmidget":11867,"Ġfront":11868,"Ġwall":11869,"icle":11870,"ĠCrinkle":11871,"lep":11872,"orate":11873,"roasted":11874,"Ġdom":11875,"ĠSny":11876,"ĠBarbec":11877,"olive":11878,"Ġhim":11879,"isk":11880,"ĠMalt":11881,"ĠTuck":11882,"ĠTbl":11883,"ĠTouch":11884,"Ġvents":11885,"Ġviole":11886,"ĠAir":11887,"Ġuncut":11888,"Ġunwrap":11889,"reduced":11890,"Ġshade":11891,"ĠChic":11892,"ĠChunks":11893,"iris":11894,"thirds":11895,"ĠRand":11896,"ĠDave":11897,"ĠDime":11898,"Ġbakery":11899,"Ġbrownish":11900,"ĠFoster":11901,"Ġrepla":11902,"Ġrat":11903,"ĠSpuds":11904,"amed":11905,"berts":11906,"Ġcraft":11907,"ĠStone":11908,"ĠLB":11909,"ĠLin":11910,"ĠLye":11911,"Ġconf":11912,"ĠHIGH":11913,"shell":11914,"Ġ53":11915,"ĠGin":11916,"ĠGay":11917,"ĠGems":11918,"ĠGene":11919,"Ġovenware":11920,"Ġ95":11921,"Ġ96":11922,"Ġcarving":11923,"ĠPutty":11924,"Ġapproximate":11925,"ĠOs":11926,"ĠEll":11927,"ĠJen":11928,"ĠJus":11929,"ĠKielbasi":11930,"ĠVegeburger":11931,"Ġloins":11932,"ĠShut":11933,"ĠShuck":11934,"ĠChoc":11935,"Ġcolby":11936,"osable":11937,"ĠBeverage":11938,"ousin":11939,"ĠDove":11940,"Ġtwelve":11941,"ĠSoci":11942,"eezed":11943,"Ġcrispier":11944,"Ġstews":11945,"ĠLois":11946,"Ġknock":11947,"Ġoccasions":11948,"soften":11949,"cornbread":11950,"ĠZinfandel":11951,"Ġgranular":11952,"Ġeveryday":11953,"unsaturated":11954,"aryl":11955,"ĠPatio":11956,"ĠPatrick":11957,"ĠCaramelized":11958,"ĠDijonnaise":11959,"Ġbrats":11960,"Ġsauteing":11961,"approx":11962,"tmix":11963,"Child":11964,"crusts":11965,"Ġcombo":11966,"ĠHoneyed":11967,"Ġflowerettes":11968,"ĠLimeade":11969,"ĠWalla":11970,"Three":11971,"ĠClara":11972,"ĠAuntie":11973,"Ġcongeals":11974,"Ġoverbrown":11975,"ĠFritter":11976,"ĠAnts":11977,"ĠMiller":11978,"theart":11979,"Ġentree":11980,"ĠHerbs":11981,"Ġsecuring":11982,"Ġswir":11983,"unkist":11984,"prepare":11985,"Ġdisjointed":11986,"Ġheld":11987,"Ġspirals":11988,"Ġgreet":11989,"Ġcavatelli":11990,"atherine":11991,"ĠNannie":11992,"partially":11993,"Dijon":11994,"ĠDrunken":11995,"ĠPride":11996,"possum":11997,"Ġtrash":11998,"ĠJuly":11999,"Ġpastel":12000,"Swedish":12001,"ĠMadeira":12002,"Ġpolish":12003,"square":12004,"ĠPasties":12005,"Ġmullet":12006,"ĠDuckling":12007,"Ġsizzle":12008,"Ġsizzles":12009,"Ġvented":12010,"ĠSusie":12011,"ĠTempt":12012,"Ġgreasy":12013,"refrigerate":12014,"Ġgherkin":12015,"Ġcondiment":12016,"ĠSweetheart":12017,"Ġnorthern":12018,"ĠMidnight":12019,"electric":12020,"Season":12021,"ĠEmma":12022,"ĠMahatma":12023,"ĠDecrease":12024,"Ġassemble":12025,"quartered":12026,"Ġmidway":12027,"view":12028,"Ġbaguette":12029,"Ġpolyunsaturated":12030,"ĠCommunion":12031,"Leave":12032,"itamin":12033,"jalapeno":12034,"ĠPAM":12035,"ĠBartlett":12036,"ĠAloha":12037,"Ġbisque":12038,"ĠAfrican":12039,"moderate":12040,"Ġsuccess":12041,"ĠPacific":12042,"Ġelderberries":12043,"ĠFrittata":12044,"carpone":12045,"ĠBarbecups":12046,"200":12047,"Bo":12048,"Calorie":12049,"En":12050,"Fr":12051,"Fast":12052,"Flavor":12053,"Fudge":12054,"Gr":12055,"Grease":12056,"Greek":12057,"Ind":12058,"Japanese":12059,"Links":12060,"Macaroni":12061,"OW":12062,"Over":12063,"Olive":12064,"Rising":12065,"SG":12066,"breasts":12067,"baco":12068,"bled":12069,"bananas":12070,"ook":12071,"pea":12072,"purch":12073,"roughly":12074,"sweeten":12075,"skins":12076,"torn":12077,"town":12078,"vely":12079,"Ġcame":12080,"Ġcult":12081,"Ġcouscous":12082,"Ġsass":12083,"Ġsodas":12084,"around":12085,"estershire":12086,"Ġmunch":12087,"aluminum":12088,"gard":12089,"spir":12090,"split":12091,"akers":12092,"Ġ220":12093,"Ġaff":12094,"Ġ340":12095,"ited":12096,"Ġdisturb":12097,"ĠSuch":12098,"ĠSolution":12099,"ĠBlo":12100,"lava":12101,"Ġglaz":12102,"geon":12103,"asse":12104,"Ġhar":12105,"Ġly":12106,"Ġlollip":12107,"eseed":12108,"ĠTing":12109,"Ġvine":12110,"Ġthigh":12111,"otto":12112,"chill":12113,"ĠAge":12114,"ĠAnch":12115,"Ġunwhipped":12116,"cep":12117,"elly":12118,"Ġjiffy":12119,"Ġnoniodized":12120,"Ġsaid":12121,"ĠRump":12122,"ĠRutabag":12123,"ĠDaff":12124,"ĠDams":12125,"ĠDoodle":12126,"ĠDoub":12127,"ĠDandy":12128,"ĠDaiqu":12129,"ansion":12130,"Ġboys":12131,"tadd":12132,"taco":12133,"etime":12134,"ishness":12135,"Ġrel":12136,"Ġspl":12137,"Ġpots":12138,"vents":12139,"ĠGlo":12140,"ifetime":12141,"inkies":12142,"ression":12143,"Ġstirr":12144,"ĠReception":12145,"length":12146,"Ġdryer":12147,"ĠEtc":12148,"aining":12149,"ĠJay":12150,"ĠBroken":12151,"izing":12152,"Ġexample":12153,"afras":12154,"Ġflavorful":12155,"ĠNone":12156,"ĠShower":12157,"ĠButterhorn":12158,"essel":12159,"ĠBoiler":12160,"Ġmocha":12161,"osed":12162,"ĠBev":12163,"Ġfirmness":12164,"Ġdefat":12165,"Ġdepartment":12166,"Ġrims":12167,"Ġrivels":12168,"Ġtartness":12169,"Ġhandles":12170,"izzle":12171,"Ġscotch":12172,"Ġafternoon":12173,"ĠRitzy":12174,"bsters":12175,"Ġregularly":12176,"ĠMargie":12177,"ĠBrer":12178,"ĠMont":12179,"ĠCones":12180,"ĠSteph":12181,"Ġsubmer":12182,"ĠAngost":12183,"ĠAccents":12184,"Ġbacks":12185,"does":12186,"ĠMilkless":12187,"Check":12188,"Ġtrimm":12189,"ĠDoughnut":12190,"peeling":12191,"Potatoes":12192,"mayonnaise":12193,"ĠProven":12194,"ĠReaLime":12195,"ĠFinnish":12196,"Ġmeasurements":12197,"ĠButterfly":12198,"Ġmeasures":12199,"ĠImportant":12200,"ĠTenders":12201,"Ġstronger":12202,"rolling":12203,"Ġdiamonds":12204,"Ġrepeating":12205,"ĠTimey":12206,"ĠFrangel":12207,"ĠRumaki":12208,"Ġpersonality":12209,"ĠAttach":12210,"ĠWax":12211,"seasoning":12212,"ĠElectric":12213,"Ġ265":12214,"Ġgrown":12215,"ĠWilt":12216,"ĠWilma":12217,"Ġhelping":12218,"Ġbuckeye":12219,"Ġscratch":12220,"Apples":12221,"thinly":12222,"Chopped":12223,"ĠFair":12224,"Ġpastries":12225,"ĠWhoppers":12226,"Ġseashells":12227,"ĠEveryday":12228,"ĠRelleno":12229,"ĠJohnnycake":12230,"Ġrecommend":12231,"ĠBride":12232,"ĠBridge":12233,"Ġhanging":12234,"bottomed":12235,"Ġoreos":12236,"works":12237,"ĠPicc":12238,"ĠFanny":12239,"ĠRobin":12240,"ĠMethodist":12241,"Ġpaints":12242,"ĠMistakes":12243,"Ġchanged":12244,"Ġcloverleaf":12245,"Ġdrug":12246,"ĠToddy":12247,"ĠLollipops":12248,"ĠTreasure":12249,"Ġemuls":12250,"ĠFuzzy":12251,"ĠWorchestershire":12252,"ĠJoseph":12253,"Ġjerky":12254,"Ġoccur":12255,"ĠBachelor":12256,"Frutti":12257,"bacore":12258,"ĠAngostura":12259,"275":12260,"90":12261,"Ap":12262,"Beat":12263,"CE":12264,"Custard":12265,"Crisp":12266,"Durkee":12267,"Melt":12268,"Mac":12269,"OR":12270,"Sauce":12271,"Watch":12272,"Wrapped":12273,"bq":12274,"care":12275,"dissolve":12276,"deli":12277,"equ":12278,"gu":12279,"gento":12280,"iitake":12281,"lice":12282,"mustard":12283,"oise":12284,"purple":12285,"paper":12286,"rong":12287,"sub":12288,"single":12289,"tat":12290,"tCut":12291,"zle":12292,"Ġant":12293,"Ġclassic":12294,"Ġsnaps":12295,"anie":12296,"Ġtrench":12297,"Ġtons":12298,"Ġpi":12299,"Ġpith":12300,"uton":12301,"rell":12302,"alley":12303,"Ġfacing":12304,"ĠCukes":12305,"spring":12306,"Ġ232":12307,"Ġsupplement":12308,"ĠSmear":12309,"ĠSouffl":12310,"ĠSunkist":12311,"ĠBand":12312,"laine":12313,"ĠPups":12314,"ĠPuncture":12315,"Ġgot":12316,"asiest":12317,"gger":12318,"Ġlifetime":12319,"ĠMignon":12320,"uno":12321,"unes":12322,"ĠTub":12323,"ĠTail":12324,"ĠTandy":12325,"Ġcomm":12326,"ĠAust":12327,"ĠAbs":12328,"Ġstreak":12329,"Ġeggsh":12330,"Ġnone":12331,"Ġnickel":12332,"Ġshark":12333,"ĠChamp":12334,"Ġmarbled":12335,"Ġleak":12336,"ĠRen":12337,"ĠRus":12338,"ĠRita":12339,"ĠDuke":12340,"ĠDampen":12341,"ĠWeep":12342,"stem":12343,"Ġoverflow":12344,"ushi":12345,"illow":12346,"adjust":12347,"ĠFres":12348,"ĠFigs":12349,"ĠFather":12350,"ersey":12351,"Ġremember":12352,"Ġsprite":12353,"Ġspicier":12354,"Ġyum":12355,"ĠLew":12356,"Ġsoured":12357,"ĠWhippers":12358,"ĠHog":12359,"Ġcrumbed":12360,"boat":12361,"ĠEs":12362,"ĠEmp":12363,"ĠJr":12364,"Ġlaugh":12365,"ĠVich":12366,"Ġseasonal":12367,"ĠThai":12368,"Ġskirt":12369,"lete":12370,"Ġprecook":12371,"Ġlobsters":12372,"ĠPrepared":12373,"ĠShave":12374,"Ġwarmer":12375,"example":12376,"Ġresult":12377,"Ġrespect":12378,"Ġsoybean":12379,"Ġexception":12380,"Ġfoiled":12381,"canning":12382,"ĠCarob":12383,"Ġtepid":12384,"ĠSection":12385,"Ġturner":12386,"ĠHots":12387,"ĠChopstick":12388,"Ġneedle":12389,"Ġtwinkies":12390,"tina":12391,"ĠMeats":12392,"ĠLook":12393,"ĠMexicana":12394,"Ġmolding":12395,"Ġpopsicles":12396,"ĠUnfold":12397,"nutmeg":12398,"plum":12399,"lug":12400,"gstore":12401,"ĠGrande":12402,"ĠTurk":12403,"Ġcheesy":12404,"Ġtrio":12405,"ĠPopeye":12406,"ĠWatercress":12407,"Ġsitting":12408,"ĠTriangles":12409,"ĠMommy":12410,"ĠColman":12411,"Ġstarted":12412,"ĠCluster":12413,"oeuvre":12414,"Ġrinsing":12415,"ĠJames":12416,"ĠExotic":12417,"Ġvaries":12418,"ĠAsian":12419,"Ġsummertime":12420,"preheated":12421,"precooked":12422,"actus":12423,"assion":12424,"ĠSmoothies":12425,"Ġadults":12426,"Ġtrust":12427,"ĠSandra":12428,"ĠDietetic":12429,"Ġ190":12430,"ĠTostado":12431,"ĠReubens":12432,"Ġhospitality":12433,"Ġbuckeyes":12434,"ĠBouillon":12435,"Ġpetit":12436,"ĠBagels":12437,"Ġproducts":12438,"ĠRosie":12439,"ĠSmokey":12440,"ĠSucaryl":12441,"Ġglove":12442,"Should":12443,"ĠBarbeque":12444,"ĠAlex":12445,"ĠPresident":12446,"ĠEveryone":12447,"ĠNonfat":12448,"Ġsandies":12449,"Ġprayers":12450,"Ġfritter":12451,"ĠMarbled":12452,"ĠSnapper":12453,"Ġvariations":12454,"Heinz":12455,"ĠSmuckers":12456,"Soft":12457,"ĠCasa":12458,"ĠCasino":12459,"ĠPaula":12460,"plastic":12461,"Ġshowing":12462,"ĠEmily":12463,"ĠAwesome":12464,"brush":12465,"ĠThomas":12466,"Ġdiscs":12467,"Ġselected":12468,"Ġsatisfy":12469,"ĠRoyale":12470,"Hamburger":12471,"ĠTablespoons":12472,"ĠLucille":12473,"ĠRegina":12474,"Southern":12475,"ĠArnold":12476,"ĠLimas":12477,"ĠHermits":12478,"ĠViennese":12479,"Ġcabinet":12480,"ĠDaiquiris":12481,"Apricot":12482,"*.":12483,"AN":12484,"Bor":12485,"Bowl":12486,"Black":12487,"Cold":12488,"Fish":12489,"Golden":12490,"Hun":12491,"Hormel":12492,"Just":12493,"Nor":12494,"Of":12495,"Rom":12496,"Rich":12497,"Sk":12498,"Substitute":12499,"Take":12500,"Tater":12501,"aur":12502,"bar":12503,"burn":12504,"banese":12505,"cie":12506,"ez":12507,"ether":12508,"ga":12509,"iver":12510,"koe":12511,"mash":12512,"master":12513,"roni":12514,"rinse":12515,"sn":12516,"sed":12517,"Ġreas":12518,"Ġcaster":12519,"Ġcactus":12520,"inutes":12521,"instead":12522,"Ġscent":12523,"Ġsloppy":12524,"era":12525,"anas":12526,"Ġbing":12527,"Ġpump":12528,"Ġpads":12529,"Ġmirin":12530,"atar":12531,"uting":12532,"enies":12533,"Ġfle":12534,"Ġchal":12535,"ĠCuts":12536,"ĠCele":12537,"ĠCousin":12538,"ĠCatherine":12539,"Ġinf":12540,"Ġtoes":12541,"spices":12542,"sprinkled":12543,"ppie":12544,"aka":12545,"reader":12546,"roved":12547,"Ġ37":12548,"Ġdunk":12549,"ĠScent":12550,"ĠBud":12551,"ĠBessie":12552,"lasting":12553,"ĠPars":12554,"ĠPenne":12555,"ĠPsal":12556,"Ġgath":12557,"olitan":12558,"Ġhay":12559,"Ġluke":12560,"ĠMal":12561,"ĠMSG":12562,"unwhipped":12563,"ĠTi":12564,"ĠTim":12565,"ĠTrop":12566,"ĠTyson":12567,"Ġthroughly":12568,"usto":12569,"Ġcanapes":12570,"ĠCombo":12571,"Ġforce":12572,"Ġ420":12573,"Ġnests":12574,"ĠChild":12575,"rylic":12576,"Ġingred":12577,".)*":12578,"ĠRy":12579,"ĠRoula":12580,"ĠDukes":12581,"nay":12582,"Ġovercooked":12583,"Ġcookbook":12584,"ĠFall":12585,"erson":12586,"confection":12587,"ighter":12588,"Ġrand":12589,"omi":12590,"ames":12591,"Ġpotted":12592,"Ġsmallest":12593,"Ġcram":12594,"ĠLore":12595,"ĠIc":12596,"ĠHall":12597,"Ġcupboard":12598,"shrimp":12599,"ache":12600,"edded":12601,"ĠRemo":12602,"ĠReview":12603,"uban":12604,"aban":12605,"abasco":12606,"ĠOuts":12607,"ĠOpal":12608,"ĠEars":12609,"ĠEvaporated":12610,"ĠJunior":12611,"ĠInf":12612,"loose":12613,"Ġlaid":12614,"Ġexchanges":12615,"ĠVin":12616,"ĠVary":12617,"others":12618,"ssib":12619,"ĠThings":12620,"lier":12621,"ĠNests":12622,"megran":12623,"ĠPrebake":12624,"tomato":12625,"eca":12626,"kind":12627,"Ġcotton":12628,"Ġzipper":12629,"udes":12630,"Ġrimmed":12631,"udget":12632,"Ġrounding":12633,"Ġmicrowaveable":12634,"Ġcrisps":12635,"Ġ242":12636,"Ġ248":12637,"ternational":12638,"Ġsmother":12639,"Ġtoasty":12640,"velope":12641,"ĠCranapple":12642,"Ġbrands":12643,"Ġbreaks":12644,"ĠDecker":12645,"Ġfilm":12646,"approximate":12647,"ĠRaised":12648,"Ġlist":12649,"Ġpreferable":12650,"Ġspringy":12651,"Ġprong":12652,"Ġbasmati":12653,"ĠTriscuit":12654,"Ġbecoming":12655,"ĠProtein":12656,"Ġsoaks":12657,"Ġlumpia":12658,"Ġacrylic":12659,"ĠPerky":12660,"ĠMillie":12661,"Covered":12662,"ĠHerbal":12663,"ĠNorma":12664,"ĠCurrant":12665,"ĠTenderness":12666,"Ġcrossways":12667,"broth":12668,"ĠBeauty":12669,"ĠTequila":12670,"iggle":12671,"ĠClove":12672,"Ġcord":12673,"Ġlotion":12674,"packaged":12675,"ĠAnything":12676,"Spicy":12677,"Ġearthen":12678,"Ġjacket":12679,"Ġhelpings":12680,"Ġpresent":12681,"ĠTamales":12682,"ĠHelp":12683,"ĠPrior":12684,"Ġmaintain":12685,"ĠMargaritas":12686,"ĠElegante":12687,"Ġpurchase":12688,"Ġindentations":12689,"blueberries":12690,"ĠBaklava":12691,"tBlend":12692,"ĠDoesn":12693,"Ġbeaver":12694,"Ġexposed":12695,"Ġholder":12696,"tDrain":12697,"ĠSensation":12698,"jacks":12699,"ĠStriped":12700,"Ġbands":12701,"slowly":12702,"ĠFrappe":12703,"ĠMascarpone":12704,"groves":12705,"ĠMaxwell":12706,"Ġenhancer":12707,"ĠAshley":12708,"Walnut":12709,"Ġyoghurt":12710,"Ġwindow":12711,"ĠMyrtle":12712,"Party":12713,"dinary":12714,"Ġideal":12715,"ĠSassy":12716,"however":12717,"ĠChicago":12718,"Ġdefatted":12719,"ĠPiccata":12720,"ĠLewis":12721,"ĠVichy":12722,"megranate":12723,"76":12724,":\\":12725,"Br":12726,"By":12727,"Cottage":12728,"Dream":12729,"EL":12730,"Faced":12731,"Lawry":12732,"Mor":12733,"Small":12734,"Spe":12735,"Size":12736,"Simple":12737,"Salt":12738,"Turn":12739,"ael":12740,"aven":12741,"country":12742,"cass":12743,"have":12744,"iago":12745,"jects":12746,"maw":12747,"need":12748,"nite":12749,"sandwich":12750,"tw":12751,"tServes":12752,"twater":12753,"tcheese":12754,"vak":12755,"iners":12756,"Ġsoul":12757,"Ġsided":12758,"Ġbirthday":12759,"Ġtaffy":12760,"Ġtighten":12761,"Ġpk":12762,"Ġpiles":12763,"Ġmesh":12764,"Ġfiesta":12765,"Ġwedged":12766,"Ġweddings":12767,"ĠCard":12768,"ĠCord":12769,"spaghetti":12770,"itian":12771,"ĠSlash":12772,"ĠSilly":12773,"ĠSodium":12774,"ĠBat":12775,"ĠBakes":12776,"ĠBilly":12777,"ĠPaw":12778,"ĠPipe":12779,"ĠPipp":12780,"ĠPlug":12781,"olia":12782,"Ġpeace":12783,"Ġsaltpe":12784,"uttered":12785,"ĠMeg":12786,"ĠMaking":12787,"ĠMiddle":12788,"ĠMabel":12789,"ĠTin":12790,"Ġvein":12791,"Ġthins":12792,"uses":12793,"otes":12794,"Ġflouring":12795,"Ġornament":12796,"ithin":12797,"tst":12798,"Ġstrands":12799,"Ġpeppermints":12800,"ĠCha":12801,"ĠChan":12802,"Ġcruet":12803,"Ġlefse":12804,"thians":12805,"ĠRag":12806,"ĠRoux":12807,"ĠWright":12808,"odus":12809,"Ġbooze":12810,"ĠField":12811,"Ġbeads":12812,"asturt":12813,"Ġrear":12814,"urgers":12815,"Ġspanish":12816,"Ġrough":12817,"ĠSpa":12818,"ĠSpace":12819,"Ġyarn":12820,"ĠStarch":12821,"ĠLunn":12822,"ĠLane":12823,"ĠHodge":12824,"ĠGro":12825,"ĠGlen":12826,"ĠGingersnap":12827,"Ġcarcass":12828,"leness":12829,"ĠSaltines":12830,"Ġalbacore":12831,"Ġshorter":12832,"ĠOV":12833,"ĠElaine":12834,"ĠJord":12835,"ĠKiev":12836,"ĠKelly":12837,"Ġslant":12838,"Ġrad":12839,"Ġexc":12840,"ĠVar":12841,"ĠVermicelli":12842,"mps":12843,"othings":12844,"ĠThelma":12845,"ĠNina":12846,"lette":12847,"Ġenter":12848,"Ġblackened":12849,"Ġprevents":12850,"ĠShasta":12851,"estic":12852,"Ġ750":12853,"Ġfiner":12854,"Ġmoving":12855,"ĠToothpick":12856,"Ġunbuttered":12857,"oung":12858,"ĠSeveral":12859,"ĠLean":12860,"ĠLevel":12861,"ĠLeft":12862,"Ġscum":12863,"Ġ245":12864,"Ġanymore":12865,"Ġpinwheel":12866,"tiny":12867,"ĠMeaty":12868,"rought":12869,"ternal":12870,"ĠLoyalty":12871,"tzel":12872,"ĠMarian":12873,"extured":12874,"affein":12875,"ĠNutrit":12876,"ĠSteve":12877,"whipping":12878,"ĠCrusted":12879,"ĠHav":12880,"ĠPhil":12881,"ĠCheap":12882,"ividing":12883,"Ġgarnishes":12884,"ĠVegie":12885,"Ġgiblet":12886,"ĠCross":12887,"ĠPoach":12888,"Ġoysterettes":12889,"ĠBaggies":12890,"ĠEnt":12891,"choose":12892,"ĠClark":12893,"ĠProceed":12894,"ĠGrannie":12895,"ĠMaui":12896,"rett":12897,"ĠSnowd":12898,"ĠSnowflake":12899,"ĠSlushy":12900,"ĠShortcut":12901,"Ġsecrets":12902,"Ġliquefy":12903,"ĠWatcher":12904,"Start":12905,"Ġbathtub":12906,"ĠSunrise":12907,"assee":12908,"ĠEliz":12909,"Ġdisk":12910,"ĠTeam":12911,"ĠIndones":12912,"ĠMornay":12913,"ĠEvergreen":12914,"Ġimprint":12915,"ĠHours":12916,"ĠFettuccini":12917,"ĠGlory":12918,"ĠFiles":12919,"Topped":12920,"Ġinterest":12921,"Ġstroganoff":12922,"ĠHorse":12923,"ĠButtons":12924,"Ġwaiting":12925,"Yummy":12926,"squeezed":12927,"ĠComplete":12928,"follows":12929,"ĠDieters":12930,"step":12931,"inosaur":12932,"tRefrigerate":12933,"Ġphone":12934,"Ġbuffalo":12935,"Ġextending":12936,"Ġnutritional":12937,"Ġdisposable":12938,"tFold":12939,"Ġproportion":12940,"Ġdrugstore":12941,"Ġdetermine":12942,"Ġoption":12943,"ĠFlowerpot":12944,"ĠLillian":12945,"ĠBenedict":12946,"ĠCroissants":12947,"Ġpleasant":12948,"Ġmagic":12949,"Ġclarified":12950,"abeth":12951,"ĠCorinthians":12952,"ĠCortland":12953,"Ġsockeye":12954,"aranteed":12955,"ĠSociables":12956,"ĠAncho":12957,"lengthwise":12958,"confectioners":12959,"Ġsaltpeter":12960,"asturtium":12961,"affeinated":12962,"85":12963,"AS":12964,"After":12965,"Could":12966,"DO":12967,"El":12968,"Jud":12969,"Kool":12970,"Other":12971,"Pick":12972,"Punch":12973,"Pasta":12974,"Squ":12975,"Tabasco":12976,"could":12977,"dg":12978,"dal":12979,"diluted":12980,"gant":12981,"grate":12982,"hatt":12983,"ique":12984,"kit":12985,"oh":12986,"py":12987,"pat":12988,"plen":12989,"pints":12990,"tit":12991,"tea":12992,"ury":12993,"yrian":12994,"Ġce":12995,"Ġcents":12996,"eroll":12997,"ergy":12998,"Ġtumb":12999,"Ġtent":13000,"Ġpleas":13001,"Ġpisto":13002,"Ġmussels":13003,"alded":13004,"ouille":13005,"Ġfats":13006,"Ġfist":13007,"Ġfails":13008,"Ġwagon":13009,"icorn":13010,"ĠCH":13011,"ĠCel":13012,"ĠCass":13013,"ĠCreek":13014,"rose":13015,"roken":13016,"roma":13017,"Ġaigs":13018,"Ġdress":13019,"Ġdividing":13020,"terrey":13021,"ĠSon":13022,"ĠSipper":13023,"ĠPil":13024,"ĠPav":13025,"Ġhugs":13026,"Ġhanger":13027,"ggi":13028,"ĠTies":13029,"ĠTina":13030,"ĠTanger":13031,"Ġve":13032,"Ġ(\\":13033,"Ġcreams":13034,"icky":13035,"ickers":13036,"chee":13037,"Ġordinary":13038,"ĠAna":13039,"ĠArab":13040,"Ġunti":13041,"Ġchoke":13042,"Ġstead":13043,"tilly":13044,"Ġjun":13045,"illamo":13046,"dern":13047,"derberry":13048,"Ġshedded":13049,"ĠChim":13050,"ĠChard":13051,"ĠChik":13052,"ghur":13053,"Ġwhether":13054,"ĠRud":13055,"ĠRyes":13056,"ĠDin":13057,"odil":13058,"ĠFifteen":13059,"ĠForever":13060,"reserved":13061,"Ġrefrozen":13062,"coon":13063,"Ġfrogs":13064,"ĠLater":13065,"ĠHoles":13066,"ĠHeritage":13067,"ĠHudson":13068,"Ġcrackling":13069,"oper":13070,"Ġ56":13071,"Ġ550":13072,"ĠGel":13073,"ĠGets":13074,"ĠGorp":13075,"ĠRecipes":13076,"ĠReunion":13077,"arti":13078,"ĠJunk":13079,"ĠKer":13080,"ĠKnot":13081,"ĠKolbassi":13082,"ulu":13083,"lovak":13084,"Ġslower":13085,"Ġramps":13086,"Ġredness":13087,"ĠTher":13088,"Ġlaying":13089,"ĠNava":13090,"ĠNettie":13091,"ĠTops":13092,"ĠShawn":13093,"cca":13094,"awax":13095,"Ġmoose":13096,"ption":13097,"osa":13098,"ĠMoore":13099,"Ġbattered":13100,"Ġunbroken":13101,"Ġpopper":13102,"Ġunself":13103,"iola":13104,"Ġques":13105,"Ġtwin":13106,"Ġtwirls":13107,"Ġheap":13108,"ĠArgo":13109,"ĠMeatless":13110,"Ġaren":13111,"Ġarri":13112,"Ġquicker":13113,"ĠPeppercorn":13114,"Ġsomeone":13115,"ĠKnown":13116,"Ġflattening":13117,"ĠChiles":13118,"Ġleafy":13119,"ĠAngels":13120,"ĠRagged":13121,"ĠPoints":13122,"tminutes":13123,"Cheez":13124,"ĠSky":13125,"ĠSkippy":13126,"Ġfreely":13127,"Ġlitre":13128,"Ġcapfuls":13129,"ĠCalz":13130,"ĠCalyps":13131,"Ġgrapefruits":13132,"arbecuing":13133,"Coated":13134,"ĠPlunge":13135,"Ġprovolone":13136,"Ġsixths":13137,"Ġswell":13138,"ĠAsiago":13139,"ennis":13140,"ĠBonbon":13141,"ĠBasket":13142,"ĠSargento":13143,"ĠIndent":13144,"rumk":13145,"ĠWays":13146,"ĠBrad":13147,"ĠPaprik":13148,"ĠAnytime":13149,"ĠScotcharo":13150,"ĠForgiveness":13151,"Cooking":13152,"ĠStacks":13153,"Ġtends":13154,"Ġfeeder":13155,"ĠLadyfinger":13156,"Ġinsure":13157,"ĠJulep":13158,"ĠDaniel":13159,"Ġtrying":13160,"ĠUnderstanding":13161,"cubes":13162,"ĠStreet":13163,"ĠPastries":13164,"Ġparsnip":13165,"ĠSpritzer":13166,"ĠLanders":13167,"Ġmuscadine":13168,"Ġincorporate":13169,"ĠLicking":13170,"Ġcertain":13171,"Ġextend":13172,"Ġbeautifully":13173,"Ġbleach":13174,"ĠGooseberry":13175,"ougat":13176,"ĠEmerald":13177,"rifty":13178,"ĠKernel":13179,"ĠTavern":13180,"ĠEconomy":13181,"ĠPankies":13182,"Ġoxtails":13183,"ultiply":13184,"processed":13185,"ĠAssorted":13186,"umquats":13187,"ĠHocks":13188,"ĠSylvia":13189,"ĠType":13190,"ĠTahitian":13191,"ĠFricassee":13192,"ĠTbls":13193,"ĠOsgood":13194,"Ġcultured":13195,"Ġsassafras":13196,"ĠDamson":13197,"ĠFrangelico":13198,"ĠAbsolutely":13199,"Ġeggshell":13200,"ĠEsther":13201,"Romano":13202,"Ġrandom":13203,"ĠCordial":13204,"ĠJordan":13205,"ĠElizabeth":13206,"ĠIndonesian":13207,"hattan":13208,"illamook":13209,"ĠCalypso":13210,"))":13211,".\")":13212,"500":13213,"Acc":13214,"Bag":13215,"Four":13216,"IL":13217,"Jeremiah":13218,"Kroger":13219,"Maw":13220,"New":13221,"Pl":13222,"Per":13223,"Place":13224,"Pork":13225,"Rea":13226,"Ranch":13227,"Roy":13228,"Sun":13229,"Sometimes":13230,"Serving":13231,"Vanilla":13232,"cithin":13233,"ees":13234,"hel":13235,"jello":13236,"kiwi":13237,"pit":13238,"pure":13239,"pop":13240,"rates":13241,"soda":13242,"sesame":13243,"tich":13244,"ttogether":13245,"uine":13246,"win":13247,"yro":13248,"Ġcow":13249,"Ġcell":13250,"Ġsold":13251,"Ġocean":13252,"Ġbend":13253,"Ġbrought":13254,"Ġtrow":13255,"Ġtape":13256,"Ġtsub":13257,"Ġpate":13258,"Ġpadd":13259,"Ġposter":13260,"Ġmingle":13261,"encher":13262,"Ġfiddle":13263,"Ġfritos":13264,"ĠCir":13265,"ĠCreat":13266,"Ġinternal":13267,"Ġtoler":13268,"spinach":13269,"roz":13270,"Ġsucc":13271,"itters":13272,"Ġea":13273,"ĠSing":13274,"ĠSlime":13275,"ĠBi":13276,"ĠBed":13277,"ĠBath":13278,"ĠBama":13279,"ĠPos":13280,"ĠPlease":13281,"Ġgerman":13282,"Ġgnocchi":13283,"istle":13284,"ĠMorsels":13285,"unthawed":13286,"ĠTightly":13287,"Ġvelvet":13288,"Ġvessel":13289,"icks":13290,"usy":13291,"usilli":13292,"otball":13293,"chard":13294,"ĠAh":13295,"ĠAz":13296,"ĠAre":13297,"Ġunfrozen":13298,"Ġchoc":13299,"ĠComet":13300,"Ġfort":13301,"verages":13302,"ĠMixing":13303,"Ġnights":13304,"Ġsher":13305,"Ġshiitake":13306,"Ġsazon":13307,"ipino":13308,"Ġlecithin":13309,"ĠRedd":13310,"ĠDing":13311,"ĠDraw":13312,"ĠDales":13313,"ĠWink":13314,"ĠWinner":13315,"nam":13316,"stuff":13317,"stru":13318,"strong":13319,"Ġjudge":13320,"Ġjudg":13321,"Ġoverwork":13322,"ĠFine":13323,"ĠFly":13324,"ĠFoam":13325,"ĠFondant":13326,"cons":13327,"come":13328,"comes":13329,"Ġlemony":13330,"quis":13331,"Ġspuds":13332,"ĠLot":13333,"ĠLord":13334,"ĠLinks":13335,"ĠWheel":13336,"ĠCooks":13337,"apolitan":13338,"ĠHint":13339,"ĠHugs":13340,"ctor":13341,"imals":13342,"imilar":13343,"Ġ98":13344,"ĠReindeer":13345,"tables":13346,"ĠJes":13347,"ĠJones":13348,"ĠKal":13349,"ĠBeater":13350,"ĠBeaten":13351,"Ġliber":13352,"ucing":13353,"ĠCovers":13354,"Ġshredding":13355,"issy":13356,"Ġfruity":13357,"ĠNear":13358,"ĠNothings":13359,"Ġenv":13360,"Ġgingerale":13361,"Ġlost":13362,"Ġloves":13363,"Ġloving":13364,"agen":13365,"ĠShel":13366,"ĠShow":13367,"ĠButterless":13368,"ĠYosh":13369,"arbon":13370,"ĠChocolates":13371,"expected":13372,"ĠBreads":13373,"Ġresistant":13374,"Ġsoftball":13375,"Ġsoybeans":13376,"ĠToad":13377,"ĠFort":13378,"Ġthaws":13379,"ĠCarve":13380,"Ġpoach":13381,"Ġcrouton":13382,"ĠQuart":13383,"Ġhandshakes":13384,"ĠLeona":13385,"Ġstripes":13386,"ĠDelmon":13387,"irable":13388,"Ġcrisper":13389,"Ġcrisped":13390,"Ġcoffeemaker":13391,"ĠMinnie":13392,"Ġsmith":13393,"potato":13394,"Ġcompassion":13395,"ĠPeeled":13396,"ĠBrine":13397,"ĠDreamy":13398,"unsliced":13399,"ĠUnstuffed":13400,"erior":13401,"max":13402,"ĠDeb":13403,"Ġbru":13404,"Ġremoval":13405,"ĠFarmers":13406,"ĠWillie":13407,"Che":13408,"ĠOvens":13409,"Ġkindly":13410,"Ġunderbeat":13411,"Ġkneaded":13412,"ĠPackets":13413,"choice":13414,"ĠMoms":13415,"ĠWalking":13416,"Ġgeneric":13417,"ĠColored":13418,"Ġdotted":13419,"mayo":13420,"Ġbased":13421,"ĠWheats":13422,"ĠGranulated":13423,"!!)":13424,"ĠIsle":13425,"ĠGobs":13426,"Ġaccomm":13427,"crumble":13428,"Coffee":13429,"ĠBlintz":13430,"ĠManhattan":13431,"Ġ1000":13432,"Ġdiscarded":13433,"ĠLiberally":13434,"Ġclosing":13435,"Ġburgundy":13436,"ĠElla":13437,"ĠElderberry":13438,"ĠFollowing":13439,"Ġadhere":13440,"ĠRichard":13441,"ĠHarris":13442,"Ġlining":13443,"Ġdisks":13444,"Ġfloor":13445,"Ġfloss":13446,"ĠScramblers":13447,"ĠBabe":13448,"ĠBabies":13449,"NutraSweet":13450,"Spaghetti":13451,"ĠFixin":13452,"ĠAdolph":13453,"Ġearlier":13454,"ĠArmadillo":13455,"ĠGeb":13456,"ĠSnickerdoodle":13457,"Ġadvice":13458,"Ġbalm":13459,"rinsed":13460,"Modern":13461,"ĠLori":13462,"ĠCashews":13463,"ĠSmokie":13464,"ĠButt":13465,"Ġbushels":13466,"Ġhumid":13467,"Ġbowtie":13468,"Ġsilks":13469,"ĠSince":13470,"Ġgoldfish":13471,"Ġstretching":13472,"Ġfajitas":13473,"firmly":13474,"Uncooked":13475,"Ġsatiny":13476,"ĠKook":13477,"ĠBrazilian":13478,"pposed":13479,"Ġgentleness":13480,"fourth":13481,"ganic":13482,"ĠMartin":13483,"Ġachieved":13484,"Ġmoment":13485,"Knead":13486,"Ġdidn":13487,"ĠVicki":13488,"Artich":13489,"Ġabund":13490,"Ġsurprise":13491,"ĠSkewer":13492,"ĠGulf":13493,"Ġ___":13494,"ĠLumpia":13495,"Ġsupply":13496,"marinated":13497,"Ġrender":13498,"ĠBetween":13499,"Freezes":13500,"measured":13501,"Ġassembled":13502,"ĠSnyder":13503,"ĠRandall":13504,"Ġgreetings":13505,"ĠDaffodil":13506,"ĠFresca":13507,"ĠWhippersnaps":13508,"ĠCelebr":13509,"ssibly":13510,"Special":13511,"ĠPippin":13512,"ĠChantilly":13513,"ĠHavarti":13514,"Judges":13515,"plenish":13516,"ĠTangerine":13517,"Ġsteadily":13518,"Ġunselfishness":13519,"ĠRaggedy":13520,"ĠScotcharoos":13521,"ReaLemon":13522,"Ġtrowel":13523,"Ġjudgment":13524,"ĠYoshida":13525,"Ġaccommodate":13526,"230":13527,"260":13528,"44":13529,"AD":13530,"Ad":13531,"At":13532,"Baker":13533,"Dipped":13534,"Doritos":13535,"Filling":13536,"Gu":13537,"JO":13538,"Jon":13539,"Joy":13540,"Lon":13541,"Must":13542,"Medium":13543,"Marin":13544,"Mouth":13545,"Outs":13546,"Pound":13547,"Pink":13548,"Pudding":13549,"Pea":13550,"Park":13551,"Pizza":13552,"Que":13553,"Suggest":13554,"Tip":13555,"Tuna":13556,"Tupperware":13557,"Veg":13558,"Wip":13559,"Wish":13560,"Zucchini":13561,"biscuit":13562,"basil":13563,"cat":13564,"center":13565,"different":13566,"freez":13567,"face":13568,"foam":13569,"haw":13570,"hane":13571,"kern":13572,"lar":13573,"lard":13574,"mel":13575,"noodles":13576,"pro":13577,"pinto":13578,"syrup":13579,"tles":13580,"tflour":13581,"total":13582,"ulet":13583,"urop":13584,"wa":13585,"wagon":13586,"ĠEN":13587,"Ġign":13588,"Ġcass":13589,"Ġsmear":13590,"aroni":13591,"Ġbarbecuing":13592,"Ġtre":13593,"Ġtal":13594,"Ġtacky":13595,"especially":13596,"Ġpigs":13597,"Ġpillow":13598,"Ġmater":13599,"Ġmort":13600,"Ġmah":13601,"Ġmahi":13602,"ont":13603,"oned":13604,"aly":13605,"altern":13606,"ening":13607,"Ġfizz":13608,"Ġfail":13609,"Ġfondant":13610,"Ġfragrance":13611,"ingly":13612,"Ġwife":13613,"roy":13614,"roast":13615,"Ġsuds":13616,"Ġsubs":13617,"Ġsupposed":13618,"Ġaig":13619,"Ġample":13620,"Ġdig":13621,"Ġdraft":13622,"Ġeyed":13623,"Ġono":13624,"ĠSzech":13625,"ĠBal":13626,"ĠBlair":13627,"ĠBounty":13628,"ĠBbq":13629,"ĠPats":13630,"ĠPfe":13631,"ĠPout":13632,"ĠParsn":13633,"Ġglit":13634,"olina":13635,"ram":13636,"rage":13637,"ggression":13638,"ĠMs":13639,"ĠMcc":13640,"ĠMmm":13641,"ĠMirin":13642,"Ġbutterfinger":13643,"unce":13644,"ĠTransparent":13645,"ĠTillamook":13646,"Ġcost":13647,"Ġcoins":13648,"Ġther":13649,"Ġthimble":13650,"usch":13651,"chunk":13652,"ĠAv":13653,"Ġunheated":13654,"Ġunrefrigerated":13655,"Ġstones":13656,"Ġwaters":13657,"rier":13658,"ĠMixer":13659,"ĠMixmaster":13660,"mbr":13661,"Ġnothing":13662,"Ġnugget":13663,"ief":13664,"iper":13665,"ĠRal":13666,"ĠRol":13667,"ĠRandy":13668,"ĠDro":13669,"ĠDirections":13670,"ĠWipes":13671,"Ġpowdery":13672,"nacho":13673,"ĠFern":13674,"ĠFoo":13675,"etzle":13676,"Ġbeverages":13677,"constitute":13678,"coat":13679,"Ġfrosts":13680,"Ġspade":13681,"Ġsplenda":13682,"Ġspaced":13683,"Ġspacing":13684,"tend":13685,"tens":13686,"tenmann":13687,"ameat":13688,"berta":13689,"ĠStripe":13690,"ĠHood":13691,"ĠHag":13692,"idence":13693,"shells":13694,"ĠCoolers":13695,"Ġbreadstick":13696,"ctic":13697,"ĠGlue":13698,"bock":13699,"eddy":13700,"ĠRec":13701,"Ġ305":13702,"rings":13703,"ĠOak":13704,"ĠEst":13705,"ĠEqu":13706,"ĠJersey":13707,"ĠInternational":13708,"ĠKate":13709,"looks":13710,"ĠBrook":13711,"ĠBrother":13712,"Ġexperiment":13713,"ĠViole":13714,"Ġ202":13715,"entic":13716,"ĠThose":13717,"ĠThrifty":13718,"lacky":13719,"ifty":13720,"Ġchills":13721,"Ġlovely":13722,"taining":13723,"ĠYet":13724,"awba":13725,"ĠUm":13726,"ogies":13727,"oses":13728,"Ġfatty":13729,"Ġlonghorn":13730,"Ġpomegranate":13731,"Ġteap":13732,"scallions":13733,"izzard":13734,"Ġcandles":13735,"ĠGramm":13736,"saute":13737,"saving":13738,"ĠLeche":13739,"ĠDelic":13740,"Ġscreen":13741,"ullers":13742,"ĠSombr":13743,"ĠArth":13744,"Ġnonmetallic":13745,"ĠCanape":13746,"ĠMexene":13747,"Ġconsisten":13748,"ĠQuicky":13749,"ĠQuickies":13750,"ĠMarge":13751,"Ġcrockery":13752,"ĠRancher":13753,"Ġspraying":13754,"Ġgranny":13755,"ongy":13756,"Ġpercent":13757,"Ġparawax":13758,"Ġdrive":13759,"ĠContain":13760,"bones":13761,"pickling":13762,"Ġmeans":13763,"ĠKnife":13764,"ĠKnock":13765,"ĠAlma":13766,"Ġmarinates":13767,"pha":13768,"otsie":13769,"ĠTeacakes":13770,"Ġbackbone":13771,"ĠDora":13772,"ĠDottie":13773,"Chip":13774,"ĠSeedless":13775,"Ġopener":13776,"teen":13777,"Ġplatters":13778,"ĠNeapolitan":13779,"ĠLavender":13780,"Ġincreasing":13781,"adding":13782,"additional":13783,"ruly":13784,"ĠBoo":13785,"Ġreturns":13786,"Ġsolidly":13787,"ĠMaggie":13788,"ĠMaggi":13789,"ĠCatawba":13790,"Ġaccep":13791,"Ġdumplins":13792,"ĠPolka":13793,"ĠColeman":13794,"Ġgummi":13795,"ĠBlintzes":13796,"Ġblood":13797,"butternut":13798,"ĠTortoni":13799,"angost":13800,"heim":13801,"creamed":13802,"Ġweigh":13803,"ĠPapaya":13804,"ĠScotchies":13805,"Ġcastor":13806,"Ġhook":13807,"ĠJanice":13808,"ĠGrandmom":13809,"filling":13810,"ĠHalfway":13811,"Ġdecaf":13812,"Ġdecaffeinated":13813,"Ġacidity":13814,"Buttermilk":13815,"Refrigerate":13816,"Ġtradition":13817,"ĠRosamarina":13818,"commend":13819,"Ġrainy":13820,"ĠVera":13821,"ĠGuilt":13822,"seeded":13823,"Ġsweetening":13824,"Ġpenet":13825,"ĠNavel":13826,"cracker":13827,"Ġexpand":13828,"Ġexpansion":13829,"tDrop":13830,"ĠSensational":13831,"Ġmexicorn":13832,"Ġshucks":13833,"Ġoutdoors":13834,"ĠAwake":13835,"oulade":13836,"Mazola":13837,"Ġgatherings":13838,"Oriental":13839,"OOK":13840,"Ġdiscoloring":13841,"Ġcylinders":13842,"mptly":13843,"Ġmasa":13844,"ĠCamps":13845,"aikon":13846,"ĠBlushing":13847,"Ġutensil":13848,"ĠHerring":13849,"ĠBrulee":13850,"Ġdomestic":13851,"Ġviolets":13852,"Ġratio":13853,"ĠRutabaga":13854,"Ġoccurs":13855,"equivalent":13856,"Ġreason":13857,"Ġearthenware":13858,"Ġexcluding":13859,"ĠPavlo":13860,"ĠTheresa":13861,"ĠNavajo":13862,"Royal":13863,"yrofoam":13864,"Ġsuccotash":13865,"Ġsherbert":13866,"ĠReddi":13867,"Artichoke":13868,"JOY":13869,"Longhorn":13870,"ĠENJOY":13871,"Ġmortar":13872,"Ġglitter":13873,"Ġacceptable":13874,"77":13875,"Bob":13876,"Cre":13877,"Celery":13878,"Dirt":13879,"Esp":13880,"Food":13881,"Korean":13882,"Real":13883,"Sm":13884,"Some":13885,"Takes":13886,"UM":13887,"Wheat":13888,"Wrap":13889,"Yellow":13890,"bou":13891,"bage":13892,"bubb":13893,"cs":13894,"cast":13895,"cia":13896,"calor":13897,"cranberry":13898,"dom":13899,"dressing":13900,"dump":13901,"fts":13902,"hom":13903,"ltra":13904,"mans":13905,"new":13906,"pu":13907,"paste":13908,"tar":13909,"tsp":13910,"tmilk":13911,"tuna":13912,"vance":13913,"wet":13914,"xible":13915,"Ã©":13916,"Ġcli":13917,"Ġcala":13918,"inis":13919,"Ġsatur":13920,"Ġsaturated":13921,"erate":13922,"Ġopossum":13923,"Ġbic":13924,"Ġbland":13925,"Ġbusy":13926,"Ġtrees":13927,"Ġpa":13928,"Ġpign":13929,"Ġpike":13930,"Ġmat":13931,"Ġmod":13932,"ilo":13933,"iling":13934,"onel":13935,"envelope":13936,"Ġfool":13937,"Ġfusilli":13938,"Ġwise":13939,"ĠCri":13940,"leen":13941,"Ġint":13942,"pples":13943,"Ġsult":13944,"Ġages":13945,"Ġajar":13946,"Ġeasiest":13947,"ĠSat":13948,"ĠBunk":13949,"ĠBrey":13950,"ĠBlocks":13951,"ĠBudget":13952,"ĠPream":13953,"Ġgrid":13954,"ols":13955,"Ġpekoe":13956,"Ġsaltwater":13957,"ĠMI":13958,"ĠMur":13959,"Ġbutters":13960,"unwrapped":13961,"ĠTan":13962,"ĠTall":13963,"ĠTrees":13964,"Ġvan":13965,"allion":13966,"allible":13967,"ickle":13968,"chio":13969,"Ġmilkshake":13970,"ĠAriz":13971,"ĠAggression":13972,"Ġunexpected":13973,"ĠCoon":13974,"tsy":13975,"Ġstix":13976,"riage":13977,"Ġnasturtium":13978,"Ġshop":13979,"Ġsheep":13980,"ĠChee":13981,"ĠCharms":13982,"ryn":13983,"redient":13984,"three":13985,"thighs":13986,"ĠRust":13987,"ĠDick":13988,"ĠDang":13989,"ĠWiggle":13990,"naise":13991,"Ġgrit":13992,"Ġoverheat":13993,"tack":13994,"ĠFowl":13995,"rest":13996,"Ġrefill":13997,"com":13998,"ighbor":13999,"Ġspider":14000,"Ġspongy":14001,"eryl":14002,"ĠLizz":14003,"ĠHan":14004,"ĠHasty":14005,"ĠHOT":14006,"Ġgarbage":14007,"asha":14008,"shape":14009,"Ġ54":14010,"ĠGull":14011,"onnay":14012,"Ġhotness":14013,"uddle":14014,"Ġheath":14015,"llis":14016,"Ġgrapenuts":14017,"Ġkabob":14018,"Ġappet":14019,"Ġorangeade":14020,"ĠOc":14021,"ĠOodles":14022,"ĠEurop":14023,"ĠJill":14024,"ĠJars":14025,"ĠJessie":14026,"ĠKabob":14027,"ulate":14028,"ĠVitamin":14029,"ĠPecor":14030,"Ġsofrito":14031,"Ġcrusted":14032,"issa":14033,"leye":14034,"ĠSauer":14035,"ĠSauced":14036,"ĠNes":14037,"ĠNappa":14038,"Ġputty":14039,"ĠButterworth":14040,"ĠAndy":14041,"ĠAndrew":14042,"ĠYolks":14043,"Ġconfectionary":14044,"Ġsoftly":14045,"Ġplants":14046,"ĠSlop":14047,"ĠToppings":14048,"ounces":14049,"cannon":14050,"Ġsquashed":14051,"Ġcocktails":14052,"Quik":14053,"ĠSeashell":14054,"Ġwhenever":14055,"ĠGrapenuts":14056,"ĠSoups":14057,"ĠFroot":14058,"Ġamar":14059,"ĠSquaw":14060,"Ġgoods":14061,"ĠGroup":14062,"ĠLemons":14063,"ĠFlowers":14064,"ĠTable":14065,"Ġheight":14066,"ĠAround":14067,"anched":14068,"ilda":14069,"Ġpatis":14070,"Ġdeeper":14071,"Ġsmal":14072,"Ġsprays":14073,"wiches":14074,"Ġelegant":14075,"affe":14076,"ĠDesserts":14077,"orsel":14078,"ĠUnusual":14079,"ĠThem":14080,"ĠOrchard":14081,"Ġlentil":14082,"tingredients":14083,"ĠApproximate":14084,"ĠFreshly":14085,"maid":14086,"uki":14087,"Ġlengthways":14088,"uthentic":14089,"ĠSmells":14090,"ĠScallopini":14091,"Chi":14092,"Chinese":14093,"ĠPopover":14094,"ĠEntenmann":14095,"ĠJoys":14096,"earing":14097,"Ġindex":14098,"ĠBlackwell":14099,"ĠNeck":14100,"Then":14101,"Ġabsolutely":14102,"fryers":14103,"Ġstacked":14104,"Ġstacking":14105,"ĠBoys":14106,"mondin":14107,"Ġcurdled":14108,"idalias":14109,"Ġtouches":14110,"ĠExodus":14111,"ĠPluck":14112,"Ġthermos":14113,"303":14114,"ĠImpro":14115,"ĠShortly":14116,"rolls":14117,"Ġswitch":14118,"ĠBones":14119,"ĠElvis":14120,"ĠElsie":14121,"Ġrichly":14122,"Does":14123,"Ġmanage":14124,"ĠSanders":14125,"ĠEverlasting":14126,"ĠJulia":14127,"Ġ199":14128,"ĠFrij":14129,"Ġtearing":14130,"Ġladyfinger":14131,"ĠWayne":14132,"ĠTostada":14133,"ĠFourth":14134,"ĠSkinner":14135,"ĠAdams":14136,"ĠSautÃ©":14137,"ĠTonight":14138,"ĠDevilish":14139,"ĠTownhouse":14140,"Ġreheating":14141,"Ġpresifted":14142,"ĠTammy":14143,"Cookie":14144,"ĠWorms":14145,"Really":14146,"ĠEndive":14147,"ĠClouds":14148,"peppermint":14149,"Ġtrail":14150,"ĠBiskit":14151,"ĠLentils":14152,"Appetizers":14153,"hardt":14154,"ĠMamma":14155,"ĠPlantains":14156,"Ġgrouper":14157,"ĠBlankets":14158,"ĠEverything":14159,"265":14160,"ĠPastor":14161,"ĠPastel":14162,"Ġomelette":14163,"Ġcourage":14164,"Ġmatchstick":14165,"ĠKebab":14166,"Ġcheaper":14167,"joint":14168,"Ġuniformly":14169,"ĠTerri":14170,"ĠTeresa":14171,"Ġhunks":14172,"Timey":14173,"Ġcalves":14174,"ĠMichelle":14175,"ĠMichael":14176,"steak":14177,"jellied":14178,"ĠMicrocook":14179,"Ġpassed":14180,"Preparation":14181,"Pretzel":14182,"fourths":14183,"ĠRobusto":14184,"Ġpract":14185,"Ġtucking":14186,"ĠRemaining":14187,"ĠBlondies":14188,"Ġpraline":14189,"ĠSorghum":14190,"ĠSlivered":14191,"ĠBuild":14192,"isturbed":14193,"trim":14194,"combined":14195,
[...]
