#version: 0.2
Ġ <
N E
X T
NE XT
I N
E N
R E
S T
Ġ c
IN G
D I
T S
EN TS
RE DI
ING REDI
INGREDI ENTS
NE R
i n
T I
Ġ s
e r
Ġ 1
O N
IN ST
R U
TI ON
C TION
CTION S
INST RU
INSTRU CTIONS
a n
A R
ST AR
STAR T
EN D
Ġ o
Ġ t
a r
Ġ b
e d
e s
Ġ p
Ġ m
a t
i l
r e
u t
o n
e n
a l
an d
o u
Ġ f
Ġ and
Ġc h
Ġ w
in g
i c
g ar
L E
P E
C I
RE CI
TI T
RECI PE
TIT LE
Ġt o
s p
p p
Ġ in
l e
Ġ C
o r
e l
Ġ 2
r o
a k
ou r
a s
a m
Ġs u
i t
Ġsu gar
Ġo n
Ġ d
Ġ a
Ġ 3
Ġ S
Ġ e
t er
Ġ g
Ġ l
Ġs al
Ġt sp
i x
Ġp e
h e
o o
Ġ B
Ġsal t
i on
Ġ P
g e
in e
a c
u n
i s
g g
d d
Ġf l
Ġe gg
o w
Ġ T
ut ter
es e
Ġ (
Ġb utter
re am
ak e
il l
Ġ M
Ġch e
Ġon ion
Ġ v
Ġche ese
ic k
Ġ un
Ġfl our
o l
u s
Ġ h
Ġ A
o t
Ġo f
r a
Ġc ream
Ġm in
al l
Ġo r
it h
Ġch o
pp er
Ġb e
il k
Ġw ith
Ġm ix
Ġpe pper
Ġs t
Ġmin ut
v er
a d
el l
t il
at er
Ġun til
Ġminut es
u c
ic e
Ġw ater
Ġm ilk
Ġf or
t o
r ed
c h
oo k
t s
Ġegg s
b sp
ĠT bsp
Ġc an
Ġc r
ĠA dd
pp ed
at o
d er
r i
Ġb ro
o m
0 0
u m
Ġ 4
Ġt he
Ġs a
Ġ n
v e
Ġo z
i r
uc e
ick en
Ġcho pped
Ġ j
ill a
e t
l ic
an illa
Ġv anilla
Ġs h
g h
Ġb ak
Ġin to
u p
Ġ at
t h
Ġ le
Ġt h
w n
r y
Ġm ar
Ġbak ing
Ġg re
. )
Ġg r
Ġsa uce
Ġch icken
ow der
Ġ R
ĠM ix
Ġs o
Ġp owder
i e
Ġw h
ĠB ake
Ġo ver
a y
as t
re ad
ou p
l y
ĠC h
at e
Ġo il
Ġbro wn
Ġc ook
u re
n d
i en
e at
ato es
Ġ D
l es
ac k
an s
us h
Ġc o
Ġs oup
red ien
ing redien
Ġ W
Ġ ingredien
Ġingredien ts
Ġ r
i p
ut s
m on
gar ine
Ġmar garine
c ol
5 0
Ġto m
or n
Ġj u
a b
ou nd
Ġb o
u r
s t
Ġl b
Ġju ice
t ure
Ġp an
Ġ re
Ġs p
Ġmix ture
Ġl ar
Ġgre en
Ġlar ge
e f
i gh
Ġ3 50
Ġw ell
i m
m all
k g
Ġ gar
Ġp kg
in ch
Ġc orn
pp le
Ġ all
Ġ F
ra in
Ġs e
Ġf ro
Ġa dd
is h
th er
q u
ĠS p
Ġgar lic
r es
he at
i d
v es
d a
ĠS t
er y
Ġ I
Ġp ie
Ġso da
oo l
igh t
Ġle mon
us t
o le
um b
Ġgr ound
Ġs lic
Ġ y
ĠP our
ro om
Ġp ot
in n
at ed
t en
v en
t ed
el ery
Ġc elery
Ġh our
om b
Ġonion s
col ate
Ġc up
ge ther
er s
Ġbo il
Ġto gether
Ġ 6
ush room
Ġn uts
a pple
as s
ine apple
ĠC ook
omb ine
am on
a ge
a p
ac e
i f
inn amon
Ġbe ef
c es
Ġm ushroom
a in
Ġs mall
Ġ L
Ġc innamon
g er
Ġp ineapple
Ġ 8
l ace
Ġco c
Ġwh it
Ġs our
ed i
ac h
Ġb l
ar s
ol d
Ġ H
Ġto p
ĠSt ir
b er
Ġc on
Ġ heat
Ġcr umb
Ġst ir
Ġ 5
Ġcho colate
edi um
Ġb read
m e
Ġo ven
Ġbe at
Ġm edium
o p
ow l
Ġpot atoes
Ġb owl
Ġd rain
as h
o ve
in k
Ġc ake
Ġm el
ou gh
ĠC ombine
ine gar
ar m
Ġv inegar
Ġpe c
Ġtom atoes
Ġ G
o on
is e
oo d
o ut
Ġ1 0
ĠW h
Ġtom ato
Ġ x
ass er
Ġc ar
asser ole
r ink
ar d
Ġs er
z en
Ġre m
f f
s h
Ġd ish
Ġm ay
ak es
Ġh ot
r ing
i es
Ġslic ed
Ġr ice
Ġpec ans
ĠI n
a g
rink le
ed d
Ġd ry
e m
Ġ ro
Ġ 9
edd ar
ĠC ool
Ġgr ated
Ġcrumb s
Ġbe ans
Ġcr ack
i re
w e
n a
as ed
ge t
ĠP lace
ĠC o
ĠS er
ri es
e get
Ġwhit e
ast e
eget ab
u b
el y
an t
l l
en d
Ġmel ted
Ġa b
ĠCh eddar
Ġc l
we et
Ġst ick
ip s
o a
Ġfro zen
Ġm eat
in s
Ġc ut
t ion
Ġ is
Ġsh or
Ġch ips
an ge
ten ing
Ġshor tening
Ġab out
a v
Ġv egetab
Ġ k
Ġ al
on na
onna ise
Ġ3 0
Ġmay onnaise
ar t
u it
o re
res h
res s
Ġrem ain
Ġ ra
Ġ red
v ing
Ġfro m
le y
Ġremain ing
m er
Ġl ight
ust ard
e y
Ġ as
Ġcook ed
ri ger
u ff
Ġa pp
Ġf resh
as on
on ut
u l
c col
ccol i
Ġdrain ed
Ġs l
ac on
ars ley
Ġgre ased
Ġth en
Ġcar ro
Ġch il
Ġp arsley
Ġh al
e p
Ġh am
u dd
Ġb acon
Ġm ustard
o s
udd ing
Ġhour s
ĠCo ver
ĠP ut
Ġt aste
ĠB eat
Ġser ving
en der
Ġe x
Ġcr ush
ĠSp rinkle
Ġpe an
Ġg ra
Ġcoc onut
d ed
Ġcrush ed
id e
Ġ1 5
ĠWh ip
Ġs k
ra w
Ġboil ing
Ġbeat en
Ġsh red
Ġ O
Ġp ap
Ġro ll
l i
Ġb ot
Ġmushroom s
ĠS al
Ġshred ded
k s
ar e
e c
raw ber
Ġse ason
st ant
c o
i z
Ġor ange
ĠB ro
ĠSer ve
Ġo li
an an
Ġc ool
Ġso f
Ġcarro ts
Ġapp les
Ġb ake
le t
ĠR em
Ġp udding
Ġ1 2
ĠRem ove
ic ed
Ġ2 0
Ġbro ccoli
ĠC ake
Ġe ach
Ġ E
ĠC ream
Ġpie ces
Ġpowder ed
Ġ1 3
Ġf ir
t t
Ġcan s
im mer
n uts
ĠW or
Ġd iced
Ġbro th
Ġc asserole
Ġo le
Ġole o
Ġslic es
sh ire
arm es
armes an
ay er
ter shire
ces tershire
Ġn ut
Ġsh ell
en t
Ġbo x
av or
re as
Ġra is
Ġ J
Ġco ver
us age
ood les
ĠWor cestershire
ress ing
Ġrais ins
Ġre f
ĠP armesan
Ġ K
y r
pp ing
yr up
Ġp l
is s
Ġst rawber
r uit
Ġch er
ĠM akes
ĠSp read
im e
) .
Ġt ender
Ġs yrup
Ġhal f
Ġn oodles
Ġp our
ol l
Ġ an
Ġpean ut
me g
ĠC r
Ġnut meg
ĠC ut
o il
Ġstir ring
Ġcrack ers
es t
or k
Ġb anan
ĠSal ad
Ġj ell
Ġchil i
m ilk
Ġcoc oa
Ġref riger
Ġcr ust
Ġ V
Ġbl ack
Ġs weet
Ġpepper s
Ġ he
o ves
on e
u e
p s
Ġcl oves
e a
ĠC asserole
ur n
Ġs he
Ġsa usage
at s
Ġbutter milk
Ġs m
d s
ut e
ĠS a
Ġseason ing
il let
Ġd ressing
mall ow
ĠCh icken
Ġwh i
Ġ it
Ġ up
Ġc ub
b ur
Ġs et
Ġc old
Ġsal ad
all y
ĠBro wn
Ġvegetab le
ch in
ĠL et
Ġcup s
ĠH eat
Ġl i
ĠP ie
ar ch
Ġl ow
Ġwh ole
Ġs qu
ĠC he
ĠD rain
Ġbl end
Ġf ill
t r
Ġw al
Ġd ough
Ġsk illet
Ġse ed
st arch
Ġ4 5
Ġcorn starch
Ġ us
ĠB l
Ġo ut
ĠP re
ing er
ri ed
p an
Ġcrack er
Ġbanan as
ĠR oll
Ġcook ie
an o
Ġp ack
Ġp re
Ġmar sh
Ġmarsh mallow
Ġshe et
Ġp ork
Ġw arm
bur ger
e w
2 5
Ġin stant
h am
es s
f ore
Ġbe fore
i an
a ve
ĠT op
ri m
Ġwal nuts
all s
Ġfl avor
Ġcook ing
ĠP e
re e
Ġ are
e ed
ĠT h
ĠM el
to m
7 5
oo th
Ġvegetab les
Ġgra ham
tion al
Ġsauce pan
ight ly
on i
Ġjell o
ĠMel t
Ġbot tom
k a
um p
z z
c ed
Ġal mon
Ġsm ooth
g ano
Ġg inger
Ġ N
Ġfill ing
Ġf ruit
Ġmin ced
c c
ten ed
ab b
Ġb ell
Ġth ick
Ġn ot
Ġham burger
Ġs immer
abb age
ak ed
re gano
Ġl ayer
op tional
at ely
at ter
reas ts
Ġo regano
ac t
ri ka
ell ow
t le
Ġt ab
Ġwhit es
Ġj ar
Ġth in
Ġd one
Ġpap rika
Ġmarshmallow s
e al
Ġle a
uc chin
Ġt ea
ucchin i
Ġ3 75
Ġlight ly
ĠI t
Ġb reasts
Ġpe el
p oon
Ġw a
g es
e ast
Ġ en
les poon
rim p
Ġex tr
Ġf in
Ġ if
Ġy ol
Ġtab lespoon
Ġy ellow
Ġon e
Ġp lace
Ġextr act
Ġfir st
Ġas ide
me al
ĠCh ill
Ġ Y
Ġstrawber ries
Ġy east
ur p
p ar
a w
ot t
Ġd es
ber ry
ĠM o
os e
ĠBl end
Ġoli ve
is c
i red
ĠA nd
en s
Ġsof tened
ell a
n e
Ġc abbage
Ġcon t
Ġdes ired
oa f
un ch
Ġfin ely
qu art
iss ol
al ian
ar ella
zz arella
r t
ĠB e
Ġserving s
Ġli qu
ĠS h
Ġ2 5
he tt
ag hett
aghett i
Ġso y
Ġle t
ĠIt alian
ĠChe ese
Ġ z
ac ar
Ġt ime
Ġpe as
Ġw ine
ĠSer ves
Ġo ther
iz e
Ġwhi pped
v ed
urp ose
ĠMo zzarella
Ġd ash
g re
acar oni
c k
Ġ ice
e ep
Ġp ut
Ġch ill
old en
Ġc ombine
Ġ4 0
Ġser ve
Ġ3 25
as il
ad e
sp oon
c e
Ġoli ves
Ġm ore
Ġtea spoon
Ġto rt
k in
1 0
p urpose
Ġpap er
d ens
Ġliqu id
dens ed
ĠPre heat
isc uit
at or
it e
if t
Ġ 7
e x
Ġcon densed
n ight
Ġsp rinkle
Ġyol ks
Ġz ucchini
Ġsh rimp
Ġcher ries
s weet
Ġb atter
ro w
ire c
ump kin
ĠB ring
Ġd irec
Ġsl ightly
Ġg olden
e e
Ġcl ove
Ġc om
Ġover night
ro p
Ġp ast
Ġ q
Ġb y
Ġb ag
Ġfl akes
ĠD ip
Ġq t
Ġ U
el at
ĠP ot
Ġ4 00
Ġd o
Ġb asil
Ġsof t
p e
ough ly
' s
el s
Ġrefriger ator
ĠJ ell
or oughly
Ġg elat
Ġp im
ĠCook ies
Ġsp aghetti
Ġsp read
is co
qu ick
Ġm acaroni
ĠB utter
Ġst and
ĠR ef
in ach
ĠCh o
ic row
Ġcont ain
Ġto pping
ar b
Ġb alls
ĠRef riger
ow er
Ġs ize
Ġth oroughly
ac o
ĠB read
Ġroll s
Ġl oaf
Ġcher ry
ree z
Ġf at
ĠCr isco
Ġa pple
Ġle tt
icrow ave
ĠR ice
ep t
Ġlett uce
1 6
Ġof f
Ġ Ġ
ot h
ber ries
ĠB oil
ott age
Ġfir m
Ġmix ed
b le
ĠS ift
Ġus e
on ey
ĠCho colate
Ġf ood
Ġpe ach
Ġl on
Ġy ou
Ġm ash
ĠRefriger ate
Ġstick s
Ġcub es
Ġo ats
uc umb
Ġd ried
il e
k e
Ġm ake
e ak
c ept
ĠF old
ĠB r
Ġflour ed
k ey
Ġb iscuit
Ġc ol
at ure
Ġc ottage
Ġalmon ds
if ted
ver ed
Ġgelat in
f ec
c ook
ĠS l
tion s
Ġmix ing
f ter
ra b
Ġ3 5
Ġt ur
fec tion
Ġst uff
et a
Ġcontain er
en ed
l ed
Ġcon fection
i el
Ġs c
Ġpeel ed
Ġc ucumb
Ġex cept
Ġp ans
gre ased
u ally
ĠWh en
Ġconfection ers
at meal
r ange
el ve
ĠSa ute
ra y
ic h
Ġcover ed
ĠSp oon
Ġth icken
Ġp aste
Ġsp oon
Ġblend ed
ar in
ats up
Ġbrown ed
en to
ces s
Ġw ill
Ġp umpkin
Ġh oney
Ġf ry
Ġc atsup
Ġcr an
Ġon to
Ġg l
Ġcol or
ĠD rop
ĠV elve
Ġpim ento
ĠS immer
Ġsp inach
stant ly
av y
Ġcon stantly
an ges
Ġk et
Ġbutter ed
Ġt aco
Ġflavor ing
Ġtablespoon s
s e
Ġlea ves
Ġs ifted
y le
Ġor anges
c ent
Ġstrawber ry
Ġpot ato
Ġth is
Ġwa x
n ch
if f
d ually
Ġf oil
ĠVelve eta
ou n
Ġhe ad
Ġen ough
ic an
Ġ ri
Ġst ri
Ġb ou
Ġch un
ill on
cook ed
i v
Ġmash ed
it tle
Ġbou illon
in d
reas e
Ġpack age
Ġp t
Ġstuff ing
Ġhe avy
ar p
Ġin ch
id es
Ġd ill
d ing
Ġr ound
ĠL ayer
1 2
Ġp ick
Ġst eak
Ġm o
o g
Ġb ay
ĠS w
ĠC orn
ĠY iel
y me
Ġb on
Ġs ides
ar es
Ġsh arp
r is
ap e
Ġth yme
Ġc and
ing s
ap or
ass es
v apor
Ġpeach es
Ġf ine
Ġc le
e ts
it s
Ġstri ps
Ġe vapor
ill as
Ġth aw
t on
er ry
Ġrefriger ate
Ġd e
l ower
Ġm uff
Ġd issol
ĠG rease
ĠT urn
Ġevapor ated
Ġt urn
ch up
Ġj ust
a il
at es
co vered
Ġtort illas
n ey
Ġr est
Ġcho ps
Ġket chup
Ġpre par
Ġa p
p er
Ġsl ice
Ġro ast
Ġv ery
Ġc rab
Ġl ime
en ter
re nch
Ġcook ies
Ġdirec tions
Ġpean uts
Ġsqu ash
Ġa cc
ĠTh en
ĠG r
Ġc enter
Ġe ven
Ġl ittle
Ġun covered
Ġs ide
Ġk id
ow n
ol asses
Ġcub ed
m i
Ġtur key
Ġf reez
or ding
Ġt art
ĠF rench
Ġthaw ed
n ish
Ġprepar ed
Ġl ay
Ġsl ow
Ġkid ney
Ġse mi
or s
Ġminut e
Ġst al
Ġacc ording
Ġd ou
ent ly
Ġa fter
Ġmix er
Ġp o
Ġchil ies
er b
ic es
es er
ĠR o
ĠG ra
l d
Ġrem ove
ou s
ĠSw iss
Ġo atmeal
Ġpl ain
ĠS et
Ġc ur
ĠS oup
oun t
ro x
f ul
iz z
Ġy our
ĠC ar
Ġwhi pping
Ġfor m
Ġb ut
em per
Ġ1 6
Ġb re
rox im
ter n
emper ature
Ġm olasses
Ġd ates
roxim ately
Ġbiscuit s
Ġh and
Ġun greased
Ġt emperature
Ġc ro
ĠF or
Ġeven ly
ĠB is
Ġalmon d
ĠR ed
as ion
cc asion
Ġlea f
Ġfor k
Ġch est
arb ec
um in
ub b
Ġ qu
a ul
uc k
Ġo ccasion
ĠM ake
sp ice
Ġwh en
Ġ 50
Ġchest nuts
Ġoccasion ally
Ġlay ers
ĠPot ato
ĠBis quick
Ġbl ender
er n
Ġall spice
Ġst iff
ar ts
ff ee
Ġm eal
Ġse par
s a
aul if
Ġp inch
Ġt w
aulif lower
am e
ra p
Ġun b
u d
Ġb all
Ġsqu ares
Ġt ub
Ġsp eed
izz a
Ġpast ry
Ġcucumb ers
s s
ri sp
Ġpack ed
it ion
uff y
Ġd own
Ġhal ves
un d
ar k
Ġb ring
Ġb ubb
Ġb r
un a
ĠP ress
as y
and arin
ĠF ruit
ĠW ith
ĠA pple
Ġcan n
i der
Ġth r
Ġgr an
Ġse c
os s
Ġthr ough
el f
o c
issol ve
Ġshell s
i sp
Ġtart ar
Ġbak ed
ĠD issolve
as e
Ġwa f
ed ges
ĠSl ice
Ġcle an
f at
ĠD o
Ġcr isp
en ne
u ll
Ġ am
ĠSa uce
arbec ue
ĠT o
Ġn eed
Ġsp ray
Ġdou ble
Ġadd ition
Ġmuff in
o ck
Ġwh ile
Ġh ard
Q u
Ġfl uffy
Ġle an
er m
ĠS e
Ġr ind
a uce
Ġun cooked
ab out
ĠBro ccoli
t ail
Ġmel t
ay enne
Ġle ast
Ġ Qu
Ġn on
Ġc ider
r ic
b read
Ġc auliflower
as co
Ġcrumb led
Ġm icrowave
read y
Ġstal ks
k ra
Ġbl ue
oth er
ur t
Ġpast a
Ġc ayenne
ĠCh op
Ġr eser
n g
ĠT ab
ris ing
Ġunb aked
ĠU se
Ġcolor ing
Ġsa ute
Ġapp roximately
Ġcom p
Ġlon ger
ĠA r
Ġcar ton
1 5
er eal
Ġbeat ing
ĠTab asco
Ġchun ks
Ġgl ass
ex t
ul ar
ric ot
Ġsh all
Ġbot tle
Ġ ar
og urt
s c
Ġpl ate
Ġst ew
Ġ3 00
ĠPe an
Ġcr es
Ġseason ed
Ġm andarin
Ġal tern
Ġs elf
Ġslow ly
Ġthin ly
f l
ĠF l
Ġco at
Ġc ereal
Ġcorn meal
Ġk ern
ip e
Ġcann ed
om e
p are
ĠS to
ar y
ĠPean ut
Ġcomp let
is t
Ġ ready
ĠB aked
Ġp ro
Ġcres cent
ĠYiel ds
Ġh igh
Ġsp ices
Ġd ay
Ġf ew
Ġcom es
g ular
Ġco ars
ĠG re
ĠF ro
el ess
l ish
Ġr ise
ver al
Ġthicken ed
ĠE asy
Ġlon g
ĠBe ef
ul ated
Ġcarro t
st yle
ud ge
Ġdissol ved
v el
Ġcream ed
Ġse veral
Ġy ogurt
ĠSh ape
sweet ened
ĠAr range
Ġcomplet ely
ĠG ar
Ġthe m
Ġam ount
ĠS weet
Ġcoc k
Ġ2 4
as ag
Ġcock tail
Ġr ack
Ġtub e
ĠF ill
Ġwaf ers
Ġgran ulated
Ġc umin
Ġp in
Ġgre ase
ĠF ry
Ġre c
ĠGra dually
ot ch
Ġal e
Ġch uck
ĠI f
Ġmin i
Ġdo zen
ĠTh is
e mon
ap en
al apen
ĠS qu
Ġbon eless
Ġsal sa
les s
ĠRed uce
st ing
il d
Ġtw o
Ġj ars
Ġkern el
Ġapples auce
ĠS c
Ġri pe
in ed
Ġsk in
i g
Ġan other
Ġd ri
ĠM icrowave
Ġun sweetened
ĠD el
Ġt una
Ġp ress
ĠSe ason
mer ican
Ġseasoning s
pp y
sc otch
Ġl ast
Ġ quick
Ġth at
Ġg ood
ĠBr and
i a
Ġtort illa
p l
Ġf ish
Ġcran berry
Ġan y
ĠH ot
ar ter
Ġbubb ly
Ġap ricot
ĠM eat
b s
v y
ĠA merican
ag le
Ġto ast
Ġli ke
Ġcran berries
Ġcur ry
anan a
Ġp art
ĠPre pare
Ġp at
ĠO n
Ġ room
Ġcar am
Ġsh erry
Ġra w
Ġjell y
i ed
in ue
Ġj alapen
Ġbot h
ĠE agle
ĠS o
u gar
ĠM on
Ġbre ast
Ġ Z
Ġk eep
Ġf old
Ġshall ow
a z
Ġus ing
Ġw heat
ĠB anana
ar o
ne ad
Ġd ip
as chin
aschin o
Ġcool ed
Ġra sp
ĠPe pper
ĠE gg
iv id
Ġto ss
er t
il ad
Ġb its
Ġlemon ade
Ġco ffee
Ġpro cess
Ġfl aked
ĠC an
an ch
Ġh as
ĠH am
ĠP unch
ĠP udding
s o
Ġmar aschino
ĠH igh
ĠM ex
Ġcream y
ĠK aro
Ġd eep
ĠL emon
re me
Ġdirec ted
Ġ end
Ġre gular
Ġsqu are
o k
Ġh ash
Ġst ock
m eat
le c
Ġin s
o ke
an g
Ġ im
ĠSt rawber
Ġpec an
Ġsweet ened
ĠC on
ĠB re
Ġaltern ately
Ġd ark
rain ed
1 4
Ġch i
t z
ĠV egetab
Ġto w
T el
b l
Ġbutter scotch
Ġblue berries
Ġn ext
Ġon ce
it z
Ġbanan a
sp ar
ĠSal t
Ġ4 25
asag na
ĠPe el
risp ies
ĠPot atoes
Ġcon s
ful s
ast ic
ĠStrawber ry
ac le
ĠJ ack
ir acle
ĠGar nish
Ġsec on
m edi
medi ately
ĠSto re
on g
ĠT oss
Ġb arbecue
Ġcand y
Ġb ite
at ion
g ain
res er
Ġk n
Ġg ently
tr ic
lec tric
Ġgra dually
in i
am s
ĠT ake
ĠU n
Ġqu arter
ĠR ep
p ick
Ġf ull
ĠCo c
c orn
Ġe lectric
Ġa gain
Ġh ave
Ġgra p
ĠM iracle
ad ish
Ġchill ed
ĠK rispies
avor ite
ĠF udge
ĠMex ican
Ġto oth
er adish
ors eradish
ut ed
ver y
Ġbe en
i ve
Ġsc all
Ġmar in
Ġ6 0
it os
Ġsal mon
Ġar ound
Ġtooth pick
Ġw eed
Ġd i
vel op
ic ott
ĠY ou
r an
ĠR itz
ĠSt uff
if e
Ġb unch
Ġboil ed
h ub
hub arb
ĠBre ak
Ġh erb
ess ert
Ġh orseradish
ĠW ash
Ġse al
Ġen velop
Ġr ings
heat ed
ĠRep eat
ĠF reez
Ġneed ed
am p
is ten
Ġp izza
ou ld
Ġfreez e
p ot
c ake
Ġjalapen o
Ġsp ice
Ġboil er
Ġm e
pl ant
Ġgra vy
ĠT he
ĠA l
ĠS ugar
ĠP ec
Ġb ars
l ing
Ġkn ife
Ġun d
Ġl en
Ġp er
Ġdri pping
. \
f er
es ame
Ġp ound
Ġa v
Ġpl us
Ġheat ed
Ġdripping s
ĠK eep
Ġs ome
n ot
ĠVegetab le
Ġus ed
Ġe very
and y
Ġseed s
ĠQu ick
Ġpl astic
Ġcro ck
ĠP ineapple
st it
ĠBe ans
Ġcand ied
Ġfirm ly
Ġbe t
Ġf ried
Ġwax ed
Ġfl at
Ġcoars ely
spar ag
sparag us
Ġpimento s
Ġcucumb er
ĠM ay
Ġfry ing
t ing
y s
ins e
Ġfreez er
Ġd ro
Ġmini ature
Ġcorn bread
Ġ edges
cent r
Ġpre heated
Ġchi ves
Ġim mediately
ĠP ound
Ġmel ts
ter s
ter ey
Ġgar nish
Ġaddition al
ĠM in
us ts
' t
u er
ĠL ine
Ġcon centr
b alls
oc ad
Ġsu b
Ġpre tz
Ġm old
Ġs esame
Ġsepar ate
ĠB ars
Ġ4 50
n ut
icott a
Ġchun k
ĠRoll s
ĠS our
Ġtoast ed
Ġbe an
kra ut
uer kraut
2 0
ĠZ ucchini
Ġadd ing
ĠD iv
Ġgrap es
Ġcr usts
Ġcrab meat
w ise
et t
f or
Ġbrown s
Ġ -
ĠB alls
ĠMon terey
Ġto o
ĠR anch
ĠE ng
Ġsub stit
le ts
Ġap art
ĠCh il
Ġsalt ed
ion s
Ġsa ge
o in
ĠN ut
Ġbro il
ĠR icotta
w h
ĠPec an
ĠD ressing
i ous
g s
ĠSa usage
er ries
Ġb ack
und t
Ġw ire
ĠYiel d
on s
ivid ed
Ġ1 4
gre es
Ġde grees
u k
ess on
Ġav ocad
ors els
f t
Ġconcentr ate
ĠP umpkin
ut ch
ĠChil i
Ġun s
Ġ1 8
Ġpo ppy
Ġfro sting
Ġm orsels
Ġbox es
c an
ĠD ream
o y
ĠGre en
Ġrec ipe
w ich
ĠEng lish
Ġd ivided
il uted
im es
ĠFor m
ĠW esson
ou l
ĠO range
ĠW rap
iz ed
ĠL oaf
Ġroll ed
Ġrasp berry
ir t
Ġ1 1
c y
Ġpick les
or t
ĠD utch
o st
ak ing
ĠR et
Ġfresh ly
ĠM arin
Ġ *
Ġegg plant
Ġb erries
ĠRet urn
Ġyol k
Ġb ar
ĠB undt
ĠBe an
Ġenvelop e
Ġrem o
un s
and wich
oll ow
ĠSh rimp
Ġp ar
b on
Ġpepper oni
Ġ el
k en
st ick
ĠO re
is k
en er
Ġf avorite
Ġsh ape
Ġg rain
Ġshe ets
ĠP izza
l it
Ġbe g
Ġor der
Ġsu r
Ġt ightly
reser ves
Ġr hubarb
g th
) ,
ĠP ork
Ġdro ps
er ted
Ġcho p
Ġlen gth
Ġins erted
Ġco ated
Ġn e
em s
Ġturn ing
ĠP at
ĠFreez e
Ġred uce
zz le
t ra
ĠCr umb
Ġinch es
ĠI ce
Ġmay o
Ġsl i
ĠCoc onut
Ġg al
ĠA ll
Ġw edges
erb et
Ġpretz els
Ġrefriger ated
ĠT om
ĠM uff
ap ing
Ġsa uerkraut
Ġsugar s
Ġpick le
Ġa sparagus
Ġbro ken
ot s
Ġl asagna
ĠCon t
in es
ĠBr ush
Ġr um
Ġ art
Ġthe y
Ġflavor ed
Ġsur f
ĠN o
ĠP ick
Ġal so
Ġon ly
ĠD essert
g el
ic ious
ul ly
ĠP am
Ġch eddar
ien to
i dd
Ġsepar ated
ĠA fter
ĠM e
Ġp reserves
Ġp op
Ġw rap
Ġtop s
erm an
Ġsurf ace
ew arm
Ġpim iento
Ġt imes
uk ewarm
t ies
Ġex tra
i o
inn er
ĠCar ro
b ow
Ġreser ved
Ġn o
Ġan gel
ant e
Ġpie ce
fl avor
Ġl ukewarm
ĠBl ue
ĠMuff ins
isten cy
Ġsh ould
Ġsubstit ute
n ess
Ġp ure
Ġadd ed
ĠCr an
N o
ĠO ld
ic ante
Ġcons istency
in t
oa ves
Ġnon fat
e g
Ġpin to
Ġo p
ĠSp ray
ĠDiv ide
Ġsecon ds
Ġo ys
Ġp it
ĠD i
mer ic
ĠG erman
Ġsk im
ĠO atmeal
ĠCh erry
Ġsli vered
em ary
Ġro s
Ġtur meric
Ġsh erbet
e z
az e
Ġl id
Ġteaspoon s
Ġf il
m ost
Ġcho ice
Ġsoup s
flavor ed
ĠCran berry
ol a
Ġ quart
Ġa c
Ġc omb
Ġmo is
qu al
Ġscall ions
ĠG ood
ĠM ars
Ġcub e
Ġlemon s
ĠSt ew
a ff
ĠSqu ash
Ġp icante
as ure
ĠK nead
ĠR a
Ġthicken s
al or
b oil
ĠA pp
Ġstew ed
Ġp unch
Ġbo ard
Ġof ten
Ġl im
Ġcont inue
Ġlength wise
Ġros emary
Ġhe aping
Ġcaram els
Ġhand s
ĠCrumb le
Ġel bow
Ġex cess
ĠP et
Ġart ich
Ġcaram el
e am
ĠSp inach
Ġl oaves
Ġskin less
ut ons
ur ing
ol es
inch es
Ġd rop
Ġal most
Ġm ade
he y
ĠCont inue
ĠD or
Ġm ild
Ġcorn fl
p h
ĠChe ez
in y
ĠM ash
ĠWh ile
er i
Ġcro utons
Ġwh ich
ĠMin ute
ĠCh ip
ĠWh iz
Ġri bs
ĠStuff ed
Ġwh ip
Ġre lish
ist ach
Ġprocess or
ĠC l
we en
Ġc or
Ġmo der
ĠO r
ĠB iscuit
Ġday s
ĠSp aghetti
Ġtow el
an y
ĠA cc
t ry
Ġf re
Ġst yle
U p
ĠPe ach
Ġo kra
Ġbet ween
ĠC rab
ĠS up
Ġs n
ers hey
a ir
t c
Ġw ash
ĠJell o
ĠAcc ent
istach io
ed ge
Ġfre qu
Ġfrequ ently
Ġcl ams
oul try
i ble
boil ed
ĠP ast
Ġo un
ĠC up
ĠA ng
Ġmuff ins
Ġfry er
h mallow
r ans
am el
ĠP ro
ĠH ershey
Ġnon stick
Ġp oultry
ant ro
Ġf our
il antro
al ted
Ġst ems
Ġst ove
Ġbre ak
er ing
ĠB arbecue
ĠRo ast
Ġw ee
ĠSt eak
Ġmin t
Ġhal ved
c akes
ĠT aco
f ree
w ay
Ġk nead
d o
ir l
Ġcle ar
ĠDor itos
Ġpat ties
ra g
ĠD ump
ol id
ash ion
ĠC abbage
ĠGre at
m a
ee z
Ġc ilantro
ĠC amp
ĠAng el
Ġfil lets
Ġst ore
b ell
ĠMars hmallow
ĠB all
e gg
Ġst ill
c l
Ġw ood
Ġquarter ed
Ġser ved
Ġ5 5
Ġth ree
ap le
Ġgra pe
am b
j oy
bur g
ering ue
ĠF ried
ĠF resh
ĠBrown ies
Ġ2 50
Ġb ul
Ġp ink
ĠDel ight
Ġbon ed
Ġpop corn
Ġbroil er
i ally
c le
rag on
Ġbe ets
Ġb uns
ar ragon
unch y
Ġmois tened
f ry
Ġmeat balls
inn ed
Ġsu re
Ġ \
irt ight
Ġa irtight
ef ully
ilad a
ĠCar amel
ĠF r
Ġhe arts
Ġall ow
ĠCr ush
Ġb one
ĠR e
Ġund rained
ab y
Ġ ic
Ġmoder ate
ĠOre o
ĠM ushroom
a pp
s ize
Ġwood en
i al
f ast
es es
co ver
Ġcoars e
Ġ edge
Ġe tc
ĠBiscuit s
Ġre al
Ġcrumb ly
ĠFro sting
Ġju ices
ĠT ur
ĠOn ion
ĠCamp bell
Ġpl atter
cess ary
Ġuns alted
Ġic ing
Ġt arragon
ĠCo at
ĠS n
Ġne cessary
bl er
Ġmarin ade
ĠF arm
Ġche eses
ĠT ater
Ġl ess
Ġt ap
an n
Ġun der
Ġdissol ve
Ġun flavored
Ġf ollow
ĠD ri
aff in
ing ers
ĠFro st
in ese
ĠC risp
to ver
Ġsm oke
Ġpar affin
ĠL ightly
Ġbot t
Ġchil es
h igh
ĠSqu ares
Ġsh ake
ĠD ot
ĠDel icious
Ġbe er
1 3
Ġwh isk
Ġform s
Ġroll ing
Ġsk inned
c r
A ll
ĠCr ust
j or
ĠSo ak
ĠP h
t y
ĠCh inese
ous ly
Ġs andwich
Ġrec t
ro uts
e ar
Ġs q
Ġqu arts
art y
ĠAll ow
Ġcomb ined
Ġcornfl akes
Ġg all
Ġlim a
ĠS k
Ġpick ling
rans fer
Ġfl ower
ĠSl ow
Ġgl aze
Ġseed ed
jor am
n o
Ġm aple
Ġpure e
Ġmar joram
ĠS m
ĠM acaroni
umin um
he ad
Ġj am
ĠTom ato
ĠSh ake
ĠC reme
Ġbag s
Ġen ch
Ġgr ill
ok ed
ĠDri zzle
o d
Ġtow els
Ġb aby
an ish
Ġ '
Ġchunk y
ĠR inse
Ġc alor
al s
Ġsp routs
a i
ĠHam burger
ry e
j on
id ge
om em
Ġteaspoon fuls
Ġal uminum
b bler
Ġwith out
is in
Ġsp ring
omem ade
at ing
Ġpe ars
Ġc utter
Ġreser ving
ĠD e
Ġ rye
Ġp istachio
ĠG l
Ġbul k
pe el
oc a
oo p
ĠSup reme
i oca
b its
th ing
a f
Ġpe ak
us e
Ġd on
f ish
ĠR ec
bl ong
Ġavocad o
o am
Ġham burg
ĠB est
Ġcut ting
Ġr inse
Ġc ap
Ġthick ness
ĠU s
Ġ &
out h
ĠC andy
ĠPast a
ep ar
at ch
ĠSlow ly
Ġo blong
f tover
t m
Ġspoon fuls
Ġbr andy
a h
uc h
ec or
ĠPick les
Ġin d
ĠBro il
ĠK ra
Ġt ake
ĠDi jon
Ġref ried
ĠCarro t
peel ed
ĠCo bbler
eser ve
isc ard
Ġt ins
ĠBlue berry
ĠCorn bread
ĠPepper idge
ab le
ood le
Ġst age
Ġle ftover
ĠP an
Ġp r
Ġl ined
ĠWh ite
v il
Ġsc al
ĠCr ack
Ġg et
Ġtap ioca
Ġwal nut
ĠV eg
f ten
Ġapricot s
l ings
ph ia
Ġund iluted
op s
el phia
ilad elphia
Ġpit ted
Ġs ame
ĠL ay
Ġp or
ĠR eserve
ĠUs ing
Ġquick ly
ic y
Ġlar d
ĠPh iladelphia
ĠGr and
ĠS epar
ĠT ea
ĠSo ften
ĠCo ffee
Ġf oam
Ġst eam
Ġend ing
Ġre t
ĠTur key
Ġench ilada
Ġgelat ine
ĠRec ipe
Ġbeg ins
ĠW ill
Ġg i
Ġm eringue
Ġremo ving
Ġbr ush
Ġe qual
Ġsecon d
Ġcrumb le
Ġp arts
Ġcorn ed
Ġbr an
Ġw ide
Ġw ild
Ġw or
ĠUn cover
us s
Ġseed less
Ġwee ks
Ġb est
ĠT una
Ġreser ve
Ġsp lit
ĠJ ust
ic he
Ġspray ed
Ġ "
m el
Ġpeak s
Ġpart ially
Ġc ir
ĠR om
Ġrasp berries
er e
Ġc as
ĠBreak fast
Ġgall on
Ġm akes
Ġstal k
ĠSepar ate
ĠC ro
ĠCh ris
Ġsp rink
av ing
Ġp ul
w ith
ĠSp anish
Ġcr unchy
aw ay
ett uc
ĠL ow
Ġmo ist
Ġsm oked
he w
ashion ed
ing u
Ġket tle
iff y
y re
ĠT w
Ġh oles
Ġret urn
Ġblue berry
Ġin st
Ġsu n
Ġa head
yre x
1 1
ĠSc all
and er
or b
un can
Ġar range
ĠCream y
ing le
ĠV al
Ġavocad os
id bits
ĠApp les
ĠMarin ate
Ġbon es
Ġab s
Ġd inner
e ars
ĠN ext
i pped
ĠRa isin
Ġw ings
Ġoys ters
Ġevery thing
ĠSt yle
ĠD ish
Ġd el
eat en
ir on
ĠJ iffy
ĠChop s
ĠT ransfer
ĠO ven
om me
Ġt idbits
ĠP yrex
k et
ĠI m
Ġround ed
Ġsp ri
ĠP arty
u al
Ġcar away
tm as
Ġbe c
Ġdou b
ins ed
oss ible
Ġquarter s
ĠM ilk
wh ile
ach o
ĠKra ft
ĠD ough
ĠVal ley
Ġpul p
Ġabs orb
ch o
ĠD uncan
Ġal ong
ip ton
Ġsqu eez
Ġflower ets
Ġs ingle
Ġe at
Ġremain der
ĠL asagna
Ġartich oke
Ġw ant
Ġr insed
idd le
ou ch
Ġf udge
Ġcons omme
ĠS eal
ĠChris tmas
at h
Ġscal ded
Ġmeat s
Ġpo pped
Ġcontain ers
Ġac t
i er
ĠL ipton
Ġg ener
Ġsteak s
a dd
ĠG ently
ĠE n
ĠGr ill
is on
Ġremo ved
et iz
ĠH ines
ag es
uc ed
umb o
Ġle aving
Ġv egg
Ġt es
Ġl oo
ĠSto ve
ĠP ack
ĠT ort
Ġact ive
c up
Ġme in
Ġm iddle
ĠBl ack
Ġgi ven
Ġm aking
n ation
d ish
Ġroast ing
ĠC innamon
idd en
Ġs ift
Ġbott les
Ġdoub led
ak er
s mall
ec t
ĠT ex
ĠRom ano
Ġfruit s
app roximately
op le
b u
ĠScall op
ĠSp lit
ĠH idden
en ison
ĠK ool
ount ry
und rained
Ġrect ang
Ġbet ter
Ġcar efully
Ġpre fer
f lower
Ġwash ed
Ġt ri
ĠC ol
Ġb urn
Ġb ig
ĠO ne
il y
Ġcalor ies
Ġun peeled
Ġgreen s
Ġw ork
ĠL ea
Ġmarin ate
Ġcas hew
ĠH omemade
ĠCar nation
ĠEgg s
Ġro t
irl oin
o ppy
Ġop en
Ġv eal
Ġd uring
ĠFr itos
bu ry
ĠM ar
Ġdo gs
A id
a j
ĠB ur
Ġm uch
o f
ĠBr an
Ġs it
Ġt bsp
ĠFro zen
ĠP r
ĠCheese cake
Ġsweet ener
ĠMeat balls
Ġl ingu
ĠO f
Ġred uced
Ġind ivid
Ġc ustard
Ġsun flower
b o
2 8
Ġpr un
Ġfoam y
ĠSal mon
Ġcor ed
as ter
Ġk ind
Ġvegg ies
it y
Ġh old
ĠH oney
ad y
ep end
S er
un t
un cooked
Ġcoat ing
ver s
ff le
ĠMe asure
Ġs irloin
ill s
ĠAl tern
Ġst art
th s
Ġt in
Ġle ave
Ġoun ce
ĠH aw
Ġt ouch
ĠE nch
Ġpe ople
ai ian
ĠW al
ĠGar lic
Ġb it
an while
C h
Ġle vel
ĠHaw aiian
Ġbubb les
Ġfro st
ĠC akes
s ave
Ġsof ten
Ġl ite
ge al
ĠTh aw
ĠButter milk
an k
ĠQu iche
Ġg erm
ĠMe anwhile
b y
ĠFl our
ĠO ver
Ġ iron
Ġc akes
Ġend s
ĠTo ast
Ġme asure
Ġspri gs
p ro
ĠP l
ĠV anilla
ĠC ustard
d ry
Ġwaf er
Ġherb s
ĠChe x
our bon
ĠR el
Ġf ettuc
m b
asag ne
ĠS andwich
Ġth an
cr umb
ĠRel ish
Ġoys ter
ĠScallop ed
ĠEn joy
ĠS outh
ĠSl aw
Ġit s
Ġcolor ed
Ġflat ten
Ġr ing
ĠCro ck
Ġso ak
ĠGr ate
ok es
m y
Ġbe ater
Ġpart y
ĠTex as
Ġd rink
Ġscall ops
ĠW ater
ĠFl at
ills bury
Ġpin t
bon ed
ĠGrand ma
ĠC re
Ġch ow
ĠJ o
Ġsa ve
Ġpe ar
ul a
Ġtw ice
f resh
Ġins ide
Ġpre ven
und iluted
Ġprun es
Ġr un
in a
Ġb ris
Ġth ese
b one
ĠCr unch
ĠH ash
Ġd essert
Ġdri zzle
Ġsec tions
c ing
Ġp ies
Ġme as
m ay
Ġde boned
Ġre ach
ĠFlat ten
Ġra dish
Ġsaute ed
Ġpound s
ro ss
Ġpo int
th y
Ġpreven t
en ts
is ted
ĠT ots
r n
ar ge
ĠP illsbury
Ġboil s
Ġroast ed
Ġdo z
ĠC al
ef ore
c ut
olid ay
ĠD ice
ĠI cing
Ġal um
ĠH e
gh t
Ġgre at
Ġab ove
ag on
cl u
Ġl ump
f ro
Ġd ot
Ġdissol ves
m ed
ĠM old
Ġcook er
Ġindivid ual
es y
Ġto rn
Ġl ine
ĠD on
Ġuns ifted
Ġd iscard
Ġp uff
g in
ĠM om
ĠLea ve
F at
z o
ĠB atter
Ġt rim
Ġfl ake
Ġsh ap
Ġgr its
m int
ĠMarin ated
Ġoun ces
Ġs olid
ĠP uff
Ġoil ed
Ġop tional
ĠCarro ts
Ġl isted
ĠF avorite
ĠW heat
ir d
ĠA n
Ġl ook
Ġsk ins
ecor ate
ĠD ate
Ġsp ears
Ġst arts
ĠCrack er
Ġsp at
ĠT rim
ore ts
ec ial
en n
Ġartich okes
Ġabsorb ed
ĠB efore
ĠV ery
Ġjalapen os
Ġpan cake
Ġmo st
Ġh om
asil y
az ed
ĠSa ve
Ġover b
Ġo wn
ĠChe esy
crumb s
reser ve
ten der
Ġre p
Ġfl orets
Ġcashew s
ien ers
Ġspat ula
Ġe asily
t al
l ow
ĠT ang
ou se
Ġn acho
ĠD ill
Ġfollow ing
ĠY um
ĠB acon
Ġt iny
ĠCh owder
Ġsc oop
Ġ ass
ĠSh red
al ade
epend ing
Ġcl oth
i um
Ġf ive
Ser ves
Ġradish es
Ġpepper corn
ro ll
ar eri
Ġw ay
Ġb ark
Ġa way
o bs
ĠS eed
air y
Ġb ourbon
Ġw ra
Ġbread crumbs
r on
Ġf ran
Ġshall ots
M akes
areri bs
Ġp ower
Ġ3 6
Ġfin ish
ect ar
ĠB ar
Ġr ese
or y
Ġen joy
Ġsalt ine
Ġt ray
ĠC ucumb
Ġbrown ie
Ġbris ket
Ġp ossible
ĠF ish
ilad as
ĠMushroom s
Ġ2 75
ĠP op
u ice
red ge
Ġcand ies
Ġflavor s
ĠN or
u les
ĠUn cle
Ġloo s
ĠB en
Ġrectang le
Ġcur d
ĠApples auce
i b
m ix
Ġcro ss
ĠTom atoes
1 8
ĠR ub
Ġbunch es
ĠPan cakes
Ġst ring
Ġv enison
pro of
ĠA p
ast ing
Ġstuff ed
ĠGr ind
Ġs ized
Ġv erm
Ġgran ules
ĠH ell
ĠDump lings
Ġw et
Ġmeas uring
Ġp ers
urp le
4 6
b as
Ġsn ipped
ĠD inner
ĠR hubarb
orn ing
Ġbowl s
on d
aj un
Ġblend ing
ĠAltern ate
m ann
Ġcir cle
ĠCook ie
Ġdi agon
Ġm on
al f
Ġpar ed
P ot
l and
od ka
or ted
Ġtender l
Ġd airy
Ġs ter
ĠSk illet
Ġpepper mint
Ġcom e
r uc
ĠM andarin
Ġo ld
ell ini
le an
iel bas
Ġbr and
Ġcan ola
ou ffle
ĠR uss
ĠG inger
S t
Ġl it
ĠG olden
clu ding
Ġth erm
ĠN oodle
ĠFl ake
Ġtoothpick s
Ġpeppercorn s
Ġclean ed
inn ing
Ġ1 7
ell i
Ġstiff ly
ex cept
Ġde ve
Ġp ull
Ġe asy
Ġround s
ĠPro cess
Ġmar m
Ġmarm alade
e ad
Ġpl um
ome ter
ver t
Ġy ams
ĠOre os
Ġtherm ometer
Ġf it
ĠN ew
Ġt ight
ĠAl mon
Ġ3 2
Ġro ot
ĠS ea
Ġcl am
Ġn ectar
Ġpl ac
Ġ ent
u a
Ġdo es
ĠC om
Ġd ice
Ġpin ts
ĠAp ricot
! !
Ġw ok
ak i
Ġbar ley
l ined
ĠWor k
ĠC ajun
Ġw ieners
ĠL ime
iss es
l arge
Ġunb eaten
f e
Ġp armesan
Ġhand le
ĠCre ole
ĠSt ro
Ġv odka
am ily
ĠH ave
Ġm ace
u g
ĠBur g
Ġf ire
Ġp urple
raw fish
Ġenvelop es
is key
Ġ +
ĠE qual
Ġrack s
Ġl amb
ĠSp icy
Ġpor tions
Ġlingu ine
ĠSt rain
s ized
ĠSp iced
ĠHeat h
Ġl ater
Ġover cook
ĠI r
Ġf ingers
Ġbl anch
ielbas a
p le
Ġb asting
til s
Ġl oin
Ġst ack
arbec u
Ġhom iny
Ġpack et
Ġmo isten
Ġde vil
ĠA m
ĠH oliday
ĠSh o
Ġg o
s ugar
Ġcut lets
Ġshor t
ou ble
Ġpimiento s
Ġdish es
Ġtri ang
ri d
t e
ah l
Ġchi pped
ĠKeep s
Ġent ire
Ġd ump
t in
bo x
ĠN est
y aki
Ġne ar
wh ite
gano ff
Ġpo ds
it ch
ĠGra vy
ĠSp ecial
ĠSt art
ĠSouth ern
ey ed
ahl ua
3 2
for m
Ġdel icious
i ander
ĠF in
Ġass orted
ĠCol by
T h
Ġbl ock
ig s
b e
ther n
Ġlen tils
Ġcl ub
ĠA rt
ĠA unt
ĠIr ish
ĠI s
Ġspoon ful
ĠC auliflower
Ġaltern ating
etiz er
Ġsc rap
ĠRuss ian
Ġstick y
ĠHell mann
j ust
Ġcross wise
ĠWh isk
ĠN e
ol i
ith er
ĠPepper s
Ġteaspoon ful
eri yaki
ĠP ea
Ġcor iander
ĠC ountry
ĠSea f
m p
ĠP oppy
sp berry
at ur
ef ruit
ĠStro ganoff
ĠSer ving
Ġl og
ir ds
ĠC ur
Ġgl asses
Ġpre pare
ĠAlmon d
arbecu ed
ĠPe g
Ġinst ruc
Ġblanch ed
al e
ra pe
oup le
Ġshap es
ĠN oodles
Ġdi pped
ĠEnch iladas
ĠB ay
Ġw on
Ġwh iskey
ĠCh ess
Ġrep eat
e ur
Ġn ew
Ġbeg inning
Ġster il
Ġm orning
ĠArt ich
dd le
Ġinst ead
mb les
ĠO ri
am en
ĠS u
ĠFill ing
Ġsprink led
Ġc ouple
ĠPre tz
Ġspread ing
o z
Ġle e
Ġshell ed
Ġrese mbles
u ac
Ġri ght
am ole
ĠSal sa
ĠK ahlua
Ġoverb ake
ĠGra pe
Ġfry pan
uac amole
ĠCucumb er
Ġ1 00
1 7
y e
ĠJ am
Ġdi pping
Ġsteril ized
Ġd epending
ĠP inch
Ġse af
b utter
Ġseaf ood
ĠNor thern
Ġac ross
he ese
ĠF ood
ri ddle
om es
ĠEgg plant
id al
ĠH erb
v ol
ĠSt eam
al d
ĠLayer ed
Ġstick ing
ĠCar efully
r s
Ġcap s
Ġdeve ined
ĠP er
am i
Ġdash es
ĠSe ven
Ġcon geal
Ġsn ow
Ġsandwich es
Ġs ix
Ġg um
ĠA sparagus
ĠF eta
Ġst rain
Ġpor tion
in al
Ġt y
Ġz est
vol one
idal ia
h y
Ġsp areribs
ĠE x
r ise
en ess
Ġ4 8
Ġreach es
ab et
ic elli
Ġd ust
ĠBr ittle
ĠButter scotch
ann y
Ġcool ing
3 0
n ed
ĠL ower
Ġliqu eur
ig or
sa fe
Ġh ole
Ġro aster
oun ts
ĠS he
ĠT ear
ĠO il
Ġpack ets
ĠP ol
ig inal
eez e
2 1
Ġsqueez e
itch en
Ġst em
Ġbec omes
Ġbrown ing
Ġbrown ies
ur es
Ġv igor
Ġl asagne
Ġlar ger
Ġgener ously
ĠIm mediately
or ed
Ġg riddle
Ġch ip
ĠC lean
Ġl ink
ater s
lic ed
ĠR amen
us ages
Ġth igh
Ġco re
ĠRefriger ator
spar ent
p ec
Ġlow er
Ġc reme
L emon
ran sparent
m edium
ĠTh ese
ĠGra ham
ag u
ĠNest le
ĠB arbecued
ran ts
ĠSeaf ood
m ore
ĠB aste
! )
Ġf ully
Ġs w
ac c
ĠD ouble
Ġhalf way
Ġtenderl oin
I f
ĠMix ture
b an
Ġcur rants
Ġinstruc tions
ĠS urp
Ġtes ts
Ġt ransparent
en ough
Ġvigor ously
ĠS ouffle
Ġn ight
ĠAl so
ĠT ri
ĠB aking
Ġb ase
ck tail
Ġcol ander
d ium
ĠPuff s
ĠK no
Ġflavoring s
Ġsepar ately
ĠVegetab les
ĠFr it
um ps
ĠH ouse
ĠO p
Ġgrap efruit
ĠPro volone
Ġde bone
Ġcap ers
Ġk ielbasa
ĠCup s
ĠV idalia
an ce
) ;
r ound
ĠArtich oke
ĠA s
Ġn oodle
ĠSqu eeze
Ġdon eness
ĠSn ack
ĠSc r
ĠWal nut
A dd
gh orn
obs ter
ĠCo cktail
ame ter
Ġdiagon ally
ĠKno x
Ġle ft
Ġf ree
Ġpress ed
ĠSc ald
u ds
Ġdi ameter
ent al
Ġd iv
pper s
ĠR agu
ĠSt ick
Ġam ounts
ĠGr ound
Ġcrisp y
ĠGl aze
d rained
ĠF ashioned
Ġtrim med
Ġverm icelli
Ġmo zzarella
rid ge
Ġsalt ines
ĠL e
ĠM an
Ġro ma
ĠFreez es
Ġh en
i w
ar i
Ġlit er
ir y
ĠH or
fro zen
Ġsa usages
ĠR ea
ĠRa spberry
Ġfro thy
ĠCl am
ĠServing s
ĠM rs
ĠA b
Ġan ise
Ġty pe
ĠSurp rise
s ide
ĠD irt
ĠL on
Ġcir c
c ine
Ġsu m
ĠM ed
ett es
Ġdiv ide
ĠC at
Ġcomb in
ĠD eep
Ġc rawfish
mp ty
d ough
ir gin
or d
h ot
Ġsqueez ed
Ġthigh s
ĠGr anny
Ġb ur
ĠCh ow
ĠCoc oa
cho pped
Ġscrap ing
ĠFl uff
m it
ĠGl azed
Ġsum mer
da iry
ed ish
ous se
ĠN ot
ĠP ies
Ġcrack ed
Ġloos ely
i k
Ġa d
Ġroma ine
Ġchicken s
Ġm et
ĠDe vil
u x
if orn
Ġstri p
Ġgener ous
Ġpe a
iforn ia
abet ic
ach ed
ĠSandwich es
b ro
ĠHor mel
ĠLon ghorn
t ures
um mer
Ġse am
ĠSp ice
Ġrot ini
f ur
Ġr ub
ĠS ec
p re
m old
ĠD og
Ġwee k
ven ly
Ġm an
Ġbeg in
ĠIce box
k fur
Ġl umps
ĠBe aters
ĠRea Lemon
B ake
ĠCal ifornia
ĠP u
ĠA t
Ġgar ban
b eaten
Ġstart ing
Ġst r
ĠD ecorate
ĠChe w
Ġf igs
ĠD redge
iw i
ĠF ir
Ġw ish
Ġor iginal
Ġhand ful
Ġbubb ling
Ġthe ir
Ġd ecor
Ġsc r
Ġsc ant
Ġo uts
Ġf inger
Ġn avy
ĠSw edish
Ġcann ing
Ġfollow s
ĠS ummer
oc ks
ĠSc oop
pl ain
ef ul
Ġleftover s
ĠB aker
ĠW arm
Ġcup cake
Ġsec ure
ĠStuff ing
Ġf amily
ĠU ps
Ġmix tures
Ġ7 0
i oli
ĠL a
m ent
meat s
ĠAb out
Ġsimmer ing
Ġpretz el
ab ly
Ġlb s
an gular
Ġslic ing
Ġoven proof
Ġpack ages
Ġbott led
ĠS un
ĠSp r
M icrowave
ĠD ay
Ġf ridge
Ġ2 00
Ġnut meats
ĠPop corn
Ġe ither
Ġsmall er
ĠO ys
al t
Ġfl ank
ux e
Ġouts ide
Ġd amp
ĠSh ell
Ġb ath
Ġcream er
Ġaltern ate
Ġg one
c em
im mon
Ġr ich
etiz ers
cem eat
ush y
ĠH un
or m
ĠOri ental
Ġt ail
ĠB reasts
l ime
Ġto pped
Ġp ressing
ĠW atch
atur al
ĠUps ide
o b
oup e
Ġan cho
ĠD iscard
F ry
y our
Ġo mit
C an
Ġblack berry
Ġt all
Ġsal ami
ĠSn ick
ĠM olasses
Ġn ice
ĠC ub
ur k
Ġfran kfur
ro ps
Ġk iwi
Ġsec tion
Th is
Ġcan tal
ĠChe ck
Ġsa ff
ĠN ow
Ġrect angular
Ġra p
icott i
ĠSn ow
ĠSa uerkraut
Ġcar d
ĠOn ions
Ġin cluding
Ġdump lings
wh ole
Ġrap id
ĠCoc a
at in
Ġtriang les
Ġnon dairy
ĠTh oroughly
Ġfill ed
ar a
ĠSh ort
ĠPick led
urk ee
C ola
ĠTo pping
ĠPretz el
ĠP ull
Ġwor ks
Ġso aked
U ps
Ġcar eful
ro st
Ġblack berries
eri os
Ġgarban zo
Ġ2 8
ĠM ustard
F ree
ĠB owl
Ġhead s
d e
ĠK n
Ġli vers
Ġtablespoon fuls
ĠZ est
b all
ĠT est
Ġj umbo
Ġw ould
Ġch ick
o ver
ĠL i
ĠIs land
Ġlee ks
h alf
Ġcl os
Ġt ips
Ġco als
ound s
un k
ĠM c
ĠN uts
am a
Ġlime ade
ĠSho e
ot ted
ĠD urkee
ĠGrill ed
Ġturn s
ation s
ef rost
Ġtort ellini
ĠChe erios
Ġkern els
Ġp ine
am ic
Ġfl ame
3 50
Ġpec tin
Ġsl aw
Ġri b
c ell
f u
n y
ĠW ings
aw ry
Ġstr ong
ĠL ast
re c
ra ut
Ġli ver
ĠR ot
Ġf ast
ĠM edium
Ġpan cakes
iff er
Ġc uts
cell ent
Ġm any
ĠC res
Ġcover ing
Ġc ountry
ag ne
Ġsl otted
Ġcirc les
pe as
ĠMon key
ĠTort illa
Ġt eriyaki
Ġra b
ĠPat ties
Ġo at
f ingers
ĠOp en
Ġn atural
ĠF at
amp agne
Ġwor cestershire
D own
Ġk raut
g o
Ġg uacamole
ĠT ender
ĠZest y
ick ory
ible ts
ĠH ea
alor ie
ĠRe ady
re l
Ġb as
ou x
Ġsp icy
Ġliquid s
Ġgl oss
Ġm ed
Ġhot s
mel on
Ġcantal oupe
l ien
Ġju lien
Ġset ting
et ter
ĠD ust
Ġg ets
ĠIn vert
ĠIm p
ĠSpr ite
ang o
uss els
D o
enn el
ĠCo ke
Ġsl its
Ġbar ely
Ġth ird
und y
ĠT ime
Ġsubstit uted
L ow
C heese
Ġfrankfur ters
ic o
ĠP ark
ĠL awry
c rease
Ġcarton s
c risp
ĠW ild
F or
t a
ett y
Ġcornfl ake
ĠM eringue
Ġspring s
ĠM ill
qu e
an ts
Ġb atch
Ġr is
Ġmet al
ĠP istachio
ĠD ash
Ġe ars
ĠT re
ĠL ight
Ġhard en
2 4
ĠF ail
Ġl obster
ĠM y
Ġprocess ed
Ġtopping s
ie ve
ĠNe ver
Ġchil e
ĠFir st
Ġf ennel
Ġdro pped
ĠTort e
o sh
ub ble
Ġt ill
Ġsk ew
Ġdi et
pp ies
Ġ2 3
ec k
ĠV egg
Ġlink s
y st
it ation
Ġcalor ie
Ġcont in
ĠPol ish
ĠTw ink
j uice
Ġgr ate
ĠP owder
Ġbe ing
Ġcr yst
pan y
Ġle gs
als amic
ĠImp ossible
ĠP in
o at
Ġc re
ĠT r
Ġth irds
ĠThe y
Ġfettuc cine
ĠT ot
ĠSeason s
Ġel astic
Ġcombin ation
ch er
ĠY east
ast es
ate ver
ap s
ĠSm ith
ĠK isses
ĠMay onnaise
iffer ent
or r
Ġpl ates
ĠSup er
Y ou
r it
ĠB etty
Ġr oux
ĠJ uice
ĠJell y
ĠPr al
Ġp urpose
Ġt am
ĠK itchen
al a
ĠB on
arb oil
ble ached
l a
Ġtab le
ĠSl oppy
ĠDel uxe
ĠC ole
ĠE at
Ġpress ure
ĠBurg undy
b aked
c ream
al ina
ak y
Ġsprink les
Ġ es
ar garine
Ġdo g
ĠSo da
ĠHea venly
C r
Ġsteam ed
Ġon es
ĠP ure
ĠM il
r ant
Ġde er
Ġpers on
er d
ĠA d
ĠO li
Ġchick peas
Ġwarm ed
ĠUn mold
m s
Ġd ist
li ke
ĠPec ans
re gular
Ġl in
Ġst arch
ĠMarin ade
N uts
u y
Ġtail s
ĠKn orr
ĠB y
Ġun bleached
ĠCat alina
ĠCrack ers
ĠCon geal
Ġl ove
ĠW a
ĠCr unchy
r ated
ĠF ran
Ġb ri
un n
ĠOys ter
M ay
Ġc it
ter ol
oles terol
if ic
ĠPr ick
d on
in z
ell o
ĠShe et
ĠS ar
ĠA u
Ġus ually
s elf
ar ian
ĠVelve t
ĠNot e
Ġbutter nut
ĠL ou
ĠQuick ly
Ġp ats
ĠL asagne
Ġpat ty
it a
Ġmel on
Ġl g
Ġth ere
ĠPure e
ĠUn roll
ĠApp etizer
Ġh ollow
ĠCub e
ĠMill ion
osh er
Ġmon ths
se ason
Ġpit a
Ġlid s
Ġh ickory
oun der
Ġmois ture
ĠEnch ilada
ĠTh ree
Ġmarin ated
un til
Ġlump y
Ġst ored
Ġth read
Ġim itation
ĠC and
Ġsp ir
B ran
I t
Ġcon ten
Ġk ept
f inger
ĠM ini
ard en
ĠPe as
Ġlook s
t Add
Ġ X
ad a
ĠSo ft
ĠB etter
Ġpuff ed
2 9
Ġwith in
m ents
Ġgr ind
uk es
Ġl ady
Ġmin cemeat
ĠPe ar
Ġl ots
so ft
ĠW ine
Ġb alsamic
ĠB ra
a use
Ġup side
ian a
Ġf illet
ĠFrit ters
ĠC elery
ĠM iss
Ġso on
Ġmold s
ĠC old
Ġ2 2
Ġsa ving
ad le
ĠB as
ĠM ary
ip l
Ġlayer ing
Ġpure ed
n ing
Ġsu it
Ġsh av
Ġloo se
Ġm ango
Ġd ecorate
ĠR i
Ġso dium
Ġh el
ain s
? ?
f le
m ild
ĠM a
ĠR ich
ree k
F ashioned
Ġbreak fast
hy d
Ġv ari
Ġbe et
Ġcl ose
ĠGr atin
Ġbec ome
Ġtouch ed
Ġto fu
ĠC ottage
ay a
ĠH ar
ĠH eal
ĠG arden
ĠE l
Ġplac ed
Ġ1 9
re t
ĠP ink
e an
ut y
gre en
Ġb ed
ingers n
d en
Ġwh atever
at a
ic al
Ġcook s
ĠSc rape
ĠHe inz
Ġh ow
oul der
Ġpers immon
ipl oc
it i
ĠMil not
k es
Ġf ile
as ier
pec ans
Ġc at
Ġm ust
oo se
ĠR ing
s alt
in o
Ġe qu
Ġsn ack
ĠPark ay
t he
y ou
re n
oo s
ĠSl ush
Ġb erry
ĠPast ry
Ġrais in
amb oo
Ġv irgin
ĠE mpty
ĠDi abetic
ĠSk im
ĠF ollow
Ġit ems
ic les
ĠS yrup
ĠM eal
Ġwater melon
ast y
Ġbl ade
ĠM ag
ĠTh icken
ĠPu ppies
Ġt est
Ġh air
Ġd ifferent
ĠSa ut
Ġb amboo
acar oon
im ple
alapen o
ĠGinger bread
ĠM ac
ri b
Ġfour ths
ĠDevil ed
ĠCres cent
ĠRoast ed
w he
Ġsu ch
ĠR um
Ġtoss ing
Ġ #
it es
Ġh omemade
ĠH ush
Ġstew ing
ĠRe ese
l uc
p es
ĠP o
stick s
Ġcontin u
Ġt ransfer
Ġg umbo
ĠV enison
Ġsh oulder
ĠI nd
ĠCream ed
Ġcur rant
l ight
Ġd iluted
Ġtender iz
ĠSm ooth
Ġprefer red
r um
Ġt ex
ut ney
Ġfl ow
ill ed
ri end
Ġk isses
os es
fec t
t P
Ġc ukes
ĠK ing
Ġde g
ĠZ iploc
R oni
p ack
ĠMash ed
Ġman icotti
n og
Ġrectang les
I n
g ate
oo ts
Ġbut ton
ĠVegg ie
Ġc av
Ġput ting
ar et
at oni
ĠF ettuc
ĠSu pper
an cy
Ġt ear
ĠM other
ver age
Ġconten ts
Ġtex ture
ĠJo es
ĠH o
ĠY ellow
ĠBurg ers
Ġlady fingers
Ġdo or
unn el
Ġw as
Ġe asier
ĠD ry
ĠBrown ie
Ġart ific
Ġcool s
fl our
C ook
ous and
way s
ĠP ap
ĠTo ffee
fro m
m et
can ned
rec ipe
Ġt rans
ĠM u
ĠCrab meat
Ġdoes n
Ġcat fish
Ġm icrow
Ġn ic
ĠD oll
Ġfran ks
Ġse g
qu et
ĠO kra
Ġqu ite
cl oth
Ġrapid ly
ĠW e
Ġr ump
ent y
ĠJ er
ĠTw o
Ġtrans luc
re w
ĠT aste
ĠG old
ĠBe ets
S p
me let
ĠCom pany
in ity
Ġm y
Ġn ow
ĠCrisp y
ĠF ive
ĠY ogurt
Ġtenderiz er
Ġtransluc ent
Ġw il
ĠH unt
ĠDiv an
on es
Ġbottom s
ĠTwink ies
ĠCongeal ed
u red
Ġl oses
eat h
cook ing
on ge
Ġ rim
acc ioli
Ġsaff ron
h n
l aw
m argarine
w are
or ch
Ġre heat
ĠBe er
Ġcur l
fry er
Ġcutter s
Ġgum d
Ġsh oots
ĠMo ck
oul ash
Ġnic ely
Ġb aste
al es
Ġr es
Ġgar den
in stant
Ġfl aky
Ġcheese cloth
ĠL og
Ġwra ppers
Ġplac ing
ĠOli ve
Ġartific ial
ĠJ alapeno
ĠTh in
ĠLemon ade
Ġs om
Ġpit cher
Ġin vert
ĠTh ousand
Ġlingu ini
~ )
ĠButter finger
b it
Ġch ampagne
Ġpo ke
ĠWater gate
c he
Ġh ens
Ġseg ments
Ġc ount
Ġd is
ĠIn to
mer c
ĠCand ied
i gg
at t
Ġtes ter
i pp
tt y
Ġdeg ree
s liced
in der
ello gg
in ds
ress o
cl air
ĠShell s
Ġs ieve
ard s
orm ick
Ġh ock
M ix
Ġburn er
Ġjulien ne
Ġskew ers
ĠM ousse
Ġover la
iel d
ia h
ĠMars ala
mel ted
or iz
ber g
ĠBr unch
ĠDiv inity
ĠCur ry
ĠSar an
Ġl ot
Ġsc orch
C ormick
il ute
ĠC a
to p
ue ur
Ġf ashion
ĠB uds
y l
es to
ĠG oulash
ĠE ver
par ed
ĠMon de
b ran
ĠM ama
ĠLou is
Ġd ate
ĠWh ole
Ġspir al
merc ial
Ġoverla pping
oo ps
ĠG reek
Ġprepar ing
F ried
Ġt ip
ĠK ellogg
Ġrun ning
Ġb ubble
Ġh ocks
pre fer
aret to
Ġj ack
ĠE clair
ĠYum my
ĠB uns
ĠBr ussels
Ġfinish ed
Ġturn ips
t and
Ġb un
Ġk osher
ĠJo hn
Ġpour ing
Ġhold s
ĠBas ic
edd ing
ĠQu aker
ĠCrisp ix
Ġnear ly
ig n
ĠB ea
ĠCho pped
Ġtw ist
u pper
ab el
ĠIn s
Ġfreez es
Ġsprink ling
ĠHeal thy
. .
ol og
Ġ6 5
oun ter
ĠMon te
season ed
Ġgumd rops
Ġt ie
le ph
ch icken
ro s
Ġa ir
et y
ĠG umbo
R ice
c ross
ĠC ider
Ġd redge
ond ue
ĠFin ely
ĠMag ic
Ġm ushy
ĠM az
ĠH al
ĠP enn
tt e
Ġdes ire
ĠFl avor
pl ants
ĠCup cakes
Ġdevil ed
T he
Ġc ounter
en ce
ĠK id
ĠRi bs
Ġcom mercial
ĠCorn ed
ath er
us ters
S ueur
Ġto tal
ĠM ud
Ġri g
ĠCook ing
ĠPl ay
ĠB ou
Ġse ts
Ġpear l
Ġlin ers
Ġegg plants
Ġ5 00
Ġbre aking
ĠChew y
ĠAd just
ĠIns ert
ill y
an ese
Ġheat ing
ĠTur tle
Ġmicrow av
olog na
ĠQu ik
ĠAm aretto
Ġc ast
Ġ30 3
ĠBre ast
Ġform ed
U se
w ater
ĠLe Sueur
ingersn aps
N ut
Ġche ck
ĠW edding
ĠMo isten
Ġliqu or
air ly
Ġd efrost
ĠIn stant
ĠTo st
Ġflow ers
Ġmix es
Ġst ro
Ġfl ounder
Ġchunk ed
Ġbit ter
Ġst arter
ri z
Ġsh o
Ġtes ted
ĠC ow
Ġra ise
ĠSw irl
Ġlim p
, \
Ġd oll
ach os
ĠMc Cormick
Ġse e
ĠK ey
ĠApp etizers
ost on
Ġstrain er
der ful
Ġsa uc
ĠRot el
t Bake
ut es
ĠW ay
Ġwa ffle
ens ter
Ġwor ms
Ġf airly
ĠCh ips
d uty
Ġfettuc ini
leph ant
4 0
Ġcrust y
add ock
in ai
Ġm ain
Ġsa v
ef ly
ĠDog s
Ġsh akes
Ġdel i
Ch eddar
ĠMaz ola
he aping
ĠH our
Ġ 75
in cluding
ĠL o
iss cross
gre tte
Ġform ing
ĠCur ried
d ried
ĠB oston
ap anese
Ġchill ies
inai grette
a u
am ble
ĠSp am
Ġout er
Ġdirec ts
b a
Ġh ull
ĠFin ish
Ġrig atoni
ick el
ubb ed
az y
ĠOver night
ĠCrock er
Ġw e
un e
Ġclos ed
g ry
ĠS avor
ll o
iff on
Ġcongeal ed
Ġ1 15
ĠP oke
ĠT arts
Ġst rained
Ġpre tty
c ents
ro ut
ĠT on
Ġlog s
Ġre ally
Ġpkg s
ĠRo ck
whe els
in ter
Ġmar ble
ĠL adle
ĠFreez er
ĠMu enster
1 9
Ġe ar
ĠN acho
ĠBoil ed
Ġsc rape
Ġtam ales
Ġshav ed
ĠSavor y
Ġchil d
iv al
ĠCont ains
Ġgum my
Ġbri efly
ĠT art
uff ed
ĠCl ose
ĠW on
Ġwra pped
Ġro w
Ġapp ear
ut ion
on t
ĠP are
ush ed
amb led
ĠMilk y
Ġt akes
rt eg
Ġbec ause
ĠEx cellent
Ġkeep s
Ġancho vy
Ġpo ck
Ġper for
af ing
Ġcit ron
e k
Ġsu p
ĠOn ce
ĠT et
Ġim p
Ġgall ons
Ġbas ket
ra zz
row d
Ġsc oops
Ġgl azed
Ġseal ed
Ġes c
ĠA mb
ies ta
ĠTri ple
ĠP or
ĠL oos
oun ce
Ġfettuc ine
prefer ably
ĠTet razz
re at
Ġst ay
Ġpre heat
s k
le u
Ġg ive
ĠSh erbet
ĠHe arty
ĠTetrazz ini
ĠS am
ĠG ener
Ġ9 0
Ġqu iche
ĠMex ic
d or
ar row
ĠF our
ĠV inegar
ail able
Ġrot ary
Ġgloss y
ur ch
ĠSh ould
Ġz iti
ĠMed ley
es tern
par ation
Ġloos en
Ġp ier
ett e
Ġcard amon
Ġl ift
Ġco b
ĠL azy
Ġextr ac
ĠDe bone
ros ia
e el
ĠM or
ump ern
Ġsup reme
Ġco d
ĠJ apanese
ĠPeach es
ĠT am
ĠR ound
Ġvari ety
ĠAmb rosia
Ġd ent
ol ly
Ġn arrow
Ġingredien t
Ġpre cooked
amb al
ĠTre ats
ipp i
Ġt e
ĠP art
ĠJ im
iss ippi
umpern ickel
ĠS ch
ĠW aff
Ġlength s
ĠStick s
ĠMiss issippi
ĠS imple
ĠE ar
ĠFl uffy
Ġp ush
Ġ2 6
Ġun cover
ĠO rteg
Ġto ffee
Ġse a
elve eta
ett i
Ġsav ory
ĠB ac
hy llo
in ts
ĠP ush
un peeled
eget arian
ĠMin t
Ġextrac ts
t C
Ġs im
ĠP ort
ĠIn crease
Ġal ready
Ġmoder ately
Ġspri g
ĠDoll ar
g round
Ġp hyllo
ĠB leu
Ġgr ams
ĠD ried
Ġsw irl
Ġstro kes
r one
cr ust
Ġmost accioli
ambal aya
ri e
ĠTh an
rop ical
Ġcryst als
uy ere
acaroon s
Ġ amon
Ġch afing
est rone
ĠRe heat
Ġrab bit
Ġm ousse
Ġin ter
Ġre heated
Ġsour dough
ĠSw ans
Ġpr ick
v ies
Ġgl ut
ep eg
dor f
c ress
am ous
ĠS und
Ġl abel
ĠL ingu
f red
o id
ĠH om
Ġmash er
ĠAltern ately
Ġshap ed
Ġamon g
re m
ĠR un
t uce
y ellow
ĠF iesta
ĠGr uyere
Ġtoss ed
ĠBlack berry
Ġverm outh
Ġt ough
Ġp al
Ġdirec t
ĠTri fle
Ġch utney
Ġlim as
ĠWal dorf
Ġdist rib
ĠMexic orn
fred o
to gether
Ġover mix
Ġmicrowav able
ĠB o
lic es
ĠFro m
ĠS kin
Ġe ating
igh ts
ĠPre paration
ĠBou quet
ition al
Ġseal ing
ival ent
ĠSund ay
F ro
Ġg iblets
ĠG oo
ĠCo re
oss om
uck y
ark ling
ĠPer fect
ĠPral ines
ĠOrteg a
u f
w ell
x x
Ġhel p
ĠLouis iana
u el
ĠCh iffon
Ġgrain s
ĠScr ub
ĠGener ously
o ins
Ġd ep
ĠM aple
St yle
Ġs or
Ġf all
Ġcho pper
k ins
Ġh addock
if ied
ĠSc otch
J ell
z y
Ġb ologna
Ġd rum
is ins
ĠA v
Ġice berg
B ro
h od
i ant
Ġcorn ers
ough t
ĠCal ico
3 25
Ġm ound
ĠBr isk
cr ushed
ĠLet tuce
ĠGr its
ĠR os
Ġp ri
Ġch olesterol
ĠC ap
Ġ2 25
ash ed
Ġbr ick
Ġtriang le
ĠC alorie
Ġsyrup y
l en
Ġch ar
ĠT eriyaki
Ġsli vers
ĠAn y
ĠB erry
Ġpart ly
Ġpuff s
bro wn
ĠBea u
Ġg ro
Ġstir red
te in
ĠSnick erd
ĠLoos en
O r
ĠS ure
o vers
gar ian
our met
Ġcol a
ĠHerb ed
Ġad v
Ġgr inder
ag ed
ĠJ ambalaya
Ġancho vies
upper ware
ĠBrisk et
r itos
ĠP arboil
Ġst or
Ġwater cress
ĠBar rel
Ġplum s
ĠJ ud
Ġwil ted
% )
3 75
7 0
u v
ĠP ar
th is
ĠD rink
iel ds
Ġbr ine
Ġperfor ations
Ġburn ing
Ġrub ber
ĠTon y
k ing
u da
ol ution
Ġad just
Ġ2 1
ĠT oll
Ġbe verage
ch a
ĠPre go
ĠWaff les
i ves
Ġe ight
ĠF il
Ġcenter s
Ġris ing
st rawber
ain t
Ġscall ion
ĠShred ded
Ġdent e
d rain
th aw
ĠSt ack
Ġthick er
ĠCorn ish
Ġgran ola
er to
Ġp umpernickel
ĠT ie
Ġ4 6
th a
ĠMix ed
d ay
w al
ĠC as
ĠSt r
Ġapp etizer
ul t
ĠCheese burger
ĠSour dough
g n
v als
Ġb al
umb er
Ġdiagon al
Ġm g
il af
ĠCl ass
D i
es ar
Ġst raw
Ġ8 0
Ġpl enty
Ġus ual
Cr isco
ra pped
Ġfry ers
Ġapp etizers
Ġfold ing
b oy
Ġm ounds
am om
ĠP as
qu ettes
ĠGr an
ĠCow boy
ĠP ier
Ġcr isscross
ĠW ish
Ġlow est
ĠB ell
ĠSp areribs
Ġcup cakes
ĠHun gry
Ġequ ivalent
ĠCa esar
B e
Ġe mpty
ĠP ile
ac os
ĠF ast
ĠCook ed
ĠH i
Ġthrough out
Ġpro d
Ġcurl s
ĠTost itos
ĠC erto
ĠG e
ĠMed al
a x
Ġre qu
ĠSk or
ĠAn n
Ġf ashioned
ĠF amous
Ġtablespoon ful
ĠRe ub
Ġrab bits
em iah
ĠO at
c ini
ĠB ob
ĠW ipe
ul ts
ĠV eal
ĠCar ol
ĠHun garian
g y
or ange
sh ine
Ġal together
ĠSeason ing
4 5
Ġb uds
ĠB asil
ĠR ib
ĠMo ist
ĠSm oked
. ,
at ive
ĠR ings
ĠWh ipped
ĠDi et
Ġcard amom
Ġdefrost ed
r us
Ġth umb
ĠCh unk
ĠG o
Ġde hyd
m an
Ġs olution
Ġe igh
un che
ot tom
ver ted
Ġav oid
ĠCl usters
ĠPo or
pack ed
ĠT upperware
ĠFill ed
oy u
g resso
Ġk itchen
Ġtray s
k y
Ġb ow
ĠP ic
so dium
is ts
Ġrep lace
ĠTam ale
Ġp atter
ĠL ittle
Ġcar bon
with out
ĠSho epeg
T o
c alorie
Ġh oliday
ad am
ent he
erm uda
ĠQu arter
a ver
ut h
Ġr anch
az el
ĠSnickerd oodles
Ġpatter n
2 3
m ing
us el
gh um
im p
ĠL en
izz as
ĠPin wheels
ĠSam uel
Ġw edge
Ġd ab
ĠS esame
Ġor zo
ĠL ef
adam ia
f ashioned
ĠS and
ĠS lices
ĠG iant
ĠHam burg
lec t
M ex
am ate
Ġfl oat
ĠG et
Ġglut amate
Ġeigh ths
ato p
v al
y ed
Ġ atop
Ġd uck
Ġg u
ĠR aw
sh ip
Ġsl it
Ġcrisp ly
ĠQu es
Fro m
unche on
m ade
Ġm al
ge ts
Ġ4 75
sc ant
Ġpro tein
qu ef
Ġyou ng
rit o
C al
f in
re usel
ĠB ermuda
et imes
ĠN iblets
ug gets
Ġsh aking
ĠF ashion
ĠG uacamole
ĠE ach
Ġav ailable
ĠB rie
un beaten
Ġcream ing
Ġjell ed
ĠY ork
Ġfreez ing
ĠSm ok
ĠKra ut
ĠSnick ers
Ġsh oyu
ĠStir ring
Ġcarbon ated
ĠM ount
ĠAl fredo
ĠPr une
Ġtenderl oins
ĠPap rika
Ġadv ance
ĠReub en
ĠC ra
ĠJ ul
eed s
Ġmarin ara
bon eless
ĠMar garine
Ġmal let
Ġf ries
ĠB ites
act ing
ĠStrawber ries
Ġpri or
ĠP arsley
Ġspoon s
ĠSec ure
Ġinter vals
c innamon
le e
ad ian
om m
ĠL ift
elat in
it as
Ġa while
Ġche w
ĠO melet
ĠFruit cake
ĠCl ub
ĠFrost ed
ĠDe an
af ers
Ġc oll
Ġb el
ĠT astes
im a
ĠH um
io d
k ay
an ger
Ġp enne
Ġco le
Ġsm ok
ĠDough nuts
Ġcav ity
ĠPas o
e uv
ad ine
ĠH alf
Ġcomplet e
ĠPro gresso
Ġfit ting
gn ac
Ġb ra
Ġe lephant
ĠF ix
Ġkeep ing
quef ort
ĠW afers
ĠMe in
od ium
O s
c ery
i ano
ĠD anish
ĠE d
ĠFl akes
ĠNut ty
ĠPor cup
us c
Ġsl ushy
ĠPick le
oles law
ĠAv ocad
Ġc all
Ġt en
ĠC oleslaw
un sweetened
Ġv ary
Ġh ome
Ġpack aged
Ġins ert
f ine
v anilla
Ġsoup y
ĠF amily
ĠJ an
Ġlayer ed
ĠRo quefort
Ġsauc es
and a
ars ely
ĠCo pper
ĠPepper oni
ĠGrand m
Ġbatch es
B one
S weet
l ightly
Ġsu et
Ġse ven
Ġdoll op
s uch
Ġt rout
ĠBroil ed
Ġbal ance
\ \
Ġ els
Ġst one
Ġth inner
ab obs
Ġtub es
ĠCucumb ers
Ġchild ren
ĠJim my
h o
Ġf unnel
uc key
st ir
ars n
pe pper
Ġallow ing
Ġs ouffle
ĠP ers
uc y
ĠD rops
ĠW il
os odium
ĠTang y
ĠMor ton
Ġp arboil
ĠU p
ĠCan adian
ort ant
Ġbrush ing
be ef
Ġscr ambled
ĠEar th
ĠMount ain
Ġs ack
Ġlee k
ĠPu ppy
ĠHal ve
ĠPart ially
ri p
ĠD own
ĠSt arter
ĠRo ad
ĠJo e
Ġdis app
Ġels e
ic ro
ĠS liced
Ġwh at
Ġeat en
ret ch
n ic
s kin
Ġ ??
ĠMel ba
Ġstal e
Ġsor ghum
ĠClass ic
ĠSteak s
Ġcontinu ously
Ġin crease
Ġegg nog
Ġn eck
Ġbut t
ĠMar tha
t ime
u riz
Ġ 0
Ġa corn
ri ght
Ġco gnac
ĠF ree
Ġgarnish ed
s er
Ġw atch
ĠB ing
av ily
Ġ13 0
2 2
P ineapple
Ġt astes
Ġh o
ĠJ oy
ĠMo cha
ĠRep lace
Ġmon osodium
riend ship
thaw ed
uriz ed
S our
Ġm l
Ġw ing
ĠG elatin
Ġpeel ing
ib ut
Ġlit ers
ĠMac adamia
ĠRock y
Ġgro cery
Ġdehyd rated
O T
f oil
c heese
r ich
s ee
el le
Ġsp ace
ass ail
ĠShort cake
Ġpock et
d ew
ĠSl ightly
ĠAvocad o
g i
th in
ĠL oaves
ĠK ings
b ack
em p
Ġres ults
ĠKid s
w ill
Ġl o
Ġflour s
Ġpick led
Ġoverb eat
Ġrow s
Ġpe t
Ġse ams
ĠE nd
Ġjell ied
epend s
Ġdust ed
f tened
ĠT ropical
qu ake
ent ucky
Ġchew y
Ġin c
is ed
ĠCh ile
Ġsp arkling
ĠH el
ĠPretz els
Ġclos ely
ĠPral ine
ĠGe or
Ġm em
Ġsa ut
Ġgrill ed
i ut
Ġsh iny
ĠW assail
ĠSu ey
butter ed
ĠSnack s
ĠSun shine
Ġsaff lower
d epending
t ain
ĠG ourmet
co al
ee k
sc iut
ĠScr amble
Ġl unch
ir rel
Ġpo ints
ud e
Ġscorch ing
Bro ccoli
Ġbel ow
Ġp arsn
ĠB uff
Ġv elveeta
Ġbur ger
ĠJer emiah
att ice
wal nuts
Ġco ats
ĠH ard
10 5
Ġpaste urized
aff y
ĠPl um
ĠCra zy
Ġ?? ?
b b
h ol
Ġ2 9
Ġst ep
Ġj igg
cho colate
p ineapple
w heat
Ġ .
Ġt r
ĠC rawfish
ĠP reserves
ĠT ra
Ġcheese cake
Ġsp ecial
ap ed
Ġk inds
ĠInd ian
sciut to
in ute
Ġhoney dew
ĠE sp
ĠK entucky
est ive
Ġhe art
Ġdirect ly
Ġs lee
Ġt aking
il a
ic le
Ġju g
Ġse ems
ĠCo arsely
ĠAr m
il ar
ĠB aby
ĠT own
ĠT asty
Ġal ways
anan as
Ġmelt ing
Ġconcentr ated
Ġench iladas
ossom s
y n
ĠP im
ee bler
so ftened
b ake
ak en
ĠP ilaf
is ter
Ġbutter y
ef in
ĠL arge
Ġsl ush
ĠE ye
Ġpop s
ĠTw ist
Ch o
mix ed
Ġmon th
ĠS ix
Ġg el
Ġfl ute
ast ed
Ġindivid ually
Ġprod uc
Ġp esto
Ġg ingersnaps
Ġcereal s
Ġtow ard
mix ture
ĠWatch ers
ĠEarth quake
Ġb undt
Ġch owder
gar nish
Ġd ra
Ġbl ocks
ff les
ah ini
Ġ1 50
ĠL amb
ĠTh ank
ĠEng land
St ir
Ġsecure ly
2 6
p ie
ĠB ig
ack y
ĠShe ph
ĠGran ola
b ble
i ger
Ġf e
ĠB ord
Ġturn ip
Ġtin foil
Ġreach ed
Ġpull s
Ġsu per
Ġhe avily
Ġh oriz
Ġle g
ress ed
Ġgo es
bro ccoli
E asy
Ġst ream
Ġmeat y
ĠK iss
Ġwa ffles
iscuit s
ĠPro sciutto
E yed
ĠB ourbon
col ored
ach ine
ĠBe gin
Ġfollow ed
Ġabsorb ent
sk im
G ood
al o
or tening
et h
co hol
Ġother s
L ayer
ĠB one
Ġfl uted
ri pe
ĠR eal
ĠF ant
Ġsc iss
Ġopen ing
ĠPer r
ĠD efrost
Ġju icy
ĠF ingers
ĠSp onge
ĠGoo ey
an ted
ing ton
le g
un baked
Ġremain s
ĠK eebler
Ġkn ives
ĠSouth w
ĠShort bread
ĠThin ly
Ġjack ets
ĠPenn ies
ĠLingu ine
Y ields
\ .
n adine
u gs
ĠM ade
Ġany thing
Ġesc ape
' re
B utter
c al
Ġb ird
Ġpec k
ĠE v
ĠSa ucy
Ġli king
Ġfin d
Ġcres cents
ĠDel ights
ĠPet e
ĠHom iny
Ġpal m
M o
Ġf ondue
ĠM ore
ĠF inger
ĠE aster
ĠWor ld
Ġmem bran
Ġt asty
Ġp arch
Ġf if
ip ing
qu id
Ġpap ers
amp i
rem ove
ĠCas hew
ĠPerr ins
N ot
op ed
stit ute
G reat
f a
Ġv eg
Ġex cellent
Ġbre w
Ġbeater s
1 00
es h
ĠA head
ch ange
Ġgre nadine
Ġ5 7
It alian
tP our
ĠJud ges
A l
Ġin t
it ely
ur st
Ġthicken ing
ĠPh illy
ĠWal nuts
ĠTender l
ĠLef tover
i ato
Ġp uffy
Ġcr isco
Ġn umber
Ġsp onge
ĠH oll
ks c
ĠSo y
Ġac id
ĠCol ada
ĠBur ger
s et
ĠB ag
ĠGr ated
efin itely
a que
c on
p art
ĠD ilute
col ator
ĠFl oat
Ġknead ing
ĠDe er
ond on
pec ially
iato re
a ith
d y
m ate
Ġp res
Ġm enthe
amon d
Ġpo d
ĠEgg nog
Ġchar coal
ĠBord en
W h
ĠC arb
Ġe ye
ĠSt reusel
ĠL obster
ber ally
ĠSc ore
ĠMan icotti
ĠSheph erd
ksc rew
Ġex act
ĠN OT
arin a
ĠSugar less
Ġscr ubbed
ĠGrandm other
k eep
ĠM ound
ĠL ima
na pper
Ġdel ic
Ġprefer ably
ĠWe ight
Ġp iping
Ġl imes
ĠM acaroons
Ġop aque
O range
r ate
w rap
an a
Ġp ouch
gg y
ĠCh ar
ĠCh uck
ves t
Ġqu ail
4 8
Ġw inter
Ġl attice
ĠB us
ĠB uckey
ĠP ace
ĠP rim
Ġshall ot
app les
e ach
Ġo kay
il ver
ĠC acc
Ġd ilute
ĠB its
end ed
Ġpack s
Ġcur ly
ĠSc atter
ĠMuff in
Ġequal s
R a
m ushroom
ĠSp ring
ĠL ondon
Ġbread s
ĠY ams
gin al
ĠRib bon
aver a
) *
A pple
Ġo val
Ġl uncheon
ĠP ina
us k
ch erry
ĠD r
mon ia
ĠBe et
Ġchill i
Ġbr ittle
Ġear ly
ont ally
Ġsciss ors
i ke
s to
t S
w ick
y es
Ġf alls
sp ray
ĠL ite
ĠH ill
iz es
ĠE sc
Ch icken
ĠPier ce
ĠPers immon
Ġf eed
Ġfl u
ien ce
ĠW estern
clu ded
ĠAm ish
l ap
Ġfl ip
umb ers
sh arp
Ġcolor s
ĠSc ampi
Ġind efinitely
Ġsim ilar
4 00
d iced
i or
en e
ĠT affy
Ġun pared
all ow
Ġqu ant
ĠRa isins
ĠTort ellini
ĠPin to
Ġhull ed
ĠStr ata
a o
Ġh azel
ĠH ollow
Ġdrain ing
bl ack
ĠMin ce
uns wick
Ġtouch ing
Ġhoriz ontally
n er
Ġw ere
Ġw anted
Ġst ar
Ġst eep
ĠR ap
ĠR ye
ĠCh ach
ip es
ĠN achos
ĠTw in
aj itas
f ried
Ġf ancy
ĠC av
ĠD uring
im um
ĠTr iscuits
ĠLen til
c er
e en
ĠF ull
ub stitute
tr act
ĠY our
Ġam monia
Ġwon derful
Ġdistrib ute
Ġt ry
ĠB ananas
ell en
Ġcr unch
ĠV inaigrette
Di abetic
3 5
P ec
g ed
Ġst eel
est ring
ĠBr unswick
Ġneed s
ĠScall ops
!! !
ĠStart ing
Ġwon ton
ĠLi ver
ĠCacc iatore
A pp
B l
b ird
ar ro
es ts
Ġin cluded
ĠSt raw
ĠCho ice
Ġins ides
Ġsteam ing
strawber ry
p r
w urst
Ġt uck
at zo
ĠS mall
qu ila
Ġtender ness
ĠV irgin
Ġagain st
Ġcor kscrew
ron icles
ĠFettuc cine
Ġimp ortant
Ġflu id
b ons
le ase
ĠC ereal
Ġpe ek
ĠT ry
ĠBl ond
Ġdes ign
Ġkid s
ĠRo y
ĠCan ned
Ġrot ating
Ġrun ny
ĠHar vest
ĠPrim avera
ĠC ord
ĠM orning
Ġv ar
Ġsh elf
ĠR ellen
ĠCh ipped
ĠCh ampagne
ĠCh ronicles
asser oles
ĠJ ew
Ġes pecially
ĠTenderl oin
a ire
Ġj oin
per ial
Ġdeve in
Ġfile ts
e ady
g ers
il le
Ġso le
ash ell
b aking
e ver
l on
ol f
Ġthick ly
ĠSeason ed
Ġris es
ĠWa it
euv res
Pec an
g ur
on ion
ĠSt ep
Ġro ck
Ġ12 0
und les
ĠMin ts
Ġslee ve
ĠChach ere
p owder
ĠF ondue
Ġtender s
Ġjelly roll
ĠGl or
Ġjulien ned
3 00
g rain
ĠP esto
Ġcon verted
ore n
Ġpour ed
Ġwa it
Ġtw ists
Ġend ive
ĠCro quettes
Ġster ile
anda ise
Ġparch ment
Ġm ill
sp ace
Ġst re
.) .
av arian
Ġsqu irrel
alor ies
ah um
Ġprefer ence
Ġfif th
ĠRap id
t w
t Mix
ĠS uc
ĠOri ginal
ĠPowder ed
ming bird
t R
er ne
Ġd ec
ab l
ĠH ay
Ġcon es
ĠIm perial
len da
ĠHum mingbird
Ġexact ly
Ġn achos
Ġgr oup
ĠR ain
ien t
ĠSt and
ĠL or
ĠBis que
ĠCon densed
Ġflower pot
ĠSm other
ĠChew s
Ġequ ally
i us
Ġc asseroles
in ess
Ġt ong
il t
ĠC it
ĠB un
Ġsa ved
ab ag
ĠO ut
Ġde ter
Qu ick
ĠTre at
ĠFran ks
Ġdep th
O ne
b atter
f ir
ĠB or
ĠP izzas
Ġwh ere
ĠV er
Ġen rich
Ġgl ue
Ġhead space
ĠMin estrone
Ġparsn ips
ĠHoll andaise
Ġm ug
le ave
ĠB avarian
Ġsh ow
ĠR uth
ab isco
ĠF estive
Ġstem med
Ġcall ed
e er
ĠT acos
st and
Ġre g
ĠStick y
Ġman uf
R ise
i ar
m ers
Ġo melet
Ġch ange
ve get
ĠD ew
ack s
em ber
Ġup right
ĠPean uts
Ġwra pper
ib b
ĠSwans on
Ġmanuf act
Ġp ale
ĠP ops
is ters
Ġun mold
ĠI da
ĠH ome
Ġstand s
Ġtub s
ĠRom a
ĠBon n
Ġenrich ed
M inute
s ter
Ġm aker
Ġv inaigrette
Ġcauliflower ets
Ġpart ies
ĠBur ritos
Ġint act
g ot
n ier
Ġch oriz
ĠC alories
all on
ĠCh est
ĠCh olesterol
Ġsp ins
ough y
Ġx xx
ĠE leg
ĠSc ones
ĠMin cemeat
wh ich
ĠPan cake
ĠFrit o
ĠCat fish
Ġdecor ation
ĠWa fer
Ġmanufact ur
t ine
Ġm ussels
al ity
Ġf aith
le mon
ac es
ac ao
cl ude
Ġind ent
ĠJul ius
ĠPorcup ine
Ġhazel nuts
b eat
Ġc rowd
Ġs izz
re ath
up s
ĠCh erries
Ġhal ibut
ĠJ ar
ĠK ielbasa
Ġli berally
Ġpro ced
ĠWash ington
ĠMar nier
Ġsw iss
ĠWon derful
ĠVirgin ia
p ut
Ġt ahini
Ġw he
Ġsugar ed
Ġpl ump
Ġice box
Ġwork ing
ĠToast ed
um e
Ġr are
ĠH old
Ġk iss
S w
or p
is bury
ĠN abisco
Ġcontain ing
og en
Ġcrab s
ĠTort illas
ĠCit rus
d own
g ent
n old
as ant
ĠF ig
Ġsweet en
ĠCorn meal
ang ing
St uffed
Ġcombin ing
Ġte quila
w rapped
Ġc our
Ġt aken
ild ren
ĠMold ed
Ġdist illed
Cho colate
ĠStraw s
6 0
S h
Ġm achine
Ġf ix
ĠB irds
Ġbro ad
ĠSe lect
aj ita
Ġproduc t
ĠCord on
Ġproced ure
Ġs ilk
Ġg as
Ġst retch
Ġj un
sh aped
ĠSal isbury
ĠN ahum
Ġbris k
ogen ized
' ll
t i
ut abag
ĠS ue
ĠP ass
ad o
Ġpudding s
Ġsalad s
ĠN umbers
ĠIt al
Ġbul gur
ĠQues o
" )
Ġc ould
it o
ĠP ate
to ps
Ġsh aker
ĠL ily
ĠH and
ĠCool er
ĠCream ettes
Ġper iod
Ġhollow ed
ĠFil lets
Ġdisapp ears
ĠArm our
g l
i pping
Ġs ink
an ks
Ġh ouse
ĠR abb
ĠSp lenda
Ġcover s
ĠTh at
ĠMeat ball
Ġcas ing
Ġfast en
ĠSaut erne
Ġsho estring
got ten
1 10
d itional
ic ally
or es
as ts
ĠP aul
av a
ĠK risp
ĠPim ento
Ġsalt s
ĠP icante
is quick
ĠW ieners
col d
Ġcorn er
os ition
Ġhand ling
Ġdri p
Ġbroil ed
Ġwhisk ing
ĠTw ice
Ġscrap ed
ĠOys ters
ĠHo bo
stand ing
f etti
and el
Ġfl uff
ĠH a
Ġcom ino
ng th
Ġflat tened
ĠHar v
fa it
ĠRabb it
Ġb ought
Ġm atch
ĠB ubble
ac ed
ĠD O
im ent
reez e
Ġpick s
fl ake
Ġcontinu ing
ĠC rowd
ĠS ome
Ġsauce pot
ĠF riendship
ĠL ush
Ġex p
ĠK abobs
ĠV egetarian
ĠFor gotten
ĠFl ip
Ġdi ppers
ĠMin utes
Ġback fin
Ġdiscard ing
ĠMillion aire
ĠJer ky
au gh
ĠChunk y
ĠHarv ard
C l
Ġp rop
ĠM arb
ien er
ĠF ries
Ġk ale
Ġcher vil
ĠTh ere
Ġcontain s
Ġevapor ates
ĠFl oren
ĠMon ster
Ġherb ed
p let
z il
Ġf rench
ra ight
Ġcrumb les
ĠG ingersnaps
Ġpeel s
Ġgrill ing
Cr ust
Ġpier ced
sto ck
ĠRain bow
ĠSmother ed
it ies
ri en
Ġr ather
Ġsm ashed
Ġpart icles
round ed
Ġdrum sticks
Ġmanufactur er
a gg
h ard
m m
Ġs izes
ou d
Ġv e
ra ps
st uffed
if orm
Ġex change
ĠSh erry
ĠButter cream
ĠRos emary
ĠRapid Rise
Ġs at
Ġm outh
Ġd epends
ĠB ush
ĠCol or
Ġrese m
a is
Ġp ic
Ġf un
Ġf riend
ĠC ry
Ġl a
ĠPe ople
Ġprun e
Ġfrost ed
Ġhom ogenized
ĠBar ley
Ġomit ting
h er
n am
s on
t Stir
Ġm ine
ĠB ottom
ĠT akes
ĠCover ed
Ġim pro
Ġper colator
Ġskew er
Ġb uck
Ġd irt
Ġpick ed
Ġget ting
ath y
Ġvegg ie
ĠBuff alo
v ious
Ġg in
Ġun iform
ĠW acky
Ġse ashell
ew h
Ġfin al
ĠButter nut
ĠBr ick
Ġpat ience
ĠFin ally
abl is
R itz
g rated
u ke
Ġm atzo
re ts
ĠT sp
ĠD eath
ĠH ors
Ġbread sticks
Ġser ves
Ġapp ears
ĠO ther
Ġturn ed
ĠDill y
ĠSmok ies
B rien
ĠT en
ĠW et
we iger
Ġra v
ĠE very
ĠJ u
Ġspread able
Ġmeas ured
Ġsection ed
.. .
ĠRellen os
C orn
E gg
l ite
m in
Ġ =
pp os
Ġv egetarian
ĠF ajitas
em ble
ĠSaute ed
Ġcann ellini
Ġtri fle
es law
ro ot
ĠM aster
ver ly
Ġth row
Ġso ap
ĠG u
Ġbroil ing
Ġgo ing
Ġtam ari
F rench
ĠB arb
ĠP ep
ĠP ig
ĠW inter
ĠF ud
ress ion
ĠTh ins
for t
ĠBuckey es
veget able
O n
p ound
s m
ro of
oo t
ill ing
Ġr ubbed
ĠBl ender
Ġcol eslaw
pre pared
ĠBra zil
Ġrav ioli
in ce
Ġp aint
Ġm ot
and s
Ġch urn
le ans
ĠCh ablis
Ġsp l
ole o
Ġro pe
Ġstand ing
12 0
ĠDo zen
ĠCrisp s
ĠHay st
g ian
ic a
Ġto st
ĠB ut
ĠP arm
Ġfl esh
ĠR ey
ĠF oil
ĠSt ring
ĠL ady
Ġlett ing
Ser ving
ĠEx tra
Ġcryst all
P e
l er
Ġs napper
Ġmin estrone
col or
ef ish
Ġskim med
Pot ato
Ġrequ ired
ĠBus y
orp or
Ġresem ble
ĠRey nold
Ġf ound
it an
Ġsalt y
ĠF un
Ġse m
op e
ĠO le
ĠBl anch
ĠSh ortening
ĠCar ne
Ġcann er
Ġhamburg ers
Ġbur gers
Ġdecor ative
ĠCres cents
ser ving
ch weiger
wn s
ĠF ancy
ĠF unnel
Ġsl ab
ĠRoll ed
Ġstock pot
uns chweiger
Ġfil o
ĠHell o
ĠSun da
ĠLi ke
ĠRot ate
C ream
ĠC rispies
it ic
ĠB udd
ĠM ust
Ġsh ot
ĠD ole
Ġbeef y
ĠL in
Ġup on
ĠMo st
Ġri p
ail y
Ġhand fuls
Ġhard ens
ĠUn wrap
ĠOr leans
ĠTot al
ĠBon bons
eth ing
o pped
Ġc al
Ġb ush
ou ille
Ġ3 70
Ġg old
ĠB el
to se
Ġsp iced
ĠBl an
Ġpre vious
ĠN og
Ġbag els
ĠSl it
ĠRoy al
b ite
Ġe ff
ra Sweet
Ġthick est
Ġunder standing
Ġsteam er
Ġsom ewh
Ġchoriz o
Ġbrisk ly
b ut
us ed
ch i
Ġsa fe
Ġpl ant
Ġare a
Ġsom etimes
i ra
p acho
Ġm ight
Ġl ye
Ġfl o
ĠM ull
ri ps
Ġr icotta
Ġr utabag
ef lon
ĠH orseradish
az pacho
ĠCon go
ĠPl ain
Ra isin
Ġm ush
or a
Ġd aily
ĠM ark
Ġst raight
ĠPe ek
ruc tose
eath er
Ġparboil ed
A merican
s lightly
Ġo ur
re ak
Ġf ructose
Ġfor ks
ĠBl ossoms
uck le
Ġmet hod
ĠCarol ina
Ġbrew ed
I da
V ery
Ġ iced
ĠR ose
ĠSp eed
ĠE venly
Ġsc rew
uch en
ĠCom plet
Ġho isin
B aked
B atter
D on
i ppy
m ber
t ou
w arm
Ġch oose
ic ient
ĠT ap
Ġr inds
ĠCho co
alf a
ĠEleg ant
ĠFloren tine
H igh
f alfa
g ia
g ran
Ġsu ey
ĠG en
ĠN ight
ĠReynold s
M ar
b el
t Sp
Ġp ol
am ount
Ġl ose
Ġcan e
ĠW edges
ur ry
Ġal one
ĠFrost y
gi ving
Ġinc orpor
ĠEv ans
S ugar
g allon
v itic
Ġt ines
Ġst ain
Ġmar k
ĠG azpacho
Ġal falfa
Ġginger bread
ĠN illa
ĠCom stock
Ġwe ight
Ġstre ngth
vitic us
Ġsu ff
ac ing
st al
Ġcar ob
ĠN uggets
ĠGre ens
Ġpound ed
Ġthread s
Ġsomewh at
Ġto ts
ro ck
Ġso ggy
em i
Ġdough nuts
ĠFruit y
ĠGraham s
usc ious
spray ed
c us
m ly
Ġ2 7
as ing
Ġv ent
ap es
ĠL ove
ĠGr am
Ġcro iss
Ser ve
hyd rate
Ġpier ce
Ġquant ity
at i
ou da
Ġe yes
he asant
ĠM am
om an
ĠV ien
ĠCorn ing
Ġac ini
Ġtowel ing
be an
ĠTart ar
ĠItal iano
M ake
m ake
r ano
Ġ rain
Ġs ilver
Ġh um
ra ine
Ġst op
Ġsh ank
Ġsh anks
ant a
ey e
ĠFl ank
ĠNut meg
ĠCl oud
ĠPl us
ĠDirt y
V egetab
Ġf ajita
ter y
Ġg olf
Ġv ol
ĠCh utney
ĠD uck
ĠD ark
ack er
Ġcaramel ized
ĠWork ing
ĠWa verly
m akes
ĠM ounds
Ġmin ce
ven der
ĠG all
pl us
ĠMini ature
Ġshav ings
ĠFettuc ini
Ġstor age
ĠGeor gia
Ġpops icle
ĠGlor ified
Ġreg isters
( "
s oup
Ġc acao
ĠFruit ed
ĠCon fetti
ĠMar gar
Ġ23 4
ĠThan ks
ĠLor raine
ĠParm ig
Pe pper
tou ffee
l in
u ra
Ġm icro
Ġf ig
ĠS ex
ĠS ubstitute
Ġl adle
ĠD ad
im an
Ġcar e
est yle
ĠSweet ened
Ġdel uxe
ĠEsp resso
i as
l t
l ayer
s al
t ip
t ips
Ġt ied
Ġb uy
Ġf rit
Ġl augh
Ġdough nut
ĠTh row
Ġpro of
ĠBlond e
Ġtong s
Ġsuff icient
Y um
Ġ Q
ĠT eflon
id s
if ter
Ġhal ve
ĠJ ean
Ġrec omm
Ġdi amond
ĠNut raSweet
Ġbur rito
Cl ub
c ous
e ither
f old
Ġb u
am els
ly cer
ĠF ool
Ġdry ing
sa iah
ĠAl as
Ġscal ding
ĠPl an
Ġscr amble
ĠThanks giving
c ks
t D
Ġm acaroons
at el
ĠB oy
ĠT ips
Ġun roll
us ing
Ġr oughy
id a
ĠL ee
me mber
ĠBrand y
Ġsn ap
ug u
ĠNe iman
ĠLast ly
- -
c a
t or
Ġt on
Ġt reat
Ġm as
Ġg izz
Ġun seasoned
Ġn or
ĠW el
Ġju iced
Ġcrack s
Ġq ts
ous cous
reser ving
Ġfil et
ĠBra ised
ĠJohn ny
skin less
Ġdeter gent
Ġindent ation
ĠHa ppy
ĠHayst acks
Ġvol ume
h ouse
p opped
Ġt ra
ar ole
Ġ3 8
Ġh us
Ġcr imp
Ġth ose
ĠO regano
Ġtab asco
ĠAl a
Ġne ver
ĠOp tional
ĠJew ish
; \
C ool
gar lic
sp rinkle
Ġg lycer
Ġn uggets
Ġwh iz
ĠIn n
Ġk ing
ĠSh oo
Ġrec ipes
Ġfold ed
Ġcrock pot
ĠCre pes
yl v
Ġcour se
Ġstain less
n on
re al
Ġun wrapped
uc ks
ĠR ounds
ĠCh ildren
Ġ6 4
ĠL uscious
ĠG ouda
ĠE touffee
ĠButter ed
Ġhard ened
ĠSnow balls
ĠSouthw estern
ĠSunda e
O euvres
P re
a ut
a ur
r at
Ġ read
Ġch anges
ĠP ur
Ġmin us
ies t
ĠO wn
ke ts
ĠGr ass
Ġaddition s
Ġuns liced
ĠHe art
ugu ese
G r
Ġs and
Ġw id
ĠS anta
om etimes
ap er
Ġ16 0
Ġqu ality
Ġpinch ing
Ġbring ing
ĠPepper mint
ty pe
ĠSteam ed
Ġdecor ating
Ġholiday s
Ġpic nic
I nch
d ark
s our
Ġp li
Ġp urch
ĠC or
red ded
Ġbak es
ars hmallow
ĠBrown s
Ġper fect
ĠFant asy
Ġmembran e
Ġdelic ately
ĠIda ho
Ġjun ior
ĠSpeed y
b ook
c ub
w ood
Ġo ppos
or iginal
ion eer
ĠM ember
Ġsmooth ly
Ġgi ves
Ġkind ness
ĠSmooth ie
ĠHamburg ers
B ean
ĠC enter
um n
ĠO ats
ĠK et
ĠTo pped
Ġpine apples
Ġbas ic
Ġg oose
is weet
ĠD olly
Ġhot ter
Ġcl ing
ĠCar amels
acc ording
ĠSec rets
rec t
ĠTwink ie
ĠBo x
Ġfe et
ĠBonn et
Ġeff ect
h an
Ġg ame
Ġmin ts
Ġal cohol
Ġpap aya
Ġpinch es
ĠDri bble
Ġsift ing
ĠWater melon
ib by
ĠAlmon ds
Cook ies
yl er
Ġbrick le
App etizer
ĠLin da
Vegetab le
a fter
r ice
t ie
Ġs ifter
Ġw ipe
le vel
all oped
ĠSt rips
Ġcrack lings
Ġhe al
ind ow
Ġacc om
ĠPop overs
Ġcirc ular
Ġveg ies
ĠCry stal
f ollow
l ins
l uck
t B
t to
Ġm ult
ro l
ill i
Ġmin s
ook s
ĠCh i
ĠO R
Ġpl ay
Ġpre baked
Ġen cl
Ġcol ada
Ġomit ted
tw o
Ġcrystall ized
ĠParmig iana
Ġpli able
D ough
L ime
s i
Ġt anger
ar ing
Ġd red
ĠB ak
Ġh un
ĠA ut
ch atel
arm alade
ĠG ri
ĠStew ed
pr int
Ġsem isweet
Ġoppos ite
C oc
Y ield
s qu
Ġp u
on z
Ġg ent
ra spberry
Ġat t
sh ould
Ġab le
Ġ24 0
Ġscal d
Ġdoub les
ĠVegg ies
Ġsom ething
rip ture
Ġ1 10
Ġp ass
ut ure
ad es
Ġover lap
Ġspoon ing
amp le
ĠSnow ball
uf chatel
ĠPic nic
F ly
d eep
m o
p our
an ia
Ġf eel
Ġpepper on
im ate
ach er
rink les
ard i
resh ing
ĠJ if
issol ved
ĠSc ripture
Ġcre pes
Ġhel ps
Not e
on ly
Ġf uture
le af
ĠChe f
ĠButter fingers
Ġsc ore
Mix ture
Ġcoll ard
Ġdra ft
Ġo b
on a
ĠB B
ĠCh urch
ĠSt ar
ĠUn der
ĠUn baked
Ġsubstit utes
ĠRuss et
Ġcre ate
Ġbri ght
Ġmango es
flour ed
Be ef
Ġreplace ment
! ).
Ġc ured
Ġp en
Ġpe pe
ĠB ill
ĠP it
ĠP ioneer
ĠA le
ĠZ iti
wh ipped
Ġplac es
Ġpock ets
Ġgu ests
Ġjigg er
ĠPep si
Ġbush el
' ve
H e
S a
b led
b ottom
h al
Ġc ase
Ġm ic
ĠM icro
ĠM armalade
Ġth ing
ff e
Ġcl usters
ĠO w
iv ely
ĠUn cooked
Ġcre pe
Serving s
O ld
d ivided
i ber
s ifted
u es
z e
Ġt ater
Ġbutter f
ber t
ĠWh irl
Ġcut let
Ġsl ight
ĠE lephant
rop roof
Ġbag el
Ġgl oves
ĠBeef y
ĠSweet en
Ġdamp ened
ĠHel en
Ġxxx x
gl ass
Ġspl ash
Coc onut
Ġmic roproof
P ean
er o
en ted
Ġa u
Ġa verage
Ġcont rol
ext ra
Ġ36 0
ĠJan e
ĠBB Q
ĠS in
ĠP aint
ĠD an
ĠG um
ĠBro th
ĠN ana
row root
Ġbra unschweiger
arro ts
ĠKrisp ie
ĠTap ioca
Ġlaugh ter
P am
h old
Ġs imple
Ġb irds
at elli
Ġth ink
ĠF it
ĠL ace
ach es
Ġsc atter
Ġar r
ĠCrust less
Ġ23 8
ĠEsc alloped
l ers
Ġb or
il es
sp ic
ĠS ilk
Ġmin imum
Ġst uck
Ġgr ater
Ġso aking
Ġbo dy
Ġcon ven
Ġis n
ĠK uchen
Ġcontin ually
Mex ican
Mar cus
H ot
t Cook
Ġt acos
es is
Ġa j
ill o
ĠI saiah
li quid
Ġprepar ation
ĠTo fu
ĠSe ar
sc ar
ĠQuick ie
uns alted
ĠCl oves
ĠKid ney
Ġesc arole
D el
d rop
t T
Ġp ra
Ġm ugs
ou ff
sp read
om a
th ick
ĠW are
ĠSt eep
Ġshred s
ĠPre cook
ĠN on
Ġen amel
ĠY am
Ġar rowroot
ĠSto p
ys tery
ord fish
Ġrain bow
) (
C auliflower
C rock
M e
R ec
S oup
it al
ra ft
ĠI ced
Ġy et
co ated
Ġan g
oss um
Ġdro pping
ĠFir mly
strawber ries
ĠHill shire
nam ents
ylv ania
ĠKet chup
ĠAut umn
s ylvania
ĠA ss
Ġst eady
ĠL ibby
sh redded
Ġbou quet
Ġsec ret
for d
Ġtri ple
Ġstring s
ĠMan wich
Ġdecor ations
cream y
ĠLingu ini
Ġdistrib uted
Mo ist
ĠFool proof
Ġgizz ards
Pean ut
L et
W ith
b r
al mon
Ġf ar
ĠC rinkles
ĠS ize
ĠB ark
ĠM ystery
ĠO scar
ĠN ectar
Ġchill ing
ĠCho y
ist rib
Ġpin a
ĠMarin ara
ĠPl ant
ĠCre m
ĠChew ies
Ġvar ious
Ġjoin t
ĠChest nuts
ĠMarb le
ĠMull ed
. ;
b anana
Ġp ile
Ġd ots
ĠP res
Ġh ors
ĠJ umbo
ĠCheese cakes
Ġhand led
ĠCrush ed
ĠDon uts
Ġfinger tips
Ġsauc er
ĠGo es
sm ooth
ĠPlan ters
Ġgent le
ĠOw ens
ut ing
gg es
Ġn ect
Ġex ten
Ġfin ally
fection ers
Ġchest nut
ĠApp roximately
ĠDor ito
Ġwra ps
ĠNe ufchatel
ĠLe viticus
bro ken
ĠTr uff
Ġsnack s
Ġprop er
ĠComplet ely
gran ulated
arshmallow s
ĠGri ff
Ġpepperon cini
istrib ute
V elveeta
z os
it ting
ĠW yler
Ġsp ear
ĠSp ry
Ġwhit efish
Ġcon d
arin es
Ġcons ider
ĠCrumb s
ĠFettuc ine
G l
J ack
a pped
m ust
and ar
Ġf ur
Ġf ield
ĠT arragon
Ġun popped
Ġgr atin
ĠW eek
ĠN ice
og i
uns ifted
ĠWill i
ĠWheat ies
Ġfit ted
riz e
Ġ26 0
Rec ipe
U n
t until
Ġc ouscous
Ġb ud
Ġp are
ĠS ort
ĠP ita
Ġh er
ri f
Ġbut cher
Ġpinto s
Ġits elf
ingersn ap
whe el
ĠChar l
ĠBrick le
lt imate
2 50
m ies
w ash
ĠC am
im in
Ġsour ce
ĠCut lets
ce an
ĠCorn flake
Ġ17 0
rid e
Ġrib bon
tP lace
ĠVien na
D uncan
z etti
Ġh ush
ell s
ell y
til age
nd a
Ġre lease
ĠF le
id ed
Ġheat proof
ĠG ather
Ġcar ne
sh ake
ĠU ltimate
Ġbr unch
Ġfour th
egg s
ĠDill ed
ĠScr ambled
Ġbur ritos
Ġcounter top
Ġcoll ards
ĠMade ira
Ġnect arines
R o
f ire
u gel
Ġcho pping
ie ved
ĠD istribute
ĠSp routs
em ove
ĠE ven
und le
ĠGre y
ang ed
ĠCom pot
ĠLog s
ĠPort uguese
Ġfe els
Ġrecomm ended
andar ins
3 1
b ably
g ra
l oaf
n eck
t ata
w ie
Ġc amp
Ġf ace
ĠC ant
ĠB undles
is ch
ĠA spic
Ġat tract
ĠR est
ĠD ian
ec ially
ĠTh umb
Ġsepar ating
ivid ual
Ġgrain y
ĠMarshmallow s
ĠGl ass
ĠEn ough
crumb led
ĠArtich okes
ĠPark er
Ġbutton s
bb les
ĠBor ax
andel ion
ĠGriff in
A n
O p
w ine
Ġt end
ĠS op
Ġg ift
ur key
Ġcar tilage
we gian
ant ime
li ed
ĠE as
oil ed
ĠDo es
urt les
Ġbul b
ĠRe qu
Ġgo at
ĠPenn sylvania
ĠMost accioli
ĠCompot e
T om
Ġb ibb
Ġb isquick
Ġm iracle
re f
ra isins
ĠW est
ĠW agon
ĠV iv
ĠN ature
ĠY ear
ful ness
Ġcomp ressed
ĠFl ounder
irt y
ĠCom fort
ĠSnick er
rat en
C ol
F l
M y
Ġg her
ĠB ird
un covered
Ġh ad
om argarine
ie v
ĠW indow
Ġsp ots
pple ment
ĠH ens
op ez
co c
Ġole omargarine
bo ard
Ġdump ling
ĠLi quid
ĠCav iar
Ġbuck et
ĠFud gy
Ġpurch ased
ĠCrem ora
B anana
f our
Ġc y
ĠC ola
Ġa ge
ĠP ost
ĠT er
Ġcho y
ĠF ire
qu arts
Ġdish pan
na pp
roxim ate
bl ue
ĠCrust y
add y
ĠMar aschino
Ġcheck ing
ĠQues ad
powder ed
Ġfrit ters
B est
E x
E ner
Ġ ut
Ġp ray
Ġm a
Ġm andarins
ĠT urtles
Ġv is
et hod
Ġth inned
ĠR anger
ast a
me asure
ĠG od
Ġcl aw
Ġpat ted
stit uted
ĠSm ash
Ġcas ings
Ġcurd le
ĠSuc cess
Ener gy
2 7
l ice
ch unk
ven ess
ers ion
boil ing
ĠTr ash
ĠBlan ket
e ter
f ound
l ong
Ġb undle
it er
ĠS ol
ĠP en
Ġco bbler
ĠW rapped
if ts
ĠL opez
Ġk aro
ĠO ur
let t
Ġdirec tion
ĠBread ed
Ġmash ing
ĠFor est
ĠFl or
ĠPat ch
Ġac ting
ai qu
Ġlin er
ĠMary land
ign on
Ġpal ms
ĠGeor ge
Ġsquirrel s
Ġmot ion
wie back
isch mann
E agle
H am
W e
t with
in tz
Ġt re
ĠS us
ix ie
ĠP a
ĠP i
ĠP ock
ĠP igs
Ġn ine
Ġsh aping
Ġre n
Ġse ar
Ġcl ings
weet ened
ĠSa u
Ġset tle
ĠPe ars
Ġfat back
Ġcro quettes
ĠSugar ed
Ġallow ed
Ġret ain
ĠMar ie
Ġstack s
ĠPur itan
Ġencl ose
ĠWilli ams
m arshmallows
s alted
Ġs ac
Ġt ropical
Ġp heasant
Ġd ef
ĠS ens
Ġgre asing
st ems
qu arter
ĠI i
Ġy ear
ĠH olly
ul ous
ĠK osher
Ġstand ard
erb raten
ĠCl ams
add ed
Ġrot elle
ĠSeaf oam
ĠSec ret
Ġpersimmon s
Ġsmok ing
Ġincorpor ated
Pepper idge
napp s
i ri
s eed
s epar
v irgin
Ġ arm
Ġs we
Ġp izzas
on stituted
Ġw iener
it ake
ĠP rize
us ually
Ġh ang
Ġ4 2
Ġse em
ĠWh ipping
ĠK l
ĠGra p
ĠCan apes
do bo
Ġtri p
ĠAn tip
Sw iss
Ġrutabag a
cub ed
4 50
C ar
f illed
l s
Ġt arts
Ġm ess
Ġm ang
Ġf o
ĠS ally
ĠT emperature
ĠT uck
Ġgr am
ĠW reath
im ents
Ġcon e
ĠWh iskey
ĠE m
ĠK ar
bl end
Ġmarin ating
ĠOli ves
ĠSand ies
gi veness
ĠCarb o
Ġsat iny
Ġcroiss ants
Ġbor der
ĠFlor ida
Ġc atch
as to
ĠS an
ĠB our
all ions
ĠR at
Ġco bs
Ġr ame
ab ulous
ĠF ri
Ġz ip
Ġscall oped
ĠMar zetti
ĠMa id
ĠFlavor ed
Ġmang os
a id
Ġb ass
Ġg ifts
Ġcan ister
ĠD av
ĠV an
ĠPre p
ĠN ancy
Ġcom pany
Ġcomp le
ĠSc ott
az ing
reser ved
ĠRa ise
Ġscoop ed
Ġpull ed
Ġris en
ĠSuper Moist
Ġappear ance
Ġsim mers
ĠSouthw est
Ġmembran es
Ġwhe el
aur ant
ital ini
L o
f itting
g ing
ĠC le
ell er
ri a
ĠF e
Ġadd s
inn y
ĠH en
ĠSer rano
ĠE ither
Ġsc raps
Ġdri bble
ran berry
oy al
ĠSepar ately
Ġsqueez ing
ĠStro mb
pec ted
Ġcit ric
met al
Ġstor ing
imp ly
usk i
Ġaccom pan
Ġcy cle
C o
C he
O atmeal
w d
in clude
Ġt im
ro wn
ĠM ich
Ġh ere
to sh
ch es
ĠCook er
ĠK ugel
Ġde velop
ĠTurn overs
ĠRe ally
ĠRub y
atur ated
over night
ĠFast en
Ġimpro ves
ref riger
4 25
_ _
c eed
g an
m ini
m ettes
w ard
Ġm ove
Ġm alt
il s
ic il
am arina
Ġd ressed
Ġro se
ĠSal ami
Ġrais ed
Ġcro ok
ĠWith out
Ġhigh est
ĠFarm s
Ġfettuc cini
Ġway s
ĠFrit tata
ik k
ĠFran k
Ġhow ever
ĠCa vender
Ġbitter sweet
Ġpet ite
Ġstep s
ĠRat at
f ts
s emi
Ġp ig
ĠM acaroon
Ġbe aut
ĠR av
ag o
tt he
ĠK ol
ĠPot luck
Ġri d
mi um
ĠOn ly
Ġbit ters
ielbas i
be ater
ĠHeal th
Ġsho e
ĠSch ool
yn es
fir m
Ġhus ks
Ġmult i
Ġpu ppies
ĠSau erbraten
ĠCarbo hydrate
ĠRatat ouille
Ġbeaut if
8 5
F ruit
F ail
S ave
b est
e qual
n eath
Ġf arm
Ġto aster
Ġun used
Ġst ars
Ġwater y
oup on
ink s
Ġtender ized
ĠAl ways
Ġunder neath
Ġpr al
ĠNor wegian
Ġlift ing
Ġpres weetened
ĠGum drop
ĠAntip asto
c arrots
n ie
Ġb undles
ĠC oll
ĠT emp
ĠM ango
us illi
ad os
ir es
ĠR ig
ĠD ec
ĠD addy
ĠW at
Ġbl ossoms
Ġcar bo
Ġk abobs
ĠCream s
ĠV erm
Ġsoy a
vapor ated
Ġpar fait
tm ix
ĠPol ynes
ĠSch napps
tC ombine
ĠFle ischmann
Op tional
M on
R ed
i itake
l o
Ġm id
at ic
it ter
Ġd ull
ĠP oupon
der s
ir th
et ic
col ates
ĠCo d
Ġsweet ness
Ġother wise
ĠDiv ine
vil le
ĠBur rito
Ġdrink ing
Ġrese al
Th ese
ĠSpr itz
tP ut
tC over
cohol ic
ĠFant astic
Mo zzarella
Ġ upper
ĠS icil
oo ey
Ġh ope
Ġst o
Ġst ops
ch anges
ch uck
th at
st ead
Ġhe arty
Ġsqu irt
ĠFl an
ation al
ĠChil ies
ĠLea ves
ĠAm os
Ġshort bread
ĠPorcup ines
ĠRoma ine
ĠQ ue
Ġconsider ation
Ġfur ther
ĠStromb oli
ĠPolynes ian
3 3
b oth
p int
il i
Ġin verted
ĠC ab
ĠP ul
Ġegg beater
th en
Ġr ubb
Ġbo k
ĠF abulous
ĠSt rip
Ġy um
ĠL unch
Ġk rispies
Ġham mer
ĠJ umb
Ġpl an
ĠN eed
ĠCon fectioners
ĠBre w
ran ean
ann er
ĠCro utons
Ġcryst al
ĠInd ividual
bb ie
ĠEsp ecially
ĠBudd ig
Ġpra wns
Gl azed
Ġattract ive
Tom ato
Ġvis ible
iter ranean
. '
. *
b and
g ood
h a
p ine
er os
Ġt emper
Ġt emp
Ġb ias
re en
Ġd oves
Ġd italini
ĠS imply
Ġl ife
ĠP osition
ĠT e
ver bs
th ird
Ġwh o
ĠD rum
ĠF ont
Ġy ears
if y
Ġbread ed
ĠG or
ag ie
ec ake
Ġcolor ful
Ġpro bably
Ġme antime
Ġinstruc ted
ĠMed iterranean
Ġcit rus
iod ized
C amp
D ish
I ts
M ushroom
t urn
Ġm ellow
at ini
ĠB ug
un ks
ĠA gain
om it
Ġn og
ĠD ixie
ans as
ĠH ickory
ĠCo ffe
Ġcl ay
Ġmeat less
Ġsm ell
ĠTh ick
ens ive
ift een
ud el
ĠSe as
ĠEgg less
ĠJack s
oy a
ĠSn ap
Ġ23 6
Ġperson al
In tosh
ĠJud y
Ġdisapp ear
Sa usage
Ġang le
ĠDian e
ĠViv a
R eady
S o
a wn
c ool
c ord
Ġs ince
an e
Ġw reath
ĠC atsup
ĠB ow
uc c
ts ugar
Ġth ough
ĠR ipe
Ġse lec
ĠSp arkling
ore an
Ġspoon ed
Ġsaute ing
ĠSm oke
Ġgi ving
Ġgarban zos
Ġwil t
ĠWil ted
ĠGen esis
Ġrame kins
Ġcrook neck
ĠWat kins
m ar
n i
p ork
Ġf riendship
Ġd ucks
ĠS ur
Ġe ver
ĠB urn
ĠM as
ĠJ on
oll o
Ġconfection er
Ġsurf aces
Ġsolid s
Ġpull ing
Ġdamp en
ĠPar fait
Ġstraw s
Ġpet als
arro t
Ġfo ams
ĠFont ina
C ut
E R
b acon
c and
h erb
s ift
Ġb uff
Ġm anner
re ck
ĠM ayer
ĠAdd itional
ĠD ab
Ġre ar
ĠIn g
ĠSl ide
Ġstiff en
cr ack
ĠToast ies
be ans
Ġscr ub
ĠBac ardi
Ġdep ression
ĠRav ioli
irth day
6 4
b les
d ouble
f ruit
h omemade
k i
Ġ )
Ġ ide
Ġs ing
Ġe ase
ĠB ible
un greased
ĠT rout
ĠR is
ĠW ell
ĠSt ay
Ġpre ced
ĠTh yme
Ġrec onstituted
ang ria
Ġel imin
ann ie
pro cess
ĠSu pplement
Ġstor es
ser ve
Ġhouse hold
Ġtanger ine
Ġswe eter
ĠSicil ian
Ġsto pping
* *
F illed
G ar
f ill
l ast
n oc
o uts
t rem
er it
il ity
Ġf eta
Ġun less
Ġh aving
ot o
ad illo
Ġfor giveness
Ġwh irl
ĠD ecor
ĠI ts
ĠL and
ood y
Ġmeat ball
ott i
Ġsur round
cr unchy
ĠTw ists
Ġrot ate
Ġlook ing
Ġ36 5
ĠFood s
Ġcav ities
Ġcod fish
Ġrequ ire
23 4
Ġdra fts
ĠCarb on
tR emove
Ġsizz ling
agg ie
aiqu iri
ikk oman
ĠRig atoni
Ġpreced ing
s ts
ĠC ast
ĠB u
ĠP one
ol ks
ad s
Ġfor get
ĠD ie
igh ter
ĠK ir
Ġit alian
Ġsimmer ed
Ġ7 2
pe an
og s
erm its
Ġdark en
ĠAl most
Ġwra pping
ĠWon der
Ġdab s
ĠLeftover s
con densed
Camp bell
ucc ino
s ch
v a
in ation
in utes
Ġg ingersnap
Ġche ap
Ġv ert
ĠD iced
ĠH as
uff in
ĠO h
ĠSoup er
Ġ18 0
ĠPeach y
ering ues
app uccino
Ġwork able
ĠRot ini
ĠPenn y
tC ool
ĠHom estyle
ĠGall iano
noc chi
N oodle
y d
Ġ `
in os
Ġs ake
Ġp ort
Ġsh rink
ĠCh ick
Ġoil s
Ġr uns
ĠF eeds
ĠL oin
ash es
Ġmel ons
ĠWh oop
Ġdish wash
av ailable
ect ac
St rawber
ĠBon eless
Ġspir als
Ġstay s
tSp rinkle
ĠRequ est
Ġreseal able
ĠQue en
M ores
R e
T ime
c il
t ub
Ġs el
Ġo re
Ġt ang
Ġp osition
Ġin clude
Ġd utch
Ġd uty
Ġa ch
ĠS angria
ĠP aste
un g
ĠH azel
Ġsl ide
ĠE ll
Ġgraham s
Ġsepar ates
ĠFl aky
ĠZ ippy
bl ing
Ġ14 0
ĠCont in
ines ap
Ġpul se
ĠTw enty
ond ra
Ġty pes
ĠEx tract
ĠMc Butter
ical i
ĠTra ditional
Ġperiod ically
Ġrip en
ĠSin ful
Ġma garine
oyal ty
Ġrubb ing
ĠCoffe ecake
erit age
M eat
h orn
h oney
t urkey
w or
Ġs ch
Ġm en
at ted
pp a
ĠS elf
Ġpe g
ĠB ologna
ĠM id
ĠM unch
to asted
ĠR ise
ĠD om
inn ers
ĠL ong
Ġsof ter
ĠJ ub
ĠPe ter
ĠMel on
ump t
ĠRo b
wh en
ness ee
ĠCl ay
tm inutes
Ġzest y
Ġsw ordfish
Ġcre ole
Ġsuit able
Ġcav iar
ĠSch illing
euv re
Ġjigg ers
Ġwid th
ĠQuesad illas
ectac ular
" (
M iracle
k ed
s ame
Ġ ess
an na
il ee
ic ama
ĠC rimp
ĠS ara
ĠP izz
is ette
ĠT ass
ĠM ove
Ġj al
Ġsh iitake
Ġover ripe
Ġbl ot
ĠH ow
Ġro ots
av el
Ġpo pping
tz er
Ġdust ing
ik i
Ġliver wurst
Ġpush ing
Ġ29 0
ĠAss emble
Mon terey
i ole
Ġb igg
ut on
Ġd isc
ĠS irloin
uc he
Ġ4 3
Ġsh uck
Ġth ings
ĠD one
ĠD ifferent
Ġr ange
qu ant
Ġapp rox
Ġ12 5
ĠCr isscross
Ġfilling s
ĠRef ill
Ġpin wheels
ĠMex icali
Ġdi abetic
Ġelbow s
do or
ĠCrunch ies
On ion
Ġob tain
ĠGrap efruit
ĠJub ilee
P ut
i os
l b
o ks
t F
t est
Ġs y
Ġs its
Ġo x
Ġt ree
Ġf iber
or ice
Ġd andelion
Ġg m
ĠM ild
us ter
ell ed
ĠR ight
ĠSt retch
Ġ8 5
Ġsl ip
ĠSh ip
Ġdo ing
Ġtur tle
ĠCorn starch
ĠFl ute
ĠCon cord
ĠRe member
ath an
tin to
Ġfrankfur ter
ĠLi qu
ĠBuff et
Bl ue
min ced
Ġbu il
Ġconven tional
C ake
D ay
g ah
p udding
t el
Ġf rag
el t
ĠP urple
Ġun melted
Ġpepper ed
ĠW all
Ġsp eck
ĠCook book
Ġser rated
ĠCo co
ĠO cean
Ġus es
Ġz wieback
ĠDream s
Ġlingu ica
ĠOver lap
Ġass em
Ġmon terey
Ġdecor ated
Ġdecor ator
ho pper
Ġwatch ing
Ġtuck ing
ais y
ĠTen nessee
ĠAlas ka
Ġglycer in
Ġdef atted
8 0
C ranberry
W ill
d epends
Ġt il
pp e
ĠB isc
ge burger
is o
ĠM ah
ĠA corn
om atic
ir ley
redien ts
Ġtom at
ĠSp ectacular
Ġro pes
ent a
ent ine
ĠN ine
ank ee
may be
St ep
Ġdoll ops
Ġdrum mettes
fin ely
Ġdelic ate
Ġfriend s
chunk y
Ġtrip led
Ġsel tzer
B read
K raft
b reak
s olid
u um
Ġc alls
Ġs ort
Ġs ieved
Ġf arina
Ġd raw
Ġ3 20
ĠS ide
ĠP al
ĠT im
ĠT reas
ĠM ain
ĠM enthe
Ġh ol
ot e
ad ina
ien ne
ĠW ar
ĠW raps
st one
Ġcar c
ĠCo ated
ĠK athy
ĠK ikkoman
ĠV odka
Ġit em
ĠChill ed
Ġcom ing
Ġbag u
ĠTurn ip
Ġacc um
ud ges
Ġprocess ing
ĠPat ty
Ġcor rect
ĠSk ins
ĠSm uck
ĠLay ers
ĠRom an
Ġlump ia
Ġimp orted
pie ce
ze ch
ĠSop a
intz es
umpt ious
G erman
G reen
p a
q t
t Serve
t Let
Ġt an
es a
Ġw eak
Ġd isp
Ġl ic
ill er
ot to
ĠR hod
ĠSt ella
ĠL akes
ĠL uncheon
ĠSl ip
Ġhigh er
Ġpat ting
Ġevery one
ph abet
ĠAn ise
ĠAm azing
ĠPier ogi
ĠPops icles
Gr and
ouff er
A nd
B isquick
c arp
o ff
r ami
le ge
ĠB ubb
ĠP ollo
ac uum
ĠM oon
ch op
Ġn orm
ĠW iener
ur b
ĠL ucky
ĠG arb
Ġmay be
ĠSal ted
Ġrefriger ation
ĠY ankee
ĠSh irley
pe aches
Ġdri zz
ĠSk ew
Ġ28 0
ĠEar ly
ĠBo ats
ais er
ĠBarb ara
cand ied
carp one
B S
F resh
L e
f ull
m uffin
Ġs ound
Ġt int
ar ified
es ired
Ġp ilaf
Ġm om
re y
ĠC ount
Ġg ourmet
ĠB ab
ĠT ip
ot tle
Ġcho colates
to f
Ġcan es
ien tal
ĠD is
ĠD aisy
Ġsp acing
Ġcup fuls
Ġcl over
Ġk ielbasi
Ġapp et
Ġref reshing
). \
ĠTh read
ail ey
Ġkn ow
Ġper ch
Ġsubstit uting
ĠGood ies
Sp inach
stir ring
ĠWel ch
Ġtra ditional
Ġpen cil
He art
gra ham
ĠPen uche
C arrot
P h
a ves
g onz
o ven
Ġc yl
at wurst
ut ti
un ge
ĠT ilt
ĠM olly
ĠA dobo
ir in
ĠW ondra
ab ama
ĠSt ouffer
ĠL eg
ars e
ĠH ank
ep tion
oll ip
ĠV e
Ġyellow s
ĠFro g
ĠSqu irt
ig an
bl ended
Ġherb al
ĠCont adina
ĠSmok y
Ġheal th
Ġdred ging
ĠPlant ation
gges ted
Ġpray er
ĠBug les
ĠWhoop ie
Ġnorm al
gonz ola
S al
c elery
Ġs ounds
al oupe
ro ger
Ġv ents
Ġh im
Ġor iental
Ġgr ass
Ġr oughly
Ġsp aring
av ian
ĠBro oks
Ġtender ize
ĠV ic
Ġsc ones
Ġcro uton
ĠMex ico
ĠToss ed
Ġconcentr ates
ett a
app iness
ĠFarm er
ĠDe bbie
Ġburn t
Ġhold ing
ĠHe ap
atur es
Ġmicrowav ed
Ġhull s
Ġho agie
Al so
fir st
ĠBor der
Ġmas a
ĠGrass hopper
Ġren der
ĠKl uski
ĠCast le
Ġbuil ding
Ġsparing ly
A m
P ro
d iscard
w reck
Ġm alted
Ġg ooey
ĠP ri
ĠP enne
ĠT BS
Ġsa ys
ec ks
ĠJ un
ĠK ay
Ġdressing s
ĠN eeds
rop ri
ĠPress ure
ĠAl pine
Ġros amarina
Ġind ic
Ġbit es
Ġfinish ing
Ġpers ons
ĠDoll ies
ĠVer de
Ġplant ains
Ġarr anged
Del icious
ĠCarbon ara
ĠBisc otti
Ġlic orice
Ġcyl inder
ĠTBS P
5 5
c ar
d el
j oin
er ried
Ġm il
re au
on uts
Ġf usilli
he avy
ĠB ailey
Ġh are
ad as
ri k
Ġn est
Ġn ose
Ġj icama
th irds
ĠW inesap
Ġcoc onuts
Ġapp ropri
Ġex pected
fl at
Ġany time
Ġchi ve
ĠAl abama
app a
af e
Ġcap ful
Ġtin ted
ĠHea ven
ĠHel per
ĠTra il
Ġdec rease
Ġmatch stick
ĠMargar et
Ġread s
Ġhun gry
ĠSur round
Ġdishwash ing
Strawber ry
Ġbigg er
I G
d one
g ly
j elly
r d
t hey
Ġc er
Ġt apped
Ġp le
Ġm oon
Ġf an
Ġw eather
Ġ3 3
Ġg ather
ĠB it
ill os
Ġh r
Ġh it
Ġy ield
ĠG ive
ĠG irl
ĠWor ks
Ġset t
Ġdough y
Ġpeel ings
ivid ing
ĠCon s
istach ios
Ġwor th
ĠRomano ff
Ch ill
!! !!
mp athy
ĠMc Intosh
ĠHal ibut
Ġprod uce
ĠPic c
Ġsuper fine
Ġcomple ted
ĠCle ar
ĠGor gonzola
ĠShip wreck
Ġcarc ass
G ran
J udges
K eep
c t
l ukewarm
s lice
z on
Ġb arbecued
al so
ro z
ak a
ĠS na
ĠS ometimes
ĠT oo
ĠM allow
ĠD onna
Ġsp ot
Ġbread ing
av ed
ĠBe g
ĠBoil ing
Ġevapor ate
ĠRo ka
Ġscall op
Ġsoften s
ĠJo an
Ġass emble
ĠNew burg
ug ula
ĠRi ver
Wh en
ĠChest nut
Ġatt ached
ĠThumb print
Ġgher kins
Ġaccompan iment
Ġelimin ate
C andy
O ut
T w
k an
l ittle
m ati
w ashed
Ġ1 75
Ġp ossum
il lets
ĠC appuccino
Ġd r
ĠP ine
Ġmilk s
ve y
Ġsh ut
ĠW inning
ĠL eek
Ġbl ades
ĠH ol
ĠCo int
Ġcl arified
co b
Ġcann ot
bl ers
ez e
ĠOr naments
ĠPro verbs
ĠAn ne
ĠNor th
Ġentire ly
Ġfall ing
Bro wn
ĠEsc ort
ĠCav atini
Ġwhe els
ĠEas iest
ĠContin ental
ĠRhod es
Ġappropri ate
C up
L ike
P armesan
R oll
i pper
r int
s ome
in om
Ġp its
ĠC ilantro
Ġ2 30
Ġpe bbles
Ġh og
Ġst reusel
om on
ĠSt ate
Ġoven s
ĠSer ved
ĠK orean
Ġsm ash
ĠSa usages
Ġpeel er
Ġen han
Ġcran apple
Ġgarnish es
Ġop ened
orb et
Ġrot el
ĠCap tain
ĠPar is
ĠPim iento
allow een
Ġjoin ts
Ġve in
ĠJu icy
ĠSus an
ĠDom ino
ĠCoint reau
inom oto
S pan
g rease
m ashed
o euvres
t add
ĠC omb
el ves
Ġd id
Ġl oyalty
ot al
ot ash
ts t
Ġth ought
ĠCh al
im al
Ġcl ause
Ġk ahlua
ĠK e
ĠPie ces
ĠBl ossom
ĠU gly
ĠRo bert
ĠGra pes
ĠDel ite
Ġgarnish ing
Ġburn s
ĠHerb s
Sp ice
sk inned
ĠStr udel
Ġnor thern
ĠUnder wood
ĠCant aloupe
ĠPock ets
wd ust
ĠCab in
Gar lic
Ġsy mpathy
Ġcer amic
L ay
M acaroni
er al
ed ged
Ġp ail
Ġp istachios
Ġf erm
Ġch urch
ĠC ayenne
Ġsu pper
Ġsu gah
Ġd ividing
Ġ3 4
ĠS ock
ĠM r
Ġh urry
Ġsh ots
ab les
ĠE ast
avor ites
ĠJ enn
ĠBrown ed
fl ow
Ġme et
Ġper k
Ġfil ing
Ġlump ing
ik o
ĠFran c
ĠFran co
Ġmain tain
Di et
Ġinsert ing
Ġquant ities
Ġprevious ly
ĠMark et
tSp read
mo der
Ġaj inomoto
almon ds
ĠScott ish
ĠVerm icelli
ĠIng redients
process ed
trem ely
Ġess ence
eze bel
K ids
Z ucchini
b ul
c ayenne
h and
o e
t In
Ġp yrex
Ġin ner
ĠB alsamic
ĠP le
Ġfl am
ĠM ethod
Ġn eat
st on
Ġy ields
ĠH air
ĠH ermits
Ġred uc
ĠJ ezebel
Ġpack ing
oc atelli
Ġunder side
ĠMa e
Ġsmok ies
mers e
ĠAlas kan
ĠTass ies
R hubarb
d issolved
d esired
j ack
t at
Ġ( .
ĠA tt
mon d
Ġwell s
ach el
ĠH urry
ĠH alloween
Ġcrumb ling
ĠG er
Ġra d
co arse
ĠPre acher
ĠN avy
Ġpast rami
Ġturn er
Ġyour self
ĠSo ap
ĠMex i
ang les
Ġpit as
ĠGl ory
ĠCol lege
ĠLea f
Ġsw ir
ĠCub an
ĠFran kfur
ĠDiabetic s
pie ces
hal ves
Ġbutterf ly
Ġshuck ed
g en
g ie
p ensive
s in
u ge
in ted
es qu
Ġp h
Ġm illet
Ġ2 70
Ġ3 9
ĠS ole
un c
ĠM outh
Ġh rs
ri an
Ġn avel
ap ricot
Ġbl u
Ġal fredo
ĠK im
ĠV ari
Ġsqu id
ens e
ĠBe ar
ĠButter y
oth y
Ġeven ing
sa uce
ĠQu ail
ĠBrand ied
ĠApp ly
Ġfoam ing
Ġgi ant
ĠMilk shake
ĠHe arts
ĠBra id
Ġvari ation
ĠYork shire
Ġrip ened
acker el
Ġher ring
ls berg
Ġvert ically
Ġox tail
ĠHank y
Gran ny
3 6
J er
M ade
f ield
g est
h ere
l aze
p lace
v els
Ġc ajun
ar on
Ġf aster
ĠC umin
ro d
Ġd ream
ĠS ister
ĠS ilver
ĠB ottle
ĠM ist
ĠM ike
ĠR ind
ĠD ep
ĠD ates
ĠF ric
ain ing
ĠL yn
me ar
sh ortening
udd ed
os ed
Ġgra y
Ġli ve
ĠChe er
Ġout door
isc ons
Ġdill s
Ġbr atwurst
Ġar ugula
ĠPepper ed
burg ers
od y
obs ters
ĠPer k
ĠScr umptious
ĠSec ond
ĠSun ny
Ġrich er
ĠLi vers
Ġimp rint
ĠAnn ie
23 6
ĠWil der
ĠBel ieve
Ġglycer ine
ĠTruff les
ĠKar en
ĠKir sch
Ġtomat illos
iscons in
M ore
T op
t for
t butter
Ġt ears
en a
al ready
Ġto t
Ġd onut
ĠB ul
ĠM ad
ĠW isconsin
Ġbo at
ĠF riend
ĠL ocatelli
we ed
Ġal phabet
Ġchil is
Ġex c
ĠK iller
tom ato
ĠMelt away
ĠY ears
ott on
ĠSh ish
Ġpo ached
ĠCar ib
Ġaltern ative
ĠCan ola
Ġund issolved
Ġ* *
ĠPro ven
Ġdel ight
bro th
Ġcantal oup
Ġsmok y
Wh ite
Ġbuck wheat
tB eat
Ġcond iments
ĠJumb les
Ġtang y
Ġsch ool
J iffy
m us
m ise
n itz
t b
Ġc u
Ġc row
Ġc ause
Ġb ands
Ġm ac
Ġf aul
Ġch ard
ĠC oney
ĠS age
ĠS andy
Ġl obsters
ĠB art
Ġfor th
Ġn ap
ĠCh oose
ĠF illet
ĠF ield
ass i
Ġcrack lins
Ġex tremely
ĠSa wdust
ĠTh ai
ooth pick
Ġnot e
ott e
ĠJell ied
ĠRefriger ated
Ġtw elve
ang el
ĠOr anges
ĠGrand pa
mel t
ĠJam a
Ġbur st
ĠHun ter
ĠMc K
ĠFil et
wal nut
ĠOmelet te
Ġshow s
Ġplump ed
Ġbutterf lied
ĠBour sin
ĠPul se
ĠJon athan
Ġbagu ette
IG H
D ouble
E ver
c auliflower
i ans
o ise
r al
v ice
Ġf owl
pp in
Ġ3 10
ĠS av
ĠB ol
ĠB irthday
ĠP ower
ĠT iny
Ġh is
Ġh ook
to pping
Ġj oy
Ġmar bles
st art
heat h
Ġcon ch
Ġcl umps
ĠO ff
ĠCr usts
ĠCut out
Ġam ber
ĠMay o
ĠCamp fire
ĠTater s
iche ver
ĠPo ached
Ġglut en
ĠEd ible
ĠBonn ie
ĠJar lsberg
Ġprop or
ĠPicc ata
unc ture
A head
O ri
W al
b etter
f reeze
g rap
m ie
r ates
t Makes
w ork
Ġ ,
Ġ ST
Ġs ard
er gy
Ġp i
at ively
re ased
ĠS ub
ĠS li
Ġe agle
Ġl ighter
ĠB atch
ac y
un ion
gg ie
ĠM ile
ĠM att
Ġh uge
ad ise
ĠR ome
ip illas
mon t
Ġju d
igh s
ĠF ay
Ġfro th
ĠL ick
ĠG oya
Ġapp ly
ĠJ une
Ġsm iles
ĠN ell
ĠN ame
Ġcur ing
Ġtw enty
Ġgran ular
ĠAr roz
ĠLemon y
Ġdi jon
Ġic y
ĠSeed s
ĠMan h
ĠPin wheel
att an
Ġcrunch ed
eros ene
ĠVic tor
Jer emiah
ĠCarib bean
L a
L ight
M ustard
P l
P an
b let
r ind
s low
Ġ iodized
Ġc ray
in c
Ġp reserve
Ġm ex
Ġm usc
Ġf ore
Ġl ines
Ġv ented
Ġun thawed
Ġh usk
ch illed
et ies
Ġbak ery
ĠD unk
ĠL y
edi ble
op ened
Ġsk illets
ĠSc rew
wh atever
Ġfil m
ĠDor othy
Ġcap ellini
ĠDish pan
Ġhom estyle
Ġoverb rown
ĠNew man
ĠAlmond ine
ĠEx changes
ĠAs ian
Ġvari eties
Ġsho vel
Ġparsn ip
Ġrutabag as
Ġhum or
Ġpicnic s
Ġdred ged
Ġtemper a
ĠSkew er
ĠBeg inning
Ġtot ally
A ny
H eal
M c
O ro
P illsbury
R eserve
b aby
c omb
e qu
e ven
e vaporated
f aced
p ress
r ick
s elves
Ġp ipe
al most
ic ier
Ġto es
ĠS atur
oo per
ĠB er
is a
ĠM en
ol ive
ad en
Ġcr ink
Ġbro ok
Ġgr and
ĠR es
ĠCh ange
ĠW he
Ġre member
ef f
ĠL ooks
ĠH us
Ġk ol
Ġk erosene
Ġcrush ing
ĠK at
Ġjell os
Ġsm ile
ĠBl oody
ĠN ap
ĠButter horn
Ġfood s
Ġmold ed
Ġpar ing
ĠPick in
ann on
od us
Ġdon uts
ĠMar vel
Ġdrink s
ĠAn isette
Ġnew sp
23 8
ĠWel sh
Ġheal thy
Ro asted
Col by
Ex cellent
Ġut ens
ĠSol omon
Ġyum my
ĠMas carpone
esqu ite
Ġcantaloup es
K aro
b or
b ies
g u
l ava
r ican
es ide
Ġm ass
ĠC all
ĠC ity
Ġd epend
utter ed
ĠM er
ĠM ush
Ġv acuum
ĠA w
Ġbe ar
Ġn ecks
ĠD ou
ĠF eather
ĠL ar
ĠL ake
ĠL ump
Ġheat s
ĠG ame
Ġcl ass
art ment
ĠK iev
est le
ĠPe ggy
ĠTh om
ĠN anny
Ġunb uttered
Ġcrisp ness
Ġcons omm
amp en
ĠMin ced
Ġsur p
ĠDi amond
ĠOr zo
ĠDump ling
od ge
Ġabs or
roll ed
che ck
Ġdis color
Ġbra id
Ġmot or
Ġsac rif
ches tershire
ĠWilder ness
ĠManh attan
C over
D ried
H ershey
W esson
d i
g olden
o x
s ure
s immer
Ġt ent
as ilk
Ġd iff
ĠS ee
ĠS napper
he im
ĠB uck
ĠP ipe
dd ess
ĠM em
ĠA f
ot a
Ġn ame
Ġj er
Ġj im
Ġlar gest
ĠSp ir
amon ds
ber ts
ĠWh o
ĠO ccasion
ess ie
ĠMel ted
Ġgelat ins
Ġcle ans
ton s
Ġpo inted
tern al
Ġkn ock
ĠUn fold
Ġsur rounded
ĠUs ually
uss el
ĠCro ss
ĠMar ia
pec an
ĠLe vel
ĠCub es
iffer ence
ĠSar ah
ĠRich ards
Ġrim s
ĠPar adise
ĠGo ddess
Ġgu ava
Ġgroup s
ĠOle o
uckle berries
Ġore o
Span ish
ĠFric ass
Ġabsor bs
) :
g ento
m inute
p kg
t rim
er ts
Ġt ilt
Ġb is
ĠS it
ĠS izz
oo m
Ġ( #
ĠM oo
ĠM eringues
ol ut
Ġmin eral
ir ts
Ġgr ating
ĠR oul
ef riger
mall y
Ġgar ni
Ġse lect
ĠSp ark
ĠH IGH
ĠIn c
Ġbottom ed
abb ages
ĠChill i
ĠBr er
Ġsc ored
ors ch
sa usage
ĠFro sts
Ġthem selves
ĠSqu irrel
Ġtow ards
lit er
Ġcaramel ize
ma x
ĠFresh ly
ĠChris t
brown ed
ĠJoy ce
ĠColor ado
Ġimpro ve
ĠPi quant
ĠCastle berry
moder ate
ĠAtt ach
B reak
T hey
d ition
h i
l or
m icrowave
r are
t all
v inegar
Ġb le
Ġd eeds
Ġ3 1
ĠB uy
ĠM art
Ġh uckleberries
ĠR h
Ġr amen
Ġcorn s
ĠF lower
Ġfro g
na heim
ĠO k
ĠE ight
Ġsqu irts
ĠBl ot
Ġen g
ĠSh ut
Ġaccording ly
ary l
Ġwash ing
fry ing
ai k
ĠPack age
Ch ip
Ch erry
Ġent ree
Ġshort cake
ĠPer colator
Ġstr ands
ĠHar vey
To pped
Ġfix ed
Ġtost ada
ĠBel gian
ĠMargar ita
coc onut
Ġpral ines
itter lings
ĠBurn t
ĠRis otto
Ġassem bled
ĠSopa ipillas
Ġfaul ts
1 15
7 50
A ng
G reek
S to
b assi
o gh
t ake
t water
w atch
Ġb ook
Ġm acaroon
Ġf estive
Ġf acing
Ġw edged
ic er
ĠC our
or i
ro asted
Ġsu nda
ĠS or
he m
ĠT iger
Ġbutter cream
ĠM im
ĠM aw
Ġv elve
Ġun processed
ch unks
Ġj us
gh ur
Ġbak er
ĠR eser
Ġpowder s
ĠSt ores
ĠH on
ard ee
sh rimp
ĠO z
Ġrefriger ating
Ġli kes
ĠTh ing
Ġfin es
ĠSh arp
se veral
ris es
ĠSet t
Ġnon metal
Ġherb es
ĠAl ice
ĠCran berries
ĠRa ised
ĠPro mise
app rox
ĠCro wn
Ch ris
ĠScr atch
ĠRich es
Ġtest ing
Cook ed
ĠPap rik
ĠMu eller
ĠJohn son
Ġsho epeg
tC ut
len e
Ġpouch es
ĠBuckey e
Bl end
ibb les
Ġpol y
sal ad
ĠTruff le
ĠCharl ie
Tw o
ĠBart lett
Wal nut
Ġsard ines
T astes
j u
t akes
Ġc ure
Ġt ep
on ions
ĠC O
ak s
Ġd inners
ĠS heath
ĠB aggie
ac he
ĠM achine
Ġv ersion
all ic
Ġth irty
ĠR eg
ĠCh im
ĠF air
Ġpot s
ĠL es
ĠWh at
ĠPre tty
ott led
ex pensive
ĠRef reshing
ĠTurn ips
Ġacc ent
Ġcrisp ies
can ola
Ġexcess ive
Ġbrush ed
Ġwor ry
Ġrepeat ing
ĠEx change
Ġmed ley
Ġhel d
hyd rates
ĠPap er
Ġthumb print
Ġdeter m
Ġsizz le
Ġtost ados
Ġflo ating
ĠBoy ardee
Un cle
Ġbuff et
Ġjal ape
Ġdiff ic
Ġjim mies
2 00
M edium
P ol
P ie
\ )
j ect
l ine
p ly
u le
w ards
Ġc a
Ġb and
le ftover
Ġsu ggested
ĠB ull
ĠT ree
ĠA naheim
Ġn appa
ĠR oughy
Ġso uth
ĠD epending
Ġco ke
ĠI I
ĠI re
ĠL ife
ĠG rain
ĠG oose
Ġcar ving
Ġro asts
os ter
Ġsk irt
li ve
ĠV ersion
Ġfill o
ĠSh erried
irec tions
ĠRef ried
ĠCho c
Ġsc um
ind y
Ġmo ving
Ġqu es
Ġuns ul
Ġremo val
Ġcor es
Ġbul bs
cle ar
Ġallow s
ĠPl atter
ĠCand ies
Cho pped
Sh rimp
Ġnor mally
ĠCharl otte
ĠWindow s
Ġtim ing
ĠMich igan
ĠChal up
bul k
ogh urt
B r
D ip
H eritage
P urpose
b ac
e le
g undy
p ea
r ust
s ka
z a
Ġ i
Ġc abbages
or itos
it am
ĠS ieve
ĠS zech
Ġe m
ĠB ase
Ġor naments
ch iko
ab ob
res ist
ĠL asts
ĠG h
ĠG ul
ĠE ve
ĠE mer
tt i
ĠK roger
ĠTh irty
ĠN oth
ĠN ibbles
Ġen sure
arin ated
Ġrest aurant
ĠRo cks
Ġlong ways
ĠMeat less
Ġknead ed
ĠCoat ing
ĠGl ow
Ġwor ds
Ġreturn s
Ġburn ed
Ġass ort
ĠAm ount
24 0
rit ious
Ġrim med
ĠSwirl s
Ġadjust ed
ĠCarol yn
ĠHum mus
Ġpres ifted
ĠBus ter
Ġtong ue
Ġcroiss ant
Ġarr anging
tT op
ĠPa ella
ĠHen ry
Ġfrag rant
Ġswir ling
ĠLyn n
nitz el
ĠJama ican
ĠMarvel ous
ĠFricass ee
8 00
B acon
C abbage
E ng
I R
j ar
r anging
s ubstitute
er oll
Ġt asting
Ġf avorites
Ġch iffon
Ġin ternal
our i
it t
ĠB eck
Ġche x
Ġst udded
om ing
Ġsa y
Ġsh aken
orn a
Ġbo ys
ĠF izz
Ġy am
Ġcup ful
ĠH erman
ĠG al
ĠG ib
ag ination
Ġk aiser
Ġred ness
ĠK ring
ĠK emp
Ġshe ars
Ġflavor ful
ĠSh aron
Ġgl ove
Ġcro wn
ĠTab lespoon
ert ain
Ġseal s
Ġback s
Ġbar rel
ĠSup erb
ĠKra zy
Ġgi blet
Ch ow
ĠLe gs
ĠBra ise
ĠMiss ouri
met allic
Ġreheat ing
Ġpri me
Ġrequ ires
con om
ĠSuc aryl
ĠMarb led
Ġexten ding
seed less
ĠTemp t
pean ut
ĠSna ppy
ĠVictor ia
ĠHus band
Ġsacrif ice
Ġbis que
olut ely
Ġassort ment
D ate
F ashion
N on
S c
f ood
t flour
u an
Ġ edible
Ġc ra
Ġc ertain
er oos
Ġt id
Ġt aters
al uminum
Ġch anging
sp berries
ĠC ans
Ġ2 20
as ic
Ġg ot
oo ther
Ġun opened
ol ph
Ġh unk
Ġst ate
red uced
ure en
ĠD ale
ĠL uck
ĠL orna
oon e
Ġser rano
ĠV i
ĠN atural
cook ie
Ġthaw ing
Ġmeal y
Ġpinch ed
ĠTo kay
fl akes
Ġpro ceed
alapen os
ost ess
air es
ĠSn ip
od les
Ġmost ly
ĠLoos ely
Ġproduc ts
Ġsizz les
Ġflo or
tD rain
squ eeze
We ight
Ġcarbo hydrates
Ġrear ranging
Ġsing les
Ġhol ders
Ġrender ed
ĠMcK ay
ĠBol ts
Ġeng lish
Ang el
Chris tmas
Ġdiffic ult
A r
b ig
d ip
n oon
t Chill
v able
Ġs na
Ġb ad
Ġp ain
Ġm ackerel
sp ices
Ġsu c
ĠS ad
ĠB et
ĠP il
ge on
ĠM icrow
Ġh oop
Ġmar row
ĠD apple
ĠD ress
ĠD ampen
st ew
Ġre pl
ĠF u
id ent
ĠIn side
Ġro m
Ġro cks
uff les
ĠK ansas
ps om
Ġpre made
Ġtab lets
ĠBe e
Ġsc ra
ĠSto ck
ĠPeanut ty
Ġpro v
Ġpro volone
ĠDi pped
ĠCheez y
Ġpul ver
Ġwork ed
ĠTri angles
ĠSar gento
ĠMillion aires
ĠSoft asilk
Ġdoll ar
Ġsmok er
Al mond
ĠVer mont
ĠGall o
ĠBak ers
ĠBak lava
onz oni
ĠDav id
refriger ated
Ġbeautif ul
Ġfarm er
ĠTreas ure
ĠSmuck er
Ġdrizz led
Ph illy
Ġmil der
ĠST IR
Ġtep id
Eng lish
H E
H oney
P et
P asta
S n
S outh
m other
p arsley
Ġc ame
Ġt ass
Ġm iso
Ġf ifteen
Ġw esson
Ġd om
Ġd ove
Ġd ries
ill ow
ol itan
ĠCh er
ĠD ar
ĠD annon
st ill
Ġbl intzes
ĠIn stead
ĠO mit
Ġfir mer
ea ve
ess erts
ĠButter f
ĠGr ace
ĠCar away
ĠRed uced
Ġtw isted
Ġar oma
ĠFill s
Ġlast ly
ĠBlue berries
ĠCrab s
irl s
ug get
butter milk
Ġbas kets
eck er
Ġcre m
ĠLou ise
Ġconten t
ĠPear l
ĠScotch eroos
tR oll
ĠPass ion
ĠKrisp y
ĠColor ful
ĠDuck ling
hal ved
rif ic
separ ate
Ġbeautif ully
ĠDrum sticks
Ġexc eption
ĠRichards on
ĠReser ving
ĠOz ark
1 25
B etter
H our
M om
T ex
g ener
o ha
s ec
in th
Ġ1 12
Ġp lease
at ma
al coholic
ĠS en
ĠS uch
Ġl uck
ĠB orsch
ĠP heasant
ĠP ride
is f
ĠT ahini
Ġun it
ell es
00 0
up er
Ġmar bled
ĠR ol
ĠF ra
ĠSp ear
ĠL ess
Ġsour ed
Ġk ey
ĠBro ken
est ic
ĠV ern
Ġsm oother
ĠPre mium
Ġpre mium
oni al
ich ang
ĠFor ce
Ġ24 8
Ġdark er
ĠAll spice
ĠDi pping
Ġcomb o
ĠApp et
ĠCl a
ĠPh y
ĠSk inner
ĠVal entine
ĠScallop ini
ĠBar ely
ond ant
ĠLa ura
season ing
ĠMag n
ĠEd ition
Ġslee ves
Ġmas ala
Ġgoose berries
Ġthough ts
anna h
Grand ma
ĠCount y
ĠFranc isco
grap efruit
! \
C innamon
K nead
L ite
M M
P each
m as
m ings
o key
r ite
t Serves
Ġt ried
Ġb uckey
on to
Ġf oot
ĠC afe
ĠS we
ĠB ack
ĠB uckle
ĠP udd
ĠT ail
ĠT int
ol k
ell mann
Ġfor ce
ip er
Ġju gs
Ġsp aces
ĠF an
ĠF ag
ĠSt ud
umb le
ĠL abel
ĠL isa
ĠH addock
Ġ10 5
Ġser vice
Ġan imal
Ġfill s
Ġliqu ified
ck rich
ĠRef resh
ĠRed ford
Ġqu ah
Ġball er
ĠTo pper
Ġar omatic
ĠCon nie
bl s
Ġdi amonds
Ġskim ming
ĠGood ie
Ġbul ghur
ann ed
ĠGl ad
Ch inese
ĠCrock pot
ĠHe ad
Ġdiscard ed
ron t
arbecu es
ĠPol ly
ĠTender ize
ĠMa x
Ġ19 75
Ġsim ply
ĠBo hem
Ġdrum ettes
Ġwait ing
Ġve geburger
Ġsat isf
ĠGen oa
ĠRest aurant
ĠDav is
ĠLiqu eur
ĠBubb les
ĠMeltaway s
Ġnewsp aper
efriger ate
Ġsouth ern
ĠIre ne
F reez
H o
R om
U s
W or
e ason
t ied
w ax
Ġm orn
ou illon
Ġf le
Ġf ajitas
Ġand ouille
Ġg row
ĠB unch
ĠB ud
ĠP ico
is tle
ĠM inn
ick y
ĠA c
Ġcream ier
ch ips
ri ft
Ġgr it
ĠR ag
ĠR onzoni
Ġsp icier
ĠSt ars
Ġsl im
Ġbox ed
ĠK ris
Ġpour able
Ġwarm ing
ĠMel ts
ĠSl ash
Ġdissol ving
Ġmeal s
anch ed
ĠBre nda
ĠMin ted
Ġremo vable
Ġros es
ah i
ĠCol onial
enn y
Ġdevil s
ĠLe an
ĠCub ed
ĠShort cut
Ġstro ganoff
Ġinc reased
ember t
follow s
Ġtanger ines
almon d
Ġut ility
Ġtre ats
Ġselec tion
Ġthought fulness
ĠDep ression
Ġsunda e
bac ore
Ġtid bit
Ġrom ano
ĠBohem ian
A T
A t
D rain
b ottled
c ider
i els
l ah
n ese
t ly
t pan
v is
z le
Ġ __
Ġs ense
er ican
Ġf r
ĠC rinkle
ak o
Ġd unk
Ġg rained
ĠP urpose
ĠP uffy
ĠP oultry
Ġh olly
Ġover flow
Ġco ff
ĠW eed
ĠW ee
Ġsp e
Ġ9 6
Ġk iw
os able
ĠE li
tt a
ĠK r
Ġpast y
Ġbr u
Ġsec uring
Ġam erican
ĠFry ing
ĠSqu are
Ġim agination
ĠUn bel
ĠMexican a
ĠCal z
ĠSurp rises
Ġbas mati
ĠBou illon
ĠWaff le
Ġmound ing
Ġchar ity
Ġbow s
con centr
Sw ans
ĠCam embert
Ġclaw s
lett es
mini ature
wor th
Ġclover leaf
ĠBit ters
Ġcu ppa
Heal thy
ĠSatur day
Break fast
Pol ish
D rop
O euvre
h ance
i ago
l ie
s lices
t p
in to
Ġs aturated
er r
Ġo l
Ġf ront
Ġd aiquiri
Ġa ut
ĠS y
Ġl ost
ĠB ri
ĠT idbits
ĠM ess
ch io
Ġsh ine
ĠCh ive
ĠD ee
ans ion
ĠH orn
ĠG nocchi
ely n
Ġcl uster
ĠBeat ing
Ġseason s
oll en
ĠV in
ĠN ips
ĠN umber
ĠAnd es
ĠSl im
ich es
oc i
ĠAr k
Ġhigh ly
so da
ĠAl oha
Ġpop overs
ĠCrab bies
Ġunder beat
ĠSk inny
ĠRec ipes
ĠPl ate
Ġtrim mings
ĠAp art
Ġshort est
ĠNest les
Ġsw ell
pre heated
Ġgrind ing
ĠMa jor
Ġcav atelli
Ġdis join
Ġswirl s
Ġ46 5
ĠLen tils
ĠJan et
Ġvar ies
ĠSuc c
ĠHold ing
Ġseashell s
Ġincorpor ate
iev able
quarter ed
Ġcarbo hydrate
ĠStay s
ĠPri me
ĠHol y
Ġferm ent
Ġscra per
A M
C rab
G rease
H ellmann
O at
Y our
b ouillon
m outh
s ometimes
t milk
an zo
Ġp igs
Ġm other
Ġf ail
Ġch ic
Ġw at
pp ine
ĠC ass
as er
Ġsu pp
ĠS ter
he art
ĠB ry
ĠB ern
ĠB erries
ĠP ay
ac ity
ese ed
Ġun toasted
ĠA ust
Ġst om
Ġst ud
to re
ts alt
ĠCh ives
ĠD airy
ĠD aiquiri
ĠF eed
ĠL over
ĠH er
Ġ5 4
arm int
ĠCo kes
udd y
ĠE th
ĠE psom
ess el
Ġsmooth ing
Ġfruit cake
Ġcom mon
ous s
ĠCar ve
und ry
Ġpin wheel
ĠSc and
ĠMeat loaf
Ġhash brown
ĠPound s
wh ites
uns aturated
ĠSm art
Ġcap acity
ĠGrand s
may onnaise
ĠAn na
ĠSun flower
Ġ23 5
ĠHo ppin
Ġmicrow aving
Ġmarble ize
fa its
lon ger
Ġgroup er
ĠColl ard
ĠDie ter
ĠGer ber
Ġcray fish
ĠAf rican
ĠInc red
ĠOk lah
ĠGib let
Ġsuc cess
ichang as
ĠOklah oma
' m
* .
9 0
D ill
I L
M elt
P eek
b reasts
b efore
c enter
l ots
n eed
s w
t Blend
u i
v in
Ġt ureen
Ġb ind
Ġp reserved
Ġm atter
il ed
il ize
en b
and ine
Ġw rit
ic chio
ĠC ath
ĠC indy
ro t
am ata
Ġd ifference
Ġ3 40
ĠS emi
ĠT ightly
ĠT andy
Ġche er
Ġun heated
Ġst ur
ir lit
ĠD ain
ĠD oone
ĠW anda
Ġsp in
ĠF ar
ĠSp ace
ĠSt e
Ġy oghurt
ĠL il
ĠL uc
ĠH yd
Ġcl ou
Ġshor ter
li er
Ġsyrup s
Ġhe aped
Ġblend s
Ġpre cook
ĠN one
Ġen hance
ĠSh oney
ĠBread sticks
tern ational
ern el
sa ute
ĠQu arts
Ġseal able
Ġ- -
uk i
Ġsli ver
Ġspring y
add le
Ch ili
ĠGinger ed
St art
abet h
ĠSummer time
ĠIsland s
ĠLo vers
ĠSch nitzel
Ġwinter green
ĠJew el
Ġhum an
Ġ38 0
ouff l
ĠSens ational
Ġaccum ulated
Ġenhan cer
Ġjalape o
ĠBeck y
Rom ano
' d
A s
H eat
I nd
O f
T ab
d ash
f amily
k er
r itional
s eeds
t art
t well
t otal
Ġc ass
Ġc uke
Ġch itterlings
ĠC ould
Ġd isk
Ġg nocchi
ĠP ra
ĠP om
Ġfl an
ĠT ill
ĠA id
ĠR oot
ĠD awn
ush aw
Ġr icer
im ble
Ġse ep
ap olitan
ĠH appiness
me as
Ġsl ant
Ġsl ashes
ĠE ckrich
ĠK iwi
ĠPre pared
ham burger
Ġpo ach
Ġcro wns
Ġunb l
ĠJack ie
Ġfil ter
ĠDor is
tc heese
Ġstove top
ĠRe v
Ġpreven ts
Ġmeas ures
Ġstring y
Ġshort ly
ĠCur d
ĠEx odus
ĠPol ska
ĠLa u
Ġmed allions
Ra spberry
Ġpeek ing
Ġshow ing
ĠGu ilt
Ġflo ats
ĠComplet e
Ġaj ar
Ġtend s
Fl avor
Ġpral ine
ĠMunch ies
Ġindic ated
Ġoverbrown ing
Mc Cormick
ĠLump ia
ĠWee ks
Ġspe armint
Ġdisjoin ted
Ġchic ory
Ġstom ach
E ye
M rs
M ethod
b ought
h ave
n et
p et
r as
r inse
Ġc m
in avian
Ġs ided
an gh
Ġt ell
ar range
Ġm ag
Ġm esquite
on y
and om
ou li
sp icy
ĠC aps
Ġsu bs
Ġa ged
Ġl asts
ĠB oat
ĠP umpernickel
Ġfl ax
ĠT utti
ĠT bls
ĠM usc
Ġh a
ad just
Ġsh amp
ĠR on
ay lor
ĠCh amp
Ġco al
ĠW ing
ĠW ood
ĠW inner
Ġr ough
Ġgar am
ĠF red
ĠF ork
ĠF ifteen
ĠL ill
Ġcl ump
ul let
ĠK ix
Ġblack ened
ĠN an
Ġliqu ify
eep ot
Ġpast ries
pe ach
Ġmo chiko
Ġacc ept
ĠSauce pan
ĠTo dd
Ġcomp l
ĠFl o
Ġkn ot
pot atoes
ĠApp roximate
ĠCl ara
ĠCrack lin
ĠAm ounts
ĠAs iago
ĠRea Lime
Ġbur gundy
Ġad here
Ġlin ing
Ġpreheat ing
Ġbutt ah
Ġjun iper
mm m
Ġfig ure
non fat
ĠCor rect
ĠMicro cook
ĠDan iels
Ġmid way
Ġdarken ing
ĠMild red
ollip ops
Ġoxtail s
Ġpoly unsaturated
ĠUnbel ievable
ĠHyd rox
Ġshamp oo
H erb
I ce
f igs
h ook
j alapeno
p t
w est
z abeth
Ġt ies
Ġf its
Ġin expensive
le aves
am ook
Ġ3 7
ĠB ish
ĠB omb
ĠB ite
ine t
is to
ĠM al
ot le
ver ting
Ġ4 4
Ġsa id
Ġsh ade
ĠR are
Ġover cooked
ĠCh ic
ĠW oman
st eak
Ġsp ec
ĠL im
Ġbl ow
Ġoven ware
op t
ĠG allon
ĠWor chestershire
ĠJ os
ĠJ alapenos
ĠSalad s
ĠPre bake
ĠMelt ing
Ġspread s
per iment
ĠRed enb
Ġleaf y
Ġbr ought
Ġclean ing
ĠAr go
Ġpat tie
ĠMex ene
wh ip
ĠPet ite
ĠSn aps
cr usts
ĠUs ed
ĠCrack ling
ĠChris tm
Ġsun shine
ĠIm merse
ua u
ĠPol enta
Ġdist urb
ĠBra unschweiger
Ġwil ts
Ġear then
ĠGe b
Ġbra ise
ĠWil t
pr ints
Ġvar ied
agg ies
hard t
Ġla undry
ĠCant on
ĠEas tern
Ġtim er
Ġide a
Ġach ieve
tF old
max imum
Sto ve
Ġmorn ings
Ġcoff eepot
ĠEli zabeth
ĠSucc otash
Ġstur dy
ĠRedenb acher
E n
O W
g r
o euvre
p inch
r g
s n
Ġt row
ed y
Ġm at
at kes
Ġin verting
el ma
it ed
ĠB oo
ĠP ac
ĠP kg
ine tti
gg ing
ĠT erry
ĠT ouch
ĠT unnel
ĠM orn
Ġun ti
ad ed
Ġle ak
Ġwh ichever
ast ime
Ġr at
st iff
ĠF ace
ĠSp ider
ĠSt ain
ĠSt em
ĠSt one
ĠI ron
Ġlemon y
ĠH ostess
oon s
rink led
ĠO V
Ġcool er
ĠJ em
ĠK en
ĠV ick
tom atoes
zz y
Ġtart ness
ĠSweet heart
ĠSo dium
ĠCan e
ĠCan ada
so y
Ġregular ly
ong y
Ġsub mer
Ġsn ip
ĠDelight ful
cle an
ĠCaramel ize
ĠTur k
Ġunder bake
ĠGrand e
ĠApricot s
ĠNe apolitan
Ġad ults
Ġcre ative
ĠFran ces
Ġdis ks
ĠRos y
Di jon
ĠBob oli
ĠDiet etic
ĠJul ie
Ġstar ted
Sh ould
ĠBudd y
Ġpol enta
ona ise
Ġgher kin
ĠTer rific
separ ated
ĠStrip ed
Ġide al
Ġobtain ed
ĠMah atma
Le viticus
Ġappet it
Sal ad
ĠCons omme
Tex as
gener ous
inth ians
Ġkiw is
ouss aka
Ġhashbrown s
ĠChristm astime
2 75
D utch
L arge
O ver
b ody
c ur
s aving
t orn
t aco
t baking
Ġ ign
Ġc ab
Ġc ent
in f
Ġt affy
Ġm us
on n
Ġf ist
sp lit
Ġg lace
Ġl ist
ĠB eth
ĠT ir
ĠT ah
ĠM erry
ĠM atzo
Ġv essel
ra ge
Ġcr am
Ġsh own
gh ul
ĠR ay
ĠCh ik
ĠD en
ab i
ab s
ĠH ope
ash a
ĠG one
Ġ9 5
ĠCo b
end y
Ġsk y
reas ing
ĠJ eff
Ġlon ghorn
ĠCorn y
ĠRo ca
Ġhand y
Ġtub ular
Ġcrisp er
Ġcrisp ed
Ġcrock ery
ĠFr angel
uss et
ĠEn ergy
Ġtri o
ĠPr onto
ĠPuff ed
ĠNest ea
Ġdiet etic
ĠPap a
Ġres ift
Ġtwist ing
ĠTost ada
sk ins
Ġprick ed
Fro zen
ĠAv oid
ax imum
Ġduck ling
Sw edish
Ġexp and
Ġexp osed
Ġuniform ly
ĠCor inthians
Ġperfect ly
Ġexten d
Ġcamp fire
coc oa
four th
blue berry
ĠWreath s
Che ck
ĠDec rease
ĠHazel nut
ĠJun ket
Ġblu ing
Ġkol bassi
ĠChim ichangas
ĠArk ansas
ĠSter ilize
ĠCath ed
Tab asco
ĠJem ima
A fter
B ur
D ump
N estle
S qu
b asil
b illy
c om
c andy
n oodles
r ator
Ġc apped
Ġc otton
Ġo cc
Ġt arter
Ġp ate
en uts
ou g
Ġw agon
as iest
am ps
Ġsugar less
ĠS mear
ter rey
Ġl ock
Ġl rg
ĠB ass
Ġegg roll
ow a
Ġ( \
ĠM ignon
ĠM oussaka
Ġv ers
us ual
Ġn yl
ĠCh ap
ĠCh unks
Ġcook book
ĠD raw
ĠD ills
ab an
Ġre ason
Ġsp ongy
ĠF inn
ĠL uau
ĠH av
Ġ5 50
ĠG ems
Ġal bacore
Ġapp roximate
os ity
ĠO l
ĠO o
Ġnut ty
ĠJ igg
ĠK al
ĠK it
Ġsm other
ĠSa uc
Ġliqu ef
Ġmo ck
ĠSw ordfish
ous in
Ġthr oughly
erm it
ext ured
ĠDel i
ĠRanch o
ĠCl ove
ĠOr ville
ĠDump lins
Ġbul gar
ĠRe gular
ĠRe arrange
od ate
ĠCro iss
ĠPl unge
ĠHe avy
Ġfran k
ib ly
ĠBay ou
ĠJam es
Ġstrip ed
ĠMa ine
ĠEl mer
Ġ19 0
ĠPo ach
Ġcontinu es
Ġres p
ĠTam ales
ĠPar faits
ĠCas ino
ĠPic adillo
26 0
ĠEv elyn
Ġacid ity
Wh ip
ĠRellen o
Ġshow ers
Ġla vender
min us
bottom ed
ĠPres to
ĠPock et
Ġsac ch
Ġwreath s
Ġselec ted
Ġdiabetic s
Ġdisp osable
Ġrad icchio
Ġjer ky
itam in
ĠNoth ing
Ġdom estic
ĠFag ioli
ĠRefresh er
Ġfle x
ĠScand inavian
Ġtrow el
ĠCathed ral
Ġnyl on
A rt
B y
B undt
G en
G ra
e que
g ro
i que
p ink
t top
t pepper
v ely
w an
w ide
y east
Ġs ample
Ġp am
ou let
ĠC u
ĠS ingle
is ing
ĠT oothpick
Ġun fold
ol ina
Ġh ar
ĠA my
ot ic
Ġst ated
ch ili
Ġsh in
Ġmar gin
Ġgr istle
Ġbrown ness
ĠD ig
ingredien ts
ĠW itch
Ġr iced
Ġr andom
Ġpan c
Ġsp oke
ĠF uss
ĠI owa
ĠL ook
ĠL ord
ĠL ucy
ĠH ull
ĠG riddle
ul s
ĠE r
Ġnut ritional
ĠJ ug
Ġref reeze
Ġpl unge
ĠV en
act us
ĠBe ach
Ġz ipper
Ġsoft ly
Ġsc rod
ich y
ich oke
ĠCar ter
sc allions
ĠSc oops
pot ato
Ġtrim ming
ĠYum mies
ĠPop over
ĠIr resist
Ġscr atch
ĠDay s
Cr acker
Ġvari ations
ĠHal ves
ĠHour s
Ġadv ice
ĠHalf way
ĠEd na
ĠSpring time
ĠHill billy
Bl ack
ĠHand le
ĠGram ma
Ġhus band
Ġatt ach
pour ri
ĠSol o
equal s
cool ed
ĠEll en
ĠFay e
Ġutens il
ĠChrist ian
Ġpulver ized
ĠPudd in
Freez es
ĠTill amook
Ġaccept able
ĠBish op
D essert
G inger
J ust
L eave
O re
P lace
Y ogurt
b ag
f ew
m ark
s eal
t it
Ġ $
Ġt umb
Ġb end
Ġp izz
Ġp air
Ġp addle
il o
ou le
Ġf amous
sp aghetti
le gs
Ġd ie
Ġa id
ĠB and
Ġv iole
ĠA nch
ch erries
ts h
Ġsa zon
Ġsh are
Ġsh aring
Ġmar ket
ĠCh ant
ĠD ove
ĠD eg
ĠF aith
ĠF iber
ĠSp ices
ĠSt re
ap t
Ġcrumb ed
sh ell
Ġ9 8
art i
ĠPe ppy
ĠPe bbles
Ġcolor ings
Ġcur acao
ĠSc out
ĠPast ries
ĠPro tein
ĠRe eses
Ġflower ettes
Ġdel ights
ĠDough nut
ĠAm andine
ĠDevil s
Ġgumd rop
yl ine
ĠBo ys
ĠScotch ies
ĠSnickerd oodle
ĠCashew s
ĠChar les
Ġomelet te
Ġstretch ing
ĠEvery day
Ġpol ish
ĠMam ie
ĠMam aw
Ġhun ks
Car amel
ĠBu ild
pean uts
Blue berry
ĠWall a
Ġaccum ul
ĠGarb anzo
tst ir
Ġclass ic
ĠRoul aden
South ern
Ġwrit ten
Ġunbl anched
ĠRare bit
ĠMorn ay
Ġcab inet
? )
A S
A p
M a
N ew
P ork
W atch
d in
d efrost
d hook
m ustard
r ams
t d
t ea
y olks
z ucchini
Ġc ell
Ġc ult
Ġp ith
Ġm ort
re ll
ut ton
al le
Ġf ud
sp ir
el a
Ġd oritos
Ġa ff
ĠS orbet
Ġg elled
Ġl oc
ĠP oin
is u
ĠT i
ĠT aylor
Ġche ez
Ġun cut
Ġun wrap
us es
ot ion
Ġst ead
gh ter
Ġso ck
ĠCh urn
ĠD andy
ĠD ecker
Ġco on
Ġco ins
ĠW olf
ĠW aik
ur s
im itation
ĠI v
Ġpot luck
if ul
ĠL am
ĠL unn
sh ells
ide o
ec he
ĠE ating
ĠE conom
ent ic
ĠJ erry
Ġginger root
ucumb er
Ġcol by
ened ic
ĠCar l
ĠSe veral
Ġmicrowave able
fl aked
ĠFl ako
Ġ24 5
Ġmini atures
Ġpat is
ĠMon t
not s
ĠPat io
ĠPat rick
ĠCl aret
tc ream
ĠPast ies
fry ers
ĠCrust ed
ĠDe b
iddle head
ĠEn t
Ġsit ting
ĠMom ma
Ġpower ed
Ġsix ths
Ġcombin ations
Ġbur ghul
rit ive
Ġdeg laze
ĠHo pping
Ġperfor ated
ĠPor tion
Ġgro wn
Ġdehyd rator
Ġfeed ing
Ġtry ing
Ġve ins
ĠEvery thing
ĠChi ppers
ĠBour gu
tmix ture
tub e
ĠComb o
achel or
Ġmex ican
ĠMim i
Ġvelve ty
Ġclou dy
ĠGeb hardt
ĠFrangel ico
Art ichoke
ĠWaik iki
ĠBourgu ignon
C old
E m
L ipton
M ac
S G
S k
U P
V idalia
a et
b ar
h l
m en
t ec
t greased
t Th
y ps
an as
Ġo vals
ar ant
es ome
Ġp ign
Ġm ist
Ġm esh
Ġm irlit
Ġf ib
ic ular
pp ie
am eat
Ġl ifted
ĠB enedic
ĠP ain
ĠP AM
gg est
dd led
ĠT y
ĠM iddle
ĠM uddy
Ġun whipped
ĠA bs
to bell
Ġn one
ĠR oux
Ġoil y
ĠW endy
Ġr usset
ĠF oo
ĠF ajita
ĠF oster
Ġse en
ĠL izz
Ġoven safe
arm el
Ġk ool
Ġ15 5
Ġsof rito
ĠWor thing
Ġshell fish
ĠV l
ĠChe es
act ive
Ġpast el
ĠRef reeze
Ġdou bling
ist urb
Ġtoast y
Ġlen til
ys on
Ġpop over
do es
ann ing
ĠSk yline
fro st
ĠMom ents
ĠAn other
Ġstack ed
Ġman age
ĠAd olph
ones ian
ĠEclair s
ĠBea uty
Ġear lier
Ġ26 5
uth entic
ĠEv a
Ġpres ent
ĠJu ly
ppos ed
ĠVien nese
Ġrecomm end
Ġpen et
refriger ate
So ft
ĠGarb age
ollip op
ĠVe ge
ĠSav annah
Ġpropor tions
ĠWhe el
ĠSpark le
ele br
ĠButterf ly
ĠIncred ible
ĠChic ago
ĠPac ific
ĠHav arti
ĠIrresist ible
ĠChant illy
Ap ricot
ĠWorthing ton
isturb ed
4 2
B erry
F our
M aid
e lectric
h ow
o or
t iny
t egg
Ġb aggie
Ġp ump
Ġm irin
at ar
en ing
Ġw all
Ġw ife
ĠC ir
ĠC ousin
Ġd ew
Ġd ices
ĠS om
ĠS uki
Ġl oves
ĠB arbecues
Ġsalt water
un der
un flavored
ow ers
ĠM cc
ĠA re
um et
th ree
Ġgre asy
ĠR al
ĠD ave
Ġco ddled
st rap
ĠL as
ĠL attice
ĠL ively
ĠL atkes
Ġbread stick
Ġmel ba
ĠG erm
ĠWh ites
sh elled
uff le
ep roof
ĠE ase
ĠE vaporated
ĠV ichy
par ts
Ġsoy bean
Ġdill weed
Ġde v
ors el
ud es
Ġdi pper
Ġund isturbed
nut ritive
wh ere
wh ipping
ĠDream y
uns et
ĠPick ing
ĠGood y
ĠDri p
Ġbec oming
Ġgener osity
add itional
Ch ildren
ĠNor m
pre cooked
ĠKn ife
riz ona
Ġte ac
Ġsor row
23 5
ĠLef se
ĠBag el
ĠBlond ies
Ġdesign s
Ġchoriz os
Ġindent ations
Ġmatzo h
Ġtost ado
Ġplant ain
Ġmicro safe
Ġtra dition
Ġcamp ing
gan ic
ĠDec ad
ĠRob in
Ġreduc ing
ĠFrankfur ter
Ġfore ver
ĠRes ift
ĠKat ie
ĠButterhorn s
Ġsurp rise
ĠBet ween
ĠAppet it
ĠEth el
inf andel
ĠTir am
Ġflex ible
Ġstead ily
A unt
B etty
H un
M ock
M arinated
N ever
P arty
R ich
S l
S auce
T ra
W heat
b re
f oam
j o
m acaroni
p at
u rop
y ond
Ġs orbet
er a
ar n
ar ound
Ġch anged
el ine
el bow
Ġ3 15
ĠS i
ĠS ass
ĠS oci
ĠB apt
ĠB achelor
Ġv ine
Ġflour ing
Ġh appiness
ĠA rizona
Ġcho c
Ġbe yond
um qu
ĠR us
ĠW inks
Ġr ins
st eam
Ġsp aced
ĠF res
inn ati
ĠL iz
Ġbl ood
ĠH ole
ĠH og
ĠH ang
ĠH eritage
Ġcon f
Ġ5 3
Ġ5 6
ub e
Ġk ill
ore gano
uff ing
ep h
ĠCream ette
ĠK ale
Ġjell s
Ġli ber
ĠN ear
ĠSh ave
ĠSh aker
ĠSh angh
hett a
arb on
Ġfat ty
Ġmo cha
Ġcand le
Ġlay ing
Ġafter noon
ĠFruit s
ĠSe ashell
Ġnon metallic
ome gran
Ġquick er
ĠCan ning
ran ce
ĠChil es
Ġback bone
ost ura
ĠRa spberries
Ġcor d
ĠRe union
ĠSk y
ĠPan k
ĠPan ky
bu y
Ġprefer able
Ġtouch es
roll ing
Ġcross ways
ĠAm ber
ĠAunt ie
ĠSu z
ĠScr am
ĠLi berally
Ġlady finger
Ġtear ing
Ġres ist
Ġres ult
ipp in
ather ine
iant i
len gth
ĠAny thing
ĠFil es
Ġbow tie
thin ly
ĠHel p
Ġfif ths
ĠBag els
sto re
App les
fir mly
ĠVer a
ĠPass over
ĠBudd ies
Ġbu ild
squ are
ĠPres ident
Ġcond iment
Car nation
ĠColl ins
Ġmid get
ĠWell ington
Ġph one
ĠProven c
Ġnap kin
Ġjud ge
inc innati
Ġem uls
Ġearthen ware
ĠStain ed
Ġign ite
oule h
F r
J im
J ello
L aw
M int
S E
T ang
g a
l ar
o blong
p aper
s yrup
t x
t large
t together
u z
v ak
er ie
Ġp wd
Ġm oose
pp ey
le ep
Ġsu pposed
Ġd ig
Ġd eseed
ĠS on
Ġg ath
ĠP uncture
un ken
ĠT V
ĠM ason
ĠM yr
ĠM ult
ĠM SG
ĠA st
ĠA sh
Ġbe ads
ch olesterol
ri bs
Ġ4 20
Ġj ambalaya
th ese
Ġle f
ĠR adish
ĠCh ard
ĠD irections
ĠW ake
ĠW ok
Ġre l
im ilar
ĠF all
Ġbl ossom
ĠH uckle
ĠG oop
Ġcar ing
Ġlight en
Ġex changes
ec ts
ĠE ars
ĠE ss
ĠJ ones
Ġref resh
ĠBl ush
ĠBl air
Ġwarm er
ott ie
Ġcom fort
oun g
Ġstri pe
Ġround ing
Ġhand les
Ġcomp act
ĠMeat y
Ġdeep ly
ĠSalt ine
corn bread
Ġflat tening
nut meg
Ġel k
Ġfil berts
Ġbreak s
ear ing
Ġind en
Ġpr ong
Ġwor d
ĠIm itation
ĠMilk less
Ġcloth es
roll s
Ġcurd led
Ġtight en
Ġnectar ine
Ġstack ing
ĠClean er
pre pare
ĠMa ui
ĠRum aki
Sp aghetti
Ġwe igh
ĠPart ly
Ġbrick s
Al coholic
part ially
ĠRoy ale
Ġexp ansion
ĠDecor ator
ĠDecor ating
wor ks
ĠPizz elles
Ġneat ly
ĠFrankfur ters
Ġcrink le
ĠAw esome
ĠTablespoon s
ĠMicrow aved
ĠRag out
Ġtumb ler
tobell o
ĠVl asic
ĠTiram isu
ĠBapt ist
5 00
A N
E L
G u
S m
T una
b owl
c ons
d as
d issolve
f el
k uchen
l tra
p it
p ure
p urch
r il
r insed
t ingredients
Ġc ushaw
Ġb ic
Ġp iles
en go
Ġf ats
ĠC one
ĠC ape
ĠC ort
ro ma
ĠS unset
ĠB ridge
ĠM t
us to
Ġh ind
Ġh anging
ra isin
Ġst ron
ch ill
et ime
th ough
Ġth imble
ĠCh ianti
ĠD ro
ĠD andelion
st r
ĠSp l
ĠSp ears
Ġsmall est
Ġbl an
Ġbread board
edd y
Ġas k
Ġsl oppy
ĠK elly
ĠBl t
ĠTop s
Ġfruit y
Ġen ter
urp entine
ĠSh akes
Ġbatter s
ĠBr u
Ġstri pped
Ġoccasion s
ĠDo h
Ġlong est
ĠZ e
ert a
Ġins ure
Ġcons isten
Ġel der
ĠMars h
aff e
ĠCup cake
ĠAng inetti
ĠAng ostura
orb ic
flower ets
ĠMar engo
ĠCal umet
Ġcurd ling
te en
ĠCur rant
ban ese
ban ger
ĠFir eside
ĠWatch er
ĠInd iana
ĠFettuc cini
Cook ing
Ġdep artment
Ġcall ing
Ġtr ace
Ġparch ed
ĠGlor ia
ĠLady fingers
Ġhum id
Ġproper ly
ĠWilliams burg
Ġach ieved
ĠWall banger
ĠVe geburger
ĠVari ation
Ġpi geon
ĠNell ie
Ġknock wurst
ĠSwe ets
Ġquah ogs
ĠGlad ys
ĠLim as
ĠFinn ish
ĠJigg lers
ĠSuki yaki
Ġrins ing
ĠShangh ai
ĠScram blers
Ġstron ger
. /
B ar
C risp
C alorie
F ish
J apanese
O x
P ear
S eason
b ananas
c or
c it
j oles
p asta
r ough
t eggs
u et
w a
Ġt ape
Ġt ons
Ġt urpentine
Ġm ater
Ġm eringues
ut ions
ĠC ouscous
ĠC incinnati
it ality
Ġg rid
Ġl ily
ĠB i
ĠB illy
Ġsalt pe
un thawed
ĠT all
ĠT ray
ĠM orsels
ĠM aking
ĠA z
ĠR eroll
ie w
ĠD a
ĠD es
ĠD ips
ĠW isp
ĠW igg
Ġr itz
Ġbo ats
st em
ĠF annie
ĠI d
ers on
ĠG ay
ĠG ingersnap
Ġex ample
ĠRem aining
ĠE lectric
ĠE urop
ĠK o
ĠK ath
Ġpl aster
Ġhe ap
ps on
ĠSa zon
ĠBl intzes
oni od
ĠN av
Ġsoy beans
Ġtort e
ful ly
Ġball oon
Ġcrisp ier
ric ol
ĠTab ouli
ĠZ infandel
az ola
ĠCon serve
bl ano
Ġ18 5
ĠCl ark
app roximate
ĠFarm ers
ĠSm okey
add ing
ĠMar gie
Ġmeasure ments
ĠAn sw
ĠCom m
arbecu ing
Ġsw itch
Ġcard board
ĠBas ket
ĠDoll op
Ġres id
ĠMor gan
Ġhelp ing
Ġhelp ings
ĠRos ie
aver n
Ġpet it
ĠArm adillo
tS immer
ĠBun ny
ĠPep e
Ġgold fish
han e
Ġpu ppy
four ths
blue berries
Ham burger
Ġren net
ĠEm ily
Ġmom ent
Ġdiscolor ation
Ġtass o
ĠBorsch t
ĠPhy llo
ĠBry an
rage ous
Ġresp ect
Ġsacch arin
Gen esis
Ġpizz elle
Ġcult ured
aet zle
tTh en
Ġmanage able
Ġliber al
omegran ate
ĠProvenc ale
Ġsaltpe ter
oniod ized
ĠAnsw er
. (
A part
B eat
B owl
C asserole
C ob
D O
D e
H en
N or
O ven
P ort
T est
W ild
a el
c orbic
d iluted
f ive
f illing
h el
h aps
j onnaise
p urple
s esame
s andwich
s irloin
t is
t len
Ġ ir
Ġ kg
Ġt a
Ġp uncture
Ġm aximum
on tal
al ded
sp inach
le en
Ġsu lt
Ġd ips
Ġl uke
ĠP reserve
ĠP lease
ĠT abb
ĠT ia
ĠM any
Ġche esy
Ġv idalia
Ġh arina
ĠA rab
Ġst ones
Ġcr ump
ri g
Ġsp out
Ġsp ade
ers ey
ĠL ater
ĠH ero
ring s
Ġcrack ing
Ġas corbic
Ġsl ash
Ġnut ritious
ĠK ind
Ġhe ight
ĠTh er
ĠN a
ĠN ippy
aw s
ĠMo chi
ĠBe ater
ĠSh all
Ġcur ds
oss ibly
ĠChop stick
Ġar en
Ġpart icular
ĠCan n
so ak
Ġevery day
ĠRet ain
ĠDi jonnaise
Ġfre ely
Ġsn aps
Ġspring form
bo at
ĠSho ppe
Th ree
bro il
ĠSec tion
Ġcount ing
Ġchar red
ĠGran ulated
ĠJul ienne
ĠEd ith
ĠWil son
Ġtr ust
Ġmill ig
Ġfriend ly
nam ent
Ġfrit ter
tD rop
Ġpurch ase
tB ring
ĠNon fat
gges tions
ĠCam per
ĠDoes n
ĠEm ma
ĠCreams icle
ĠVerm outh
Ġrear range
ĠSmuck ers
Ġflam eproof
Ġreduc es
ĠLick in
equ ivalent
ĠMart in
ĠHon or
Ġques ad
Ġunsul ph
ĠSzech uan
ĠTempt ations
concentr ate
ĠDain ties
ĠCanton ese
mark et
ĠIv ory
Ġfib ers
arbon ate
Jim my
ĠHuckle berry
Ġbic arbonate
Ġmater ial
Port uguese
A K
A b
C ucumber
F illing
G round
L on
M outh
S alt
T ry
b abs
f ume
k ely
s en
s ie
t When
t Heat
v ance
Ġs oul
Ġb ased
Ġb arbecuing
Ġp ads
Ġm ingle
re ngth
en o
Ġf ondant
Ġch ol
sp itality
ĠC ard
or ia
or mel
ak or
Ġsu cc
Ġd ue
Ġa dobo
ĠT bs
ĠM at
ĠA ir
all ah
ts auce
Ġcan apes
ir st
Ġsh ark
Ġsh aky
ĠR ick
ĠR achel
Ġover h
ast ry
Ġbrown ish
ĠD oc
ab ber
st rength
ĠF est
ĠF ile
ĠSp ud
ĠI c
ass ion
ĠL ane
Ġbread crumb
arm s
ĠG oat
Ġcar nation
Ġred dish
ul u
Ġsl ower
ĠO uts
ec ause
ĠV ary
Ġli ving
ĠBl iss
ĠTh ighs
ĠN ib
ĠN ests
ex ample
ĠPot pourri
ĠSpoon ful
Ġthicken er
oun ces
ĠGr oup
Ġam ple
Ġstew s
Ġ24 2
pl astic
Ġany more
ĠMeat s
ĠMon terrey
ok ee
tz el
ĠUn stuffed
ett ie
Ġbroil ers
ĠCrumb led
ĠAll a
Ġop tion
Ġmois tening
Ġsn ug
ĠPro ceed
ĠPh il
Ch op
Ġdot ted
Ġbrand s
!! )
Ġovercook ing
ĠAm anda
Ġgrapefruit s
uds on
ĠZest a
ĠImp ortant
ĠCand i
Ġ19 9
ĠInd onesian
pack aged
Ġjack et
ĠLo is
ĠLef t
ĠSand ra
Ġtr ash
ĠTra ppey
Ġsuper market
ĠEleg ante
Ġla id
ĠEvery one
ĠMaster piece
ĠBrazil ian
ĠGram my
ĠDan iel
inos aur
ĠMid night
ĠDreams icle
Ġsett les
ĠWho ppers
ĠFlower pot
ĠSett ler
Ġdeterm ine
Ġca uses
Ġaut omatic
Ġwat ah
ĠLau ghter
ĠOo ey
ĠCroiss ants
Ġpanc etta
ĠAnch o
ĠDeg laze
ĠStre et
Ġmort ar
Ġfud gy
Ġpenet rate
length wise
Ġresid ue
Hen ry
Ġmillig rams
B arbecued
C E
D ream
F ast
L awry
M ust
P ick
S ometimes
b ly
c rab
c ia
c ould
c top
d irt
f ashion
g ies
h ing
i vers
m ash
r oni
s ingle
t brown
u ly
u let
y a
y ro
Ġ ing
Ġ ...
Ġc raft
Ġt acky
Ġt ricol
ar ed
es ted
Ġp illow
Ġf ra
sp rinkled
Ġ2 10
Ġ2 32
Ġa w
Ġa ig
ĠS atin
Ġe yed
ĠB elle
ĠB ride
ĠP av
ge als
un es
ĠT yson
ĠM os
Ġh ooks
ĠA ge
ĠA cini
der n
ĠR and
ĠR edd
ĠR iv
ĠR eam
ĠR oom
ĠD ukes
ab lespoon
id ence
Ġcup board
ĠCook s
ĠH all
ĠH op
op hane
ĠG ro
ĠG ail
ĠG ene
Ġ9 9
tion ed
Ġshor tc
let e
ĠE mp
Ġref ro
ĠTh ird
ĠU ltra
Ġfirm ness
Ġpo or
ount y
arbec ups
Ġbr ats
ĠDel mon
ĠPepper corn
ok o
ĠCon es
velop e
ĠRitz y
ĠAl ba
Ġper cent
Ġsubstit utions
eez ed
peel ing
Ġpr act
ĠPop eye
ĠNor ma
Ġlit tlen
ĠLi ving
ĠMill ie
Ġcre ating
Sp icy
che e
ĠTost ado
ĠWay ne
ĠAny time
ĠClass ico
ĠWil ma
ĠTown house
Ġhoriz ontal
veget ables
Ġexp ensive
ĠAle x
Ġconven ient
Ġpra ise
ĠKol aches
ĠTemp ura
ĠPal mas
ĠPri or
ĠMethod ist
tb owl
Ġmac adamia
ĠLar ry
ĠThom as
ĠPaprik as
ĠChalup as
ĠCher okee
Ġbru ised
ĠCalz ones
ĠJos eph
onn ay
oug at
arant eed
Ġmirlit ons
ĠAbs olutely
Fr utti
pit ted
Ġelder berries
ĠWisp ride
Ġsucc otash
) )
4 9
: \
G olden
K n
O K
R agu
S low
T akes
T urkey
b urn
b by
c alor
c ium
f ace
i ver
j a
k o
l oose
m aster
m ints
n es
p ints
t ight
t chicken
w et
Ġc e
er ed
Ġo cean
Ġt extured
ar oni
Ġb irthday
Ġm ullet
en cy
Ġf iddlehead
Ġw indow
ĠC athy
or ino
ro ast
Ġd ye
Ġe asiest
Ġl oins
he as
ĠB asting
ĠB arbecups
ĠP sal
ĠP ippin
ĠT a
ĠT in
ĠT ar
ĠT avern
Ġh urt
ot es
Ġn ests
Ġth inn
ĠR io
ĠMix ing
ĠD aff
ush i
Ġco ffe
st ruc
Ġfro gs
Ġcoc a
Ġbl ister
ĠH odge
Ġcon geals
ĠG lace
ĠIn ternational
ag li
Ġsk inny
ĠO odles
co at
ĠBro ther
Ġ20 2
ĠJ ay
ĠK abob
ĠSa ff
ĠN annie
Ġnot hing
ĠSh el
ĠSh uck
ĠButter less
cook ies
Ġcran k
ind eer
Ġturn overs
Ġacc omm
ĠCar ob
ĠFor get
ss oise
Ġspray ing
Ġmicrowave proof
ĠAr th
Ġtoast ing
so aked
Ġme ans
tc up
do ors
Ġplatter s
Ġind ex
ily n
ĠPr ince
Ġsoak s
enn is
ĠEqual s
Ġvigor ous
Ġchip otle
ĠSnow d
ĠSnow y
ĠMill er
ĠTre et
ĠAd ams
ĠHar ris
ĠPap aya
.. ..
ĠFour th
ĠMor avian
Ġgu est
omm end
ĠHard ee
cal illi
ĠChar coal
ĠOut rageous
Ġunmold ing
ĠFun ny
Ġbush els
Pre paration
He inz
br ush
ĠSus ie
Co vered
lo va
Ġport ab
ĠTim ey
Ġhol der
Ġdid n
Ġblu efish
ĠCheer wine
Ġnap kins
ĠThom pson
trim med
ĠMoo re
ĠRh ine
ĠGul f
Sn ack
sec ond
Ġ__ _
ĠSte ve
ĠLuc ille
Ġmag ic
ĠOV ER
Squ ash
Ġcell ophane
Ġsock eye
elebr ation
Ġdew berries
Ġdev otion
Ġdeseed ed
ĠEurop ean
Ġsult anas
ĠRedd i
Ġrefro zen
calor ic
Ġaccomm odate
A cc
M azola
O ther
R emove
S un
T ake
T ip
T otal
U T
W ater
Z erta
d ogs
m un
m aking
n ect
s l
t Melt
Ġ ant
Ġs old
Ġs orted
Ġs mear
Ġo oz
Ġt iss
Ġb ugs
Ġb eside
Ġp il
Ġp ike
Ġp omegranate
Ġp heas
Ġf ans
Ġf izz
ic ing
gar d
Ġin f
as es
Ġsu nd
it ian
Ġd esserts
ĠS ouffl
Ġe a
Ġg au
Ġl y
Ġl ie
Ġl ip
he e
ĠB a
ĠB an
ĠB enn
ĠT al
Ġh yd
Ġor ganic
Ġfor dhook
to ff
ts o
Ġn ickel
Ġth ins
Ġmar ks
ĠR en
ĠR ust
ĠR ave
ĠR ita
Ġso il
ay as
ĠCh afing
ien ies
ĠW inn
st ini
Ġsp are
ĠF ore
ĠF ennel
ĠF ather
ĠSp uds
ĠSt ri
ĠSt ollen
ery l
Ġcar ry
edd ed
na ise
Ġmeat loaf
ĠBeat en
ĠJ ord
ĠK aiser
ĠV itamin
Ġsm al
ĠChe eses
ĠN ugget
Ġen c
Ġfin est
ĠBe v
Ġsc otch
Ġri vels
ton ion
ĠGr as
ĠFor ty
Ġbr anch
Ġneed le
Ġspray s
pl um
ĠZ wieback
so ften
ĠPeel ed
corn starch
Ġper fume
Ġpound ing
Ġop t
tc r
ĠCaramel ized
cr ush
ĠDe v
ĠRec ip
ĠVeg ie
Ġpor cini
ĠMar ilyn
ĠHoney ed
Ch i
ĠWater cress
ĠHe avily
ĠMom my
ĠAn t
ĠEx otic
acc oon
ĠFrit ter
ĠLe aving
Ġfinger tip
ĠShort ly
ĠKn ock
la ine
ĠAd vance
hyd rated
Ġbed s
ĠInd ent
Ġinter est
ĠGoo f
ĠCas a
Ġspecial ty
ĠDr unken
tS poon
ĠHayst ack
Ġsem olina
ĠMam ma
ĠLee ks
ĠThumb prints
ĠQuesad illa
Ġarm s
Ġdisc s
Ġtil ting
ĠTreas ures
Ġcylinder s
Ġgather ings
ĠMist akes
Ġpropor tion
slow ly
ĠSett lers
ĠPaprik ash
Ġbuckey es
ĠHorn s
Ġspec ified
Ġrandom ly
Ġpign oli
Ġpump kins
bre ast
ĠTher esa
Ġlittlen eck
Ġpheas ants
Ġsund ried
7 6
C anned
F udge
G rape
L ef
M el
O live
P izza
S mall
S ome
c el
g ment
i ola
l ooks
o ppine
p into
t les
t cook
t able
t Do
u ry
w ild
Ġ /
Ġ uv
Ġc ents
Ġs atin
Ġm ahi
Ġf iesta
Ġch our
ĠC otton
ro y
as hew
ĠS ets
ĠS ince
Ġe le
he et
ĠB O
ĠB reeze
ĠP f
un wrapped
un whipped
ĠT ina
Ġbutter s
ĠM alt
Ġv al
ol ia
us can
ĠA ct
Ġcream s
Ġbe aver
Ġwater s
to il
Ġeggs h
ri age
Ġover heat
ĠW right
Ġbo y
Ġsp uds
id ney
if er
ĠL ollipops
ĠG ets
Ġmay onaise
ĠCo q
Ġ30 5
Ġex cluding
Ġshred ding
co d
ĠE st
ĠE tc
ĠJ ason
ĠJ unk
Ġcrust ed
ĠV ers
ĠBl itz
Ġwarm th
Ġare as
ĠAnd y
ĠSh ower
ĠU m
ĠBr usc
Ġconfection ary
Ġcur led
Ġcro cks
Ġtw irls
ĠAr nold
ĠAr bor
Ġim merse
ĠUn fried
Ġmarin ates
Ġsome one
can ning
wich es
Ġac tion
Ġmois ter
ĠCl uster
ĠAng ie
Ġmoist ness
ĠPack ed
ĠTort oni
ĠPr ud
Ġreach ing
ĠSho estring
ico ise
ĠFollow ing
imp ortant
Ġdra wn
tS ift
Ġwhe ther
Ġmatch sticks
agg ed
ĠSunda es
Ġgizz ard
Ġmult ip
Ġtre es
Ġtre ated
ĠSens ation
Ġmess y
mar ine
Ġbuff alo
Ġore os
del i
join t
Ġple asant
ĠParis ienne
ĠSli vered
di et
ĠOccasion ally
ĠChalup a
ĠHer ring
Ġcheer fulness
ĠBomb ay
Ġliquef y
ĠWitch es
Ġaccumul ates
Ġloc al
frost ed
ĠSass y
Ġlef se
ctop us
ĠPav lova
ĠArbor io
A d
B ag
D urkee
I saiah
P er
Q ue
R efrigerate
S ch
S ize
T ater
W ip
a ven
b q
b ubb
b eg
c tion
e venly
k ist
l ook
l ay
p aste
s ther
s aved
t an
t nuts
Ã ©
Ġc amel
Ġc actus
Ġo k
Ġb less
Ġp a
Ġp ones
al tern
ou ston
Ġw att
ing on
gar ban
ĠC el
ĠC reek
ak ia
am ed
am ari
Ġsu ck
Ġl ate
ĠB ed
ĠB ix
ĠB rid
ĠP ars
ĠP ats
ĠP igg
ĠT O
ĠT ies
ĠT rop
ĠT imes
ĠT uscan
Ġun ex
Ġmin d
ith in
ad ies
Ġfor t
ch oose
ri vel
Ġ4 9
ve in
Ġoz s
th ighs
Ġle c
ĠR y
ĠR utabag
ĠMix er
ĠW as
ef eller
ĠF ake
ĠF owl
ĠF ew
ĠF anny
ther e
res t
ĠL B
ĠL ion
ĠL ore
ĠL ew
ĠL oops
ĠH il
ĠH ood
ĠH int
ĠH oles
Ġstir r
ĠG inny
edd ings
ub an
Ġab und
Ġcl ock
Ġal tit
uit able
Ġra be
Ġsl ender
os ing
ĠO s
Ġseason al
co arsely
Ġan isette
Ġhe el
ats u
ĠMo del
ne x
aghett ini
Ġsoy ameat
Ġcol lec
iv ide
Ġacc ur
Ġcur ve
ĠCar eful
Ġcrisp s
ĠTo gether
ĠQu art
sc alded
ist ic
Ġper haps
bon es
ĠPast or
ĠPast el
cl udes
ĠFr ont
af ras
Ġcas ter
Ġpul s
ĠOven s
ĠBlack ened
ĠCre pe
may o
Ġass ure
Ġ100 0
butter nut
Ġstrip es
ĠSun rise
ĠSun kist
ĠSnow flake
Ġrib eye
Ġbas es
ĠWa x
ĠMa gg
ĠSaut Ã©
ĠWay s
ĠRock efeller
ĠTart lets
ĠRos amarina
Ġbal m
ugs tore
Ġhazel nut
ĠLor i
ĠPaul a
ĠOther wise
ĠJu an
ĠJu le
Ġsufficient ly
Yum my
Pre p
Ġpass ed
tT urn
ĠSens ations
Ġaccompan ied
Co ffee
Che ez
ĠMich ael
mar aschino
Ġmen tioned
ĠRob usto
Ġdrizz ling
Ġdr ug
Ġflam es
ĠMatt hew
Ġjud gment
Ġmusc adine
ĠBer tha
ĠCour se
ĠSor ghum
ĠLes lie
Ġpain ts
ĠFu zzy
Ġfoot ball
Ġsupp ly
ĠPay day
meas ured
Ġcompl iments
ĠSpider s
ĠTah itian
ĠDen ver
din ary
ĠBenedic t
ĠNorm andy
ĠDecad ent
umqu ats
Ġgath ering
ĠChard onnay
Ġinden tion
ĠCort land
Ġcrump led
AK E
Ġfra iche
ĠReam es
ĠDelmon ico
ĠJord an
Lef tover
B ra
B asil
C om
C ustard
F aced
L L
N umbers
P ea
P umpkin
W rap
b ed
b ie
b age
d ressing
j ell
m aker
n or
s ub
t sp
t Brown
z ag
er ate
Ġb us
Ġm utton
il ies
Ġch inese
Ġw hey
sp ring
ĠC zech
ĠC atherine
ro ken
ak op
Ġsugar y
Ġ3 30
ĠS til
ĠS omb
ĠS olution
ĠP aw
ow ax
ĠT een
Ġbutter ing
ĠM I
ĠM i
Ġche aper
ick ed
Ġun frosted
ol o
Ġh ugs
Ġmilk y
ch amel
um my
Ġn ail
Ġn oniodized
ir ard
Ġj ams
et ings
Ġsh edded
Ġsh rivel
.) *
ĠR ump
Ġover work
ast urt
ĠCh ild
ĠD ick
ĠD uke
Ġco il
ip ed
ip ino
ab ur
Ġsp oil
im ore
ĠF usilli
ish ed
qu ette
ĠSp an
ĠSt al
ĠSt arch
Ġpot ted
ten d
ĠL uke
ĠL inks
Ġbl isters
Ġmel d
ĠG ala
Ġcar p
sh ort
Ġ9 7
ĠCo ast
Ġcut outs
ress ions
ley e
ĠO x
ĠO ak
Ġpap ayas
iz ing
let te
ĠE laine
tt es
ĠJ us
ĠV iole
Ġhe ar
ĠSa uced
ĠTh ose
ĠN ina
ĠN icoise
Ġfin er
Ġpaper ed
ift y
ĠBread s
ble ts
Ġri pp
og ies
Ġkidney s
Ġunb roken
Ġsec rets
ĠQu iches
Ġar ri
sc r
ĠFl owers
ĠSc alo
ĠDel ic
Ġfold s
Ġdeep er
ĠUn usual
Ġmold ing
gs icles
oul ade
uns liced
ĠMe ad
ĠAng els
ĠSk ippy
ĠGl en
ĠCrack ed
ĠCrack le
Ġsun ny
Ġopen ings
ĠMar ian
ĠCal yps
Ġsummer time
Ġdecor atively
ĠKn own
fu red
ĠTender s
ĠPeas ant
ĠBas que
ĠRich ard
ĠInd ia
Ġflow s
leph one
Ġsav oy
ĠPar owax
ĠWish bone
ĠReub ens
ĠTenderl oins
Ġwonton s
ĠGlor ious
tR efrigerate
Ġcour t
sm oked
ira ble
non stick
Gr illed
ĠAss orted
Ġcrystal ized
Pro verbs
36 5
Ori ental
comb ined
ĠSzech wan
ĠSen ate
ĠMax well
Us ing
ĠMinn ie
ĠRev iew
ĠChamp ion
gro ves
tea spoon
how ever
ĠVichy ssoise
ĠMyr tle
ĠComm union
ĠTabb ouleh
Ġunsulph ured
Ġing red
Ġtricol or
ĠDaff od
Ġblister ed
ĠArth ur
ĠSnowd rift
ĠBO IL
ĠBrusc hetta
Ġunex pected
ĠSomb r
asturt ium
ĠCalyps o
% ).
1 50
1 75
2 25
3 4
C K
C ould
G old
H ors
K orean
M an
P udding
U R
V egetarian
W ay
a ute
d ipped
f all
f reez
j ello
k ake
l asting
n ite
o atmeal
s ided
t una
t Layer
t then
v ar
Ġc ow
in ated
in stead
Ġs ass
Ġs atur
er le
Ġb ing
Ġb oo
Ġb are
Ġp k
ut en
on ed
en h
Ġf auce
ĠC H
ĠC elebration
am ab
Ġa sp
ĠS ifted
Ġe leg
Ġg ashes
ĠB og
ĠB alt
ĠB aggies
ĠB ounty
ĠP ans
ĠP out
ĠP os
ac tion
Ġfl ipping
ĠM andel
ĠA da
Ġcho ices
ch ick
Ġsa w
Ġn ugget
th our
th icken
ry lic
ĠR ese
ĠCh a
ĠD ing
ĠD oodle
ĠD esserts
ĠD ottie
ĠW y
ĠW ed
Ġsp anish
Ġgar bage
ĠF ine
ĠL u
ĠH ugs
ĠH udson
ber ta
Ġab ut
ĠCheddar y
ul p
Ġsl at
Ġex periment
ĠBro ok
ĠE sther
ĠJ ess
ĠJ essie
ĠK nots
iss e
ĠChe e
ĠBl intz
pan adas
ĠTh elma
Ġen v
ĠY ong
Ġchill s
kin d
irec t
Ġsoft ball
ĠCho col
oth ers
Ġfirm s
Ġfoil ed
Ġhead less
ĠGr annie
Ġcur ling
ĠSoup s
Ġbut ts
uck er
uck les
Ġnon aluminum
ĠAr ound
ig ne
ĠKeep ing
ĠNut ritious
Ġbeg un
Ġop ener
Ġac rylic
app earing
ĠGl ue
ĠRec eption
Ġcap fuls
Ġscal oppine
ĠWill ie
ĠWal king
Ġfrost y
Ġflatten s
ĠJo gging
fresh ly
ĠCal ab
Pot atoes
ĠWhisk ers
ĠPol ka
Ġsw eat
ĠOp al
ĠMed allions
Ġrich ly
ĠTr iscuit
Ġtam ale
cream ed
29 0
ĠMiss ion
ĠMa ggie
Ġdis colored
Ġte lephone
Ġinter ior
Ġdistrib uting
Ġdrum stick
anger ine
ĠFix in
ĠPers on
Ġlo vely
Ġinc reasing
Ġveg ie
amond in
Ġcal ves
-- -
Ġsand ies
Ġaccom pany
Ġenamel ed
seed ed
ĠFri joles
crack ed
ĠDis joint
ĠDis appearing
Pro gresso
ĠJun ior
ĠJenn ifer
gen cy
Ġhusk ed
Ġgrand mother
ĠNap oli
Ġutens ils
ju ana
ĠReg ina
ĠEmer ald
stew ed
Ġoverflow ing
ĠTy pe
ĠBru lee
ĠAz tec
ĠFest ival
Ġsnug ly
Ġtiss ue
ĠBenn ett
ĠPats y
Ġlec ithin
Ġfauce t
amab oko
ĠBalt imore
A sparagus
B oil
B aker
B ob
C on
D irt
E d
E ase
G o
H ormel
J on
J oy
K roger
L and
L inks
M aw
P op
P oppy
R anch
R icotta
V eg
W rapped
b asco
c ast
c ont
d ill
k nead
k ernel
k idney
l ard
l ump
n ew
p o
t ect
Ġ ?
Ġc ork
Ġs ign
Ġp ad
Ġp one
Ġp reserving
Ġm unch
ou ds
Ġf ake
Ġf aces
Ġch ance
Ġw alls
le ted
le ft
le aving
ĠC uts
ro ved
ak ers
Ġsu pplement
Ġon oin
Ġd am
Ġd ress
ĠS ing
ĠS ylv
ter house
ĠB akes
ĠP ossum
ĠP oulet
ĠM s
ĠM abel
ĠM ardi
ĠM irin
Ġh orn
Ġcho sen
ad ines
ts y
Ġcr iss
ĠAdd ing
ri zzle
Ġsa uted
Ġj iffy
Ġj ob
Ġsh ave
Ġth inning
Ġgr inds
Ġso das
ie f
Ġover blend
Ġover done
ure l
ĠD ak
ĠD ol
ĠD ime
ĠW ink
Ġr eroll
Ġr amps
st ep
ĠF oot
ish ing
ish ness
ĠSp ike
ĠSt ra
Ġslic er
ap ul
if etime
ĠL eche
ĠH ag
ĠWh it
sh akes
sh iny
ag ain
Ġshor ten
av able
Ġk ilo
os a
ĠPut ty
Ġsk ip
ĠE qu
ĠJ ac
ĠJ ersey
ĠK ern
ĠK ielbasi
iss a
bur st
Ġout ward
Ġpre melted
ĠY olks
ĠY ule
ĠSh ow
Ġ25 2
Ġpast ina
ĠSl ushy
Ġcle aver
Ġrest ing
ĠGr ams
Ġcur ried
Ġ16 5
ull ers
Ġpro mp
ĠZ ip
ĠZ atar
az a
ĠCon fection
ĠUn sweetened
pick ling
ĠRanch ero
Ġne igh
ĠNo el
ĠCl over
ĠCl ouds
tc ool
Ġwood y
Ġunder cooked
cr acker
ĠPan cit
Ġscal es
ĠScall ions
Ġabs olutely
Ġact ually
Ġact iv
Ch ild
Ġring ed
ĠAn ts
ĠYum s
rid ay
30 3
Ġsw amp
ĠHun ting
Ġclos ing
Do es
ĠCole man
ĠBra d
luc ks
ĠPo ds
Ġtransfer ring
Ġartific ially
ĠWe igh
Sp ecial
ĠGener al
Ġte ap
ĠPart ies
Ġcoll ar
Butter milk
Egg plant
ĠFud gsicles
Ġspl atter
ĠBut t
bel ow
sal sa
Ġunroll ed
cub es
squ eezed
Ġob ject
Ġbud get
ĠTe quila
Ġport able
Ġshrink s
car eful
ĠJenn y
ĠBear naise
Ġcrow ding
Ġdiscolor ing
Ġques o
Ġunsul fured
ĠGh irard
Ġprov ide
ĠVern ors
Ġbuckey e
rift y
Ġha ppy
ĠLill ian
ĠVick i
ĠTurk ish
Ġviole ts
defrost ed
ĠPoin ts
ĠTi juana
Ġteac up
Ġconf idence
Ġresist ant
str ong
ĠNav aj
Lon ghorn
ĠIc icle
yro foam
Acc ent
Ġchour ico
ĠPrud h
ĠDaffod il
ĠSylv ia
ĠGhirard elli
. ")
2 30
3 60
5 3
A ka
E l
I mp
K id
M ilk
O R
O rteg
P ound
R ising
S u
S ee
c ountry
d rum
h om
j ects
k oe
l an
m olasses
p izza
s u
s ides
t This
u h
Ġc ooper
in ers
Ġt rench
Ġb arb
es ter
es pecially
es ota
Ġp ushed
Ġp estle
Ġm L
re active
ut ettes
on ata
on stitute
Ġw ise
Ġw iped
ing ly
sp here
ĠC ray
ĠS illy
Ġg hee
ĠB ok
ĠB essie
Ġsalt pet
ĠP arsn
un seasoned
is er
Ġfl oss
ĠT ing
ĠT angerine
ĠM ur
ĠM mm
ick le
Ġun frozen
Ġh app
Ġh anger
ĠA way
ĠA live
all as
Ġor nament
Ġor dinary
Ġst ocks
Ġcr uet
om i
Ġn et
Ġn ights
illa ge
ĠMix master
Ġover stir
ĠCh amb
ate m
st rips
ĠF ly
ĠF ern
ĠF igs
Ġpie crust
ces ter
ĠL ots
ĠL ye
ĠH it
ĠH ills
ĠH OT
ĠG el
sh i
Ġhot ness
Ġhot dogs
ag a
ag na
Ġcl ip
Ġstick iness
Ġal ter
Ġroll er
ĠE lean
ent ial
ĠJ a
ĠJ ill
ĠK ook
ĠK ernel
est y
ue v
ĠPe pp
ĠY et
ne ver
ĠBe verage
ĠBe verly
ĠSh edd
ĠSh awn
Ġdash er
arb or
Ġthaw s
ton ions
Ġpo pper
ous el
ĠFor t
Ġtw in
ĠDo d
ĠFl am
ig o
ig zag
ĠSeason ings
Ġgood ies
Ġany where
Ġdi al
ĠBreak stone
ĠFreez ing
ĠThe m
ĠPec orino
wh ichever
Ġpar alle
ĠAcc ents
ĠRe lease
ĠDe vein
Ġpor tobello
Ġwor ld
ĠVal en
cho ice
Ġalong side
ĠPack ets
Ġtri pe
Ġtri angular
ĠPl ug
crumb le
Ġsolid ly
Th ere
ĠPer ky
ĠDevil ish
over nor
Ġrib bons
ĠTr uly
ĠBon bon
Ġperson ality
ĠInd oor
ĠSmooth ies
Sp rinkle
ĠJul ia
ĠEd wards
ho e
Ġlo ving
tain ing
Ġjigg le
con fectioners
ĠItal y
ĠBarb eque
ĠBut tons
ĠLady finger
Ġeff ort
ĠMargar itas
Pre pare
Pre tzel
Ġexten ded
Un cooked
Ro ast
Red uced
lo vak
turn ed
Ġvert ical
ĠEll a
ĠHow ever
car amel
Ġdr ugstore
Ġenhan ces
ĠParis ian
ĠKe babs
Ġmusc adines
ĠKring le
ĠAc apul
Swans on
Ġol der
Ind ian
clean ed
cur d
Ġhar der
ĠSom ething
ĠFres ca
Apples auce
ĠAst oria
ĠAsh ley
cons istency
ĠId eal
Ġoverh ang
Ġfiddlehead s
ĠPsal ms
Ġthinn ess
ĠSaff ron
ĠLew is
ĠMagg i
ĠSombr ero
ĠDak ota
Ġteap ot
Ġsaltpet re
Ġparalle l
ĠAcapul co
6 5
B ul
C ottage
D ipped
H ave
H omemade
J O
J o
M or
N e
P yrex
R eal
S et
S ec
S ea
T ort
b ot
c omes
c ranberry
g ently
g rape
h addock
i gar
i ppers
k iwi
k atsu
l ies
m aw
m arinated
n atural
p unch
t about
t from
t bake
t pour
t Grease
w agon
y ers
Ġ EN
Ġ usage
in da
an i
ar oos
Ġb en
Ġb ug
Ġm ah
Ġm usk
ut iful
on da
en velope
Ġf ern
Ġto y
ĠC ome
el and
ro odles
our age
it ters
Ġa gar
Ġa igs
ĠS ake
ĠS ame
ĠS ample
Ġl ifetime
ĠP illow
Ġ( *
ĠM oose
us al
Ġcho ke
ver ages
to ber
ts oup
ri er
om en
um er
Ġn ougat
ve ction
Ġj el
Ġsh ucks
Ġat mo
Ġgr ouse
Ġpowder y
ĠCh ina
ĠD inners
Ġco pper
Ġre le
Ġsp rite
ĠF re
ĠF ondant
ĠF ideo
ĠF riday
qu is
ĠI gn
Ġpot lucks
ĠL OW
ĠH oo
ĠH ocks
Ġcon c
ĠG i
ĠG ift
ĠG ai
ĠG obs
ĠG ob
ĠWh atever
Ġcar b
Ġcar t
Ġser ver
Ġhot test
ag en
ll is
Ġis land
Ġk abob
Ġk umquats
Ġal though
Ġred fish
uff ins
co cktail
ĠRem oulade
ĠJ r
ĠJ ars
ĠK err
Ġpl ants
iss y
ĠCr me
ĠDrain ed
Ġpre tt
ĠTh ings
ĠN es
ĠN ich
Ġtab let
Ġjar red
ĠY olk
ĠY oung
ĠY ulet
ĠBe tsy
Ġz iploc
ĠCho colates
arin d
Ġgl ow
Ġde lete
ĠRo ger
ĠCar n
Ġwhen ever
Ġstiff ens
ud y
Ġgran ite
oss al
Ġpro tect
Ġdri er
Ġgood s
ĠHot el
ang ost
Ġsub marine
ĠCont ain
Ġskim p
Ġpunch ed
eri or
Ġsn ake
egg iano
amb e
Ġpink ness
ĠCro stini
ĠCol ored
ĠMar riage
ĠMom s
Ġscoop ing
ĠCom ing
ĠLime ade
ug al
Ġshort ribs
Ġnear est
Ġrepeat ed
ĠHerb al
Ġstrain ing
ĠTri o
Ġanise ed
Ġad equ
Ġbath tub
Ġlin en
ĠEl bow
Ġ19 8
Ġcontinu ous
Ġmicrow aves
oriz o
Ġbun ny
Ġcast or
Ġear th
ĠCap ers
Ġadjust ing
ĠPic calilli
Ġgu ess
ĠEd ges
Ġtr ue
Ġsciss or
mushroom s
Ġtuck ed
ĠPaul ine
Ġtost adas
Ġcal cium
ĠJohnny cake
Pre go
follow ing
Ġpray ers
ĠKol acky
ĠTe ac
Ġdisappear ed
ĠOh io
Ġsett led
ct ic
Ġdelight ful
Ori ginal
ĠBuck wheat
ĠSpir it
aik on
ĠCour t
ĠGul den
Ġboys en
Ġcra ppie
Ġprov ides
Ġsatisf y
Flavor ed
Ġsubmer ged
Ġocc urs
ĠRus se
Ġjudge ment
ĠMult i
Ġrel atively
ĠEss ence
purch ased
ĠSpl ash
Ġblan ket
Bar ley
Ġeggsh ell
Ġaltit ude
ĠMead ow
Ġcourt esy
Ġpromp tly
ĠNavaj o
JO Y
ĠEN JOY
Ġatmo sphere
A v
B ig
C arrots
G rated
L Y
M ain
N D
P unch
P ark
R A
R uss
S ide
S ubstitute
T urn
V anilla
Y ellow
d uc
d ust
e gs
e asier
g rate
h ickory
j acks
k n
p ans
r un
s age
t aste
t one
t be
t vanilla
u ine
Ġ ash
Ġc t
in is
Ġt i
Ġt ast
Ġb agged
Ġp oll
Ġp ermits
Ġm idd
en z
en ies
al at
Ġw r
ĠC ukes
or der
el i
Ġa chi
Ġl oop
Ġtsp s
ĠB at
ĠB ama
ĠB bq
is ine
is enh
gg edy
ĠT our
ĠT eddy
ĠM ick
ĠM ey
ick ers
all a
Ġst ix
ts weet
um es
Ġn asturtium
ir is
th alf
Ġth er
ĠR ew
Ġso p
Ġover c
Ġr u
st e
st raight
qu ets
ĠSt ripe
Ġpot tery
ten s
ass e
ass orted
ass emble
ĠL an
Ġbl and
ĠH ere
ĠG ol
Ġdry er
ll ion
Ġcl ips
Ġk it
Ġk amaboko
ul ate
co ffee
ĠE c
ĠE isenh
Ġ13 5
ĠJ e
ĠK ibb
pping s
Ġcrust less
ĠV ol
ĠV ent
Ġli ked
ĠChe ap
ĠTh rifty
ĠN at
ĠN ettie
ĠSh asta
Ġlet ters
Ġliquid y
Ġbatter ed
ble m
Ġbou llion
Ġbouillon s
Ġcand les
Ġde ad
Ġturn over
Ġpo ked
izz le
ĠCar rie
Ġqu in
Ġtw ink
Ġgran ny
ig old
Ġdri ve
az ine
Ġins ist
ĠCon nect
ĠQuick y
oin t
Ġuns elf
Ġ* (
ĠMe antime
ĠDor a
ĠPro v
ĠGreat est
ĠRe ad
ĠSn y
Ġthickness es
ĠCol man
ĠMar cus
Ġkind ly
ĠAltern ating
Ch olesterol
ĠAp ril
ĠSpecial ty
ĠIs le
ĠCur ve
ĠLe b
ĠHor se
Ġstr udel
Ġbas in
ĠBon es
ĠRi pple
ĠHar ri
ĠEl sie
Ġtenderiz ing
ĠJer usal
Sp ray
Ġscorch es
Ġperfor ation
ĠTam my
Ġte as
Ġsor rel
ĠScotch aroos
ĠStack s
Be ans
ĠLen ten
ĠAvocad os
ĠJan ice
ĠGrandm om
ĠUp on
Ġho spitality
efin ite
garnish es
26 5
Butter scotch
Ġbrew er
ĠHoll and
tS et
ĠCord ial
Ġdec ide
Ġdec af
Ġsilk s
ĠFloren ce
ĠCry st
Ġla urel
On ly
ĠBlan kets
warm ed
Ġrain y
ĠCor iander
Ġattract ively
ĠFire house
Ġdevelop s
ĠCod fish
awn y
ane ous
ĠChick pea
ĠEll ie
ĠPizz elle
ĠBab e
ĠBab ies
Am os
Ġindic ates
Ġferm ented
ĠPle aser
ĠWhe els
Ġjer k
Br unch
ĠCla ud
ĠMinn esota
Ġdunk ing
Ġmus lin
Ġreason able
ĠCharles ton
ĠEconom y
ĠRal ston
ĠSi mon
Ġprong s
Ġenter taining
affe inated
cel ain
nex t
Ġbus y
ĠStil ton
ĠStal ks
Ġsass afras
ĠFoot ball
Orteg a
ĠElean or
ĠTeac akes
ĠEisenh ower
ĠJerusal em
B T
B arbecue
C ajun
G E
H ome
M other
O uts
P our
S uper
T bsp
T aste
W on
c i
c ured
d ifferent
h or
h our
j am
m oon
n umber
p ted
p op
p ower
p astry
r ump
s ea
t L
t ch
t dish
t If
t juice
t Use
t Yields
Ġ ream
Ġc app
in er
er ds
Ġo ctopus
Ġt er
Ġt al
Ġt asted
ar ily
ar ita
Ġb i
Ġb leu
Ġp isto
Ġp ossibly
Ġm ount
Ġm ignon
at ile
Ġw eddings
ic ut
Ġto ler
Ġin cludes
ĠC ec
ro m
as ers
Ġa gent
Ġg am
Ġg ri
Ġg oulash
Ġl ace
Ġl ingon
Ġpe ep
he aped
ĠB E
ĠB ath
ĠB unk
ĠB ecause
ĠP ups
un o
ĠT ight
ill ion
ĠM and
ick s
Ġh on
Ġh or
Ġh ay
ĠA uthentic
Ġbe ad
Ġpepper mints
Ġst yrofoam
ell oni
ell aneous
ts mall
der berry
ve t
et nam
Ġsh op
Ġsh erb
ĠR oni
ĠR ang
ĠCh eryl
ĠD ams
ĠD ales
ĠD aiqu
Ġco st
ĠW eep
ĠW oody
Ġr accoon
st rained
Ġsp r
im als
Ġcorn stick
ĠF ields
Ġse w
qu itos
qu ante
qu ito
ĠSp atini
id o
Ġy arn
ten mann
Ġ6 6
ap rika
Ġcon vection
Ġvinegar s
ĠG overnor
ĠWh ippers
Ġcrack ling
ant ity
Ġk asha
Ġham bone
ec tion
iz er
ĠE rn
ĠE asily
ĠJ et
ĠK a
ĠK ate
ĠK ap
yr am
ĠCr ullers
Ġnutmeg s
ĠCut outs
est ead
Ġsm ith
ĠSa w
ĠBl ock
Ġbefore hand
oni que
ĠN avel
ĠY osh
ott ing
Ġdes irable
isc ellaneous
ĠAnd ouille
ĠBe chamel
Ġ7 50
sweet en
irec r
ee ts
Ġapple jack
ĠBoil er
ile en
fec tions
cook er
Ġconfection ery
og any
Ġbon y
ape ppa
Ġpo blano
ern et
oc acc
ĠTo ad
Ġnon pare
ĠTab le
Ġcomp assion
ĠAr c
ĠSc ot
ĠSc ra
Ġkeep er
ĠCan ape
ĠCon ch
ĠSalt ines
ĠUn used
ĠAl ong
ĠAl ma
uer to
can non
Ġchop lets
Ġlength ways
io pp
ĠCran apple
ĠRa ggedy
ĠOr ch
cl ose
ĠRec over
Ġind irect
Ġpor celain
Ġrot elli
ĠMar g
ĠMar ge
Ch ick
ĠWheat s
St uff
ĠHoliday s
Ġgo blets
atur ally
Ġsw ish
ĠLe banese
ĠLon ger
ĠTopping s
Ġ28 5
rec ommend
ĠFran ce
ren to
ĠHo agie
Ġwas abi
Ġlot ion
ĠCa ution
ĠEver lasting
ĠTost adas
ĠWon tons
ĠSkin less
ĠFil ipino
Ġgu ide
ĠSmok ie
ĠPers ian
Ġinc is
Ġ29 5
Ġtr uss
ĠTra dition
Ġpops icles
Ġsuper mar
tS lice
tS aute
ĠEsc arole
Ġfeed er
black berry
App etizers
Ġrock fish
Ġstre ak
Ġstre aks
Ġve ge
ĠJu ices
Corn bread
Ġmas carpone
tB oil
Ġatt emp
mo is
gra vy
Ġsear ed
ĠEm panadas
ĠFe et
Co ated
ĠMich elle
ĠCab ernet
Ġsing ly
trem aining
ĠDie ters
Ġmen u
Ġassem bling
ĠPal m
Ġmoon s
ĠFriend s
ĠLick ing
ĠSkewer ed
eff ern
ĠSpir al
ĠGoose berry
ĠKring la
ĠTempt ation
ĠVi etnam
ĠPil au
ĠFra ppe
ĠPhy llis
Wor ks
ĠCalz one
Ġfail s
rot ini
ĠMusc adine
ĠTodd y
Ġvers e
ĠLam agna
ĠEnt ree
ĠCir cle
ĠSoci ables
roma ine
Ġconsisten t
ĠArab ic
Ġquesad illas
ĠRand all
Ġgau ge
Ġenc ourage
Ġbranch es
Ġaccur ately
akop ita
Ġsatur ate
Ġboo ze
Ġeleg ant
ĠChocol at
ĠZatar ain
ĠHunting ton
ĠChamb ord
ĠYulet ide
Ġsherb ets
ocacc ia
Ġsupermar kets
4 4
B asic
C ountry
E sp
E aster
F ood
M s
M il
N OT
N ahum
T im
T upperware
b ec
c ano
c ereal
c ilantro
d om
g rown
h u
h en
i rie
l eness
m ill
m ans
n acho
o ved
t heat
t are
v ia
v ados
w in
Ġs ouffl
er on
Ġt ad
Ġt unnel
Ġt ipping
Ġb aggies
ed o
ed ar
es us
Ġp un
Ġp ermit
en ces
Ġf ritos
Ġf olks
Ġch im
Ġw edding
ĠC ooper
el p
ro se
Ġsu l
Ġsu ggest
Ġd ome
Ġa is
ĠS at
ĠS ack
ĠS im
ĠS leep
Ġl overs
Ġl ollipop
ĠB al
ĠB ook
ĠB rian
Ġsalt ing
ĠP ant
un ce
un bleached
gg er
Ġfl ap
ĠT eam
ĠM ight
ĠM ott
ĠM uch
ĠM ussel
Ġche f
ol is
ol ulu
us o
Ġh at
Ġst opped
ch ildren
Ġcr me
th ot
Ġmar s
ĠR ip
ĠW edge
orn o
st ale
Ġre used
Ġsp ill
Ġsp ider
Ġsp aghettini
ĠF on
ĠF irecr
qu in
qu es
ĠSt ill
if un
Ġbeef steak
ach i
ĠH asty
Ġcon stant
Ġ5 2
Ġrem oves
ĠCo st
ĠCo gnac
art on
ul ture
ĠCover s
Ġgra de
ĠJ esus
Ġref ill
ĠK orn
Ġjell ies
ĠV igo
Ġhe av
Ġsm okey
ĠSa ver
ĠBl u
ĠMel issa
zz ard
ĠN ick
cc a
Ġlea ven
ĠAnd re
ĠButter ball
ĠButter worth
Ġcherry stone
ĠBr ussel
Ġcol lect
ĠSl um
Ġgl azing
ĠCorn flakes
Ġcle ars
ĠRo Tel
Ġstiff er
ud ites
Ġclean ly
ĠTo asts
Ġcomp ote
Ġcomp artment
ĠAr ctic
fl orets
Ġpro be
ĠGre g
Ġcocktail s
ig ator
Ġany one
ĠHot s
ĠOn to
az in
ĠPepper y
ang le
bl ender
Ġkn uckle
.\ )
ĠRanch er
ĠTom my
Ġpop ular
ĠDi abl
Ġros ettes
Ġfil leted
boil er
ĠCl ip
ĠPro of
ĠPro duc
All ow
ĠSm ores
tm ent
ĠCro utettes
ĠIm pro
Ġgener ic
ĠEn tenmann
ĠTort a
Ġtri vet
ĠPr unes
Ġmeasure ment
ĠFish erman
Ġloos ened
St ew
ĠCom et
te ach
Ġsteril ize
ĠOri gin
idal ias
Ġsix th
Ġgum mi
ĠAs k
Ġrub y
ĠTender ness
ĠTre es
ĠPin ts
ĠTr ue
ĠMil ano
Ġbri e
Ġhollow s
ĠBra gg
ĠEl derberry
ret ain
tP re
tP ress
Sp iced
att les
ĠFlavor s
Nut raSweet
Ġuncover ing
tC ream
ĠReheat s
ĠHom estead
Ġdep ressions
ĠBell s
ĠBob by
ĠPic tsweet
Ġbel ieve
ĠGrandm ama
ĠEnd ive
Ġtr uffles
Mo dern
Ġdec rust
ĠVer onique
Ġmanufactur ers
Ġfix ings
andel ions
Ġimpro ved
ĠGu ests
Ġflesh ed
ĠFun fetti
Ġslab s
Ġmicro cook
Ġencl osed
Ġsplash es
Me asure
ĠTer ri
ĠTer esa
Ex odus
ĠSpritz er
turn ing
ĠSeas ide
ĠSkew ers
Ġappet ite
Ġsett ling
ĠVari ations
ĠProven ce
ĠMatt ie
Mc Intosh
ĠNap ole
Ġble ach
ĠHon olulu
Ġcra zy
Ġsna pped
ĠBud get
Ġfr ame
ĠKr unch
Ġcass ia
Ġsubs ides
ĠTouch down
Ġrat io
ĠSauc es
spir al
ĠPank ies
lar ger
ĠBlush ing
ĠWigg le
Ġir regular
Ġparticular ly
Ab out
Ġcoffe em
ĠPf effern
Ġpa ella
garban zo
ĠRutabag a
Ġabund ant
ĠJule p
ĠMI X
abur gers
ĠViole t
ĠScalo ppine
chick peas
ĠPrudh omme
Ġcooper ation
uev os
ĠNich ol
Ġtwink ies
ĠConnect icut
ĠDaiqu iris
ĠYosh ida
ĠPant ry
- )
0 7
4 75
A L
C anning
D ressing
D oritos
F ran
H unt
I CK
L D
L ittle
M andarin
O ur
O ff
O mit
P ink
S imple
U M
\ ).
a ine
b ers
b iscuit
c s
c rock
d ump
g on
g ium
g elatin
j i
j ul
m arin
p res
p arty
t bread
t meat
t elli
u ed
y olk
Ġc oup
Ġc raisins
Ġc appuccino
in crease
Ġt ate
Ġp ounder
Ġm ole
Ġm iss
on ges
ou st
Ġf ant
Ġch it
Ġw ar
Ġw aste
ic orn
gar ten
Ġto e
Ġto ok
Ġd ruit
Ġd ime
Ġd icing
Ġd aikon
ĠS ir
ĠS ay
ĠS uitable
Ġe ights
Ġg un
Ġg erman
Ġl ollipops
oo oo
ĠB oth
ĠB ert
dd ed
ĠT and
ĠT ow
ĠT ell
ĠT HE
ĠT agli
ĠM us
ĠM ass
ĠM orsel
Ġche z
Ġun prepared
Ġun even
Ġun refrigerated
ĠA g
ĠA h
ĠA gg
ĠA ND
ra spberries
all ops
ith uan
Ġst out
Ġst amp
to ss
om y
um m
illa ba
Ġth ousand
Ġmar kets
ĠR ush
ĠR yes
Ġwh y
Ġover fill
ĠD uff
ĠD yn
ĠW ow
ĠW ife
Ġr ate
Ġr ash
col n
ur ros
st ance
Ġsp rout
ĠF are
ĠF east
ĠF rag
ĠF oam
ĠF eel
ĠF avorites
ĠSp rout
res cent
ĠL ot
ĠL ola
ĠL oyalty
Ġ8 1
Ġ8 4
Ġcoc o
Ġ5 8
ĠG a
Ġx x
sh ape
sh allow
ĠCo bb
Ġcl abber
Ġshortening s
ep her
Ġham s
os lovak
Ġshred der
ĠO c
let tuce
ĠE dd
Ġbroth s
reas es
ĠK ick
est one
Ġblack ening
Ġsweet bread
Ġshe en
Ġsm ells
ĠSa uer
ĠPie ce
ĠPre fer
ave telli
ĠTh erm
ĠN ic
ĠN appa
Ġfruit ed
ucchin is
Ġen ergy
par able
ĠSh anks
Ġz ucchinis
Ġcom mun
Ġgl ob
ĠVelve ty
Ġwax y
Ġbon bons
Ġpo king
Ġcur ved
Ġtw ine
ud ent
ull ed
ĠFl ap
ĠFl ash
ist ol
ĠCon centr
Ġdark ens
Ġcons um
ĠUn salted
Ġel ong
ĠMe gan
Ġshould n
Ġros ette
ĠMars ha
Ġcaramel izes
ĠCl air
ĠRe vel
ĠRe ba
ĠRe indeer
ĠPh ill
tm edium
tm argarine
Ġwor chestershire
Ġgener ally
ĠGrill ing
ĠCol cannon
ĠMar ion
Ġcustard s
ĠWal ker
Ġoyster ettes
ĠJo ann
ĠMom a
Ġflake y
ĠSeed less
Ġlit re
ĠProcess or
Ġdump lins
ĠAb by
ĠWarm er
ĠHun ts
Ġtall ow
24 8
Ġtam arind
pack age
In stead
Cook ie
inder garten
ĠEver green
ĠBea utiful
ĠTost ados
ĠTon ight
Ġpier ogi
Ġmound ed
ĠLen a
ĠSand ers
Cal ifornia
fin ish
Ġbra ids
Ġbra ided
Ġstone ground
ĠHel oise
Ġlunch meat
Ġtr ick
ĠSheph erds
Ġveg i
each er
ĠStep han
Ġdec affeinated
Ġreg ul
Ġcour age
Ġsilk y
ĠHand i
Ġdirt y
ĠGu aranteed
Ġcrystall ize
Ġcal amari
ĠBlan c
ĠMull igan
Mar tha
Ġwid est
Ġpass ing
ĠUnder standing
Ġfar fel
ĠCam ps
coc tion
ĠPi ro
refriger ator
ĠKol bassi
Ġrid ge
ĠColl ards
ĠJumb le
Gar nish
Ġsurround ing
ĠChick peas
Re ally
Meat less
ĠMid west
ĠLiqu ify
Ġfrag rance
Ġbagu ettes
Sal sa
Am ount
Ġple aser
Keep s
ĠJoan ne
ĠComb ination
ĠPle asing
ĠMad eline
Ori gin
Ġcrink led
ĠSizz lers
ĠRh onda
ĠLes ueur
leftover s
ĠVi ola
ĠDar lene
ĠTail gate
concentr ated
ĠSy rian
ĠBern ie
ĠPra irie
Bur ger
ĠToothpick s
Ġdie ts
ĠEnt ire
Hun garian
Ġemuls ified
ĠShall ots
Ġpil ot
ĠFore ver
ĠAnt oni
ĠOs good
Ġarri ve
Ġasp irin
ĠJess ica
igne ts
ĠClover leaf
Ġbarb eque
ĠCarn ival
ĠMey er
Ġunself ishness
Ġnonpare ils
iopp ino
ĠVietnam ese
Esp ecially
Ġais le
Ġmars ala
ithuan ian
Ġcommun ity
B ord
B order
C enter
E ven
E very
E qual
F un
H ow
H oliday
H alf
I T
K ing
K ool
K ist
L l
M ary
T own
W eek
b ra
b eam
b ands
c les
c ottage
c ount
c ome
g as
g rim
g rind
k osher
l ock
l uski
l icky
p ort
r ish
t oo
t ri
t ap
t ined
t ort
t May
t To
t oothpick
u enster
v o
y ogurt
Ġ ans
Ġ ashes
Ġc alf
Ġs on
er bert
an ces
an ne
Ġt sub
Ġp enny
Ġm oves
at ta
on el
en ian
al one
Ġw it
Ġw are
Ġw ind
Ġw ienies
ing ed
Ġto pper
le aven
ĠC y
ĠC ure
ĠC ough
ĠC oon
ĠC atch
ĠC HE
ak u
Ġsu ds
Ġd est
Ġ3 45
ĠS em
ĠS oul
ĠS ipper
Ġe conom
Ġg en
Ġl acy
ix ies
Ġpe ace
Ġpe aked
Ġpe koe
oo f
ĠB os
ĠB amb
ĠP and
un pared
Ġfl ag
Ġfl atter
ĠT ransparent
ĠT ube
Ġbutter flake
ill es
ĠM illet
ĠM ussels
ĠM iso
ĠM esquite
ĠM BT
Ġv er
Ġun available
ol li
ĠA qu
ĠA ud
ĠA parts
all ion
Ġor ig
Ġbe ars
Ġbe verages
ad ama
uc kets
to ven
ch eddar
Ġcan ape
der son
um i
Ġ4 1
Ġsa f
Ġn aturally
Ġth ugar
Ġgre etings
ĠR ad
ĠR ies
ĠR andy
ĠR ale
ĠR uffles
ĠCh allah
Ġcook outs
ĠD ur
ĠD oves
ack ed
Ġco ils
ĠW ipes
Ġr uffles
st uff
st uffing
Ġsp ike
Ġsp lenda
pple ments
ĠF airy
Ġse qu
Ġfro sts
ĠSp aetzle
Ġpot ting
ĠL ink
ĠL ollipop
ĠH ermit
Ġcon cent
me lets
ĠG ate
ĠG ull
ĠG ina
ĠG orp
sh red
sh erry
Ġdry ness
Ġro d
Ġro ad
ĠCo ins
Ġab ility
Ġfresh ness
ĠO la
co als
ĠE ileen
ĠWor cester
Ġpl anning
ĠV illage
Ġhe a
ea Lemon
Ġfill er
Ġout doors
ano ver
ĠTh under
Ġextr as
aw ba
ĠSh ore
hett i
gre ens
Ġput ty
Ġ7 8
Ġcom inos
Ġfat tening
ĠBr uce
ĠBr itt
ĠSl o
rab i
ĠVelve tta
Ġmo d
Ġmo z
Ġcenter piece
ĠBis k
ern od
und red
Qu aker
ĠAr my
ĠFl op
ĠFl oss
ĠBeef aroni
Ġdri ps
Ġany way
ĠMeat za
ĠLemon s
Ġkn uckles
ĠRep len
Ġseal egs
Ġback strap
Ġ14 5
ĠPam med
Ġop ossum
qual ity
ĠAcc ording
tc ut
Ġfour s
ĠCamp ers
Ġpink ish
ĠTur meric
ĠFarm house
Ġunder cook
Ġwhisk ed
isin art
ĠDe lect
Ġpor ous
ĠMar c
ĠPr in
Ch oy
ĠPl uck
agon ally
med ary
areri b
St udent
Ġtherm os
ĠAm azin
ĠPer d
ĠPer ch
ĠPer fection
Ġliqueur s
Ġdiv inity
ĠCat awba
ĠSun beam
Ġchick pea
rec onstituted
ĠTr uss
Ġconten tment
ĠHar ry
ĠEl k
salt ines
oots ie
ĠHo ff
Ġreheat s
Ġrig ati
ĠWon ton
Ġpreheat s
Ġloosen ing
Ġpier ces
ĠCap onata
ĠStack ed
ĠBob bie
Ġwing ettes
Ġlunch es
Ġtr ouble
Ġtr uffle
ĠArm enian
Wh ile
tS tore
Ġsteep ed
Ġsweeten ing
augh ter
ĠGu ava
Ġspl its
Ġcal amondin
ĠBel gium
Vegetab les
Ġbu ry
Ġtra il
Ġpass ion
br as
Ġtend ency
ĠViv ian
Fl our
Ġdef l
Ġcomple ment
ches ter
Ġrid ged
ĠLand ers
ĠBu ry
tF ill
Ġspeck led
Ġgrass y
ĠJenn ie
flow ers
Diet etic
ĠDou bles
ĠBuck et
ĠCO LD
resist ant
Ar range
ĠPil grim
Ġtass ie
Wor ld
Ġferment ation
Ġcompl iment
ĠFlo ating
En ough
Ġsubmer ge
ĠKit ty
Ġsmother ed
hl rabi
Ġmist ake
ĠLizz ies
Sl oppy
Tra ditional
ĠBridge ford
ĠDro medary
ĠTall er
Ġta pping
ĠAncho vy
Kn orr
Ġportab ella
ĠRen ee
Ġval ley
ĠHil da
ĠOx tail
ĠDelic ate
Imp ortant
atem ala
ĠShawn ee
Mor ton
Ġmusk rat
ĠIgn ite
Ġrepeated ly
Ġboysen berries
Ġachi ote
Ġoverc rowd
ĠTight en
ĠScra pple
ĠOrch ard
Ġencourage ment
ĠSlum g
ĠDiabl o
Ġdecrust ed
Ġcoffeem aker
illaba isse
ĠConcentr ate
ĠStephan ie
ĠAntoni o
Ġorig in
ĠRale igh
Ġconcent ric
3 7
A Y
B on
B oiled
C elery
C ashew
D anish
G rain
H and
H idden
I rish
L uke
L ibby
M in
P T
R ound
R ome
R eaLemon
S pl
S esame
S ummer
S imilar
W ine
W ish
c ir
c ran
c rib
d ec
f ork
g rained
h on
h ood
l ot
n ake
n ellini
o ard
p u
p odge
r ub
r ds
r alian
t low
t You
t pie
t Make
t Chop
v ary
v ation
Ġ est
Ġc rease
Ġs ar
er an
Ġo per
Ġo dor
Ġt umer
Ġb asted
Ġb ounces
ed ic
Ġp ry
Ġp pkg
Ġm orsel
at elle
re es
re gard
ut eron
on ds
en til
en ten
en cher
al ie
al amata
Ġch air
LE T
Ġto ol
pp les
Ġin ject
ĠC armel
ĠC ioppino
or ough
Ġsu sp
Ġd oil
Ġd rench
Ġa g
Ġa ges
Ġa iry
Ġa hi
ĠS ou
Ġg ai
Ġg oya
Ġl ab
Ġl atter
oo ter
oo ms
ĠB ier
ĠP int
ĠP urch
ĠP ixies
un less
is m
Ġfl uffed
ĠT ub
Ġ( -)
Ġbutter finger
ĠM ackerel
Ġche erios
Ġv an
Ġv ien
Ġun w
Ġun floured
Ġun filled
Ġun shelled
Ġh int
Ġh ershey
Ġcream iness
uc es
uc oa
to ast
um s
Ġn iblets
Ġj o
et ing
Ġbak in
th yme
ry n
ĠR edi
ĠCh orizo
ĠW ear
Ġr ush
im o
Ġcorn ish
ĠF ully
ĠSt eer
ĠL it
ĠL ard
ĠL inz
ĠL ela
ĠH ut
ĠH uevos
ĠH anover
Ġcon n
Ġheat h
op y
op en
op la
ĠG ard
ĠG rab
Ġcar ve
ĠIn fall
ag ing
Ġro ds
Ġ9 2
Ġcrack le
av as
Ġal arm
ul ah
ep eat
udd le
ĠRem over
ĠWor ms
ent ury
Ġrais ing
ĠK ake
Ġan n
ĠCr uda
ĠV oil
ĠV idalias
Ġsqu ish
Ġwal leye
ess e
ĠN eck
ellow s
ĠY opla
aw ax
ĠAnd rew
Ġcont act
ĠSh oulder
Ġcom parable
ĠPot ted
pe ppers
ĠBr ine
Ġsc ent
Ġsc reen
Ġgl itter
ican a
iv a
ĠSw itch
ris t
Ġacc ord
ĠRo bbie
ĠFor giveness
Ġoccasion al
ĠDo ggie
Qu art
ĠQu antity
Ġnon alcoholic
Ġpro blem
Ġcumin o
ĠSqu ish
ĠSqu aw
ĠAmerican a
ĠZ ap
ivid ually
Ġper fection
ĠQuick ies
ocad o
ĠRanch eros
Ġsubstit ution
uk on
can nellini
stick y
ĠNo bby
ĠAfter noon
Ġpit ch
ĠDi ppers
meric al
ĠBall ard
ĠSk roodles
ĠGl uten
epar ate
Ġsplit ting
ĠCal do
ĠBatter ed
ĠAn ita
ĠAn derson
ĠNor a
St uffing
ĠAm ar
ĠFin al
Ġsix teen
ĠEx press
ĠEx periment
ĠShe ila
Ġlower ed
ĠStick ies
ĠLe ona
ĠCat tle
ord in
Ġad ult
Ġstr and
ĠLa vender
ĠLa Choy
de boned
unk y
rec i
ĠMil anese
ific ial
Ġsoon er
ĠEl vis
Ġ19 5
Ġ19 7
ino is
ĠMag azine
In ternational
merc ially
ipp ine
Ġpearl s
ĠLo aded
Ġpier cing
ĠOrteg o
ĠPort ab
ĠPas ka
Ġpattern s
ĠJan ie
ĠPers ons
ĠSix ty
Al ways
Ra isins
Ġcrunch ies
App roved
pr icked
Ġdec reased
Sh ake
Ġstretch ed
gl azed
Ġexp ect
Crust ed
Ġskewer ed
Egg s
min utes
ĠBlan che
ĠGram mie
ĠMam my
ĠParmig iano
ĠJean ne
ĠPlan ter
Ġcling ing
Ġgent leness
ĠStar light
ĠBill ie
Ġscatter ed
ĠPlant ains
gges tion
Ġcond ition
Ġretain ing
quarter s
ĠHolly wood
ĠNeed ed
ĠDrum stick
ĠDrum mettes
ĠBow s
ER Y
crack ers
ĠRis ing
Ġcheap est
Ġess ential
Grand mother
Ġappet ites
oven s
Am ish
Ġgather ed
Ġscallop ini
ĠVari ety
Ġcrow der
Ġcrow ds
ĠSli ver
Ġmex icorn
ĠAw ake
Ġble ached
ĠSor rento
ĠCO OK
ĠBull s
Ġrepl en
Ġrepl acing
ĠRol o
ĠCla us
ĠCass oulet
Ġsubs ide
ĠMusc at
Ice box
aban ero
Ġattach ment
Ġviole t
ĠPain ts
ĠLizz ie
ĠTV P
ĠWake field
Ġcomfort ably
Ġhumid ity
Ġshortc akes
Ġpract ically
ĠHodge podge
ĠOVER B
Ġhyd rated
Per fect
bubb ly
ĠPars on
ĠModel ing
ĠJuan ita
ĠCzech oslovak
Ġdam aged
ĠHag el
ĠPepp ark
ĠValen cia
angost inos
ĠLeb kuchen
ĠDams on
ĠWhippers n
ĠWheats worth
Mil not
ĠFirecr acker
attles nake
ĠAgg ression
ĠOc tober
ĠEdd ie
Ġelong ated
Bord en
Ġsequ ence
ĠReplen ish
Ġtumer ic
uteron omy
Ġgai ety
ĠInfall ible
ĠYopla it
) !
4 3
A D
B oo
B its
C re
D rained
E D
F uss
F irst
H a
H aw
H eath
I ng
L ess
L eek
M ash
M arin
M olasses
M iddle
N ice
O h
R oos
R oyal
S etta
S even
T aco
W ash
W ork
X CE
b et
b ors
c ro
c arrot
f il
f les
f ers
f oot
l ty
l iness
m ooth
m icelli
p ressed
t as
t ini
t dry
t drain
t beat
t Yield
t bottom
t Arrange
u ro
u ie
u ka
v re
v as
v ine
y er
Ġ @
Ġ ul
in ton
Ġs in
er ving
er land
an ten
Ġt ennis
Ġb x
Ġb arbecues
es ape
Ġp oster
Ġp cs
Ġm er
Ġm or
Ġf am
Ġf ool
Ġf aced
Ġw igg
Ġw oman
Ġto r
Ġto basco
ĠC e
ĠC af
or ies
or ito
ro ad
am ent
Ġsu shi
Ġd em
Ġd ings
Ġd ental
Ġd inosaur
Ġd efinite
Ġd otting
ĠS is
ĠS ab
ĠS ink
Ġe clair
ĠB ib
ĠB ugs
ĠP un
ĠP ray
ĠP ines
ĠP itas
ĠP reserved
ĠP ernod
ac ter
ac ie
gg s
ĠT orn
ĠT id
ĠT ong
ĠT ons
ĠT umble
ĠM ir
ĠM ouse
Ġcheese cakes
ick er
Ġun washed
Ġun usual
ĠA B
ver micelli
to ut
Ġbro om
Ġsh erbert
up ia
Ġat tain
th am
th oroughly
Ġmar igold
Ġgre y
.) \
ĠR ican
ĠR unn
ast en
read ed
Ġbrown er
ĠD un
ĠD onut
ĠD anny
ĠD ressed
ĠD uper
redien t
ĠW ip
ĠW eather
col a
Ġre ce
Ġsp ills
Ġsp aetzle
igh lty
ĠF ocaccia
ĠI ll
ĠI di
Ġground s
Ġ6 2
Ġ6 8
Ġ6 00
ap ia
if th
ĠL g
ĠL acy
ĠL ithuanian
Ġwhit ing
Ġsour s
ĠH I
ĠH at
ĠH ob
Ġcon fetti
ĠG ary
ĠIn expensive
ag ies
Ġ9 3
ĠCool ers
Ġcrack lin
we ar
ĠCo al
ĠCo ck
Ġmeat ier
Ġk elp
uit oni
ress ive
Ġred skin
Ġapp eal
Ġsl anted
ep eno
Ġmustard s
os et
li zzard
Ġsof tening
ĠE p
ĠE ff
ĠE yed
tt ablespoon
ĠJ en
ĠK rum
iss erie
ĠSpread s
oll ie
ĠV ERY
ĠBl ox
Ġpre fers
Ġwarm s
rim i
ĠPe king
ĠTh rough
Ġginger ale
ĠY o
ott a
ĠSh a
ĠSh op
ĠSh ield
Ġ25 5
Ġcom merical
Ġcom mercially
16 0
Ġcol der
ĠSl ime
ĠSimmer ed
Ġmo chi
mi ddle
Ġafter wards
Ġpo is
erb y
erb oard
Ġhand shakes
ĠRed fish
ubb ock
sa ff
Ġunb readed
ric a
ĠSto kely
Ġgood ness
Ġboth er
ĠBre yers
Ġkn ots
Ġsub stance
ĠOre gon
Ġsur plus
ĠOld e
ĠDi agonally
most ly
ph a
ĠCl ar
ĠCl aire
tc asserole
cr unch
ĠGl o
ĠRec onstitute
ĠCrack les
ĠTw ister
Ġtri ps
ĠCol ossal
ĠCol onel
ĠBur st
ĠThaw ed
Ġoyster ette
ĠJo b
mix er
mix ing
St eak
!! !)
Th at
ĠIs ra
Ġsnow balls
ĠTri p
pre heat
ĠAt kins
ĠLa ine
ĠSun burst
Ġrich ness
de hydrated
ĠLight ning
ĠTr ace
Ġtable top
unn ies
ific ent
ĠBra ided
ĠBas mati
ĠHo isin
Cook er
ĠJohn nie
ĠBou illabaisse
Ġsauc y
19 0
ont inue
Ġte en
Ġte eth
ĠEar l
Ġfall en
omm ended
ĠEd ge
pepper mint
Ġsack s
Ġinc re
Ġtr aces
Layer ed
ĠMade le
ĠSpring erle
ĠCav at
ĠLiver wurst
ĠJew els
ti ere
Ġsink ing
her es
min imum
ĠFud gie
ĠFud gies
ura ge
ura ble
Ġ38 5
cub e
ĠKet tle
rect angular
Ġplay ing
ĠBak ery
ĠPit ts
br and
Ġcamp hor
ĠRequ ires
ĠIi i
Ġarm adillo
ĠFrank lin
ĠHealth ful
Ġsmell ing
ĠStay man
ĠSinful ly
ĠMah i
ĠMah ogany
Ġmom ents
ĠBab a
ĠBab ka
Ġrad iatore
Ġswir led
ĠProven cal
ĠSli pper
comb ination
ĠSatur ate
ĠReg al
Ġdeterm ined
ĠEmer il
ĠEmer gency
ĠNoth ings
ĠButterf lied
ĠMagn if
ĠTail s
Ġsatisf action
wax ed
ĠAust rian
ĠPra wns
ĠLill ie
En joy
ĠKal amata
ĠCu isinart
seal ing
ĠRal ph
cor kscrew
ĠKath ryn
Nor wegian
ĠDoc tor
ĠNib blers
ĠBan quet
ĠWinn ie
ĠDev on
Sch illing
look ing
altern ate
ĠCel est
ĠFront ier
Ġshrivel ed
freez er
Ed ible
Jon athan
Ġhorn s
Ġben eath
ĠPillow s
quis ite
Park ay
dust ed
enz ie
ĠKibb ee
ĠSny der
Ġtoler ance
Ġgri ds
Tim ey
ĠAndre a
Ġregul ator
Ġeconom ical
Ġver de
Ġhea venly
pu ppies
ĠPurch ase
ĠWhippersn aps
Haw aiian
XCE PT
Ġul tra
esape ake
* ,
2 70
3 70
D D
D ot
D ry
D inner
E S
E SE
F amily
F rost
F reeze
G A
G arb
G ooey
H ea
H int
I s
I tal
K eebler
L an
L ou
L ings
L ighter
M eal
M icrow
M ild
M arshmallow
P ress
T art
W inning
\ ;
b i
b ris
c at
c ouple
d rops
d irections
d ivide
e asy
f alle
f arms
g um
g inger
h ape
i ge
k ids
l asagna
l ima
m es
m ish
m ight
o hlrabi
p ull
s ole
t ar
t es
t own
t ear
t Can
t remove
t garlic
t boiling
t Gra
u zz
u ppe
z or
z ah
Ġ :
Ġ iv
Ġ arbor
Ġc ulture
Ġs leep
Ġt aro
Ġb rim
Ġb aco
Ġb uckets
Ġp ars
Ġp aws
Ġm ant
Ġm ud
at to
en os
Ġf ed
Ġf ideo
Ġch ay
Ġch ina
Ġw ants
Ġw estern
Ġto ld
ĠC utter
ĠC ach
ĠC arm
ĠC are
or o
am an
it ing
Ġd yed
Ġd andelions
Ġ3 35
Ġe aters
Ġg els
Ġg irls
Ġl ick
ĠP uerto
ac er
ĠT ootsie
ĠM all
ĠM et
ĠM ole
ĠM alted
ĠM arty
ĠM ansion
ĠM ullet
ĠM others
Ġun roasted
ĠA ward
all ized
Ġor ris
ver se
ice berg
Ġmilk shake
ch mer
ts mooth
Ġcr udites
ve al
Ġj et
Ġj owl
Ġj oe
Ġsh ops
Ġth orough
Ġmar gar
ĠCh ix
ĠCh itterlings
ien da
ĠD u
ĠD ella
ĠD isp
ĠD ang
ĠD inosaur
ĠD erby
ĠW ol
ĠW ra
Ġr ices
mon o
Ġju icier
ur ts
st rip
Ġre cover
Ġsp it
ĠF i
ĠF al
ĠF ans
ish a
ĠSp e
ĠSp in
ĠSt ix
ĠSt iff
umb s
Ġpot hol
ĠL ub
ach ers
ĠH u
ĠH ip
ĠH ouston
Ġcon tr
ĠG w
ag an
Ġro e
na vy
ĠCo qu
end s
av it
Ġk rum
Ġk ohlrabi
Ġra zor
ey es
Ġapp reci
Ġsl ime
Ġsl ashed
Ġsl ighlty
ep tions
co ck
ĠE z
ĠE mm
tt ime
ĠJ ail
ĠK y
ĠK ona
Ġan imals
ĠCr ump
Ġblack strap
Ġhe ights
ue ts
bur gs
ĠBrown berry
Ġli dded
Ġinstant ly
ĠPe ak
ĠTh ought
Ġsmooth ness
ĠN ept
Ġbell s
eal and
ĠY ak
ĠY uban
ĠY ukon
ĠMo d
ĠMo z
ĠMo de
ĠCheese burgers
Ġz ing
Ġdash i
Ġ7 00
ĠU k
ĠPot s
Ġsoft ness
ĠBr ach
Ġcol umn
ĠSl op
Ġ35 5
Ġtur tles
ĠSpoon bread
ind ividual
ĠTurn over
Ġsquash ed
Ġeven t
ĠRo bb
uck et
uck ers
oc he
Ġam aretto
ĠTo day
Qu iche
tail s
Ġnon reactive
ĠFl ag
ĠGre c
Ġ24 6
Ġpin enuts
ĠFry pan
ĠOn o
anch o
ĠHam mer
ĠCon stantly
Ġcons ist
ĠJack son
Ġfull s
Ġgrap enuts
ĠAl berta
fer ence
ĠNut ra
oul aden
uns ter
ĠShrimp ly
Ġpar awax
tra ditional
ĠAll en
ĠPick ling
ĠCran k
Ġfil a
oles ome
ĠChip otle
ĠAcc om
ĠCrab cakes
cl oves
amb uie
app i
jor ie
ĠSk i
ĠSm ells
ĠPan fry
ĠScall ion
ĠEn close
ĠBlack well
small er
ĠMar jorie
ĠJo sh
ĠJo ys
Ġpear led
ĠHe irl
Ġspat ini
ĠFish er
18 0
Ġbrand ied
ĠRuss ell
rid ges
ĠNe igh
ĠCur ly
ĠOri ent
ĠEx quisite
Ġsw ift
Ġbase ball
ĠSnack ers
ĠClam ato
ĠHun ters
ĠPull ed
ĠMy ers
ĠEat en
ĠAd am
Ġspir it
ĠBas kin
Ġtransfer red
ĠHo e
Ġseg ment
eath ers
Ġsom en
che es
att ie
prefer red
ĠBea ver
ĠRotel le
Ġsav or
au ght
Ġwe ights
ĠTon katsu
Ġimp ression
Ġstay ing
Ġte abag
ĠBo j
Ġsor ry
ĠRos ettes
ĠCas ey
ĠAnn ivers
rus c
ĠFix ins
Ġstone ware
pepper oni
ĠSpring s
ĠDr ambuie
oren tine
ĠRain y
ĠStand ard
ĠRuth ie
Ġsink s
rets chmer
ĠLin coln
Ġweight ed
ĠJean ette
Ġnor i
Ġob ed
ĠGum my
tT ake
With out
Ġspear ed
ĠDian ne
Col or
separ ately
ĠKar toff
Ġrid ges
Ġplan ter
Ġdishwash er
Strawber ries
ĠTass o
ĠCrisscross es
ĠLiqu or
break fast
Le banese
Ph iladelphia
ĠFrog more
Am aretto
Ġmil not
ĠGirl s
ĠCons istency
grap es
Ġpi quant
Ġcray ons
ĠNap a
ĠCall ed
ĠDou bly
ĠMem ory
ĠSizz lean
Ġvelve t
Ġca ution
ĠMagn olia
Ġgrow ing
Ġbru ise
ĠBern ice
ĠAust in
ĠDain ty
Ġspec ific
Ġmat zos
ĠOV EN
ĠTurk etti
ĠJeff erson
ĠVen us
ĠVen et
Ġpair s
ĠEconom ical
ĠMont real
does n
ĠVege x
Gu atemala
hel d
broil er
Ġaw ful
nes day
ĠShel by
Ġooz e
tso da
Ġstirr ers
Ġpuls es
jell ied
ĠSpan akopita
ĠOak farms
ĠReview s
ĠJac ques
ĠParsn ips
Ġalter ed
ĠFort une
ĠFlam ing
Ġglow ing
Ġadequ ate
ĠMick ey
Ġquin oa
Ġmount ain
ĠBunk er
Ġhor se
ĠErn ie
yram ids
ĠMarg uer
Ġattemp t
mois ture
ĠFon tin
Ġheav ier
jul ienne
Ġrash ers
tort illa
Ġans w
ĠCHE ESE
ĠRies ling
ĠPrin cess
crib ed
Ġvien na
ĠSteer o
ĠPeppark akor
Ġincre ments
Ġarbor io
Ġmant le
ĠNept une
Ġteabag s
ĠAnnivers ary
2 32
3 9
7 7
9 4
A ust
A parts
B efore
C arb
C hew
E at
F inger
J am
K a
K ellogg
N oodles
N umber
O O
O il
P o
P arsley
R os
S e
S liced
S hoe
T oo
T ony
W ell
a head
a verage
b ian
c asserole
d og
d elli
g al
g ogi
h aw
i et
l ose
l oin
l oos
m ine
m ph
m ath
m ellows
n ice
n oodle
o cc
o ori
p icante
p istachio
r up
s li
s imilar
t emperature
t boil
t cover
t by
t It
t powder
t put
t bacon
Ġ err
Ġc ash
Ġc ounts
Ġc avetelli
Ġs ick
Ġs ings
an other
Ġt iger
ar ly
es ca
Ġp ing
Ġp as
Ġp ur
Ġp out
Ġp ore
Ġm ature
Ġm aters
at ured
en th
al h
Ġf ins
Ġch al
Ġch allah
Ġw ring
ic c
gar den
Ġin k
or ts
Ġ2 15
Ġsu rimi
Ġa uthentic
ĠS ham
ĠS tom
ĠS cent
ĠS olid
Ġl angostinos
Ġpe pp
oo sh
ĠB ess
ĠB less
ĠB ald
ĠB agu
ĠB ibb
ĠB erried
ĠB uitoni
ĠB lizzard
ĠP on
ĠP oo
ĠP ream
ĠP ring
ĠP omm
ine tte
ac ienda
is tening
Ġfl uting
ow dy
ĠT v
ĠT an
ĠT un
ĠT ent
Ġ( $
ĠM ack
ĠM op
ĠM ee
Ġche es
Ġun to
Ġun iodized
Ġun ique
Ġun pricked
Ġh ob
Ġh asten
ĠA ux
ĠA roma
ĠA DD
Ġcream ettes
Ġst e
Ġst ages
uc op
Ġfor ty
to ph
ts heet
ĠAdd ed
Ġn amed
Ġsh ish
Ġat ten
th rough
Ġth ank
ĠR ail
ay s
ĠCh oux
ĠCh arms
ĠCh esapeake
Ġbrown ings
ĠD oo
ĠD ul
ĠD oodles
ĠD eser
ĠD uch
ĠD RA
Ġco in
Ġr uffle
ip ment
Ġbo d
st ack
st ring
st raw
st acks
Ġre la
im ahi
ĠF el
ĠF as
ĠF reak
ĠF ifty
rain s
Ġgarlic s
id i
id or
ĠSt agg
ust a
Ġy ard
Ġy outh
ven t
ven tional
ain der
ĠL ie
ĠL umber
ĠL ila
Ġbl ooms
ĠH y
ĠH ass
ĠH ous
ĠH ug
ĠH arina
ĠH annah
ĠH attie
ĠH acienda
Ġ5 1
ĠG il
ĠG ray
ĠG her
Ġcar ousel
ĠIn ez
we ight
ant ucket
end ous
Ġab urage
Ġcl oud
Ġcut e
tion ally
Ġk alamata
ore ttes
uff led
ul i
ul as
Ġchil ie
ĠSal at
Ġorange ade
ĠE XCEPT
ĠJ al
ĠK ah
ĠK asha
oll a
ĠV acuum
Ġblack eyed
ea ux
Ġup ward
bur gh
ĠBl ow
ĠBl ocks
rim avera
ĠN aked
ĠN antucket
eal ed
Ġdes ires
ĠBe ignets
ĠBe ulah
ĠSh oyu
Ġz igzag
ex tract
row s
Ġlett uces
oth ing
Ġtur bot
arin i
Ġgl obs
iv il
ĠSw ish
ĠSw izzle
Ġbon bon
Ġpo ppers
Ġstiff ness
Ġtw irl
ĠPress ed
Ġthr u
oss y
Qu ik
Ġblue ing
ĠAr lene
ĠFl aked
ĠFl aut
Ġpro sciutto
Ġfew er
ĠFro ot
ĠGar ni
ĠGar licky
Ġfish ing
ĠSo ftened
ĠZ ealand
ĠPudding s
Ġim mers
ĠCon f
Ġdark ened
ĠSalt y
ĠSalt im
Ġkn own
amp les
ĠAl uminum
ĠAl phabet
ĠAl pha
ĠPec os
ĠForm s
ĠPat ti
ĠCrumb ly
ĠCont est
ĠGerman y
ĠCl inton
Ġcor er
Ġcor ing
tc on
ma id
ĠAngel a
ĠCaramel itas
ann el
Ġunder done
ĠSm iles
ĠGl enn
ah ua
ĠVeg ies
ĠJust in
Ġcas es
ĠTw elve
Ġreturn ed
Ġreturn ing
ĠDish es
ier a
ĠHoney comb
Ch ina
pro bably
ĠPl op
ĠCustard s
ĠCre ative
ĠCrunch es
ĠCal vados
ĠAn adama
Ġcurd les
bas i
St eam
!! !!!
be ard
ĠSu pplements
Ġsnow peas
acc ala
Ġman ual
ĠSnow flakes
ĠShort cakes
ĠKn ow
Ġstrong ly
crisp y
Ġharden ing
24 5
Cr ush
ĠMil o
Ġstarch y
Ġgrind ings
ĠMa ude
ĠHar old
Ġ19 30
Ġbed time
salt ine
ĠPo blano
ĠJer k
che ap
tand ing
ĠMaz etti
ĠFlavor ing
ĠFinish ed
Ġwe iners
ĠPor tions
Ġsea spoon
Ġhelp ful
Bro iled
ĠRos a
Ġgro ove
ĠAnn ette
ĠCarol ine
Ġthumb prints
ĠCra ppie
Ġsmok ie
ĠWil ton
Ġpet its
ĠTra vel
Al most
Wh ole
apples auce
ĠDr unk
ĠCav atelli
App roximately
ĠSmall er
tw arm
ĠStand ing
Ġunmold ed
Ġsweeten ers
Ġfluff ier
mm mm
ĠColor ing
ĠOther s
Ġcrystall izes
ira delli
ĠMam maw
tD ip
Ġton ic
Ġtra vel
ĠChi pper
ĠChi hu
Ġencl osing
squ ash
mo ist
br andy
ĠNectar ine
Ġconsider ably
ĠEven ing
gra dually
ĠSop h
ĠPi quante
ĠGrap enuts
Che esy
Ġtemper atures
ĠIng redient
ung eness
Ġwidth wise
Ġjal epeno
ĠBubb ly
Pro volone
ĠKe vin
Ġ39 0
ĠCheer io
ĠSav o
ĠSub s
Pan cakes
Ġfore finger
ĠLy onnaise
Heal th
ĠSpark ler
ju iced
Ġdeterm ines
itam ins
ĠGh ost
ĠGh iradelli
Ġpulver ize
sec ret
ĠSen ator
MM MM
Us ually
Ġ__ __
ĠSy mph
Ġwat ts
saute ed
ĠVick ie
Dump lings
ĠChap ter
ĠCu isine
Ġhar vest
Ore os
Sk illet
bar ely
Ġpresent ation
Ġteac ups
Ġcomfort able
AN T
ĠAncho vies
ĠHop scotch
Ġpract ice
ĠBrother s
Ġly chees
ĠBa ham
Ġinterest ing
ĠVers e
ĠBrid al
ĠTrop icana
ĠRese al
ĠWed nesday
ĠEqu ally
ĠConfection er
hom ogenized
ĠCray fish
Ġcart wheels
ĠNes co
Ġpoll ock
ĠTour tiere
Ġru in
Ġpisto lettes
Ġhon esty
Ġincis ions
Ġvege x
tPre heat
ĠNapole on
ĠNichol as
epher der
Ġsweetbread s
ĠTherm idor
ĠAud rey
ĠBisk it
ĠHoff man
bras ka
ĠSlumg ull
ĠVoil a
Ġpitch ers
ĠOVERB AKE
ĠCzechoslovak ian
Ġfam ilies
ĠIdi ot
Lan tern
tGra dually
ĠHeirl oom
Ġobed ience
ĠVenet ian
occ an
toph er
Ġrela x
ĠChihu ahua
% .
6 7
A way
B ottom
C reme
D rink
D iced
F le
F eeds
G i
H ard
I m
M O
M P
M iss
M ama
M uffins
P enn
R oman
S immer
T ot
T ender
U sa
V E
b ring
b ased
b iscuits
b ottle
c ombine
c ap
c rip
c inis
d inner
e ers
f ettuc
f ancy
f airly
f rito
g ole
h art
h ome
j umbo
k fish
k nots
n ow
n eeds
o ats
p resso
r am
s izes
s heet
t let
t ig
t cake
t Microwave
t Fry
t Garnish
u u
u esse
v ite
x ic
y oung
z ip
Ġ ;
Ġ RE
Ġ ON
Ġ ry
Ġc am
Ġc ity
Ġc armel
Ġs ip
er ve
Ġo ak
Ġt em
Ġt erry
Ġt ined
Ġt ank
Ġt upperware
ar eness
Ġb ump
Ġp ay
Ġp ark
Ġp erm
Ġp ico
Ġm ad
Ġm ap
Ġm ons
Ġm iles
at ten
re tt
ou ette
Ġw eep
Ġw ider
Ġw rist
ing e
ic s
Ġto ys
Ġin ward
ĠC ora
ĠC ushaw
ĠC actus
el ini
Ġ2 12
ak k
am ents
Ġd ense
Ġa go
ĠS E
ĠS U
ĠS ushi
Ġg oo
Ġg irl
Ġl ad
ĠB ased
ĠB olog
ĠB itter
ĠP ump
ac s
gg in
gg ies
Ġfl or
ĠT yler
ĠT roy
ĠT awny
ĠT eacher
ĠM m
ĠM ing
ĠM ills
ĠM mmm
Ġv itamin
Ġun thaw
Ġh idden
Ġh ostess
ĠA sp
all ie
Ġst oned
uc ose
ch ip
ts immer
Ġcan vas
ri ver
Ġ4 7
Ġsa ver
Ġn av
Ġn ature
Ġbak ers
Ġgre ater
Ġsauce pans
ĠR ange
ĠR oses
ĠR eggiano
ĠMix tures
Ġover do
Ġover nite
ĠCh un
ĠCh ate
Ġcook ware
ĠD ear
ĠD iana
ush es
Ġco pped
ĠW ages
Ġr ust
ip t
ab eche
Ġpan try
Ġre hydrated
Ġsp ark
Ġsp onges
ĠF ound
ĠF its
ĠF erm
rain ian
Ġse per
ĠSp at
id ing
da pted
ĠSt amp
ers ed
Ġtogether s
ap ers
ĠL ut
ĠL ust
ĠL one
ĠL aw
ĠL ock
ĠL yd
ĠL adies
Ġbl ind
ĠH an
ĠH ur
ĠH ats
ĠH ula
ĠH arden
ĠH usk
ĠH undred
Ġ5 9
Ġdrain s
ash i
ĠG ot
ĠG em
ĠG erry
ĠG io
ĠG yps
ĠIn clude
Ġro p
ĠCo k
ant ic
oa h
Ġk anten
uff icient
ul less
ul ting
Ġgra vies
ĠO per
ĠO ma
li o
li qu
ec e
ĠE asier
ĠJ ade
ĠJ aco
ĠK retschmer
Ġpour s
ĠCut let
ĠV el
ĠV ir
ea u
ea fter
Ġcold est
Ġlow ering
ĠChe ery
Ġdough maker
ĠPe e
ĠTh imble
ump ed
ĠN ucoa
urp rise
ĠMo gen
ĠBe ars
ĠSh are
Ġlet ter
ĠItalian a
Ġz ap
Ġ7 6
Ġcom pan
Ġpast as
ĠU nd
arb y
ĠBr as
ĠBr atwurst
Ġwill ing
Ġgl ucose
Ġpimento es
oun ced
Ġri ver
Ġpick ing
Ġmo ved
Ġde bon
ĠTurn ing
Ġside ways
mi er
Ġform ula
Ġcro quette
ĠFor d
Ġqu ince
Ġdown ward
Ġbring s
Ġneed les
ĠTab oo
sc rape
fl ank
fl ounder
ig l
ĠDel ish
Ġpart ridges
Ġpat ch
ugar ed
ĠZ ero
ĠEgg rolls
ĠCan non
ĠCon fections
pick le
corn meal
Ġevery body
ĠMin ty
Ġbean less
ĠRanch ers
Ġ14 4
ĠForm ula
Ġyolk less
ĠPizza iola
eg a
ĠKnead ing
Ġsn akes
tc ups
ĠPast its
ĠPast rami
ĠCamp ing
cl ock
ĠRe assemble
head s
ai i
Ġscal e
Ġwor m
ĠChris tine
ĠChris topher
etiz ing
ĠTex ture
ĠCol leen
ĠMar joram
Ser ved
ĠHaw aii
Ġlevel ing
ĠOver nite
ĠCre ate
Ġsolid ify
low ly
ron ounced
Ġenjoy ed
ĠRub ber
ĠAp ache
ĠSpecial s
ĠNe hi
ĠNe braska
ĠSu ggested
oz a
butter scotch
Ġseafood s
Ġcongeal ing
ĠEx cept
ĠEx ample
ĠPol o
ĠSnack ing
ĠLe on
ik es
Ġscr umptious
Ġouts ides
ĠBowl s
ĠTest ament
Ġcre ated
Ġperson ally
ĠWa sp
ĠFran ca
Ġ19 6
ĠInd ies
ĠInd ividually
ĠWe enies
Ġres ulting
ĠEver clear
ĠJohn ston
Ġsho vels
ĠLo ving
ĠPor tobello
sk illet
ĠMor ris
ĠMor occan
ĠPart on
Fro sting
ĠGoo ber
uel os
ĠRos arita
ĠFil o
ĠFil bert
Ġbra ised
rip ened
back fin
Ġlo x
ĠPlum s
Ġjigg les
ĠBag s
con verted
keep ing
ĠChuck wagon
ĠPrim a
tS alt
Bl ender
tR ed
ĠEleg ance
lemon ade
Ġrare bit
Ġfix ing
Ġfluff s
Ġresem bling
Ġfriend liness
Egg less
ĠParm a
orpor ate
Cream y
Ġcal z
ati ans
Ġfrit tata
Ġaccom odate
Ġhun ger
Ġfeel ing
Ġpepperon cinis
Ġbor ic
ĠPres by
Ġhors es
ĠTer ah
ĠPi geon
Ġretain ed
Ġarm y
Ġtrip les
Ġrame kin
Ġtemp ra
Mushroom s
So ak
Ġsing e
Re gular
Ġdraw s
ĠTim b
oven proof
Ġdr am
Ġflam ing
Ġneat ness
ĠBul gur
Ġcrow ded
ĠOff er
ĠMer lot
ĠDou bled
ĠAf rica
ĠMart ini
ĠMim osa
Ġjalape os
Ġproceed ing
Ġslim y
ĠBri g
ĠBri efly
ĠAust ralian
center s
Ġclump ing
ĠDen ise
Bur gundy
com mercial
gro cery
tsh ortening
tstir ring
ĠPoin t
Hun gry
Ġvine gah
Ġcord ial
ĠRadish es
purch ase
Crisp y
ĠGay le
Ġquesad illa
ĠCard amon
Ġ199 4
ĠEmp ress
struc tion
Ġportab ello
ĠStri pes
ĠGoof y
ĠAct ive
Ad just
beg in
Ġwatt age
ĠRy an
ĠPos ole
ĠWy oming
Ġneigh bors
ĠFly ing
Ne ufchatel
Ġprett ier
ĠContain er
Ġearth quake
Russ ian
ĠVol cano
ĠHarri et
ĠCryst als
ĠClaud ia
Won derful
ĠRang oon
bec ca
ĠMussel man
ĠBlu efish
ĠProduc t
Ġabundant ly
ued el
Ġsar an
Ġdoil y
ĠBier ocks
Ġconn ec
ĠParson age
Ing redients
bet ween
ĠAB C
ĠIll inois
ĠWol fe
ĠGw en
ĠThought fulness
rusc iki
ĠFontin ella
Ġansw er
Ġpepp ah
ĠRail road
ĠDeser t
ĠDuch ess
ĠDRA IN
tcon stantly
ĠSymph ony
ĠSlumgull ion
Ġblind ness
Ġdebon ing
% ),
+ )
2 12
3 8
? ).
A C
B all
C O
C oke
C ups
D iscard
D airy
F ace
F rit
G al
G oya
H ill
H ole
J ew
K raut
L oaf
M arshmallows
O UR
P ur
P eel
P roof
R oma
S S
S andwich
S cr
S uch
T r
T y
T ur
T one
V egg
W he
a gar
c m
c abbage
c ored
c ashew
c arton
d ale
f udge
f avorite
g us
g io
h as
h ash
j alapenos
k ielbasa
l inks
m icrow
o aked
p uffed
r ition
s uper
t N
t if
t spoon
t except
t according
t blend
t potatoes
t extured
t Whip
t Allow
u ppa
v on
v ie
v iche
y ams
Ġc ous
Ġc aulif
Ġc igar
in ing
Ġs ir
an ter
Ġo h
Ġt rapped
ar ine
Ġb urp
ed der
en ie
al y
al ways
ou ger
ou bled
Ġf en
Ġf ell
Ġf avor
Ġch ix
Ġch ich
Ġw omen
ic ola
ic eland
Ġto ppers
Ġto day
sp ecial
pp i
Ġin n
ĠC uke
ĠC AS
or anges
ro cks
as k
Ġsu its
Ġsu ppers
Ġsu ggestions
it asse
Ġd l
Ġd il
Ġd are
Ġd emi
Ġa f
ĠS ac
ĠS oon
ĠS ard
ĠS udd
ĠS ew
ĠS oc
ĠS ong
Ġe v
Ġg eran
Ġl il
Ġl am
Ġl isten
Ġl ipton
Ġl adies
ix on
Ġpe per
oo o
ĠB il
ĠB end
ĠB utch
ĠP ow
ĠP ad
ĠP osh
ĠP ign
ĠP isto
ĠP ancho
gg iness
Ġfl orentine
ĠT at
ĠT or
ĠT ator
ĠT emper
ĠT aking
ĠT eri
ĠT asting
Ġ( (
ĠM ck
ĠM ai
ĠM aker
Ġv erb
Ġv itamins
Ġun able
Ġun crushed
Ġun coated
Ġun ref
Ġun evenly
us ion
Ġh ide
Ġh ero
ĠA ven
ĠA meric
ĠA LL
ra pping
Ġor t
Ġcho kes
Ġbe h
Ġbe ige
ad or
red uce
ch ow
ts k
ts our
ĠTbsp s
Ġcan isters
Ġcr im
Ġbro ke
Ġsa u
Ġsa imin
Ġn ippy
Ġvanilla h
up ki
th row
Ġth us
Ġth irst
wn y
.) ,
ĠR ender
ĠR ud
Ġso gginess
Ġwh ale
ĠCh urros
ĠD em
ĠD ub
ĠD ong
ĠD allas
les t
ack ers
ush ki
ĠW in
ĠW es
ĠW yl
ĠW reck
ĠW ienies
Ġr uffled
ab ric
Ġbo b
st rain
st ones
Ġsp ry
Ġlar ding
ef fer
ĠF o
ĠF er
ĠF ind
ĠF aced
ĠSp um
ĠI cy
ap se
if ies
ĠL ab
ĠL av
ĠL ux
ĠL ulu
ĠH art
Ġbread er
arm er
ĠG y
ĠG as
ĠG ert
ĠG ives
sh aw
ring e
ĠIn ch
ag n
em a
ĠSer vice
ub s
end ing
Ġmeat iest
ins ide
av o
av oid
Ġk e
Ġk ick
Ġra g
Ġsl ick
ĠPut tan
Ġex per
Ġex ceed
ĠO aks
ĠO unce
Ġpap ery
ec a
co bs
ĠRem ark
ĠE skim
ĠE yes
Ġrais es
ĠJ udge
ĠJ olly
ĠJ icama
ĠK el
ĠK ef
ĠK art
ĠK ne
ĠK amp
ĠCr uz
ĠV erd
Ġli kely
Ġpre ceed
ĠMel an
Ġdes cribed
ĠMo dern
ĠSh iitake
Ġz ita
gre at
ĠU SE
elat ion
pe ar
Ġcontain ed
ucumb ers
Ġsc ampi
Ġgl aced
ĠSimmer ing
Ġhead room
iv re
Ġmo de
Ġmo del
ris ed
ĠGr ama
Ġyour s
tern ess
ubb ard
Ġbr ussel
Ġtartar ic
ĠDo x
Ġnon greased
ĠAr ch
Ġstew er
ĠFl ora
ist or
ist illed
ĠSweet ener
Ġ24 4
ĠSqu eak
ĠSc one
ig as
Ġdri pper
pl ug
Ġpart ridge
ĠMon a
ĠCan es
ok i
Ġim meas
Ġkn ob
pick ed
ĠCoc oons
Ġme an
ĠAl ouette
ĠMay po
ys ter
Ġuns ugared
oy d
oul our
ĠPick apeppa
int eg
Ġpunch ing
ĠPet it
ph is
ĠSup rem
tc arrots
tc rust
ĠRoast ing
ĠRe becca
Ġless en
ĠDri ve
Ġgall o
no x
od e
ĠDe uteronomy
af el
Ġcap er
tm ake
tm ay
ah tar
Ġpor terhouse
ĠTw irls
Ġarrange ment
cup s
ĠCol lect
Ġrot isserie
ĠMar co
bo cca
ĠHoney moon
ĠWal t
Ġbit terness
ĠToast y
ĠPl ump
ĠWater s
ĠHash ed
enn ies
Ġoverb aking
tender s
ĠBar n
ib ility
ond e
ĠCom es
Ġdelicious ly
ĠNe ese
ĠSu et
ĠSu ggestions
17 0
ĠJam ie
ĠHerb es
ĠShe a
ĠSnack well
Ġbur sting
Ġbur sts
ĠFluff o
Ġad heres
ĠSec onds
ĠLa ure
ĠFail s
ĠTr ix
rit is
Ġbri quettes
Ġbri quets
Ġspir its
ĠBra um
Ġhel per
Ġnic er
ĠDoll ars
ĠWe ber
Sp am
Ġdis integ
ĠKellogg s
ĠTart e
ĠPor ridge
ĠPor terhouse
sk i
Ġextrac ted
Ġte acher
ĠJim mie
tC ontinue
ĠBo e
Ġhelp fulness
ĠCap er
Ġcrisscross es
unche ons
ĠQuarter s
ĠHum us
ser ves
Ġpocket book
Ġlo ved
Ġmem ories
Ġtr unk
ĠTra der
ĠTra vis
Ġheart f
Ġproduc es
ĠSoy ameat
tS eal
tS eason
black berries
Ġwonderful ly
ĠStep hen
tR epeat
ĠLor ann
ĠDew berry
ĠHold s
ĠHand s
ĠPimento s
plet ely
Ġpic ture
Ġpic tures
ĠEvery body
ĠGu ess
Ġpaint brush
Ġour s
ĠGen o
stal ks
ĠGall ons
soup y
sal mon
Ġread ing
Ġwid ths
ĠPit ted
Me anwhile
ĠPres ley
ĠWeek end
ĠTer r
eter ia
Ġswe ets
Ġhang s
ĠKol ach
ĠJumb os
ĠDecor ations
Ġach ote
ĠMunch ing
ĠPizz aburgers
quant ity
ĠSna ppers
ĠNorth west
moder ately
hand ful
Ġapply ing
ĠDunk ing
ĠLy nda
Ġcrink ly
Ġgrand children
ĠMem phis
ĠSpir als
ĠSizz ling
ĠRoul ades
ĠInc orporate
Sto re
ache t
ĠMicrow avable
Ġrepl aced
ĠFra iche
ĠVern or
ĠMagn ificent
ĠMax ine
Ġcass is
sn ow
ĠMatzo h
Ġocc ur
Gra ham
Ġaccumul ate
Ġaff ection
ĠMont ana
ĠBourguignon ne
ĠBenedic tine
ĠCir cus
ĠSoci ety
ĠRus ks
steam ed
ĠSuz ie
Ġweigh ing
ĠZe bra
Ġconsisten tly
stem med
ĠKath leen
ĠNa omi
ĠShall ot
ĠFile ts
ĠGroup er
Ġaw areness
ĠGene va
Ġele ment
ĠVers atile
ĠPigg y
ĠLore ne
ĠLore tta
Ġstirr er
Ġcollec ted
ĠStra da
Ġneigh bor
Ġhapp ens
ĠDod gers
Sec ret
Ġfern s
Ġconc ern
Ġmidd les
Ġwr ung
Ġther eafter
ste in
ĠProv ide
Ġlingon berries
Ġspr itz
ĠImpro ves
ĠPfeffern uesse
oust ades
Ġfant astic
Ġwar abi
ĠTagli arini
ĠAh oy
ĠNic ole
Ġtsub ushi
leaven ed
Ġsuds y
ĠPand owdy
ĠGull iver
ĠSlo vak
ĠFloss ie
edic ated
Ġsusp ended
Ġlab els
Ġmor al
ĠPray er
ĠTong ue
ĠIsra eli
Lou is
Ġpars lied
ĠFi ery
ĠAccom pany
ĠNeigh bor
Ġhob bies
Ġste ams
ĠFlaut as
ĠSaltim bocca
Fle ischmann
crip tion
gole mono
ĠBolog nese
Ġnav al
ĠLyd ia
ĠGyps y
ĠOper a
Ġcompan ion
ĠFranca ise
tRed uce
ĠPresby ter
Ġgeran ium
Ġverb ena
Ġunref ined
ĠAven ue
ĠPuttan esca
ĠRemark able
ĠEskim o
Ġpreceed ing
Ġimmeas urable
% ,
2 20
A u
B a
B o
B ac
B ars
B obs
B oston
C ont
C uban
D eep
G ol
H I
H om
H ouse
K iss
K entucky
K ikkoman
K nox
L i
L ima
L ooks
M uffin
M aximum
O L
P r
P u
P at
P art
P istachio
P oor
P ronounced
R ot
R efriger
S ar
S ure
S ift
S urprise
V ari
W inesap
a ux
b ab
b unch
c ry
c ase
d ice
d ock
e es
e igh
e very
f ix
g ust
g olf
h r
h s
h ole
i u
i ator
j ol
k ley
l id
l og
l oaves
m g
m uch
m esh
m arshmallow
m ented
n ial
o ving
p in
p umpernickel
p oint
t I
t ree
t other
t not
t arragon
t this
t cookie
t After
t vegetables
u als
v ari
w estern
y on
y um
z est
Ġ edged
Ġc el
Ġc raw
an tha
an za
Ġo dd
Ġo melets
Ġt ul
Ġt reas
Ġt ired
Ġt ran
Ġt aker
Ġt eddy
Ġt agli
Ġb ent
Ġb isc
Ġb ounce
ed e
ed erate
Ġp ts
Ġp om
Ġp uts
Ġp ins
Ġp reser
Ġp ennies
Ġm it
Ġm oney
Ġm ould
Ġm illed
Ġm uenster
on bu
en da
Ġf eeds
Ġf eathers
ic ia
ic iness
Ġto asts
sp ort
Ġin vol
le o
le igh
ĠC i
ĠC raw
ĠC arp
ĠC ame
ĠC ouple
ĠC asseroles
or ox
el o
ro od
ro asting
ro gen
as in
as ters
it or
it ial
Ġd iffer
Ġa spic
ĠS uckers
Ġe mer
Ġl int
Ġl aban
Ġl istening
oo the
ĠB ad
ĠB yr
ĠB right
ĠP ato
ĠP rop
ĠP aff
ĠP ike
ĠP ao
ĠP reserving
ĠP odge
ac les
ac ies
un chin
gg ers
Ġfl ambe
Ġegg less
ow el
ĠT z
ĠT eat
ĠT os
ĠT oot
utter s
ĠM acho
ĠM aj
ĠM aint
ĠM unster
Ġche at
Ġv apor
Ġun ple
Ġun ripe
Ġh ulless
ĠA ff
ĠA ug
ĠA ggie
ot les
Ġmin ed
Ġst rap
ver ize
to e
to s
Ġcan ton
ĠAdd s
Ġn ib
Ġn umbers
ir ling
et own
Ġsh ower
Ġle aks
Ġle mun
Ġmar g
Ġmar ry
Ġmar tini
ĠR idge
ly n
ĠCh in
Ġcook out
ien te
ĠD in
ĠD am
ĠD enn
ĠD rape
ĠD esired
ĠD ifference
ĠD ennis
ush ian
ĠW ind
Ġr h
Ġju icer
ab erry
st ar
Ġpan ko
Ġre use
Ġsp am
Ġsp atter
Ġsp okes
im ento
Ġcorn cobs
Ġall igator
ĠF ol
ĠF ole
ĠF orno
ĠSp rink
ĠSp are
ĠSp eck
ĠSt an
ĠSt or
ĠSt ream
ĠSt een
Ġground ed
Ġy og
ap id
ĠL ap
ĠL ep
ĠL ind
ĠL atin
ĠL eather
ĠL aban
Ġbl iss
Ġbl ob
Ġbl aded
ĠH andy
Ġcon struction
op a
op tion
owl edge
ĠG in
ĠG am
ĠWh ere
Ġcar ved
sh oulder
ĠIn ter
em ent
we e
get ti
ĠCo arse
ĠSer bian
Ġcl aret
Ġk luski
art ificial
Ġred i
Ġapp etizing
ide os
Ġ15 6
ĠO kay
ĠE le
tt aste
ĠJ el
ĠJ ong
ĠJ ung
ĠK ill
ĠK idd
Ġpl ug
ĠCr iss
ĠCr isto
ĠCut ting
est ra
ĠV it
ĠV igor
Ġsm id
ĠSa vers
ĠSa uv
Ġli k
tr ude
tr achet
pan cake
Ġpre mixed
Ġpre packaged
ĠMel ange
ump tion
ĠN ip
Ġnot ice
ĠY es
ĠY ard
ĠY oghurt
ĠY von
ĠMo chiko
Ġliqu ors
ĠSh er
ĠSh apes
ĠSh annon
Ġ7 4
Ġ7 7
ĠU mm
Ġoff er
ĠĠ ĠĠ
ĠBr at
ĠBr it
iel ding
Ġsc one
ĠTurn er
ĠGr it
ĠGr acie
Ġturkey s
ĠGra de
ĠSoup ed
ĠCar uso
ĠFor dhook
ĠFruit cakes
erm o
ric ia
rising ly
Ġglass y
sc ious
ĠFl ambe
ĠFl annel
Ġpro te
Ġpro ject
Ġhigh ball
ĠFro thy
Ġlong wise
Ġfish y
az es
ĠPepper nuts
bl in
bl anched
ĠUn ion
ĠAl m
Ġper ked
ĠMay field
Ġsub tract
ĠSour s
for get
wh at
Ġ18 6
Ġop tions
ĠDi amonds
Ġros y
ĠPet al
Ġcornfl our
Ġrelish es
ĠCl o
ĠCl abber
ĠCl orox
Ġmint ues
Ġgrape vine
ĠFresh like
Ġwhisk y
cr isscross
tm el
ĠBroil er
vil ed
Ġscal ed
uss en
ĠCro wns
ĠIm o
Ġpulp y
ĠStove top
28 0
ĠHoney dew
ĠWal k
Ch ik
Ch oose
Ġsoften er
ĠPl enty
Ġthan ks
ĠAn imal
Ġrese t
ĠPop ular
Ġwet ting
Ġmon kfish
ĠIr ma
Ġdump ing
Th in
Th an
Th ank
be er
be aters
ĠCur l
ĠCur ls
Ġty p
30 5
Ġchip otles
Ġsw im
ĠOp ener
Add itional
Ġcirc um
ĠAt l
ĠFir m
ĠShell fish
Ġdiet ary
ĠSmith field
Cr unch
Cr ushed
ĠLou ie
ada if
ĠBas kets
ĠMary s
Ġ19 40
Ġcat alina
Ġsnack ing
ĠPo ppin
ĠPo ivre
ĠHo spitality
Ġdoor bell
ĠTaste e
Sp read
ign ons
ĠBea um
ĠFlavor ful
Ġsho pped
Ġesc apes
ĠPart ridge
Ġsea weed
Ġprick ing
rem aining
