{"<s>":0,"<pad>":1,"</s>":2,"<unk>":3,"<mask>":4,"!":5,"\"":6,"#":7,"$":8,"%":9,"&":10,"'":11,"(":12,")":13,"*":14,"+":15,",":16,"-":17,".":18,"/":19,"0":20,"1":21,"2":22,"3":23,"4":24,"5":25,"6":26,"7":27,"8":28,"9":29,":":30,";":31,"<":32,"=":33,">":34,"?":35,"@":36,"A":37,"B":38,"C":39,"D":40,"E":41,"F":42,"G":43,"H":44,"I":45,"J":46,"K":47,"L":48,"M":49,"N":50,"O":51,"P":52,"Q":53,"R":54,"S":55,"T":56,"U":57,"V":58,"W":59,"X":60,"Y":61,"Z":62,"[":63,"\\":64,"]":65,"^":66,"_":67,"`":68,"a":69,"b":70,"c":71,"d":72,"e":73,"f":74,"g":75,"h":76,"i":77,"j":78,"k":79,"l":80,"m":81,"n":82,"o":83,"p":84,"q":85,"r":86,"s":87,"t":88,"u":89,"v":90,"w":91,"x":92,"y":93,"z":94,"{":95,"|":96,"}":97,"~":98,"¡":99,"¢":100,"£":101,"¤":102,"¥":103,"¦":104,"§":105,"¨":106,"©":107,"ª":108,"«":109,"¬":110,"®":111,"¯":112,"°":113,"±":114,"²":115,"³":116,"´":117,"µ":118,"¶":119,"·":120,"¸":121,"¹":122,"º":123,"»":124,"¼":125,"½":126,"¾":127,"¿":128,"À":129,"Á":130,"Â":131,"Ã":132,"Ä":133,"Å":134,"Æ":135,"Ç":136,"È":137,"É":138,"Ê":139,"Ë":140,"Ì":141,"Í":142,"Î":143,"Ï":144,"Ð":145,"Ñ":146,"Ò":147,"Ó":148,"Ô":149,"Õ":150,"Ö":151,"×":152,"Ø":153,"Ù":154,"Ú":155,"Û":156,"Ü":157,"Ý":158,"Þ":159,"ß":160,"à":161,"á":162,"â":163,"ã":164,"ä":165,"å":166,"æ":167,"ç":168,"è":169,"é":170,"ê":171,"ë":172,"ì":173,"í":174,"î":175,"ï":176,"ð":177,"ñ":178,"ò":179,"ó":180,"ô":181,"õ":182,"ö":183,"÷":184,"ø":185,"ù":186,"ú":187,"û":188,"ü":189,"ý":190,"þ":191,"ÿ":192,"Ā":193,"ā":194,"Ă":195,"ă":196,"Ą":197,"ą":198,"Ć":199,"ć":200,"Ĉ":201,"ĉ":202,"Ċ":203,"ċ":204,"Č":205,"č":206,"Ď":207,"ď":208,"Đ":209,"đ":210,"Ē":211,"ē":212,"Ĕ":213,"ĕ":214,"Ė":215,"ė":216,"Ę":217,"ę":218,"Ě":219,"ě":220,"Ĝ":221,"ĝ":222,"Ğ":223,"ğ":224,"Ġ":225,"ġ":226,"Ģ":227,"ģ":228,"Ĥ":229,"ĥ":230,"Ħ":231,"ħ":232,"Ĩ":233,"ĩ":234,"Ī":235,"ī":236,"Ĭ":237,"ĭ":238,"Į":239,"į":240,"İ":241,"ı":242,"Ĳ":243,"ĳ":244,"Ĵ":245,"ĵ":246,"Ķ":247,"ķ":248,"ĸ":249,"Ĺ":250,"ĺ":251,"Ļ":252,"ļ":253,"Ľ":254,"ľ":255,"Ŀ":256,"ŀ":257,"Ł":258,"ł":259,"Ń":260,"Ġ<":261,"NE":262,"XT":263,"NEXT":264,"IN":265,"EN":266,"RE":267,"ST":268,"Ġc":269,"ING":270,"DI":271,"TS":272,"ENTS":273,"REDI":274,"INGREDI":275,"INGREDIENTS":276,"NER":277,"in":278,"TI":279,"Ġs":280,"er":281,"Ġ1":282,"ON":283,"INST":284,"RU":285,"TION":286,"CTION":287,"CTIONS":288,"INSTRU":289,"INSTRUCTIONS":290,"an":291,"AR":292,"STAR":293,"START":294,"END":295,"Ġo":296,"Ġt":297,"ar":298,"Ġb":299,"ed":300,"es":301,"Ġp":302,"Ġm":303,"at":304,"il":305,"re":306,"ut":307,"on":308,"en":309,"al":310,"and":311,"ou":312,"Ġf":313,"Ġand":314,"Ġch":315,"Ġw":316,"ing":317,"ic":318,"gar":319,"LE":320,"PE":321,"CI":322,"RECI":323,"TIT":324,"RECIPE":325,"TITLE":326,"Ġto":327,"sp":328,"pp":329,"Ġin":330,"le":331,"ĠC":332,"or":333,"el":334,"Ġ2":335,"ro":336,"ak":337,"our":338,"as":339,"am":340,"Ġsu":341,"it":342,"Ġsugar":343,"Ġon":344,"Ġd":345,"Ġa":346,"Ġ3":347,"ĠS":348,"Ġe":349,"ter":350,"Ġg":351,"Ġl":352,"Ġsal":353,"Ġtsp":354,"ix":355,"Ġpe":356,"he":357,"oo":358,"ĠB":359,"Ġsalt":360,"ion":361,"ĠP":362,"ge":363,"ine":364,"ac":365,"un":366,"is":367,"gg":368,"dd":369,"Ġfl":370,"Ġegg":371,"ow":372,"ĠT":373,"utter":374,"ese":375,"Ġ(":376,"Ġbutter":377,"ream":378,"ake":379,"ill":380,"ĠM":381,"Ġche":382,"Ġonion":383,"Ġv":384,"Ġcheese":385,"ick":386,"Ġun":387,"Ġflour":388,"ol":389,"us":390,"Ġh":391,"ĠA":392,"ot":393,"Ġof":394,"ra":395,"Ġcream":396,"Ġmin":397,"all":398,"Ġor":399,"ith":400,"Ġcho":401,"pper":402,"Ġbe":403,"ilk":404,"Ġwith":405,"Ġmix":406,"Ġpepper":407,"Ġst":408,"Ġminut":409,"ver":410,"ad":411,"ell":412,"til":413,"ater":414,"Ġuntil":415,"Ġminutes":416,"uc":417,"ice":418,"Ġwater":419,"Ġmilk":420,"Ġfor":421,"to":422,"red":423,"ch":424,"ook":425,"ts":426,"Ġeggs":427,"bsp":428,"ĠTbsp":429,"Ġcan":430,"Ġcr":431,"ĠAdd":432,"pped":433,"ato":434,"der":435,"ri":436,"Ġbro":437,"om":438,"00":439,"um":440,"Ġ4":441,"Ġthe":442,"Ġsa":443,"Ġn":444,"ve":445,"Ġoz":446,"ir":447,"uce":448,"icken":449,"Ġchopped":450,"Ġj":451,"illa":452,"et":453,"lic":454,"anilla":455,"Ġvanilla":456,"Ġsh":457,"gh":458,"Ġbak":459,"Ġinto":460,"up":461,"Ġat":462,"th":463,"Ġle":464,"Ġth":465,"wn":466,"ry":467,"Ġmar":468,"Ġbaking":469,"Ġgre":470,".)":471,"Ġgr":472,"Ġsauce":473,"Ġchicken":474,"owder":475,"ĠR":476,"ĠMix":477,"Ġso":478,"Ġpowder":479,"ie":480,"Ġwh":481,"ĠBake":482,"Ġover":483,"ay":484,"ast":485,"read":486,"oup":487,"ly":488,"ĠCh":489,"ate":490,"Ġoil":491,"Ġbrown":492,"Ġcook":493,"ure":494,"nd":495,"ien":496,"eat":497,"atoes":498,"ĠD":499,"les":500,"ack":501,"ans":502,"ush":503,"Ġco":504,"Ġsoup":505,"redien":506,"ingredien":507,"ĠW":508,"Ġingredien":509,"Ġingredients":510,"Ġr":511,"ip":512,"uts":513,"mon":514,"garine":515,"Ġmargarine":516,"col":517,"50":518,"Ġtom":519,"orn":520,"Ġju":521,"ab":522,"ound":523,"Ġbo":524,"ur":525,"st":526,"Ġlb":527,"Ġjuice":528,"ture":529,"Ġpan":530,"Ġre":531,"Ġsp":532,"Ġmixture":533,"Ġlar":534,"Ġgreen":535,"Ġlarge":536,"ef":537,"igh":538,"Ġ350":539,"Ġwell":540,"im":541,"mall":542,"kg":543,"Ġgar":544,"Ġpkg":545,"inch":546,"Ġcorn":547,"pple":548,"Ġall":549,"ĠF":550,"rain":551,"Ġse":552,"Ġfro":553,"Ġadd":554,"ish":555,"ther":556,"qu":557,"ĠSp":558,"Ġgarlic":559,"res":560,"heat":561,"id":562,"ves":563,"da":564,"ĠSt":565,"ery":566,"ĠI":567,"Ġpie":568,"Ġsoda":569,"ool":570,"ight":571,"Ġlemon":572,"ust":573,"ole":574,"umb":575,"Ġground":576,"Ġslic":577,"Ġy":578,"ĠPour":579,"room":580,"Ġpot":581,"inn":582,"ated":583,"ten":584,"ven":585,"ted":586,"elery":587,"Ġcelery":588,"Ġhour":589,"omb":590,"Ġonions":591,"colate":592,"Ġcup":593,"gether":594,"ers":595,"Ġboil":596,"Ġtogether":597,"Ġ6":598,"ushroom":599,"Ġnuts":600,"apple":601,"ass":602,"ineapple":603,"ĠCook":604,"ombine":605,"amon":606,"age":607,"ap":608,"ace":609,"if":610,"innamon":611,"Ġbeef":612,"ces":613,"Ġmushroom":614,"ain":615,"Ġsmall":616,"ĠL":617,"Ġcinnamon":618,"ger":619,"Ġpineapple":620,"Ġ8":621,"lace":622,"Ġcoc":623,"Ġwhit":624,"Ġsour":625,"edi":626,"ach":627,"Ġbl":628,"ars":629,"old":630,"ĠH":631,"Ġtop":632,"ĠStir":633,"ber":634,"Ġcon":635,"Ġheat":636,"Ġcrumb":637,"Ġstir":638,"Ġ5":639,"Ġchocolate":640,"edium":641,"Ġbread":642,"me":643,"Ġoven":644,"Ġbeat":645,"Ġmedium":646,"op":647,"owl":648,"Ġpotatoes":649,"Ġbowl":650,"Ġdrain":651,"ash":652,"ove":653,"ink":654,"Ġcake":655,"Ġmel":656,"ough":657,"ĠCombine":658,"inegar":659,"arm":660,"Ġvinegar":661,"Ġpec":662,"Ġtomatoes":663,"ĠG":664,"oon":665,"ise":666,"ood":667,"out":668,"Ġ10":669,"ĠWh":670,"Ġtomato":671,"Ġx":672,"asser":673,"Ġcar":674,"asserole":675,"rink":676,"ard":677,"Ġser":678,"zen":679,"Ġrem":680,"ff":681,"sh":682,"Ġdish":683,"Ġmay":684,"akes":685,"Ġhot":686,"ring":687,"ies":688,"Ġsliced":689,"Ġrice":690,"Ġpecans":691,"ĠIn":692,"ag":693,"rinkle":694,"edd":695,"Ġdry":696,"em":697,"Ġro":698,"Ġ9":699,"eddar":700,"ĠCool":701,"Ġgrated":702,"Ġcrumbs":703,"Ġbeans":704,"Ġcrack":705,"ire":706,"we":707,"na":708,"ased":709,"get":710,"ĠPlace":711,"ĠCo":712,"ĠSer":713,"ries":714,"eget":715,"Ġwhite":716,"aste":717,"egetab":718,"ub":719,"ely":720,"ant":721,"ll":722,"end":723,"Ġmelted":724,"Ġab":725,"ĠCheddar":726,"Ġcl":727,"weet":728,"Ġstick":729,"ips":730,"oa":731,"Ġfrozen":732,"Ġmeat":733,"ins":734,"Ġcut":735,"tion":736,"Ġis":737,"Ġshor":738,"Ġchips":739,"ange":740,"tening":741,"Ġshortening":742,"Ġabout":743,"av":744,"Ġvegetab":745,"Ġk":746,"Ġal":747,"onna":748,"onnaise":749,"Ġ30":750,"Ġmayonnaise":751,"art":752,"uit":753,"ore":754,"resh":755,"ress":756,"Ġremain":757,"Ġra":758,"Ġred":759,"ving":760,"Ġfrom":761,"ley":762,"Ġremaining":763,"mer":764,"Ġlight":765,"ustard":766,"ey":767,"Ġas":768,"Ġcooked":769,"riger":770,"uff":771,"Ġapp":772,"Ġfresh":773,"ason":774,"onut":775,"ul":776,"ccol":777,"ccoli":778,"Ġdrained":779,"Ġsl":780,"acon":781,"arsley":782,"Ġgreased":783,"Ġthen":784,"Ġcarro":785,"Ġchil":786,"Ġparsley":787,"Ġhal":788,"ep":789,"Ġham":790,"udd":791,"Ġbacon":792,"Ġmustard":793,"os":794,"udding":795,"Ġhours":796,"ĠCover":797,"ĠPut":798,"Ġtaste":799,"ĠBeat":800,"Ġserving":801,"ender":802,"Ġex":803,"Ġcrush":804,"ĠSprinkle":805,"Ġpean":806,"Ġgra":807,"Ġcoconut":808,"ded":809,"Ġcrushed":810,"ide":811,"Ġ15":812,"ĠWhip":813,"Ġsk":814,"raw":815,"Ġboiling":816,"Ġbeaten":817,"Ġshred":818,"ĠO":819,"Ġpap":820,"Ġroll":821,"li":822,"Ġbot":823,"Ġmushrooms":824,"ĠSal":825,"Ġshredded":826,"ks":827,"are":828,"ec":829,"rawber":830,"Ġseason":831,"stant":832,"co":833,"iz":834,"Ġorange":835,"ĠBro":836,"ĠServe":837,"Ġoli":838,"anan":839,"Ġcool":840,"Ġsof":841,"Ġcarrots":842,"Ġapples":843,"Ġbake":844,"let":845,"ĠRem":846,"Ġpudding":847,"Ġ12":848,"ĠRemove":849,"iced":850,"Ġ20":851,"Ġbroccoli":852,"ĠCake":853,"Ġeach":854,"ĠE":855,"ĠCream":856,"Ġpieces":857,"Ġpowdered":858,"Ġ13":859,"Ġfir":860,"tt":861,"Ġcans":862,"immer":863,"nuts":864,"ĠWor":865,"Ġdiced":866,"Ġbroth":867,"Ġcasserole":868,"Ġole":869,"Ġoleo":870,"Ġslices":871,"shire":872,"armes":873,"armesan":874,"ayer":875,"tershire":876,"cestershire":877,"Ġnut":878,"Ġshell":879,"ent":880,"Ġbox":881,"avor":882,"reas":883,"Ġrais":884,"ĠJ":885,"Ġcover":886,"usage":887,"oodles":888,"ĠWorcestershire":889,"ressing":890,"Ġraisins":891,"Ġref":892,"ĠParmesan":893,"ĠK":894,"yr":895,"pping":896,"yrup":897,"Ġpl":898,"iss":899,"Ġstrawber":900,"ruit":901,"Ġcher":902,"ĠMakes":903,"ĠSpread":904,"ime":905,").":906,"Ġtender":907,"Ġsyrup":908,"Ġhalf":909,"Ġnoodles":910,"Ġpour":911,"oll":912,"Ġan":913,"Ġpeanut":914,"meg":915,"ĠCr":916,"Ġnutmeg":917,"ĠCut":918,"oil":919,"Ġstirring":920,"Ġcrackers":921,"est":922,"ork":923,"Ġbanan":924,"ĠSalad":925,"Ġjell":926,"Ġchili":927,"milk":928,"Ġcocoa":929,"Ġrefriger":930,"Ġcrust":931,"ĠV":932,"Ġblack":933,"Ġsweet":934,"Ġpeppers":935,"Ġhe":936,"oves":937,"one":938,"ue":939,"ps":940,"Ġcloves":941,"ea":942,"ĠCasserole":943,"urn":944,"Ġshe":945,"Ġsausage":946,"ats":947,"Ġbuttermilk":948,"Ġsm":949,"ds":950,"ute":951,"ĠSa":952,"Ġseasoning":953,"illet":954,"Ġdressing":955,"mallow":956,"ĠChicken":957,"Ġwhi":958,"Ġit":959,"Ġup":960,"Ġcub":961,"bur":962,"Ġset":963,"Ġcold":964,"Ġsalad":965,"ally":966,"ĠBrown":967,"Ġvegetable":968,"chin":969,"ĠLet":970,"Ġcups":971,"ĠHeat":972,"Ġli":973,"ĠPie":974,"arch":975,"Ġlow":976,"Ġwhole":977,"Ġsqu":978,"ĠChe":979,"ĠDrain":980,"Ġblend":981,"Ġfill":982,"tr":983,"Ġwal":984,"Ġdough":985,"Ġskillet":986,"Ġseed":987,"starch":988,"Ġ45":989,"Ġcornstarch":990,"Ġus":991,"ĠBl":992,"Ġout":993,"ĠPre":994,"inger":995,"ried":996,"pan":997,"Ġcracker":998,"Ġbananas":999,"ĠRoll":1000,"Ġcookie":1001,"ano":1002,"Ġpack":1003,"Ġpre":1004,"Ġmarsh":1005,"Ġmarshmallow":1006,"Ġsheet":1007,"Ġpork":1008,"Ġwarm":1009,"burger":1010,"ew":1011,"25":1012,"Ġinstant":1013,"ham":1014,"ess":1015,"fore":1016,"Ġbefore":1017,"ian":1018,"ave":1019,"ĠTop":1020,"rim":1021,"Ġwalnuts":1022,"alls":1023,"Ġflavor":1024,"Ġcooking":1025,"ĠPe":1026,"ree":1027,"Ġare":1028,"eed":1029,"ĠTh":1030,"ĠMel":1031,"tom":1032,"75":1033,"ooth":1034,"Ġvegetables":1035,"Ġgraham":1036,"tional":1037,"Ġsaucepan":1038,"ightly":1039,"oni":1040,"Ġjello":1041,"ĠMelt":1042,"Ġbottom":1043,"ka":1044,"ump":1045,"zz":1046,"ced":1047,"Ġalmon":1048,"Ġsmooth":1049,"gano":1050,"Ġginger":1051,"ĠN":1052,"Ġfilling":1053,"Ġfruit":1054,"Ġminced":1055,"cc":1056,"tened":1057,"abb":1058,"Ġbell":1059,"Ġthick":1060,"Ġnot":1061,"Ġhamburger":1062,"Ġsimmer":1063,"abbage":1064,"aked":1065,"regano":1066,"Ġlayer":1067,"optional":1068,"ately":1069,"atter":1070,"reasts":1071,"Ġoregano":1072,"act":1073,"rika":1074,"ellow":1075,"tle":1076,"Ġtab":1077,"Ġwhites":1078,"Ġjar":1079,"Ġthin":1080,"Ġdone":1081,"Ġpaprika":1082,"Ġmarshmallows":1083,"eal":1084,"Ġlea":1085,"ucchin":1086,"Ġtea":1087,"ucchini":1088,"Ġ375":1089,"Ġlightly":1090,"ĠIt":1091,"Ġbreasts":1092,"Ġpeel":1093,"poon":1094,"Ġwa":1095,"ges":1096,"east":1097,"Ġen":1098,"lespoon":1099,"rimp":1100,"Ġextr":1101,"Ġfin":1102,"Ġif":1103,"Ġyol":1104,"Ġtablespoon":1105,"Ġyellow":1106,"Ġone":1107,"Ġplace":1108,"Ġextract":1109,"Ġfirst":1110,"Ġaside":1111,"meal":1112,"ĠChill":1113,"ĠY":1114,"Ġstrawberries":1115,"Ġyeast":1116,"urp":1117,"par":1118,"aw":1119,"ott":1120,"Ġdes":1121,"berry":1122,"ĠMo":1123,"ose":1124,"ĠBlend":1125,"Ġolive":1126,"isc":1127,"ired":1128,"ĠAnd":1129,"ens":1130,"Ġsoftened":1131,"ella":1132,"ne":1133,"Ġcabbage":1134,"Ġcont":1135,"Ġdesired":1136,"oaf":1137,"unch":1138,"Ġfinely":1139,"quart":1140,"issol":1141,"alian":1142,"arella":1143,"zzarella":1144,"rt":1145,"ĠBe":1146,"Ġservings":1147,"Ġliqu":1148,"ĠSh":1149,"Ġ25":1150,"hett":1151,"aghett":1152,"aghetti":1153,"Ġsoy":1154,"Ġlet":1155,"ĠItalian":1156,"ĠCheese":1157,"Ġz":1158,"acar":1159,"Ġtime":1160,"Ġpeas":1161,"Ġwine":1162,"ĠServes":1163,"Ġother":1164,"ize":1165,"Ġwhipped":1166,"ved":1167,"urpose":1168,"ĠMozzarella":1169,"Ġdash":1170,"gre":1171,"acaroni":1172,"ck":1173,"Ġice":1174,"eep":1175,"Ġput":1176,"Ġchill":1177,"olden":1178,"Ġcombine":1179,"Ġ40":1180,"Ġserve":1181,"Ġ325":1182,"asil":1183,"ade":1184,"spoon":1185,"ce":1186,"Ġolives":1187,"Ġmore":1188,"Ġteaspoon":1189,"Ġtort":1190,"kin":1191,"10":1192,"purpose":1193,"Ġpaper":1194,"dens":1195,"Ġliquid":1196,"densed":1197,"ĠPreheat":1198,"iscuit":1199,"ator":1200,"ite":1201,"ift":1202,"Ġ7":1203,"ex":1204,"Ġcondensed":1205,"night":1206,"Ġsprinkle":1207,"Ġyolks":1208,"Ġzucchini":1209,"Ġshrimp":1210,"Ġcherries":1211,"sweet":1212,"Ġbatter":1213,"row":1214,"irec":1215,"umpkin":1216,"ĠBring":1217,"Ġdirec":1218,"Ġslightly":1219,"Ġgolden":1220,"ee":1221,"Ġclove":1222,"Ġcom":1223,"Ġovernight":1224,"rop":1225,"Ġpast":1226,"Ġq":1227,"Ġby":1228,"Ġbag":1229,"Ġflakes":1230,"ĠDip":1231,"Ġqt":1232,"ĠU":1233,"elat":1234,"ĠPot":1235,"Ġ400":1236,"Ġdo":1237,"Ġbasil":1238,"Ġsoft":1239,"pe":1240,"oughly":1241,"'s":1242,"els":1243,"Ġrefrigerator":1244,"ĠJell":1245,"oroughly":1246,"Ġgelat":1247,"Ġpim":1248,"ĠCookies":1249,"Ġspaghetti":1250,"Ġspread":1251,"isco":1252,"quick":1253,"Ġmacaroni":1254,"ĠButter":1255,"Ġstand":1256,"ĠRef":1257,"inach":1258,"ĠCho":1259,"icrow":1260,"Ġcontain":1261,"Ġtopping":1262,"arb":1263,"Ġballs":1264,"ĠRefriger":1265,"ower":1266,"Ġsize":1267,"Ġthoroughly":1268,"aco":1269,"ĠBread":1270,"Ġrolls":1271,"Ġloaf":1272,"Ġcherry":1273,"reez":1274,"Ġfat":1275,"ĠCrisco":1276,"Ġapple":1277,"Ġlett":1278,"icrowave":1279,"ĠRice":1280,"ept":1281,"Ġlettuce":1282,"16":1283,"Ġoff":1284,"ĠĠ":1285,"oth":1286,"berries":1287,"ĠBoil":1288,"ottage":1289,"Ġfirm":1290,"Ġmixed":1291,"ble":1292,"ĠSift":1293,"Ġuse":1294,"oney":1295,"ĠChocolate":1296,"Ġfood":1297,"Ġpeach":1298,"Ġlon":1299,"Ġyou":1300,"Ġmash":1301,"ĠRefrigerate":1302,"Ġsticks":1303,"Ġcubes":1304,"Ġoats":1305,"ucumb":1306,"Ġdried":1307,"ile":1308,"ke":1309,"Ġmake":1310,"eak":1311,"cept":1312,"ĠFold":1313,"ĠBr":1314,"Ġfloured":1315,"key":1316,"Ġbiscuit":1317,"Ġcol":1318,"ature":1319,"Ġcottage":1320,"Ġalmonds":1321,"ifted":1322,"vered":1323,"Ġgelatin":1324,"fec":1325,"cook":1326,"ĠSl":1327,"tions":1328,"Ġmixing":1329,"fter":1330,"rab":1331,"Ġ35":1332,"Ġtur":1333,"fection":1334,"Ġstuff":1335,"eta":1336,"Ġcontainer":1337,"ened":1338,"led":1339,"Ġconfection":1340,"iel":1341,"Ġsc":1342,"Ġpeeled":1343,"Ġcucumb":1344,"Ġexcept":1345,"Ġpans":1346,"greased":1347,"ually":1348,"ĠWhen":1349,"Ġconfectioners":1350,"atmeal":1351,"range":1352,"elve":1353,"ĠSaute":1354,"ray":1355,"ich":1356,"Ġcovered":1357,"ĠSpoon":1358,"Ġthicken":1359,"Ġpaste":1360,"Ġspoon":1361,"Ġblended":1362,"arin":1363,"atsup":1364,"Ġbrowned":1365,"ento":1366,"cess":1367,"Ġwill":1368,"Ġpumpkin":1369,"Ġhoney":1370,"Ġfry":1371,"Ġcatsup":1372,"Ġcran":1373,"Ġonto":1374,"Ġgl":1375,"Ġcolor":1376,"ĠDrop":1377,"ĠVelve":1378,"Ġpimento":1379,"ĠSimmer":1380,"Ġspinach":1381,"stantly":1382,"avy":1383,"Ġconstantly":1384,"anges":1385,"Ġket":1386,"Ġbuttered":1387,"Ġtaco":1388,"Ġflavoring":1389,"Ġtablespoons":1390,"se":1391,"Ġleaves":1392,"Ġsifted":1393,"yle":1394,"Ġoranges":1395,"cent":1396,"Ġstrawberry":1397,"Ġpotato":1398,"Ġthis":1399,"Ġwax":1400,"nch":1401,"iff":1402,"dually":1403,"Ġfoil":1404,"ĠVelveeta":1405,"oun":1406,"Ġhead":1407,"Ġenough":1408,"ican":1409,"Ġri":1410,"Ġstri":1411,"Ġbou":1412,"Ġchun":1413,"illon":1414,"cooked":1415,"iv":1416,"Ġmashed":1417,"ittle":1418,"Ġbouillon":1419,"ind":1420,"rease":1421,"Ġpackage":1422,"Ġpt":1423,"Ġstuffing":1424,"Ġheavy":1425,"arp":1426,"Ġinch":1427,"ides":1428,"Ġdill":1429,"ding":1430,"Ġround":1431,"ĠLayer":1432,"12":1433,"Ġpick":1434,"Ġsteak":1435,"Ġmo":1436,"og":1437,"Ġbay":1438,"ĠSw":1439,"ĠCorn":1440,"ĠYiel":1441,"yme":1442,"Ġbon":1443,"Ġsides":1444,"ares":1445,"Ġsharp":1446,"ris":1447,"ape":1448,"Ġthyme":1449,"Ġcand":1450,"ings":1451,"apor":1452,"asses":1453,"vapor":1454,"Ġpeaches":1455,"Ġfine":1456,"Ġcle":1457,"ets":1458,"its":1459,"Ġstrips":1460,"Ġevapor":1461,"illas":1462,"Ġthaw":1463,"ton":1464,"erry":1465,"Ġrefrigerate":1466,"Ġde":1467,"lower":1468,"Ġmuff":1469,"Ġdissol":1470,"ĠGrease":1471,"ĠTurn":1472,"Ġevaporated":1473,"Ġturn":1474,"chup":1475,"Ġjust":1476,"ail":1477,"ates":1478,"covered":1479,"Ġtortillas":1480,"ney":1481,"Ġrest":1482,"Ġchops":1483,"Ġketchup":1484,"Ġprepar":1485,"Ġap":1486,"per":1487,"Ġslice":1488,"Ġroast":1489,"Ġvery":1490,"Ġcrab":1491,"Ġlime":1492,"enter":1493,"rench":1494,"Ġcookies":1495,"Ġdirections":1496,"Ġpeanuts":1497,"Ġsquash":1498,"Ġacc":1499,"ĠThen":1500,"ĠGr":1501,"Ġcenter":1502,"Ġeven":1503,"Ġlittle":1504,"Ġuncovered":1505,"Ġside":1506,"Ġkid":1507,"own":1508,"olasses":1509,"Ġcubed":1510,"mi":1511,"Ġturkey":1512,"Ġfreez":1513,"ording":1514,"Ġtart":1515,"ĠFrench":1516,"Ġthawed":1517,"nish":1518,"Ġprepared":1519,"Ġlay":1520,"Ġslow":1521,"Ġkidney":1522,"Ġsemi":1523,"ors":1524,"Ġminute":1525,"Ġstal":1526,"Ġaccording":1527,"Ġdou":1528,"ently":1529,"Ġafter":1530,"Ġmixer":1531,"Ġpo":1532,"Ġchilies":1533,"erb":1534,"ices":1535,"eser":1536,"ĠRo":1537,"ĠGra":1538,"ld":1539,"Ġremove":1540,"ous":1541,"ĠSwiss":1542,"Ġoatmeal":1543,"Ġplain":1544,"ĠSet":1545,"Ġcur":1546,"ĠSoup":1547,"ount":1548,"rox":1549,"ful":1550,"izz":1551,"Ġyour":1552,"ĠCar":1553,"Ġwhipping":1554,"Ġform":1555,"Ġbut":1556,"emper":1557,"Ġ16":1558,"Ġbre":1559,"roxim":1560,"tern":1561,"emperature":1562,"Ġmolasses":1563,"Ġdates":1564,"roximately":1565,"Ġbiscuits":1566,"Ġhand":1567,"Ġungreased":1568,"Ġtemperature":1569,"Ġcro":1570,"ĠFor":1571,"Ġevenly":1572,"ĠBis":1573,"Ġalmond":1574,"ĠRed":1575,"asion":1576,"ccasion":1577,"Ġleaf":1578,"Ġfork":1579,"Ġchest":1580,"arbec":1581,"umin":1582,"ubb":1583,"Ġqu":1584,"aul":1585,"uck":1586,"Ġoccasion":1587,"ĠMake":1588,"spice":1589,"Ġwhen":1590,"Ġ50":1591,"Ġchestnuts":1592,"Ġoccasionally":1593,"Ġlayers":1594,"ĠPotato":1595,"ĠBisquick":1596,"Ġblender":1597,"ern":1598,"Ġallspice":1599,"Ġstiff":1600,"arts":1601,"ffee":1602,"Ġmeal":1603,"Ġsepar":1604,"sa":1605,"aulif":1606,"Ġpinch":1607,"Ġtw":1608,"auliflower":1609,"ame":1610,"rap":1611,"Ġunb":1612,"ud":1613,"Ġball":1614,"Ġsquares":1615,"Ġtub":1616,"Ġspeed":1617,"izza":1618,"Ġpastry":1619,"Ġcucumbers":1620,"ss":1621,"risp":1622,"Ġpacked":1623,"ition":1624,"uffy":1625,"Ġdown":1626,"Ġhalves":1627,"und":1628,"ark":1629,"Ġbring":1630,"Ġbubb":1631,"Ġbr":1632,"una":1633,"ĠPress":1634,"asy":1635,"andarin":1636,"ĠFruit":1637,"ĠWith":1638,"ĠApple":1639,"Ġcann":1640,"ider":1641,"Ġthr":1642,"Ġgran":1643,"Ġsec":1644,"oss":1645,"Ġthrough":1646,"elf":1647,"oc":1648,"issolve":1649,"Ġshells":1650,"isp":1651,"Ġtartar":1652,"Ġbaked":1653,"ĠDissolve":1654,"ase":1655,"Ġwaf":1656,"edges":1657,"ĠSlice":1658,"Ġclean":1659,"fat":1660,"ĠDo":1661,"Ġcrisp":1662,"enne":1663,"ull":1664,"Ġam":1665,"ĠSauce":1666,"arbecue":1667,"ĠTo":1668,"Ġneed":1669,"Ġspray":1670,"Ġdouble":1671,"Ġaddition":1672,"Ġmuffin":1673,"ock":1674,"Ġwhile":1675,"Ġhard":1676,"Qu":1677,"Ġfluffy":1678,"Ġlean":1679,"erm":1680,"ĠSe":1681,"Ġrind":1682,"auce":1683,"Ġuncooked":1684,"about":1685,"ĠBroccoli":1686,"tail":1687,"Ġmelt":1688,"ayenne":1689,"Ġleast":1690,"ĠQu":1691,"Ġnon":1692,"Ġcider":1693,"ric":1694,"bread":1695,"Ġcauliflower":1696,"asco":1697,"Ġcrumbled":1698,"Ġmicrowave":1699,"ready":1700,"Ġstalks":1701,"kra":1702,"Ġblue":1703,"other":1704,"urt":1705,"Ġpasta":1706,"Ġcayenne":1707,"ĠChop":1708,"Ġreser":1709,"ng":1710,"ĠTab":1711,"rising":1712,"Ġunbaked":1713,"ĠUse":1714,"Ġcoloring":1715,"Ġsaute":1716,"Ġapproximately":1717,"Ġcomp":1718,"Ġlonger":1719,"ĠAr":1720,"Ġcarton":1721,"15":1722,"ereal":1723,"Ġbeating":1724,"ĠTabasco":1725,"Ġchunks":1726,"Ġglass":1727,"ext":1728,"ular":1729,"ricot":1730,"Ġshall":1731,"Ġbottle":1732,"Ġar":1733,"ogurt":1734,"sc":1735,"Ġplate":1736,"Ġstew":1737,"Ġ300":1738,"ĠPean":1739,"Ġcres":1740,"Ġseasoned":1741,"Ġmandarin":1742,"Ġaltern":1743,"Ġself":1744,"Ġslowly":1745,"Ġthinly":1746,"fl":1747,"ĠFl":1748,"Ġcoat":1749,"Ġcereal":1750,"Ġcornmeal":1751,"Ġkern":1752,"ipe":1753,"Ġcanned":1754,"ome":1755,"pare":1756,"ĠSto":1757,"ary":1758,"ĠPeanut":1759,"Ġcomplet":1760,"ist":1761,"Ġready":1762,"ĠBaked":1763,"Ġpro":1764,"Ġcrescent":1765,"ĠYields":1766,"Ġhigh":1767,"Ġspices":1768,"Ġday":1769,"Ġfew":1770,"Ġcomes":1771,"gular":1772,"Ġcoars":1773,"ĠGre":1774,"ĠFro":1775,"eless":1776,"lish":1777,"Ġrise":1778,"veral":1779,"Ġthickened":1780,"ĠEasy":1781,"Ġlong":1782,"ĠBeef":1783,"ulated":1784,"Ġcarrot":1785,"style":1786,"udge":1787,"Ġdissolved":1788,"vel":1789,"Ġcreamed":1790,"Ġseveral":1791,"Ġyogurt":1792,"ĠShape":1793,"sweetened":1794,"ĠArrange":1795,"Ġcompletely":1796,"ĠGar":1797,"Ġthem":1798,"Ġamount":1799,"ĠSweet":1800,"Ġcock":1801,"Ġ24":1802,"asag":1803,"Ġcocktail":1804,"Ġrack":1805,"Ġtube":1806,"ĠFill":1807,"Ġwafers":1808,"Ġgranulated":1809,"Ġcumin":1810,"Ġpin":1811,"Ġgrease":1812,"ĠFry":1813,"Ġrec":1814,"ĠGradually":1815,"otch":1816,"Ġale":1817,"Ġchuck":1818,"ĠIf":1819,"Ġmini":1820,"Ġdozen":1821,"ĠThis":1822,"emon":1823,"apen":1824,"alapen":1825,"ĠSqu":1826,"Ġboneless":1827,"Ġsalsa":1828,"less":1829,"ĠReduce":1830,"sting":1831,"ild":1832,"Ġtwo":1833,"Ġjars":1834,"Ġkernel":1835,"Ġapplesauce":1836,"ĠSc":1837,"Ġripe":1838,"ined":1839,"Ġskin":1840,"ig":1841,"Ġanother":1842,"Ġdri":1843,"ĠMicrowave":1844,"Ġunsweetened":1845,"ĠDel":1846,"Ġtuna":1847,"Ġpress":1848,"ĠSeason":1849,"merican":1850,"Ġseasonings":1851,"ppy":1852,"scotch":1853,"Ġlast":1854,"Ġquick":1855,"Ġthat":1856,"Ġgood":1857,"ĠBrand":1858,"ia":1859,"Ġtortilla":1860,"pl":1861,"Ġfish":1862,"Ġcranberry":1863,"Ġany":1864,"ĠHot":1865,"arter":1866,"Ġbubbly":1867,"Ġapricot":1868,"ĠMeat":1869,"bs":1870,"vy":1871,"ĠAmerican":1872,"agle":1873,"Ġtoast":1874,"Ġlike":1875,"Ġcranberries":1876,"Ġcurry":1877,"anana":1878,"Ġpart":1879,"ĠPrepare":1880,"Ġpat":1881,"ĠOn":1882,"Ġroom":1883,"Ġcaram":1884,"Ġsherry":1885,"Ġraw":1886,"Ġjelly":1887,"ied":1888,"inue":1889,"Ġjalapen":1890,"Ġboth":1891,"ĠEagle":1892,"ĠSo":1893,"ugar":1894,"ĠMon":1895,"Ġbreast":1896,"ĠZ":1897,"Ġkeep":1898,"Ġfold":1899,"Ġshallow":1900,"az":1901,"Ġusing":1902,"Ġwheat":1903,"ĠBanana":1904,"aro":1905,"nead":1906,"Ġdip":1907,"aschin":1908,"aschino":1909,"Ġcooled":1910,"Ġrasp":1911,"ĠPepper":1912,"ĠEgg":1913,"ivid":1914,"Ġtoss":1915,"ert":1916,"ilad":1917,"Ġbits":1918,"Ġlemonade":1919,"Ġcoffee":1920,"Ġprocess":1921,"Ġflaked":1922,"ĠCan":1923,"anch":1924,"Ġhas":1925,"ĠHam":1926,"ĠPunch":1927,"ĠPudding":1928,"so":1929,"Ġmaraschino":1930,"ĠHigh":1931,"ĠMex":1932,"Ġcreamy":1933,"ĠKaro":1934,"Ġdeep":1935,"ĠLemon":1936,"reme":1937,"Ġdirected":1938,"Ġend":1939,"Ġregular":1940,"Ġsquare":1941,"ok":1942,"Ġhash":1943,"Ġstock":1944,"meat":1945,"lec":1946,"Ġins":1947,"oke":1948,"ang":1949,"Ġim":1950,"ĠStrawber":1951,"Ġpecan":1952,"Ġsweetened":1953,"ĠCon":1954,"ĠBre":1955,"Ġalternately":1956,"Ġdark":1957,"rained":1958,"14":1959,"Ġchi":1960,"tz":1961,"ĠVegetab":1962,"Ġtow":1963,"Tel":1964,"bl":1965,"Ġbutterscotch":1966,"Ġblueberries":1967,"Ġnext":1968,"Ġonce":1969,"itz":1970,"Ġbanana":1971,"spar":1972,"ĠSalt":1973,"Ġ425":1974,"asagna":1975,"ĠPeel":1976,"rispies":1977,"ĠPotatoes":1978,"Ġcons":1979,"fuls":1980,"astic":1981,"ĠStrawberry":1982,"acle":1983,"ĠJack":1984,"iracle":1985,"ĠGarnish":1986,"Ġsecon":1987,"medi":1988,"mediately":1989,"ĠStore":1990,"ong":1991,"ĠToss":1992,"Ġbarbecue":1993,"Ġcandy":1994,"Ġbite":1995,"ation":1996,"gain":1997,"reser":1998,"Ġkn":1999,"Ġgently":2000,"tric":2001,"lectric":2002,"Ġgradually":2003,"ini":2004,"ams":2005,"ĠTake":2006,"ĠUn":2007,"Ġquarter":2008,"ĠRep":2009,"pick":2010,"Ġfull":2011,"ĠCoc":2012,"corn":2013,"Ġelectric":2014,"Ġagain":2015,"Ġhave":2016,"Ġgrap":2017,"ĠMiracle":2018,"adish":2019,"Ġchilled":2020,"ĠKrispies":2021,"avorite":2022,"ĠFudge":2023,"ĠMexican":2024,"Ġtooth":2025,"eradish":2026,"orseradish":2027,"uted":2028,"very":2029,"Ġbeen":2030,"ive":2031,"Ġscall":2032,"Ġmarin":2033,"Ġ60":2034,"itos":2035,"Ġsalmon":2036,"Ġaround":2037,"Ġtoothpick":2038,"Ġweed":2039,"Ġdi":2040,"velop":2041,"icott":2042,"ĠYou":2043,"ran":2044,"ĠRitz":2045,"ĠStuff":2046,"ife":2047,"Ġbunch":2048,"Ġboiled":2049,"hub":2050,"hubarb":2051,"ĠBreak":2052,"Ġherb":2053,"essert":2054,"Ġhorseradish":2055,"ĠWash":2056,"Ġseal":2057,"Ġenvelop":2058,"Ġrings":2059,"heated":2060,"ĠRepeat":2061,"ĠFreez":2062,"Ġneeded":2063,"amp":2064,"isten":2065,"Ġpizza":2066,"ould":2067,"Ġfreeze":2068,"pot":2069,"cake":2070,"Ġjalapeno":2071,"Ġspice":2072,"Ġboiler":2073,"Ġme":2074,"plant":2075,"Ġgravy":2076,"ĠThe":2077,"ĠAl":2078,"ĠSugar":2079,"ĠPec":2080,"Ġbars":2081,"ling":2082,"Ġknife":2083,"Ġund":2084,"Ġlen":2085,"Ġper":2086,"Ġdripping":2087,".\\":2088,"fer":2089,"esame":2090,"Ġpound":2091,"Ġav":2092,"Ġplus":2093,"Ġheated":2094,"Ġdrippings":2095,"ĠKeep":2096,"Ġsome":2097,"not":2098,"ĠVegetable":2099,"Ġused":2100,"Ġevery":2101,"andy":2102,"Ġseeds":2103,"ĠQuick":2104,"Ġplastic":2105,"Ġcrock":2106,"ĠPineapple":2107,"stit":2108,"ĠBeans":2109,"Ġcandied":2110,"Ġfirmly":2111,"Ġbet":2112,"Ġfried":2113,"Ġwaxed":2114,"Ġflat":2115,"Ġcoarsely":2116,"sparag":2117,"sparagus":2118,"Ġpimentos":2119,"Ġcucumber":2120,"ĠMay":2121,"Ġfrying":2122,"ting":2123,"ys":2124,"inse":2125,"Ġfreezer":2126,"Ġdro":2127,"Ġminiature":2128,"Ġcornbread":2129,"Ġedges":2130,"centr":2131,"Ġpreheated":2132,"Ġchives":2133,"Ġimmediately":2134,"ĠPound":2135,"Ġmelts":2136,"ters":2137,"terey":2138,"Ġgarnish":2139,"Ġadditional":2140,"ĠMin":2141,"usts":2142,"'t":2143,"uer":2144,"ĠLine":2145,"Ġconcentr":2146,"balls":2147,"ocad":2148,"Ġsub":2149,"Ġpretz":2150,"Ġmold":2151,"Ġsesame":2152,"Ġseparate":2153,"ĠBars":2154,"Ġ450":2155,"nut":2156,"icotta":2157,"Ġchunk":2158,"ĠRolls":2159,"ĠSour":2160,"Ġtoasted":2161,"Ġbean":2162,"kraut":2163,"uerkraut":2164,"20":2165,"ĠZucchini":2166,"Ġadding":2167,"ĠDiv":2168,"Ġgrapes":2169,"Ġcrusts":2170,"Ġcrabmeat":2171,"wise":2172,"ett":2173,"for":2174,"Ġbrowns":2175,"Ġ-":2176,"ĠBalls":2177,"ĠMonterey":2178,"Ġtoo":2179,"ĠRanch":2180,"ĠEng":2181,"Ġsubstit":2182,"lets":2183,"Ġapart":2184,"ĠChil":2185,"Ġsalted":2186,"ions":2187,"Ġsage":2188,"oin":2189,"ĠNut":2190,"Ġbroil":2191,"ĠRicotta":2192,"wh":2193,"ĠPecan":2194,"ĠDressing":2195,"ious":2196,"gs":2197,"ĠSausage":2198,"erries":2199,"Ġback":2200,"undt":2201,"Ġwire":2202,"ĠYield":2203,"ons":2204,"ivided":2205,"Ġ14":2206,"grees":2207,"Ġdegrees":2208,"uk":2209,"esson":2210,"Ġavocad":2211,"orsels":2212,"ft":2213,"Ġconcentrate":2214,"ĠPumpkin":2215,"utch":2216,"ĠChili":2217,"Ġuns":2218,"Ġ18":2219,"Ġpoppy":2220,"Ġfrosting":2221,"Ġmorsels":2222,"Ġboxes":2223,"can":2224,"ĠDream":2225,"oy":2226,"ĠGreen":2227,"Ġrecipe":2228,"wich":2229,"ĠEnglish":2230,"Ġdivided":2231,"iluted":2232,"imes":2233,"ĠForm":2234,"ĠWesson":2235,"oul":2236,"ĠOrange":2237,"ĠWrap":2238,"ized":2239,"ĠLoaf":2240,"Ġrolled":2241,"Ġraspberry":2242,"irt":2243,"Ġ11":2244,"cy":2245,"Ġpickles":2246,"ort":2247,"ĠDutch":2248,"ost":2249,"aking":2250,"ĠRet":2251,"Ġfreshly":2252,"ĠMarin":2253,"Ġ*":2254,"Ġeggplant":2255,"Ġberries":2256,"ĠReturn":2257,"Ġyolk":2258,"Ġbar":2259,"ĠBundt":2260,"ĠBean":2261,"Ġenvelope":2262,"Ġremo":2263,"uns":2264,"andwich":2265,"ollow":2266,"ĠShrimp":2267,"Ġpar":2268,"bon":2269,"Ġpepperoni":2270,"Ġel":2271,"ken":2272,"stick":2273,"ĠOre":2274,"isk":2275,"ener":2276,"Ġfavorite":2277,"Ġshape":2278,"Ġgrain":2279,"Ġsheets":2280,"ĠPizza":2281,"lit":2282,"Ġbeg":2283,"Ġorder":2284,"Ġsur":2285,"Ġtightly":2286,"reserves":2287,"Ġrhubarb":2288,"gth":2289,"),":2290,"ĠPork":2291,"Ġdrops":2292,"erted":2293,"Ġchop":2294,"Ġlength":2295,"Ġinserted":2296,"Ġcoated":2297,"Ġne":2298,"ems":2299,"Ġturning":2300,"ĠPat":2301,"ĠFreeze":2302,"Ġreduce":2303,"zzle":2304,"tra":2305,"ĠCrumb":2306,"Ġinches":2307,"ĠIce":2308,"Ġmayo":2309,"Ġsli":2310,"ĠCoconut":2311,"Ġgal":2312,"ĠAll":2313,"Ġwedges":2314,"erbet":2315,"Ġpretzels":2316,"Ġrefrigerated":2317,"ĠTom":2318,"ĠMuff":2319,"aping":2320,"Ġsauerkraut":2321,"Ġsugars":2322,"Ġpickle":2323,"Ġasparagus":2324,"Ġbroken":2325,"ots":2326,"Ġlasagna":2327,"ĠCont":2328,"ines":2329,"ĠBrush":2330,"Ġrum":2331,"Ġart":2332,"Ġthey":2333,"Ġflavored":2334,"Ġsurf":2335,"ĠNo":2336,"ĠPick":2337,"Ġalso":2338,"Ġonly":2339,"ĠDessert":2340,"gel":2341,"icious":2342,"ully":2343,"ĠPam":2344,"Ġcheddar":2345,"iento":2346,"idd":2347,"Ġseparated":2348,"ĠAfter":2349,"ĠMe":2350,"Ġpreserves":2351,"Ġpop":2352,"Ġwrap":2353,"Ġtops":2354,"erman":2355,"Ġsurface":2356,"ewarm":2357,"Ġpimiento":2358,"Ġtimes":2359,"ukewarm":2360,"ties":2361,"Ġextra":2362,"io":2363,"inner":2364,"ĠCarro":2365,"bow":2366,"Ġreserved":2367,"Ġno":2368,"Ġangel":2369,"ante":2370,"Ġpiece":2371,"flavor":2372,"Ġlukewarm":2373,"ĠBlue":2374,"ĠMuffins":2375,"istency":2376,"Ġshould":2377,"Ġsubstitute":2378,"ness":2379,"Ġpure":2380,"Ġadded":2381,"ĠCran":2382,"No":2383,"ĠOld":2384,"icante":2385,"Ġconsistency":2386,"int":2387,"oaves":2388,"Ġnonfat":2389,"eg":2390,"Ġpinto":2391,"Ġop":2392,"ĠSpray":2393,"ĠDivide":2394,"Ġseconds":2395,"Ġoys":2396,"Ġpit":2397,"ĠDi":2398,"meric":2399,"ĠGerman":2400,"Ġskim":2401,"ĠOatmeal":2402,"ĠCherry":2403,"Ġslivered":2404,"emary":2405,"Ġros":2406,"Ġturmeric":2407,"Ġsherbet":2408,"ez":2409,"aze":2410,"Ġlid":2411,"Ġteaspoons":2412,"Ġfil":2413,"most":2414,"Ġchoice":2415,"Ġsoups":2416,"flavored":2417,"ĠCranberry":2418,"ola":2419,"Ġquart":2420,"Ġac":2421,"Ġcomb":2422,"Ġmois":2423,"qual":2424,"Ġscallions":2425,"ĠGood":2426,"ĠMars":2427,"Ġcube":2428,"Ġlemons":2429,"ĠStew":2430,"aff":2431,"ĠSquash":2432,"Ġpicante":2433,"asure":2434,"ĠKnead":2435,"ĠRa":2436,"Ġthickens":2437,"alor":2438,"boil":2439,"ĠApp":2440,"Ġstewed":2441,"Ġpunch":2442,"Ġboard":2443,"Ġoften":2444,"Ġlim":2445,"Ġcontinue":2446,"Ġlengthwise":2447,"Ġrosemary":2448,"Ġheaping":2449,"Ġcaramels":2450,"Ġhands":2451,"ĠCrumble":2452,"Ġelbow":2453,"Ġexcess":2454,"ĠPet":2455,"Ġartich":2456,"Ġcaramel":2457,"eam":2458,"ĠSpinach":2459,"Ġloaves":2460,"Ġskinless":2461,"utons":2462,"uring":2463,"oles":2464,"inches":2465,"Ġdrop":2466,"Ġalmost":2467,"Ġmade":2468,"hey":2469,"ĠContinue":2470,"ĠDor":2471,"Ġmild":2472,"Ġcornfl":2473,"ph":2474,"ĠCheez":2475,"iny":2476,"ĠMash":2477,"ĠWhile":2478,"eri":2479,"Ġcroutons":2480,"Ġwhich":2481,"ĠMinute":2482,"ĠChip":2483,"ĠWhiz":2484,"Ġribs":2485,"ĠStuffed":2486,"Ġwhip":2487,"Ġrelish":2488,"istach":2489,"Ġprocessor":2490,"ĠCl":2491,"ween":2492,"Ġcor":2493,"Ġmoder":2494,"ĠOr":2495,"ĠBiscuit":2496,"Ġdays":2497,"ĠSpaghetti":2498,"Ġtowel":2499,"any":2500,"ĠAcc":2501,"try":2502,"Ġfre":2503,"Ġstyle":2504,"Up":2505,"ĠPeach":2506,"Ġokra":2507,"Ġbetween":2508,"ĠCrab":2509,"ĠSup":2510,"Ġsn":2511,"ershey":2512,"air":2513,"tc":2514,"Ġwash":2515,"ĠJello":2516,"ĠAccent":2517,"istachio":2518,"edge":2519,"Ġfrequ":2520,"Ġfrequently":2521,"Ġclams":2522,"oultry":2523,"ible":2524,"boiled":2525,"ĠPast":2526,"Ġoun":2527,"ĠCup":2528,"ĠAng":2529,"Ġmuffins":2530,"Ġfryer":2531,"hmallow":2532,"rans":2533,"amel":2534,"ĠPro":2535,"ĠHershey":2536,"Ġnonstick":2537,"Ġpoultry":2538,"antro":2539,"Ġfour":2540,"ilantro":2541,"alted":2542,"Ġstems":2543,"Ġstove":2544,"Ġbreak":2545,"ering":2546,"ĠBarbecue":2547,"ĠRoast":2548,"Ġwee":2549,"ĠSteak":2550,"Ġmint":2551,"Ġhalved":2552,"cakes":2553,"ĠTaco":2554,"free":2555,"way":2556,"Ġknead":2557,"do":2558,"irl":2559,"Ġclear":2560,"ĠDoritos":2561,"Ġpatties":2562,"rag":2563,"ĠDump":2564,"olid":2565,"ashion":2566,"ĠCabbage":2567,"ĠGreat":2568,"ma":2569,"eez":2570,"Ġcilantro":2571,"ĠCamp":2572,"ĠAngel":2573,"Ġfillets":2574,"Ġstore":2575,"bell":2576,"ĠMarshmallow":2577,"ĠBall":2578,"egg":2579,"Ġstill":2580,"cl":2581,"Ġwood":2582,"Ġquartered":2583,"Ġserved":2584,"Ġ55":2585,"Ġthree":2586,"aple":2587,"Ġgrape":2588,"amb":2589,"joy":2590,"burg":2591,"eringue":2592,"ĠFried":2593,"ĠFresh":2594,"ĠBrownies":2595,"Ġ250":2596,"Ġbul":2597,"Ġpink":2598,"ĠDelight":2599,"Ġboned":2600,"Ġpopcorn":2601,"Ġbroiler":2602,"ially":2603,"cle":2604,"ragon":2605,"Ġbeets":2606,"Ġbuns":2607,"arragon":2608,"unchy":2609,"Ġmoistened":2610,"fry":2611,"Ġmeatballs":2612,"inned":2613,"Ġsure":2614,"Ġ\\":2615,"irtight":2616,"Ġairtight":2617,"efully":2618,"ilada":2619,"ĠCaramel":2620,"ĠFr":2621,"Ġhearts":2622,"Ġallow":2623,"ĠCrush":2624,"Ġbone":2625,"ĠRe":2626,"Ġundrained":2627,"aby":2628,"Ġic":2629,"Ġmoderate":2630,"ĠOreo":2631,"ĠMushroom":2632,"app":2633,"size":2634,"Ġwooden":2635,"ial":2636,"fast":2637,"eses":2638,"cover":2639,"Ġcoarse":2640,"Ġedge":2641,"Ġetc":2642,"ĠBiscuits":2643,"Ġreal":2644,"Ġcrumbly":2645,"ĠFrosting":2646,"Ġjuices":2647,"ĠTur":2648,"ĠOnion":2649,"ĠCampbell":2650,"Ġplatter":2651,"cessary":2652,"Ġunsalted":2653,"Ġicing":2654,"Ġtarragon":2655,"ĠCoat":2656,"ĠSn":2657,"Ġnecessary":2658,"bler":2659,"Ġmarinade":2660,"ĠFarm":2661,"Ġcheeses":2662,"ĠTater":2663,"Ġless":2664,"Ġtap":2665,"ann":2666,"Ġunder":2667,"Ġdissolve":2668,"Ġunflavored":2669,"Ġfollow":2670,"ĠDri":2671,"affin":2672,"ingers":2673,"ĠFrost":2674,"inese":2675,"ĠCrisp":2676,"tover":2677,"Ġsmoke":2678,"Ġparaffin":2679,"ĠLightly":2680,"Ġbott":2681,"Ġchiles":2682,"high":2683,"ĠSquares":2684,"Ġshake":2685,"ĠDot":2686,"ĠDelicious":2687,"Ġbeer":2688,"13":2689,"Ġwhisk":2690,"Ġforms":2691,"Ġrolling":2692,"Ġskinned":2693,"cr":2694,"All":2695,"ĠCrust":2696,"jor":2697,"ĠSoak":2698,"ĠPh":2699,"ty":2700,"ĠChinese":2701,"ously":2702,"Ġsandwich":2703,"Ġrect":2704,"routs":2705,"ear":2706,"Ġsq":2707,"Ġquarts":2708,"arty":2709,"ĠAllow":2710,"Ġcombined":2711,"Ġcornflakes":2712,"Ġgall":2713,"Ġlima":2714,"ĠSk":2715,"Ġpickling":2716,"ransfer":2717,"Ġflower":2718,"ĠSlow":2719,"Ġglaze":2720,"Ġseeded":2721,"joram":2722,"no":2723,"Ġmaple":2724,"Ġpuree":2725,"Ġmarjoram":2726,"ĠSm":2727,"ĠMacaroni":2728,"uminum":2729,"head":2730,"Ġjam":2731,"ĠTomato":2732,"ĠShake":2733,"ĠCreme":2734,"Ġbags":2735,"Ġench":2736,"Ġgrill":2737,"oked":2738,"ĠDrizzle":2739,"od":2740,"Ġtowels":2741,"Ġbaby":2742,"anish":2743,"Ġ'":2744,"Ġchunky":2745,"ĠRinse":2746,"Ġcalor":2747,"als":2748,"Ġsprouts":2749,"ai":2750,"ĠHamburger":2751,"rye":2752,"jon":2753,"idge":2754,"omem":2755,"Ġteaspoonfuls":2756,"Ġaluminum":2757,"bbler":2758,"Ġwithout":2759,"isin":2760,"Ġspring":2761,"omemade":2762,"ating":2763,"Ġpears":2764,"Ġcutter":2765,"Ġreserving":2766,"ĠDe":2767,"Ġrye":2768,"Ġpistachio":2769,"ĠGl":2770,"Ġbulk":2771,"peel":2772,"oca":2773,"oop":2774,"ĠSupreme":2775,"ioca":2776,"bits":2777,"thing":2778,"af":2779,"Ġpeak":2780,"use":2781,"Ġdon":2782,"fish":2783,"ĠRec":2784,"blong":2785,"Ġavocado":2786,"oam":2787,"Ġhamburg":2788,"ĠBest":2789,"Ġcutting":2790,"Ġrinse":2791,"Ġcap":2792,"Ġthickness":2793,"ĠUs":2794,"Ġ&":2795,"outh":2796,"ĠCandy":2797,"ĠPasta":2798,"epar":2799,"atch":2800,"ĠSlowly":2801,"Ġoblong":2802,"ftover":2803,"tm":2804,"Ġspoonfuls":2805,"Ġbrandy":2806,"ah":2807,"uch":2808,"ecor":2809,"ĠPickles":2810,"Ġind":2811,"ĠBroil":2812,"ĠKra":2813,"Ġtake":2814,"ĠDijon":2815,"Ġrefried":2816,"ĠCarrot":2817,"peeled":2818,"ĠCobbler":2819,"eserve":2820,"iscard":2821,"Ġtins":2822,"ĠBlueberry":2823,"ĠCornbread":2824,"ĠPepperidge":2825,"able":2826,"oodle":2827,"Ġstage":2828,"Ġleftover":2829,"ĠPan":2830,"Ġpr":2831,"Ġlined":2832,"ĠWhite":2833,"vil":2834,"Ġscal":2835,"ĠCrack":2836,"Ġget":2837,"Ġtapioca":2838,"Ġwalnut":2839,"ĠVeg":2840,"ften":2841,"Ġapricots":2842,"lings":2843,"phia":2844,"Ġundiluted":2845,"ops":2846,"elphia":2847,"iladelphia":2848,"Ġpitted":2849,"Ġsame":2850,"ĠLay":2851,"Ġpor":2852,"ĠReserve":2853,"ĠUsing":2854,"Ġquickly":2855,"icy":2856,"Ġlard":2857,"ĠPhiladelphia":2858,"ĠGrand":2859,"ĠSepar":2860,"ĠTea":2861,"ĠSoften":2862,"ĠCoffee":2863,"Ġfoam":2864,"Ġsteam":2865,"Ġending":2866,"Ġret":2867,"ĠTurkey":2868,"Ġenchilada":2869,"Ġgelatine":2870,"ĠRecipe":2871,"Ġbegins":2872,"ĠWill":2873,"Ġgi":2874,"Ġmeringue":2875,"Ġremoving":2876,"Ġbrush":2877,"Ġequal":2878,"Ġsecond":2879,"Ġcrumble":2880,"Ġparts":2881,"Ġcorned":2882,"Ġbran":2883,"Ġwide":2884,"Ġwild":2885,"Ġwor":2886,"ĠUncover":2887,"uss":2888,"Ġseedless":2889,"Ġweeks":2890,"Ġbest":2891,"ĠTuna":2892,"Ġreserve":2893,"Ġsplit":2894,"ĠJust":2895,"iche":2896,"Ġsprayed":2897,"Ġ\"":2898,"mel":2899,"Ġpeaks":2900,"Ġpartially":2901,"Ġcir":2902,"ĠRom":2903,"Ġraspberries":2904,"ere":2905,"Ġcas":2906,"ĠBreakfast":2907,"Ġgallon":2908,"Ġmakes":2909,"Ġstalk":2910,"ĠSeparate":2911,"ĠCro":2912,"ĠChris":2913,"Ġsprink":2914,"aving":2915,"Ġpul":2916,"with":2917,"ĠSpanish":2918,"Ġcrunchy":2919,"away":2920,"ettuc":2921,"ĠLow":2922,"Ġmoist":2923,"Ġsmoked":2924,"hew":2925,"ashioned":2926,"ingu":2927,"Ġkettle":2928,"iffy":2929,"yre":2930,"ĠTw":2931,"Ġholes":2932,"Ġreturn":2933,"Ġblueberry":2934,"Ġinst":2935,"Ġsun":2936,"Ġahead":2937,"yrex":2938,"11":2939,"ĠScall":2940,"ander":2941,"orb":2942,"uncan":2943,"Ġarrange":2944,"ĠCreamy":2945,"ingle":2946,"ĠVal":2947,"Ġavocados":2948,"idbits":2949,"ĠApples":2950,"ĠMarinate":2951,"Ġbones":2952,"Ġabs":2953,"Ġdinner":2954,"ears":2955,"ĠNext":2956,"ipped":2957,"ĠRaisin":2958,"Ġwings":2959,"Ġoysters":2960,"Ġeverything":2961,"ĠStyle":2962,"ĠDish":2963,"Ġdel":2964,"eaten":2965,"iron":2966,"ĠJiffy":2967,"ĠChops":2968,"ĠTransfer":2969,"ĠOven":2970,"omme":2971,"Ġtidbits":2972,"ĠPyrex":2973,"ket":2974,"ĠIm":2975,"Ġrounded":2976,"Ġspri":2977,"ĠParty":2978,"ual":2979,"Ġcaraway":2980,"tmas":2981,"Ġbec":2982,"Ġdoub":2983,"insed":2984,"ossible":2985,"Ġquarters":2986,"ĠMilk":2987,"while":2988,"acho":2989,"ĠKraft":2990,"ĠDough":2991,"ĠValley":2992,"Ġpulp":2993,"Ġabsorb":2994,"cho":2995,"ĠDuncan":2996,"Ġalong":2997,"ipton":2998,"Ġsqueez":2999,"Ġflowerets":3000,"Ġsingle":3001,"Ġeat":3002,"Ġremainder":3003,"ĠLasagna":3004,"Ġartichoke":3005,"Ġwant":3006,"Ġrinsed":3007,"iddle":3008,"ouch":3009,"Ġfudge":3010,"Ġconsomme":3011,"ĠSeal":3012,"ĠChristmas":3013,"ath":3014,"Ġscalded":3015,"Ġmeats":3016,"Ġpopped":3017,"Ġcontainers":3018,"Ġact":3019,"ier":3020,"ĠLipton":3021,"Ġgener":3022,"Ġsteaks":3023,"add":3024,"ĠGently":3025,"ĠEn":3026,"ĠGrill":3027,"ison":3028,"Ġremoved":3029,"etiz":3030,"ĠHines":3031,"ages":3032,"uced":3033,"umbo":3034,"Ġleaving":3035,"Ġvegg":3036,"Ġtes":3037,"Ġloo":3038,"ĠStove":3039,"ĠPack":3040,"ĠTort":3041,"Ġactive":3042,"cup":3043,"Ġmein":3044,"Ġmiddle":3045,"ĠBlack":3046,"Ġgiven":3047,"Ġmaking":3048,"nation":3049,"dish":3050,"Ġroasting":3051,"ĠCinnamon":3052,"idden":3053,"Ġsift":3054,"Ġbottles":3055,"Ġdoubled":3056,"aker":3057,"small":3058,"ect":3059,"ĠTex":3060,"ĠRomano":3061,"Ġfruits":3062,"approximately":3063,"ople":3064,"bu":3065,"ĠScallop":3066,"ĠSplit":3067,"ĠHidden":3068,"enison":3069,"ĠKool":3070,"ountry":3071,"undrained":3072,"Ġrectang":3073,"Ġbetter":3074,"Ġcarefully":3075,"Ġprefer":3076,"flower":3077,"Ġwashed":3078,"Ġtri":3079,"ĠCol":3080,"Ġburn":3081,"Ġbig":3082,"ĠOne":3083,"ily":3084,"Ġcalories":3085,"Ġunpeeled":3086,"Ġgreens":3087,"Ġwork":3088,"ĠLea":3089,"Ġmarinate":3090,"Ġcashew":3091,"ĠHomemade":3092,"ĠCarnation":3093,"ĠEggs":3094,"Ġrot":3095,"irloin":3096,"oppy":3097,"Ġopen":3098,"Ġveal":3099,"Ġduring":3100,"ĠFritos":3101,"bury":3102,"ĠMar":3103,"Ġdogs":3104,"Aid":3105,"aj":3106,"ĠBur":3107,"Ġmuch":3108,"of":3109,"ĠBran":3110,"Ġsit":3111,"Ġtbsp":3112,"ĠFrozen":3113,"ĠPr":3114,"ĠCheesecake":3115,"Ġsweetener":3116,"ĠMeatballs":3117,"Ġlingu":3118,"ĠOf":3119,"Ġreduced":3120,"Ġindivid":3121,"Ġcustard":3122,"Ġsunflower":3123,"bo":3124,"28":3125,"Ġprun":3126,"Ġfoamy":3127,"ĠSalmon":3128,"Ġcored":3129,"aster":3130,"Ġkind":3131,"Ġveggies":3132,"ity":3133,"Ġhold":3134,"ĠHoney":3135,"ady":3136,"epend":3137,"Ser":3138,"unt":3139,"uncooked":3140,"Ġcoating":3141,"vers":3142,"ffle":3143,"ĠMeasure":3144,"Ġsirloin":3145,"ills":3146,"ĠAltern":3147,"Ġstart":3148,"ths":3149,"Ġtin":3150,"Ġleave":3151,"Ġounce":3152,"ĠHaw":3153,"Ġtouch":3154,"ĠEnch":3155,"Ġpeople":3156,"aiian":3157,"ĠWal":3158,"ĠGarlic":3159,"Ġbit":3160,"anwhile":3161,"Ch":3162,"Ġlevel":3163,"ĠHawaiian":3164,"Ġbubbles":3165,"Ġfrost":3166,"ĠCakes":3167,"save":3168,"Ġsoften":3169,"Ġlite":3170,"geal":3171,"ĠThaw":3172,"ĠButtermilk":3173,"ank":3174,"ĠQuiche":3175,"Ġgerm":3176,"ĠMeanwhile":3177,"by":3178,"ĠFlour":3179,"ĠOver":3180,"Ġiron":3181,"Ġcakes":3182,"Ġends":3183,"ĠToast":3184,"Ġmeasure":3185,"Ġsprigs":3186,"pro":3187,"ĠPl":3188,"ĠVanilla":3189,"ĠCustard":3190,"dry":3191,"Ġwafer":3192,"Ġherbs":3193,"ĠChex":3194,"ourbon":3195,"ĠRel":3196,"Ġfettuc":3197,"mb":3198,"asagne":3199,"ĠSandwich":3200,"Ġthan":3201,"crumb":3202,"ĠRelish":3203,"Ġoyster":3204,"ĠScalloped":3205,"ĠEnjoy":3206,"ĠSouth":3207,"ĠSlaw":3208,"Ġits":3209,"Ġcolored":3210,"Ġflatten":3211,"Ġring":3212,"ĠCrock":3213,"Ġsoak":3214,"ĠGrate":3215,"okes":3216,"my":3217,"Ġbeater":3218,"Ġparty":3219,"ĠTexas":3220,"Ġdrink":3221,"Ġscallops":3222,"ĠWater":3223,"ĠFlat":3224,"illsbury":3225,"Ġpint":3226,"boned":3227,"ĠGrandma":3228,"ĠCre":3229,"Ġchow":3230,"ĠJo":3231,"Ġsave":3232,"Ġpear":3233,"ula":3234,"Ġtwice":3235,"fresh":3236,"Ġinside":3237,"Ġpreven":3238,"undiluted":3239,"Ġprunes":3240,"Ġrun":3241,"ina":3242,"Ġbris":3243,"Ġthese":3244,"bone":3245,"ĠCrunch":3246,"ĠHash":3247,"Ġdessert":3248,"Ġdrizzle":3249,"Ġsections":3250,"cing":3251,"Ġpies":3252,"Ġmeas":3253,"may":3254,"Ġdeboned":3255,"Ġreach":3256,"ĠFlatten":3257,"Ġradish":3258,"Ġsauteed":3259,"Ġpounds":3260,"ross":3261,"Ġpoint":3262,"thy":3263,"Ġprevent":3264,"ents":3265,"isted":3266,"ĠTots":3267,"rn":3268,"arge":3269,"ĠPillsbury":3270,"Ġboils":3271,"Ġroasted":3272,"Ġdoz":3273,"ĠCal":3274,"efore":3275,"cut":3276,"oliday":3277,"ĠDice":3278,"ĠIcing":3279,"Ġalum":3280,"ĠHe":3281,"ght":3282,"Ġgreat":3283,"Ġabove":3284,"agon":3285,"clu":3286,"Ġlump":3287,"fro":3288,"Ġdot":3289,"Ġdissolves":3290,"med":3291,"ĠMold":3292,"Ġcooker":3293,"Ġindividual":3294,"esy":3295,"Ġtorn":3296,"Ġline":3297,"ĠDon":3298,"Ġunsifted":3299,"Ġdiscard":3300,"Ġpuff":3301,"gin":3302,"ĠMom":3303,"ĠLeave":3304,"Fat":3305,"zo":3306,"ĠBatter":3307,"Ġtrim":3308,"Ġflake":3309,"Ġshap":3310,"Ġgrits":3311,"mint":3312,"ĠMarinated":3313,"Ġounces":3314,"Ġsolid":3315,"ĠPuff":3316,"Ġoiled":3317,"Ġoptional":3318,"ĠCarrots":3319,"Ġlisted":3320,"ĠFavorite":3321,"ĠWheat":3322,"ird":3323,"ĠAn":3324,"Ġlook":3325,"Ġskins":3326,"ecorate":3327,"ĠDate":3328,"Ġspears":3329,"Ġstarts":3330,"ĠCracker":3331,"Ġspat":3332,"ĠTrim":3333,"orets":3334,"ecial":3335,"enn":3336,"Ġartichokes":3337,"Ġabsorbed":3338,"ĠBefore":3339,"ĠVery":3340,"Ġjalapenos":3341,"Ġpancake":3342,"Ġmost":3343,"Ġhom":3344,"asily":3345,"azed":3346,"ĠSave":3347,"Ġoverb":3348,"Ġown":3349,"ĠCheesy":3350,"crumbs":3351,"reserve":3352,"tender":3353,"Ġrep":3354,"Ġflorets":3355,"Ġcashews":3356,"ieners":3357,"Ġspatula":3358,"Ġeasily":3359,"tal":3360,"low":3361,"ĠTang":3362,"ouse":3363,"Ġnacho":3364,"ĠDill":3365,"Ġfollowing":3366,"ĠYum":3367,"ĠBacon":3368,"Ġtiny":3369,"ĠChowder":3370,"Ġscoop":3371,"Ġass":3372,"ĠShred":3373,"alade":3374,"epending":3375,"Ġcloth":3376,"ium":3377,"Ġfive":3378,"Serves":3379,"Ġradishes":3380,"Ġpeppercorn":3381,"roll":3382,"areri":3383,"Ġway":3384,"Ġbark":3385,"Ġaway":3386,"obs":3387,"ĠSeed":3388,"airy":3389,"Ġbourbon":3390,"Ġwra":3391,"Ġbreadcrumbs":3392,"ron":3393,"Ġfran":3394,"Ġshallots":3395,"Makes":3396,"areribs":3397,"Ġpower":3398,"Ġ36":3399,"Ġfinish":3400,"ectar":3401,"ĠBar":3402,"Ġrese":3403,"ory":3404,"Ġenjoy":3405,"Ġsaltine":3406,"Ġtray":3407,"ĠCucumb":3408,"Ġbrownie":3409,"Ġbrisket":3410,"Ġpossible":3411,"ĠFish":3412,"iladas":3413,"ĠMushrooms":3414,"Ġ275":3415,"ĠPop":3416,"uice":3417,"redge":3418,"Ġcandies":3419,"Ġflavors":3420,"ĠNor":3421,"ules":3422,"ĠUncle":3423,"Ġloos":3424,"ĠBen":3425,"Ġrectangle":3426,"Ġcurd":3427,"ĠApplesauce":3428,"ib":3429,"mix":3430,"Ġcross":3431,"ĠTomatoes":3432,"18":3433,"ĠRub":3434,"Ġbunches":3435,"ĠPancakes":3436,"Ġstring":3437,"Ġvenison":3438,"proof":3439,"ĠAp":3440,"asting":3441,"Ġstuffed":3442,"ĠGrind":3443,"Ġsized":3444,"Ġverm":3445,"Ġgranules":3446,"ĠHell":3447,"ĠDumplings":3448,"Ġwet":3449,"Ġmeasuring":3450,"Ġpers":3451,"urple":3452,"46":3453,"bas":3454,"Ġsnipped":3455,"ĠDinner":3456,"ĠRhubarb":3457,"orning":3458,"Ġbowls":3459,"ond":3460,"ajun":3461,"Ġblending":3462,"ĠAlternate":3463,"mann":3464,"Ġcircle":3465,"ĠCookie":3466,"Ġdiagon":3467,"Ġmon":3468,"alf":3469,"Ġpared":3470,"Pot":3471,"land":3472,"odka":3473,"orted":3474,"Ġtenderl":3475,"Ġdairy":3476,"Ġster":3477,"ĠSkillet":3478,"Ġpeppermint":3479,"Ġcome":3480,"ruc":3481,"ĠMandarin":3482,"Ġold":3483,"ellini":3484,"lean":3485,"ielbas":3486,"Ġbrand":3487,"Ġcanola":3488,"ouffle":3489,"ĠRuss":3490,"ĠGinger":3491,"St":3492,"Ġlit":3493,"ĠGolden":3494,"cluding":3495,"Ġtherm":3496,"ĠNoodle":3497,"ĠFlake":3498,"Ġtoothpicks":3499,"Ġpeppercorns":3500,"Ġcleaned":3501,"inning":3502,"Ġ17":3503,"elli":3504,"Ġstiffly":3505,"except":3506,"Ġdeve":3507,"Ġpull":3508,"Ġeasy":3509,"Ġrounds":3510,"ĠProcess":3511,"Ġmarm":3512,"Ġmarmalade":3513,"ead":3514,"Ġplum":3515,"ometer":3516,"vert":3517,"Ġyams":3518,"ĠOreos":3519,"Ġthermometer":3520,"Ġfit":3521,"ĠNew":3522,"Ġtight":3523,"ĠAlmon":3524,"Ġ32":3525,"Ġroot":3526,"ĠSea":3527,"Ġclam":3528,"Ġnectar":3529,"Ġplac":3530,"Ġent":3531,"ua":3532,"Ġdoes":3533,"ĠCom":3534,"Ġdice":3535,"Ġpints":3536,"ĠApricot":3537,"!!":3538,"Ġwok":3539,"aki":3540,"Ġbarley":3541,"lined":3542,"ĠWork":3543,"ĠCajun":3544,"Ġwieners":3545,"ĠLime":3546,"isses":3547,"large":3548,"Ġunbeaten":3549,"fe":3550,"Ġparmesan":3551,"Ġhandle":3552,"ĠCreole":3553,"ĠStro":3554,"Ġvodka":3555,"amily":3556,"ĠHave":3557,"Ġmace":3558,"ug":3559,"ĠBurg":3560,"Ġfire":3561,"Ġpurple":3562,"rawfish":3563,"Ġenvelopes":3564,"iskey":3565,"Ġ+":3566,"ĠEqual":3567,"Ġracks":3568,"Ġlamb":3569,"ĠSpicy":3570,"Ġportions":3571,"Ġlinguine":3572,"ĠStrain":3573,"sized":3574,"ĠSpiced":3575,"ĠHeath":3576,"Ġlater":3577,"Ġovercook":3578,"ĠIr":3579,"Ġfingers":3580,"Ġblanch":3581,"ielbasa":3582,"ple":3583,"Ġbasting":3584,"tils":3585,"Ġloin":3586,"Ġstack":3587,"arbecu":3588,"Ġhominy":3589,"Ġpacket":3590,"Ġmoisten":3591,"Ġdevil":3592,"ĠAm":3593,"ĠHoliday":3594,"ĠSho":3595,"Ġgo":3596,"sugar":3597,"Ġcutlets":3598,"Ġshort":3599,"ouble":3600,"Ġpimientos":3601,"Ġdishes":3602,"Ġtriang":3603,"rid":3604,"te":3605,"ahl":3606,"Ġchipped":3607,"ĠKeeps":3608,"Ġentire":3609,"Ġdump":3610,"tin":3611,"box":3612,"ĠNest":3613,"yaki":3614,"Ġnear":3615,"white":3616,"ganoff":3617,"Ġpods":3618,"itch":3619,"ĠGravy":3620,"ĠSpecial":3621,"ĠStart":3622,"ĠSouthern":3623,"eyed":3624,"ahlua":3625,"32":3626,"form":3627,"Ġdelicious":3628,"iander":3629,"ĠFin":3630,"Ġassorted":3631,"ĠColby":3632,"Th":3633,"Ġblock":3634,"igs":3635,"be":3636,"thern":3637,"Ġlentils":3638,"Ġclub":3639,"ĠArt":3640,"ĠAunt":3641,"ĠIrish":3642,"ĠIs":3643,"Ġspoonful":3644,"ĠCauliflower":3645,"Ġalternating":3646,"etizer":3647,"Ġscrap":3648,"ĠRussian":3649,"Ġsticky":3650,"ĠHellmann":3651,"just":3652,"Ġcrosswise":3653,"ĠWhisk":3654,"ĠNe":3655,"oli":3656,"ither":3657,"ĠPeppers":3658,"Ġteaspoonful":3659,"eriyaki":3660,"ĠPea":3661,"Ġcoriander":3662,"ĠCountry":3663,"ĠSeaf":3664,"mp":3665,"ĠPoppy":3666,"spberry":3667,"atur":3668,"efruit":3669,"ĠStroganoff":3670,"ĠServing":3671,"Ġlog":3672,"irds":3673,"ĠCur":3674,"Ġglasses":3675,"Ġprepare":3676,"ĠAlmond":3677,"arbecued":3678,"ĠPeg":3679,"Ġinstruc":3680,"Ġblanched":3681,"ale":3682,"rape":3683,"ouple":3684,"Ġshapes":3685,"ĠNoodles":3686,"Ġdipped":3687,"ĠEnchiladas":3688,"ĠBay":3689,"Ġwon":3690,"Ġwhiskey":3691,"ĠChess":3692,"Ġrepeat":3693,"eur":3694,"Ġnew":3695,"Ġbeginning":3696,"Ġsteril":3697,"Ġmorning":3698,"ĠArtich":3699,"ddle":3700,"Ġinstead":3701,"mbles":3702,"ĠOri":3703,"amen":3704,"ĠSu":3705,"ĠFilling":3706,"Ġsprinkled":3707,"Ġcouple":3708,"ĠPretz":3709,"Ġspreading":3710,"oz":3711,"Ġlee":3712,"Ġshelled":3713,"Ġresembles":3714,"uac":3715,"Ġright":3716,"amole":3717,"ĠSalsa":3718,"ĠKahlua":3719,"Ġoverbake":3720,"ĠGrape":3721,"Ġfrypan":3722,"uacamole":3723,"ĠCucumber":3724,"Ġ100":3725,"17":3726,"ye":3727,"ĠJam":3728,"Ġdipping":3729,"Ġsterilized":3730,"Ġdepending":3731,"ĠPinch":3732,"Ġseaf":3733,"butter":3734,"Ġseafood":3735,"ĠNorthern":3736,"Ġacross":3737,"heese":3738,"ĠFood":3739,"riddle":3740,"omes":3741,"ĠEggplant":3742,"idal":3743,"ĠHerb":3744,"vol":3745,"ĠSteam":3746,"ald":3747,"ĠLayered":3748,"Ġsticking":3749,"ĠCarefully":3750,"rs":3751,"Ġcaps":3752,"Ġdeveined":3753,"ĠPer":3754,"ami":3755,"Ġdashes":3756,"ĠSeven":3757,"Ġcongeal":3758,"Ġsnow":3759,"Ġsandwiches":3760,"Ġsix":3761,"Ġgum":3762,"ĠAsparagus":3763,"ĠFeta":3764,"Ġstrain":3765,"Ġportion":3766,"inal":3767,"Ġty":3768,"Ġzest":3769,"volone":3770,"idalia":3771,"hy":3772,"Ġspareribs":3773,"ĠEx":3774,"rise":3775,"eness":3776,"Ġ48":3777,"Ġreaches":3778,"abet":3779,"icelli":3780,"Ġdust":3781,"ĠBrittle":3782,"ĠButterscotch":3783,"anny":3784,"Ġcooling":3785,"30":3786,"ned":3787,"ĠLower":3788,"Ġliqueur":3789,"igor":3790,"safe":3791,"Ġhole":3792,"Ġroaster":3793,"ounts":3794,"ĠShe":3795,"ĠTear":3796,"ĠOil":3797,"Ġpackets":3798,"ĠPol":3799,"iginal":3800,"eeze":3801,"21":3802,"Ġsqueeze":3803,"itchen":3804,"Ġstem":3805,"Ġbecomes":3806,"Ġbrowning":3807,"Ġbrownies":3808,"ures":3809,"Ġvigor":3810,"Ġlasagne":3811,"Ġlarger":3812,"Ġgenerously":3813,"ĠImmediately":3814,"ored":3815,"Ġgriddle":3816,"Ġchip":3817,"ĠClean":3818,"Ġlink":3819,"aters":3820,"liced":3821,"ĠRamen":3822,"usages":3823,"Ġthigh":3824,"Ġcore":3825,"ĠRefrigerator":3826,"sparent":3827,"pec":3828,"Ġlower":3829,"Ġcreme":3830,"Lemon":3831,"ransparent":3832,"medium":3833,"ĠThese":3834,"ĠGraham":3835,"agu":3836,"ĠNestle":3837,"ĠBarbecued":3838,"rants":3839,"ĠSeafood":3840,"more":3841,"ĠBaste":3842,"!)":3843,"Ġfully":3844,"Ġsw":3845,"acc":3846,"ĠDouble":3847,"Ġhalfway":3848,"Ġtenderloin":3849,"If":3850,"ĠMixture":3851,"ban":3852,"Ġcurrants":3853,"Ġinstructions":3854,"ĠSurp":3855,"Ġtests":3856,"Ġtransparent":3857,"enough":3858,"Ġvigorously":3859,"ĠSouffle":3860,"Ġnight":3861,"ĠAlso":3862,"ĠTri":3863,"ĠBaking":3864,"Ġbase":3865,"cktail":3866,"Ġcolander":3867,"dium":3868,"ĠPuffs":3869,"ĠKno":3870,"Ġflavorings":3871,"Ġseparately":3872,"ĠVegetables":3873,"ĠFrit":3874,"umps":3875,"ĠHouse":3876,"ĠOp":3877,"Ġgrapefruit":3878,"ĠProvolone":3879,"Ġdebone":3880,"Ġcapers":3881,"Ġkielbasa":3882,"ĠCups":3883,"ĠVidalia":3884,"ance":3885,");":3886,"round":3887,"ĠArtichoke":3888,"ĠAs":3889,"Ġnoodle":3890,"ĠSqueeze":3891,"Ġdoneness":3892,"ĠSnack":3893,"ĠScr":3894,"ĠWalnut":3895,"Add":3896,"ghorn":3897,"obster":3898,"ĠCocktail":3899,"ameter":3900,"Ġdiagonally":3901,"ĠKnox":3902,"Ġleft":3903,"Ġfree":3904,"Ġpressed":3905,"ĠScald":3906,"uds":3907,"Ġdiameter":3908,"ental":3909,"Ġdiv":3910,"ppers":3911,"ĠRagu":3912,"ĠStick":3913,"Ġamounts":3914,"ĠGround":3915,"Ġcrispy":3916,"ĠGlaze":3917,"drained":3918,"ĠFashioned":3919,"Ġtrimmed":3920,"Ġvermicelli":3921,"Ġmozzarella":3922,"ridge":3923,"Ġsaltines":3924,"ĠLe":3925,"ĠMan":3926,"Ġroma":3927,"ĠFreezes":3928,"Ġhen":3929,"iw":3930,"ari":3931,"Ġliter":3932,"iry":3933,"ĠHor":3934,"frozen":3935,"Ġsausages":3936,"ĠRea":3937,"ĠRaspberry":3938,"Ġfrothy":3939,"ĠClam":3940,"ĠServings":3941,"ĠMrs":3942,"ĠAb":3943,"Ġanise":3944,"Ġtype":3945,"ĠSurprise":3946,"side":3947,"ĠDirt":3948,"ĠLon":3949,"Ġcirc":3950,"cine":3951,"Ġsum":3952,"ĠMed":3953,"ettes":3954,"Ġdivide":3955,"ĠCat":3956,"Ġcombin":3957,"ĠDeep":3958,"Ġcrawfish":3959,"mpty":3960,"dough":3961,"irgin":3962,"ord":3963,"hot":3964,"Ġsqueezed":3965,"Ġthighs":3966,"ĠGranny":3967,"Ġbur":3968,"ĠChow":3969,"ĠCocoa":3970,"chopped":3971,"Ġscraping":3972,"ĠFluff":3973,"mit":3974,"ĠGlazed":3975,"Ġsummer":3976,"dairy":3977,"edish":3978,"ousse":3979,"ĠNot":3980,"ĠPies":3981,"Ġcracked":3982,"Ġloosely":3983,"ik":3984,"Ġad":3985,"Ġromaine":3986,"Ġchickens":3987,"Ġmet":3988,"ĠDevil":3989,"ux":3990,"iforn":3991,"Ġstrip":3992,"Ġgenerous":3993,"Ġpea":3994,"ifornia":3995,"abetic":3996,"ached":3997,"ĠSandwiches":3998,"bro":3999,"ĠHormel":4000,"ĠLonghorn":4001,"tures":4002,"ummer":4003,"Ġseam":4004,"ĠSpice":4005,"Ġrotini":4006,"fur":4007,"Ġrub":4008,"ĠSec":4009,"pre":4010,"mold":4011,"ĠDog":4012,"Ġweek":4013,"venly":4014,"Ġman":4015,"Ġbegin":4016,"ĠIcebox":4017,"kfur":4018,"Ġlumps":4019,"ĠBeaters":4020,"ĠReaLemon":4021,"Bake":4022,"ĠCalifornia":4023,"ĠPu":4024,"ĠAt":4025,"Ġgarban":4026,"beaten":4027,"Ġstarting":4028,"Ġstr":4029,"ĠDecorate":4030,"ĠChew":4031,"Ġfigs":4032,"ĠDredge":4033,"iwi":4034,"ĠFir":4035,"Ġwish":4036,"Ġoriginal":4037,"Ġhandful":4038,"Ġbubbling":4039,"Ġtheir":4040,"Ġdecor":4041,"Ġscr":4042,"Ġscant":4043,"Ġouts":4044,"Ġfinger":4045,"Ġnavy":4046,"ĠSwedish":4047,"Ġcanning":4048,"Ġfollows":4049,"ĠSummer":4050,"ocks":4051,"ĠScoop":4052,"plain":4053,"eful":4054,"Ġleftovers":4055,"ĠBaker":4056,"ĠWarm":4057,"Ġcupcake":4058,"Ġsecure":4059,"ĠStuffing":4060,"Ġfamily":4061,"ĠUps":4062,"Ġmixtures":4063,"Ġ70":4064,"ioli":4065,"ĠLa":4066,"ment":4067,"meats":4068,"ĠAbout":4069,"Ġsimmering":4070,"Ġpretzel":4071,"ably":4072,"Ġlbs":4073,"angular":4074,"Ġslicing":4075,"Ġovenproof":4076,"Ġpackages":4077,"Ġbottled":4078,"ĠSun":4079,"ĠSpr":4080,"Microwave":4081,"ĠDay":4082,"Ġfridge":4083,"Ġ200":4084,"Ġnutmeats":4085,"ĠPopcorn":4086,"Ġeither":4087,"Ġsmaller":4088,"ĠOys":4089,"alt":4090,"Ġflank":4091,"uxe":4092,"Ġoutside":4093,"Ġdamp":4094,"ĠShell":4095,"Ġbath":4096,"Ġcreamer":4097,"Ġalternate":4098,"Ġgone":4099,"cem":4100,"immon":4101,"Ġrich":4102,"etizers":4103,"cemeat":4104,"ushy":4105,"ĠHun":4106,"orm":4107,"ĠOriental":4108,"Ġtail":4109,"ĠBreasts":4110,"lime":4111,"Ġtopped":4112,"Ġpressing":4113,"ĠWatch":4114,"atural":4115,"ĠUpside":4116,"ob":4117,"oupe":4118,"Ġancho":4119,"ĠDiscard":4120,"Fry":4121,"your":4122,"Ġomit":4123,"Can":4124,"Ġblackberry":4125,"Ġtall":4126,"Ġsalami":4127,"ĠSnick":4128,"ĠMolasses":4129,"Ġnice":4130,"ĠCub":4131,"urk":4132,"Ġfrankfur":4133,"rops":4134,"Ġkiwi":4135,"Ġsection":4136,"This":4137,"Ġcantal":4138,"ĠCheck":4139,"Ġsaff":4140,"ĠNow":4141,"Ġrectangular":4142,"Ġrap":4143,"icotti":4144,"ĠSnow":4145,"ĠSauerkraut":4146,"Ġcard":4147,"ĠOnions":4148,"Ġincluding":4149,"Ġdumplings":4150,"whole":4151,"Ġrapid":4152,"ĠCoca":4153,"atin":4154,"Ġtriangles":4155,"Ġnondairy":4156,"ĠThoroughly":4157,"Ġfilled":4158,"ara":4159,"ĠShort":4160,"ĠPickled":4161,"urkee":4162,"Cola":4163,"ĠTopping":4164,"ĠPretzel":4165,"ĠPull":4166,"Ġworks":4167,"Ġsoaked":4168,"Ups":4169,"Ġcareful":4170,"rost":4171,"Ġblackberries":4172,"erios":4173,"Ġgarbanzo":4174,"Ġ28":4175,"ĠMustard":4176,"Free":4177,"ĠBowl":4178,"Ġheads":4179,"de":4180,"ĠKn":4181,"Ġlivers":4182,"Ġtablespoonfuls":4183,"ĠZest":4184,"ball":4185,"ĠTest":4186,"Ġjumbo":4187,"Ġwould":4188,"Ġchick":4189,"over":4190,"ĠLi":4191,"ĠIsland":4192,"Ġleeks":4193,"half":4194,"Ġclos":4195,"Ġtips":4196,"Ġcoals":4197,"ounds":4198,"unk":4199,"ĠMc":4200,"ĠNuts":4201,"ama":4202,"Ġlimeade":4203,"ĠShoe":4204,"otted":4205,"ĠDurkee":4206,"ĠGrilled":4207,"Ġturns":4208,"ations":4209,"efrost":4210,"Ġtortellini":4211,"ĠCheerios":4212,"Ġkernels":4213,"Ġpine":4214,"amic":4215,"Ġflame":4216,"350":4217,"Ġpectin":4218,"Ġslaw":4219,"Ġrib":4220,"cell":4221,"fu":4222,"ny":4223,"ĠWings":4224,"awry":4225,"Ġstrong":4226,"ĠLast":4227,"rec":4228,"raut":4229,"Ġliver":4230,"ĠRot":4231,"Ġfast":4232,"ĠMedium":4233,"Ġpancakes":4234,"iffer":4235,"Ġcuts":4236,"cellent":4237,"Ġmany":4238,"ĠCres":4239,"Ġcovering":4240,"Ġcountry":4241,"agne":4242,"Ġslotted":4243,"Ġcircles":4244,"peas":4245,"ĠMonkey":4246,"ĠTortilla":4247,"Ġteriyaki":4248,"Ġrab":4249,"ĠPatties":4250,"Ġoat":4251,"fingers":4252,"ĠOpen":4253,"Ġnatural":4254,"ĠFat":4255,"ampagne":4256,"Ġworcestershire":4257,"Down":4258,"Ġkraut":4259,"go":4260,"Ġguacamole":4261,"ĠTender":4262,"ĠZesty":4263,"ickory":4264,"iblets":4265,"ĠHea":4266,"alorie":4267,"ĠReady":4268,"rel":4269,"Ġbas":4270,"oux":4271,"Ġspicy":4272,"Ġliquids":4273,"Ġgloss":4274,"Ġmed":4275,"Ġhots":4276,"melon":4277,"Ġcantaloupe":4278,"lien":4279,"Ġjulien":4280,"Ġsetting":4281,"etter":4282,"ĠDust":4283,"Ġgets":4284,"ĠInvert":4285,"ĠImp":4286,"ĠSprite":4287,"ango":4288,"ussels":4289,"Do":4290,"ennel":4291,"ĠCoke":4292,"Ġslits":4293,"Ġbarely":4294,"Ġthird":4295,"undy":4296,"ĠTime":4297,"Ġsubstituted":4298,"Low":4299,"Cheese":4300,"Ġfrankfurters":4301,"ico":4302,"ĠPark":4303,"ĠLawry":4304,"crease":4305,"Ġcartons":4306,"crisp":4307,"ĠWild":4308,"For":4309,"ta":4310,"etty":4311,"Ġcornflake":4312,"ĠMeringue":4313,"Ġsprings":4314,"ĠMill":4315,"que":4316,"ants":4317,"Ġbatch":4318,"Ġris":4319,"Ġmetal":4320,"ĠPistachio":4321,"ĠDash":4322,"Ġears":4323,"ĠTre":4324,"ĠLight":4325,"Ġharden":4326,"24":4327,"ĠFail":4328,"Ġlobster":4329,"ĠMy":4330,"Ġprocessed":4331,"Ġtoppings":4332,"ieve":4333,"ĠNever":4334,"Ġchile":4335,"ĠFirst":4336,"Ġfennel":4337,"Ġdropped":4338,"ĠTorte":4339,"osh":4340,"ubble":4341,"Ġtill":4342,"Ġskew":4343,"Ġdiet":4344,"ppies":4345,"Ġ23":4346,"eck":4347,"ĠVegg":4348,"Ġlinks":4349,"yst":4350,"itation":4351,"Ġcalorie":4352,"Ġcontin":4353,"ĠPolish":4354,"ĠTwink":4355,"juice":4356,"Ġgrate":4357,"ĠPowder":4358,"Ġbeing":4359,"Ġcryst":4360,"pany":4361,"Ġlegs":4362,"alsamic":4363,"ĠImpossible":4364,"ĠPin":4365,"oat":4366,"Ġcre":4367,"ĠTr":4368,"Ġthirds":4369,"ĠThey":4370,"Ġfettuccine":4371,"ĠTot":4372,"ĠSeasons":4373,"Ġelastic":4374,"Ġcombination":4375,"cher":4376,"ĠYeast":4377,"astes":4378,"atever":4379,"aps":4380,"ĠSmith":4381,"ĠKisses":4382,"ĠMayonnaise":4383,"ifferent":4384,"orr":4385,"Ġplates":4386,"ĠSuper":4387,"You":4388,"rit":4389,"ĠBetty":4390,"Ġroux":4391,"ĠJuice":4392,"ĠJelly":4393,"ĠPral":4394,"Ġpurpose":4395,"Ġtam":4396,"ĠKitchen":4397,"ala":4398,"ĠBon":4399,"arboil":4400,"bleached":4401,"la":4402,"Ġtable":4403,"ĠSloppy":4404,"ĠDeluxe":4405,"ĠCole":4406,"ĠEat":4407,"Ġpressure":4408,"ĠBurgundy":4409,"baked":4410,"cream":4411,"alina":4412,"aky":4413,"Ġsprinkles":4414,"Ġes":4415,"argarine":4416,"Ġdog":4417,"ĠSoda":4418,"ĠHeavenly":4419,"Cr":4420,"Ġsteamed":4421,"Ġones":4422,"ĠPure":4423,"ĠMil":4424,"rant":4425,"Ġdeer":4426,"Ġperson":4427,"erd":4428,"ĠAd":4429,"ĠOli":4430,"Ġchickpeas":4431,"Ġwarmed":4432,"ĠUnmold":4433,"ms":4434,"Ġdist":4435,"like":4436,"ĠPecans":4437,"regular":4438,"Ġlin":4439,"Ġstarch":4440,"ĠMarinade":4441,"Nuts":4442,"uy":4443,"Ġtails":4444,"ĠKnorr":4445,"ĠBy":4446,"Ġunbleached":4447,"ĠCatalina":4448,"ĠCrackers":4449,"ĠCongeal":4450,"Ġlove":4451,"ĠWa":4452,"ĠCrunchy":4453,"rated":4454,"ĠFran":4455,"Ġbri":4456,"unn":4457,"ĠOyster":4458,"May":4459,"Ġcit":4460,"terol":4461,"olesterol":4462,"ific":4463,"ĠPrick":4464,"don":4465,"inz":4466,"ello":4467,"ĠSheet":4468,"ĠSar":4469,"ĠAu":4470,"Ġusually":4471,"self":4472,"arian":4473,"ĠVelvet":4474,"ĠNote":4475,"Ġbutternut":4476,"ĠLou":4477,"ĠQuickly":4478,"Ġpats":4479,"ĠLasagne":4480,"Ġpatty":4481,"ita":4482,"Ġmelon":4483,"Ġlg":4484,"Ġthere":4485,"ĠPuree":4486,"ĠUnroll":4487,"ĠAppetizer":4488,"Ġhollow":4489,"ĠCube":4490,"ĠMillion":4491,"osher":4492,"Ġmonths":4493,"season":4494,"Ġpita":4495,"Ġlids":4496,"Ġhickory":4497,"ounder":4498,"Ġmoisture":4499,"ĠEnchilada":4500,"ĠThree":4501,"Ġmarinated":4502,"until":4503,"Ġlumpy":4504,"Ġstored":4505,"Ġthread":4506,"Ġimitation":4507,"ĠCand":4508,"Ġspir":4509,"Bran":4510,"It":4511,"Ġconten":4512,"Ġkept":4513,"finger":4514,"ĠMini":4515,"arden":4516,"ĠPeas":4517,"Ġlooks":4518,"tAdd":4519,"ĠX":4520,"ada":4521,"ĠSoft":4522,"ĠBetter":4523,"Ġpuffed":4524,"29":4525,"Ġwithin":4526,"ments":4527,"Ġgrind":4528,"ukes":4529,"Ġlady":4530,"Ġmincemeat":4531,"ĠPear":4532,"Ġlots":4533,"soft":4534,"ĠWine":4535,"Ġbalsamic":4536,"ĠBra":4537,"ause":4538,"Ġupside":4539,"iana":4540,"Ġfillet":4541,"ĠFritters":4542,"ĠCelery":4543,"ĠMiss":4544,"Ġsoon":4545,"Ġmolds":4546,"ĠCold":4547,"Ġ22":4548,"Ġsaving":4549,"adle":4550,"ĠBas":4551,"ĠMary":4552,"ipl":4553,"Ġlayering":4554,"Ġpureed":4555,"ning":4556,"Ġsuit":4557,"Ġshav":4558,"Ġloose":4559,"Ġmango":4560,"Ġdecorate":4561,"ĠRi":4562,"Ġsodium":4563,"Ġhel":4564,"ains":4565,"??":4566,"fle":4567,"mild":4568,"ĠMa":4569,"ĠRich":4570,"reek":4571,"Fashioned":4572,"Ġbreakfast":4573,"hyd":4574,"Ġvari":4575,"Ġbeet":4576,"Ġclose":4577,"ĠGratin":4578,"Ġbecome":4579,"Ġtouched":4580,"Ġtofu":4581,"ĠCottage":4582,"aya":4583,"ĠHar":4584,"ĠHeal":4585,"ĠGarden":4586,"ĠEl":4587,"Ġplaced":4588,"Ġ19":4589,"ret":4590,"ĠPink":4591,"ean":4592,"uty":4593,"green":4594,"Ġbed":4595,"ingersn":4596,"den":4597,"Ġwhatever":4598,"ata":4599,"ical":4600,"Ġcooks":4601,"ĠScrape":4602,"ĠHeinz":4603,"Ġhow":4604,"oulder":4605,"Ġpersimmon":4606,"iploc":4607,"iti":4608,"ĠMilnot":4609,"kes":4610,"Ġfile":4611,"asier":4612,"pecans":4613,"Ġcat":4614,"Ġmust":4615,"oose":4616,"ĠRing":4617,"salt":4618,"ino":4619,"Ġequ":4620,"Ġsnack":4621,"ĠParkay":4622,"the":4623,"you":4624,"ren":4625,"oos":4626,"ĠSlush":4627,"Ġberry":4628,"ĠPastry":4629,"Ġraisin":4630,"amboo":4631,"Ġvirgin":4632,"ĠEmpty":4633,"ĠDiabetic":4634,"ĠSkim":4635,"ĠFollow":4636,"Ġitems":4637,"icles":4638,"ĠSyrup":4639,"ĠMeal":4640,"Ġwatermelon":4641,"asty":4642,"Ġblade":4643,"ĠMag":4644,"ĠThicken":4645,"ĠPuppies":4646,"Ġtest":4647,"Ġhair":4648,"Ġdifferent":4649,"ĠSaut":4650,"Ġbamboo":4651,"acaroon":4652,"imple":4653,"alapeno":4654,"ĠGingerbread":4655,"ĠMac":4656,"rib":4657,"Ġfourths":4658,"ĠDeviled":4659,"ĠCrescent":4660,"ĠRoasted":4661,"whe":4662,"Ġsuch":4663,"ĠRum":4664,"Ġtossing":4665,"Ġ#":4666,"ites":4667,"Ġhomemade":4668,"ĠHush":4669,"Ġstewing":4670,"ĠReese":4671,"luc":4672,"pes":4673,"ĠPo":4674,"sticks":4675,"Ġcontinu":4676,"Ġtransfer":4677,"Ġgumbo":4678,"ĠVenison":4679,"Ġshoulder":4680,"ĠInd":4681,"ĠCreamed":4682,"Ġcurrant":4683,"light":4684,"Ġdiluted":4685,"Ġtenderiz":4686,"ĠSmooth":4687,"Ġpreferred":4688,"rum":4689,"Ġtex":4690,"utney":4691,"Ġflow":4692,"illed":4693,"riend":4694,"Ġkisses":4695,"oses":4696,"fect":4697,"tP":4698,"Ġcukes":4699,"ĠKing":4700,"Ġdeg":4701,"ĠZiploc":4702,"Roni":4703,"pack":4704,"ĠMashed":4705,"Ġmanicotti":4706,"nog":4707,"Ġrectangles":4708,"In":4709,"gate":4710,"oots":4711,"Ġbutton":4712,"ĠVeggie":4713,"Ġcav":4714,"Ġputting":4715,"aret":4716,"atoni":4717,"ĠFettuc":4718,"ĠSupper":4719,"ancy":4720,"Ġtear":4721,"ĠMother":4722,"verage":4723,"Ġcontents":4724,"Ġtexture":4725,"ĠJoes":4726,"ĠHo":4727,"ĠYellow":4728,"ĠBurgers":4729,"Ġladyfingers":4730,"Ġdoor":4731,"unnel":4732,"Ġwas":4733,"Ġeasier":4734,"ĠDry":4735,"ĠBrownie":4736,"Ġartific":4737,"Ġcools":4738,"flour":4739,"Cook":4740,"ousand":4741,"ways":4742,"ĠPap":4743,"ĠToffee":4744,"from":4745,"met":4746,"canned":4747,"recipe":4748,"Ġtrans":4749,"ĠMu":4750,"ĠCrabmeat":4751,"Ġdoesn":4752,"Ġcatfish":4753,"Ġmicrow":4754,"Ġnic":4755,"ĠDoll":4756,"Ġfranks":4757,"Ġseg":4758,"quet":4759,"ĠOkra":4760,"Ġquite":4761,"cloth":4762,"Ġrapidly":4763,"ĠWe":4764,"Ġrump":4765,"enty":4766,"ĠJer":4767,"ĠTwo":4768,"Ġtransluc":4769,"rew":4770,"ĠTaste":4771,"ĠGold":4772,"ĠBeets":4773,"Sp":4774,"melet":4775,"ĠCompany":4776,"inity":4777,"Ġmy":4778,"Ġnow":4779,"ĠCrispy":4780,"ĠFive":4781,"ĠYogurt":4782,"Ġtenderizer":4783,"Ġtranslucent":4784,"Ġwil":4785,"ĠHunt":4786,"ĠDivan":4787,"ones":4788,"Ġbottoms":4789,"ĠTwinkies":4790,"ĠCongealed":4791,"ured":4792,"Ġloses":4793,"eath":4794,"cooking":4795,"onge":4796,"Ġrim":4797,"accioli":4798,"Ġsaffron":4799,"hn":4800,"law":4801,"margarine":4802,"ware":4803,"orch":4804,"Ġreheat":4805,"ĠBeer":4806,"Ġcurl":4807,"fryer":4808,"Ġcutters":4809,"Ġgumd":4810,"Ġshoots":4811,"ĠMock":4812,"oulash":4813,"Ġnicely":4814,"Ġbaste":4815,"ales":4816,"Ġres":4817,"Ġgarden":4818,"instant":4819,"Ġflaky":4820,"Ġcheesecloth":4821,"ĠLog":4822,"Ġwrappers":4823,"Ġplacing":4824,"ĠOlive":4825,"Ġartificial":4826,"ĠJalapeno":4827,"ĠThin":4828,"ĠLemonade":4829,"Ġsom":4830,"Ġpitcher":4831,"Ġinvert":4832,"ĠThousand":4833,"Ġlinguini":4834,"~)":4835,"ĠButterfinger":4836,"bit":4837,"Ġchampagne":4838,"Ġpoke":4839,"ĠWatergate":4840,"che":4841,"Ġhens":4842,"Ġsegments":4843,"Ġcount":4844,"Ġdis":4845,"ĠInto":4846,"merc":4847,"ĠCandied":4848,"igg":4849,"att":4850,"Ġtester":4851,"ipp":4852,"tty":4853,"Ġdegree":4854,"sliced":4855,"inder":4856,"ellogg":4857,"inds":4858,"resso":4859,"clair":4860,"ĠShells":4861,"Ġsieve":4862,"ards":4863,"ormick":4864,"Ġhock":4865,"Mix":4866,"Ġburner":4867,"Ġjulienne":4868,"Ġskewers":4869,"ĠMousse":4870,"Ġoverla":4871,"ield":4872,"iah":4873,"ĠMarsala":4874,"melted":4875,"oriz":4876,"berg":4877,"ĠBrunch":4878,"ĠDivinity":4879,"ĠCurry":4880,"ĠSaran":4881,"Ġlot":4882,"Ġscorch":4883,"Cormick":4884,"ilute":4885,"ĠCa":4886,"top":4887,"ueur":4888,"Ġfashion":4889,"ĠBuds":4890,"yl":4891,"esto":4892,"ĠGoulash":4893,"ĠEver":4894,"pared":4895,"ĠMonde":4896,"bran":4897,"ĠMama":4898,"ĠLouis":4899,"Ġdate":4900,"ĠWhole":4901,"Ġspiral":4902,"mercial":4903,"Ġoverlapping":4904,"oops":4905,"ĠGreek":4906,"Ġpreparing":4907,"Fried":4908,"Ġtip":4909,"ĠKellogg":4910,"Ġrunning":4911,"Ġbubble":4912,"Ġhocks":4913,"prefer":4914,"aretto":4915,"Ġjack":4916,"ĠEclair":4917,"ĠYummy":4918,"ĠBuns":4919,"ĠBrussels":4920,"Ġfinished":4921,"Ġturnips":4922,"tand":4923,"Ġbun":4924,"Ġkosher":4925,"ĠJohn":4926,"Ġpouring":4927,"Ġholds":4928,"ĠBasic":4929,"edding":4930,"ĠQuaker":4931,"ĠCrispix":4932,"Ġnearly":4933,"ign":4934,"ĠBea":4935,"ĠChopped":4936,"Ġtwist":4937,"upper":4938,"abel":4939,"ĠIns":4940,"Ġfreezes":4941,"Ġsprinkling":4942,"ĠHealthy":4943,"..":4944,"olog":4945,"Ġ65":4946,"ounter":4947,"ĠMonte":4948,"seasoned":4949,"Ġgumdrops":4950,"Ġtie":4951,"leph":4952,"chicken":4953,"ros":4954,"Ġair":4955,"ety":4956,"ĠGumbo":4957,"Rice":4958,"cross":4959,"ĠCider":4960,"Ġdredge":4961,"ondue":4962,"ĠFinely":4963,"ĠMagic":4964,"Ġmushy":4965,"ĠMaz":4966,"ĠHal":4967,"ĠPenn":4968,"tte":4969,"Ġdesire":4970,"ĠFlavor":4971,"plants":4972,"ĠCupcakes":4973,"Ġdeviled":4974,"The":4975,"Ġcounter":4976,"ence":4977,"ĠKid":4978,"ĠRibs":4979,"Ġcommercial":4980,"ĠCorned":4981,"ather":4982,"usters":4983,"Sueur":4984,"Ġtotal":4985,"ĠMud":4986,"Ġrig":4987,"ĠCooking":4988,"ĠPlay":4989,"ĠBou":4990,"Ġsets":4991,"Ġpearl":4992,"Ġliners":4993,"Ġeggplants":4994,"Ġ500":4995,"Ġbreaking":4996,"ĠChewy":4997,"ĠAdjust":4998,"ĠInsert":4999,"illy":5000,"anese":5001,"Ġheating":5002,"ĠTurtle":5003,"Ġmicrowav":5004,"ologna":5005,"ĠQuik":5006,"ĠAmaretto":5007,"Ġcast":5008,"Ġ303":5009,"ĠBreast":5010,"Ġformed":5011,"Use":5012,"water":5013,"ĠLeSueur":5014,"ingersnaps":5015,"Nut":5016,"Ġcheck":5017,"ĠWedding":5018,"ĠMoisten":5019,"Ġliquor":5020,"airly":5021,"Ġdefrost":5022,"ĠInstant":5023,"ĠTost":5024,"Ġflowers":5025,"Ġmixes":5026,"Ġstro":5027,"Ġflounder":5028,"Ġchunked":5029,"Ġbitter":5030,"Ġstarter":5031,"riz":5032,"Ġsho":5033,"Ġtested":5034,"ĠCow":5035,"Ġraise":5036,"ĠSwirl":5037,"Ġlimp":5038,",\\":5039,"Ġdoll":5040,"achos":5041,"ĠMcCormick":5042,"Ġsee":5043,"ĠKey":5044,"ĠAppetizers":5045,"oston":5046,"Ġstrainer":5047,"derful":5048,"Ġsauc":5049,"ĠRotel":5050,"tBake":5051,"utes":5052,"ĠWay":5053,"Ġwaffle":5054,"enster":5055,"Ġworms":5056,"Ġfairly":5057,"ĠChips":5058,"duty":5059,"Ġfettucini":5060,"lephant":5061,"40":5062,"Ġcrusty":5063,"addock":5064,"inai":5065,"Ġmain":5066,"Ġsav":5067,"efly":5068,"ĠDogs":5069,"Ġshakes":5070,"Ġdeli":5071,"Cheddar":5072,"ĠMazola":5073,"heaping":5074,"ĠHour":5075,"Ġ75":5076,"including":5077,"ĠLo":5078,"isscross":5079,"grette":5080,"Ġforming":5081,"ĠCurried":5082,"dried":5083,"ĠBoston":5084,"apanese":5085,"Ġchillies":5086,"inaigrette":5087,"au":5088,"amble":5089,"ĠSpam":5090,"Ġouter":5091,"Ġdirects":5092,"ba":5093,"Ġhull":5094,"ĠFinish":5095,"Ġrigatoni":5096,"ickel":5097,"ubbed":5098,"azy":5099,"ĠOvernight":5100,"ĠCrocker":5101,"Ġwe":5102,"une":5103,"Ġclosed":5104,"gry":5105,"ĠSavor":5106,"llo":5107,"iffon":5108,"Ġcongealed":5109,"Ġ115":5110,"ĠPoke":5111,"ĠTarts":5112,"Ġstrained":5113,"Ġpretty":5114,"cents":5115,"rout":5116,"ĠTon":5117,"Ġlogs":5118,"Ġreally":5119,"Ġpkgs":5120,"ĠRock":5121,"wheels":5122,"inter":5123,"Ġmarble":5124,"ĠLadle":5125,"ĠFreezer":5126,"ĠMuenster":5127,"19":5128,"Ġear":5129,"ĠNacho":5130,"ĠBoiled":5131,"Ġscrape":5132,"Ġtamales":5133,"Ġshaved":5134,"ĠSavory":5135,"Ġchild":5136,"ival":5137,"ĠContains":5138,"Ġgummy":5139,"Ġbriefly":5140,"ĠTart":5141,"uffed":5142,"ĠClose":5143,"ĠWon":5144,"Ġwrapped":5145,"Ġrow":5146,"Ġappear":5147,"ution":5148,"ont":5149,"ĠPare":5150,"ushed":5151,"ambled":5152,"ĠMilky":5153,"Ġtakes":5154,"rteg":5155,"Ġbecause":5156,"ĠExcellent":5157,"Ġkeeps":5158,"Ġanchovy":5159,"Ġpock":5160,"Ġperfor":5161,"afing":5162,"Ġcitron":5163,"ek":5164,"Ġsup":5165,"ĠOnce":5166,"ĠTet":5167,"Ġimp":5168,"Ġgallons":5169,"Ġbasket":5170,"razz":5171,"rowd":5172,"Ġscoops":5173,"Ġglazed":5174,"Ġsealed":5175,"Ġesc":5176,"ĠAmb":5177,"iesta":5178,"ĠTriple":5179,"ĠPor":5180,"ĠLoos":5181,"ounce":5182,"Ġfettucine":5183,"preferably":5184,"ĠTetrazz":5185,"reat":5186,"Ġstay":5187,"Ġpreheat":5188,"sk":5189,"leu":5190,"Ġgive":5191,"ĠSherbet":5192,"ĠHearty":5193,"ĠTetrazzini":5194,"ĠSam":5195,"ĠGener":5196,"Ġ90":5197,"Ġquiche":5198,"ĠMexic":5199,"dor":5200,"arrow":5201,"ĠFour":5202,"ĠVinegar":5203,"ailable":5204,"Ġrotary":5205,"Ġglossy":5206,"urch":5207,"ĠShould":5208,"Ġziti":5209,"ĠMedley":5210,"estern":5211,"paration":5212,"Ġloosen":5213,"Ġpier":5214,"ette":5215,"Ġcardamon":5216,"Ġlift":5217,"Ġcob":5218,"ĠLazy":5219,"Ġextrac":5220,"ĠDebone":5221,"rosia":5222,"eel":5223,"ĠMor":5224,"umpern":5225,"Ġsupreme":5226,"Ġcod":5227,"ĠJapanese":5228,"ĠPeaches":5229,"ĠTam":5230,"ĠRound":5231,"Ġvariety":5232,"ĠAmbrosia":5233,"Ġdent":5234,"olly":5235,"Ġnarrow":5236,"Ġingredient":5237,"Ġprecooked":5238,"ambal":5239,"ĠTreats":5240,"ippi":5241,"Ġte":5242,"ĠPart":5243,"ĠJim":5244,"issippi":5245,"umpernickel":5246,"ĠSch":5247,"ĠWaff":5248,"Ġlengths":5249,"ĠSticks":5250,"ĠMississippi":5251,"ĠSimple":5252,"ĠEar":5253,"ĠFluffy":5254,"Ġpush":5255,"Ġ26":5256,"Ġuncover":5257,"ĠOrteg":5258,"Ġtoffee":5259,"Ġsea":5260,"elveeta":5261,"etti":5262,"Ġsavory":5263,"ĠBac":5264,"hyllo":5265,"ints":5266,"ĠPush":5267,"unpeeled":5268,"egetarian":5269,"ĠMint":5270,"Ġextracts":5271,"tC":5272,"Ġsim":5273,"ĠPort":5274,"ĠIncrease":5275,"Ġalready":5276,"Ġmoderately":5277,"Ġsprig":5278,"ĠDollar":5279,"ground":5280,"Ġphyllo":5281,"ĠBleu":5282,"Ġgrams":5283,"ĠDried":5284,"Ġswirl":5285,"Ġstrokes":5286,"rone":5287,"crust":5288,"Ġmostaccioli":5289,"ambalaya":5290,"rie":5291,"ĠThan":5292,"ropical":5293,"Ġcrystals":5294,"uyere":5295,"acaroons":5296,"Ġamon":5297,"Ġchafing":5298,"estrone":5299,"ĠReheat":5300,"Ġrabbit":5301,"Ġmousse":5302,"Ġinter":5303,"Ġreheated":5304,"Ġsourdough":5305,"ĠSwans":5306,"Ġprick":5307,"vies":5308,"Ġglut":5309,"epeg":5310,"dorf":5311,"cress":5312,"amous":5313,"ĠSund":5314,"Ġlabel":5315,"ĠLingu":5316,"fred":5317,"oid":5318,"ĠHom":5319,"Ġmasher":5320,"ĠAlternately":5321,"Ġshaped":5322,"Ġamong":5323,"rem":5324,"ĠRun":5325,"tuce":5326,"yellow":5327,"ĠFiesta":5328,"ĠGruyere":5329,"Ġtossed":5330,"ĠBlackberry":5331,"Ġvermouth":5332,"Ġtough":5333,"Ġpal":5334,"Ġdirect":5335,"ĠTrifle":5336,"Ġchutney":5337,"Ġlimas":5338,"ĠWaldorf":5339,"Ġdistrib":5340,"ĠMexicorn":5341,"fredo":5342,"together":5343,"Ġovermix":5344,"Ġmicrowavable":5345,"ĠBo":5346,"lices":5347,"ĠFrom":5348,"ĠSkin":5349,"Ġeating":5350,"ights":5351,"ĠPreparation":5352,"ĠBouquet":5353,"itional":5354,"Ġsealing":5355,"ivalent":5356,"ĠSunday":5357,"Fro":5358,"Ġgiblets":5359,"ĠGoo":5360,"ĠCore":5361,"ossom":5362,"ucky":5363,"arkling":5364,"ĠPerfect":5365,"ĠPralines":5366,"ĠOrtega":5367,"uf":5368,"well":5369,"xx":5370,"Ġhelp":5371,"ĠLouisiana":5372,"uel":5373,"ĠChiffon":5374,"Ġgrains":5375,"ĠScrub":5376,"ĠGenerously":5377,"oins":5378,"Ġdep":5379,"ĠMaple":5380,"Style":5381,"Ġsor":5382,"Ġfall":5383,"Ġchopper":5384,"kins":5385,"Ġhaddock":5386,"ified":5387,"ĠScotch":5388,"Jell":5389,"zy":5390,"Ġbologna":5391,"Ġdrum":5392,"isins":5393,"ĠAv":5394,"Ġiceberg":5395,"Bro":5396,"hod":5397,"iant":5398,"Ġcorners":5399,"ought":5400,"ĠCalico":5401,"325":5402,"Ġmound":5403,"ĠBrisk":5404,"crushed":5405,"ĠLettuce":5406,"ĠGrits":5407,"ĠRos":5408,"Ġpri":5409,"Ġcholesterol":5410,"ĠCap":5411,"Ġ225":5412,"ashed":5413,"Ġbrick":5414,"Ġtriangle":5415,"ĠCalorie":5416,"Ġsyrupy":5417,"len":5418,"Ġchar":5419,"ĠTeriyaki":5420,"Ġslivers":5421,"ĠAny":5422,"ĠBerry":5423,"Ġpartly":5424,"Ġpuffs":5425,"brown":5426,"ĠBeau":5427,"Ġgro":5428,"Ġstirred":5429,"tein":5430,"ĠSnickerd":5431,"ĠLoosen":5432,"Or":5433,"ĠSure":5434,"overs":5435,"garian":5436,"ourmet":5437,"Ġcola":5438,"ĠHerbed":5439,"Ġadv":5440,"Ġgrinder":5441,"aged":5442,"ĠJambalaya":5443,"Ġanchovies":5444,"upperware":5445,"ĠBrisket":5446,"ritos":5447,"ĠParboil":5448,"Ġstor":5449,"Ġwatercress":5450,"ĠBarrel":5451,"Ġplums":5452,"ĠJud":5453,"Ġwilted":5454,"%)":5455,"375":5456,"70":5457,"uv":5458,"ĠPar":5459,"this":5460,"ĠDrink":5461,"ields":5462,"Ġbrine":5463,"Ġperforations":5464,"Ġburning":5465,"Ġrubber":5466,"ĠTony":5467,"king":5468,"uda":5469,"olution":5470,"Ġadjust":5471,"Ġ21":5472,"ĠToll":5473,"Ġbeverage":5474,"cha":5475,"ĠPrego":5476,"ĠWaffles":5477,"ives":5478,"Ġeight":5479,"ĠFil":5480,"Ġcenters":5481,"Ġrising":5482,"strawber":5483,"aint":5484,"Ġscallion":5485,"ĠShredded":5486,"Ġdente":5487,"drain":5488,"thaw":5489,"ĠStack":5490,"Ġthicker":5491,"ĠCornish":5492,"Ġgranola":5493,"erto":5494,"Ġpumpernickel":5495,"ĠTie":5496,"Ġ46":5497,"tha":5498,"ĠMixed":5499,"day":5500,"wal":5501,"ĠCas":5502,"ĠStr":5503,"Ġappetizer":5504,"ult":5505,"ĠCheeseburger":5506,"ĠSourdough":5507,"gn":5508,"vals":5509,"Ġbal":5510,"umber":5511,"Ġdiagonal":5512,"Ġmg":5513,"ilaf":5514,"ĠClass":5515,"Di":5516,"esar":5517,"Ġstraw":5518,"Ġ80":5519,"Ġplenty":5520,"Ġusual":5521,"Crisco":5522,"rapped":5523,"Ġfryers":5524,"Ġappetizers":5525,"Ġfolding":5526,"boy":5527,"Ġmounds":5528,"amom":5529,"ĠPas":5530,"quettes":5531,"ĠGran":5532,"ĠCowboy":5533,"ĠPier":5534,"Ġcrisscross":5535,"ĠWish":5536,"Ġlowest":5537,"ĠBell":5538,"ĠSpareribs":5539,"Ġcupcakes":5540,"ĠHungry":5541,"Ġequivalent":5542,"ĠCaesar":5543,"Be":5544,"Ġempty":5545,"ĠPile":5546,"acos":5547,"ĠFast":5548,"ĠCooked":5549,"ĠHi":5550,"Ġthroughout":5551,"Ġprod":5552,"Ġcurls":5553,"ĠTostitos":5554,"ĠCerto":5555,"ĠGe":5556,"ĠMedal":5557,"ax":5558,"Ġrequ":5559,"ĠSkor":5560,"ĠAnn":5561,"Ġfashioned":5562,"ĠFamous":5563,"Ġtablespoonful":5564,"ĠReub":5565,"Ġrabbits":5566,"emiah":5567,"ĠOat":5568,"cini":5569,"ĠBob":5570,"ĠWipe":5571,"ults":5572,"ĠVeal":5573,"ĠCarol":5574,"ĠHungarian":5575,"gy":5576,"orange":5577,"shine":5578,"Ġaltogether":5579,"ĠSeasoning":5580,"45":5581,"Ġbuds":5582,"ĠBasil":5583,"ĠRib":5584,"ĠMoist":5585,"ĠSmoked":5586,".,":5587,"ative":5588,"ĠRings":5589,"ĠWhipped":5590,"ĠDiet":5591,"Ġcardamom":5592,"Ġdefrosted":5593,"rus":5594,"Ġthumb":5595,"ĠChunk":5596,"ĠGo":5597,"Ġdehyd":5598,"man":5599,"Ġsolution":5600,"Ġeigh":5601,"unche":5602,"ottom":5603,"verted":5604,"Ġavoid":5605,"ĠClusters":5606,"ĠPoor":5607,"packed":5608,"ĠTupperware":5609,"ĠFilled":5610,"oyu":5611,"gresso":5612,"Ġkitchen":5613,"Ġtrays":5614,"ky":5615,"Ġbow":5616,"ĠPic":5617,"sodium":5618,"ists":5619,"Ġreplace":5620,"ĠTamale":5621,"Ġpatter":5622,"ĠLittle":5623,"Ġcarbon":5624,"without":5625,"ĠShoepeg":5626,"To":5627,"calorie":5628,"Ġholiday":5629,"adam":5630,"enthe":5631,"ermuda":5632,"ĠQuarter":5633,"aver":5634,"uth":5635,"Ġranch":5636,"azel":5637,"ĠSnickerdoodles":5638,"Ġpattern":5639,"23":5640,"ming":5641,"usel":5642,"ghum":5643,"imp":5644,"ĠLen":5645,"izzas":5646,"ĠPinwheels":5647,"ĠSamuel":5648,"Ġwedge":5649,"Ġdab":5650,"ĠSesame":5651,"Ġorzo":5652,"ĠLef":5653,"adamia":5654,"fashioned":5655,"ĠSand":5656,"ĠSlices":5657,"ĠGiant":5658,"ĠHamburg":5659,"lect":5660,"Mex":5661,"amate":5662,"Ġfloat":5663,"ĠGet":5664,"Ġglutamate":5665,"Ġeighths":5666,"atop":5667,"val":5668,"yed":5669,"Ġatop":5670,"Ġduck":5671,"Ġgu":5672,"ĠRaw":5673,"ship":5674,"Ġslit":5675,"Ġcrisply":5676,"ĠQues":5677,"From":5678,"uncheon":5679,"made":5680,"Ġmal":5681,"gets":5682,"Ġ475":5683,"scant":5684,"Ġprotein":5685,"quef":5686,"Ġyoung":5687,"rito":5688,"Cal":5689,"fin":5690,"reusel":5691,"ĠBermuda":5692,"etimes":5693,"ĠNiblets":5694,"uggets":5695,"Ġshaking":5696,"ĠFashion":5697,"ĠGuacamole":5698,"ĠEach":5699,"Ġavailable":5700,"ĠBrie":5701,"unbeaten":5702,"Ġcreaming":5703,"Ġjelled":5704,"ĠYork":5705,"Ġfreezing":5706,"ĠSmok":5707,"ĠKraut":5708,"ĠSnickers":5709,"Ġshoyu":5710,"ĠStirring":5711,"Ġcarbonated":5712,"ĠMount":5713,"ĠAlfredo":5714,"ĠPrune":5715,"Ġtenderloins":5716,"ĠPaprika":5717,"Ġadvance":5718,"ĠReuben":5719,"ĠCra":5720,"ĠJul":5721,"eeds":5722,"Ġmarinara":5723,"boneless":5724,"ĠMargarine":5725,"Ġmallet":5726,"Ġfries":5727,"ĠBites":5728,"acting":5729,"ĠStrawberries":5730,"Ġprior":5731,"ĠParsley":5732,"Ġspoons":5733,"ĠSecure":5734,"Ġintervals":5735,"cinnamon":5736,"lee":5737,"adian":5738,"omm":5739,"ĠLift":5740,"elatin":5741,"itas":5742,"Ġawhile":5743,"Ġchew":5744,"ĠOmelet":5745,"ĠFruitcake":5746,"ĠClub":5747,"ĠFrosted":5748,"ĠDean":5749,"afers":5750,"Ġcoll":5751,"Ġbel":5752,"ĠTastes":5753,"ima":5754,"ĠHum":5755,"iod":5756,"kay":5757,"anger":5758,"Ġpenne":5759,"Ġcole":5760,"Ġsmok":5761,"ĠDoughnuts":5762,"Ġcavity":5763,"ĠPaso":5764,"euv":5765,"adine":5766,"ĠHalf":5767,"Ġcomplete":5768,"ĠProgresso":5769,"Ġfitting":5770,"gnac":5771,"Ġbra":5772,"Ġelephant":5773,"ĠFix":5774,"Ġkeeping":5775,"quefort":5776,"ĠWafers":5777,"ĠMein":5778,"odium":5779,"Os":5780,"cery":5781,"iano":5782,"ĠDanish":5783,"ĠEd":5784,"ĠFlakes":5785,"ĠNutty":5786,"ĠPorcup":5787,"usc":5788,"Ġslushy":5789,"ĠPickle":5790,"oleslaw":5791,"ĠAvocad":5792,"Ġcall":5793,"Ġten":5794,"ĠColeslaw":5795,"unsweetened":5796,"Ġvary":5797,"Ġhome":5798,"Ġpackaged":5799,"Ġinsert":5800,"fine":5801,"vanilla":5802,"Ġsoupy":5803,"ĠFamily":5804,"ĠJan":5805,"Ġlayered":5806,"ĠRoquefort":5807,"Ġsauces":5808,"anda":5809,"arsely":5810,"ĠCopper":5811,"ĠPepperoni":5812,"ĠGrandm":5813,"Ġbatches":5814,"Bone":5815,"Sweet":5816,"lightly":5817,"Ġsuet":5818,"Ġseven":5819,"Ġdollop":5820,"such":5821,"Ġtrout":5822,"ĠBroiled":5823,"Ġbalance":5824,"\\\\":5825,"Ġels":5826,"Ġstone":5827,"Ġthinner":5828,"abobs":5829,"Ġtubes":5830,"ĠCucumbers":5831,"Ġchildren":5832,"ĠJimmy":5833,"ho":5834,"Ġfunnel":5835,"uckey":5836,"stir":5837,"arsn":5838,"pepper":5839,"Ġallowing":5840,"Ġsouffle":5841,"ĠPers":5842,"ucy":5843,"ĠDrops":5844,"ĠWil":5845,"osodium":5846,"ĠTangy":5847,"ĠMorton":5848,"Ġparboil":5849,"ĠUp":5850,"ĠCanadian":5851,"ortant":5852,"Ġbrushing":5853,"beef":5854,"Ġscrambled":5855,"ĠEarth":5856,"ĠMountain":5857,"Ġsack":5858,"Ġleek":5859,"ĠPuppy":5860,"ĠHalve":5861,"ĠPartially":5862,"rip":5863,"ĠDown":5864,"ĠStarter":5865,"ĠRoad":5866,"ĠJoe":5867,"Ġdisapp":5868,"Ġelse":5869,"icro":5870,"ĠSliced":5871,"Ġwhat":5872,"Ġeaten":5873,"retch":5874,"nic":5875,"skin":5876,"Ġ??":5877,"ĠMelba":5878,"Ġstale":5879,"Ġsorghum":5880,"ĠClassic":5881,"ĠSteaks":5882,"Ġcontinuously":5883,"Ġincrease":5884,"Ġeggnog":5885,"Ġneck":5886,"Ġbutt":5887,"ĠMartha":5888,"time":5889,"uriz":5890,"Ġ0":5891,"Ġacorn":5892,"right":5893,"Ġcognac":5894,"ĠFree":5895,"Ġgarnished":5896,"ser":5897,"Ġwatch":5898,"ĠBing":5899,"avily":5900,"Ġ130":5901,"22":5902,"Pineapple":5903,"Ġtastes":5904,"Ġho":5905,"ĠJoy":5906,"ĠMocha":5907,"ĠReplace":5908,"Ġmonosodium":5909,"riendship":5910,"thawed":5911,"urized":5912,"Sour":5913,"Ġml":5914,"Ġwing":5915,"ĠGelatin":5916,"Ġpeeling":5917,"ibut":5918,"Ġliters":5919,"ĠMacadamia":5920,"ĠRocky":5921,"Ġgrocery":5922,"Ġdehydrated":5923,"OT":5924,"foil":5925,"cheese":5926,"rich":5927,"see":5928,"elle":5929,"Ġspace":5930,"assail":5931,"ĠShortcake":5932,"Ġpocket":5933,"dew":5934,"ĠSlightly":5935,"ĠAvocado":5936,"gi":5937,"thin":5938,"ĠLoaves":5939,"ĠKings":5940,"back":5941,"emp":5942,"Ġresults":5943,"ĠKids":5944,"will":5945,"Ġlo":5946,"Ġflours":5947,"Ġpickled":5948,"Ġoverbeat":5949,"Ġrows":5950,"Ġpet":5951,"Ġseams":5952,"ĠEnd":5953,"Ġjellied":5954,"epends":5955,"Ġdusted":5956,"ftened":5957,"ĠTropical":5958,"quake":5959,"entucky":5960,"Ġchewy":5961,"Ġinc":5962,"ised":5963,"ĠChile":5964,"Ġsparkling":5965,"ĠHel":5966,"ĠPretzels":5967,"Ġclosely":5968,"ĠPraline":5969,"ĠGeor":5970,"Ġmem":5971,"Ġsaut":5972,"Ġgrilled":5973,"iut":5974,"Ġshiny":5975,"ĠWassail":5976,"ĠSuey":5977,"buttered":5978,"ĠSnacks":5979,"ĠSunshine":5980,"Ġsafflower":5981,"depending":5982,"tain":5983,"ĠGourmet":5984,"coal":5985,"eek":5986,"sciut":5987,"ĠScramble":5988,"Ġlunch":5989,"irrel":5990,"Ġpoints":5991,"ude":5992,"Ġscorching":5993,"Broccoli":5994,"Ġbelow":5995,"Ġparsn":5996,"ĠBuff":5997,"Ġvelveeta":5998,"Ġburger":5999,"ĠJeremiah":6000,"attice":6001,"walnuts":6002,"Ġcoats":6003,"ĠHard":6004,"105":6005,"Ġpasteurized":6006,"affy":6007,"ĠPlum":6008,"ĠCrazy":6009,"Ġ???":6010,"bb":6011,"hol":6012,"Ġ29":6013,"Ġstep":6014,"Ġjigg":6015,"chocolate":6016,"pineapple":6017,"wheat":6018,"Ġ.":6019,"Ġtr":6020,"ĠCrawfish":6021,"ĠPreserves":6022,"ĠTra":6023,"Ġcheesecake":6024,"Ġspecial":6025,"aped":6026,"Ġkinds":6027,"ĠIndian":6028,"sciutto":6029,"inute":6030,"Ġhoneydew":6031,"ĠEsp":6032,"ĠKentucky":6033,"estive":6034,"Ġheart":6035,"Ġdirectly":6036,"Ġslee":6037,"Ġtaking":6038,"ila":6039,"icle":6040,"Ġjug":6041,"Ġseems":6042,"ĠCoarsely":6043,"ĠArm":6044,"ilar":6045,"ĠBaby":6046,"ĠTown":6047,"ĠTasty":6048,"Ġalways":6049,"ananas":6050,"Ġmelting":6051,"Ġconcentrated":6052,"Ġenchiladas":6053,"ossoms":6054,"yn":6055,"ĠPim":6056,"eebler":6057,"softened":6058,"bake":6059,"aken":6060,"ĠPilaf":6061,"ister":6062,"Ġbuttery":6063,"efin":6064,"ĠLarge":6065,"Ġslush":6066,"ĠEye":6067,"Ġpops":6068,"ĠTwist":6069,"Cho":6070,"mixed":6071,"Ġmonth":6072,"ĠSix":6073,"Ġgel":6074,"Ġflute":6075,"asted":6076,"Ġindividually":6077,"Ġproduc":6078,"Ġpesto":6079,"Ġgingersnaps":6080,"Ġcereals":6081,"Ġtoward":6082,"mixture":6083,"ĠWatchers":6084,"ĠEarthquake":6085,"Ġbundt":6086,"Ġchowder":6087,"garnish":6088,"Ġdra":6089,"Ġblocks":6090,"ffles":6091,"ahini":6092,"Ġ150":6093,"ĠLamb":6094,"ĠThank":6095,"ĠEngland":6096,"Stir":6097,"Ġsecurely":6098,"26":6099,"pie":6100,"ĠBig":6101,"acky":6102,"ĠSheph":6103,"ĠGranola":6104,"bble":6105,"iger":6106,"Ġfe":6107,"ĠBord":6108,"Ġturnip":6109,"Ġtinfoil":6110,"Ġreached":6111,"Ġpulls":6112,"Ġsuper":6113,"Ġheavily":6114,"Ġhoriz":6115,"Ġleg":6116,"ressed":6117,"Ġgoes":6118,"broccoli":6119,"Easy":6120,"Ġstream":6121,"Ġmeaty":6122,"ĠKiss":6123,"Ġwaffles":6124,"iscuits":6125,"ĠProsciutto":6126,"Eyed":6127,"ĠBourbon":6128,"colored":6129,"achine":6130,"ĠBegin":6131,"Ġfollowed":6132,"Ġabsorbent":6133,"skim":6134,"Good":6135,"alo":6136,"ortening":6137,"eth":6138,"cohol":6139,"Ġothers":6140,"Layer":6141,"ĠBone":6142,"Ġfluted":6143,"ripe":6144,"ĠReal":6145,"ĠFant":6146,"Ġsciss":6147,"Ġopening":6148,"ĠPerr":6149,"ĠDefrost":6150,"Ġjuicy":6151,"ĠFingers":6152,"ĠSponge":6153,"ĠGooey":6154,"anted":6155,"ington":6156,"leg":6157,"unbaked":6158,"Ġremains":6159,"ĠKeebler":6160,"Ġknives":6161,"ĠSouthw":6162,"ĠShortbread":6163,"ĠThinly":6164,"Ġjackets":6165,"ĠPennies":6166,"ĠLinguine":6167,"Yields":6168,"\\.":6169,"nadine":6170,"ugs":6171,"ĠMade":6172,"Ġanything":6173,"Ġescape":6174,"'re":6175,"Butter":6176,"cal":6177,"Ġbird":6178,"Ġpeck":6179,"ĠEv":6180,"ĠSaucy":6181,"Ġliking":6182,"Ġfind":6183,"Ġcrescents":6184,"ĠDelights":6185,"ĠPete":6186,"ĠHominy":6187,"Ġpalm":6188,"Mo":6189,"Ġfondue":6190,"ĠMore":6191,"ĠFinger":6192,"ĠEaster":6193,"ĠWorld":6194,"Ġmembran":6195,"Ġtasty":6196,"Ġparch":6197,"Ġfif":6198,"iping":6199,"quid":6200,"Ġpapers":6201,"ampi":6202,"remove":6203,"ĠCashew":6204,"ĠPerrins":6205,"Not":6206,"oped":6207,"stitute":6208,"Great":6209,"fa":6210,"Ġveg":6211,"Ġexcellent":6212,"Ġbrew":6213,"Ġbeaters":6214,"100":6215,"esh":6216,"ĠAhead":6217,"change":6218,"Ġgrenadine":6219,"Ġ57":6220,"Italian":6221,"tPour":6222,"ĠJudges":6223,"Al":6224,"Ġint":6225,"itely":6226,"urst":6227,"Ġthickening":6228,"ĠPhilly":6229,"ĠWalnuts":6230,"ĠTenderl":6231,"ĠLeftover":6232,"iato":6233,"Ġpuffy":6234,"Ġcrisco":6235,"Ġnumber":6236,"Ġsponge":6237,"ĠHoll":6238,"ksc":6239,"ĠSoy":6240,"Ġacid":6241,"ĠColada":6242,"ĠBurger":6243,"set":6244,"ĠBag":6245,"ĠGrated":6246,"efinitely":6247,"aque":6248,"con":6249,"part":6250,"ĠDilute":6251,"colator":6252,"ĠFloat":6253,"Ġkneading":6254,"ĠDeer":6255,"ondon":6256,"pecially":6257,"iatore":6258,"aith":6259,"dy":6260,"mate":6261,"Ġpres":6262,"Ġmenthe":6263,"amond":6264,"Ġpod":6265,"ĠEggnog":6266,"Ġcharcoal":6267,"ĠBorden":6268,"Wh":6269,"ĠCarb":6270,"Ġeye":6271,"ĠStreusel":6272,"ĠLobster":6273,"berally":6274,"ĠScore":6275,"ĠManicotti":6276,"ĠShepherd":6277,"kscrew":6278,"Ġexact":6279,"ĠNOT":6280,"arina":6281,"ĠSugarless":6282,"Ġscrubbed":6283,"ĠGrandmother":6284,"keep":6285,"ĠMound":6286,"ĠLima":6287,"napper":6288,"Ġdelic":6289,"Ġpreferably":6290,"ĠWeight":6291,"Ġpiping":6292,"Ġlimes":6293,"ĠMacaroons":6294,"Ġopaque":6295,"Orange":6296,"rate":6297,"wrap":6298,"ana":6299,"Ġpouch":6300,"ggy":6301,"ĠChar":6302,"ĠChuck":6303,"vest":6304,"Ġquail":6305,"48":6306,"Ġwinter":6307,"Ġlattice":6308,"ĠBus":6309,"ĠBuckey":6310,"ĠPace":6311,"ĠPrim":6312,"Ġshallot":6313,"apples":6314,"each":6315,"Ġokay":6316,"ilver":6317,"ĠCacc":6318,"Ġdilute":6319,"ĠBits":6320,"ended":6321,"Ġpacks":6322,"Ġcurly":6323,"ĠScatter":6324,"ĠMuffin":6325,"Ġequals":6326,"Ra":6327,"mushroom":6328,"ĠSpring":6329,"ĠLondon":6330,"Ġbreads":6331,"ĠYams":6332,"ginal":6333,"ĠRibbon":6334,"avera":6335,")*":6336,"Apple":6337,"Ġoval":6338,"Ġluncheon":6339,"ĠPina":6340,"usk":6341,"cherry":6342,"ĠDr":6343,"monia":6344,"ĠBeet":6345,"Ġchilli":6346,"Ġbrittle":6347,"Ġearly":6348,"ontally":6349,"Ġscissors":6350,"ike":6351,"sto":6352,"tS":6353,"wick":6354,"yes":6355,"Ġfalls":6356,"spray":6357,"ĠLite":6358,"ĠHill":6359,"izes":6360,"ĠEsc":6361,"Chicken":6362,"ĠPierce":6363,"ĠPersimmon":6364,"Ġfeed":6365,"Ġflu":6366,"ience":6367,"ĠWestern":6368,"cluded":6369,"ĠAmish":6370,"lap":6371,"Ġflip":6372,"umbers":6373,"sharp":6374,"Ġcolors":6375,"ĠScampi":6376,"Ġindefinitely":6377,"Ġsimilar":6378,"400":6379,"diced":6380,"ior":6381,"ene":6382,"ĠTaffy":6383,"Ġunpared":6384,"allow":6385,"Ġquant":6386,"ĠRaisins":6387,"ĠTortellini":6388,"ĠPinto":6389,"Ġhulled":6390,"ĠStrata":6391,"ao":6392,"Ġhazel":6393,"ĠHollow":6394,"Ġdraining":6395,"black":6396,"ĠMince":6397,"unswick":6398,"Ġtouching":6399,"Ġhorizontally":6400,"ner":6401,"Ġwere":6402,"Ġwanted":6403,"Ġstar":6404,"Ġsteep":6405,"ĠRap":6406,"ĠRye":6407,"ĠChach":6408,"ipes":6409,"ĠNachos":6410,"ĠTwin":6411,"ajitas":6412,"fried":6413,"Ġfancy":6414,"ĠCav":6415,"ĠDuring":6416,"imum":6417,"ĠTriscuits":6418,"ĠLentil":6419,"cer":6420,"een":6421,"ĠFull":6422,"ubstitute":6423,"tract":6424,"ĠYour":6425,"Ġammonia":6426,"Ġwonderful":6427,"Ġdistribute":6428,"Ġtry":6429,"ĠBananas":6430,"ellen":6431,"Ġcrunch":6432,"ĠVinaigrette":6433,"Diabetic":6434,"35":6435,"Pec":6436,"ged":6437,"Ġsteel":6438,"estring":6439,"ĠBrunswick":6440,"Ġneeds":6441,"ĠScallops":6442,"!!!":6443,"ĠStarting":6444,"Ġwonton":6445,"ĠLiver":6446,"ĠCacciatore":6447,"App":6448,"Bl":6449,"bird":6450,"arro":6451,"ests":6452,"Ġincluded":6453,"ĠStraw":6454,"ĠChoice":6455,"Ġinsides":6456,"Ġsteaming":6457,"strawberry":6458,"pr":6459,"wurst":6460,"Ġtuck":6461,"atzo":6462,"ĠSmall":6463,"quila":6464,"Ġtenderness":6465,"ĠVirgin":6466,"Ġagainst":6467,"Ġcorkscrew":6468,"ronicles":6469,"ĠFettuccine":6470,"Ġimportant":6471,"Ġfluid":6472,"bons":6473,"lease":6474,"ĠCereal":6475,"Ġpeek":6476,"ĠTry":6477,"ĠBlond":6478,"Ġdesign":6479,"Ġkids":6480,"ĠRoy":6481,"ĠCanned":6482,"Ġrotating":6483,"Ġrunny":6484,"ĠHarvest":6485,"ĠPrimavera":6486,"ĠCord":6487,"ĠMorning":6488,"Ġvar":6489,"Ġshelf":6490,"ĠRellen":6491,"ĠChipped":6492,"ĠChampagne":6493,"ĠChronicles":6494,"asseroles":6495,"ĠJew":6496,"Ġespecially":6497,"ĠTenderloin":6498,"aire":6499,"Ġjoin":6500,"perial":6501,"Ġdevein":6502,"Ġfilets":6503,"eady":6504,"gers":6505,"ille":6506,"Ġsole":6507,"ashell":6508,"baking":6509,"ever":6510,"lon":6511,"olf":6512,"Ġthickly":6513,"ĠSeasoned":6514,"Ġrises":6515,"ĠWait":6516,"euvres":6517,"Pecan":6518,"gur":6519,"onion":6520,"ĠStep":6521,"Ġrock":6522,"Ġ120":6523,"undles":6524,"ĠMints":6525,"Ġsleeve":6526,"ĠChachere":6527,"powder":6528,"ĠFondue":6529,"Ġtenders":6530,"Ġjellyroll":6531,"ĠGlor":6532,"Ġjulienned":6533,"300":6534,"grain":6535,"ĠPesto":6536,"Ġconverted":6537,"oren":6538,"Ġpoured":6539,"Ġwait":6540,"Ġtwists":6541,"Ġendive":6542,"ĠCroquettes":6543,"Ġsterile":6544,"andaise":6545,"Ġparchment":6546,"Ġmill":6547,"space":6548,"Ġstre":6549,".).":6550,"avarian":6551,"Ġsquirrel":6552,"alories":6553,"ahum":6554,"Ġpreference":6555,"Ġfifth":6556,"ĠRapid":6557,"tw":6558,"tMix":6559,"ĠSuc":6560,"ĠOriginal":6561,"ĠPowdered":6562,"mingbird":6563,"tR":6564,"erne":6565,"Ġdec":6566,"abl":6567,"ĠHay":6568,"Ġcones":6569,"ĠImperial":6570,"lenda":6571,"ĠHummingbird":6572,"Ġexactly":6573,"Ġnachos":6574,"Ġgroup":6575,"ĠRain":6576,"ient":6577,"ĠStand":6578,"ĠLor":6579,"ĠBisque":6580,"ĠCondensed":6581,"Ġflowerpot":6582,"ĠSmother":6583,"ĠChews":6584,"Ġequally":6585,"ius":6586,"Ġcasseroles":6587,"iness":6588,"Ġtong":6589,"ilt":6590,"ĠCit":6591,"ĠBun":6592,"Ġsaved":6593,"abag":6594,"ĠOut":6595,"Ġdeter":6596,"Quick":6597,"ĠTreat":6598,"ĠFranks":6599,"Ġdepth":6600,"One":6601,"batter":6602,"fir":6603,"ĠBor":6604,"ĠPizzas":6605,"Ġwhere":6606,"ĠVer":6607,"Ġenrich":6608,"Ġglue":6609,"Ġheadspace":6610,"ĠMinestrone":6611,"Ġparsnips":6612,"ĠHollandaise":6613,"Ġmug":6614,"leave":6615,"ĠBavarian":6616,"Ġshow":6617,"ĠRuth":6618,"abisco":6619,"ĠFestive":6620,"Ġstemmed":6621,"Ġcalled":6622,"eer":6623,"ĠTacos":6624,"stand":6625,"Ġreg":6626,"ĠSticky":6627,"Ġmanuf":6628,"Rise":6629,"iar":6630,"mers":6631,"Ġomelet":6632,"Ġchange":6633,"veget":6634,"ĠDew":6635,"acks":6636,"ember":6637,"Ġupright":6638,"ĠPeanuts":6639,"Ġwrapper":6640,"ibb":6641,"ĠSwanson":6642,"Ġmanufact":6643,"Ġpale":6644,"ĠPops":6645,"isters":6646,"Ġunmold":6647,"ĠIda":6648,"ĠHome":6649,"Ġstands":6650,"Ġtubs":6651,"ĠRoma":6652,"ĠBonn":6653,"Ġenriched":6654,"Minute":6655,"ster":6656,"Ġmaker":6657,"Ġvinaigrette":6658,"Ġcauliflowerets":6659,"Ġparties":6660,"ĠBurritos":6661,"Ġintact":6662,"got":6663,"nier":6664,"Ġchoriz":6665,"ĠCalories":6666,"allon":6667,"ĠChest":6668,"ĠCholesterol":6669,"Ġspins":6670,"oughy":6671,"Ġxxx":6672,"ĠEleg":6673,"ĠScones":6674,"ĠMincemeat":6675,"which":6676,"ĠPancake":6677,"ĠFrito":6678,"ĠCatfish":6679,"Ġdecoration":6680,"ĠWafer":6681,"Ġmanufactur":6682,"tine":6683,"Ġmussels":6684,"ality":6685,"Ġfaith":6686,"lemon":6687,"aces":6688,"acao":6689,"clude":6690,"Ġindent":6691,"ĠJulius":6692,"ĠPorcupine":6693,"Ġhazelnuts":6694,"beat":6695,"Ġcrowd":6696,"Ġsizz":6697,"reath":6698,"ups":6699,"ĠCherries":6700,"Ġhalibut":6701,"ĠJar":6702,"ĠKielbasa":6703,"Ġliberally":6704,"Ġproced":6705,"ĠWashington":6706,"ĠMarnier":6707,"Ġswiss":6708,"ĠWonderful":6709,"ĠVirginia":6710,"put":6711,"Ġtahini":6712,"Ġwhe":6713,"Ġsugared":6714,"Ġplump":6715,"Ġicebox":6716,"Ġworking":6717,"ĠToasted":6718,"ume":6719,"Ġrare":6720,"ĠHold":6721,"Ġkiss":6722,"Sw":6723,"orp":6724,"isbury":6725,"ĠNabisco":6726,"Ġcontaining":6727,"ogen":6728,"Ġcrabs":6729,"ĠTortillas":6730,"ĠCitrus":6731,"down":6732,"gent":6733,"nold":6734,"asant":6735,"ĠFig":6736,"Ġsweeten":6737,"ĠCornmeal":6738,"anging":6739,"Stuffed":6740,"Ġcombining":6741,"Ġtequila":6742,"wrapped":6743,"Ġcour":6744,"Ġtaken":6745,"ildren":6746,"ĠMolded":6747,"Ġdistilled":6748,"Chocolate":6749,"ĠStraws":6750,"60":6751,"Sh":6752,"Ġmachine":6753,"Ġfix":6754,"ĠBirds":6755,"Ġbroad":6756,"ĠSelect":6757,"ajita":6758,"Ġproduct":6759,"ĠCordon":6760,"Ġprocedure":6761,"Ġsilk":6762,"Ġgas":6763,"Ġstretch":6764,"Ġjun":6765,"shaped":6766,"ĠSalisbury":6767,"ĠNahum":6768,"Ġbrisk":6769,"ogenized":6770,"'ll":6771,"ti":6772,"utabag":6773,"ĠSue":6774,"ĠPass":6775,"ado":6776,"Ġpuddings":6777,"Ġsalads":6778,"ĠNumbers":6779,"ĠItal":6780,"Ġbulgur":6781,"ĠQueso":6782,"\")":6783,"Ġcould":6784,"ito":6785,"ĠPate":6786,"tops":6787,"Ġshaker":6788,"ĠLily":6789,"ĠHand":6790,"ĠCooler":6791,"ĠCreamettes":6792,"Ġperiod":6793,"Ġhollowed":6794,"ĠFillets":6795,"Ġdisappears":6796,"ĠArmour":6797,"gl":6798,"ipping":6799,"Ġsink":6800,"anks":6801,"Ġhouse":6802,"ĠRabb":6803,"ĠSplenda":6804,"Ġcovers":6805,"ĠThat":6806,"ĠMeatball":6807,"Ġcasing":6808,"Ġfasten":6809,"ĠSauterne":6810,"Ġshoestring":6811,"gotten":6812,"110":6813,"ditional":6814,"ically":6815,"ores":6816,"asts":6817,"ĠPaul":6818,"ava":6819,"ĠKrisp":6820,"ĠPimento":6821,"Ġsalts":6822,"ĠPicante":6823,"isquick":6824,"ĠWieners":6825,"cold":6826,"Ġcorner":6827,"osition":6828,"Ġhandling":6829,"Ġdrip":6830,"Ġbroiled":6831,"Ġwhisking":6832,"ĠTwice":6833,"Ġscraped":6834,"ĠOysters":6835,"ĠHobo":6836,"standing":6837,"fetti":6838,"andel":6839,"Ġfluff":6840,"ĠHa":6841,"Ġcomino":6842,"ngth":6843,"Ġflattened":6844,"ĠHarv":6845,"fait":6846,"ĠRabbit":6847,"Ġbought":6848,"Ġmatch":6849,"ĠBubble":6850,"aced":6851,"ĠDO":6852,"iment":6853,"reeze":6854,"Ġpicks":6855,"flake":6856,"Ġcontinuing":6857,"ĠCrowd":6858,"ĠSome":6859,"Ġsaucepot":6860,"ĠFriendship":6861,"ĠLush":6862,"Ġexp":6863,"ĠKabobs":6864,"ĠVegetarian":6865,"ĠForgotten":6866,"ĠFlip":6867,"Ġdippers":6868,"ĠMinutes":6869,"Ġbackfin":6870,"Ġdiscarding":6871,"ĠMillionaire":6872,"ĠJerky":6873,"augh":6874,"ĠChunky":6875,"ĠHarvard":6876,"Cl":6877,"Ġprop":6878,"ĠMarb":6879,"iener":6880,"ĠFries":6881,"Ġkale":6882,"Ġchervil":6883,"ĠThere":6884,"Ġcontains":6885,"Ġevaporates":6886,"ĠFloren":6887,"ĠMonster":6888,"Ġherbed":6889,"plet":6890,"zil":6891,"Ġfrench":6892,"raight":6893,"Ġcrumbles":6894,"ĠGingersnaps":6895,"Ġpeels":6896,"Ġgrilling":6897,"Crust":6898,"Ġpierced":6899,"stock":6900,"ĠRainbow":6901,"ĠSmothered":6902,"ities":6903,"rien":6904,"Ġrather":6905,"Ġsmashed":6906,"Ġparticles":6907,"rounded":6908,"Ġdrumsticks":6909,"Ġmanufacturer":6910,"agg":6911,"hard":6912,"mm":6913,"Ġsizes":6914,"oud":6915,"Ġve":6916,"raps":6917,"stuffed":6918,"iform":6919,"Ġexchange":6920,"ĠSherry":6921,"ĠButtercream":6922,"ĠRosemary":6923,"ĠRapidRise":6924,"Ġsat":6925,"Ġmouth":6926,"Ġdepends":6927,"ĠBush":6928,"ĠColor":6929,"Ġresem":6930,"ais":6931,"Ġpic":6932,"Ġfun":6933,"Ġfriend":6934,"ĠCry":6935,"Ġla":6936,"ĠPeople":6937,"Ġprune":6938,"Ġfrosted":6939,"Ġhomogenized":6940,"ĠBarley":6941,"Ġomitting":6942,"her":6943,"nam":6944,"son":6945,"tStir":6946,"Ġmine":6947,"ĠBottom":6948,"ĠTakes":6949,"ĠCovered":6950,"Ġimpro":6951,"Ġpercolator":6952,"Ġskewer":6953,"Ġbuck":6954,"Ġdirt":6955,"Ġpicked":6956,"Ġgetting":6957,"athy":6958,"Ġveggie":6959,"ĠBuffalo":6960,"vious":6961,"Ġgin":6962,"Ġuniform":6963,"ĠWacky":6964,"Ġseashell":6965,"ewh":6966,"Ġfinal":6967,"ĠButternut":6968,"ĠBrick":6969,"Ġpatience":6970,"ĠFinally":6971,"ablis":6972,"Ritz":6973,"grated":6974,"uke":6975,"Ġmatzo":6976,"rets":6977,"ĠTsp":6978,"ĠDeath":6979,"ĠHors":6980,"Ġbreadsticks":6981,"Ġserves":6982,"Ġappears":6983,"ĠOther":6984,"Ġturned":6985,"ĠDilly":6986,"ĠSmokies":6987,"Brien":6988,"ĠTen":6989,"ĠWet":6990,"weiger":6991,"Ġrav":6992,"ĠEvery":6993,"ĠJu":6994,"Ġspreadable":6995,"Ġmeasured":6996,"Ġsectioned":6997,"...":6998,"ĠRellenos":6999,"Corn":7000,"Egg":7001,"lite":7002,"min":7003,"Ġ=":7004,"ppos":7005,"Ġvegetarian":7006,"ĠFajitas":7007,"emble":7008,"ĠSauteed":7009,"Ġcannellini":7010,"Ġtrifle":7011,"eslaw":7012,"root":7013,"ĠMaster":7014,"verly":7015,"Ġthrow":7016,"Ġsoap":7017,"ĠGu":7018,"Ġbroiling":7019,"Ġgoing":7020,"Ġtamari":7021,"French":7022,"ĠBarb":7023,"ĠPep":7024,"ĠPig":7025,"ĠWinter":7026,"ĠFud":7027,"ression":7028,"ĠThins":7029,"fort":7030,"ĠBuckeyes":7031,"vegetable":7032,"On":7033,"pound":7034,"sm":7035,"roof":7036,"oot":7037,"illing":7038,"Ġrubbed":7039,"ĠBlender":7040,"Ġcoleslaw":7041,"prepared":7042,"ĠBrazil":7043,"Ġravioli":7044,"ince":7045,"Ġpaint":7046,"Ġmot":7047,"ands":7048,"Ġchurn":7049,"leans":7050,"ĠChablis":7051,"Ġspl":7052,"oleo":7053,"Ġrope":7054,"Ġstanding":7055,"120":7056,"ĠDozen":7057,"ĠCrisps":7058,"ĠHayst":7059,"gian":7060,"ica":7061,"Ġtost":7062,"ĠBut":7063,"ĠParm":7064,"Ġflesh":7065,"ĠRey":7066,"ĠFoil":7067,"ĠString":7068,"ĠLady":7069,"Ġletting":7070,"Serving":7071,"ĠExtra":7072,"Ġcrystall":7073,"Pe":7074,"ler":7075,"Ġsnapper":7076,"Ġminestrone":7077,"color":7078,"efish":7079,"Ġskimmed":7080,"Potato":7081,"Ġrequired":7082,"ĠBusy":7083,"orpor":7084,"Ġresemble":7085,"ĠReynold":7086,"Ġfound":7087,"itan":7088,"Ġsalty":7089,"ĠFun":7090,"Ġsem":7091,"ope":7092,"ĠOle":7093,"ĠBlanch":7094,"ĠShortening":7095,"ĠCarne":7096,"Ġcanner":7097,"Ġhamburgers":7098,"Ġburgers":7099,"Ġdecorative":7100,"ĠCrescents":7101,"serving":7102,"chweiger":7103,"wns":7104,"ĠFancy":7105,"ĠFunnel":7106,"Ġslab":7107,"ĠRolled":7108,"Ġstockpot":7109,"unschweiger":7110,"Ġfilo":7111,"ĠHello":7112,"ĠSunda":7113,"ĠLike":7114,"ĠRotate":7115,"Cream":7116,"ĠCrispies":7117,"itic":7118,"ĠBudd":7119,"ĠMust":7120,"Ġshot":7121,"ĠDole":7122,"Ġbeefy":7123,"ĠLin":7124,"Ġupon":7125,"ĠMost":7126,"Ġrip":7127,"aily":7128,"Ġhandfuls":7129,"Ġhardens":7130,"ĠUnwrap":7131,"ĠOrleans":7132,"ĠTotal":7133,"ĠBonbons":7134,"ething":7135,"opped":7136,"Ġcal":7137,"Ġbush":7138,"ouille":7139,"Ġ370":7140,"Ġgold":7141,"ĠBel":7142,"tose":7143,"Ġspiced":7144,"ĠBlan":7145,"Ġprevious":7146,"ĠNog":7147,"Ġbagels":7148,"ĠSlit":7149,"ĠRoyal":7150,"bite":7151,"Ġeff":7152,"raSweet":7153,"Ġthickest":7154,"Ġunderstanding":7155,"Ġsteamer":7156,"Ġsomewh":7157,"Ġchorizo":7158,"Ġbriskly":7159,"but":7160,"used":7161,"chi":7162,"Ġsafe":7163,"Ġplant":7164,"Ġarea":7165,"Ġsometimes":7166,"ira":7167,"pacho":7168,"Ġmight":7169,"Ġlye":7170,"Ġflo":7171,"ĠMull":7172,"rips":7173,"Ġricotta":7174,"Ġrutabag":7175,"eflon":7176,"ĠHorseradish":7177,"azpacho":7178,"ĠCongo":7179,"ĠPlain":7180,"Raisin":7181,"Ġmush":7182,"ora":7183,"Ġdaily":7184,"ĠMark":7185,"Ġstraight":7186,"ĠPeek":7187,"ructose":7188,"eather":7189,"Ġparboiled":7190,"American":7191,"slightly":7192,"Ġour":7193,"reak":7194,"Ġfructose":7195,"Ġforks":7196,"ĠBlossoms":7197,"uckle":7198,"Ġmethod":7199,"ĠCarolina":7200,"Ġbrewed":7201,"Ida":7202,"Very":7203,"Ġiced":7204,"ĠRose":7205,"ĠSpeed":7206,"ĠEvenly":7207,"Ġscrew":7208,"uchen":7209,"ĠComplet":7210,"Ġhoisin":7211,"Baked":7212,"Batter":7213,"Don":7214,"ippy":7215,"mber":7216,"tou":7217,"warm":7218,"Ġchoose":7219,"icient":7220,"ĠTap":7221,"Ġrinds":7222,"ĠChoco":7223,"alfa":7224,"ĠElegant":7225,"ĠFlorentine":7226,"High":7227,"falfa":7228,"gia":7229,"gran":7230,"Ġsuey":7231,"ĠGen":7232,"ĠNight":7233,"ĠReynolds":7234,"Mar":7235,"bel":7236,"tSp":7237,"Ġpol":7238,"amount":7239,"Ġlose":7240,"Ġcane":7241,"ĠWedges":7242,"urry":7243,"Ġalone":7244,"ĠFrosty":7245,"giving":7246,"Ġincorpor":7247,"ĠEvans":7248,"Sugar":7249,"gallon":7250,"vitic":7251,"Ġtines":7252,"Ġstain":7253,"Ġmark":7254,"ĠGazpacho":7255,"Ġalfalfa":7256,"Ġgingerbread":7257,"ĠNilla":7258,"ĠComstock":7259,"Ġweight":7260,"Ġstrength":7261,"viticus":7262,"Ġsuff":7263,"acing":7264,"stal":7265,"Ġcarob":7266,"ĠNuggets":7267,"ĠGreens":7268,"Ġpounded":7269,"Ġthreads":7270,"Ġsomewhat":7271,"Ġtots":7272,"rock":7273,"Ġsoggy":7274,"emi":7275,"Ġdoughnuts":7276,"ĠFruity":7277,"ĠGrahams":7278,"uscious":7279,"sprayed":7280,"cus":7281,"mly":7282,"Ġ27":7283,"asing":7284,"Ġvent":7285,"apes":7286,"ĠLove":7287,"ĠGram":7288,"Ġcroiss":7289,"Serve":7290,"hydrate":7291,"Ġpierce":7292,"Ġquantity":7293,"ati":7294,"ouda":7295,"Ġeyes":7296,"heasant":7297,"ĠMam":7298,"oman":7299,"ĠVien":7300,"ĠCorning":7301,"Ġacini":7302,"Ġtoweling":7303,"bean":7304,"ĠTartar":7305,"ĠItaliano":7306,"Make":7307,"make":7308,"rano":7309,"Ġrain":7310,"Ġsilver":7311,"Ġhum":7312,"raine":7313,"Ġstop":7314,"Ġshank":7315,"Ġshanks":7316,"anta":7317,"eye":7318,"ĠFlank":7319,"ĠNutmeg":7320,"ĠCloud":7321,"ĠPlus":7322,"ĠDirty":7323,"Vegetab":7324,"Ġfajita":7325,"tery":7326,"Ġgolf":7327,"Ġvol":7328,"ĠChutney":7329,"ĠDuck":7330,"ĠDark":7331,"acker":7332,"Ġcaramelized":7333,"ĠWorking":7334,"ĠWaverly":7335,"makes":7336,"ĠMounds":7337,"Ġmince":7338,"vender":7339,"ĠGall":7340,"plus":7341,"ĠMiniature":7342,"Ġshavings":7343,"ĠFettucini":7344,"Ġstorage":7345,"ĠGeorgia":7346,"Ġpopsicle":7347,"ĠGlorified":7348,"Ġregisters":7349,"(\"":7350,"soup":7351,"Ġcacao":7352,"ĠFruited":7353,"ĠConfetti":7354,"ĠMargar":7355,"Ġ234":7356,"ĠThanks":7357,"ĠLorraine":7358,"ĠParmig":7359,"Pepper":7360,"touffee":7361,"lin":7362,"ura":7363,"Ġmicro":7364,"Ġfig":7365,"ĠSex":7366,"ĠSubstitute":7367,"Ġladle":7368,"ĠDad":7369,"iman":7370,"Ġcare":7371,"estyle":7372,"ĠSweetened":7373,"Ġdeluxe":7374,"ĠEspresso":7375,"ias":7376,"lt":7377,"layer":7378,"sal":7379,"tip":7380,"tips":7381,"Ġtied":7382,"Ġbuy":7383,"Ġfrit":7384,"Ġlaugh":7385,"Ġdoughnut":7386,"ĠThrow":7387,"Ġproof":7388,"ĠBlonde":7389,"Ġtongs":7390,"Ġsufficient":7391,"Yum":7392,"ĠQ":7393,"ĠTeflon":7394,"ids":7395,"ifter":7396,"Ġhalve":7397,"ĠJean":7398,"Ġrecomm":7399,"Ġdiamond":7400,"ĠNutraSweet":7401,"Ġburrito":7402,"Club":7403,"cous":7404,"either":7405,"fold":7406,"Ġbu":7407,"amels":7408,"lycer":7409,"ĠFool":7410,"Ġdrying":7411,"saiah":7412,"ĠAlas":7413,"Ġscalding":7414,"ĠPlan":7415,"Ġscramble":7416,"ĠThanksgiving":7417,"cks":7418,"tD":7419,"Ġmacaroons":7420,"atel":7421,"ĠBoy":7422,"ĠTips":7423,"Ġunroll":7424,"using":7425,"Ġroughy":7426,"ida":7427,"ĠLee":7428,"member":7429,"ĠBrandy":7430,"Ġsnap":7431,"ugu":7432,"ĠNeiman":7433,"ĠLastly":7434,"--":7435,"ca":7436,"tor":7437,"Ġton":7438,"Ġtreat":7439,"Ġmas":7440,"Ġgizz":7441,"Ġunseasoned":7442,"Ġnor":7443,"ĠWel":7444,"Ġjuiced":7445,"Ġcracks":7446,"Ġqts":7447,"ouscous":7448,"reserving":7449,"Ġfilet":7450,"ĠBraised":7451,"ĠJohnny":7452,"skinless":7453,"Ġdetergent":7454,"Ġindentation":7455,"ĠHappy":7456,"ĠHaystacks":7457,"Ġvolume":7458,"house":7459,"popped":7460,"Ġtra":7461,"arole":7462,"Ġ38":7463,"Ġhus":7464,"Ġcrimp":7465,"Ġthose":7466,"ĠOregano":7467,"Ġtabasco":7468,"ĠAla":7469,"Ġnever":7470,"ĠOptional":7471,"ĠJewish":7472,";\\":7473,"Cool":7474,"garlic":7475,"sprinkle":7476,"Ġglycer":7477,"Ġnuggets":7478,"Ġwhiz":7479,"ĠInn":7480,"Ġking":7481,"ĠShoo":7482,"Ġrecipes":7483,"Ġfolded":7484,"Ġcrockpot":7485,"ĠCrepes":7486,"ylv":7487,"Ġcourse":7488,"Ġstainless":7489,"non":7490,"real":7491,"Ġunwrapped":7492,"ucks":7493,"ĠRounds":7494,"ĠChildren":7495,"Ġ64":7496,"ĠLuscious":7497,"ĠGouda":7498,"ĠEtouffee":7499,"ĠButtered":7500,"Ġhardened":7501,"ĠSnowballs":7502,"ĠSouthwestern":7503,"ĠSundae":7504,"Oeuvres":7505,"Pre":7506,"aut":7507,"aur":7508,"rat":7509,"Ġread":7510,"Ġchanges":7511,"ĠPur":7512,"Ġminus":7513,"iest":7514,"ĠOwn":7515,"kets":7516,"ĠGrass":7517,"Ġadditions":7518,"Ġunsliced":7519,"ĠHeart":7520,"uguese":7521,"Gr":7522,"Ġsand":7523,"Ġwid":7524,"ĠSanta":7525,"ometimes":7526,"aper":7527,"Ġ160":7528,"Ġquality":7529,"Ġpinching":7530,"Ġbringing":7531,"ĠPeppermint":7532,"type":7533,"ĠSteamed":7534,"Ġdecorating":7535,"Ġholidays":7536,"Ġpicnic":7537,"Inch":7538,"dark":7539,"sour":7540,"Ġpli":7541,"Ġpurch":7542,"ĠCor":7543,"redded":7544,"Ġbakes":7545,"arshmallow":7546,"ĠBrowns":7547,"Ġperfect":7548,"ĠFantasy":7549,"Ġmembrane":7550,"Ġdelicately":7551,"ĠIdaho":7552,"Ġjunior":7553,"ĠSpeedy":7554,"book":7555,"cub":7556,"wood":7557,"Ġoppos":7558,"original":7559,"ioneer":7560,"ĠMember":7561,"Ġsmoothly":7562,"Ġgives":7563,"Ġkindness":7564,"ĠSmoothie":7565,"ĠHamburgers":7566,"Bean":7567,"ĠCenter":7568,"umn":7569,"ĠOats":7570,"ĠKet":7571,"ĠTopped":7572,"Ġpineapples":7573,"Ġbasic":7574,"Ġgoose":7575,"isweet":7576,"ĠDolly":7577,"Ġhotter":7578,"Ġcling":7579,"ĠCaramels":7580,"according":7581,"ĠSecrets":7582,"rect":7583,"ĠTwinkie":7584,"ĠBox":7585,"Ġfeet":7586,"ĠBonnet":7587,"Ġeffect":7588,"han":7589,"Ġgame":7590,"Ġmints":7591,"Ġalcohol":7592,"Ġpapaya":7593,"Ġpinches":7594,"ĠDribble":7595,"Ġsifting":7596,"ĠWatermelon":7597,"ibby":7598,"ĠAlmonds":7599,"Cookies":7600,"yler":7601,"Ġbrickle":7602,"Appetizer":7603,"ĠLinda":7604,"Vegetable":7605,"after":7606,"rice":7607,"tie":7608,"Ġsifter":7609,"Ġwipe":7610,"level":7611,"alloped":7612,"ĠStrips":7613,"Ġcracklings":7614,"Ġheal":7615,"indow":7616,"Ġaccom":7617,"ĠPopovers":7618,"Ġcircular":7619,"Ġvegies":7620,"ĠCrystal":7621,"follow":7622,"lins":7623,"luck":7624,"tB":7625,"tto":7626,"Ġmult":7627,"rol":7628,"illi":7629,"Ġmins":7630,"ooks":7631,"ĠChi":7632,"ĠOR":7633,"Ġplay":7634,"Ġprebaked":7635,"Ġencl":7636,"Ġcolada":7637,"Ġomitted":7638,"two":7639,"Ġcrystallized":7640,"ĠParmigiana":7641,"Ġpliable":7642,"Dough":7643,"Lime":7644,"si":7645,"Ġtanger":7646,"aring":7647,"Ġdred":7648,"ĠBak":7649,"Ġhun":7650,"ĠAut":7651,"chatel":7652,"armalade":7653,"ĠGri":7654,"ĠStewed":7655,"print":7656,"Ġsemisweet":7657,"Ġopposite":7658,"Coc":7659,"Yield":7660,"squ":7661,"Ġpu":7662,"onz":7663,"Ġgent":7664,"raspberry":7665,"Ġatt":7666,"should":7667,"Ġable":7668,"Ġ240":7669,"Ġscald":7670,"Ġdoubles":7671,"ĠVeggies":7672,"Ġsomething":7673,"ripture":7674,"Ġ110":7675,"Ġpass":7676,"uture":7677,"ades":7678,"Ġoverlap":7679,"Ġspooning":7680,"ample":7681,"ĠSnowball":7682,"ufchatel":7683,"ĠPicnic":7684,"Fly":7685,"deep":7686,"mo":7687,"pour":7688,"ania":7689,"Ġfeel":7690,"Ġpepperon":7691,"imate":7692,"acher":7693,"rinkles":7694,"ardi":7695,"reshing":7696,"ĠJif":7697,"issolved":7698,"ĠScripture":7699,"Ġcrepes":7700,"Ġhelps":7701,"Note":7702,"only":7703,"Ġfuture":7704,"leaf":7705,"ĠChef":7706,"ĠButterfingers":7707,"Ġscore":7708,"Mixture":7709,"Ġcollard":7710,"Ġdraft":7711,"Ġob":7712,"ona":7713,"ĠBB":7714,"ĠChurch":7715,"ĠStar":7716,"ĠUnder":7717,"ĠUnbaked":7718,"Ġsubstitutes":7719,"ĠRusset":7720,"Ġcreate":7721,"Ġbright":7722,"Ġmangoes":7723,"floured":7724,"Beef":7725,"Ġreplacement":7726,"!).":7727,"Ġcured":7728,"Ġpen":7729,"Ġpepe":7730,"ĠBill":7731,"ĠPit":7732,"ĠPioneer":7733,"ĠAle":7734,"ĠZiti":7735,"whipped":7736,"Ġplaces":7737,"Ġpockets":7738,"Ġguests":7739,"Ġjigger":7740,"ĠPepsi":7741,"Ġbushel":7742,"'ve":7743,"He":7744,"Sa":7745,"bled":7746,"bottom":7747,"hal":7748,"Ġcase":7749,"Ġmic":7750,"ĠMicro":7751,"ĠMarmalade":7752,"Ġthing":7753,"ffe":7754,"Ġclusters":7755,"ĠOw":7756,"ively":7757,"ĠUncooked":7758,"Ġcrepe":7759,"Servings":7760,"Old":7761,"divided":7762,"iber":7763,"sifted":7764,"ues":7765,"ze":7766,"Ġtater":7767,"Ġbutterf":7768,"bert":7769,"ĠWhirl":7770,"Ġcutlet":7771,"Ġslight":7772,"ĠElephant":7773,"roproof":7774,"Ġbagel":7775,"Ġgloves":7776,"ĠBeefy":7777,"ĠSweeten":7778,"Ġdampened":7779,"ĠHelen":7780,"Ġxxxx":7781,"glass":7782,"Ġsplash":7783,"Coconut":7784,"Ġmicroproof":7785,"Pean":7786,"ero":7787,"ented":7788,"Ġau":7789,"Ġaverage":7790,"Ġcontrol":7791,"extra":7792,"Ġ360":7793,"ĠJane":7794,"ĠBBQ":7795,"ĠSin":7796,"ĠPaint":7797,"ĠDan":7798,"ĠGum":7799,"ĠBroth":7800,"ĠNana":7801,"rowroot":7802,"Ġbraunschweiger":7803,"arrots":7804,"ĠKrispie":7805,"ĠTapioca":7806,"Ġlaughter":7807,"Pam":7808,"hold":7809,"Ġsimple":7810,"Ġbirds":7811,"atelli":7812,"Ġthink":7813,"ĠFit":7814,"ĠLace":7815,"aches":7816,"Ġscatter":7817,"Ġarr":7818,"ĠCrustless":7819,"Ġ238":7820,"ĠEscalloped":7821,"lers":7822,"Ġbor":7823,"iles":7824,"spic":7825,"ĠSilk":7826,"Ġminimum":7827,"Ġstuck":7828,"Ġgrater":7829,"Ġsoaking":7830,"Ġbody":7831,"Ġconven":7832,"Ġisn":7833,"ĠKuchen":7834,"Ġcontinually":7835,"Mexican":7836,"Marcus":7837,"Hot":7838,"tCook":7839,"Ġtacos":7840,"esis":7841,"Ġaj":7842,"illo":7843,"ĠIsaiah":7844,"liquid":7845,"Ġpreparation":7846,"ĠTofu":7847,"ĠSear":7848,"scar":7849,"ĠQuickie":7850,"unsalted":7851,"ĠCloves":7852,"ĠKidney":7853,"Ġescarole":7854,"Del":7855,"drop":7856,"tT":7857,"Ġpra":7858,"Ġmugs":7859,"ouff":7860,"spread":7861,"oma":7862,"thick":7863,"ĠWare":7864,"ĠSteep":7865,"Ġshreds":7866,"ĠPrecook":7867,"ĠNon":7868,"Ġenamel":7869,"ĠYam":7870,"Ġarrowroot":7871,"ĠStop":7872,"ystery":7873,"ordfish":7874,"Ġrainbow":7875,")(":7876,"Cauliflower":7877,"Crock":7878,"Me":7879,"Rec":7880,"Soup":7881,"ital":7882,"raft":7883,"ĠIced":7884,"Ġyet":7885,"coated":7886,"Ġang":7887,"ossum":7888,"Ġdropping":7889,"ĠFirmly":7890,"strawberries":7891,"ĠHillshire":7892,"naments":7893,"ylvania":7894,"ĠKetchup":7895,"ĠAutumn":7896,"sylvania":7897,"ĠAss":7898,"Ġsteady":7899,"ĠLibby":7900,"shredded":7901,"Ġbouquet":7902,"Ġsecret":7903,"ford":7904,"Ġtriple":7905,"Ġstrings":7906,"ĠManwich":7907,"Ġdecorations":7908,"creamy":7909,"ĠLinguini":7910,"Ġdistributed":7911,"Moist":7912,"ĠFoolproof":7913,"Ġgizzards":7914,"Peanut":7915,"Let":7916,"With":7917,"br":7918,"almon":7919,"Ġfar":7920,"ĠCrinkles":7921,"ĠSize":7922,"ĠBark":7923,"ĠMystery":7924,"ĠOscar":7925,"ĠNectar":7926,"Ġchilling":7927,"ĠChoy":7928,"istrib":7929,"Ġpina":7930,"ĠMarinara":7931,"ĠPlant":7932,"ĠCrem":7933,"ĠChewies":7934,"Ġvarious":7935,"Ġjoint":7936,"ĠChestnuts":7937,"ĠMarble":7938,"ĠMulled":7939,".;":7940,"banana":7941,"Ġpile":7942,"Ġdots":7943,"ĠPres":7944,"Ġhors":7945,"ĠJumbo":7946,"ĠCheesecakes":7947,"Ġhandled":7948,"ĠCrushed":7949,"ĠDonuts":7950,"Ġfingertips":7951,"Ġsaucer":7952,"ĠGoes":7953,"smooth":7954,"ĠPlanters":7955,"Ġgentle":7956,"ĠOwens":7957,"uting":7958,"gges":7959,"Ġnect":7960,"Ġexten":7961,"Ġfinally":7962,"fectioners":7963,"Ġchestnut":7964,"ĠApproximately":7965,"ĠDorito":7966,"Ġwraps":7967,"ĠNeufchatel":7968,"ĠLeviticus":7969,"broken":7970,"ĠTruff":7971,"Ġsnacks":7972,"Ġproper":7973,"ĠCompletely":7974,"granulated":7975,"arshmallows":7976,"ĠGriff":7977,"Ġpepperoncini":7978,"istribute":7979,"Velveeta":7980,"zos":7981,"itting":7982,"ĠWyler":7983,"Ġspear":7984,"ĠSpry":7985,"Ġwhitefish":7986,"Ġcond":7987,"arines":7988,"Ġconsider":7989,"ĠCrumbs":7990,"ĠFettucine":7991,"Gl":7992,"Jack":7993,"apped":7994,"must":7995,"andar":7996,"Ġfur":7997,"Ġfield":7998,"ĠTarragon":7999,"Ġunpopped":8000,"Ġgratin":8001,"ĠWeek":8002,"ĠNice":8003,"ogi":8004,"unsifted":8005,"ĠWilli":8006,"ĠWheaties":8007,"Ġfitted":8008,"rize":8009,"Ġ260":8010,"Recipe":8011,"Un":8012,"tuntil":8013,"Ġcouscous":8014,"Ġbud":8015,"Ġpare":8016,"ĠSort":8017,"ĠPita":8018,"Ġher":8019,"rif":8020,"Ġbutcher":8021,"Ġpintos":8022,"Ġitself":8023,"ingersnap":8024,"wheel":8025,"ĠCharl":8026,"ĠBrickle":8027,"ltimate":8028,"250":8029,"mies":8030,"wash":8031,"ĠCam":8032,"imin":8033,"Ġsource":8034,"ĠCutlets":8035,"cean":8036,"ĠCornflake":8037,"Ġ170":8038,"ride":8039,"Ġribbon":8040,"tPlace":8041,"ĠVienna":8042,"Duncan":8043,"zetti":8044,"Ġhush":8045,"ells":8046,"elly":8047,"tilage":8048,"nda":8049,"Ġrelease":8050,"ĠFle":8051,"ided":8052,"Ġheatproof":8053,"ĠGather":8054,"Ġcarne":8055,"shake":8056,"ĠUltimate":8057,"Ġbrunch":8058,"Ġfourth":8059,"eggs":8060,"ĠDilled":8061,"ĠScrambled":8062,"Ġburritos":8063,"Ġcountertop":8064,"Ġcollards":8065,"ĠMadeira":8066,"Ġnectarines":8067,"Ro":8068,"fire":8069,"ugel":8070,"Ġchopping":8071,"ieved":8072,"ĠDistribute":8073,"ĠSprouts":8074,"emove":8075,"ĠEven":8076,"undle":8077,"ĠGrey":8078,"anged":8079,"ĠCompot":8080,"ĠLogs":8081,"ĠPortuguese":8082,"Ġfeels":8083,"Ġrecommended":8084,"andarins":8085,"31":8086,"bably":8087,"gra":8088,"loaf":8089,"neck":8090,"tata":8091,"wie":8092,"Ġcamp":8093,"Ġface":8094,"ĠCant":8095,"ĠBundles":8096,"isch":8097,"ĠAspic":8098,"Ġattract":8099,"ĠRest":8100,"ĠDian":8101,"ecially":8102,"ĠThumb":8103,"Ġseparating":8104,"ividual":8105,"Ġgrainy":8106,"ĠMarshmallows":8107,"ĠGlass":8108,"ĠEnough":8109,"crumbled":8110,"ĠArtichokes":8111,"ĠParker":8112,"Ġbuttons":8113,"bbles":8114,"ĠBorax":8115,"andelion":8116,"ĠGriffin":8117,"An":8118,"Op":8119,"wine":8120,"Ġtend":8121,"ĠSop":8122,"Ġgift":8123,"urkey":8124,"Ġcartilage":8125,"wegian":8126,"antime":8127,"lied":8128,"ĠEas":8129,"oiled":8130,"ĠDoes":8131,"urtles":8132,"Ġbulb":8133,"ĠRequ":8134,"Ġgoat":8135,"ĠPennsylvania":8136,"ĠMostaccioli":8137,"ĠCompote":8138,"Tom":8139,"Ġbibb":8140,"Ġbisquick":8141,"Ġmiracle":8142,"ref":8143,"raisins":8144,"ĠWest":8145,"ĠWagon":8146,"ĠViv":8147,"ĠNature":8148,"ĠYear":8149,"fulness":8150,"Ġcompressed":8151,"ĠFlounder":8152,"irty":8153,"ĠComfort":8154,"ĠSnicker":8155,"raten":8156,"Col":8157,"Fl":8158,"My":8159,"Ġgher":8160,"ĠBird":8161,"uncovered":8162,"Ġhad":8163,"omargarine":8164,"iev":8165,"ĠWindow":8166,"Ġspots":8167,"pplement":8168,"ĠHens":8169,"opez":8170,"coc":8171,"Ġoleomargarine":8172,"board":8173,"Ġdumpling":8174,"ĠLiquid":8175,"ĠCaviar":8176,"Ġbucket":8177,"ĠFudgy":8178,"Ġpurchased":8179,"ĠCremora":8180,"Banana":8181,"four":8182,"Ġcy":8183,"ĠCola":8184,"Ġage":8185,"ĠPost":8186,"ĠTer":8187,"Ġchoy":8188,"ĠFire":8189,"quarts":8190,"Ġdishpan":8191,"napp":8192,"roximate":8193,"blue":8194,"ĠCrusty":8195,"addy":8196,"ĠMaraschino":8197,"Ġchecking":8198,"ĠQuesad":8199,"powdered":8200,"Ġfritters":8201,"Best":8202,"Ex":8203,"Ener":8204,"Ġut":8205,"Ġpray":8206,"Ġma":8207,"Ġmandarins":8208,"ĠTurtles":8209,"Ġvis":8210,"ethod":8211,"Ġthinned":8212,"ĠRanger":8213,"asta":8214,"measure":8215,"ĠGod":8216,"Ġclaw":8217,"Ġpatted":8218,"stituted":8219,"ĠSmash":8220,"Ġcasings":8221,"Ġcurdle":8222,"ĠSuccess":8223,"Energy":8224,"27":8225,"lice":8226,"chunk":8227,"veness":8228,"ersion":8229,"boiling":8230,"ĠTrash":8231,"ĠBlanket":8232,"eter":8233,"found":8234,"long":8235,"Ġbundle":8236,"iter":8237,"ĠSol":8238,"ĠPen":8239,"Ġcobbler":8240,"ĠWrapped":8241,"ifts":8242,"ĠLopez":8243,"Ġkaro":8244,"ĠOur":8245,"lett":8246,"Ġdirection":8247,"ĠBreaded":8248,"Ġmashing":8249,"ĠForest":8250,"ĠFlor":8251,"ĠPatch":8252,"Ġacting":8253,"aiqu":8254,"Ġliner":8255,"ĠMaryland":8256,"ignon":8257,"Ġpalms":8258,"ĠGeorge":8259,"Ġsquirrels":8260,"Ġmotion":8261,"wieback":8262,"ischmann":8263,"Eagle":8264,"Ham":8265,"We":8266,"twith":8267,"intz":8268,"Ġtre":8269,"ĠSus":8270,"ixie":8271,"ĠPa":8272,"ĠPi":8273,"ĠPock":8274,"ĠPigs":8275,"Ġnine":8276,"Ġshaping":8277,"Ġren":8278,"Ġsear":8279,"Ġclings":8280,"weetened":8281,"ĠSau":8282,"Ġsettle":8283,"ĠPears":8284,"Ġfatback":8285,"Ġcroquettes":8286,"ĠSugared":8287,"Ġallowed":8288,"Ġretain":8289,"ĠMarie":8290,"Ġstacks":8291,"ĠPuritan":8292,"Ġenclose":8293,"ĠWilliams":8294,"marshmallows":8295,"salted":8296,"Ġsac":8297,"Ġtropical":8298,"Ġpheasant":8299,"Ġdef":8300,"ĠSens":8301,"Ġgreasing":8302,"stems":8303,"quarter":8304,"ĠIi":8305,"Ġyear":8306,"ĠHolly":8307,"ulous":8308,"ĠKosher":8309,"Ġstandard":8310,"erbraten":8311,"ĠClams":8312,"added":8313,"Ġrotelle":8314,"ĠSeafoam":8315,"ĠSecret":8316,"Ġpersimmons":8317,"Ġsmoking":8318,"Ġincorporated":8319,"Pepperidge":8320,"napps":8321,"iri":8322,"seed":8323,"separ":8324,"virgin":8325,"Ġarm":8326,"Ġswe":8327,"Ġpizzas":8328,"onstituted":8329,"Ġwiener":8330,"itake":8331,"ĠPrize":8332,"usually":8333,"Ġhang":8334,"Ġ42":8335,"Ġseem":8336,"ĠWhipping":8337,"ĠKl":8338,"ĠGrap":8339,"ĠCanapes":8340,"dobo":8341,"Ġtrip":8342,"ĠAntip":8343,"Swiss":8344,"Ġrutabaga":8345,"cubed":8346,"450":8347,"Car":8348,"filled":8349,"ls":8350,"Ġtarts":8351,"Ġmess":8352,"Ġmang":8353,"Ġfo":8354,"ĠSally":8355,"ĠTemperature":8356,"ĠTuck":8357,"Ġgram":8358,"ĠWreath":8359,"iments":8360,"Ġcone":8361,"ĠWhiskey":8362,"ĠEm":8363,"ĠKar":8364,"blend":8365,"Ġmarinating":8366,"ĠOlives":8367,"ĠSandies":8368,"giveness":8369,"ĠCarbo":8370,"Ġsatiny":8371,"Ġcroissants":8372,"Ġborder":8373,"ĠFlorida":8374,"Ġcatch":8375,"asto":8376,"ĠSan":8377,"ĠBour":8378,"allions":8379,"ĠRat":8380,"Ġcobs":8381,"Ġrame":8382,"abulous":8383,"ĠFri":8384,"Ġzip":8385,"Ġscalloped":8386,"ĠMarzetti":8387,"ĠMaid":8388,"ĠFlavored":8389,"Ġmangos":8390,"aid":8391,"Ġbass":8392,"Ġgifts":8393,"Ġcanister":8394,"ĠDav":8395,"ĠVan":8396,"ĠPrep":8397,"ĠNancy":8398,"Ġcompany":8399,"Ġcomple":8400,"ĠScott":8401,"azing":8402,"reserved":8403,"ĠRaise":8404,"Ġscooped":8405,"Ġpulled":8406,"Ġrisen":8407,"ĠSuperMoist":8408,"Ġappearance":8409,"Ġsimmers":8410,"ĠSouthwest":8411,"Ġmembranes":8412,"Ġwheel":8413,"aurant":8414,"italini":8415,"Lo":8416,"fitting":8417,"ging":8418,"ĠCle":8419,"eller":8420,"ria":8421,"ĠFe":8422,"Ġadds":8423,"inny":8424,"ĠHen":8425,"ĠSerrano":8426,"ĠEither":8427,"Ġscraps":8428,"Ġdribble":8429,"ranberry":8430,"oyal":8431,"ĠSeparately":8432,"Ġsqueezing":8433,"ĠStromb":8434,"pected":8435,"Ġcitric":8436,"metal":8437,"Ġstoring":8438,"imply":8439,"uski":8440,"Ġaccompan":8441,"Ġcycle":8442,"Co":8443,"Che":8444,"Oatmeal":8445,"wd":8446,"include":8447,"Ġtim":8448,"rown":8449,"ĠMich":8450,"Ġhere":8451,"tosh":8452,"ches":8453,"ĠCooker":8454,"ĠKugel":8455,"Ġdevelop":8456,"ĠTurnovers":8457,"ĠReally":8458,"ĠRuby":8459,"aturated":8460,"overnight":8461,"ĠFasten":8462,"Ġimproves":8463,"refriger":8464,"425":8465,"__":8466,"ceed":8467,"gan":8468,"mini":8469,"mettes":8470,"ward":8471,"Ġmove":8472,"Ġmalt":8473,"ils":8474,"icil":8475,"amarina":8476,"Ġdressed":8477,"Ġrose":8478,"ĠSalami":8479,"Ġraised":8480,"Ġcrook":8481,"ĠWithout":8482,"Ġhighest":8483,"ĠFarms":8484,"Ġfettuccini":8485,"Ġways":8486,"ĠFrittata":8487,"ikk":8488,"ĠFrank":8489,"Ġhowever":8490,"ĠCavender":8491,"Ġbittersweet":8492,"Ġpetite":8493,"Ġsteps":8494,"ĠRatat":8495,"fts":8496,"semi":8497,"Ġpig":8498,"ĠMacaroon":8499,"Ġbeaut":8500,"ĠRav":8501,"ago":8502,"tthe":8503,"ĠKol":8504,"ĠPotluck":8505,"Ġrid":8506,"mium":8507,"ĠOnly":8508,"Ġbitters":8509,"ielbasi":8510,"beater":8511,"ĠHealth":8512,"Ġshoe":8513,"ĠSchool":8514,"ynes":8515,"firm":8516,"Ġhusks":8517,"Ġmulti":8518,"Ġpuppies":8519,"ĠSauerbraten":8520,"ĠCarbohydrate":8521,"ĠRatatouille":8522,"Ġbeautif":8523,"85":8524,"Fruit":8525,"Fail":8526,"Save":8527,"best":8528,"equal":8529,"neath":8530,"Ġfarm":8531,"Ġtoaster":8532,"Ġunused":8533,"Ġstars":8534,"Ġwatery":8535,"oupon":8536,"inks":8537,"Ġtenderized":8538,"ĠAlways":8539,"Ġunderneath":8540,"Ġpral":8541,"ĠNorwegian":8542,"Ġlifting":8543,"Ġpresweetened":8544,"ĠGumdrop":8545,"ĠAntipasto":8546,"carrots":8547,"nie":8548,"Ġbundles":8549,"ĠColl":8550,"ĠTemp":8551,"ĠMango":8552,"usilli":8553,"ados":8554,"ires":8555,"ĠRig":8556,"ĠDec":8557,"ĠDaddy":8558,"ĠWat":8559,"Ġblossoms":8560,"Ġcarbo":8561,"Ġkabobs":8562,"ĠCreams":8563,"ĠVerm":8564,"Ġsoya":8565,"vaporated":8566,"Ġparfait":8567,"tmix":8568,"ĠPolynes":8569,"ĠSchnapps":8570,"tCombine":8571,"ĠFleischmann":8572,"Optional":8573,"Mon":8574,"Red":8575,"iitake":8576,"lo":8577,"Ġmid":8578,"atic":8579,"itter":8580,"Ġdull":8581,"ĠPoupon":8582,"ders":8583,"irth":8584,"etic":8585,"colates":8586,"ĠCod":8587,"Ġsweetness":8588,"Ġotherwise":8589,"ĠDivine":8590,"ville":8591,"ĠBurrito":8592,"Ġdrinking":8593,"Ġreseal":8594,"These":8595,"ĠSpritz":8596,"tPut":8597,"tCover":8598,"coholic":8599,"ĠFantastic":8600,"Mozzarella":8601,"Ġupper":8602,"ĠSicil":8603,"ooey":8604,"Ġhope":8605,"Ġsto":8606,"Ġstops":8607,"changes":8608,"chuck":8609,"that":8610,"stead":8611,"Ġhearty":8612,"Ġsquirt":8613,"ĠFlan":8614,"ational":8615,"ĠChilies":8616,"ĠLeaves":8617,"ĠAmos":8618,"Ġshortbread":8619,"ĠPorcupines":8620,"ĠRomaine":8621,"ĠQue":8622,"Ġconsideration":8623,"Ġfurther":8624,"ĠStromboli":8625,"ĠPolynesian":8626,"33":8627,"both":8628,"pint":8629,"ili":8630,"Ġinverted":8631,"ĠCab":8632,"ĠPul":8633,"Ġeggbeater":8634,"then":8635,"Ġrubb":8636,"Ġbok":8637,"ĠFabulous":8638,"ĠStrip":8639,"Ġyum":8640,"ĠLunch":8641,"Ġkrispies":8642,"Ġhammer":8643,"ĠJumb":8644,"Ġplan":8645,"ĠNeed":8646,"ĠConfectioners":8647,"ĠBrew":8648,"ranean":8649,"anner":8650,"ĠCroutons":8651,"Ġcrystal":8652,"ĠIndividual":8653,"bbie":8654,"ĠEspecially":8655,"ĠBuddig":8656,"Ġprawns":8657,"Glazed":8658,"Ġattractive":8659,"Tomato":8660,"Ġvisible":8661,"iterranean":8662,".'":8663,".*":8664,"band":8665,"good":8666,"ha":8667,"pine":8668,"eros":8669,"Ġtemper":8670,"Ġtemp":8671,"Ġbias":8672,"reen":8673,"Ġdoves":8674,"Ġditalini":8675,"ĠSimply":8676,"Ġlife":8677,"ĠPosition":8678,"ĠTe":8679,"verbs":8680,"third":8681,"Ġwho":8682,"ĠDrum":8683,"ĠFont":8684,"Ġyears":8685,"ify":8686,"Ġbreaded":8687,"ĠGor":8688,"agie":8689,"ecake":8690,"Ġcolorful":8691,"Ġprobably":8692,"Ġmeantime":8693,"Ġinstructed":8694,"ĠMediterranean":8695,"Ġcitrus":8696,"iodized":8697,"Camp":8698,"Dish":8699,"Its":8700,"Mushroom":8701,"turn":8702,"Ġmellow":8703,"atini":8704,"ĠBug":8705,"unks":8706,"ĠAgain":8707,"omit":8708,"Ġnog":8709,"ĠDixie":8710,"ansas":8711,"ĠHickory":8712,"ĠCoffe":8713,"Ġclay":8714,"Ġmeatless":8715,"Ġsmell":8716,"ĠThick":8717,"ensive":8718,"ifteen":8719,"udel":8720,"ĠSeas":8721,"ĠEggless":8722,"ĠJacks":8723,"oya":8724,"ĠSnap":8725,"Ġ236":8726,"Ġpersonal":8727,"Intosh":8728,"ĠJudy":8729,"Ġdisappear":8730,"Sausage":8731,"Ġangle":8732,"ĠDiane":8733,"ĠViva":8734,"Ready":8735,"So":8736,"awn":8737,"cool":8738,"cord":8739,"Ġsince":8740,"ane":8741,"Ġwreath":8742,"ĠCatsup":8743,"ĠBow":8744,"ucc":8745,"tsugar":8746,"Ġthough":8747,"ĠRipe":8748,"Ġselec":8749,"ĠSparkling":8750,"orean":8751,"Ġspooned":8752,"Ġsauteing":8753,"ĠSmoke":8754,"Ġgiving":8755,"Ġgarbanzos":8756,"Ġwilt":8757,"ĠWilted":8758,"ĠGenesis":8759,"Ġramekins":8760,"Ġcrookneck":8761,"ĠWatkins":8762,"mar":8763,"ni":8764,"pork":8765,"Ġfriendship":8766,"Ġducks":8767,"ĠSur":8768,"Ġever":8769,"ĠBurn":8770,"ĠMas":8771,"ĠJon":8772,"ollo":8773,"Ġconfectioner":8774,"Ġsurfaces":8775,"Ġsolids":8776,"Ġpulling":8777,"Ġdampen":8778,"ĠParfait":8779,"Ġstraws":8780,"Ġpetals":8781,"arrot":8782,"Ġfoams":8783,"ĠFontina":8784,"Cut":8785,"ER":8786,"bacon":8787,"cand":8788,"herb":8789,"sift":8790,"Ġbuff":8791,"Ġmanner":8792,"reck":8793,"ĠMayer":8794,"ĠAdditional":8795,"ĠDab":8796,"Ġrear":8797,"ĠIng":8798,"ĠSlide":8799,"Ġstiffen":8800,"crack":8801,"ĠToasties":8802,"beans":8803,"Ġscrub":8804,"ĠBacardi":8805,"Ġdepression":8806,"ĠRavioli":8807,"irthday":8808,"64":8809,"bles":8810,"double":8811,"fruit":8812,"homemade":8813,"ki":8814,"Ġ)":8815,"Ġide":8816,"Ġsing":8817,"Ġease":8818,"ĠBible":8819,"ungreased":8820,"ĠTrout":8821,"ĠRis":8822,"ĠWell":8823,"ĠStay":8824,"Ġpreced":8825,"ĠThyme":8826,"Ġreconstituted":8827,"angria":8828,"Ġelimin":8829,"annie":8830,"process":8831,"ĠSupplement":8832,"Ġstores":8833,"serve":8834,"Ġhousehold":8835,"Ġtangerine":8836,"Ġsweeter":8837,"ĠSicilian":8838,"Ġstopping":8839,"**":8840,"Filled":8841,"Gar":8842,"fill":8843,"last":8844,"noc":8845,"outs":8846,"trem":8847,"erit":8848,"ility":8849,"Ġfeta":8850,"Ġunless":8851,"Ġhaving":8852,"oto":8853,"adillo":8854,"Ġforgiveness":8855,"Ġwhirl":8856,"ĠDecor":8857,"ĠIts":8858,"ĠLand":8859,"oody":8860,"Ġmeatball":8861,"otti":8862,"Ġsurround":8863,"crunchy":8864,"ĠTwists":8865,"Ġrotate":8866,"Ġlooking":8867,"Ġ365":8868,"ĠFoods":8869,"Ġcavities":8870,"Ġcodfish":8871,"Ġrequire":8872,"234":8873,"Ġdrafts":8874,"ĠCarbon":8875,"tRemove":8876,"Ġsizzling":8877,"aggie":8878,"aiquiri":8879,"ikkoman":8880,"ĠRigatoni":8881,"Ġpreceding":8882,"sts":8883,"ĠCast":8884,"ĠBu":8885,"ĠPone":8886,"olks":8887,"ads":8888,"Ġforget":8889,"ĠDie":8890,"ighter":8891,"ĠKir":8892,"Ġitalian":8893,"Ġsimmered":8894,"Ġ72":8895,"pean":8896,"ogs":8897,"ermits":8898,"Ġdarken":8899,"ĠAlmost":8900,"Ġwrapping":8901,"ĠWonder":8902,"Ġdabs":8903,"ĠLeftovers":8904,"condensed":8905,"Campbell":8906,"uccino":8907,"sch":8908,"va":8909,"ination":8910,"inutes":8911,"Ġgingersnap":8912,"Ġcheap":8913,"Ġvert":8914,"ĠDiced":8915,"ĠHas":8916,"uffin":8917,"ĠOh":8918,"ĠSouper":8919,"Ġ180":8920,"ĠPeachy":8921,"eringues":8922,"appuccino":8923,"Ġworkable":8924,"ĠRotini":8925,"ĠPenny":8926,"tCool":8927,"ĠHomestyle":8928,"ĠGalliano":8929,"nocchi":8930,"Noodle":8931,"yd":8932,"Ġ`":8933,"inos":8934,"Ġsake":8935,"Ġport":8936,"Ġshrink":8937,"ĠChick":8938,"Ġoils":8939,"Ġruns":8940,"ĠFeeds":8941,"ĠLoin":8942,"ashes":8943,"Ġmelons":8944,"ĠWhoop":8945,"Ġdishwash":8946,"available":8947,"ectac":8948,"Strawber":8949,"ĠBoneless":8950,"Ġspirals":8951,"Ġstays":8952,"tSprinkle":8953,"ĠRequest":8954,"Ġresealable":8955,"ĠQueen":8956,"Mores":8957,"Re":8958,"Time":8959,"cil":8960,"tub":8961,"Ġsel":8962,"Ġore":8963,"Ġtang":8964,"Ġposition":8965,"Ġinclude":8966,"Ġdutch":8967,"Ġduty":8968,"Ġach":8969,"ĠSangria":8970,"ĠPaste":8971,"ung":8972,"ĠHazel":8973,"Ġslide":8974,"ĠEll":8975,"Ġgrahams":8976,"Ġseparates":8977,"ĠFlaky":8978,"ĠZippy":8979,"bling":8980,"Ġ140":8981,"ĠContin":8982,"inesap":8983,"Ġpulse":8984,"ĠTwenty":8985,"ondra":8986,"Ġtypes":8987,"ĠExtract":8988,"ĠMcButter":8989,"icali":8990,"ĠTraditional":8991,"Ġperiodically":8992,"Ġripen":8993,"ĠSinful":8994,"Ġmagarine":8995,"oyalty":8996,"Ġrubbing":8997,"ĠCoffeecake":8998,"eritage":8999,"Meat":9000,"horn":9001,"honey":9002,"turkey":9003,"wor":9004,"Ġsch":9005,"Ġmen":9006,"atted":9007,"ppa":9008,"ĠSelf":9009,"Ġpeg":9010,"ĠBologna":9011,"ĠMid":9012,"ĠMunch":9013,"toasted":9014,"ĠRise":9015,"ĠDom":9016,"inners":9017,"ĠLong":9018,"Ġsofter":9019,"ĠJub":9020,"ĠPeter":9021,"ĠMelon":9022,"umpt":9023,"ĠRob":9024,"when":9025,"nessee":9026,"ĠClay":9027,"tminutes":9028,"Ġzesty":9029,"Ġswordfish":9030,"Ġcreole":9031,"Ġsuitable":9032,"Ġcaviar":9033,"ĠSchilling":9034,"euvre":9035,"Ġjiggers":9036,"Ġwidth":9037,"ĠQuesadillas":9038,"ectacular":9039,"\"(":9040,"Miracle":9041,"ked":9042,"same":9043,"Ġess":9044,"anna":9045,"ilee":9046,"icama":9047,"ĠCrimp":9048,"ĠSara":9049,"ĠPizz":9050,"isette":9051,"ĠTass":9052,"ĠMove":9053,"Ġjal":9054,"Ġshiitake":9055,"Ġoverripe":9056,"Ġblot":9057,"ĠHow":9058,"Ġroots":9059,"avel":9060,"Ġpopping":9061,"tzer":9062,"Ġdusting":9063,"iki":9064,"Ġliverwurst":9065,"Ġpushing":9066,"Ġ290":9067,"ĠAssemble":9068,"Monterey":9069,"iole":9070,"Ġbigg":9071,"uton":9072,"Ġdisc":9073,"ĠSirloin":9074,"uche":9075,"Ġ43":9076,"Ġshuck":9077,"Ġthings":9078,"ĠDone":9079,"ĠDifferent":9080,"Ġrange":9081,"quant":9082,"Ġapprox":9083,"Ġ125":9084,"ĠCrisscross":9085,"Ġfillings":9086,"ĠRefill":9087,"Ġpinwheels":9088,"ĠMexicali":9089,"Ġdiabetic":9090,"Ġelbows":9091,"door":9092,"ĠCrunchies":9093,"Onion":9094,"Ġobtain":9095,"ĠGrapefruit":9096,"ĠJubilee":9097,"Put":9098,"ios":9099,"lb":9100,"oks":9101,"tF":9102,"test":9103,"Ġsy":9104,"Ġsits":9105,"Ġox":9106,"Ġtree":9107,"Ġfiber":9108,"orice":9109,"Ġdandelion":9110,"Ġgm":9111,"ĠMild":9112,"uster":9113,"elled":9114,"ĠRight":9115,"ĠStretch":9116,"Ġ85":9117,"Ġslip":9118,"ĠShip":9119,"Ġdoing":9120,"Ġturtle":9121,"ĠCornstarch":9122,"ĠFlute":9123,"ĠConcord":9124,"ĠRemember":9125,"athan":9126,"tinto":9127,"Ġfrankfurter":9128,"ĠLiqu":9129,"ĠBuffet":9130,"Blue":9131,"minced":9132,"Ġbuil":9133,"Ġconventional":9134,"Cake":9135,"Day":9136,"gah":9137,"pudding":9138,"tel":9139,"Ġfrag":9140,"elt":9141,"ĠPurple":9142,"Ġunmelted":9143,"Ġpeppered":9144,"ĠWall":9145,"Ġspeck":9146,"ĠCookbook":9147,"Ġserrated":9148,"ĠCoco":9149,"ĠOcean":9150,"Ġuses":9151,"Ġzwieback":9152,"ĠDreams":9153,"Ġlinguica":9154,"ĠOverlap":9155,"Ġassem":9156,"Ġmonterey":9157,"Ġdecorated":9158,"Ġdecorator":9159,"hopper":9160,"Ġwatching":9161,"Ġtucking":9162,"aisy":9163,"ĠTennessee":9164,"ĠAlaska":9165,"Ġglycerin":9166,"Ġdefatted":9167,"80":9168,"Cranberry":9169,"Will":9170,"depends":9171,"Ġtil":9172,"ppe":9173,"ĠBisc":9174,"geburger":9175,"iso":9176,"ĠMah":9177,"ĠAcorn":9178,"omatic":9179,"irley":9180,"redients":9181,"Ġtomat":9182,"ĠSpectacular":9183,"Ġropes":9184,"enta":9185,"entine":9186,"ĠNine":9187,"ankee":9188,"maybe":9189,"Step":9190,"Ġdollops":9191,"Ġdrummettes":9192,"finely":9193,"Ġdelicate":9194,"Ġfriends":9195,"chunky":9196,"Ġtripled":9197,"Ġseltzer":9198,"Bread":9199,"Kraft":9200,"break":9201,"solid":9202,"uum":9203,"Ġcalls":9204,"Ġsort":9205,"Ġsieved":9206,"Ġfarina":9207,"Ġdraw":9208,"Ġ320":9209,"ĠSide":9210,"ĠPal":9211,"ĠTim":9212,"ĠTreas":9213,"ĠMain":9214,"ĠMenthe":9215,"Ġhol":9216,"ote":9217,"adina":9218,"ienne":9219,"ĠWar":9220,"ĠWraps":9221,"stone":9222,"Ġcarc":9223,"ĠCoated":9224,"ĠKathy":9225,"ĠKikkoman":9226,"ĠVodka":9227,"Ġitem":9228,"ĠChilled":9229,"Ġcoming":9230,"Ġbagu":9231,"ĠTurnip":9232,"Ġaccum":9233,"udges":9234,"Ġprocessing":9235,"ĠPatty":9236,"Ġcorrect":9237,"ĠSkins":9238,"ĠSmuck":9239,"ĠLayers":9240,"ĠRoman":9241,"Ġlumpia":9242,"Ġimported":9243,"piece":9244,"zech":9245,"ĠSopa":9246,"intzes":9247,"umptious":9248,"German":9249,"Green":9250,"pa":9251,"qt":9252,"tServe":9253,"tLet":9254,"Ġtan":9255,"esa":9256,"Ġweak":9257,"Ġdisp":9258,"Ġlic":9259,"iller":9260,"otto":9261,"ĠRhod":9262,"ĠStella":9263,"ĠLakes":9264,"ĠLuncheon":9265,"ĠSlip":9266,"Ġhigher":9267,"Ġpatting":9268,"Ġeveryone":9269,"phabet":9270,"ĠAnise":9271,"ĠAmazing":9272,"ĠPierogi":9273,"ĠPopsicles":9274,"Grand":9275,"ouffer":9276,"And":9277,"Bisquick":9278,"carp":9279,"off":9280,"rami":9281,"lege":9282,"ĠBubb":9283,"ĠPollo":9284,"acuum":9285,"ĠMoon":9286,"chop":9287,"Ġnorm":9288,"ĠWiener":9289,"urb":9290,"ĠLucky":9291,"ĠGarb":9292,"Ġmaybe":9293,"ĠSalted":9294,"Ġrefrigeration":9295,"ĠYankee":9296,"ĠShirley":9297,"peaches":9298,"Ġdrizz":9299,"ĠSkew":9300,"Ġ280":9301,"ĠEarly":9302,"ĠBoats":9303,"aiser":9304,"ĠBarbara":9305,"candied":9306,"carpone":9307,"BS":9308,"Fresh":9309,"Le":9310,"full":9311,"muffin":9312,"Ġsound":9313,"Ġtint":9314,"arified":9315,"esired":9316,"Ġpilaf":9317,"Ġmom":9318,"rey":9319,"ĠCount":9320,"Ġgourmet":9321,"ĠBab":9322,"ĠTip":9323,"ottle":9324,"Ġchocolates":9325,"tof":9326,"Ġcanes":9327,"iental":9328,"ĠDis":9329,"ĠDaisy":9330,"Ġspacing":9331,"Ġcupfuls":9332,"Ġclover":9333,"Ġkielbasi":9334,"Ġappet":9335,"Ġrefreshing":9336,").\\":9337,"ĠThread":9338,"ailey":9339,"Ġknow":9340,"Ġperch":9341,"Ġsubstituting":9342,"ĠGoodies":9343,"Spinach":9344,"stirring":9345,"ĠWelch":9346,"Ġtraditional":9347,"Ġpencil":9348,"Heart":9349,"graham":9350,"ĠPenuche":9351,"Carrot":9352,"Ph":9353,"aves":9354,"gonz":9355,"oven":9356,"Ġcyl":9357,"atwurst":9358,"utti":9359,"unge":9360,"ĠTilt":9361,"ĠMolly":9362,"ĠAdobo":9363,"irin":9364,"ĠWondra":9365,"abama":9366,"ĠStouffer":9367,"ĠLeg":9368,"arse":9369,"ĠHank":9370,"eption":9371,"ollip":9372,"ĠVe":9373,"Ġyellows":9374,"ĠFrog":9375,"ĠSquirt":9376,"igan":9377,"blended":9378,"Ġherbal":9379,"ĠContadina":9380,"ĠSmoky":9381,"Ġhealth":9382,"Ġdredging":9383,"ĠPlantation":9384,"ggested":9385,"Ġprayer":9386,"ĠBugles":9387,"ĠWhoopie":9388,"Ġnormal":9389,"gonzola":9390,"Sal":9391,"celery":9392,"Ġsounds":9393,"aloupe":9394,"roger":9395,"Ġvents":9396,"Ġhim":9397,"Ġoriental":9398,"Ġgrass":9399,"Ġroughly":9400,"Ġsparing":9401,"avian":9402,"ĠBrooks":9403,"Ġtenderize":9404,"ĠVic":9405,"Ġscones":9406,"Ġcrouton":9407,"ĠMexico":9408,"ĠTossed":9409,"Ġconcentrates":9410,"etta":9411,"appiness":9412,"ĠFarmer":9413,"ĠDebbie":9414,"Ġburnt":9415,"Ġholding":9416,"ĠHeap":9417,"atures":9418,"Ġmicrowaved":9419,"Ġhulls":9420,"Ġhoagie":9421,"Also":9422,"first":9423,"ĠBorder":9424,"Ġmasa":9425,"ĠGrasshopper":9426,"Ġrender":9427,"ĠKluski":9428,"ĠCastle":9429,"Ġbuilding":9430,"Ġsparingly":9431,"Am":9432,"Pro":9433,"discard":9434,"wreck":9435,"Ġmalted":9436,"Ġgooey":9437,"ĠPri":9438,"ĠPenne":9439,"ĠTBS":9440,"Ġsays":9441,"ecks":9442,"ĠJun":9443,"ĠKay":9444,"Ġdressings":9445,"ĠNeeds":9446,"ropri":9447,"ĠPressure":9448,"ĠAlpine":9449,"Ġrosamarina":9450,"Ġindic":9451,"Ġbites":9452,"Ġfinishing":9453,"Ġpersons":9454,"ĠDollies":9455,"ĠVerde":9456,"Ġplantains":9457,"Ġarranged":9458,"Delicious":9459,"ĠCarbonara":9460,"ĠBiscotti":9461,"Ġlicorice":9462,"Ġcylinder":9463,"ĠTBSP":9464,"55":9465,"car":9466,"del":9467,"join":9468,"erried":9469,"Ġmil":9470,"reau":9471,"onuts":9472,"Ġfusilli":9473,"heavy":9474,"ĠBailey":9475,"Ġhare":9476,"adas":9477,"rik":9478,"Ġnest":9479,"Ġnose":9480,"Ġjicama":9481,"thirds":9482,"ĠWinesap":9483,"Ġcoconuts":9484,"Ġappropri":9485,"Ġexpected":9486,"flat":9487,"Ġanytime":9488,"Ġchive":9489,"ĠAlabama":9490,"appa":9491,"afe":9492,"Ġcapful":9493,"Ġtinted":9494,"ĠHeaven":9495,"ĠHelper":9496,"ĠTrail":9497,"Ġdecrease":9498,"Ġmatchstick":9499,"ĠMargaret":9500,"Ġreads":9501,"Ġhungry":9502,"ĠSurround":9503,"Ġdishwashing":9504,"Strawberry":9505,"Ġbigger":9506,"IG":9507,"done":9508,"gly":9509,"jelly":9510,"rd":9511,"they":9512,"Ġcer":9513,"Ġtapped":9514,"Ġple":9515,"Ġmoon":9516,"Ġfan":9517,"Ġweather":9518,"Ġ33":9519,"Ġgather":9520,"ĠBit":9521,"illos":9522,"Ġhr":9523,"Ġhit":9524,"Ġyield":9525,"ĠGive":9526,"ĠGirl":9527,"ĠWorks":9528,"Ġsett":9529,"Ġdoughy":9530,"Ġpeelings":9531,"ividing":9532,"ĠCons":9533,"istachios":9534,"Ġworth":9535,"ĠRomanoff":9536,"Chill":9537,"!!!!":9538,"mpathy":9539,"ĠMcIntosh":9540,"ĠHalibut":9541,"Ġproduce":9542,"ĠPicc":9543,"Ġsuperfine":9544,"Ġcompleted":9545,"ĠClear":9546,"ĠGorgonzola":9547,"ĠShipwreck":9548,"Ġcarcass":9549,"Gran":9550,"Judges":9551,"Keep":9552,"ct":9553,"lukewarm":9554,"slice":9555,"zon":9556,"Ġbarbecued":9557,"also":9558,"roz":9559,"aka":9560,"ĠSna":9561,"ĠSometimes":9562,"ĠToo":9563,"ĠMallow":9564,"ĠDonna":9565,"Ġspot":9566,"Ġbreading":9567,"aved":9568,"ĠBeg":9569,"ĠBoiling":9570,"Ġevaporate":9571,"ĠRoka":9572,"Ġscallop":9573,"Ġsoftens":9574,"ĠJoan":9575,"Ġassemble":9576,"ĠNewburg":9577,"ugula":9578,"ĠRiver":9579,"When":9580,"ĠChestnut":9581,"Ġattached":9582,"ĠThumbprint":9583,"Ġgherkins":9584,"Ġaccompaniment":9585,"Ġeliminate":9586,"Candy":9587,"Out":9588,"Tw":9589,"kan":9590,"little":9591,"mati":9592,"washed":9593,"Ġ175":9594,"Ġpossum":9595,"illets":9596,"ĠCappuccino":9597,"Ġdr":9598,"ĠPine":9599,"Ġmilks":9600,"vey":9601,"Ġshut":9602,"ĠWinning":9603,"ĠLeek":9604,"Ġblades":9605,"ĠHol":9606,"ĠCoint":9607,"Ġclarified":9608,"cob":9609,"Ġcannot":9610,"blers":9611,"eze":9612,"ĠOrnaments":9613,"ĠProverbs":9614,"ĠAnne":9615,"ĠNorth":9616,"Ġentirely":9617,"Ġfalling":9618,"Brown":9619,"ĠEscort":9620,"ĠCavatini":9621,"Ġwheels":9622,"ĠEasiest":9623,"ĠContinental":9624,"ĠRhodes":9625,"Ġappropriate":9626,"Cup":9627,"Like":9628,"Parmesan":9629,"Roll":9630,"ipper":9631,"rint":9632,"some":9633,"inom":9634,"Ġpits":9635,"ĠCilantro":9636,"Ġ230":9637,"Ġpebbles":9638,"Ġhog":9639,"Ġstreusel":9640,"omon":9641,"ĠState":9642,"Ġovens":9643,"ĠServed":9644,"ĠKorean":9645,"Ġsmash":9646,"ĠSausages":9647,"Ġpeeler":9648,"Ġenhan":9649,"Ġcranapple":9650,"Ġgarnishes":9651,"Ġopened":9652,"orbet":9653,"Ġrotel":9654,"ĠCaptain":9655,"ĠParis":9656,"ĠPimiento":9657,"alloween":9658,"Ġjoints":9659,"Ġvein":9660,"ĠJuicy":9661,"ĠSusan":9662,"ĠDomino":9663,"ĠCointreau":9664,"inomoto":9665,"Span":9666,"grease":9667,"mashed":9668,"oeuvres":9669,"tadd":9670,"ĠComb":9671,"elves":9672,"Ġdid":9673,"Ġloyalty":9674,"otal":9675,"otash":9676,"tst":9677,"Ġthought":9678,"ĠChal":9679,"imal":9680,"Ġclause":9681,"Ġkahlua":9682,"ĠKe":9683,"ĠPieces":9684,"ĠBlossom":9685,"ĠUgly":9686,"ĠRobert":9687,"ĠGrapes":9688,"ĠDelite":9689,"Ġgarnishing":9690,"Ġburns":9691,"ĠHerbs":9692,"Spice":9693,"skinned":9694,"ĠStrudel":9695,"Ġnorthern":9696,"ĠUnderwood":9697,"ĠCantaloupe":9698,"ĠPockets":9699,"wdust":9700,"ĠCabin":9701,"Garlic":9702,"Ġsympathy":9703,"Ġceramic":9704,"Lay":9705,"Macaroni":9706,"eral":9707,"edged":9708,"Ġpail":9709,"Ġpistachios":9710,"Ġferm":9711,"Ġchurch":9712,"ĠCayenne":9713,"Ġsupper":9714,"Ġsugah":9715,"Ġdividing":9716,"Ġ34":9717,"ĠSock":9718,"ĠMr":9719,"Ġhurry":9720,"Ġshots":9721,"ables":9722,"ĠEast":9723,"avorites":9724,"ĠJenn":9725,"ĠBrowned":9726,"flow":9727,"Ġmeet":9728,"Ġperk":9729,"Ġfiling":9730,"Ġlumping":9731,"iko":9732,"ĠFranc":9733,"ĠFranco":9734,"Ġmaintain":9735,"Diet":9736,"Ġinserting":9737,"Ġquantities":9738,"Ġpreviously":9739,"ĠMarket":9740,"tSpread":9741,"moder":9742,"Ġajinomoto":9743,"almonds":9744,"ĠScottish":9745,"ĠVermicelli":9746,"ĠIngredients":9747,"processed":9748,"tremely":9749,"Ġessence":9750,"ezebel":9751,"Kids":9752,"Zucchini":9753,"bul":9754,"cayenne":9755,"hand":9756,"oe":9757,"tIn":9758,"Ġpyrex":9759,"Ġinner":9760,"ĠBalsamic":9761,"ĠPle":9762,"Ġflam":9763,"ĠMethod":9764,"Ġneat":9765,"ston":9766,"Ġyields":9767,"ĠHair":9768,"ĠHermits":9769,"Ġreduc":9770,"ĠJezebel":9771,"Ġpacking":9772,"ocatelli":9773,"Ġunderside":9774,"ĠMae":9775,"Ġsmokies":9776,"merse":9777,"ĠAlaskan":9778,"ĠTassies":9779,"Rhubarb":9780,"dissolved":9781,"desired":9782,"jack":9783,"tat":9784,"Ġ(.":9785,"ĠAtt":9786,"mond":9787,"Ġwells":9788,"achel":9789,"ĠHurry":9790,"ĠHalloween":9791,"Ġcrumbling":9792,"ĠGer":9793,"Ġrad":9794,"coarse":9795,"ĠPreacher":9796,"ĠNavy":9797,"Ġpastrami":9798,"Ġturner":9799,"Ġyourself":9800,"ĠSoap":9801,"ĠMexi":9802,"angles":9803,"Ġpitas":9804,"ĠGlory":9805,"ĠCollege":9806,"ĠLeaf":9807,"Ġswir":9808,"ĠCuban":9809,"ĠFrankfur":9810,"ĠDiabetics":9811,"pieces":9812,"halves":9813,"Ġbutterfly":9814,"Ġshucked":9815,"gen":9816,"gie":9817,"pensive":9818,"sin":9819,"uge":9820,"inted":9821,"esqu":9822,"Ġph":9823,"Ġmillet":9824,"Ġ270":9825,"Ġ39":9826,"ĠSole":9827,"unc":9828,"ĠMouth":9829,"Ġhrs":9830,"rian":9831,"Ġnavel":9832,"apricot":9833,"Ġblu":9834,"Ġalfredo":9835,"ĠKim":9836,"ĠVari":9837,"Ġsquid":9838,"ense":9839,"ĠBear":9840,"ĠButtery":9841,"othy":9842,"Ġevening":9843,"sauce":9844,"ĠQuail":9845,"ĠBrandied":9846,"ĠApply":9847,"Ġfoaming":9848,"Ġgiant":9849,"ĠMilkshake":9850,"ĠHearts":9851,"ĠBraid":9852,"Ġvariation":9853,"ĠYorkshire":9854,"Ġripened":9855,"ackerel":9856,"Ġherring":9857,"lsberg":9858,"Ġvertically":9859,"Ġoxtail":9860,"ĠHanky":9861,"Granny":9862,"36":9863,"Jer":9864,"Made":9865,"field":9866,"gest":9867,"here":9868,"laze":9869,"place":9870,"vels":9871,"Ġcajun":9872,"aron":9873,"Ġfaster":9874,"ĠCumin":9875,"rod":9876,"Ġdream":9877,"ĠSister":9878,"ĠSilver":9879,"ĠBottle":9880,"ĠMist":9881,"ĠMike":9882,"ĠRind":9883,"ĠDep":9884,"ĠDates":9885,"ĠFric":9886,"aining":9887,"ĠLyn":9888,"mear":9889,"shortening":9890,"udded":9891,"osed":9892,"Ġgray":9893,"Ġlive":9894,"ĠCheer":9895,"Ġoutdoor":9896,"iscons":9897,"Ġdills":9898,"Ġbratwurst":9899,"Ġarugula":9900,"ĠPeppered":9901,"burgers":9902,"ody":9903,"obsters":9904,"ĠPerk":9905,"ĠScrumptious":9906,"ĠSecond":9907,"ĠSunny":9908,"Ġricher":9909,"ĠLivers":9910,"Ġimprint":9911,"ĠAnnie":9912,"236":9913,"ĠWilder":9914,"ĠBelieve":9915,"Ġglycerine":9916,"ĠTruffles":9917,"ĠKaren":9918,"ĠKirsch":9919,"Ġtomatillos":9920,"isconsin":9921,"More":9922,"Top":9923,"tfor":9924,"tbutter":9925,"Ġtears":9926,"ena":9927,"already":9928,"Ġtot":9929,"Ġdonut":9930,"ĠBul":9931,"ĠMad":9932,"ĠWisconsin":9933,"Ġboat":9934,"ĠFriend":9935,"ĠLocatelli":9936,"weed":9937,"Ġalphabet":9938,"Ġchilis":9939,"Ġexc":9940,"ĠKiller":9941,"tomato":9942,"ĠMeltaway":9943,"ĠYears":9944,"otton":9945,"ĠShish":9946,"Ġpoached":9947,"ĠCarib":9948,"Ġalternative":9949,"ĠCanola":9950,"Ġundissolved":9951,"Ġ**":9952,"ĠProven":9953,"Ġdelight":9954,"broth":9955,"Ġcantaloup":9956,"Ġsmoky":9957,"White":9958,"Ġbuckwheat":9959,"tBeat":9960,"Ġcondiments":9961,"ĠJumbles":9962,"Ġtangy":9963,"Ġschool":9964,"Jiffy":9965,"mus":9966,"mise":9967,"nitz":9968,"tb":9969,"Ġcu":9970,"Ġcrow":9971,"Ġcause":9972,"Ġbands":9973,"Ġmac":9974,"Ġfaul":9975,"Ġchard":9976,"ĠConey":9977,"ĠSage":9978,"ĠSandy":9979,"Ġlobsters":9980,"ĠBart":9981,"Ġforth":9982,"Ġnap":9983,"ĠChoose":9984,"ĠFillet":9985,"ĠField":9986,"assi":9987,"Ġcracklins":9988,"Ġextremely":9989,"ĠSawdust":9990,"ĠThai":9991,"oothpick":9992,"Ġnote":9993,"otte":9994,"ĠJellied":9995,"ĠRefrigerated":9996,"Ġtwelve":9997,"angel":9998,"ĠOranges":9999,"ĠGrandpa":10000,"melt":10001,"ĠJama":10002,"Ġburst":10003,"ĠHunter":10004,"ĠMcK":10005,"ĠFilet":10006,"walnut":10007,"ĠOmelette":10008,"Ġshows":10009,"Ġplumped":10010,"Ġbutterflied":10011,"ĠBoursin":10012,"ĠPulse":10013,"ĠJonathan":10014,"Ġbaguette":10015,"IGH":10016,"Double":10017,"Ever":10018,"cauliflower":10019,"ians":10020,"oise":10021,"ral":10022,"vice":10023,"Ġfowl":10024,"ppin":10025,"Ġ310":10026,"ĠSav":10027,"ĠBol":10028,"ĠBirthday":10029,"ĠPower":10030,"ĠTiny":10031,"Ġhis":10032,"Ġhook":10033,"topping":10034,"Ġjoy":10035,"Ġmarbles":10036,"start":10037,"heath":10038,"Ġconch":10039,"Ġclumps":10040,"ĠOff":10041,"ĠCrusts":10042,"ĠCutout":10043,"Ġamber":10044,"ĠMayo":10045,"ĠCampfire":10046,"ĠTaters":10047,"ichever":10048,"ĠPoached":10049,"Ġgluten":10050,"ĠEdible":10051,"ĠBonnie":10052,"ĠJarlsberg":10053,"Ġpropor":10054,"ĠPiccata":10055,"uncture":10056,"Ahead":10057,"Ori":10058,"Wal":10059,"better":10060,"freeze":10061,"grap":10062,"mie":10063,"rates":10064,"tMakes":10065,"work":10066,"Ġ,":10067,"ĠST":10068,"Ġsard":10069,"ergy":10070,"Ġpi":10071,"atively":10072,"reased":10073,"ĠSub":10074,"ĠSli":10075,"Ġeagle":10076,"Ġlighter":10077,"ĠBatch":10078,"acy":10079,"union":10080,"ggie":10081,"ĠMile":10082,"ĠMatt":10083,"Ġhuge":10084,"adise":10085,"ĠRome":10086,"ipillas":10087,"mont":10088,"Ġjud":10089,"ighs":10090,"ĠFay":10091,"Ġfroth":10092,"ĠLick":10093,"ĠGoya":10094,"Ġapply":10095,"ĠJune":10096,"Ġsmiles":10097,"ĠNell":10098,"ĠName":10099,"Ġcuring":10100,"Ġtwenty":10101,"Ġgranular":10102,"ĠArroz":10103,"ĠLemony":10104,"Ġdijon":10105,"Ġicy":10106,"ĠSeeds":10107,"ĠManh":10108,"ĠPinwheel":10109,"attan":10110,"Ġcrunched":10111,"erosene":10112,"ĠVictor":10113,"Jeremiah":10114,"ĠCaribbean":10115,"La":10116,"Light":10117,"Mustard":10118,"Pl":10119,"Pan":10120,"blet":10121,"rind":10122,"slow":10123,"Ġiodized":10124,"Ġcray":10125,"inc":10126,"Ġpreserve":10127,"Ġmex":10128,"Ġmusc":10129,"Ġfore":10130,"Ġlines":10131,"Ġvented":10132,"Ġunthawed":10133,"Ġhusk":10134,"chilled":10135,"eties":10136,"Ġbakery":10137,"ĠDunk":10138,"ĠLy":10139,"edible":10140,"opened":10141,"Ġskillets":10142,"ĠScrew":10143,"whatever":10144,"Ġfilm":10145,"ĠDorothy":10146,"Ġcapellini":10147,"ĠDishpan":10148,"Ġhomestyle":10149,"Ġoverbrown":10150,"ĠNewman":10151,"ĠAlmondine":10152,"ĠExchanges":10153,"ĠAsian":10154,"Ġvarieties":10155,"Ġshovel":10156,"Ġparsnip":10157,"Ġrutabagas":10158,"Ġhumor":10159,"Ġpicnics":10160,"Ġdredged":10161,"Ġtempera":10162,"ĠSkewer":10163,"ĠBeginning":10164,"Ġtotally":10165,"Any":10166,"Heal":10167,"Mc":10168,"Oro":10169,"Pillsbury":10170,"Reserve":10171,"baby":10172,"comb":10173,"equ":10174,"even":10175,"evaporated":10176,"faced":10177,"press":10178,"rick":10179,"selves":10180,"Ġpipe":10181,"almost":10182,"icier":10183,"Ġtoes":10184,"ĠSatur":10185,"ooper":10186,"ĠBer":10187,"isa":10188,"ĠMen":10189,"olive":10190,"aden":10191,"Ġcrink":10192,"Ġbrook":10193,"Ġgrand":10194,"ĠRes":10195,"ĠChange":10196,"ĠWhe":10197,"Ġremember":10198,"eff":10199,"ĠLooks":10200,"ĠHus":10201,"Ġkol":10202,"Ġkerosene":10203,"Ġcrushing":10204,"ĠKat":10205,"Ġjellos":10206,"Ġsmile":10207,"ĠBloody":10208,"ĠNap":10209,"ĠButterhorn":10210,"Ġfoods":10211,"Ġmolded":10212,"Ġparing":10213,"ĠPickin":10214,"annon":10215,"odus":10216,"Ġdonuts":10217,"ĠMarvel":10218,"Ġdrinks":10219,"ĠAnisette":10220,"Ġnewsp":10221,"238":10222,"ĠWelsh":10223,"Ġhealthy":10224,"Roasted":10225,"Colby":10226,"Excellent":10227,"Ġutens":10228,"ĠSolomon":10229,"Ġyummy":10230,"ĠMascarpone":10231,"esquite":10232,"Ġcantaloupes":10233,"Karo":10234,"bor":10235,"bies":10236,"gu":10237,"lava":10238,"rican":10239,"eside":10240,"Ġmass":10241,"ĠCall":10242,"ĠCity":10243,"Ġdepend":10244,"uttered":10245,"ĠMer":10246,"ĠMush":10247,"Ġvacuum":10248,"ĠAw":10249,"Ġbear":10250,"Ġnecks":10251,"ĠDou":10252,"ĠFeather":10253,"ĠLar":10254,"ĠLake":10255,"ĠLump":10256,"Ġheats":10257,"ĠGame":10258,"Ġclass":10259,"artment":10260,"ĠKiev":10261,"estle":10262,"ĠPeggy":10263,"ĠThom":10264,"ĠNanny":10265,"Ġunbuttered":10266,"Ġcrispness":10267,"Ġconsomm":10268,"ampen":10269,"ĠMinced":10270,"Ġsurp":10271,"ĠDiamond":10272,"ĠOrzo":10273,"ĠDumpling":10274,"odge":10275,"Ġabsor":10276,"rolled":10277,"check":10278,"Ġdiscolor":10279,"Ġbraid":10280,"Ġmotor":10281,"Ġsacrif":10282,"chestershire":10283,"ĠWilderness":10284,"ĠManhattan":10285,"Cover":10286,"Dried":10287,"Hershey":10288,"Wesson":10289,"di":10290,"golden":10291,"ox":10292,"sure":10293,"simmer":10294,"Ġtent":10295,"asilk":10296,"Ġdiff":10297,"ĠSee":10298,"ĠSnapper":10299,"heim":10300,"ĠBuck":10301,"ĠPipe":10302,"ddess":10303,"ĠMem":10304,"ĠAf":10305,"ota":10306,"Ġname":10307,"Ġjer":10308,"Ġjim":10309,"Ġlargest":10310,"ĠSpir":10311,"amonds":10312,"berts":10313,"ĠWho":10314,"ĠOccasion":10315,"essie":10316,"ĠMelted":10317,"Ġgelatins":10318,"Ġcleans":10319,"tons":10320,"Ġpointed":10321,"ternal":10322,"Ġknock":10323,"ĠUnfold":10324,"Ġsurrounded":10325,"ĠUsually":10326,"ussel":10327,"ĠCross":10328,"ĠMaria":10329,"pecan":10330,"ĠLevel":10331,"ĠCubes":10332,"ifference":10333,"ĠSarah":10334,"ĠRichards":10335,"Ġrims":10336,"ĠParadise":10337,"ĠGoddess":10338,"Ġguava":10339,"Ġgroups":10340,"ĠOleo":10341,"uckleberries":10342,"Ġoreo":10343,"Spanish":10344,"ĠFricass":10345,"Ġabsorbs":10346,"):":10347,"gento":10348,"minute":10349,"pkg":10350,"trim":10351,"erts":10352,"Ġtilt":10353,"Ġbis":10354,"ĠSit":10355,"ĠSizz":10356,"oom":10357,"Ġ(#":10358,"ĠMoo":10359,"ĠMeringues":10360,"olut":10361,"Ġmineral":10362,"irts":10363,"Ġgrating":10364,"ĠRoul":10365,"efriger":10366,"mally":10367,"Ġgarni":10368,"Ġselect":10369,"ĠSpark":10370,"ĠHIGH":10371,"ĠInc":10372,"Ġbottomed":10373,"abbages":10374,"ĠChilli":10375,"ĠBrer":10376,"Ġscored":10377,"orsch":10378,"sausage":10379,"ĠFrosts":10380,"Ġthemselves":10381,"ĠSquirrel":10382,"Ġtowards":10383,"liter":10384,"Ġcaramelize":10385,"max":10386,"ĠFreshly":10387,"ĠChrist":10388,"browned":10389,"ĠJoyce":10390,"ĠColorado":10391,"Ġimprove":10392,"ĠPiquant":10393,"ĠCastleberry":10394,"moderate":10395,"ĠAttach":10396,"Break":10397,"They":10398,"dition":10399,"hi":10400,"lor":10401,"microwave":10402,"rare":10403,"tall":10404,"vinegar":10405,"Ġble":10406,"Ġdeeds":10407,"Ġ31":10408,"ĠBuy":10409,"ĠMart":10410,"Ġhuckleberries":10411,"ĠRh":10412,"Ġramen":10413,"Ġcorns":10414,"ĠFlower":10415,"Ġfrog":10416,"naheim":10417,"ĠOk":10418,"ĠEight":10419,"Ġsquirts":10420,"ĠBlot":10421,"Ġeng":10422,"ĠShut":10423,"Ġaccordingly":10424,"aryl":10425,"Ġwashing":10426,"frying":10427,"aik":10428,"ĠPackage":10429,"Chip":10430,"Cherry":10431,"Ġentree":10432,"Ġshortcake":10433,"ĠPercolator":10434,"Ġstrands":10435,"ĠHarvey":10436,"Topped":10437,"Ġfixed":10438,"Ġtostada":10439,"ĠBelgian":10440,"ĠMargarita":10441,"coconut":10442,"Ġpralines":10443,"itterlings":10444,"ĠBurnt":10445,"ĠRisotto":10446,"Ġassembled":10447,"ĠSopaipillas":10448,"Ġfaults":10449,"115":10450,"750":10451,"Ang":10452,"Greek":10453,"Sto":10454,"bassi":10455,"ogh":10456,"take":10457,"twater":10458,"watch":10459,"Ġbook":10460,"Ġmacaroon":10461,"Ġfestive":10462,"Ġfacing":10463,"Ġwedged":10464,"icer":10465,"ĠCour":10466,"ori":10467,"roasted":10468,"Ġsunda":10469,"ĠSor":10470,"hem":10471,"ĠTiger":10472,"Ġbuttercream":10473,"ĠMim":10474,"ĠMaw":10475,"Ġvelve":10476,"Ġunprocessed":10477,"chunks":10478,"Ġjus":10479,"ghur":10480,"Ġbaker":10481,"ĠReser":10482,"Ġpowders":10483,"ĠStores":10484,"ĠHon":10485,"ardee":10486,"shrimp":10487,"ĠOz":10488,"Ġrefrigerating":10489,"Ġlikes":10490,"ĠThing":10491,"Ġfines":10492,"ĠSharp":10493,"several":10494,"rises":10495,"ĠSett":10496,"Ġnonmetal":10497,"Ġherbes":10498,"ĠAlice":10499,"ĠCranberries":10500,"ĠRaised":10501,"ĠPromise":10502,"approx":10503,"ĠCrown":10504,"Chris":10505,"ĠScratch":10506,"ĠRiches":10507,"Ġtesting":10508,"Cooked":10509,"ĠPaprik":10510,"ĠMueller":10511,"ĠJohnson":10512,"Ġshoepeg":10513,"tCut":10514,"lene":10515,"Ġpouches":10516,"ĠBuckeye":10517,"Blend":10518,"ibbles":10519,"Ġpoly":10520,"salad":10521,"ĠTruffle":10522,"ĠCharlie":10523,"Two":10524,"ĠBartlett":10525,"Walnut":10526,"Ġsardines":10527,"Tastes":10528,"ju":10529,"takes":10530,"Ġcure":10531,"Ġtep":10532,"onions":10533,"ĠCO":10534,"aks":10535,"Ġdinners":10536,"ĠSheath":10537,"ĠBaggie":10538,"ache":10539,"ĠMachine":10540,"Ġversion":10541,"allic":10542,"Ġthirty":10543,"ĠReg":10544,"ĠChim":10545,"ĠFair":10546,"Ġpots":10547,"ĠLes":10548,"ĠWhat":10549,"ĠPretty":10550,"ottled":10551,"expensive":10552,"ĠRefreshing":10553,"ĠTurnips":10554,"Ġaccent":10555,"Ġcrispies":10556,"canola":10557,"Ġexcessive":10558,"Ġbrushed":10559,"Ġworry":10560,"Ġrepeating":10561,"ĠExchange":10562,"Ġmedley":10563,"Ġheld":10564,"hydrates":10565,"ĠPaper":10566,"Ġthumbprint":10567,"Ġdeterm":10568,"Ġsizzle":10569,"Ġtostados":10570,"Ġfloating":10571,"ĠBoyardee":10572,"Uncle":10573,"Ġbuffet":10574,"Ġjalape":10575,"Ġdiffic":10576,"Ġjimmies":10577,"200":10578,"Medium":10579,"Pol":10580,"Pie":10581,"\\)":10582,"ject":10583,"line":10584,"ply":10585,"ule":10586,"wards":10587,"Ġca":10588,"Ġband":10589,"leftover":10590,"Ġsuggested":10591,"ĠBull":10592,"ĠTree":10593,"ĠAnaheim":10594,"Ġnappa":10595,"ĠRoughy":10596,"Ġsouth":10597,"ĠDepending":10598,"Ġcoke":10599,"ĠII":10600,"ĠIre":10601,"ĠLife":10602,"ĠGrain":10603,"ĠGoose":10604,"Ġcarving":10605,"Ġroasts":10606,"oster":10607,"Ġskirt":10608,"live":10609,"ĠVersion":10610,"Ġfillo":10611,"ĠSherried":10612,"irections":10613,"ĠRefried":10614,"ĠChoc":10615,"Ġscum":10616,"indy":10617,"Ġmoving":10618,"Ġques":10619,"Ġunsul":10620,"Ġremoval":10621,"Ġcores":10622,"Ġbulbs":10623,"clear":10624,"Ġallows":10625,"ĠPlatter":10626,"ĠCandies":10627,"Chopped":10628,"Shrimp":10629,"Ġnormally":10630,"ĠCharlotte":10631,"ĠWindows":10632,"Ġtiming":10633,"ĠMichigan":10634,"ĠChalup":10635,"bulk":10636,"oghurt":10637,"Br":10638,"Dip":10639,"Heritage":10640,"Purpose":10641,"bac":10642,"ele":10643,"gundy":10644,"pea":10645,"rust":10646,"ska":10647,"za":10648,"Ġi":10649,"Ġcabbages":10650,"oritos":10651,"itam":10652,"ĠSieve":10653,"ĠSzech":10654,"Ġem":10655,"ĠBase":10656,"Ġornaments":10657,"chiko":10658,"abob":10659,"resist":10660,"ĠLasts":10661,"ĠGh":10662,"ĠGul":10663,"ĠEve":10664,"ĠEmer":10665,"tti":10666,"ĠKroger":10667,"ĠThirty":10668,"ĠNoth":10669,"ĠNibbles":10670,"Ġensure":10671,"arinated":10672,"Ġrestaurant":10673,"ĠRocks":10674,"Ġlongways":10675,"ĠMeatless":10676,"Ġkneaded":10677,"ĠCoating":10678,"ĠGlow":10679,"Ġwords":10680,"Ġreturns":10681,"Ġburned":10682,"Ġassort":10683,"ĠAmount":10684,"240":10685,"ritious":10686,"Ġrimmed":10687,"ĠSwirls":10688,"Ġadjusted":10689,"ĠCarolyn":10690,"ĠHummus":10691,"Ġpresifted":10692,"ĠBuster":10693,"Ġtongue":10694,"Ġcroissant":10695,"Ġarranging":10696,"tTop":10697,"ĠPaella":10698,"ĠHenry":10699,"Ġfragrant":10700,"Ġswirling":10701,"ĠLynn":10702,"nitzel":10703,"ĠJamaican":10704,"ĠMarvelous":10705,"ĠFricassee":10706,"800":10707,"Bacon":10708,"Cabbage":10709,"Eng":10710,"IR":10711,"jar":10712,"ranging":10713,"substitute":10714,"eroll":10715,"Ġtasting":10716,"Ġfavorites":10717,"Ġchiffon":10718,"Ġinternal":10719,"ouri":10720,"itt":10721,"ĠBeck":10722,"Ġchex":10723,"Ġstudded":10724,"oming":10725,"Ġsay":10726,"Ġshaken":10727,"orna":10728,"Ġboys":10729,"ĠFizz":10730,"Ġyam":10731,"Ġcupful":10732,"ĠHerman":10733,"ĠGal":10734,"ĠGib":10735,"agination":10736,"Ġkaiser":10737,"Ġredness":10738,"ĠKring":10739,"ĠKemp":10740,"Ġshears":10741,"Ġflavorful":10742,"ĠSharon":10743,"Ġglove":10744,"Ġcrown":10745,"ĠTablespoon":10746,"ertain":10747,"Ġseals":10748,"Ġbacks":10749,"Ġbarrel":10750,"ĠSuperb":10751,"ĠKrazy":10752,"Ġgiblet":10753,"Chow":10754,"ĠLegs":10755,"ĠBraise":10756,"ĠMissouri":10757,"metallic":10758,"Ġreheating":10759,"Ġprime":10760,"Ġrequires":10761,"conom":10762,"ĠSucaryl":10763,"ĠMarbled":10764,"Ġextending":10765,"seedless":10766,"ĠTempt":10767,"peanut":10768,"ĠSnappy":10769,"ĠVictoria":10770,"ĠHusband":10771,"Ġsacrifice":10772,"Ġbisque":10773,"olutely":10774,"Ġassortment":10775,"Date":10776,"Fashion":10777,"Non":10778,"Sc":10779,"food":10780,"tflour":10781,"uan":10782,"Ġedible":10783,"Ġcra":10784,"Ġcertain":10785,"eroos":10786,"Ġtid":10787,"Ġtaters":10788,"aluminum":10789,"Ġchanging":10790,"spberries":10791,"ĠCans":10792,"Ġ220":10793,"asic":10794,"Ġgot":10795,"oother":10796,"Ġunopened":10797,"olph":10798,"Ġhunk":10799,"Ġstate":10800,"reduced":10801,"ureen":10802,"ĠDale":10803,"ĠLuck":10804,"ĠLorna":10805,"oone":10806,"Ġserrano":10807,"ĠVi":10808,"ĠNatural":10809,"cookie":10810,"Ġthawing":10811,"Ġmealy":10812,"Ġpinched":10813,"ĠTokay":10814,"flakes":10815,"Ġproceed":10816,"alapenos":10817,"ostess":10818,"aires":10819,"ĠSnip":10820,"odles":10821,"Ġmostly":10822,"ĠLoosely":10823,"Ġproducts":10824,"Ġsizzles":10825,"Ġfloor":10826,"tDrain":10827,"squeeze":10828,"Weight":10829,"Ġcarbohydrates":10830,"Ġrearranging":10831,"Ġsingles":10832,"Ġholders":10833,"Ġrendered":10834,"ĠMcKay":10835,"ĠBolts":10836,"Ġenglish":10837,"Angel":10838,"Christmas":10839,"Ġdifficult":10840,"Ar":10841,"big":10842,"dip":10843,"noon":10844,"tChill":10845,"vable":10846,"Ġsna":10847,"Ġbad":10848,"Ġpain":10849,"Ġmackerel":10850,"spices":10851,"Ġsuc":10852,"ĠSad":10853,"ĠBet":10854,"ĠPil":10855,"geon":10856,"ĠMicrow":10857,"Ġhoop":10858,"Ġmarrow":10859,"ĠDapple":10860,"ĠDress":10861,"ĠDampen":10862,"stew":10863,"Ġrepl":10864,"ĠFu":10865,"ident":10866,"ĠInside":10867,"Ġrom":10868,"Ġrocks":10869,"uffles":10870,"ĠKansas":10871,"psom":10872,"Ġpremade":10873,"Ġtablets":10874,"ĠBee":10875,"Ġscra":10876,"ĠStock":10877,"ĠPeanutty":10878,"Ġprov":10879,"Ġprovolone":10880,"ĠDipped":10881,"ĠCheezy":10882,"Ġpulver":10883,"Ġworked":10884,"ĠTriangles":10885,"ĠSargento":10886,"ĠMillionaires":10887,"ĠSoftasilk":10888,"Ġdollar":10889,"Ġsmoker":10890,"Almond":10891,"ĠVermont":10892,"ĠGallo":10893,"ĠBakers":10894,"ĠBaklava":10895,"onzoni":10896,"ĠDavid":10897,"refrigerated":10898,"Ġbeautiful":10899,"Ġfarmer":10900,"ĠTreasure":10901,"ĠSmucker":10902,"Ġdrizzled":10903,"Philly":10904,"Ġmilder":10905,"ĠSTIR":10906,"Ġtepid":10907,"English":10908,"HE":10909,"Honey":10910,"Pet":10911,"Pasta":10912,"Sn":10913,"South":10914,"mother":10915,"parsley":10916,"Ġcame":10917,"Ġtass":10918,"Ġmiso":10919,"Ġfifteen":10920,"Ġwesson":10921,"Ġdom":10922,"Ġdove":10923,"Ġdries":10924,"illow":10925,"olitan":10926,"ĠCher":10927,"ĠDar":10928,"ĠDannon":10929,"still":10930,"Ġblintzes":10931,"ĠInstead":10932,"ĠOmit":10933,"Ġfirmer":10934,"eave":10935,"esserts":10936,"ĠButterf":10937,"ĠGrace":10938,"ĠCaraway":10939,"ĠReduced":10940,"Ġtwisted":10941,"Ġaroma":10942,"ĠFills":10943,"Ġlastly":10944,"ĠBlueberries":10945,"ĠCrabs":10946,"irls":10947,"ugget":10948,"buttermilk":10949,"Ġbaskets":10950,"ecker":10951,"Ġcrem":10952,"ĠLouise":10953,"Ġcontent":10954,"ĠPearl":10955,"ĠScotcheroos":10956,"tRoll":10957,"ĠPassion":10958,"ĠKrispy":10959,"ĠColorful":10960,"ĠDuckling":10961,"halved":10962,"rific":10963,"separate":10964,"Ġbeautifully":10965,"ĠDrumsticks":10966,"Ġexception":10967,"ĠRichardson":10968,"ĠReserving":10969,"ĠOzark":10970,"125":10971,"Better":10972,"Hour":10973,"Mom":10974,"Tex":10975,"gener":10976,"oha":10977,"sec":10978,"inth":10979,"Ġ112":10980,"Ġplease":10981,"atma":10982,"alcoholic":10983,"ĠSen":10984,"ĠSuch":10985,"Ġluck":10986,"ĠBorsch":10987,"ĠPheasant":10988,"ĠPride":10989,"isf":10990,"ĠTahini":10991,"Ġunit":10992,"elles":10993,"000":10994,"uper":10995,"Ġmarbled":10996,"ĠRol":10997,"ĠFra":10998,"ĠSpear":10999,"ĠLess":11000,"Ġsoured":11001,"Ġkey":11002,"ĠBroken":11003,"estic":11004,"ĠVern":11005,"Ġsmoother":11006,"ĠPremium":11007,"Ġpremium":11008,"onial":11009,"ichang":11010,"ĠForce":11011,"Ġ248":11012,"Ġdarker":11013,"ĠAllspice":11014,"ĠDipping":11015,"Ġcombo":11016,"ĠAppet":11017,"ĠCla":11018,"ĠPhy":11019,"ĠSkinner":11020,"ĠValentine":11021,"ĠScallopini":11022,"ĠBarely":11023,"ondant":11024,"ĠLaura":11025,"seasoning":11026,"ĠMagn":11027,"ĠEdition":11028,"Ġsleeves":11029,"Ġmasala":11030,"Ġgooseberries":11031,"Ġthoughts":11032,"annah":11033,"Grandma":11034,"ĠCounty":11035,"ĠFrancisco":11036,"grapefruit":11037,"!\\":11038,"Cinnamon":11039,"Knead":11040,"Lite":11041,"MM":11042,"Peach":11043,"mas":11044,"mings":11045,"okey":11046,"rite":11047,"tServes":11048,"Ġtried":11049,"Ġbuckey":11050,"onto":11051,"Ġfoot":11052,"ĠCafe":11053,"ĠSwe":11054,"ĠBack":11055,"ĠBuckle":11056,"ĠPudd":11057,"ĠTail":11058,"ĠTint":11059,"olk":11060,"ellmann":11061,"Ġforce":11062,"iper":11063,"Ġjugs":11064,"Ġspaces":11065,"ĠFan":11066,"ĠFag":11067,"ĠStud":11068,"umble":11069,"ĠLabel":11070,"ĠLisa":11071,"ĠHaddock":11072,"Ġ105":11073,"Ġservice":11074,"Ġanimal":11075,"Ġfills":11076,"Ġliquified":11077,"ckrich":11078,"ĠRefresh":11079,"ĠRedford":11080,"Ġquah":11081,"Ġballer":11082,"ĠTopper":11083,"Ġaromatic":11084,"ĠConnie":11085,"bls":11086,"Ġdiamonds":11087,"Ġskimming":11088,"ĠGoodie":11089,"Ġbulghur":11090,"anned":11091,"ĠGlad":11092,"Chinese":11093,"ĠCrockpot":11094,"ĠHead":11095,"Ġdiscarded":11096,"ront":11097,"arbecues":11098,"ĠPolly":11099,"ĠTenderize":11100,"ĠMax":11101,"Ġ1975":11102,"Ġsimply":11103,"ĠBohem":11104,"Ġdrumettes":11105,"Ġwaiting":11106,"Ġvegeburger":11107,"Ġsatisf":11108,"ĠGenoa":11109,"ĠRestaurant":11110,"ĠDavis":11111,"ĠLiqueur":11112,"ĠBubbles":11113,"ĠMeltaways":11114,"Ġnewspaper":11115,"efrigerate":11116,"Ġsouthern":11117,"ĠIrene":11118,"Freez":11119,"Ho":11120,"Rom":11121,"Us":11122,"Wor":11123,"eason":11124,"tied":11125,"wax":11126,"Ġmorn":11127,"ouillon":11128,"Ġfle":11129,"Ġfajitas":11130,"Ġandouille":11131,"Ġgrow":11132,"ĠBunch":11133,"ĠBud":11134,"ĠPico":11135,"istle":11136,"ĠMinn":11137,"icky":11138,"ĠAc":11139,"Ġcreamier":11140,"chips":11141,"rift":11142,"Ġgrit":11143,"ĠRag":11144,"ĠRonzoni":11145,"Ġspicier":11146,"ĠStars":11147,"Ġslim":11148,"Ġboxed":11149,"ĠKris":11150,"Ġpourable":11151,"Ġwarming":11152,"ĠMelts":11153,"ĠSlash":11154,"Ġdissolving":11155,"Ġmeals":11156,"anched":11157,"ĠBrenda":11158,"ĠMinted":11159,"Ġremovable":11160,"Ġroses":11161,"ahi":11162,"ĠColonial":11163,"enny":11164,"Ġdevils":11165,"ĠLean":11166,"ĠCubed":11167,"ĠShortcut":11168,"Ġstroganoff":11169,"Ġincreased":11170,"embert":11171,"follows":11172,"Ġtangerines":11173,"almond":11174,"Ġutility":11175,"Ġtreats":11176,"Ġselection":11177,"Ġthoughtfulness":11178,"ĠDepression":11179,"Ġsundae":11180,"bacore":11181,"Ġtidbit":11182,"Ġromano":11183,"ĠBohemian":11184,"AT":11185,"At":11186,"Drain":11187,"bottled":11188,"cider":11189,"iels":11190,"lah":11191,"nese":11192,"tly":11193,"tpan":11194,"vis":11195,"zle":11196,"Ġ__":11197,"Ġsense":11198,"erican":11199,"Ġfr":11200,"ĠCrinkle":11201,"ako":11202,"Ġdunk":11203,"Ġgrained":11204,"ĠPurpose":11205,"ĠPuffy":11206,"ĠPoultry":11207,"Ġholly":11208,"Ġoverflow":11209,"Ġcoff":11210,"ĠWeed":11211,"ĠWee":11212,"Ġspe":11213,"Ġ96":11214,"Ġkiw":11215,"osable":11216,"ĠEli":11217,"tta":11218,"ĠKr":11219,"Ġpasty":11220,"Ġbru":11221,"Ġsecuring":11222,"Ġamerican":11223,"ĠFrying":11224,"ĠSquare":11225,"Ġimagination":11226,"ĠUnbel":11227,"ĠMexicana":11228,"ĠCalz":11229,"ĠSurprises":11230,"Ġbasmati":11231,"ĠBouillon":11232,"ĠWaffle":11233,"Ġmounding":11234,"Ġcharity":11235,"Ġbows":11236,"concentr":11237,"Swans":11238,"ĠCamembert":11239,"Ġclaws":11240,"lettes":11241,"miniature":11242,"worth":11243,"Ġcloverleaf":11244,"ĠBitters":11245,"Ġcuppa":11246,"Healthy":11247,"ĠSaturday":11248,"Breakfast":11249,"Polish":11250,"Drop":11251,"Oeuvre":11252,"hance":11253,"iago":11254,"lie":11255,"slices":11256,"tp":11257,"into":11258,"Ġsaturated":11259,"err":11260,"Ġol":11261,"Ġfront":11262,"Ġdaiquiri":11263,"Ġaut":11264,"ĠSy":11265,"Ġlost":11266,"ĠBri":11267,"ĠTidbits":11268,"ĠMess":11269,"chio":11270,"Ġshine":11271,"ĠChive":11272,"ĠDee":11273,"ansion":11274,"ĠHorn":11275,"ĠGnocchi":11276,"elyn":11277,"Ġcluster":11278,"ĠBeating":11279,"Ġseasons":11280,"ollen":11281,"ĠVin":11282,"ĠNips":11283,"ĠNumber":11284,"ĠAndes":11285,"ĠSlim":11286,"iches":11287,"oci":11288,"ĠArk":11289,"Ġhighly":11290,"soda":11291,"ĠAloha":11292,"Ġpopovers":11293,"ĠCrabbies":11294,"Ġunderbeat":11295,"ĠSkinny":11296,"ĠRecipes":11297,"ĠPlate":11298,"Ġtrimmings":11299,"ĠApart":11300,"Ġshortest":11301,"ĠNestles":11302,"Ġswell":11303,"preheated":11304,"Ġgrinding":11305,"ĠMajor":11306,"Ġcavatelli":11307,"Ġdisjoin":11308,"Ġswirls":11309,"Ġ465":11310,"ĠLentils":11311,"ĠJanet":11312,"Ġvaries":11313,"ĠSucc":11314,"ĠHolding":11315,"Ġseashells":11316,"Ġincorporate":11317,"ievable":11318,"quartered":11319,"Ġcarbohydrate":11320,"ĠStays":11321,"ĠPrime":11322,"ĠHoly":11323,"Ġferment":11324,"Ġscraper":11325,"AM":11326,"Crab":11327,"Grease":11328,"Hellmann":11329,"Oat":11330,"Your":11331,"bouillon":11332,"mouth":11333,"sometimes":11334,"tmilk":11335,"anzo":11336,"Ġpigs":11337,"Ġmother":11338,"Ġfail":11339,"Ġchic":11340,"Ġwat":11341,"ppine":11342,"ĠCass":11343,"aser":11344,"Ġsupp":11345,"ĠSter":11346,"heart":11347,"ĠBry":11348,"ĠBern":11349,"ĠBerries":11350,"ĠPay":11351,"acity":11352,"eseed":11353,"Ġuntoasted":11354,"ĠAust":11355,"Ġstom":11356,"Ġstud":11357,"tore":11358,"tsalt":11359,"ĠChives":11360,"ĠDairy":11361,"ĠDaiquiri":11362,"ĠFeed":11363,"ĠLover":11364,"ĠHer":11365,"Ġ54":11366,"armint":11367,"ĠCokes":11368,"uddy":11369,"ĠEth":11370,"ĠEpsom":11371,"essel":11372,"Ġsmoothing":11373,"Ġfruitcake":11374,"Ġcommon":11375,"ouss":11376,"ĠCarve":11377,"undry":11378,"Ġpinwheel":11379,"ĠScand":11380,"ĠMeatloaf":11381,"Ġhashbrown":11382,"ĠPounds":11383,"whites":11384,"unsaturated":11385,"ĠSmart":11386,"Ġcapacity":11387,"ĠGrands":11388,"mayonnaise":11389,"ĠAnna":11390,"ĠSunflower":11391,"Ġ235":11392,"ĠHoppin":11393,"Ġmicrowaving":11394,"Ġmarbleize":11395,"faits":11396,"longer":11397,"Ġgrouper":11398,"ĠCollard":11399,"ĠDieter":11400,"ĠGerber":11401,"Ġcrayfish":11402,"ĠAfrican":11403,"ĠIncred":11404,"ĠOklah":11405,"ĠGiblet":11406,"Ġsuccess":11407,"ichangas":11408,"ĠOklahoma":11409,"'m":11410,"*.":11411,"90":11412,"Dill":11413,"IL":11414,"Melt":11415,"Peek":11416,"breasts":11417,"before":11418,"center":11419,"lots":11420,"need":11421,"sw":11422,"tBlend":11423,"ui":11424,"vin":11425,"Ġtureen":11426,"Ġbind":11427,"Ġpreserved":11428,"Ġmatter":11429,"iled":11430,"ilize":11431,"enb":11432,"andine":11433,"Ġwrit":11434,"icchio":11435,"ĠCath":11436,"ĠCindy":11437,"rot":11438,"amata":11439,"Ġdifference":11440,"Ġ340":11441,"ĠSemi":11442,"ĠTightly":11443,"ĠTandy":11444,"Ġcheer":11445,"Ġunheated":11446,"Ġstur":11447,"irlit":11448,"ĠDain":11449,"ĠDoone":11450,"ĠWanda":11451,"Ġspin":11452,"ĠFar":11453,"ĠSpace":11454,"ĠSte":11455,"Ġyoghurt":11456,"ĠLil":11457,"ĠLuc":11458,"ĠHyd":11459,"Ġclou":11460,"Ġshorter":11461,"lier":11462,"Ġsyrups":11463,"Ġheaped":11464,"Ġblends":11465,"Ġprecook":11466,"ĠNone":11467,"Ġenhance":11468,"ĠShoney":11469,"ĠBreadsticks":11470,"ternational":11471,"ernel":11472,"saute":11473,"ĠQuarts":11474,"Ġsealable":11475,"Ġ--":11476,"uki":11477,"Ġsliver":11478,"Ġspringy":11479,"addle":11480,"Chili":11481,"ĠGingered":11482,"Start":11483,"abeth":11484,"ĠSummertime":11485,"ĠIslands":11486,"ĠLovers":11487,"ĠSchnitzel":11488,"Ġwintergreen":11489,"ĠJewel":11490,"Ġhuman":11491,"Ġ380":11492,"ouffl":11493,"ĠSensational":11494,"Ġaccumulated":11495,"Ġenhancer":11496,"Ġjalapeo":11497,"ĠBecky":11498,"Romano":11499,"'d":11500,"As":11501,"Heat":11502,"Ind":11503,"Of":11504,"Tab":11505,"dash":11506,"family":11507,"ker":11508,"ritional":11509,"seeds":11510,"tart":11511,"twell":11512,"total":11513,"Ġcass":11514,"Ġcuke":11515,"Ġchitterlings":11516,"ĠCould":11517,"Ġdisk":11518,"Ġgnocchi":11519,"ĠPra":11520,"ĠPom":11521,"Ġflan":11522,"ĠTill":11523,"ĠAid":11524,"ĠRoot":11525,"ĠDawn":11526,"ushaw":11527,"Ġricer":11528,"imble":11529,"Ġseep":11530,"apolitan":11531,"ĠHappiness":11532,"meas":11533,"Ġslant":11534,"Ġslashes":11535,"ĠEckrich":11536,"ĠKiwi":11537,"ĠPrepared":11538,"hamburger":11539,"Ġpoach":11540,"Ġcrowns":11541,"Ġunbl":11542,"ĠJackie":11543,"Ġfilter":11544,"ĠDoris":11545,"tcheese":11546,"Ġstovetop":11547,"ĠRev":11548,"Ġprevents":11549,"Ġmeasures":11550,"Ġstringy":11551,"Ġshortly":11552,"ĠCurd":11553,"ĠExodus":11554,"ĠPolska":11555,"ĠLau":11556,"Ġmedallions":11557,"Raspberry":11558,"Ġpeeking":11559,"Ġshowing":11560,"ĠGuilt":11561,"Ġfloats":11562,"ĠComplete":11563,"Ġajar":11564,"Ġtends":11565,"Flavor":11566,"Ġpraline":11567,"ĠMunchies":11568,"Ġindicated":11569,"Ġoverbrowning":11570,"McCormick":11571,"ĠLumpia":11572,"ĠWeeks":11573,"Ġspearmint":11574,"Ġdisjointed":11575,"Ġchicory":11576,"Ġstomach":11577,"Eye":11578,"Mrs":11579,"Method":11580,"bought":11581,"have":11582,"net":11583,"pet":11584,"ras":11585,"rinse":11586,"Ġcm":11587,"inavian":11588,"Ġsided":11589,"angh":11590,"Ġtell":11591,"arrange":11592,"Ġmag":11593,"Ġmesquite":11594,"ony":11595,"andom":11596,"ouli":11597,"spicy":11598,"ĠCaps":11599,"Ġsubs":11600,"Ġaged":11601,"Ġlasts":11602,"ĠBoat":11603,"ĠPumpernickel":11604,"Ġflax":11605,"ĠTutti":11606,"ĠTbls":11607,"ĠMusc":11608,"Ġha":11609,"adjust":11610,"Ġshamp":11611,"ĠRon":11612,"aylor":11613,"ĠChamp":11614,"Ġcoal":11615,"ĠWing":11616,"ĠWood":11617,"ĠWinner":11618,"Ġrough":11619,"Ġgaram":11620,"ĠFred":11621,"ĠFork":11622,"ĠFifteen":11623,"ĠLill":11624,"Ġclump":11625,"ullet":11626,"ĠKix":11627,"Ġblackened":11628,"ĠNan":11629,"Ġliquify":11630,"eepot":11631,"Ġpastries":11632,"peach":11633,"Ġmochiko":11634,"Ġaccept":11635,"ĠSaucepan":11636,"ĠTodd":11637,"Ġcompl":11638,"ĠFlo":11639,"Ġknot":11640,"potatoes":11641,"ĠApproximate":11642,"ĠClara":11643,"ĠCracklin":11644,"ĠAmounts":11645,"ĠAsiago":11646,"ĠReaLime":11647,"Ġburgundy":11648,"Ġadhere":11649,"Ġlining":11650,"Ġpreheating":11651,"Ġbuttah":11652,"Ġjuniper":11653,"mmm":11654,"Ġfigure":11655,"nonfat":11656,"ĠCorrect":11657,"ĠMicrocook":11658,"ĠDaniels":11659,"Ġmidway":11660,"Ġdarkening":11661,"ĠMildred":11662,"ollipops":11663,"Ġoxtails":11664,"Ġpolyunsaturated":11665,"ĠUnbelievable":11666,"ĠHydrox":11667,"Ġshampoo":11668,"Herb":11669,"Ice":11670,"figs":11671,"hook":11672,"jalapeno":11673,"pt":11674,"west":11675,"zabeth":11676,"Ġties":11677,"Ġfits":11678,"Ġinexpensive":11679,"leaves":11680,"amook":11681,"Ġ37":11682,"ĠBish":11683,"ĠBomb":11684,"ĠBite":11685,"inet":11686,"isto":11687,"ĠMal":11688,"otle":11689,"verting":11690,"Ġ44":11691,"Ġsaid":11692,"Ġshade":11693,"ĠRare":11694,"Ġovercooked":11695,"ĠChic":11696,"ĠWoman":11697,"steak":11698,"Ġspec":11699,"ĠLim":11700,"Ġblow":11701,"Ġovenware":11702,"opt":11703,"ĠGallon":11704,"ĠWorchestershire":11705,"ĠJos":11706,"ĠJalapenos":11707,"ĠSalads":11708,"ĠPrebake":11709,"ĠMelting":11710,"Ġspreads":11711,"periment":11712,"ĠRedenb":11713,"Ġleafy":11714,"Ġbrought":11715,"Ġcleaning":11716,"ĠArgo":11717,"Ġpattie":11718,"ĠMexene":11719,"whip":11720,"ĠPetite":11721,"ĠSnaps":11722,"crusts":11723,"ĠUsed":11724,"ĠCrackling":11725,"ĠChristm":11726,"Ġsunshine":11727,"ĠImmerse":11728,"uau":11729,"ĠPolenta":11730,"Ġdisturb":11731,"ĠBraunschweiger":11732,"Ġwilts":11733,"Ġearthen":11734,"ĠGeb":11735,"Ġbraise":11736,"ĠWilt":11737,"prints":11738,"Ġvaried":11739,"aggies":11740,"hardt":11741,"Ġlaundry":11742,"ĠCanton":11743,"ĠEastern":11744,"Ġtimer":11745,"Ġidea":11746,"Ġachieve":11747,"tFold":11748,"maximum":11749,"Stove":11750,"Ġmornings":11751,"Ġcoffeepot":11752,"ĠElizabeth":11753,"ĠSuccotash":11754,"Ġsturdy":11755,"ĠRedenbacher":11756,"En":11757,"OW":11758,"gr":11759,"oeuvre":11760,"pinch":11761,"rg":11762,"sn":11763,"Ġtrow":11764,"edy":11765,"Ġmat":11766,"atkes":11767,"Ġinverting":11768,"elma":11769,"ited":11770,"ĠBoo":11771,"ĠPac":11772,"ĠPkg":11773,"inetti":11774,"gging":11775,"ĠTerry":11776,"ĠTouch":11777,"ĠTunnel":11778,"ĠMorn":11779,"Ġunti":11780,"aded":11781,"Ġleak":11782,"Ġwhichever":11783,"astime":11784,"Ġrat":11785,"stiff":11786,"ĠFace":11787,"ĠSpider":11788,"ĠStain":11789,"ĠStem":11790,"ĠStone":11791,"ĠIron":11792,"Ġlemony":11793,"ĠHostess":11794,"oons":11795,"rinkled":11796,"ĠOV":11797,"Ġcooler":11798,"ĠJem":11799,"ĠKen":11800,"ĠVick":11801,"tomatoes":11802,"zzy":11803,"Ġtartness":11804,"ĠSweetheart":11805,"ĠSodium":11806,"ĠCane":11807,"ĠCanada":11808,"soy":11809,"Ġregularly":11810,"ongy":11811,"Ġsubmer":11812,"Ġsnip":11813,"ĠDelightful":11814,"clean":11815,"ĠCaramelize":11816,"ĠTurk":11817,"Ġunderbake":11818,"ĠGrande":11819,"ĠApricots":11820,"ĠNeapolitan":11821,"Ġadults":11822,"Ġcreative":11823,"ĠFrances":11824,"Ġdisks":11825,"ĠRosy":11826,"Dijon":11827,"ĠBoboli":11828,"ĠDietetic":11829,"ĠJulie":11830,"Ġstarted":11831,"Should":11832,"ĠBuddy":11833,"Ġpolenta":11834,"onaise":11835,"Ġgherkin":11836,"ĠTerrific":11837,"separated":11838,"ĠStriped":11839,"Ġideal":11840,"Ġobtained":11841,"ĠMahatma":11842,"Leviticus":11843,"Ġappetit":11844,"Salad":11845,"ĠConsomme":11846,"Texas":11847,"generous":11848,"inthians":11849,"Ġkiwis":11850,"oussaka":11851,"Ġhashbrowns":11852,"ĠChristmastime":11853,"275":11854,"Dutch":11855,"Large":11856,"Over":11857,"body":11858,"cur":11859,"saving":11860,"torn":11861,"taco":11862,"tbaking":11863,"Ġign":11864,"Ġcab":11865,"Ġcent":11866,"inf":11867,"Ġtaffy":11868,"Ġmus":11869,"onn":11870,"Ġfist":11871,"split":11872,"Ġglace":11873,"Ġlist":11874,"ĠBeth":11875,"ĠTir":11876,"ĠTah":11877,"ĠMerry":11878,"ĠMatzo":11879,"Ġvessel":11880,"rage":11881,"Ġcram":11882,"Ġshown":11883,"ghul":11884,"ĠRay":11885,"ĠChik":11886,"ĠDen":11887,"abi":11888,"abs":11889,"ĠHope":11890,"asha":11891,"ĠGone":11892,"Ġ95":11893,"ĠCob":11894,"endy":11895,"Ġsky":11896,"reasing":11897,"ĠJeff":11898,"Ġlonghorn":11899,"ĠCorny":11900,"ĠRoca":11901,"Ġhandy":11902,"Ġtubular":11903,"Ġcrisper":11904,"Ġcrisped":11905,"Ġcrockery":11906,"ĠFrangel":11907,"usset":11908,"ĠEnergy":11909,"Ġtrio":11910,"ĠPronto":11911,"ĠPuffed":11912,"ĠNestea":11913,"Ġdietetic":11914,"ĠPapa":11915,"Ġresift":11916,"Ġtwisting":11917,"ĠTostada":11918,"skins":11919,"Ġpricked":11920,"Frozen":11921,"ĠAvoid":11922,"aximum":11923,"Ġduckling":11924,"Swedish":11925,"Ġexpand":11926,"Ġexposed":11927,"Ġuniformly":11928,"ĠCorinthians":11929,"Ġperfectly":11930,"Ġextend":11931,"Ġcampfire":11932,"cocoa":11933,"fourth":11934,"blueberry":11935,"ĠWreaths":11936,"Check":11937,"ĠDecrease":11938,"ĠHazelnut":11939,"ĠJunket":11940,"Ġbluing":11941,"Ġkolbassi":11942,"ĠChimichangas":11943,"ĠArkansas":11944,"ĠSterilize":11945,"ĠCathed":11946,"Tabasco":11947,"ĠJemima":11948,"After":11949,"Bur":11950,"Dump":11951,"Nestle":11952,"Squ":11953,"basil":11954,"billy":11955,"com":11956,"candy":11957,"noodles":11958,"rator":11959,"Ġcapped":11960,"Ġcotton":11961,"Ġocc":11962,"Ġtarter":11963,"Ġpate":11964,"enuts":11965,"oug":11966,"Ġwagon":11967,"asiest":11968,"amps":11969,"Ġsugarless":11970,"ĠSmear":11971,"terrey":11972,"Ġlock":11973,"Ġlrg":11974,"ĠBass":11975,"Ġeggroll":11976,"owa":11977,"Ġ(\\":11978,"ĠMignon":11979,"ĠMoussaka":11980,"Ġvers":11981,"usual":11982,"Ġnyl":11983,"ĠChap":11984,"ĠChunks":11985,"Ġcookbook":11986,"ĠDraw":11987,"ĠDills":11988,"aban":11989,"Ġreason":11990,"Ġspongy":11991,"ĠFinn":11992,"ĠLuau":11993,"ĠHav":11994,"Ġ550":11995,"ĠGems":11996,"Ġalbacore":11997,"Ġapproximate":11998,"osity":11999,"ĠOl":12000,"ĠOo":12001,"Ġnutty":12002,"ĠJigg":12003,"ĠKal":12004,"ĠKit":12005,"Ġsmother":12006,"ĠSauc":12007,"Ġliquef":12008,"Ġmock":12009,"ĠSwordfish":12010,"ousin":12011,"Ġthroughly":12012,"ermit":12013,"extured":12014,"ĠDeli":12015,"ĠRancho":12016,"ĠClove":12017,"ĠOrville":12018,"ĠDumplins":12019,"Ġbulgar":12020,"ĠRegular":12021,"ĠRearrange":12022,"odate":12023,"ĠCroiss":12024,"ĠPlunge":12025,"ĠHeavy":12026,"Ġfrank":12027,"ibly":12028,"ĠBayou":12029,"ĠJames":12030,"Ġstriped":12031,"ĠMaine":12032,"ĠElmer":12033,"Ġ190":12034,"ĠPoach":12035,"Ġcontinues":12036,"Ġresp":12037,"ĠTamales":12038,"ĠParfaits":12039,"ĠCasino":12040,"ĠPicadillo":12041,"260":12042,"ĠEvelyn":12043,"Ġacidity":12044,"Whip":12045,"ĠRelleno":12046,"Ġshowers":12047,"Ġlavender":12048,"minus":12049,"bottomed":12050,"ĠPresto":12051,"ĠPocket":12052,"Ġsacch":12053,"Ġwreaths":12054,"Ġselected":12055,"Ġdiabetics":12056,"Ġdisposable":12057,"Ġradicchio":12058,"Ġjerky":12059,"itamin":12060,"ĠNothing":12061,"Ġdomestic":12062,"ĠFagioli":12063,"ĠRefresher":12064,"Ġflex":12065,"ĠScandinavian":12066,"Ġtrowel":12067,"ĠCathedral":12068,"Ġnylon":12069,"Art":12070,"By":12071,"Bundt":12072,"Gen":12073,"Gra":12074,"eque":12075,"gro":12076,"ique":12077,"pink":12078,"ttop":12079,"tpepper":12080,"vely":12081,"wan":12082,"wide":12083,"yeast":12084,"Ġsample":12085,"Ġpam":12086,"oulet":12087,"ĠCu":12088,"ĠSingle":12089,"ising":12090,"ĠToothpick":12091,"Ġunfold":12092,"olina":12093,"Ġhar":12094,"ĠAmy":12095,"otic":12096,"Ġstated":12097,"chili":12098,"Ġshin":12099,"Ġmargin":12100,"Ġgristle":12101,"Ġbrownness":12102,"ĠDig":12103,"ingredients":12104,"ĠWitch":12105,"Ġriced":12106,"Ġrandom":12107,"Ġpanc":12108,"Ġspoke":12109,"ĠFuss":12110,"ĠIowa":12111,"ĠLook":12112,"ĠLord":12113,"ĠLucy":12114,"ĠHull":12115,"ĠGriddle":12116,"uls":12117,"ĠEr":12118,"Ġnutritional":12119,"ĠJug":12120,"Ġrefreeze":12121,"Ġplunge":12122,"ĠVen":12123,"actus":12124,"ĠBeach":12125,"Ġzipper":12126,"Ġsoftly":12127,"Ġscrod":12128,"ichy":12129,"ichoke":12130,"ĠCarter":12131,"scallions":12132,"ĠScoops":12133,"potato":12134,"Ġtrimming":12135,"ĠYummies":12136,"ĠPopover":12137,"ĠIrresist":12138,"Ġscratch":12139,"ĠDays":12140,"Cracker":12141,"Ġvariations":12142,"ĠHalves":12143,"ĠHours":12144,"Ġadvice":12145,"ĠHalfway":12146,"ĠEdna":12147,"ĠSpringtime":12148,"ĠHillbilly":12149,"Black":12150,"ĠHandle":12151,"ĠGramma":12152,"Ġhusband":12153,"Ġattach":12154,"pourri":12155,"ĠSolo":12156,"equals":12157,"cooled":12158,"ĠEllen":12159,"ĠFaye":12160,"Ġutensil":12161,"ĠChristian":12162,"Ġpulverized":12163,"ĠPuddin":12164,"Freezes":12165,"ĠTillamook":12166,"Ġacceptable":12167,"ĠBishop":12168,"Dessert":12169,"Ginger":12170,"Just":12171,"Leave":12172,"Ore":12173,"Place":12174,"Yogurt":12175,"bag":12176,"few":12177,"mark":12178,"seal":12179,"tit":12180,"Ġ$":12181,"Ġtumb":12182,"Ġbend":12183,"Ġpizz":12184,"Ġpair":12185,"Ġpaddle":12186,"ilo":12187,"oule":12188,"Ġfamous":12189,"spaghetti":12190,"legs":12191,"Ġdie":12192,"Ġaid":12193,"ĠBand":12194,"Ġviole":12195,"ĠAnch":12196,"cherries":12197,"tsh":12198,"Ġsazon":12199,"Ġshare":12200,"Ġsharing":12201,"Ġmarket":12202,"ĠChant":12203,"ĠDove":12204,"ĠDeg":12205,"ĠFaith":12206,"ĠFiber":12207,"ĠSpices":12208,"ĠStre":12209,"apt":12210,"Ġcrumbed":12211,"shell":12212,"Ġ98":12213,"arti":12214,"ĠPeppy":12215,"ĠPebbles":12216,"Ġcolorings":12217,"Ġcuracao":12218,"ĠScout":12219,"ĠPastries":12220,"ĠProtein":12221,"ĠReeses":12222,"Ġflowerettes":12223,"Ġdelights":12224,"ĠDoughnut":12225,"ĠAmandine":12226,"ĠDevils":12227,"Ġgumdrop":12228,"yline":12229,"ĠBoys":12230,"ĠScotchies":12231,"ĠSnickerdoodle":12232,"ĠCashews":12233,"ĠCharles":12234,"Ġomelette":12235,"Ġstretching":12236,"ĠEveryday":12237,"Ġpolish":12238,"ĠMamie":12239,"ĠMamaw":12240,"Ġhunks":12241,"Caramel":12242,"ĠBuild":12243,"peanuts":12244,"Blueberry":12245,"ĠWalla":12246,"Ġaccumul":12247,"ĠGarbanzo":12248,"tstir":12249,"Ġclassic":12250,"ĠRouladen":12251,"Southern":12252,"Ġwritten":12253,"Ġunblanched":12254,"ĠRarebit":12255,"ĠMornay":12256,"Ġcabinet":12257,"?)":12258,"AS":12259,"Ap":12260,"Ma":12261,"New":12262,"Pork":12263,"Watch":12264,"din":12265,"defrost":12266,"dhook":12267,"mustard":12268,"rams":12269,"td":12270,"tea":12271,"yolks":12272,"zucchini":12273,"Ġcell":12274,"Ġcult":12275,"Ġpith":12276,"Ġmort":12277,"rell":12278,"utton":12279,"alle":12280,"Ġfud":12281,"spir":12282,"ela":12283,"Ġdoritos":12284,"Ġaff":12285,"ĠSorbet":12286,"Ġgelled":12287,"Ġloc":12288,"ĠPoin":12289,"isu":12290,"ĠTi":12291,"ĠTaylor":12292,"Ġcheez":12293,"Ġuncut":12294,"Ġunwrap":12295,"uses":12296,"otion":12297,"Ġstead":12298,"ghter":12299,"Ġsock":12300,"ĠChurn":12301,"ĠDandy":12302,"ĠDecker":12303,"Ġcoon":12304,"Ġcoins":12305,"ĠWolf":12306,"ĠWaik":12307,"urs":12308,"imitation":12309,"ĠIv":12310,"Ġpotluck":12311,"iful":12312,"ĠLam":12313,"ĠLunn":12314,"shells":12315,"ideo":12316,"eche":12317,"ĠEating":12318,"ĠEconom":12319,"entic":12320,"ĠJerry":12321,"Ġgingerroot":12322,"ucumber":12323,"Ġcolby":12324,"enedic":12325,"ĠCarl":12326,"ĠSeveral":12327,"Ġmicrowaveable":12328,"flaked":12329,"ĠFlako":12330,"Ġ245":12331,"Ġminiatures":12332,"Ġpatis":12333,"ĠMont":12334,"nots":12335,"ĠPatio":12336,"ĠPatrick":12337,"ĠClaret":12338,"tcream":12339,"ĠPasties":12340,"fryers":12341,"ĠCrusted":12342,"ĠDeb":12343,"iddlehead":12344,"ĠEnt":12345,"Ġsitting":12346,"ĠMomma":12347,"Ġpowered":12348,"Ġsixths":12349,"Ġcombinations":12350,"Ġburghul":12351,"ritive":12352,"Ġdeglaze":12353,"ĠHopping":12354,"Ġperforated":12355,"ĠPortion":12356,"Ġgrown":12357,"Ġdehydrator":12358,"Ġfeeding":12359,"Ġtrying":12360,"Ġveins":12361,"ĠEverything":12362,"ĠChippers":12363,"ĠBourgu":12364,"tmixture":12365,"tube":12366,"ĠCombo":12367,"achelor":12368,"Ġmexican":12369,"ĠMimi":12370,"Ġvelvety":12371,"Ġcloudy":12372,"ĠGebhardt":12373,"ĠFrangelico":12374,"Artichoke":12375,"ĠWaikiki":12376,"ĠBourguignon":12377,"Cold":12378,"Em":12379,"Lipton":12380,"Mac":12381,"SG":12382,"Sk":12383,"UP":12384,"Vidalia":12385,"aet":12386,"bar":12387,"hl":12388,"men":12389,"tec":12390,"tgreased":12391,"tTh":12392,"yps":12393,"anas":12394,"Ġovals":12395,"arant":12396,"esome":12397,"Ġpign":12398,"Ġmist":12399,"Ġmesh":12400,"Ġmirlit":12401,"Ġfib":12402,"icular":12403,"ppie":12404,"ameat":12405,"Ġlifted":12406,"ĠBenedic":12407,"ĠPain":12408,"ĠPAM":12409,"ggest":12410,"ddled":12411,"ĠTy":12412,"ĠMiddle":12413,"ĠMuddy":12414,"Ġunwhipped":12415,"ĠAbs":12416,"tobell":12417,"Ġnone":12418,"ĠRoux":12419,"Ġoily":12420,"ĠWendy":12421,"Ġrusset":12422,"ĠFoo":12423,"ĠFajita":12424,"ĠFoster":12425,"Ġseen":12426,"ĠLizz":12427,"Ġovensafe":12428,"armel":12429,"Ġkool":12430,"Ġ155":12431,"Ġsofrito":12432,"ĠWorthing":12433,"Ġshellfish":12434,"ĠVl":12435,"ĠChees":12436,"active":12437,"Ġpastel":12438,"ĠRefreeze":12439,"Ġdoubling":12440,"isturb":12441,"Ġtoasty":12442,"Ġlentil":12443,"yson":12444,"Ġpopover":12445,"does":12446,"anning":12447,"ĠSkyline":12448,"frost":12449,"ĠMoments":12450,"ĠAnother":12451,"Ġstacked":12452,"Ġmanage":12453,"ĠAdolph":12454,"onesian":12455,"ĠEclairs":12456,"ĠBeauty":12457,"Ġearlier":12458,"Ġ265":12459,"uthentic":12460,"ĠEva":12461,"Ġpresent":12462,"ĠJuly":12463,"pposed":12464,"ĠViennese":12465,"Ġrecommend":12466,"Ġpenet":12467,"refrigerate":12468,"Soft":12469,"ĠGarbage":12470,"ollipop":12471,"ĠVege":12472,"ĠSavannah":12473,"Ġproportions":12474,"ĠWheel":12475,"ĠSparkle":12476,"elebr":12477,"ĠButterfly":12478,"ĠIncredible":12479,"ĠChicago":12480,"ĠPacific":12481,"ĠHavarti":12482,"ĠIrresistible":12483,"ĠChantilly":12484,"Apricot":12485,"ĠWorthington":12486,"isturbed":12487,"42":12488,"Berry":12489,"Four":12490,"Maid":12491,"electric":12492,"how":12493,"oor":12494,"tiny":12495,"tegg":12496,"Ġbaggie":12497,"Ġpump":12498,"Ġmirin":12499,"atar":12500,"ening":12501,"Ġwall":12502,"Ġwife":12503,"ĠCir":12504,"ĠCousin":12505,"Ġdew":12506,"Ġdices":12507,"ĠSom":12508,"ĠSuki":12509,"Ġloves":12510,"ĠBarbecues":12511,"Ġsaltwater":12512,"under":12513,"unflavored":12514,"owers":12515,"ĠMcc":12516,"ĠAre":12517,"umet":12518,"three":12519,"Ġgreasy":12520,"ĠRal":12521,"ĠDave":12522,"Ġcoddled":12523,"strap":12524,"ĠLas":12525,"ĠLattice":12526,"ĠLively":12527,"ĠLatkes":12528,"Ġbreadstick":12529,"Ġmelba":12530,"ĠGerm":12531,"ĠWhites":12532,"shelled":12533,"uffle":12534,"eproof":12535,"ĠEase":12536,"ĠEvaporated":12537,"ĠVichy":12538,"parts":12539,"Ġsoybean":12540,"Ġdillweed":12541,"Ġdev":12542,"orsel":12543,"udes":12544,"Ġdipper":12545,"Ġundisturbed":12546,"nutritive":12547,"where":12548,"whipping":12549,"ĠDreamy":12550,"unset":12551,"ĠPicking":12552,"ĠGoody":12553,"ĠDrip":12554,"Ġbecoming":12555,"Ġgenerosity":12556,"additional":12557,"Children":12558,"ĠNorm":12559,"precooked":12560,"ĠKnife":12561,"rizona":12562,"Ġteac":12563,"Ġsorrow":12564,"235":12565,"ĠLefse":12566,"ĠBagel":12567,"ĠBlondies":12568,"Ġdesigns":12569,"Ġchorizos":12570,"Ġindentations":12571,"Ġmatzoh":12572,"Ġtostado":12573,"Ġplantain":12574,"Ġmicrosafe":12575,"Ġtradition":12576,"Ġcamping":12577,"ganic":12578,"ĠDecad":12579,"ĠRobin":12580,"Ġreducing":12581,"ĠFrankfurter":12582,"Ġforever":12583,"ĠResift":12584,"ĠKatie":12585,"ĠButterhorns":12586,"Ġsurprise":12587,"ĠBetween":12588,"ĠAppetit":12589,"ĠEthel":12590,"infandel":12591,"ĠTiram":12592,"Ġflexible":12593,"Ġsteadily":12594,"Aunt":12595,"Betty":12596,"Hun":12597,"Mock":12598,"Marinated":12599,"Never":12600,"Party":12601,"Rich":12602,"Sl":12603,"Sauce":12604,"Tra":12605,"Wheat":12606,"bre":12607,"foam":12608,"jo":12609,"macaroni":12610,"pat":12611,"urop":12612,"yond":12613,"Ġsorbet":12614,"era":12615,"arn":12616,"around":12617,"Ġchanged":12618,"eline":12619,"elbow":12620,"Ġ315":12621,"ĠSi":12622,"ĠSass":12623,"ĠSoci":12624,"ĠBapt":12625,"ĠBachelor":12626,"Ġvine":12627,"Ġflouring":12628,"Ġhappiness":12629,"ĠArizona":12630,"Ġchoc":12631,"Ġbeyond":12632,"umqu":12633,"ĠRus":12634,"ĠWinks":12635,"Ġrins":12636,"steam":12637,"Ġspaced":12638,"ĠFres":12639,"innati":12640,"ĠLiz":12641,"Ġblood":12642,"ĠHole":12643,"ĠHog":12644,"ĠHang":12645,"ĠHeritage":12646,"Ġconf":12647,"Ġ53":12648,"Ġ56":12649,"ube":12650,"Ġkill":12651,"oregano":12652,"uffing":12653,"eph":12654,"ĠCreamette":12655,"ĠKale":12656,"Ġjells":12657,"Ġliber":12658,"ĠNear":12659,"ĠShave":12660,"ĠShaker":12661,"ĠShangh":12662,"hetta":12663,"arbon":12664,"Ġfatty":12665,"Ġmocha":12666,"Ġcandle":12667,"Ġlaying":12668,"Ġafternoon":12669,"ĠFruits":12670,"ĠSeashell":12671,"Ġnonmetallic":12672,"omegran":12673,"Ġquicker":12674,"ĠCanning":12675,"rance":12676,"ĠChiles":12677,"Ġbackbone":12678,"ostura":12679,"ĠRaspberries":12680,"Ġcord":12681,"ĠReunion":12682,"ĠSky":12683,"ĠPank":12684,"ĠPanky":12685,"buy":12686,"Ġpreferable":12687,"Ġtouches":12688,"rolling":12689,"Ġcrossways":12690,"ĠAmber":12691,"ĠAuntie":12692,"ĠSuz":12693,"ĠScram":12694,"ĠLiberally":12695,"Ġladyfinger":12696,"Ġtearing":12697,"Ġresist":12698,"Ġresult":12699,"ippin":12700,"atherine":12701,"ianti":12702,"length":12703,"ĠAnything":12704,"ĠFiles":12705,"Ġbowtie":12706,"thinly":12707,"ĠHelp":12708,"Ġfifths":12709,"ĠBagels":12710,"store":12711,"Apples":12712,"firmly":12713,"ĠVera":12714,"ĠPassover":12715,"ĠBuddies":12716,"Ġbuild":12717,"square":12718,"ĠPresident":12719,"Ġcondiment":12720,"Carnation":12721,"ĠCollins":12722,"Ġmidget":12723,"ĠWellington":12724,"Ġphone":12725,"ĠProvenc":12726,"Ġnapkin":12727,"Ġjudge":12728,"incinnati":12729,"Ġemuls":12730,"Ġearthenware":12731,"ĠStained":12732,"Ġignite":12733,"ouleh":12734,"Fr":12735,"Jim":12736,"Jello":12737,"Law":12738,"Mint":12739,"SE":12740,"Tang":12741,"ga":12742,"lar":12743,"oblong":12744,"paper":12745,"syrup":12746,"tx":12747,"tlarge":12748,"ttogether":12749,"uz":12750,"vak":12751,"erie":12752,"Ġpwd":12753,"Ġmoose":12754,"ppey":12755,"leep":12756,"Ġsupposed":12757,"Ġdig":12758,"Ġdeseed":12759,"ĠSon":12760,"Ġgath":12761,"ĠPuncture":12762,"unken":12763,"ĠTV":12764,"ĠMason":12765,"ĠMyr":12766,"ĠMult":12767,"ĠMSG":12768,"ĠAst":12769,"ĠAsh":12770,"Ġbeads":12771,"cholesterol":12772,"ribs":12773,"Ġ420":12774,"Ġjambalaya":12775,"these":12776,"Ġlef":12777,"ĠRadish":12778,"ĠChard":12779,"ĠDirections":12780,"ĠWake":12781,"ĠWok":12782,"Ġrel":12783,"imilar":12784,"ĠFall":12785,"Ġblossom":12786,"ĠHuckle":12787,"ĠGoop":12788,"Ġcaring":12789,"Ġlighten":12790,"Ġexchanges":12791,"ects":12792,"ĠEars":12793,"ĠEss":12794,"ĠJones":12795,"Ġrefresh":12796,"ĠBlush":12797,"ĠBlair":12798,"Ġwarmer":12799,"ottie":12800,"Ġcomfort":12801,"oung":12802,"Ġstripe":12803,"Ġrounding":12804,"Ġhandles":12805,"Ġcompact":12806,"ĠMeaty":12807,"Ġdeeply":12808,"ĠSaltine":12809,"cornbread":12810,"Ġflattening":12811,"nutmeg":12812,"Ġelk":12813,"Ġfilberts":12814,"Ġbreaks":12815,"earing":12816,"Ġinden":12817,"Ġprong":12818,"Ġword":12819,"ĠImitation":12820,"ĠMilkless":12821,"Ġclothes":12822,"rolls":12823,"Ġcurdled":12824,"Ġtighten":12825,"Ġnectarine":12826,"Ġstacking":12827,"ĠCleaner":12828,"prepare":12829,"ĠMaui":12830,"ĠRumaki":12831,"Spaghetti":12832,"Ġweigh":12833,"ĠPartly":12834,"Ġbricks":12835,"Alcoholic":12836,"partially":12837,"ĠRoyale":12838,"Ġexpansion":12839,"ĠDecorator":12840,"ĠDecorating":12841,"works":12842,"ĠPizzelles":12843,"Ġneatly":12844,"ĠFrankfurters":12845,"Ġcrinkle":12846,"ĠAwesome":12847,"ĠTablespoons":12848,"ĠMicrowaved":12849,"ĠRagout":12850,"Ġtumbler":12851,"tobello":12852,"ĠVlasic":12853,"ĠTiramisu":12854,"ĠBaptist":12855,"500":12856,"AN":12857,"EL":12858,"Gu":12859,"Sm":12860,"Tuna":12861,"bowl":12862,"cons":12863,"das":12864,"dissolve":12865,"fel":12866,"kuchen":12867,"ltra":12868,"pit":12869,"pure":12870,"purch":12871,"ril":12872,"rinsed":12873,"tingredients":12874,"Ġcushaw":12875,"Ġbic":12876,"Ġpiles":12877,"engo":12878,"Ġfats":12879,"ĠCone":12880,"ĠCape":12881,"ĠCort":12882,"roma":12883,"ĠSunset":12884,"ĠBridge":12885,"ĠMt":12886,"usto":12887,"Ġhind":12888,"Ġhanging":12889,"raisin":12890,"Ġstron":12891,"chill":12892,"etime":12893,"though":12894,"Ġthimble":12895,"ĠChianti":12896,"ĠDro":12897,"ĠDandelion":12898,"str":12899,"ĠSpl":12900,"ĠSpears":12901,"Ġsmallest":12902,"Ġblan":12903,"Ġbreadboard":12904,"eddy":12905,"Ġask":12906,"Ġsloppy":12907,"ĠKelly":12908,"ĠBlt":12909,"ĠTops":12910,"Ġfruity":12911,"Ġenter":12912,"urpentine":12913,"ĠShakes":12914,"Ġbatters":12915,"ĠBru":12916,"Ġstripped":12917,"Ġoccasions":12918,"ĠDoh":12919,"Ġlongest":12920,"ĠZe":12921,"erta":12922,"Ġinsure":12923,"Ġconsisten":12924,"Ġelder":12925,"ĠMarsh":12926,"affe":12927,"ĠCupcake":12928,"ĠAnginetti":12929,"ĠAngostura":12930,"orbic":12931,"flowerets":12932,"ĠMarengo":12933,"ĠCalumet":12934,"Ġcurdling":12935,"teen":12936,"ĠCurrant":12937,"banese":12938,"banger":12939,"ĠFireside":12940,"ĠWatcher":12941,"ĠIndiana":12942,"ĠFettuccini":12943,"Cooking":12944,"Ġdepartment":12945,"Ġcalling":12946,"Ġtrace":12947,"Ġparched":12948,"ĠGloria":12949,"ĠLadyfingers":12950,"Ġhumid":12951,"Ġproperly":12952,"ĠWilliamsburg":12953,"Ġachieved":12954,"ĠWallbanger":12955,"ĠVegeburger":12956,"ĠVariation":12957,"Ġpigeon":12958,"ĠNellie":12959,"Ġknockwurst":12960,"ĠSweets":12961,"Ġquahogs":12962,"ĠGladys":12963,"ĠLimas":12964,"ĠFinnish":12965,"ĠJigglers":12966,"ĠSukiyaki":12967,"Ġrinsing":12968,"ĠShanghai":12969,"ĠScramblers":12970,"Ġstronger":12971,"./":12972,"Bar":12973,"Crisp":12974,"Calorie":12975,"Fish":12976,"Japanese":12977,"Ox":12978,"Pear":12979,"Season":12980,"bananas":12981,"cor":12982,"cit":12983,"joles":12984,"pasta":12985,"rough":12986,"teggs":12987,"uet":12988,"wa":12989,"Ġtape":12990,"Ġtons":12991,"Ġturpentine":12992,"Ġmater":12993,"Ġmeringues":12994,"utions":12995,"ĠCouscous":12996,"ĠCincinnati":12997,"itality":12998,"Ġgrid":12999,"Ġlily":13000,"ĠBi":13001,"ĠBilly":13002,"Ġsaltpe":13003,"unthawed":13004,"ĠTall":13005,"ĠTray":13006,"ĠMorsels":13007,"ĠMaking":13008,"ĠAz":13009,"ĠReroll":13010,"iew":13011,"ĠDa":13012,"ĠDes":13013,"ĠDips":13014,"ĠWisp":13015,"ĠWigg":13016,"Ġritz":13017,"Ġboats":13018,"stem":13019,"ĠFannie":13020,"ĠId":13021,"erson":13022,"ĠGay":13023,"ĠGingersnap":13024,"Ġexample":13025,"ĠRemaining":13026,"ĠElectric":13027,"ĠEurop":13028,"ĠKo":13029,"ĠKath":13030,"Ġplaster":13031,"Ġheap":13032,"pson":13033,"ĠSazon":13034,"ĠBlintzes":13035,"oniod":13036,"ĠNav":13037,"Ġsoybeans":13038,"Ġtorte":13039,"fully":13040,"Ġballoon":13041,"Ġcrispier":13042,"ricol":13043,"ĠTabouli":13044,"ĠZinfandel":13045,"azola":13046,"ĠConserve":13047,"blano":13048,"Ġ185":13049,"ĠClark":13050,"approximate":13051,"ĠFarmers":13052,"ĠSmokey":13053,"adding":13054,"ĠMargie":13055,"Ġmeasurements":13056,"ĠAnsw":13057,"ĠComm":13058,"arbecuing":13059,"Ġswitch":13060,"Ġcardboard":13061,"ĠBasket":13062,"ĠDollop":13063,"Ġresid":13064,"ĠMorgan":13065,"Ġhelping":13066,"Ġhelpings":13067,"ĠRosie":13068,"avern":13069,"Ġpetit":13070,"ĠArmadillo":13071,"tSimmer":13072,"ĠBunny":13073,"ĠPepe":13074,"Ġgoldfish":13075,"hane":13076,"Ġpuppy":13077,"fourths":13078,"blueberries":13079,"Hamburger":13080,"Ġrennet":13081,"ĠEmily":13082,"Ġmoment":13083,"Ġdiscoloration":13084,"Ġtasso":13085,"ĠBorscht":13086,"ĠPhyllo":13087,"ĠBryan":13088,"rageous":13089,"Ġrespect":13090,"Ġsaccharin":13091,"Genesis":13092,"Ġpizzelle":13093,"Ġcultured":13094,"aetzle":13095,"tThen":13096,"Ġmanageable":13097,"Ġliberal":13098,"omegranate":13099,"ĠProvencale":13100,"Ġsaltpeter":13101,"oniodized":13102,"ĠAnswer":13103,".(":13104,"Apart":13105,"Beat":13106,"Bowl":13107,"Casserole":13108,"Cob":13109,"DO":13110,"De":13111,"Hen":13112,"Nor":13113,"Oven":13114,"Port":13115,"Test":13116,"Wild":13117,"ael":13118,"corbic":13119,"diluted":13120,"five":13121,"filling":13122,"hel":13123,"haps":13124,"jonnaise":13125,"purple":13126,"sesame":13127,"sandwich":13128,"sirloin":13129,"tis":13130,"tlen":13131,"Ġir":13132,"Ġkg":13133,"Ġta":13134,"Ġpuncture":13135,"Ġmaximum":13136,"ontal":13137,"alded":13138,"spinach":13139,"leen":13140,"Ġsult":13141,"Ġdips":13142,"Ġluke":13143,"ĠPreserve":13144,"ĠPlease":13145,"ĠTabb":13146,"ĠTia":13147,"ĠMany":13148,"Ġcheesy":13149,"Ġvidalia":13150,"Ġharina":13151,"ĠArab":13152,"Ġstones":13153,"Ġcrump":13154,"rig":13155,"Ġspout":13156,"Ġspade":13157,"ersey":13158,"ĠLater":13159,"ĠHero":13160,"rings":13161,"Ġcracking":13162,"Ġascorbic":13163,"Ġslash":13164,"Ġnutritious":13165,"ĠKind":13166,"Ġheight":13167,"ĠTher":13168,"ĠNa":13169,"ĠNippy":13170,"aws":13171,"ĠMochi":13172,"ĠBeater":13173,"ĠShall":13174,"Ġcurds":13175,"ossibly":13176,"ĠChopstick":13177,"Ġaren":13178,"Ġparticular":13179,"ĠCann":13180,"soak":13181,"Ġeveryday":13182,"ĠRetain":13183,"ĠDijonnaise":13184,"Ġfreely":13185,"Ġsnaps":13186,"Ġspringform":13187,"boat":13188,"ĠShoppe":13189,"Three":13190,"broil":13191,"ĠSection":13192,"Ġcounting":13193,"Ġcharred":13194,"ĠGranulated":13195,"ĠJulienne":13196,"ĠEdith":13197,"ĠWilson":13198,"Ġtrust":13199,"Ġmillig":13200,"Ġfriendly":13201,"nament":13202,"Ġfritter":13203,"tDrop":13204,"Ġpurchase":13205,"tBring":13206,"ĠNonfat":13207,"ggestions":13208,"ĠCamper":13209,"ĠDoesn":13210,"ĠEmma":13211,"ĠCreamsicle":13212,"ĠVermouth":13213,"Ġrearrange":13214,"ĠSmuckers":13215,"Ġflameproof":13216,"Ġreduces":13217,"ĠLickin":13218,"equivalent":13219,"ĠMartin":13220,"ĠHonor":13221,"Ġquesad":13222,"Ġunsulph":13223,"ĠSzechuan":13224,"ĠTemptations":13225,"concentrate":13226,"ĠDainties":13227,"ĠCantonese":13228,"market":13229,"ĠIvory":13230,"Ġfibers":13231,"arbonate":13232,"Jimmy":13233,"ĠHuckleberry":13234,"Ġbicarbonate":13235,"Ġmaterial":13236,"Portuguese":13237,"AK":13238,"Ab":13239,"Cucumber":13240,"Filling":13241,"Ground":13242,"Lon":13243,"Mouth":13244,"Salt":13245,"Try":13246,"babs":13247,"fume":13248,"kely":13249,"sen":13250,"sie":13251,"tWhen":13252,"tHeat":13253,"vance":13254,"Ġsoul":13255,"Ġbased":13256,"Ġbarbecuing":13257,"Ġpads":13258,"Ġmingle":13259,"rength":13260,"eno":13261,"Ġfondant":13262,"Ġchol":13263,"spitality":13264,"ĠCard":13265,"oria":13266,"ormel":13267,"akor":13268,"Ġsucc":13269,"Ġdue":13270,"Ġadobo":13271,"ĠTbs":13272,"ĠMat":13273,"ĠAir":13274,"allah":13275,"tsauce":13276,"Ġcanapes":13277,"irst":13278,"Ġshark":13279,"Ġshaky":13280,"ĠRick":13281,"ĠRachel":13282,"Ġoverh":13283,"astry":13284,"Ġbrownish":13285,"ĠDoc":13286,"abber":13287,"strength":13288,"ĠFest":13289,"ĠFile":13290,"ĠSpud":13291,"ĠIc":13292,"assion":13293,"ĠLane":13294,"Ġbreadcrumb":13295,"arms":13296,"ĠGoat":13297,"Ġcarnation":13298,"Ġreddish":13299,"ulu":13300,"Ġslower":13301,"ĠOuts":13302,"ecause":13303,"ĠVary":13304,"Ġliving":13305,"ĠBliss":13306,"ĠThighs":13307,"ĠNib":13308,"ĠNests":13309,"example":13310,"ĠPotpourri":13311,"ĠSpoonful":13312,"Ġthickener":13313,"ounces":13314,"ĠGroup":13315,"Ġample":13316,"Ġstews":13317,"Ġ242":13318,"plastic":13319,"Ġanymore":13320,"ĠMeats":13321,"ĠMonterrey":13322,"okee":13323,"tzel":13324,"ĠUnstuffed":13325,"ettie":13326,"Ġbroilers":13327,"ĠCrumbled":13328,"ĠAlla":13329,"Ġoption":13330,"Ġmoistening":13331,"Ġsnug":13332,"ĠProceed":13333,"ĠPhil":13334,"Chop":13335,"Ġdotted":13336,"Ġbrands":13337,"!!)":13338,"Ġovercooking":13339,"ĠAmanda":13340,"Ġgrapefruits":13341,"udson":13342,"ĠZesta":13343,"ĠImportant":13344,"ĠCandi":13345,"Ġ199":13346,"ĠIndonesian":13347,"packaged":13348,"Ġjacket":13349,"ĠLois":13350,"ĠLeft":13351,"ĠSandra":13352,"Ġtrash":13353,"ĠTrappey":13354,"Ġsupermarket":13355,"ĠElegante":13356,"Ġlaid":13357,"ĠEveryone":13358,"ĠMasterpiece":13359,"ĠBrazilian":13360,"ĠGrammy":13361,"ĠDaniel":13362,"inosaur":13363,"ĠMidnight":13364,"ĠDreamsicle":13365,"Ġsettles":13366,"ĠWhoppers":13367,"ĠFlowerpot":13368,"ĠSettler":13369,"Ġdetermine":13370,"Ġcauses":13371,"Ġautomatic":13372,"Ġwatah":13373,"ĠLaughter":13374,"ĠOoey":13375,"ĠCroissants":13376,"Ġpancetta":13377,"ĠAncho":13378,"ĠDeglaze":13379,"ĠStreet":13380,"Ġmortar":13381,"Ġfudgy":13382,"Ġpenetrate":13383,"lengthwise":13384,"Ġresidue":13385,"Henry":13386,"Ġmilligrams":13387,"Barbecued":13388,"CE":13389,"Dream":13390,"Fast":13391,"Lawry":13392,"Must":13393,"Pick":13394,"Sometimes":13395,"bly":13396,"crab":13397,"cia":13398,"could":13399,"ctop":13400,"dirt":13401,"fashion":13402,"gies":13403,"hing":13404,"ivers":13405,"mash":13406,"roni":13407,"single":13408,"tbrown":13409,"uly":13410,"ulet":13411,"ya":13412,"yro":13413,"Ġing":13414,"Ġ...":13415,"Ġcraft":13416,"Ġtacky":13417,"Ġtricol":13418,"ared":13419,"ested":13420,"Ġpillow":13421,"Ġfra":13422,"sprinkled":13423,"Ġ210":13424,"Ġ232":13425,"Ġaw":13426,"Ġaig":13427,"ĠSatin":13428,"Ġeyed":13429,"ĠBelle":13430,"ĠBride":13431,"ĠPav":13432,"geals":13433,"unes":13434,"ĠTyson":13435,"ĠMos":13436,"Ġhooks":13437,"ĠAge":13438,"ĠAcini":13439,"dern":13440,"ĠRand":13441,"ĠRedd":13442,"ĠRiv":13443,"ĠReam":13444,"ĠRoom":13445,"ĠDukes":13446,"ablespoon":13447,"idence":13448,"Ġcupboard":13449,"ĠCooks":13450,"ĠHall":13451,"ĠHop":13452,"ophane":13453,"ĠGro":13454,"ĠGail":13455,"ĠGene":13456,"Ġ99":13457,"tioned":13458,"Ġshortc":13459,"lete":13460,"ĠEmp":13461,"Ġrefro":13462,"ĠThird":13463,"ĠUltra":13464,"Ġfirmness":13465,"Ġpoor":13466,"ounty":13467,"arbecups":13468,"Ġbrats":13469,"ĠDelmon":13470,"ĠPeppercorn":13471,"oko":13472,"ĠCones":13473,"velope":13474,"ĠRitzy":13475,"ĠAlba":13476,"Ġpercent":13477,"Ġsubstitutions":13478,"eezed":13479,"peeling":13480,"Ġpract":13481,"ĠPopeye":13482,"ĠNorma":13483,"Ġlittlen":13484,"ĠLiving":13485,"ĠMillie":13486,"Ġcreating":13487,"Spicy":13488,"chee":13489,"ĠTostado":13490,"ĠWayne":13491,"ĠAnytime":13492,"ĠClassico":13493,"ĠWilma":13494,"ĠTownhouse":13495,"Ġhorizontal":13496,"vegetables":13497,"Ġexpensive":13498,"ĠAlex":13499,"Ġconvenient":13500,"Ġpraise":13501,"ĠKolaches":13502,"ĠTempura":13503,"ĠPalmas":13504,"ĠPrior":13505,"ĠMethodist":13506,"tbowl":13507,"Ġmacadamia":13508,"ĠLarry":13509,"ĠThomas":13510,"ĠPaprikas":13511,"ĠChalupas":13512,"ĠCherokee":13513,"Ġbruised":13514,"ĠCalzones":13515,"ĠJoseph":13516,"onnay":13517,"ougat":13518,"aranteed":13519,"Ġmirlitons":13520,"ĠAbsolutely":13521,"Frutti":13522,"pitted":13523,"Ġelderberries":13524,"ĠWispride":13525,"Ġsuccotash":13526,"))":13527,"49":13528,":\\":13529,"Golden":13530,"Kn":13531,"OK":13532,"Ragu":13533,"Slow":13534,"Takes":13535,"Turkey":13536,"burn":13537,"bby":13538,"calor":13539,"cium":13540,"face":13541,"iver":13542,"ja":13543,"ko":13544,"loose":13545,"master":13546,"mints":13547,"nes":13548,"pints":13549,"tight":13550,"tchicken":13551,"wet":13552,"Ġce":13553,"ered":13554,"Ġocean":13555,"Ġtextured":13556,"aroni":13557,"Ġbirthday":13558,"Ġmullet":13559,"ency":13560,"Ġfiddlehead":13561,"Ġwindow":13562,"ĠCathy":13563,"orino":13564,"roast":13565,"Ġdye":13566,"Ġeasiest":13567,"Ġloins":13568,"heas":13569,"ĠBasting":13570,"ĠBarbecups":13571,"ĠPsal":13572,"ĠPippin":13573,"ĠTa":13574,"ĠTin":13575,"ĠTar":13576,"ĠTavern":13577,"Ġhurt":13578,"otes":13579,"Ġnests":13580,"Ġthinn":13581,"ĠRio":13582,"ĠMixing":13583,"ĠDaff":13584,"ushi":13585,"Ġcoffe":13586,"struc":13587,"Ġfrogs":13588,"Ġcoca":13589,"Ġblister":13590,"ĠHodge":13591,"Ġcongeals":13592,"ĠGlace":13593,"ĠInternational":13594,"agli":13595,"Ġskinny":13596,"ĠOodles":13597,"coat":13598,"ĠBrother":13599,"Ġ202":13600,"ĠJay":13601,"ĠKabob":13602,"ĠSaff":13603,"ĠNannie":13604,"Ġnothing":13605,"ĠShel":13606,"ĠShuck":13607,"ĠButterless":13608,"cookies":13609,"Ġcrank":13610,"indeer":13611,"Ġturnovers":13612,"Ġaccomm":13613,"ĠCarob":13614,"ĠForget":13615,"ssoise":13616,"Ġspraying":13617,"Ġmicrowaveproof":13618,"ĠArth":13619,"Ġtoasting":13620,"soaked":13621,"Ġmeans":13622,"tcup":13623,"doors":13624,"Ġplatters":13625,"Ġindex":13626,"ilyn":13627,"ĠPrince":13628,"Ġsoaks":13629,"ennis":13630,"ĠEquals":13631,"Ġvigorous":13632,"Ġchipotle":13633,"ĠSnowd":13634,"ĠSnowy":13635,"ĠMiller":13636,"ĠTreet":13637,"ĠAdams":13638,"ĠHarris":13639,"ĠPapaya":13640,"....":13641,"ĠFourth":13642,"ĠMoravian":13643,"Ġguest":13644,"ommend":13645,"ĠHardee":13646,"calilli":13647,"ĠCharcoal":13648,"ĠOutrageous":13649,"Ġunmolding":13650,"ĠFunny":13651,"Ġbushels":13652,"Preparation":13653,"Heinz":13654,"brush":13655,"ĠSusie":13656,"Covered":13657,"lova":13658,"Ġportab":13659,"ĠTimey":13660,"Ġholder":13661,"Ġdidn":13662,"Ġbluefish":13663,"ĠCheerwine":13664,"Ġnapkins":13665,"ĠThompson":13666,"trimmed":13667,"ĠMoore":13668,"ĠRhine":13669,"ĠGulf":13670,"Snack":13671,"second":13672,"Ġ___":13673,"ĠSteve":13674,"ĠLucille":13675,"Ġmagic":13676,"ĠOVER":13677,"Squash":13678,"Ġcellophane":13679,"Ġsockeye":13680,"elebration":13681,"Ġdewberries":13682,"Ġdevotion":13683,"Ġdeseeded":13684,"ĠEuropean":13685,"Ġsultanas":13686,"ĠReddi":13687,"Ġrefrozen":13688,"caloric":13689,"Ġaccommodate":13690,"Acc":13691,"Mazola":13692,"Other":13693,"Remove":13694,"Sun":13695,"Take":13696,"Tip":13697,"Total":13698,"UT":13699,"Water":13700,"Zerta":13701,"dogs":13702,"mun":13703,"making":13704,"nect":13705,"sl":13706,"tMelt":13707,"Ġant":13708,"Ġsold":13709,"Ġsorted":13710,"Ġsmear":13711,"Ġooz":13712,"Ġtiss":13713,"Ġbugs":13714,"Ġbeside":13715,"Ġpil":13716,"Ġpike":13717,"Ġpomegranate":13718,"Ġpheas":13719,"Ġfans":13720,"Ġfizz":13721,"icing":13722,"gard":13723,"Ġinf":13724,"ases":13725,"Ġsund":13726,"itian":13727,"Ġdesserts":13728,"ĠSouffl":13729,"Ġea":13730,"Ġgau":13731,"Ġly":13732,"Ġlie":13733,"Ġlip":13734,"hee":13735,"ĠBa":13736,"ĠBan":13737,"ĠBenn":13738,"ĠTal":13739,"Ġhyd":13740,"Ġorganic":13741,"Ġfordhook":13742,"toff":13743,"tso":13744,"Ġnickel":13745,"Ġthins":13746,"Ġmarks":13747,"ĠRen":13748,"ĠRust":13749,"ĠRave":13750,"ĠRita":13751,"Ġsoil":13752,"ayas":13753,"ĠChafing":13754,"ienies":13755,"ĠWinn":13756,"stini":13757,"Ġspare":13758,"ĠFore":13759,"ĠFennel":13760,"ĠFather":13761,"ĠSpuds":13762,"ĠStri":13763,"ĠStollen":13764,"eryl":13765,"Ġcarry":13766,"edded":13767,"naise":13768,"Ġmeatloaf":13769,"ĠBeaten":13770,"ĠJord":13771,"ĠKaiser":13772,"ĠVitamin":13773,"Ġsmal":13774,"ĠCheeses":13775,"ĠNugget":13776,"Ġenc":13777,"Ġfinest":13778,"ĠBev":13779,"Ġscotch":13780,"Ġrivels":13781,"tonion":13782,"ĠGras":13783,"ĠForty":13784,"Ġbranch":13785,"Ġneedle":13786,"Ġsprays":13787,"plum":13788,"ĠZwieback":13789,"soften":13790,"ĠPeeled":13791,"cornstarch":13792,"Ġperfume":13793,"Ġpounding":13794,"Ġopt":13795,"tcr":13796,"ĠCaramelized":13797,"crush":13798,"ĠDev":13799,"ĠRecip":13800,"ĠVegie":13801,"Ġporcini":13802,"ĠMarilyn":13803,"ĠHoneyed":13804,"Chi":13805,"ĠWatercress":13806,"ĠHeavily":13807,"ĠMommy":13808,"ĠAnt":13809,"ĠExotic":13810,"accoon":13811,"ĠFritter":13812,"ĠLeaving":13813,"Ġfingertip":13814,"ĠShortly":13815,"ĠKnock":13816,"laine":13817,"ĠAdvance":13818,"hydrated":13819,"Ġbeds":13820,"ĠIndent":13821,"Ġinterest":13822,"ĠGoof":13823,"ĠCasa":13824,"Ġspecialty":13825,"ĠDrunken":13826,"tSpoon":13827,"ĠHaystack":13828,"Ġsemolina":13829,"ĠMamma":13830,"ĠLeeks":13831,"ĠThumbprints":13832,"ĠQuesadilla":13833,"Ġarms":13834,"Ġdiscs":13835,"Ġtilting":13836,"ĠTreasures":13837,"Ġcylinders":13838,"Ġgatherings":13839,"ĠMistakes":13840,"Ġproportion":13841,"slowly":13842,"ĠSettlers":13843,"ĠPaprikash":13844,"Ġbuckeyes":13845,"ĠHorns":13846,"Ġspecified":13847,"Ġrandomly":13848,"Ġpignoli":13849,"Ġpumpkins":13850,"breast":13851,"ĠTheresa":13852,"Ġlittleneck":13853,"Ġpheasants":13854,"Ġsundried":13855,"76":13856,"Canned":13857,"Fudge":13858,"Grape":13859,"Lef":13860,"Mel":13861,"Olive":13862,"Pizza":13863,"Small":13864,"Some":13865,"cel":13866,"gment":13867,"iola":13868,"looks":13869,"oppine":13870,"pinto":13871,"tles":13872,"tcook":13873,"table":13874,"tDo":13875,"ury":13876,"wild":13877,"Ġ/":13878,"Ġuv":13879,"Ġcents":13880,"Ġsatin":13881,"Ġmahi":13882,"Ġfiesta":13883,"Ġchour":13884,"ĠCotton":13885,"roy":13886,"ashew":13887,"ĠSets":13888,"ĠSince":13889,"Ġele":13890,"heet":13891,"ĠBO":13892,"ĠBreeze":13893,"ĠPf":13894,"unwrapped":13895,"unwhipped":13896,"ĠTina":13897,"Ġbutters":13898,"ĠMalt":13899,"Ġval":13900,"olia":13901,"uscan":13902,"ĠAct":13903,"Ġcreams":13904,"Ġbeaver":13905,"Ġwaters":13906,"toil":13907,"Ġeggsh":13908,"riage":13909,"Ġoverheat":13910,"ĠWright":13911,"Ġboy":13912,"Ġspuds":13913,"idney":13914,"ifer":13915,"ĠLollipops":13916,"ĠGets":13917,"Ġmayonaise":13918,"ĠCoq":13919,"Ġ305":13920,"Ġexcluding":13921,"Ġshredding":13922,"cod":13923,"ĠEst":13924,"ĠEtc":13925,"ĠJason":13926,"ĠJunk":13927,"Ġcrusted":13928,"ĠVers":13929,"ĠBlitz":13930,"Ġwarmth":13931,"Ġareas":13932,"ĠAndy":13933,"ĠShower":13934,"ĠUm":13935,"ĠBrusc":13936,"Ġconfectionary":13937,"Ġcurled":13938,"Ġcrocks":13939,"Ġtwirls":13940,"ĠArnold":13941,"ĠArbor":13942,"Ġimmerse":13943,"ĠUnfried":13944,"Ġmarinates":13945,"Ġsomeone":13946,"canning":13947,"wiches":13948,"Ġaction":13949,"Ġmoister":13950,"ĠCluster":13951,"ĠAngie":13952,"Ġmoistness":13953,"ĠPacked":13954,"ĠTortoni":13955,"ĠPrud":13956,"Ġreaching":13957,"ĠShoestring":13958,"icoise":13959,"ĠFollowing":13960,"important":13961,"Ġdrawn":13962,"tSift":13963,"Ġwhether":13964,"Ġmatchsticks":13965,"agged":13966,"ĠSundaes":13967,"Ġgizzard":13968,"Ġmultip":13969,"Ġtrees":13970,"Ġtreated":13971,"ĠSensation":13972,"Ġmessy":13973,"marine":13974,"Ġbuffalo":13975,"Ġoreos":13976,"deli":13977,"joint":13978,"Ġpleasant":13979,"ĠParisienne":13980,"ĠSlivered":13981,"diet":13982,"ĠOccasionally":13983,"ĠChalupa":13984,"ĠHerring":13985,"Ġcheerfulness":13986,"ĠBombay":13987,"Ġliquefy":13988,"ĠWitches":13989,"Ġaccumulates":13990,"Ġlocal":13991,"frosted":13992,"ĠSassy":13993,"Ġlefse":13994,"ctopus":13995,"ĠPavlova":13996,"ĠArborio":13997,"Ad":13998,"Bag":13999,"Durkee":14000,"Isaiah":14001,"Per":14002,"Que":14003,"Refrigerate":14004,"Sch":14005,"Size":14006,"Tater":14007,"Wip":14008,"aven":14009,"bq":14010,"bubb":14011,"beg":14012,"ction":14013,"evenly":14014,"kist":14015,"look":14016,"lay":14017,"paste":14018,"sther":14019,"saved":14020,"tan":14021,"tnuts":14022,"Ã©":14023,"Ġcamel":14024,"Ġcactus":14025,"Ġok":14026,"Ġbless":14027,"Ġpa":14028,"Ġpones":14029,"altern":14030,"ouston":14031,"Ġwatt":14032,"ingon":14033,"garban":14034,"ĠCel":14035,"ĠCreek":14036,"akia":14037,"amed":14038,"amari":14039,"Ġsuck":14040,"Ġlate":14041,"ĠBed":14042,"ĠBix":14043,"ĠBrid":14044,"ĠPars":14045,"ĠPats":14046,"ĠPigg":14047,"ĠTO":14048,"ĠTies":14049,"ĠTrop":14050,"ĠTimes":14051,"ĠTuscan":14052,"Ġunex":14053,"Ġmind":14054,"ithin":14055,"adies":14056,"Ġfort":14057,"choose":14058,"rivel":14059,"Ġ49":14060,"vein":14061,"Ġozs":14062,"thighs":14063,"Ġlec":14064,"ĠRy":14065,"ĠRutabag":14066,"ĠMixer":14067,"ĠWas":14068,"efeller":14069,"ĠFake":14070,"ĠFowl":14071,"ĠFew":14072,"ĠFanny":14073,"there":14074,"rest":14075,"ĠLB":14076,"ĠLion":14077,"ĠLore":14078,"ĠLew":14079,"ĠLoops":14080,"ĠHil":14081,"ĠHood":14082,"ĠHint":14083,"ĠHoles":14084,"Ġstirr":14085,"ĠGinny":14086,"eddings":14087,"uban":14088,"Ġabund":14089,"Ġclock":14090,"Ġaltit":14091,"uitable":14092,"Ġrabe":14093,"Ġslender":14094,"osing":14095,"ĠOs":14096,"Ġseasonal":14097,"coarsely":14098,"Ġanisette":14099,"Ġheel":14100,"atsu":14101,"ĠModel":14102,"nex":14103,"aghettini":14104,"Ġsoyameat":14105,"Ġcollec":14106,"ivide":14107,"Ġaccur":14108,"Ġcurve":14109,"ĠCareful":14110,"Ġcrisps":14111,"ĠTogether":14112,"ĠQuart":14113,"scalded":14114,"istic":14115,"Ġperhaps":14116,"bones":14117,"ĠPastor":14118,"ĠPastel":14119,"cludes":14120,"ĠFront":14121,"afras":14122,"Ġcaster":14123,"Ġpuls":14124,"ĠOvens":14125,"ĠBlackened":14126,"ĠCrepe":14127,"mayo":14128,"Ġassure":14129,"Ġ1000":14130,"butternut":14131,"Ġstripes":14132,"ĠSunrise":14133,"ĠSunkist":14134,"ĠSnowflake":14135,"Ġribeye":14136,"Ġbases":14137,"ĠWax":14138,"ĠMagg":14139,"ĠSautÃ©":14140,"ĠWays":14141,"ĠRockefeller":14142,"ĠTartlets":14143,"ĠRosamarina":14144,"Ġbalm":14145,"ugstore":14146,"Ġhazelnut":14147,"ĠLori":14148,"ĠPaula":14149,"ĠOtherwise":14150,"ĠJuan":14151,"ĠJule":14152,"Ġsufficiently":14153,"Yummy":14154,"Prep":14155,"Ġpassed":14156,"tTurn":14157,"ĠSensations":14158,"Ġaccompanied":14159,"Coffee":14160,"Cheez":14161,"ĠMichael":14162,"maraschino":14163,"Ġmentioned":14164,"ĠRobusto":14165,"Ġdrizzling":14166,"Ġdrug":14167,"Ġflames":14168,"ĠMatthew":14169,"Ġjudgment":14170,"Ġmuscadine":14171,"ĠBertha":14172,"ĠCourse":14173,"ĠSorghum":14174,"ĠLeslie":14175,"Ġpaints":14176,"ĠFuzzy":14177,"Ġfootball":14178,
[...]
