#version: 0.2
Ġ <
N E
X T
NE XT
E N
I N
R E
S T
Ġ c
IN G
D I
T S
EN TS
RE DI
ING REDI
INGREDI ENTS
NE R
T I
i n
Ġ s
e r
A R
ST AR
EN D
STAR T
Ġ 1
O N
ST R
C TI
U CTI
IN STR
ON S
UCTI ONS
INSTR UCTIONS
a n
a r
Ġ o
Ġ b
e d
Ġ t
e s
Ġ p
Ġ m
a t
i l
u t
r e
o n
a l
e n
o u
an d
Ġ f
P E
L E
C I
T LE
RE CI
TI TLE
RECI PE
Ġc h
Ġ and
in g
Ġ w
g ar
i c
Ġ C
l e
Ġ in
o r
s p
Ġt o
p p
e l
a k
Ġ 2
ou r
re a
r o
Ġs u
Ġsu gar
Ġ 3
Ġ a
i t
Ġ d
Ġ e
Ġo n
t er
i x
Ġ S
Ġ B
l a
Ġ P
in e
Ġs al
Ġ g
o l
g e
r a
Ġp e
a s
Ġt sp
g g
Ġ h
i s
Ġsal t
Ġ l
ut ter
Ġ M
Ġe gg
i on
ak e
rea m
d d
Ġb utter
es e
Ġ T
u n
e ese
o w
Ġ v
Ġc o
Ġ (
Ġc ream
al l
Ġf l
Ġt h
Ġch eese
il k
ic k
o t
u s
Ġon ion
c h
Ġo f
Ġfl our
Ġo r
Ġm ilk
Ġ A
Ġ un
c e
Ġch o
ic e
Ġm in
Ġm ix
Ġc an
it h
ĠC o
r ed
el l
t s
Ġs t
e at
at er
Ġw ith
Ġf or
Ġegg s
Ġw ater
Ġmin ut
t il
t o
v er
Ġminut es
0 0
o k
Ġ j
b sp
r i
Ġun til
ĠT bsp
pp er
e e
il la
an illa
Ġ 4
Ġv anilla
m on
Ġpe pper
Ġo z
ĠM ix
d er
ĠA dd
pp ed
m b
Ġ n
Ġb ro
at o
Ġs h
Ġ at
i e
ĠC h
Ġm ar
Ġc r
r y
Ġs a
ick en
c k
u p
i en
Ġcho pped
Ġth e
v e
Ġin to
red ien
Ġ ing
Ġing redien
Ġingredien ts
g h
u ce
ĠB ake
w n
ou p
i p
i r
. )
Ġ le
Ġw h
t h
at e
Ġ R
l ic
Ġs oup
ow der
Ġ D
Ġ W
Ġp owder
Ġb ak
o d
5 0
rea d
c ol
n a
ut s
Ġbak ing
Ġch icken
an s
s t
Ġo ver
Ġg r
or n
Ġj u
pp le
gar ine
Ġmar garine
Ġbro wn
Ġsa uce
il l
us h
Ġb o
Ġju ice
a d
ato es
m all
k g
Ġp kg
Ġ all
Ġ3 50
th er
Ġo il
Ġco ok
t a
Ġ F
a y
l es
e t
n d
Ġp an
r es
l y
Ġl b
Ġc orn
Ġb e
Ġp ie
m e
a pple
ine apple
is h
u re
Ġw ell
er s
Ġl ar
as t
Ġ re
c on
Ġlar ge
c o
Ġp ineapple
u r
ge ther
Ġto gether
Ġle mon
Ġf ro
q u
ĠP our
Ġa dd
u m
ra in
o le
us t
ou nd
i gh
in ch
Ġ r
Ġs p
ĠS p
re en
t en
col ate
o m
b er
Ġn uts
Ġh our
el t
Ġp ot
a m
Ġto m
Ġ y
Ġg reen
u mb
Ġs e
rea s
Ġs mall
t ure
g er
Ġc ra
er y
at ed
Ġmix ture
igh t
s er
Ġ L
ĠS t
Ġbo il
Ġc ake
Ġs our
Ġ 6
a p
Ġ I
ro om
Ġc on
od a
ĠW h
ĠCo ok
Ġs oda
Ġs lic
v es
Ġ 8
Ġ H
i d
Ġcho colate
Ġwh it
ee f
Ġpe c
mb ine
Ġ gar
Ġcra ck
ine gar
Ġc up
Ġv inegar
as h
v en
Ġonion s
ush room
el ery
Ġpot atoes
in na
inna mon
Ġc elery
c es
s h
la ce
o p
i f
ol d
Ġgar lic
a ge
Ġgr ound
Ġc innamon
Ġm ay
Ġm ushroom
is e
Ġto p
Ġb eef
Ġst ick
Ġpec ans
as ser
asser ole
Ġb a
ee t
Ġd rain
z en
a ch
ĠCo ol
Ġcr umb
i m
ri es
i es
Ġb read
Ġm elt
Ġd ish
Ġ 5
ĠCo mbine
c t
Ġb eat
er ve
Ġor an
Ġ G
ar d
m o
ed i
o od
on na
onna ise
ak es
Ġh ot
Ġmay onnaise
f f
u it
in k
Ġs o
Ġ x
Ġo ven
Ġ 9
Ġmelt ed
Ġfro zen
ra w
an t
b o
edi um
ip s
Ġwhit e
ed d
ĠSt ir
ou gh
res s
ĠWh ip
edd ar
ow l
u dd
Ġm edium
Ġpe an
udd ing
Ġh eat
Ġb owl
Ġch ips
con ut
Ġst ir
l en
Ġgr ated
Ġ1 0
Ġr ice
r ink
ar s
Ġ ro
i re
ar t
ĠP lace
reas ed
f ri
ĠR e
l l
Ġbe ans
u b
o on
ĠCh eddar
Ġd ry
Ġcrumb s
a b
fri ger
ĠS al
ĠP ut
Ġ3 0
ar m
ast e
Ġ al
raw ber
rink le
Ġco conut
Ġbo x
ush ed
Ġ k
bo ut
Ġg ra
Ġcr ushed
Ġp udding
Ġslic ed
c col
ccol i
Ġtom atoes
ust ard
r ing
Ġa pp
d ed
e y
Ġpowder ed
Ġsh or
Ġoran ge
ten ing
Ġth en
Ġtom ato
Ġc ut
Ġdrain ed
Ġshor tening
Ġ O
o re
Ġc ar
Ġ E
ta b
Ġba con
e ge
ege tab
Ġhour s
in s
Ġcrack ers
st ant
a in
el y
er v
Ġpean ut
an an
Ġm ustard
Ġa bout
Ġo le
Ġole o
Ġ is
Ġt aste
Ġg reased
w eet
Ġb ake
ĠI n
Ġ J
ress ing
Ġst rawber
u ff
ĠSal ad
Ġa s
u l
Ġj ell
ĠC ake
Ġ K
l o
Ġcook ed
e a
ĠS erve
ĠB ro
y r
yr up
Ġb ot
r uit
Ġbeat en
Ġm eat
ĠB eat
Ġsh ell
res h
i z
Ġs erv
Ġs yrup
Ġs l
mall ow
sh mallow
Ġboil ing
Ġcan s
Ġ ra
Ġv egetab
co a
Ġro ll
Ġ red
Ġre m
Ġfro m
Ġrem ain
Ġp our
Ġ la
Ġbro ccoli
Ġco coa
Ġch il
Ġp ap
Ġl ight
Ġ1 3
Ġch er
Ġapp les
ĠP ie
Ġco ol
Ġl i
Ġe x
v or
ĠC ream
Ġ1 5
Ġserv ing
Ġremain ing
Ġf ir
Ġh al
ĠSp rinkle
a f
as on
Ġb anan
Ġd ressing
Ġc asserole
u c
Ġ V
Ġmar shmallow
ĠP e
m er
Ġf resh
ĠC r
ĠC asserole
Ġso f
m p
Ġb len
Ġ2 0
Ġf ill
Ġh a
mo ve
Ġsh red
or k
Ġre friger
Ġcr ust
Ġ1 2
ar e
ten ed
us age
Ġjell o
ĠCo ver
Ġshred ded
Ġcar ro
o s
Ġc lo
ot h
u e
ol l
k s
pp ing
Ġin stant
ic ed
h am
Ġcrack er
Ġslic es
is s
mb ur
Ġle t
Ġpie ces
p s
sh ire
a ck
en t
ter shire
or ces
orces tershire
la vor
ĠSp read
ĠM akes
Ġgra ham
m ilk
le y
ĠW orcestershire
Ġmarshmallow s
ĠC ut
Ġfill ing
o il
on e
n uts
ĠT h
Ġse ason
ct ion
) .
Ġ an
at s
Ġd iced
Ġsal ad
Ġ4 5
Ġb all
Ġbanan as
Ġc old
l i
mbur ger
Ġs k
re e
Ġ it
Ġsa usage
Ġwh i
Ġn ut
Ġcarro ts
Ġe ach
Ġbutter milk
ĠM elt
Ġla y
Ġco ver
ak ed
Ġf ruit
ĠCh icken
Ġf lavor
ood les
2 5
ĠBro wn
Ġj ar
ĠL et
ĠR oll
Ġs qu
id e
Ġ up
Ġchil i
ĠRe move
ĠS a
ing er
ber ry
ars ley
Ġ N
Ġha mburger
Ġp arsley
Ġwh ole
t le
me g
Ġ us
Ġstrawber ries
Ġn oodles
Ġhal f
Ġcook ie
Ġo li
s s
Ġnut meg
Ġp ork
ell ow
Ġs weet
Ġra is
e ed
le t
g es
ab b
Ġcup s
Ġrais ins
la ck
abb age
f ore
e al
ĠCh ill
ion al
Ġ ice
Ġsh eet
e w
Ġse ed
Ġy ellow
es an
arm esan
un ch
ĠT op
im mer
ĠCh eese
d s
Ġ en
ĠJ ell
Ġbe fore
Ġo ut
Ġs et
Ġg inger
Ġpepper s
Ġc ub
i an
Ġp re
ĠD rain
en der
on i
if t
Ġw al
Ġd one
ad e
Ġfir st
ĠP armesan
Ġl ow
Ġb lack
ĠD ip
Ġmushroom s
ar ch
Ġt ender
Ġch ill
ĠH eat
Ġt ea
is c
Ġp ack
Ġclo ves
Ġl o
ĠP re
7 5
a c
en s
um p
Ġo ther
mo oth
st arch
ur n
Ġcorn starch
Ġc abbage
me al
Ġth ick
Ġstir ring
t ional
e ad
a g
ta in
Ġseason ing
Ġwal nuts
Ġcher ry
Ġp ut
p an
Ġs mooth
ĠS h
to m
isc uit
Ġwhit es
Ġal mon
t ra
Ġw arm
Ġ q
Ġbot tom
es s
Ġq t
Ġvegetab le
ri ed
k a
Ġd es
a ve
Ġ3 25
r an
er ves
Ġcon tain
ro p
Ġs erve
c c
d ens
dens ed
len d
Ġn ot
ĠP ot
Ġ Y
Ġbro th
Ġex tra
all y
ĠB utter
ĠA nd
ĠB lend
op tional
Ġcon densed
Ġsauce pan
reas ts
iss ol
at or
Ġ3 75
Ġy ol
i me
Ġba g
Ġd ough
ĠR ice
ch in
ĠI t
Ġcook ing
qu ick
Ġp lace
Ġb reasts
Ġd ash
at ely
Ġsof tened
ight ly
ar b
Ġon e
ri sp
p ar
ree z
Ġpap er
Ġwhi pped
il let
Ġ4 0
it e
Ġlay er
Ġh am
h eat
Ġd ire
ac ar
a w
Ġ are
ri ka
Ġ2 5
p e
Ġvegetab les
i red
Ġstick s
Ġth in
Ġpap rika
Ġball s
iz e
n ight
Ġ 7
Ġdes ired
ut e
Ġoran ges
Ġ if
es t
Ġrefriger ator
acar oni
ĠRe friger
ĠCh o
ĠB oil
uc umb
Ġpe ach
' s
Ġcontain er
ber ries
Ġover night
e x
ro w
ĠCook ies
Ġb ell
Ġcr an
la ss
Ġb y
e c
is co
ar in
al ian
Ġ4 00
Ġf ood
et t
Ġsk illet
ĠRefriger ate
Ġa pple
ĠCho colate
old en
ĠIt alian
Ġextra ct
Ġto pping
reas e
ee p
f e
el s
Ġb iscuit
ĠCr isco
Ġcher ries
Ġ U
Ġyol ks
ic row
Ġstrawber ry
ĠV el
Ġm o
ri mp
r is
v ee
vee ta
Ġt ime
sp oon
p t
qu art
Ġtea spoon
Ġsp read
Ġm ash
Ġf in
Ġc ucumb
Ġpe el
fe ction
ĠC orn
c ed
at ter
v y
on ey
icrow ave
ĠVel veeta
Ġfl akes
r and
Ġpe as
Ġcon fection
ĠB read
Ġg olden
Ġw a
z z
ta ge
ĠS erves
Ġli qu
Ġconfection ers
Ġlight ly
at ure
ce pt
Ġc ol
Ġs ize
Ġp la
ĠB ring
Ġun co
w ee
d ing
Ġm acaroni
Ġd o
ic h
Ġm ore
ĠD rop
Ġst e
e ast
l ow
Ġ Ġ
el at
Ġus e
ough ly
ats up
or oughly
Ġmix ed
k in
Ġc atsup
Ġy ou
Ġco t
Ġcot tage
Ġt ab
Ġ res
s e
Ġmin ced
Ġs immer
Ġg elat
Ġy east
1 0
Ġso y
Ġwa x
Ġfin ely
ĠL ay
Ġth oroughly
1 6
Ġp t
Ġcol or
Ġserving s
Ġliqu id
p oon
les poon
Ġflavor ing
Ġsp rinkle
t uce
ump kin
Ġtab lespoon
in ach
Ġsof t
a co
ĠM o
Ġex cept
Ġd ill
uc chin
ucchin i
Ġsl ightly
Ġoli ves
Ġpeach es
b le
Ġroll s
Ġp l
ĠB e
Ġ3 5
Ġp im
Ġk et
Ġlet tuce
ĠPre heat
ett i
c ent
n ch
Ġm ake
an o
Ġlo af
l ue
Ġd e
a gh
agh etti
Ġli me
Ġfir m
Ġh oney
r ic
Ġp ick
at meal
il e
Ġst and
ing s
ĠF old
Ġpean uts
Ġof f
Ġcho ps
Ġbutter ed
ction s
ok ed
Ġh ead
wee tened
is quick
Ġmash ed
it s
l ed
ch up
if f
f ul
Ġco mbine
ĠB isquick
Ġket chup
Ġo ats
ar p
Ġw ine
Ġl it
ĠWh en
Ġf ry
Ġsh rimp
Ġf reez
el f
Ġgelat in
re nch
Ġch un
ur p
y le
el la
and arin
Ġrefriger ate
Ġsh arp
ĠLay er
Ġm uff
Ġsp oon
Ġun b
ar ella
Ġf at
ran ge
zz arella
o g
Ġb atter
Ġas ide
k ey
Ġcub es
Ġm eal
1 2
ĠF rench
Ġpot ato
g ano
Ġoli ve
arb ec
Ġw ill
Ġst uff
Ġal e
or til
ortil la
g reased
er b
Ġ z
os e
Ġen ough
Ġpack age
ic an
v ed
as y
u d
ar es
ris ing
f ter
low er
ĠF or
ta il
Ġflour ed
v ap
i el
ĠMo zzarella
vap or
in d
Ġs elf
en to
Ġon to
ou n
Ġf oil
ck tail
Ġblen der
Ġcover ed
Ġblen d
Ġo re
Ġe vapor
ĠTh en
issol ve
Ġth aw
Ġbiscuit s
Ġunb aked
Ġsp aghetti
Ġt ortilla
Ġevapor ated
Ġore gano
ap e
Ġth is
Ġpim ento
ĠF ruit
Ġblen ded
Ġcucumb ers
Ġs ift
ver ed
Ġsl ice
Ġalmon ds
Ġy our
c an
ĠB all
Ġlemon ade
arbec ue
Ġdire ctions
Ġt aco
Ġw af
ra y
Ġl on
ĠPot ato
Ġlit tle
Ġstuff ing
Ġf ine
ces s
Ġsp inach
Ġz ucchini
Ġbot tle
or ding
Ġa cc
Ġsqu ash
Ġm andarin
Ġste ak
er ry
t ed
ĠS ift
Ġacc ording
Ġt ur
ff ee
Q u
Ġp umpkin
ĠS w
Ġcook ies
Ġt art
ĠS l
Ġo atmeal
Ġthaw ed
ĠBro ccoli
ĠC ar
Ġro ast
Ġres t
Ġp inch
Ġmix ing
ro x
Ġpla in
Ġalmon d
Ġth icken
art on
ĠPe an
Ġd ried
a ul
s c
Ġc arton
Ġt e
Ġco cktail
Ġ Qu
Ġbrown ed
c le
Ġ ri
ĠE asy
i der
iz z
Ġsift ed
ĠSp oon
rox im
urp ose
Ġpeel ed
ĠR o
un a
ĠB rand
stant ly
ĠPean ut
n e
Ġcon stantly
roxim ately
Ġclo ve
ag le
Ġcra b
aul if
aulif lower
Ġa p
ar k
Ġc ro
Ġv ery
ud ge
ĠSa uce
Ġsl ow
n ed
par ed
er n
ĠB aked
ĠS immer
ĠM ake
ĠA pple
Ġwhi pping
ĠY iel
ĠE agle
p urpose
Ġg lass
u ally
n g
ĠG rease
ot ch
Ġbak ed
ĠS e
Ġwaf ers
Ġ1 6
Ġh ea
l d
Ġcran berry
m s
Ġh and
Ġwh en
mp er
l ish
Ġd ou
Ġb as
ou s
k e
Ġpre pared
ĠU se
Ġp ans
Ġcolor ing
at es
Ġc and
Ġhea vy
Ġp o
Ġmuff in
Ġh ard
ar o
k ra
m i
Ġt ub
Ġ 50
Ġ3 00
Ġmin i
Ġt urn
oun t
sc otch
Ġte mper
ĠCh op
Ġsqu ares
ĠD issolve
Ġr ound
id es
izz a
ĠSl ice
ĠS to
a ves
Ġfor k
Ġcub ed
Ġc ider
Ġb on
Ġb lue
Ġtemper ature
Ġmix er
Ġc le
b read
ĠL e
ĠK aro
Ġshell s
Ġm icrowave
Ġs ides
s weet
Ġn eed
Ġd issol
ĠSw iss
ĠG ra
ric ot
ar ts
Ġtart ar
Ġwh ile
ur t
Ġj ust
s a
er eal
read y
Ġhal ves
Ġst ri
Ġse mi
n ey
re ak
un d
Ġminut e
ĠP unch
risp ies
ĠSa ute
ĠH ot
Ġun greased
og urt
d ually
ĠF ro
Ġdou ble
ĠS weet
ra p
Ġun s
Ġb ut
ĠP ress
Ġlay ers
ĠP udding
u ck
Ġc ereal
ĠS oup
ic es
Ġcorn meal
Ġ qu
Ġst iff
Ġd ates
Ġc auliflower
ĠT o
Ġcrumb led
i ra
Ġcran berries
ĠD el
Ġin ch
Ġs c
ĠT urn
pp y
Ġapp roximately
ĠSt rawber
ĠK rispies
Ġch est
ĠS qu
Ġchil ies
Ġk id
Ġtablespoon s
Ġa fter
Ġj ars
Ġtur key
st yle
ira cle
Ġ ready
Ġchest nuts
ĠD o
ow n
Ġbas il
i o
ĠF ry
Ġunco vered
ip e
it z
ĠPot atoes
u ll
Ġcr es
Ġkid ney
Ġbutter scotch
ct ed
f at
ĠM iracle
Ġy ogurt
ven ly
Ġstri ps
Ġk ern
lass es
i a
Ġle ast
ĠLe mon
ĠStrawber ry
Ġcres cent
Ġt w
Ġa m
Ġra sp
ul ar
ub b
r ate
re me
Ġc ur
ĠB anan
i v
Ġt una
ĠF l
Ġdire cted
Ġs ide
sp ice
Ġd ay
Ġg ood
st ing
ĠA r
p are
Ġunco oked
ĠR itz
c ipe
ĠF udge
Ġslow ly
as co
ast ry
Ġre move
ver al
ee z
Ġp in
ĠT ab
n ish
Ġdissol ved
Ġall spice
Ġap ricot
an ch
ĠS o
g ular
Ġb ring
Ġkern el
ĠTab asco
Ġse veral
ĠBanan a
Ġd ip
Ġcar am
Ġsk in
Ġchun ks
Ġc risp
ok e
Ġ raw
Ġh ash
ĠC ra
Ġpec an
i g
Ġh e
ĠF ill
ĠSh ape
Ġw eed
Ġmo lasses
en ter
ee ts
ser t
Ġan y
Ġb ou
Ġ2 4
ill on
v el
os s
ĠS et
Ġse par
Ġb ubb
Ġbou illon
b s
Ġf ew
Ġc enter
as ta
Ġco ffee
ap en
ĠTh is
Ġpl ate
al apen
Ġg rease
Ġbanan a
Ġb its
Ġli ke
Ġb arbecue
ent ly
Ġk n
t in
Ġe venly
ĠQu ick
Ġp at
Ġjell y
t z
ro cess
ter n
Ġp astry
ĠM eat
Ġcan ned
r ough
Ġn on
Ġsal mon
Ġla st
erb et
h ub
Ġp aste
Ġh or
hub arb
Ġth rough
ĠBall s
Ġchill ed
ter s
u gar
ĠB eef
Ġle aves
Ġs weetened
Ġst ew
ad ish
ĠE gg
ĠM icrowave
Ġsal sa
b l
ĠC an
ĠL o
Ġst al
ser adish
Ġboil er
ĠSto re
ĠP ineapple
ĠW ith
ĠYiel ds
Ġfor m
Ġam ount
ĠPre pare
Ġd own
Ġtub e
ĠF reez
ĠY ou
as ion
Ġhor seradish
cc asion
mer ican
Ġco at
s o
il d
Ġr ind
ĠSal t
Ġseason ed
m es
Ġ quick
Ġo ccasion
Ġmini ature
ĠR ed
Ġthe m
ĠM ex
Ġch i
ĠD ressing
Ġbot h
Ġj alapen
Ġcon s
Ġ ar
Ġcle an
p es
ful s
ĠA merican
Ġfreez e
Ġp ress
ĠR anch
ĠPe el
Ġp art
Ġoccasion ally
ĠT ake
Ġst o
Ġcro ck
uff y
a vor
Ġd eep
Ġ room
ĠPe can
ĠO n
Ġblue berries
ĠBe ans
Ġtw o
Ġsh erbet
Ġ *
Ġre gular
ĠO re
m eat
Ġgr an
Ġfreez er
Ġf ish
avor ite
Ġs m
1 5
Ġsh all
Ġbox es
ĠI f
ĠM in
Ġtortilla s
Ġth at
ĠSe ason
us ts
Ġfl aked
ver y
el ess
a bout
ĠM ar
a uce
Ġsp ray
ĠG ar
oth er
p ot
Ġsp eed
Ġcon cent
Ġlon g
Ġco mp
Ġcr usts
ĠPe pper
u er
Ġbrown s
Ġ4 25
Ġri pe
Ġd ark
les s
Ġsqu are
rea st
ĠI ce
Ġg al
Ġgra pes
c orn
Ġto ast
Ġcream y
kra ut
Ġuns weetened
Ġcream ed
uer kraut
m an
ĠG r
am p
il ed
Ġ Z
c ake
as chin
aschin o
ess on
Ġf ried
an g
Ġp rocess
re at
Ġh igh
Ġchun k
r it
Ġpick les
ex t
ĠS c
Ġmar aschino
Ġboil ed
n ot
Ġconcent rate
ĠO range
Ġdo zen
Ġcarro t
at ion
ĠW esson
Ġsp ices
Ġbon eless
Ġ4 50
Ġcool ed
Ġe very
Ġk eep
ĠV egetab
Ġus ing
Ġcomp let
g s
ĠS ugar
Ġfl uffy
ul ated
Ġshall ow
ĠE ng
Ġch uck
Ġd ro
ĠSa usage
Ġpre tz
Ġpack ed
ĠMex ican
Ġr ings
T el
ĠM ay
vel op
or t
ĠCo conut
Ġwax ed
2 0
Ġb ars
en ne
Ġco mes
Ġcand y
Ġ im
ĠW ash
Ġen velop
Ġde g
ĠP ound
ĠAr range
y s
Ġgran ulated
Ġb reast
Ġe le
is ten
Ġf old
ĠN o
ĠFreez e
ĠC on
Ġd ri
Ġp asta
Ġmay o
Ġthicken ed
ĠD ream
Ġlon ger
ĠB reak
ĠEng lish
Ġp er
Ġb unch
Ġcucumb er
Ġf ull
Ġh as
ĠM on
ay enne
ĠP ick
Ġm e
ĠG reen
Ġc ayenne
Ġm el
ĠFor m
Ġrasp berry
Ġcomplet ely
ir t
Ġb ite
Ġthin ly
Ġbubb ly
Ġco ars
um in
ed ges
il ad
Ġse al
Ġapples auce
ĠCh erry
ic i
Ġr hubarb
sp ar
y me
Ġbeat ing
ta ch
ĠH igh
w ich
Ġor der
Ġjalapen o
Ġp izza
re es
ĠT ater
ĠD es
Ġstal ks
un s
f t
ar y
Ġ6 0
ĠN ut
Ġdeg rees
Ġal tern
on g
m edi
is tach
ĠLo af
medi ately
Ġp op
Ġth yme
Ġn e
ĠDes sert
Ġp ar
er ries
Ġadd it
ĠT oss
istach io
Ġm old
Ġso me
ĠCr an
Ġneed ed
in ed
Ġcorn bread
or s
Ġre cipe
1 4
in es
Ġle an
ut ed
ct ric
ĠJell o
Ġpo ppy
U p
Ġto ss
ĠB ars
Ġpick le
Ġseed s
Ġus ed
l ing
ĠM arin
ĠBe an
an y
and wich
Ġpretz els
Ġ -
Ġqu ar
Ġele ctric
rain ed
ĠVegetab le
ĠCran berry
i dd
Ġon ce
ĠW rap
Ġha ve
ap ing
la z
ot s
Ġchi ves
Ġsa uerkraut
t y
if e
Ġb erries
Ġp unch
Ġsp ice
Ġcho ice
Ġdro ps
i ed
ĠS our
ĠA l
Ġse con
a ff
a i
b on
c y
Ġgra pe
Ġcur ry
ĠP ork
Ġgra vy
Ġan other
Ġf avorite
ĠCh eez
Ġbe en
c a
ou ld
ĠWh iz
ĠK n
tin ue
st it
und t
t ies
ĠC and
Ġadd ing
b all
ĠU n
Ġa g
ĠSt e
Ġlemon s
o y
Ġp ound
ĠP at
Ġmar in
' t
p ick
ag us
spar agus
ĠB lue
ĠCr umb
Ġmel ts
Ġag ain
Ġd rop
ĠGra dually
Ġar ound
Ġenvelop e
ici ous
p h
N o
g el
Ġwh ip
st ic
Ġkn ife
ĠB arbecue
oth pick
ĠG ood
Ġto w
Ġr um
Ġpla stic
Ġb et
Ġfro sting
Ġto othpick
Ġim mediately
Ġfl at
o ol
Ġb ay
ĠD ump
ĠSqu ash
ĠL ine
i ve
n ut
ĠH am
Ġh erb
ĠTh e
b y
v o
Ġre lish
ĠSt uff
Ġgra dually
a me
ĠB iscuit
ĠP izza
f l
n er
ĠP et
Ġan gel
ĠB undt
Ġsalt ed
Ġal so
k en
ĠRoll s
ĠGar nish
c akes
r ush
Ġsh erry
Ġwh eat
Ġpre heat
p en
Ġfry ing
t on
Ġto o
Ġsh ape
ors els
Ġm orsels
Ġflavor ed
bl er
ĠM ash
ĠPe ach
Ġ1 1
ĠP am
ĠP umpkin
ĠO r
Ġhe aping
le ts
Ġr ise
iz ed
ĠOre o
il i
Ġsu b
ĠT om
Ġco ated
Ġbro il
Ġle af
res erves
ĠK eep
ĠCar ro
c ad
ĠDel ight
Ġp istachio
Ġseasoning s
Ġpl us
Ġpimento s
isten cy
vo cad
Ġun d
Ġcons istency
ball s
w h
ĠJ ack
ĠCh ili
Ġch eddar
Ġbro ken
p eat
ĠO ld
Ġmo is
Ġcrab meat
Ġcaram els
Ġ art
la w
ĠA ng
Ġb eets
co oked
il uted
ĠA fter
Ġrefriger ated
er man
Ġl en
ĠF ried
Ġsub stit
ĠT ea
ĠBiscuit s
Ġn ext
er i
Ġsto ve
f ree
Ġ1 4
ĠCr ust
oll ow
Ġo ys
ĠSh rimp
Ġpreheat ed
b bler
o me
ĠMin ute
a ce
es ame
p l
pping s
iff y
e g
aff in
all op
Ġpar affin
e ts
t ing
Ġ1 8
ĠH a
ĠMar shmallow
w ise
ĠM uff
bo iled
ĠCrumb le
ins e
Ġpin to
h ey
Ġpepper oni
Ġdri ppings
ĠRed uce
Ġb rand
Ġg ently
ow er
ĠAng el
v ing
ĠSp inach
Ġcaram el
Ġp reserves
ol es
j oy
ion s
ĠR a
ĠG erman
in t
Ġa vocad
Ġtoast ed
Ġb ar
ĠC up
im es
Ġpop corn
ĠCand y
ĠCo bbler
ĠJ iffy
Ġaltern ately
ĠA cc
Ġbe an
ers hey
Ġadd ed
unch y
ĠC abbage
ĠCra b
ĠAcc ent
ĠZ ucchini
Ġheat ed
Ġd i
ĠK ool
ĠBrown ies
n ess
Ġcho p
ĠF rit
am el
Ġteaspoon s
on s
ak ing
ĠP h
ĠA pp
ĠC amp
ĠH ershey
Ġyol k
Ġday s
Ġa irt
Ġon ly
Ġcorn ed
ĠMuff ins
Ġairt ight
ĠC risp
in y
Ġb uns
Ġ quart
Ġs esame
Ġmuff ins
ĠCra ck
A id
Ġo un
Ġa sparagus
ĠCh e
Ġroll ed
. \
f or
Ġst ore
qu al
in ner
b ell
Ġc l
ant e
Ġba ck
ĠT aco
ĠCar amel
m ade
Ġt ightly
ic ante
ĠYiel d
Ġcorn fl
ĠK ra
Ġturn ing
ĠFro sting
iv id
ĠS up
Ġbag s
Ġ el
Ġw ee
Ġre al
b ow
t c
il y
ĠSp ray
b its
Ġl id
ĠF resh
ĠCr ush
Ġsoup s
ĠD e
Ġpat ties
Ġb reak
th ing
Ġres erv
g th
l it
Ġaddit ional
i ble
Ġsl i
Ġsepar ated
Ġart ich
Ġlen gth
ĠO atmeal
Ġsh ake
Ġgar nish
d o
ĠA ll
ĠD or
zz le
Ġsepar ate
f er
Ġ2 50
ĠCamp bell
Ġc la
Ġsecon ds
Ġp it
ap le
o ut
Ġm ild
Ġe tc
er ing
ĠD ot
Ġpie ce
u k
Ġspoon fuls
Ġprocess or
Ġm ade
Ġf our
ĠRe peat
Ġnon fat
A ll
un can
Ġthe y
ĠG reat
Ġhand s
ien to
ĠSte ak
ĠD iv
ĠSh ake
laz e
pl ant
Ġt ap
Ġt imes
Ġg all
ome made
Ġp icante
Ġra ck
ĠP an
Ġbot t
ĠDel icious
ĠPick les
el ph
ĠCorn bread
ilad elph
iladelph ia
Ġfry er
ĠRo ast
Ġsk im
al or
ĠC reme
ĠSt ew
) ,
Ġbe er
ĠM acaroni
art y
Ġsm oke
Ġchunk y
ĠPh iladelphia
o la
ĠF arm
Ġre mo
ĠDor it
ering ue
Ġfor ms
Ġcub e
Ġserv ed
io ca
Ġw rap
mbur g
l u
ry e
k et
ĠH ines
mo st
ĠSqu ares
Ġsubstit ute
Ġel bow
Ġ rye
Ġfirm ly
Ġo kra
Ġsa ge
ĠV al
Ġsli vered
e gg
f ast
ol id
ip ton
Ġpim iento
ĠBlue berry
m a
w e
Ġ edges
Ġsh ould
Ġlar d
Ġs andwich
ter ey
ĠT ots
i ven
Ġof ten
ĠL ipton
f lavor
w ay
Ġwh is
ĠD uncan
ĠOn ion
Ġf il
Ġg rain
Ġmin t
ĠDorit os
Ġw ash
Ġcr unchy
co op
Ġquar ter
a pp
Ġth ree
Ġwh ich
Ġlength wise
ĠWh ile
Ġcornfl akes
ĠV eg
ĠCh ip
ĠW ill
Ġju ices
Ġbe g
ĠVal ley
ic ot
Ġgr ill
ĠMon terey
Ġtap ioca
Ġ \
Ġpe ars
ĠM e
Ġc umin
Ġcle ar
ĠSup reme
ing ers
st ick
id ge
ou l
ĠB rush
ĠCo ffee
Ġthicken s
Ġm aple
Ġ "
Ġt id
Ġe at
Ġroll ing
Ġcand ied
ĠHa mburger
ĠKra ft
flavor ed
a h
Ġst age
Ġal most
Ġcoars e
Ġst ill
n y
Ġst yle
Ġap art
Ġhe arts
c ing
Ġd rink
mer ic
Ġmo der
Ġ '
in i
Ġevery thing
Ġtid bits
Ġ ic
Ġsh eets
Ġrasp berries
idd en
i ally
ĠB est
Ġba by
s ize
y re
Ġw ings
ĠT ur
ĠKn ead
yre x
Ġd issolve
ĠT una
ĠWh ite
we en
Ġs q
ĠH idden
Ġblue berry
i al
l ings
Ġtur meric
ut ons
ĠP arty
Ġn o
Ġha mburg
an ish
Ġbet ween
ĠChop s
ĠPepper idge
ĠD i
ĠSc allop
Ġbroil er
Ġgall on
Ġic ing
Ġw ork
Ġh oles
ĠM ushroom
fri ed
Ġcoars ely
Ġcrumb ly
Ġpo pped
bl ong
in ese
ĠP yrex
Ġg iven
Ġl im
ĠM ilk
Ġ5 5
Ġstew ed
Ġbott les
ĠC ro
as ure
Ġcontain ers
Ġpick ling
f ro
ĠS m
Ġl ess
ĠCh ris
Ġfil lets
d e
Ġbo ard
ash ion
Ġcro utons
Ġme in
Ġo blong
Ġk ind
ĠS low
ĠRe cipe
ĠTom ato
icot ta
us s
ĠCh inese
ur ing
ĠFro st
Ġwee ks
ĠT w
h ead
Ġsu re
ĠP o
Ġteaspoon fuls
umin um
a il
ĠG rand
ĠBro il
Ġdo gs
Ġmoder ate
f ten
ut h
Ġal uminum
ĠSto ve
n ation
t m
Ġw ant
ĠC ustard
ĠR icotta
ous ly
Ġt ake
Ġt ri
ĠH omemade
ĠSal mon
ĠFro zen
Ġqu arts
Ġf udge
1 3
Ġskin less
Ġsto ck
ĠStuff ed
s mall
Ġ &
at ch
Ġsu r
ĠS law
ĠSp aghetti
Ġch e
ĠL ow
Ġcon tinue
ĠCream y
ĠSo ak
ĠCarro t
ĠC akes
ĠD ish
Ġri bs
ĠEgg s
ĠMarin ate
Ġtow el
Ġin ser
Ġg laze
Ġegg plant
ien ers
ĠV anilla
or m
ge al
ew arm
ĠSo ften
uk ewarm
ĠT ang
ĠButter milk
Ġinser ted
Ġc utter
Ġf re
Ġl ukewarm
aw ai
Ġkn ead
ĠRa is
ĠFrit os
awai ian
C h
ĠCar nation
Ġsa ute
ĠD ough
qu ently
ĠH awaiian
Ġfre quently
Ġt ins
Ġd el
Ġtop s
pe el
Ġste ms
ĠCon tinue
ĠDiv ide
inch es
ood le
Ġm akes
or ed
ĠJ ust
Ġcons om
ĠChris tm
t ry
un t
to ver
ĠH oney
ĠSlow ly
Ġm u
et iz
ĠI cing
Ġcla ms
Ġm eringue
f tover
Ġp ies
Ġgelat ine
Ġoys ter
Ġp ure
ĠS k
Ġchil es
ĠScallop ed
Ġb ark
ag na
ĠGr ill
Ġbrand y
oul try
ĠChristm as
Ġb est
ĠS n
Ġre fried
Ġwith out
ĠSp anish
n o
us e
Ġconsom me
c r
Ġun der
ĠO ven
wee ten
Ġbon ed
w ith
ĠD ri
Ġinch es
1 1
Ġw edges
Ġg et
ach o
Ġp oultry
Ġin st
ir on
Ġlo aves
ĠBreak fast
Ġsur f
peel ed
Ġseed less
oss ible
Ġp ul
Ġex cess
Ġquick ly
ra g
ec or
Ġsurf ace
Ġf ollow
ĠW ater
d ry
o am
Ġall ow
Ġwal nut
cess ary
Ġne cessary
ai ry
ĠRais in
ut ch
en er
Ġsugar s
ĠAll ow
Ġs coop
na ck
Ġred uce
idd le
e ar
in a
al ted
Ġj am
Ġt ar
ĠC ucumb
ĠP ack
is ted
Ġhal ved
Ġspray ed
Ġoun ce
Ġquarter ed
ĠTur key
rag on
Ġt in
Ġch ow
Ġl ined
n ing
Ġc alor
ĠT ri
a v
ĠCo at
ĠH ash
ris ket
ĠPan cakes
ĠP op
ĠG rate
Ġapricot s
Ġl isted
et urn
Ġpart y
Ġquar ters
Ġavocad o
Ġb ig
Ġp ink
Ġd inner
ĠM andarin
ĠCh ex
ĠR eturn
Ġpart ially
ĠCrack er
ak er
Ġpul p
Ġtar ragon
Ġv egg
ash ew
op le
Ġlim a
Ġb lo
Ġm iddle
Ġcrumb le
Ġcar e
Ġund rained
m ary
Ġw ieners
ic y
Ġmeat balls
ĠOre os
Ġund iluted
ĠD utch
Ġsc all
Ġmois t
Ġun flavored
Ġle ftover
Ġpan cake
ff le
Ġen joy
Ġsteak s
ĠTo ast
ĠCro ck
u al
Ġs weeten
Ġa head
Ġd on
ĠR el
ĠE n
Ġb one
Ġe qual
ab le
Ġcl ub
Ġb ul
ĠS andwich
ĠO ne
Ġfresh ly
Ġmarin ate
ĠRel ish
er m
ing le
Ġw ood
am s
par ate
Ġskin ned
Ġcare ful
Ġsu n
ĠS eed
ĠT ex
Ġco mb
om iny
Ġgreen s
eez e
ĠDri zzle
ĠL ea
Ġreserv ed
d ish
co ok
ĠCr unch
Ġtow els
ĠSt yle
Ġro se
Ġthick ness
ĠU s
Ġpin t
Ġsm oked
s ide
ĠL ime
lo in
e ars
ed ge
ec ial
m y
ĠS eal
ch o
bo ve
Ġw ire
Ġa bove
Ġr inse
ĠH ell
Ġcut ting
ount ry
ĠApp les
app roximately
il ant
Ġf oam
ĠM om
ĠR inse
ĠN ext
ĠGar lic
ilant ro
ĠCh ess
ĠR uss
ct ar
Ġsc al
j on
Ġfl ower
ĠL ightly
ĠSe parate
Ġbet ter
Ġc ilantro
Ġla s
b u
Ġf ran
ĠP asta
as ter
ĠD ill
Ġglass es
Ġnon stick
ivid ed
ashion ed
Ġwood en
at h
ĠP r
Ġsalt ine
ĠSp iced
a ges
o e
Ġm aking
ĠB lack
Ġpe ak
ĠMeat balls
Ġmarin ade
Ġartich oke
Ġrose mary
Ġt bsp
ro uts
ĠY um
Ġvegg ies
a con
ĠC innamon
Ġpre fer
Ġs ingle
Ġin d
ur g
Ġuns alted
Ġbul k
ĠTex as
Ġun peeled
Ġmeat s
ĠTh aw
Ġsweeten er
ĠUs ing
Ġs it
al s
Ġscall ions
bu ry
f lower
Ġc ashew
er e
Ġd ivided
ĠHeat h
Ġaddit ion
Ġbeg ins
ĠRuss ian
4 6
Ġ iron
Ġle ave
olid ay
Ġche es
c up
Ġl ite
ĠR hubarb
Ġal um
our bon
ĠP uff
Ġblo ck
ĠEn joy
ĠD ate
Ġsp routs
ag ne
Ġde v
man n
ĠDi jon
c ans
i pped
in al
an k
Ġpe ople
bo x
Ġwash ed
Ġc ap
Ġg ener
eat en
Ġn acho
Ġsp rink
Ġmu ch
or b
ĠN e
ĠDump lings
ĠCarro ts
Ġavocad os
Ġchees es
Ġo pen
ee ps
ĠW al
od ka
Ġlit er
Ġchi pped
f ish
Ġp arts
ĠC ol
Ġgr its
Ġen d
ich e
Ġpl atter
s ave
Ġw ild
Ġe as
ĠB ar
Ġg reat
ie t
ĠCheese cake
Ġne ctar
ill s
ett uc
Ġwaf er
laz ed
i er
th s
en ts
Ġa bs
ĠB ran
ĠC auliflower
ĠFl ake
ĠChe es
Ġwhis k
ĠCucumb er
is on
ok es
Ġbrown ie
Ġfruit s
Ġt ray
at ing
or ted
Ġste am
Ġoys ters
Ġpeak s
Ġo wn
ĠP u
ĠD ice
ĠF avorite
Ġremo ved
ĠM old
un cooked
Ġv odka
Ġsa me
ĠD on
Ġcolor ed
ĠGrand ma
Ġsun flower
ĠLea ve
m m
en ison
ĠA unt
Ġsp lit
ĠSp ecial
ills bury
f resh
Ġc akes
ĠC a
ĠB acon
ĠSp lit
Ġas s
ĠGr ind
ilad a
Ġsecon d
Ġh old
Ġst arts
Ġra dish
Ġabs orb
ĠB atter
is t
t e
Ġb risket
Ġr ing
Ġsp ring
Ġdes sert
ĠFl our
Ġstal k
Ġbunch es
ĠPo ppy
ĠHell mann
ĠChees y
Ġb urn
ĠT r
ĠR es
Ġflavor s
Ġdissol ves
ĠMarin ated
m int
Ġp r
Ġth ese
bon ed
Ġscal ded
P ot
ĠC l
Ġin c
Ġl ine
Ġbe co
Ġfro st
Ġremain der
aw ay
ĠAl tern
Ġartich okes
orm el
m ay
Ġ edge
Ġs n
it y
Ġd ot
dd le
Ġcream er
co ver
Ġseed ed
Ġw ide
ĠCo cktail
Ġar range
o f
Ġh ominy
ĠH ormel
Ġde boned
Ġbubb les
Ġmois tened
Ġpit ted
T h
h igh
u ice
ĠP illsbury
ĠA p
ĠR om
Ġc reme
ar ge
ar eri
Ġsp ri
ĠL a
ĠE qual
ĠSo uth
rea ch
Ġsof ten
ex cept
urp le
ĠGra vy
ĠAr t
Ġpure e
Ġlas agna
Ġass orted
ĠB r
ĠSp r
Ġcon geal
Ġcar away
Ġlo ok
rit tle
ĠTom atoes
ĠApp etiz
o ck
Ġp ort
ri ddle
isc ard
Ġflat ten
Ġoun ces
Ġind ivid
ĠC al
Ġ2 75
Ġse ctions
ĠO f
lu a
ah lua
o o
Ġb it
ĠP er
Ġcashew s
Ġsa ve
ĠV ery
ĠSh red
areri bs
l and
ou ffle
ĠP ro
ĠCook ie
ĠQu iche
Ġreserv ing
p tional
al ade
Ġf ri
ĠD inner
ĠI r
ĠUn cle
Ġpound s
Ġradish es
b as
Ġc ustard
ing u
mon d
th y
ĠR am
ĠF ood
me ter
Ġre ct
Ġjalapen os
Ġcomb ined
ĠArt ich
F at
Ġg riddle
ĠG olden
ins ed
Ġbon es
ig inal
ĠUn cover
Ġremo ving
ĠRes erve
ĠRam en
a dd
Ġb rush
ĠH oliday
Ġcalor ies
p le
r ise
Ġb ourbon
Ġd uring
Ġle a
ĠF ish
Ġcur d
Ġcoat ing
ĠAp ricot
1 8
Ġs ter
Ġp ers
ĠB en
Ġbeat er
uc ed
Ġroast ing
und rained
und iluted
Ġflower ets
Ġt y
sp berry
Ġsh ap
Ġso ak
Ġcareful ly
Ġlea ving
b one
Ġr insed
Ġal ong
Ġdo z
Ġcand ies
Ġc ored
Ġ3 6
Ġa c
Ġst ack
ad y
Ġme asure
Ġdel icious
ĠSpr ite
ĠArtich oke
Ġt iny
and er
Ġf ire
Ġw ay
Ġe asy
ĠS nack
Ġco me
Ġy ams
ĠJ o
ĠN ot
Ġen ding
Ġspoon ful
Ġroast ed
ĠFl at
ĠIr ish
r u
es tle
ak i
ver s
Ġpepper mint
Ġlime ade
Ġit s
ĠN oodles
ĠButter scotch
Ġdri zzle
Ġwhis key
f ruit
ĠC at
ĠP ies
Ġhard en
ĠGra pe
ou se
la y
Ġg o
Ġle vel
pen ding
ĠFlat ten
t al
Ġ reach
ou ch
Ġch ip
le an
Ġ3 2
ĠS urp
ĠO ver
ĠJ am
Ġround ed
L e
Ġl ump
Ġfl ake
Ġst art
Ġpo int
! !
m ar
Ġc ir
Ġs ized
ĠB o
Ġth an
Ġst ring
Ġr un
ĠSa ve
c ut
d airy
y aki
Ġd ecor
ĠB rittle
ĠP ea
ĠSal sa
ĠN oodle
ĠPre tz
ĠCup s
Ġfoam y
M akes
f ry
Ġp urple
ĠB urg
et ic
Ġsp ears
am ily
eri yaki
Ġindivid ual
j or
Ġp ossible
Ġf ive
Ġf ettuc
ĠK eeps
ĠN estle
Ġen ch
ĠFl uff
fro zen
ro of
Ġor iginal
ĠWh eat
ĠG ran
Ġpack et
arbec u
ĠIce box
ĠPat ties
ĠP rocess
ĠM a
gh t
ĠD irt
ĠW ork
Ġcook er
lu ding
ĠSurp rise
i k
ut eed
Ġin side
ĠB as
la in
ĠK ahlua
Ġred uced
iel bas
Ġtoothpick s
Le mon
3 2
l arge
z o
Ġf ingers
Ġw et
oup le
ĠH ave
ĠPick led
ĠCrack ers
ĠAltern ate
ĠRom ano
Ġty pe
m mer
m alade
y e
en ough
Ġmar malade
ĠH e
mp ty
Ġres erve
ĠMushroom s
ĠTw ink
ĠSk illet
ĠPop corn
Ġench ilada
i b
Ġc ouple
Ġs olid
ĠF in
li me
Ġsk ins
ĠGra ham
Ġherb s
Ġdi pping
ĠDe v
cr umb
u pper
ar ter
Ġt all
Ġd ump
ra ut
Ġv eal
ĠG ently
ĠSouth ern
Ġ +
Ġt orn
Ġp armesan
ĠG inger
Ġket tle
Ġeas ily
Ġspri gs
m ix
ĠCo coa
ĠCh ow
res erve
ĠI s
ore ts
ĠSa uerkraut
ĠSe ven
ĠMe asure
Ġo ptional
Ġmar jor
Ġpan cakes
ast ing
ĠG lazed
Ġk raut
ĠPuff s
Ġpr un
d on
Ġp uff
ir loin
Ġover b
ĠBe fore
Ġsandwich es
Ġmarjor am
2 1
ĠS ouffle
Ġl ingu
orn ing
am al
ĠE x
amp agne
arbecu ed
ielbas a
t urn
an ge
Ġfl orets
Ġn ight
th e
ĠO ys
ĠN ew
ĠSn ick
Ġinst ru
C ola
S erves
r s
er mo
en d
ĠS um
ĠCo ca
ans fer
ĠL on
ĠO ri
ift ed
m edium
y our
ĠR ag
ĠD og
ĠE at
ĠFill ing
ĠCol by
pp ies
Ġa way
Ġ4 8
ĠR ub
ĠL as
ĠPe g
Ġfin ish
Ġme as
l ined
Ġtw ice
Ġpin ts
ĠAl mond
wh ite
Ġshap es
ĠSum mer
g ate
Ġpe ar
ĠSt ick
ab etic
Ġmo st
Ġspread ing
ĠRa spberry
Ġbeg in
C o
Ġp ower
ro ss
ĠT ot
Ġv enison
ĠA sparagus
ith er
ĠCo le
ven t
ĠRe a
Ġlo ve
ĠButter f
Ġmo isten
eri os
Ġm on
ĠB aking
Ġsp areribs
ĠPe cans
ĠChe erios
Ġpimiento s
Ġfran k
Ġster il
al f
Ġco re
ir l
ĠSt rain
Ġboil s
ĠRe ady
Ġdou b
Ġsc allop
Ġnon dairy
wh ile
Ġinst ead
Ġfollow ing
Ġprun es
ĠRag u
Ġsteril ized
ĠB ay
ĠP ol
ĠCo ke
ĠW ings
ĠWater gate
ĠNe ver
2 8
b utter
Ġ1 00
Ġb ran
Ġb asting
ĠT ort
ĠF ail
Ġre turn
Ġcup cake
Ġro t
Ġro aster
ĠSh oe
Ġenvelop es
ĠSte am
Ġinstru ctions
ĠRea Lemon
d rained
f ur
o x
ey ed
Ġgrape fruit
Ġcl oth
Ġtri ang
p roof
Ġs irloin
Ġp ull
re t
ĠM ill
Ġn ew
ĠTh ese
Ġsqu eez
ĠSeason s
Ġdev il
Ġbeco mes
Ġb r
Ġt ouch
Ġd ice
ĠM rs
Ġhalf way
Ġpre vent
ĠMon key
ĠNot e
u la
u res
ĠC lean
or r
ĠB arbecued
Ġsalt ines
ĠCh ew
oup e
Ġoil ed
Ġhot s
Ġnut meat
Ġblack berries
Ġdo es
oun ts
ĠKn orr
ĠGrill ed
ĠSn ow
Ġnutmeat s
d ge
Ġ ent
Ġm orning
ĠC ountry
Ġd iscard
Ġth ir
ch er
ell ent
ĠW atch
ush y
Ġr ese
am a
ĠE nch
Ġround s
ĠMay onnaise
e ur
Ġw on
ĠC la
ĠB l
ĠP istachio
Ġh ole
ĠH ush
Ġteaspoon ful
ĠTri m
ĠSandwich es
ĠPu ppies
ĠGran ny
I f
U ps
c ellent
s ugar
Ġf a
ĠT ear
ĠD ay
ĠH erb
ct ive
Ġunb eaten
Ġabsorb ed
Ġfrank fur
s ized
Ġ1 7
al ina
ĠP ink
ĠM ustard
Ġsa uteed
ĠD eep
orn ia
Ġse c
ĠI mp
if ornia
mo re
ĠMash ed
ĠM an
ĠA n
ĠO il
ĠIn stant
af e
Ġblen ding
ĠN or
Ġlo in
Ġlo os
d en
p lain
Ġo ld
ed ish
Ġp od
Ġw ould
ro ll
am ole
ĠCat alina
ĠOys ter
! )
h ot
u ac
ou ble
ra pe
ur ger
Ġfro thy
ĠH ea
ent al
Ġpre pare
ĠMarin ade
ĠKn ox
ĠCal ifornia
Ġmeas uring
uac amole
Ġc uts
al ia
Ġsu p
ĠP l
Ġcan ola
Ġcan tal
Ġcut lets
ul ly
Ġen ds
Ġstuff ed
Ġri ght
Ġam ounts
Ġdoub led
m ent
at ur
Ġf ree
Ġf amily
ĠMix ture
ĠF ashioned
ĠSp icy
ĠN uts
ag on
Ġsc ant
ĠCon geal
Ġdi pped
Ġent ire
d ough
r ound
ĠC re
ĠC ider
ĠP inch
Ġst rain
lic ed
Ġdish es
Ġk ielbasa
Ġhand le
ĠSqu eeze
Ġsqueez ed
F or
i w
Ġt ight
ĠS yrup
ĠSp ice
ĠSt art
id alia
Ġpack ets
Ġde pending
ĠSw edish
ig or
ĠAl so
ĠMill ion
iw i
S t
ĠS ec
ĠP lay
Ġv igor
ĠF ir
um ps
iss es
Ġpack ages
ĠLayer ed
ĠSl ush
Ġhand ful
ĠPepper s
Ġscallop s
Ġrese mb
C an
Ġb l
Ġf it
ĠC ur
Ġ2 00
Ġsu it
ĠB eets
ĠW af
ĠL i
Ġsqu eeze
Ġliqu eur
Ġstiff ly
crumb s
ĠIs land
ĠTort e
Ġfrankfur ters
ĠImp ossible
Ġcantal oupe
Ġvigor ously
al d
ĠM c
Ġn oodle
Ġra b
ĠRefriger ator
Ġne ar
Ġpar ed
Ġwork s
Ch eese
) ;
m ents
re n
Ġw ish
Ġd iet
Ġg erm
ĠD ecor
Ġover cook
Ġstick y
ĠCorn ed
Ġuns ifted
Ġclean ed
ĠFrit ters
Ġwee k
Ġgener ously
ĠTr ansfer
an ese
ĠB aste
ĠT ender
ĠA s
Ġsp at
ĠH o
ĠJell y
ĠSh ort
iff er
mm ed
Ġfri dge
b aked
z y
an ce
ĠC ub
ĠT ime
ot tage
Ġst r
pper s
ĠH ouse
Ġpec tin
Ġcol ander
ĠLemon ade
ĠCrisp ix
ĠPr al
R oni
Ġs w
Ġm any
Ġf ully
Ġw ra
Ġto pped
Ġe ven
ĠS ea
gh orn
ĠF ran
lo ppy
ss e
ĠQu ik
ĠTo pping
Ġcrisp y
ĠVegetab les
ĠApples auce
ĠTwink ies
Ġspat ula
j un
r ated
Ġd airy
ĠB on
Ġl ater
lo c
Ġdash es
ĠZ ip
ĠAppetiz er
ĠOri ental
ĠHea venly
B ake
m it
o z
r ant
w are
Ġc ountry
Ġsu mmer
ĠP ar
Ġg one
ĠM y
ĠM il
ce meat
ĠCo mp
Ġbrown ies
Ġr is
ĠSt ro
Ġk iwi
ĠV idalia
Ġde bone
Ġmold s
ph ant
cho pped
ĠPretz el
3 0
d a
j ust
s afe
Ġp ats
el on
Ġa ctive
Ġl umps
Ġcan ning
ĠCh owder
et ter
qu e
Ġclo s
est y
ett y
ett es
Ġhead s
Ġfry pan
Ġcro ss
1 7
M icrowave
v ol
Ġs law
Ġb ath
Ġt eriyaki
Ġp ro
ol og
ther n
ĠL ight
lo ss
ĠMex ic
ĠFir st
ĠZip loc
olog na
h e
t ures
Ġs ix
Ġb eet
ĠS loppy
ra mb
un k
Ġco la
Ġth ermo
Ġbread crumbs
ĠU ps
ĠMin i
ĠMon de
Ġpit cher
Ġsprink led
e ms
t i
ĠC ottage
Ġv ar
Ġmix tures
ĠW arm
Ġre peat
ten der
bo il
ĠCand ied
Ġport ions
Ġrect ang
ĠDev iled
Ġoverb ake
ĠCla m
iffer ent
Ġstr ong
vol one
c i
Ġf ig
ĠS erv
ĠS coop
ĠB owl
Ġg um
ĠM ed
us ages
ĠD ouble
ast es
Ġaltern ating
Ġdi agon
Ġcla m
fro st
Ġcap s
ĠCa jun
Ġinc luding
Ġthermo meter
J ell
o sh
or y
it ch
Ġe ars
Ġe ither
Ġh ock
ĠM eringue
ĠR eese
im mon
aw ry
Ġpl um
gano ff
ĠSc ald
alor ie
Ġreach es
amal es
ĠLon ghorn
F ree
in stant
Ġw or
ĠB etty
ĠT re
im ple
Ġshor t
ĠBe er
Ġcur rant
Ġsepar ately
ĠEgg plant
ĠOn ions
Ġfran ks
Ġpers on
b e
re l
Ġch ampagne
Ġd ust
ĠS un
us ters
Ġlb s
ĠL awry
ap anese
ĠO li
ĠO kra
ĠE l
Ġstri p
so ft
Ġdro pped
m elt
s elf
u les
Ġt ips
Ġm ace
on d
Ġf ries
ĠC old
ell i
ur k
edd ing
Ġbowl s
Ġcool s
ĠCream ed
ĠZ esty
Ġpretz el
Ġscoop s
Ġlingu ine
ĠLas agna
Ġresemb les
ĠUps ide
a ct
c ream
j uice
Ġd is
la ir
Ġl ots
umb o
Ġse af
Ġstick ing
ĠG laze
Ġro ot
ĠE mpty
Th is
ĠButterf inger
ĠDecor ate
ĠSea f
ĠStro ganoff
Ġseaf ood
p re
p id
Ġt amales
ĠB aker
Ġg ets
ĠT ortilla
ĠR um
ĠD oll
ĠE c
ĠJ uice
Ġshell ed
Ġli ver
ĠPe ar
Ġan ise
Ġmo zzarella
Ġde er
Ġgran ules
ĠGr ound
Ġsubstit uted
Ġgener ous
ĠNor thern
ĠCongeal ed
ĠMil not
Ġs nack
es ts
Ġm ang
ou sse
Ġfl ank
ver age
Ġsa usages
ĠF at
ĠO pen
ĠJ apanese
ĠK ey
Ġdo g
Ġpat ty
wh ole
ĠPro volone
Ġmon ths
m elon
n el
u x
u ds
Ġp ine
re w
ro s
Ġd ia
ĠB ea
la sh
ver t
Ġsh akes
ĠR ich
ĠW edding
ĠWh is
ĠV egg
li ke
Ġlo g
alapen o
Ġpit a
uk es
ĠWal nut
Ġsn ow
ĠBurg ers
Ġpod s
urk ee
b eaten
u g
en ess
ol i
ĠM other
ĠA mb
Ġst arch
Ġn ice
Ġgr ate
Ġlar ger
ĠL ast
Ġra pid
ĠSh erbet
acar oon
fe ct
ĠMo ck
Ġcarton s
ible ts
osh er
ux e
b ro
g o
ro ps
ĠB etter
as s
eat h
ĠD ash
et al
igh s
ĠL og
ĠI m
ĠSh eet
Ġcalor ie
ĠEc lair
y st
Ġt est
Ġf inger
ĠB reasts
Ġl ink
Ġbutter nut
ee k
ĠG o
ĠTh ey
Ġlo gs
Ġtopping s
Ġbreak fast
Ġdump lings
Ġcross wise
ĠIm mediately
z ola
Ġf ast
ĠC elery
Ġa d
ĠS ure
ĠS oda
ĠP en
Ġl in
ĠF ollow
ĠL ower
ĠK id
Ġit ems
ĠSm ith
Ġdev iled
ĠPol ish
Ġsec ure
Ġsup reme
atur al
ĠCub e
itch en
ĠTre ats
melt ed
A dd
m ild
x x
er to
Ġb la
it ation
Ġd ifferent
ĠS ar
ĠB ac
ĠP ull
ĠP astry
ĠM iss
ĠM ama
ri e
Ġcr ush
Ġcr yst
ĠD urkee
ĠW e
Ġchicken s
Ġcon tin
Ġchil d
Ġan cho
ĠSh ell
Ġde ve
Ġloos ely
ĠMexic orn
D o
g in
h alf
r on
in z
Ġs ee
an while
Ġb ologna
Ġp oke
ĠT e
Ġle ft
ĠW ine
Ġr ich
ĠSp am
ran spar
Ġflavoring s
ranspar ent
M ay
f le
Ġo uts
Ġt ransparent
ak y
ĠS u
ĠM edium
Ġth ighs
ĠA u
Ġse g
if ici
Ġlow er
Ġpress ed
Ġmel on
ilad as
Ġaltern ate
for m
Ġdon eness
ĠYum my
Ġstart ing
upper ware
ĠDog s
ros ia
2 9
i gg
Ġo mit
Ġt ill
re gular
ic al
ĠC erto
Ġon es
ĠS mooth
ick ory
Ġn a
ĠR i
ast y
ĠTh oroughly
ĠFreez er
ĠRoast ed
ĠMe anwhile
Ġcir cle
ĠAmb rosia
a ved
Ġc ukes
Ġw orcestershire
ĠS und
ĠP ark
til s
Ġpepper corn
ie ve
ĠF lavor
am i
ĠJ alapeno
Ġset ting
ĠY ogurt
ĠStuff ing
ĠDi abetic
Ġlook s
Ġac ross
ĠMa zola
ĠBas ic
Ġseg ments
an ts
Ġm etal
Ġch ick
ĠM eal
ĠM ag
Ġmin cemeat
red ge
ĠD ry
ta ins
Ġre heat
Ġse ction
Ġsmall er
sh ip
pe cans
ĠMo lasses
ĠJo es
ĠHe inz
ĠServ ings
Ġouts ide
D own
O s
g reen
h y
Ġf la
Ġth read
Ġ4 6
Ġso on
Ġcool ing
Ġz est
Ġturn s
Ġart ifici
Ġsn ipped
Ġport ion
ĠOli ve
I t
L ow
Y ou
i um
an gular
Ġb erry
ic o
ĠC lo
ĠP owder
ĠP oke
Ġh ow
ĠT upperware
Ġthe ir
ĠD ust
ĠI nd
ĠTh ree
ĠFreez es
Ġim itation
Ġlen tils
ĠAppetiz ers
Ġcir c
Ġtriang les
ĠEnch iladas
2 4
f u
k es
p lace
Ġ #
er d
Ġm icrow
ĠP in
Ġh omemade
Ġn atural
ĠH ar
ub ble
Ġapp etiz
ĠCr unchy
ĠBoil ed
Ġliquid s
ĠChe ck
Ġleftover s
ĠFin ish
Ġbl anch
Ġfig s
Ġmang o
b an
e ta
Ġb un
es ar
Ġf illet
ve t
ate ver
ĠW ild
st rawber
Ġoven proof
ĠE ver
Ġus ually
Ġblack berry
bs ter
tin i
Ġele phant
Ġsprink les
Ġrect angular
ĠEx cellent
Ġrab bits
Ġdiagon ally
Ġdia meter
ĠBea u
Ġpeppercorn s
d y
e pt
Ġm an
it es
Ġh ickory
ĠA t
Ġsp icy
ĠL ou
ĠH unt
Ġk ept
Ġla mb
ĠTo ffee
ĠPu ppy
ĠDoll ar
Ġartifici al
N uts
c ine
f in
in o
an cy
Ġb atch
ĠC are
or ange
Ġh el
Ġh ollow
ĠT est
Ġst ored
Ġgr ind
et to
ĠJ ul
Ġfill ed
Ġpla ced
ous and
Ġbubb ling
Ġpress ure
way s
Ġtri mmed
ĠCa esar
end ship
he aping
ĠWhis k
ĠVegg ie
Ġbla de
d or
r um
Ġ X
at in
ic elli
Ġd iluted
ĠS imple
ow ers
ĠA mar
ĠH un
Ġgar den
Ġro tini
Ġcover ing
Ġtender loin
Ġdes ire
ĠVel vet
Ġwa ffle
Ġri b
Ġbas ket
ĠQuick ly
ĠCrisp y
ĠKra ut
Ġprefer red
ĠCl usters
ĠComp any
Ġna vy
ĠAmar etto
a it
c ts
e k
e an
p er
Ġt ex
Ġf all
ĠP ap
Ġg loss
Ġg umbo
Ġfl o
ĠR ot
ĠW aff
od ium
Ġro ma
Ġk osher
ĠTh ousand
ful ly
can ned
ĠSw ans
und y
Ġsc rap
ĠSo ft
ĠMar y
ĠPick le
ĠCrab meat
ĠSm ok
Ġcutter s
Ġfollow s
erm icelli
Ġlump y
Ġrectang le
ĠSeaf ood
Ġroma ine
i pp
y ellow
Ġt r
Ġm y
or d
ĠS ta
ĠB ra
Ġl g
dd ock
st on
ĠF ri
ound s
Ġslic ing
ain t
ĠBeat ers
Ġli vers
Ġus ual
rop ical
ark ling
Ġprocess ed
ation s
ĠTw o
Ġblanch ed
3 50
F ashioned
Ġc re
Ġm ed
ĠS and
ĠP ure
Ġsh o
Ġcar bon
ĠE ar
ĠBrown ie
Ġlo ose
Ġtablespoon fuls
Ġseal ed
ĠSup er
fro m
ĠPr ick
ĠWal dor
Ġtex ture
ĠWaldor f
C r
C orm
Ġc at
Ġc ount
Ġt ests
ĠC ow
or ch
ĠS ch
ĠB or
ol ly
as sa
Ġh en
ĠT arts
un nel
Ġco als
ick el
Ġwater melon
Ġmar ble
ĠF ive
ĠK isses
iz er
ĠV inegar
Ġsimmer ing
Ġgall ons
Ġbott led
stick s
Ġcomb in
ĠPer fect
Ġpuff ed
Ġris ing
ond ue
acaroon s
Corm ick
s ic
t ty
in ity
ĠC ap
ĠC alorie
Ġg re
ĠA bout
to gether
ĠD iet
ill y
Ġpkg s
igh ts
ĠCook ing
ard en
ab ly
ĠJ im
ĠPe as
ĠN ow
ĠY ellow
iel d
ĠRo ck
Ġbas e
Ġcornfl ake
Ġlid s
ĠBurg undy
ĠSnick ers
Ġrot ary
Ġthir ds
ĠPark ay
assa il
b b
f ort
il ute
ut y
ĠC res
mb o
mb er
th aw
ĠWh ipped
Ġcrack ed
op e
Ġtender izer
uck y
Ġburn er
Ġpers immon
Ġfa ith
Ġchild ren
Ġdeve ined
ĠCare fully
U se
b el
c l
h n
n ie
in der
Ġ1 9
Ġm ust
il a
en ce
Ġ2 3
ĠB ab
ĠB reast
ĠB risket
ĠM ud
Ġingredien t
Ġse ts
ĠH eal
Ġgar ban
ĠV enison
ump ern
pe as
oun der
Ġmarin ated
Ġfour ths
uss els
ĠPral ines
Ġlin ers
ĠMag ic
ĠPure e
Ġcarbon ated
u red
y l
Ġc all
ar a
Ġb aste
Ġd iv
ĠB y
ĠP im
Ġwh atever
ĠW il
Ġju mbo
ur ch
Ġcon ten
ĠG oo
Ġsl ushy
vor y
Ġtab le
ĠStrawber ries
ĠDiv inity
ĠTri fle
ĠCre ole
ĠWaf ers
Ġcontin u
Ġfla me
umpern ickel
y n
Ġsu ch
ter ol
Ġv ermicelli
Ġfl aky
Ġsa ving
ĠW ish
ĠW assail
Ġr ub
ĠG ou
ĠG arden
Ġal together
ĠE le
ue ur
ĠTh in
ĠTh ank
ĠSa ut
ac ci
par ation
ĠCho pped
ĠDel uxe
ĠFl uffy
ĠGr its
Ġim p
Ġmois ture
oles terol
cr ushed
ĠCrock er
ĠRi bs
ĠWaff les
Ġcat fish
4 0
d ay
e els
Ġ es
Ġ2 8
Ġsal ami
Ġg uacamole
as e
Ġfl owers
Ġst ay
na d
ĠF eta
Ġr ump
sh ine
Ġso aked
Ġal ready
ĠIn sert
Ġsl its
iss ipp
eed s
ĠY east
Ġste m
ĠPeach es
Ġdel i
cook ing
Ġcap ers
ĠJo hn
Ġrun ning
Ġclos ed
Ġrapid ly
ĠMiss issipp
Ġdiv ide
ĠMississipp i
I n
O r
f ingers
i us
m ate
n og
in ds
or i
Ġa ir
Ġd amp
ĠB uck
Ġl unch
ĠM el
Ġsh aved
ĠCh ips
ir gin
ĠD rink
Ġbrown ing
Ġbe verage
ĠN iblets
Ġlayer ing
Ġpl ates
ĠAr m
ĠGr atin
ort on
ĠTur tle
ĠMc Cormick
Ġcirc les
nad ine
b a
r ub
Ġm en
ut ney
on ge
al t
ĠP or
Ġco b
Ġth ere
ĠA d
ri z
ĠR ing
Ġheat ing
Ġla dy
Ġup side
Ġput ting
Ġwarm ed
Ġde frost
ĠFor g
Ġte ar
Ġkern els
Ch eddar
ĠCucumb ers
ĠBlack berry
ĠCl ub
Ġbeco me
ĠJul ius
Ġflo at
Ġgre nadine
R ice
S ueur
g ry
u ch
u gh
Ġp umpernickel
Ġ2 2
Ġl ot
ĠT art
un til
ch icken
Ġst rained
Ġle gs
ash ed
ĠG uacamole
ĠIn vert
Ġchil e
Ġha ddock
ree k
ĠLet tuce
ĠN acho
ĠSh ould
Ġqu ite
ĠTri ple
Th e
Ġcongeal ed
ĠBo ston
ĠStick s
Ġbegin ning
Co ok
Ġlink s
Ġancho vy
Ġchick peas
hy d
ĠLou is
Ġgarban zo
Ġconten ts
N ut
p ack
y ou
Ġm ushy
and a
ie ty
ĠR ings
ĠW ay
col ator
Ġcook s
ĠF ast
ĠCook ed
ĠH ay
Ġ30 3
Ġ7 0
oun ce
Ġchunk ed
ĠSc otch
ĠSc ramb
ĠSm oked
ĠSk or
Ġdecor ate
Ġthir d
Ġhock s
s liced
u v
y al
Ġc av
Ġto fu
ol ut
ĠM orton
ĠA m
Ġst raw
ri b
der ful
Ġn ic
Ġsa ff
ir al
ĠF inger
ĠH ominy
ĠG e
ĠIn to
Ġjell ed
ĠK itchen
elat in
ud a
ĠLe Sueur
Ġsc orch
ĠMon te
uns weetened
ĠUn roll
oul der
av able
mar garine
ĠWatch ers
Ġlady fingers
F ry
c luding
Ġc ast
in ts
ĠC oles
le e
it i
Ġe mpty
Ġg lue
ĠM aple
ĠT ra
ĠT eriyaki
ell ini
ĠMix ed
st ack
Ġgr inder
ĠF ix
ĠH al
ĠG old
ĠRe ub
Ġpre tty
Ġmash er
se ason
ĠCar ol
ĠQu es
izz as
Ġbar ely
ĠCup cakes
Ġsteam ed
Ġdoes n
ĠSund ay
ĠClo se
Ġnic ely
ĠColes law
F ro
S weet
l ight
m old
w ell
Ġp al
it a
ĠS upper
ick le
ĠA ny
ĠCo la
th a
na ps
ay a
co vered
qu ila
om s
am ous
ĠTh icken
Ġtub s
Ġform ed
ĠNut ty
Ġeas ier
Ġtray s
ĠLa zy
ĠSnack s
ĠPretz els
ĠChew y
Ġwor ms
Ġmicrow avable
thaw ed
ĠGou lash
E asy
c ents
t P
t eg
Ġc it
Ġb ed
Ġt akes
Ġp ri
ĠC ry
ĠB erry
Ġg ive
Ġh ens
ĠM ac
ĠM ousse
ĠD ried
ach os
Ġsk ew
ran ts
ull ed
ĠMin t
Ġdeg ree
ĠSour dough
Ġbar ley
ĠBar rel
Ġfettuc ine
Ġtriang le
ĠSar an
Ġcryst als
ĠJim my
cl oth
? ?
B one
F ried
b it
f red
f oil
i ves
u y
Ġp ressing
Ġp urpose
Ġ2 25
Ġst ro
Ġsh oulder
ĠR ose
lic es
ĠF ingers
ĠF ettuc
ĠG elatin
Ġsl ush
Ġpour ing
Ġclo se
Ġice box
ĠMo ch
Ġstew ing
ĠSeason ing
ĠSc rape
ĠOr teg
ĠPo or
ĠShort bread
ĠMed ley
ĠPen n
ĠKid s
strawber ry
ĠReub en
fred o
B ro
b eat
c ross
o b
t ime
v anilla
in ter
Ġb ubble
el veeta
Ġ2 6
ĠP are
Ġg lazed
ĠM u
Ġcheese cloth
ot ten
ell o
Ġwith in
ĠR aw
ĠW ieners
ĠF our
Ġbe ing
Ġre ally
co re
Ġr anch
Ġsp iral
ĠG et
ĠG reek
Ġstir red
Ġrais in
ian a
Ġbut ton
Ġcur rants
Ġshall ots
ĠMin ts
ĠDe an
ĠMilk y
Ġfettuc cine
Ġcombin ation
ĠArm our
uv res
ĠGe or
1 9
3 75
c ial
d uty
g round
i ant
in cluding
Ġs or
Ġs ieve
Ġs lee
Ġt astes
at oni
Ġw e
Ġw as
Ġto ffee
it tle
Ġe qu
ĠB ites
Ġfl ounder
ch erry
Ġmix es
Ġj ack
Ġj igg
ir ly
ĠD own
ĠW on
Ġsp arkling
umb er
Ġ9 0
Ġk eeps
Ġpla cing
Ġdo or
Ġfreez ing
Ġspoon s
ĠQu aker
ĠQu arter
ĠFl akes
ĠCon densed
Ġtoss ing
Ġche ck
Ġhold s
ĠBr ussels
ĠWaf er
Ġvar iety
ĠSun shine
ĠBab y
ĠForg otten
2 3
4 8
i ous
m et
Ġt ail
es to
ut es
Ġch ar
ĠB uns
ĠP reserves
ir d
ĠD redge
qu ettes
Ġsour dough
ĠH i
im a
ies ta
ard s
bo y
len ty
os es
Ġbottom s
iel ds
ĠMar tha
pl ants
ĠGrand m
urg ers
ist rib
Ġbit ter
ĠEnch ilada
Ġfa irly
bro wn
Ġscrap ing
ĠEar th
sic le
ĠHay stack
D i
S p
d rops
h ol
w ater
w fish
Ġb undt
ĠS kin
ĠP ig
Ġg ro
Ġh us
Ġcho pper
to p
Ġ4 75
ĠCh ampagne
Ġsp ins
Ġcra wfish
ĠH oll
ĠCool er
ĠE d
ul ts
Ġha ir
ĠPre go
row d
ĠU p
ĠMo isten
Ġpl an
ano la
Ġlit ers
Ġturn ips
ĠHa mburg
Ġtin foil
Ġac id
Ġnear ly
Ġgum my
Ġhel p
ĠRot el
ĠCow boy
ĠHeal thy
ori ander
ĠPor cup
Ġpri or
Ġstro kes
) *
C al
e el
i od
t Add
Ġc oun
Ġp lenty
and ing
ic les
le u
ĠS lices
Ġg el
Ġh oliday
Ġegg plants
ĠA la
Ġn ow
Ġsh ot
Ġsa ck
ĠR ound
ĠD iscard
Ġju g
ĠF lo
ĠF amous
co hol
ur rit
qu ake
ĠL ittle
ĠH our
ĠH ard
Ġ5 00
ub stit
Ġk isses
Ġapp ear
ĠBro iled
af ing
Ġpre cooked
oun tain
sc ant
Ġcur l
ig ret
ah ini
ĠFrost ed
Ġmu g
ina igret
Ġfettuc ini
ĠMillion a
ĠCur ried
ĠHo bo
olut ion
ĠCry st
ĠOrteg a
ĠEarth quake
Ġcoun ter
inaigret te
e m
f ly
i ger
w al
Ġo at
il lets
Ġch afing
ra pped
ĠT amal
ĠT ropical
Ġco le
ĠD ew
ĠSp areribs
ĠSt arter
ĠH ors
if ied
ĠG l
Ġjell ied
ĠK ing
ĠK ent
Ġpeel ing
Ġwa ff
ĠSw irl
ĠDel ights
ĠOn ce
Ġtoss ed
bon eless
ĠMe in
ĠToast ed
ĠFin ely
ĠGinger bread
ĠChew s
ĠCur ry
unk y
Ġmen the
ĠMoch a
4 5
G reat
P ineapple
b ble
c ery
k ing
s ter
u f
in ute
ar ian
Ġt ie
Ġch utney
Ġa while
Ġd ate
ĠB ing
Ġl oses
ĠT on
un e
ĠCh ile
ĠCh ipped
ĠR un
st anding
Ġover la
ĠF ashion
qu id
ress o
ey es
ĠJ oe
Ġcrust y
iss cross
ĠTh an
Ġlo bster
lass ic
ĠRo ad
Ġpart ly
Ġper colator
ĠPh illy
ĠDough nuts
ath er
mmer cial
ĠDev il
ĠPral ine
Ġsw irl
Ġgum drops
Ġgloss y
ĠCres cent
acci oli
ugh ter
season ed
ĠHaystack s
ĠTamal e
ĠKent ucky
Ġwaff les
. ,
7 0
S our
d rain
g y
v ance
Ġt en
es tern
il af
Ġf if
Ġw edge
or tening
Ġd rum
Ġd istrib
ĠS am
ĠB ourbon
ĠB uds
Ġg in
Ġpe a
ĠM acaroons
ĠT astes
ĠT asty
Ġco m
Ġsh aker
ien ce
gh um
ĠD anish
me let
ĠL ite
ĠWh ole
ach ed
ach ine
Ġx xx
ĠJ ud
Ġla bel
Ġchill ies
ett e
Ġunco ver
Ġde hyd
Ġsc ramb
ĠSc rub
ĠAl fredo
vocad o
Ġdi ppers
Ġkind ness
Ġwant ed
Ġpure ed
cr ust
ĠSnick erd
Ġdis app
ug ge
Cr isco
. .
G ood
M ar
M ix
O e
Ġc oriander
Ġs im
Ġb uck
ou x
and y
Ġf ashion
Ġin sert
or es
Ġd a
Ġd oll
Ġd uck
ĠB leu
ĠP ers
Ġg u
is ter
un baked
Ġco mmercial
ĠA vocado
Ġst arter
ee bler
th is
Ġsoup y
ĠD r
Ġju icy
ĠG iant
ĠK ello
ĠN an
ĠSh e
Ġbut t
Ġsc rape
ĠCra zy
ig n
ĠCan ned
ĠDe bone
ĠSteak s
iven ess
Ġgrain s
Ġeat ing
ĠTang y
ier ce
ĠOver night
ĠSu ey
ĠHun gry
ĠRock y
Ġdefrost ed
ubstit ute
ĠCryst al
ĠKello gg
b eef
c risp
e er
g atoni
p ineapple
er k
Ġ1 50
Ġb urger
Ġm aker
en e
Ġch urn
le ct
Ġd ab
ĠS ix
ĠB un
ĠP as
Ġpe ek
ĠM ountain
ow s
ĠD rops
ill ed
ĠF ries
am ic
ap ed
ĠH ollow
Ġbread s
ĠG ener
ough t
ĠJ an
ĠPre paration
pe g
Ġte quila
ĠFro m
Ġany thing
Ġpart ies
de pending
ĠSk im
erm uda
ĠCal ico
Ġlingu ini
ĠShort cake
ĠPar boil
que fort
ĠWe ight
ĠInd ian
ĠPap rika
ĠSmok ies
ĠSta ck
ĠFri endship
ĠGoo ey
anda ise
Ġgro cery
ĠFlo at
P e
T o
a x
c al
f ine
p art
u riz
v ard
Ġs olution
Ġt ort
Ġm ousse
at t
ing ton
ĠC ereal
Ġin ter
our met
ĠP eek
Ġl ye
Ġbutter y
ĠF ree
Ġre place
Ġsyrup y
ps i
ack y
Ġpack s
Ġdire ct
Ġthin ner
est ring
est ive
Ġfreez es
ĠRo quefort
ubb ed
ĠBanan as
ild ren
ĠSte p
pen ds
wh eels
ĠFrit o
ĠDe er
icot ti
ingers naps
Ġeat en
Ch o
with out
ĠHell o
Ġlas agne
ĠBr unch
ermo uth
ĠHerb ed
ĠPl um
Ġtest ed
ĠSmooth ie
ĠHar vard
Ġappetiz er
ĠPim ento
Ġcontinu ously
Di abetic
Ġfif th
Oe uvres
uriz ed
M inute
\ \
b urger
i ar
r at
r ich
t and
w rap
Ġb rie
Ġp res
il ver
re ts
ĠC lassic
Ġin s
Ġ2 1
ĠB us
Ġh ome
Ġv ermouth
ĠCo pper
th od
ĠF iesta
Ġbe ca
ast ic
Ġre qu
co al
qu et
Ġsp ecial
ĠH ill
id a
Ġcup cakes
sh arp
lo ins
Ġex cellent
ĠN est
ĠN og
ens ter
Ġother s
ag ed
ĠCorn ish
Ġres ults
Ġri gatoni
Ġtub es
Ġkid s
ĠUn mold
ĠTaco s
app les
Ġlim as
ath y
Ġblock s
ĠCol or
Ġspring s
Ġspri g
Ġpuff s
Ġoverb eat
Ġbr ine
Ġwra pped
ĠFran ks
Ġad vance
ĠShell s
Ġreheat ed
ĠMu enster
ĠHoll andaise
Ġdehyd rated
ĠSnickerd oodles
Ġda ily
Ġtort ellini
c er
c ially
d ew
e ks
f tened
f ait
g ent
g inal
o ver
r us
v als
y ed
Ġ els
Ġt ough
at zo
Ġf un
Ġf ondue
ĠC av
it ional
Ġe ar
Ġh o
ĠT ie
un peeled
Ġv eg
Ġv irgin
Ġth umb
ĠA head
ĠCo re
Ġst eep
ri pe
ir ds
Ġle eks
Ġgr anola
ur st
ĠO at
ĠK eebler
uc y
Ġpre par
Ġliqu or
iff on
Ġz iti
Ġcrisp ly
Ġhe art
Ġpat ience
Ġpaste urized
ĠPepper oni
fl our
Ġtri m
Ġunder standing
ĠTr iscuit
Ġster ile
mix ed
Ġfinish ed
pre fer
ĠPin to
Ġappetiz ers
ĠBor den
Fro m
ĠPenn ies
ĠMilliona ire
N ot
O range
b lack
e ver
e ct
l ers
o vers
r ins
Ġb als
Ġt ip
Ġp ast
Ġm ound
at ive
re cipe
al a
al o
al ent
ic ro
ĠS weetened
ĠB ou
ĠB its
ĠB ig
ĠP arsley
ĠT own
Ġv ary
to ck
ĠW acky
ast ed
ĠSt raw
Ġcon es
ĠH el
len der
Ġgra ms
Ġcar ob
uff alo
Ġli king
ĠButter cream
Ġbag els
Ġdire cts
pe pper
pe cially
Ġde ter
Qu ick
Ġpo ck
iv alent
stit os
ail able
Ġsprink ling
Ġinc rease
ĠPer rins
ĠLon don
ĠButterf ingers
St yle
Ġrab bit
Ġclos ely
ĠMel ba
ĠTart ar
ĠTon y
ugge ts
Ġels e
Ġprepar ing
' re
B utter
a is
e on
g resso
i or
s l
Ġ 75
Ġs ouffle
Ġo k
Ġb al
Ġb rew
Ġm ain
al e
Ġch olesterol
Ġa mon
ĠB ut
ĠB rie
ĠB ermuda
ĠP icante
ĠP ina
ĠP izzas
Ġl imes
ĠM aster
Ġv elveeta
Ġn umber
Ġcr isscross
ĠR ib
ĠD eath
ĠW or
ĠL ily
ĠL ady
Ġ8 0
Ġso ap
ey e
Ġra ise
ĠV eal
ĠPe psi
ĠY ams
Ġhoney dew
Ġsc r
ĠEgg nog
so ftened
ĠGr ated
ĠPet e
Ġsli vers
butter ed
ĠMan wich
Ġstrain er
pre pared
ĠSwans on
Ġsho estring
Ġsor ghum
Ġslee ve
Ġtail s
Ġoverla pping
ĠGener ously
Ġbrie fly
Ġbeca use
ĠStraw s
3 25
B ran
a e
s alt
Ġ 0
in ess
Ġp ip
Ġp aint
Ġf ield
le mon
ĠS ue
ĠS core
ĠB eet
ĠB urger
ĠP ush
ra Sweet
Ġh um
is que
all on
ri ght
mon ds
ĠCh iffon
Ġcr isco
ĠD ole
na p
st ir
Ġse am
ĠL ima
ĠWh o
ĠRe heat
ĠE v
iz es
ĠPe ople
ĠBrown s
ĠCheese burger
Ġtender ness
Ġtender loins
Ġthick er
Ġwa it
ĠFl or
ĠMar garine
Ġcomplet e
ĠNut meg
bon s
ph erd
ĠDe frost
Ġrack s
cho colate
ĠPr une
ĠAltern ately
ĠBas il
ĠTwink ie
ĠEx tra
ĠLas agne
Ġrot el
ĠShoe peg
Ġpull s
Ġris es
Ġcall ed
ĠLouis iana
ĠScramb le
Ġchar coal
ĠShe pherd
ĠPas o
Ġinter vals
Ġbals amic
Ġok ay
Ġpip ing
L ay
S ugar
W h
Y ields
a mb
a bo
b ack
p o
es h
Ġp ush
Ġf eed
Ġf rench
ĠC ashew
ĠS esame
ĠB ot
ĠP ic
ĠP lain
Ġpe t
Ġh om
ion eer
ĠT sp
un ior
Ġor zo
Ġst one
ien er
.) .
Ġwh at
ĠD ilute
col ored
st ad
ĠF amily
ĠSp eed
ber g
Ġse ven
ĠL ift
ĠL ingu
im an
Ġro w
ĠRe al
uff ed
Ġsl it
Ġex act
ĠN illa
Ġextra cts
Ġyou ng
Ġthicken ing
ĠPean uts
Ġhand fuls
ĠTo stitos
Ġform ing
ort ant
ĠCon tains
vo id
ĠDiv an
Ġgrill ed
Ġlim p
ĠCro quettes
ĠSm ash
ĠFrost y
Ġpr ick
ĠPro gresso
Ġshap ed
!! !
ĠSnick er
Ġloos en
Ġplum s
act ur
Ġman uf
pack ed
ĠQues o
ĠCola da
Bro ccoli
ĠGrandm other
Ġhus ks
ĠPorcup ine
Cho colate
ĠBou quet
Ġmanuf actur
, \
A pp
E yed
S h
_ _
a o
a ver
c us
c ress
c ini
g iveness
h ard
l ub
s et
s kin
t Bake
v ily
w ill
Ġs odium
Ġm achine
il ar
Ġ2 9
Ġa corn
Ġd ilute
ĠB ell
ĠB lender
ĠP ilaf
ĠT aste
Ġco ats
Ġj unior
mon ia
ip es
th in
ĠR ye
ĠW ait
Ġover mix
ĠF unnel
ole o
ĠSp ring
om et
Ġ6 5
ĠH alf
ĠG ri
Ġk inds
ĠJ oy
ĠK risp
ĠV inaigrette
Ġsalad s
ĠSa vory
Ġchill i
Ġpack aged
ac ao
ĠSh ortening
reez e
Ġtablespoon ful
Ġstand s
Ġfry ers
Ġqu ant
Ġqu ail
Ġam monia
ĠSeason ed
Ġconcent rated
ĠWash ington
Ġpop sicle
Ġequal s
ĠNe iman
Ġopen ing
te in
Ġfri endship
ĠOri ginal
ĠAn n
ĠLi ver
Ġwra ppers
Ġad just
Ġfall s
bb les
Ġes pecially
ĠBuck eyes
Ġscorch ing
Ġskew ers
Ġcurl s
wal nuts
ĠPers immon
ĠTriscuit s
Ġamon g
3 5
C ool
D uncan
d ried
m ed
m or
m ushroom
r one
v ies
w ood
y es
z el
Ġc ard
Ġc oll
Ġc acao
er ran
Ġb el
Ġb ra
Ġt asty
Ġt ahini
Ġf ancy
Ġch owder
ĠC or
le ave
le ase
Ġin vert
Ġto tal
ak en
Ġd redge
Ġe ight
ĠB ag
ĠP aint
ĠP ioneer
Ġpe ck
gg y
Ġh ull
ch eese
ĠCo ms
Ġfor giveness
ri f
Ġbro iled
Ġsa fe
ĠW el
ad ian
ĠF ancy
ĠF ondue
Ġr oux
Ġsp ace
ĠSp onge
ĠL unch
ap es
ĠH ome
ĠG ourmet
ress ed
Ġal ways
Ġk itchen
ĠO melet
ĠE sp
ĠE sc
ĠE ye
ĠJ ar
Ġla ughter
ĠTh row
ĠButter nut
est rone
Ġcolor s
Ġde pends
ĠFruit cake
ĠSl ightly
ĠSe lect
ĠLe ftover
Ġcres cents
Ġtw ist
Ġcur ly
ĠLo ve
Ġsm ok
Ġne ck
fl ake
Ġgrill ing
Ġhamburg ers
Ġgo ing
ĠBo b
ĠHe arty
ib ut
crumb led
Ġmost accioli
Ġbr ick
It alian
ĠPin wheels
Ġtr ansfer
ĠAd just
yal ty
ĠGeor g
Ġequ ivalent
Ġxxx x
Ġscramb led
Mar cus
Ġdoll op
Ġdeter gent
ĠFlor ida
ĠSpeed y
Ġexact ly
Ġmanufactur er
ĠComs tock
% )
B Q
C lub
l ien
n ic
n ier
u ra
u ces
Ġc ured
Ġb uds
Ġm ul
Ġf unnel
Ġw ok
Ġa void
ĠS ang
ĠS ubstitute
ĠB el
ĠB BQ
ra spberry
Ġh ope
is ts
ĠM ore
ĠT ry
ĠT reat
Ġco d
all ow
Ġst ar
ri a
Ġcr unch
Ġle ek
ĠW ind
ĠW estern
Ġju lien
ill ing
ĠF illets
con es
Ġse a
ĠL arge
ap er
Ġk aro
Ġpap ers
ĠSa ucy
Ġtender s
Ġlayer ed
ĠMo ist
ĠCan adian
ĠMar nier
ĠMe mber
Ġmu gs
av a
ĠWal nuts
ĠMold ed
Ġabsorb ent
Ġburn ing
Ġstack s
fry er
Ġtouch ed
Ġwon derful
Ġsw iss
Ġrectang les
eath er
Ġhollow ed
ĠEle phant
Ġcav ity
ĠBus y
po pped
App etiz
ĠSang ria
2 2
B e
F ly
d iced
g ed
k ins
m ing
p ie
p owder
Ġ rain
Ġb urgers
Ġt ry
Ġw ere
ĠC rispies
Ġto ts
it ion
ĠS liced
ĠP aul
Ġg l
Ġg lo
ĠM ound
ĠM ade
ĠT et
ĠT ips
ce an
Ġst ream
ok s
ĠCh ildren
Ġsa c
ĠD olly
ĠF a
ĠL en
ĠSt ri
ĠH um
im al
Ġbread sticks
Ġro ck
anan a
ĠIn c
ĠSa uteed
Ġq ts
lend a
Ġcro iss
Ġcenter s
ĠLo bster
Ġstal e
other ed
amp i
ĠEng land
ĠNut raSweet
aff y
ĠUn baked
ĠHa ppy
ĠPan cake
Ġmoder ately
Ġfollow ed
Ġscall ion
ĠShred ded
ĠCat fish
Ġharden ed
ĠBo x
round ed
St ir
ĠBon bons
ĠMed al
ĠAm ish
Ġsaff lower
prefer ably
Ġbal ance
ĠWor ld
omet imes
ĠGri ff
ĠGeorg ia
6 0
A l
C ream
O T
O n
S w
g na
i ppy
n on
p r
s qu
s uch
u ke
z e
Ġ .
Ġc ork
er ne
ar i
Ġp ouch
Ġm l
Ġm atzo
on ion
and el
Ġch ange
Ġw atch
Ġin de
sp ray
ro ck
Ġa v
it ely
ĠS ilk
ĠB ush
ĠB ark
ĠB urrit
ĠP esto
Ġg iblets
ra zz
Ġl ift
ĠM ars
ĠM ulled
Ġun ble
Ġcho ose
mb oo
ĠCh ar
ĠCh est
up s
ir rel
ĠR uth
ĠSp lenda
ĠL ush
ĠI ced
ash ell
Ġbeef y
Ġba mboo
Ġdrain ing
Ġ5 7
ĠG re
ĠE ach
ĠE aster
tab le
ĠK ielbasa
ĠN on
ĠN achos
ĠSh oo
ĠY our
ĠMo st
Ġpick led
og en
Ġhea vily
ĠFl ip
ĠFill ed
ĠQuick ie
Ġthrough out
ĠLo aves
ĠSc ampi
ĠSugar ed
ĠGreen s
Ġbreak ing
Ġblo ss
Ġflower pot
ĠBr ickle
ĠSteam ed
ĠSec ure
Ġfit ting
Ġpro tein
ĠMini ature
Ġpine apples
Ġancho vies
fin itely
Ġsaff ron
Ġjack ets
ĠGl or
Ġdisapp ears
Ġsim ilar
Ġdirect ly
Appetiz er
ĠTet razz
ĠGriff in
gna c
Ġunble ached
C ar
O ne
c ar
c ub
c alorie
c ipes
g ra
i ke
l ite
m ake
m ini
p ut
t ally
v i
w urst
Ġ ??
Ġc rowd
Ġs la
Ġs ink
Ġs izz
es ter
Ġp rop
re move
on ly
en ed
Ġch ew
ro ut
it rus
Ġe igh
ĠS weeten
ĠB ill
ĠB udd
ĠB ubble
ĠP art
ĠP ile
ĠP ort
ra ps
Ġh ouse
ĠT ap
ĠT akes
ĠT affy
un beaten
ch we
Ġun w
Ġmin estrone
illa s
ĠCh urch
ĠCh unky
Ġwh iz
Ġwh ere
ĠW aver
ĠL or
ven der
ars ely
arm alade
Ġk ahlua
ĠO ut
ĠJ ew
ĠK e
Ġpap aya
ĠCover ed
ĠTh ins
ĠY ork
ĠButter ed
pe cted
Ġspread able
Ġste mmed
ĠFruit y
Ġcereal s
ĠFl ank
Ġsm ashed
ĠMin ce
ĠMon ster
uns chwe
ai qu
ĠUn der
ner gy
ĠMuff in
ĠTw ice
lay er
Ġreach ed
Ġrun ny
ĠStick y
ĠSec rets
ĠHal ve
ĠWon derful
Ġdistrib ute
Ġpock et
Ġbel ow
ĠInc rease
Ġinde finitely
ĠMars ala
ogen ized
Ġbloss oms
ĠTetrazz ini
ĠWaver ly
unschwe iger
' ll
M e
\ .
b ot
h an
k eep
p ress
t S
w ick
Ġs y
Ġs ilver
Ġs izes
er os
Ġb isquick
Ġb und
Ġt on
Ġt ropical
Ġm ill
il le
on es
al ity
ou ff
Ġw inter
ic ally
Ġe ye
ĠS mall
ĠB loss
ĠP ri
ĠP res
Ġsalt s
ĠM am
ĠM armalade
Ġegg nog
Ġcream ing
Ġst re
Ġwater cress
Ġj o
ri en
Ġn achos
Ġsa ved
Ġsa vory
ĠR os
ĠF ant
ur ry
Ġsp onge
ĠL ad
ĠH or
Ġmelt ing
ĠRe place
ab ag
Ġpudding s
ĠO le
Ġpour ed
uc c
iss ors
Ġice berg
Ġginger bread
Ġlow est
ac c
Ġdes ign
Ġmo uth
Ġste el
ind a
Ġri m
ĠRo yal
Ġpo ints
Ġhard ens
Ġneed s
ĠGra m
Ġcauliflower ets
Ġcons ider
Ġshall ot
ĠMin cemeat
Ġkeep ing
ĠSugar less
ĠCon go
Ġsome thing
ĠUn wrap
Ġbroil ing
Ġback fin
Ġdel uxe
Ġvegg ie
Ġprefer ably
Ġprefer ence
Ġindivid ually
Ġgo es
ret ch
ĠCre mor
ĠLi ke
Ġvar ious
Ġsee ms
Ġsho ots
ĠWil ted
Ġrub ber
Ġbuck et
Ġins ides
Ġscr ubbed
Ġrow s
Ġgl ut
Ġ?? ?
ĠCremor a
2 6
E agle
M o
M ake
V ery
W ith
b ake
c innamon
d itional
g rated
g allon
l er
m is
s k
s weetened
Ġc our
Ġs wee
ar row
Ġb rittle
Ġp atter
Ġp uffy
Ġm acaroons
on de
Ġf ix
Ġf ile
Ġf ashioned
ĠC alor
ĠC itrus
sp rinkle
Ġ3 70
Ġd ots
Ġe yes
ĠB av
ĠB uffalo
Ġg ent
is ed
Ġl att
Ġth ink
ot ted
us el
ver ted
Ġn arrow
ĠCh uck
ĠCh erries
ien t
ĠR ain
ĠR abb
ĠW ipe
ĠW inter
col d
ĠF un
ĠF ud
ĠF ig
Ġre cipes
Ġr inds
Ġsp iced
Ġse ashell
ĠSt re
ĠI mper
sh aped
Ġbeat ers
ĠG all
ard i
ĠO wn
ĠE as
ĠE nd
ĠJ u
ĠJ if
ĠN ature
Ġlo yalty
ead y
ex tra
Ġfin d
Ġpick s
ĠBrand y
Ġsc issors
iv ing
Ġfold ing
Ġdri p
Ġper iod
uns wick
Ġcl usters
lu ded
ĠSm othered
ĠTw in
Ġscal d
ĠNe ctar
fresh ing
ĠCl ou
Ġinc luded
ĠBr unswick
ĠPer k
ĠDirt y
ĠBl onde
ĠLi quid
Ġcola da
Ġdiagon al
cream y
ĠKid ney
strawber ries
Ġimp ortant
ĠRose mary
Ġplan tains
abo bs
Ġhom ogenized
rif ice
Ġav ailable
Ġeigh ths
ĠTap ioca
acc ording
Ġpatter n
ĠCalor ies
Ġlatt ice
ĠImper ial
" )
. '
4 00
R o
R itz
b aking
e ach
f reeze
l in
l ins
p a
p our
s ts
s oup
t ine
u el
v an
Ġc a
in tz
Ġs ilk
Ġs ole
an ges
Ġb uy
Ġb ought
Ġt an
Ġt ra
Ġt ater
es law
Ġp arch
Ġm ot
il t
re al
al let
Ġw iener
gar ian
ĠC oll
le berry
le vel
pp iness
it ies
Ġd ec
ĠS cones
ĠB our
ĠB arb
ĠP ierce
ra ck
ra ft
Ġv ent
Ġun popped
Ġcan e
til led
Ġsh aking
Ġsh iny
Ġsa uces
ir es
od y
ĠF oil
ĠF estive
co mm
ĠL inda
Ġso ggy
ough y
Ġk ing
ĠO ther
ore n
ĠE very
ĠJ erk
Ġhal ibut
ĠCr ushed
Ġan imal
Ġout er
ec ially
arin a
ĠCorn meal
Ġcol eslaw
ud e
ĠFruit ed
Ġacc ent
sc rew
Ġuns liced
Ġqu iche
Ġ24 0
ĠCan apes
reat h
ĠAl monds
Ġmarin ara
pl us
Ġwork ing
ĠPop overs
reach er
Ġdecor ative
Ġbr ickle
ĠSnow balls
Ġsup er
Ġpro d
ci ous
Ġdis tilled
ĠTe mper
Ġhel ps
ĠSand ies
ĠPim iento
ĠEle g
ĠSaut erne
Ġlunch eon
ĠCarol ina
ĠFettuc cine
Ġbutton s
Ġjigg er
ĠJud y
Ġrequ ired
ĠHill shire
Ġbrew ed
Ġconsider ation
ĠBav arian
ĠRain bow
ĠRabb it
ĠClou d
( "
- -
A pple
A merican
B aked
C orn
C rock
E gg
L ime
a u
d es
f ill
f ashioned
j o
p ly
s mooth
t Co
in ate
Ġo b
Ġb ush
Ġp li
Ġm iracle
Ġm allet
ut abag
re ck
al aya
en ds
gar lic
Ġto stad
it as
Ġd ent
Ġd irt
ĠB oy
ĠP ace
ge t
Ġpe bbles
Ġh un
is bury
Ġco gnac
Ġfl ip
Ġfl ute
us cious
Ġmin us
Ġcan ister
ĠCo arsely
ell en
ĠCh olesterol
ĠR ounds
ĠR ellen
ĠD ad
ĠD uring
ĠW edges
Ġgr oup
pple ment
ad am
Ġcorn ers
ĠSp ry
umb ers
ĠL ope
Ġ6 4
ĠH and
ĠH old
op s
ĠG ingersnaps
ĠSal isbury
Ġal one
Ġal cohol
ĠK iss
ĠV ien
ĠTh ere
ĠRoll ed
Ġsqu irrel
ĠN uggets
ĠCheese cakes
Ġen rich
Ġthick ly
Ġcontain ing
Ġbag el
Ġcran apple
ris k
ĠCorn ing
Ġpick ed
Ġbas ic
Ġturn ed
Ġkn ives
ĠMin utes
Ġseal ing
ty pe
ĠUn cooked
oy u
wh at
Ġdrink s
ib by
mix ture
ĠOys ters
Ġpear l
Co conut
Ġtouch ing
ĠSec ret
Ġdust ed
ĠSeaf oam
ĠLog s
Ġsecure ly
Ġcontin ually
Ġman icotti
Ġcre ate
Cr ust
ĠBor ax
ĠCres cents
Ġpal ms
ĠHamburg ers
cohol ic
ĠNan a
Pe pper
ĠCav iar
Lay er
amb alaya
ĠLingu ine
ĠKrisp ie
Ġcoll ard
ĠEsp ecially
Ġrain bow
Ġcork screw
Ġchew y
Ġsy mp
ĠJerk y
adam ia
B rien
F rench
I nch
T ime
b lue
b acon
f ir
i pping
s in
t w
t arian
v a
w ash
w ork
w ens
~ )
Ġ ess
Ġs erves
Ġs imple
Ġo ur
Ġb ow
Ġb risk
Ġt ester
Ġp ol
Ġp ray
Ġp esto
Ġm ounds
il es
ĠC atsup
ĠC rowd
or ice
Ġd eeds
ter y
ĠS elf
ĠB ri
ĠB one
ĠB isque
Ġg as
Ġg ame
as ed
Ġsalt y
ĠM or
ĠM icro
Ġegg beat
Ġth ing
ch ool
Ġst or
der s
Ġbro ok
Ġbro ad
Ġsh oe
redien ts
Ġle g
ĠW et
ta ct
co ol
Ġadd s
om a
Ġse mis
ĠL uscious
ĠSt and
Ġcrack lings
im ent
ĠRe yn
ĠO cean
ege tarian
iz on
Ġsl otted
ĠV irgin
Ġ12 0
ĠSh ip
ĠY ear
pe ach
ett ing
ĠCorn flake
Ġdill s
ĠBe gin
Ġstand ing
ĠFor est
Ġtaco s
mi ah
Ġturn ip
Ġsc atter
Ġtw ists
iv a
Ġper ch
Ġper for
ĠJack s
ĠCrisp s
Ġel astic
Ġlength s
Ġgarnish ed
Ġskim med
ĠRais ins
ĠDri bble
ĠWater melon
Ġallow ing
ĠSeed s
ĠDill y
ere miah
ĠDon uts
ĠLa mb
Ġbrush ing
Ġdecor ation
ĠGran ola
ĠFin ally
ĠGraham s
Ġmon th
ĠChew ies
ĠPl an
ĠTender loin
ĠHun garian
Ġscrap ed
ĠBra ised
ĠSch illing
Ġimp ro
ĠJohn ny
Ġcit ric
Ġcit ron
ĠMac adamia
Ġskew er
Ġholiday s
ĠSam uel
Ġreplace ment
Ġveg ies
ĠHel en
ĠEv ans
andel ion
ĠGlor ified
gra ham
Ġsla b
Ġfile ts
ĠTemper ature
Ġpli able
Ġenrich ed
Ġsymp athy
Ġeggbeat er
Ġsemis weet
ĠReyn old
3 00
8 00
D on
E nergy
M ex
R e
b les
c ord
d eep
e en
f ire
h al
j ect
m ust
m ettes
n et
o pper
t or
w heat
w reck
Ġ Q
Ġ iced
Ġc amp
er o
er t
Ġ1 15
an ks
Ġb ird
Ġt reat
Ġt ied
Ġt aking
Ġt aken
Ġp ier
Ġp urch
Ġp izzas
Ġm g
Ġm ine
Ġf ace
Ġw il
Ġw ing
ĠC app
le ans
or iginal
sp read
Ġa verage
ĠS in
ĠS an
ĠS wee
ĠP ast
Ġg ly
Ġg if
as a
gg ie
gg est
Ġh ulled
Ġl ife
ĠM ust
ĠM ounds
Ġfl esh
Ġth ose
us k
us ed
Ġcan ner
red ded
ok a
Ġj oy
Ġsh oyu
Ġsa ut
ve ge
ir th
th ick
ĠR oka
ĠW in
ĠF ull
ĠF ool
am ate
Ġse ams
ĠL ibby
ĠSt ring
ĠSt rat
Ġcon e
ves t
sh ake
Ġcrumb les
im inate
ies t
ĠG en
ĠG umbo
Ġhot ter
bo ok
Ġk eros
ĠO wens
ĠJ e
ĠJ ean
ul t
ĠK ings
Ġex pected
uc er
Ġup on
ĠN OT
Ġsweet ness
Ġpre baked
ac ed
ĠY am
Ġmash ing
ĠBread ed
Ġsift ing
ĠSe ar
ĠGra s
Ġpin a
ĠSo me
Ġhor izon
ĠBeef y
ĠMar gar
ĠCon cord
Ġper fect
irt y
Ġpop s
Ġmarin ating
ĠOr leans
wh ich
ĠMarshmallow s
ĠScallop s
Ġend ive
Ġbit ters
ĠMa id
Ġscallop ed
Ġdiscard ing
ĠBl an
ĠPl us
ĠPar fait
act ing
ass ion
ĠSar a
Ġdeve in
ĠTe mp
Ġmango es
yl er
ĠWil der
ĠThin ly
ĠFast en
tP ut
iod ized
Ġpres weetened
Ġear ly
ĠRib bon
erran o
ĠWel ch
Ġjulien ne
Ġsac rifice
Ġprop er
ouff er
ĠLad le
ĠHor seradish
Ġglut amate
Ġswee ter
Ġdent e
ĠLope z
wash ing
ĠShip wreck
ĠReynold s
Ġgly cer
Ġgif ts
irth day
Ġkeros ene
G ar
H e
L o
P ean
S o
S oup
T om
g lass
h a
i ri
m ies
s on
t ub
v al
Ġc y
Ġc ling
Ġs na
Ġb urrit
Ġt arts
Ġp u
Ġp ierce
en nel
ing ly
ic a
ĠC lay
ĠC acci
Ġin tact
Ġsugar ed
ĠS us
ĠS ens
ĠS ex
ĠB a
ĠB irds
la st
ĠP ate
ĠP reacher
Ġg ives
Ġg etting
Ġh ush
Ġh are
is ters
ĠT er
ĠT en
ĠT urt
Ġco al
Ġco bbler
Ġfl u
ch uck
ĠA sp
Ġmin s
ĠCo co
to ps
Ġmar k
Ġsa ucer
ĠD an
ĠD uck
ĠD av
ĠW are
Ġbak es
na pp
na ments
et it
Ġcorn er
me mber
ers ion
ĠSp arkling
ber ally
ĠL ucky
ĠSt eep
ĠSt ouffer
ĠCook er
ĠH en
id s
sh opper
ach er
Ġdish washing
ĠG od
ink s
ĠStir ring
ll o
ab isco
Ġapp rox
ĠO R
ĠE ither
ĠJ eremiah
Ġex ch
ĠCut lets
ĠTh at
Ġit alian
ĠCho ice
Ġpl ump
ĠCar ne
ĠFl oren
ĠSo y
ĠLo os
Ġar ran
Ġpart icles
ys tery
Ġflat tened
ĠHa ppiness
ĠSm oke
Ġknead ing
Ġind ent
Ġsteam er
Ġfrost ed
ĠSouth w
Ġfri end
Ġgo ose
mar shmallow
Ġstring s
Ġrot ating
Ġwon ton
be an
be ans
Ġsnack s
ĠSund ae
ĠPowder ed
ĠHar vest
Ġbatch es
Ġcre pe
bb ie
Ġcontinu ing
ĠTra sh
tP our
Ġdrum sticks
Ġcom ino
ĠJan e
zel nuts
Ġbra unschweiger
cub ed
aiqu iri
ucc ino
sk im
Ġperfor ations
ĠCapp uccino
ĠStrat a
ĠGras shopper
ĠWilder ness
) (
B atter
C up
D el
F ail
I da
M y
O ld
P re
P eek
U n
Y um
c at
d own
e ck
f ound
g ing
g rease
g rape
m akes
s ifted
t re
u me
w arm
Ġc ould
in ted
Ġs ometimes
Ġt rout
Ġp or
Ġp are
Ġp hy
Ġm ush
Ġm ess
Ġm atch
Ġw eather
gar nish
ic ient
ic orice
ĠC ast
ĠC ant
pp os
el le
Ġsu ff
Ġa ble
ĠB ologna
ĠP ur
Ġg old
Ġg ingersnaps
ra ine
ĠM en
ĠM orning
ĠM ystery
ĠT iger
un greased
Ġth row
ot e
ch illed
Ġun if
ĠCo m
Ġfor ks
to sh
mb le
Ġn ap
ĠD ie
ĠW ar
ĠW est
ĠW yler
col or
st uffed
Ġgr and
Ġju iced
ad illas
igh ten
Ġr ather
Ġsp ear
am ount
ĠL ee
ĠL ong
ĠI d
Ġcon tains
Ġdish pan
ĠG arb
ĠRe ally
ĠO ur
ĠO sc
ĠO ptional
ĠIn g
ĠJ on
ĠK osher
Ġhal ve
ack er
li quid
Ġcover s
ĠN umbers
est yle
Ġfin al
Ġpla y
10 5
ĠSl it
Ġri pen
Ġcro wn
ng th
Ġhand led
Ġtemper a
Ġstiff en
ubb ing
ĠFl an
ĠSo ap
ĠMeat ball
ĠOre gano
ĠPepper mint
ang y
ĠSc atter
Ġme mb
Ġpar fait
Ġsome what
ĠAl most
ĠCrumb s
fl on
ĠCrust less
ĠStew ed
ĠWill i
Ġtri fle
Ġdel ic
ĠEn ough
ĠCrunch ies
ĠRom a
add y
Ġdecor ations
Ġdump ling
ĠTot al
Ġpull ed
Ġsec ret
ĠPl ant
ĠCre pes
ĠStart ing
Ġresemb le
ĠFran k
Ġvar i
ĠServ ing
ĠWhis key
bro ccoli
Ġfast en
Ġcryst all
ĠSu pplement
ord fish
ĠHeal th
Ġes c
Cook ies
ĠGeor ge
Ġequ ally
Ġjigg ers
ĠEd ible
ĠJud ges
.. .
ĠWho op
Ġquant ity
ĠEsc allop
ĠWind ows
ĠLen til
ĠStri ps
Sw iss
spray ed
ĠBurrit os
Ġstre ngth
Ġcour se
ĠBour sin
ĠEleg ant
Ġbush el
ĠRellen os
ĠVien na
Ġess ence
ĠVirgin ia
ĠFool proof
Ġhorizon tally
Pean ut
ĠTurt les
Ġflu id
napp s
ĠLoos en
Ġphy llo
Ġunif orm
ĠOsc ar
' ve
2 50
3 6
B ean
F ruit
H igh
P am
R ais
S erv
S te
a ins
b ab
b ama
d ash
e ither
f y
f inger
f ollow
g an
g iving
h and
s odium
t Mix
w d
Ġc as
Ġs chool
er al
Ġt angy
il s
al ad
Ġf rit
Ġf estive
Ġch erv
ĠC le
ĠC raw
Ġ2 7
Ġsu ey
Ġe ff
Ġe agle
ĠS ee
ĠS im
ĠP urple
ĠP riz
ine t
ra mi
Ġpe els
Ġh ang
Ġl icorice
ĠM arb
un covered
Ġth ings
us ually
ch unky
ĠA le
Ġmin ce
Ġmin ts
ĠCo ated
Ġst retch
to asted
Ġn og
Ġsh elf
Ġsh aping
Ġat tra
ĠCh ach
ĠCh urn
ĠD onna
ĠD ark
st ead
st ess
Ġgr ater
Ġre freshing
um my
Ġr utabag
Ġr ubbing
Ġsp lash
om ino
Ġy ears
ser ving
ĠL ick
ap id
sh redded
ĠRe qu
ab et
ĠSal ted
ĠSal ami
Ġapp ears
Ġcar ne
ĠJ en
ĠK abobs
Ġsl ight
Ġha zelnuts
os odium
Ġfilling s
Ġsqu irt
ĠN ight
ĠN eed
Ġus es
Ġpre paration
Ġchill ing
Ġthin ned
ĠCho co
fection ers
Ġte ars
ĠFro sts
ĠSoup er
ĠTo fu
Ġsc rew
Ġchest nut
ĠFl aky
Ġar ea
Ġsm ell
ĠMar ie
Ġper k
Ġne ver
ĠAl ways
Ġagain st
ĠGood ies
Ġtow ard
ĠPeach y
wh ipped
Ġdi abetic
for d
Ġel iminate
ĠDorit o
Ġgrain y
ah o
ĠPop s
ĠDill ed
Pot ato
Ġfri ends
Ġits elf
Ġsolid s
Ġmon osodium
St rawber
Ġwor ds
Ġshort bread
ĠVegg ies
Ġlin er
ĠBac ardi
Ġomit ted
Ġomit ting
Ġrib bon
Ġtr ans
ĠBra z
ĠEar ly
ĠSch napps
In tosh
Ġcav iar
ĠCarol yn
Ġ26 0
ĠAla bama
over night
Ġhum or
ĠBot tle
ĠBot tom
ĠPic nic
ĠBel ieve
Ġglo ves
pr int
vi oli
ĠBudd ig
ĠPart ially
Ġunw rapped
ĠLor raine
Ġjo int
ĠStre usel
fir m
Ġbrisk ly
Ġpray er
peach es
Ġpier ced
Ġpurch ased
vege table
ĠBlan ket
ĠAsp ic
marshmallow s
ppos ite
acker el
Ġmemb ran
ĠWilli ams
Ġcherv il
ĠPriz e
ĠChach ere
1 00
5 5
C ake
C andy
D iet
G ran
H ot
J iffy
P ec
R ise
R oll
S a
V elveeta
W e
a mon
b ut
b ite
b est
d ark
i ut
l t
l uc
l uck
l ong
m ashed
n es
p int
r ates
t Stir
w ie
Ġ ut
Ġs core
Ġo pposite
Ġt end
Ġp roof
Ġm a
Ġm icro
on a
on cini
en ded
Ġf eel
ĠC oney
or p
Ġsu et
Ġ3 20
ĠS ally
ĠB u
ĠB ak
ĠP it
ĠP os
ĠP one
Ġg h
ol f
Ġh er
Ġh ol
ĠM unch
ĠT oll
ĠT ahini
Ġv egetarian
Ġco con
Ġcheese cake
ot t
ch i
ch es
ĠA w
ce ed
Ġmin eral
Ġst eady
ver a
ato re
Ġsh ots
ie v
ĠCh ron
ĠCh utney
oup on
ĠR apid
ĠD rum
ĠD addy
ĠW eek
col ates
st e
ush aw
ad o
ta ur
ĠF la
ĠF ire
Ġre comm
co mp
um qu
Ġr ange
ber t
am els
ĠSt ella
Ġcon verted
ĠWh irl
ĠH olly
Ġcrack lins
sh ould
if ter
Ġmay be
im um
ĠG u
bo ard
ough ts
Ġheat proof
ab el
ore an
erv ed
af ter
ĠN ice
ĠN abisco
Ġyellow s
ian o
ĠPre cook
ag o
ĠSh erry
Ġpla ster
Ġdo ves
aul ts
sc iut
Ġte mp
roxim ate
Ġcrab s
ke ts
Ġbut cher
uck er
ĠDo es
ĠLo in
Ġsto pping
ang o
Ġdro pping
Ġme thod
ines ap
ph abet
Ġsubstit utes
ĠMe thod
ah um
ĠTw ist
Ġtri ple
Ġche ap
cr unchy
Ġscoop ed
Ġscal ding
ĠDill s
Ġsteam ing
ĠCa vender
ĠSpr itz
ĠPro sciut
Ġdoub les
ĠBl anch
Ġbl intz
Ġfit ted
ĠLi qu
ĠHo stess
ĠBon nie
ĠBon net
ĠComp let
ĠComp ote
ĠTortilla s
Ġmang os
ĠPen ny
Ġcryst al
ĠTe flon
ĠRot ate
ĠSch ool
sic les
Ġstraw s
ĠQues adillas
Ġpal m
uy ere
Ġwe ight
Ġdistrib uted
Ġdisapp ear
Not e
pie ce
ĠHum m
Ġcroiss ant
squ eeze
ĠChar l
ĠChest nuts
ĠJew ish
ĠUnder wood
press ion
Ġparch ment
Ġwil ted
Gar lic
Tom ato
ĠCacci atore
ĠFloren tine
grape fruit
tre m
Ġsuff icient
ĠCom fort
Ġesc ape
ĠEscallop ed
Ġattra ctive
Ġtrans luc
ĠBraz il
Pec an
Ġcocon uts
ĠChron icles
ĠProsciut to
Ġtransluc ent
" (
3 3
6 4
B eef
B anana
C auliflower
C amp
D rop
G reen
K raft
O ptional
a z
b ran
b urgers
b anana
d og
f a
f old
g ran
i as
l is
m in
p th
r uc
s i
s ka
s alted
t B
t ip
u ct
v ille
Ġ =
Ġ ato
Ġc atch
ar garine
Ġb u
Ġt ines
Ġp ic
Ġp enne
Ġm il
Ġf ennel
Ġf aults
Ġch urch
ĠC arb
ĠC enter
ro ts
Ġsu nd
it an
it ter
ix ie
ĠS ad
ĠS op
ĠS uc
ĠS ide
ĠS atur
ĠB re
ĠB urn
ol bas
is ette
ĠM ark
ĠM olly
Ġv inaigrette
Ġco bs
Ġflour s
ĠA g
Ġcan es
ĠCo kes
ell y
to re
ri p
Ġpepper oncini
Ġn orm
Ġsh anks
ĠCh i
ĠCh unk
Ġwh o
ĠD O
ĠD omino
ĠW raps
Ġpowder s
con stit
co ated
Ġr oughy
Ġy ear
ĠL and
ĠL akes
ĠSt ar
ĠI ts
ĠH as
ĠH om
ĠH ens
ĠH urry
if y
Ġso aking
ab in
ĠE venly
ĠJ ambalaya
ĠK ay
Ġrem ains
Ġli berally
ĠV an
ĠV ic
ĠV iva
ĠPe ter
Ġrefriger ation
Ġclo ver
ks giving
Ġup right
ĠN ahum
ĠChill ed
Ġen han
Ġpre ced
Ġother wise
ĠSh ir
ĠItalian o
Ġtab asco
se mi
ful ness
og i
vapor ated
Ġpinch es
mi um
uck le
ĠSqu irt
ĠFl ounder
Ġjelly roll
ĠOn ly
Ġsm ile
Ġcomp any
ĠGr uyere
ĠZ iti
ĠCon fectioners
Ġmel ons
uns alted
Ġpar boiled
ĠDump ling
Ġherb ed
ĠDor oth
ma vera
Ġtin ted
ĠToast ies
Ġ36 0
ĠHe ap
ib let
ĠRub y
ĠMan icotti
ĠMc Butter
ĠMc Intosh
Ġwra pper
Ġpro ced
boil ing
Ġwor th
ĠGo es
Ġsection ed
Ġmicrow aved
yl van
Ġstay s
ĠScramb led
ĠFettuc ini
ĠPorcup ines
ĠThan ksgiving
Ġdrum mettes
Ġgu ests
ĠNest ea
Ġho ag
Ġpast rami
sl ightly
Ġ29 0
Ġquant ities
Ġcard amon
ĠCor don
ĠGre y
ĠBloss oms
ĠPri mavera
ĠFant astic
ĠEas iest
Ġperiod ically
Pepper idge
Ġstor age
Ġcy cle
Ġsna pper
ĠSus an
Ġgoose berries
ĠIng redients
ĠWhoop ie
Rais in
ĠCraw fish
ĠRequ est
wie back
taur ant
Camp bell
Ġato p
olbas si
Ġpreced ing
. ;
; \
J ack
K ay
P ut
R ed
S erve
Y ield
a id
b urg
f etti
f alf
h el
h old
o ot
o ff
p ound
s ylvan
t es
u es
z etti
Ġ read
Ġ __
Ġc asser
Ġs at
Ġs and
Ġs ake
Ġs ifter
an a
Ġb lu
Ġb isque
Ġt ree
Ġp ig
Ġp lease
Ġm ight
Ġm ackerel
at ures
re friger
al so
al oupe
Ġf ound
Ġf eet
Ġf ruc
ĠC abin
sp berries
sp aper
Ġto aster
Ġa b
Ġa j
Ġd ressed
Ġd andelion
Ġe ver
ĠS ol
ĠS na
ĠS ize
ĠS izz
ĠS irloin
ĠB irthday
ĠP a
ĠP ier
ĠP oupon
Ġg reas
Ġg ift
Ġh u
Ġh it
Ġh uckle
ĠM acaroon
Ġv ol
Ġv ersion
Ġfl uff
Ġth ought
Ġth oughts
Ġmilk s
Ġun mold
Ġun used
Ġcho pping
to se
ver bs
ri ft
Ġn or
Ġn ame
Ġn uggets
Ġsh av
ĠCh ab
Ġwh irl
ĠD is
ĠD ian
ĠW ell
ĠW rapped
Ġju gs
Ġoil y
ĠF it
ĠF izz
et chup
Ġr ubbed
om an
om argarine
ser ts
Ġcon d
ĠWh ipping
if ic
im ents
ĠG er
ĠG lass
ood y
Ġhot dog
ars n
ĠRe fill
Ġal falf
ĠO ccasion
ĠE ven
ĠE ps
Ġole omargarine
uff les
ĠK r
ĠK athy
ĠBro th
Ġmeat y
Ġla d
Ġex trem
ĠV er
oth ing
ĠTh umb
Ġit em
Ġtender ized
tain ed
ran berry
Ġdough nuts
Ġdough nut
aw ba
Ġfin ally
Ġconfection er
Ġliqu ified
Ġde pth
ĠCar amels
cle ar
ĠRo b
Ġhand ling
Ġpo pping
ount y
ĠGra ss
sa me
ĠDo zen
Ġbring ing
Ġcrock pot
Ġhigh est
Ġdri bble
ĠPat ty
Ġbar rel
ĠApp roximately
Ġcl ings
ivid ual
Ġdrink ing
ĠDi pping
ĠMilk shake
ĠPo st
ath an
Ġind ic
ank y
ĠRom an
ĠPer colator
Ġac comp
ĠCat awba
Ġdecor ator
Ġdecor ating
end y
Ġmeas ured
ĠBl oody
Ġsuit able
Ġwra ps
ĠPar is
ĠDoll ies
bro ken
ĠTe quila
ĠRi ver
ĠFlavor ed
Ġ46 5
ĠClo ves
ĠSmok y
ĠSta y
Ġcre pes
Ġcombin ing
Ġcall s
ĠPenn sylvan
Ġsor row
Ġcheck ing
Ġplan tain
Ġgu ava
sl ice
Ġmul ti
powder ed
ĠFa ith
Ġcroiss ants
ĠMost accioli
car rots
mini ature
Ġbund le
Ġgent le
ĠColl ins
tw o
ĠPlan ters
ĠCast leberry
ĠCant aloupe
ĠId aho
Serv ings
Ste p
ĠCle ar
Ġeff ect
ĠSim ply
Gran ny
ĠPos ition
ĠRapid Rise
Ġblintz es
gran ulated
Ġpic nic
rip ture
Ġnorm al
constit uted
ĠShir ley
ĠDoroth y
Ġproced ure
Ġcasser oles
Ġfruc tose
Ġhuckle berries
Ġshav ings
ĠChab lis
Ġalfalf a
ĠEps om
Ġextrem ely
ĠPennsylvan ia
! ).
A n
B est
E x
G rand
G lazed
M ade
N oodle
P illsbury
R ec
S ave
V egetab
a wn
a ir
b atter
b acher
c ur
c rack
d ip
e le
f low
f aced
g rain
l b
r al
s our
t F
t at
t el
t ie
t ta
u ese
u gel
w eg
Ġ `
Ġc ou
Ġc rimp
Ġc law
Ġc ushaw
in ce
Ġs nap
er it
Ġo melet
Ġo val
Ġb irds
ed ic
Ġt re
Ġt am
Ġt im
es a
Ġp en
Ġm ic
at ic
il ity
al mond
en cy
en bacher
Ġf eta
Ġw id
le af
Ġ3 8
Ġa ge
Ġd uty
Ġd aiquiri
ĠS ilver
ĠP izz
ĠP ita
ĠP assion
ol ks
is in
is ing
Ġl uck
ĠM r
ĠM id
ĠM ain
ĠM aw
ĠM elon
ĠM ango
Ġ( #
ot o
us ing
ĠA ma
ĠA sse
Ġun thawed
Ġun seasoned
Ġcan not
Ġst udd
Ġst ops
Ġn ose
ien ies
ve y
ĠR ipe
ĠW reath
ĠW endy
Ġover ripe
Ġgr ating
ĠF an
ĠF ay
nd a
qu arts
Ġsp ots
Ġy ummy
ser ve
ĠL ace
ĠI I
ĠH ol
ĠH anky
Ġcrack s
op ened
ct arin
ĠG ive
ĠG ather
bo hyd
Ġwhite fish
len ess
ĠRe m
ĠRe fresh
Ġal phabet
Ġk iss
ore ver
ĠJ un
ĠJ us
ĠK at
ĠK orean
Ġserv ice
ĠCream s
ĠCream ettes
ĠV ern
ĠPe ars
Ġlet ting
ent ine
Ġgraham s
Ġsk y
Ġsk illets
ĠN a
ĠN ib
ĠN eeds
ges t
Ġset t
Ġpre v
Ġtender ize
ĠPre tty
par ately
heat ed
Ġdire ction
ĠCorn starch
se parate
ĠLay ers
Ġcolor ful
Ġz ip
Ġore o
ne ck
Ġ16 0
ĠGra pes
Ġqu ality
ĠTo o
ĠTo pped
ĠDel ite
Ġsc raps
iv ely
ig an
Ġany time
Ġpat ted
Ġhor s
ĠWith out
ĠRed enbacher
Ġchi ve
Ġconcent rates
ĠSc r
ĠSc ripture
ĠMay er
Ġne ctarin
ĠOr naments
wh en
ĠHa ddock
Ġcaramel ized
Ġdi sp
ĠCamp fire
ĠChe f
do bo
Ġfour th
Ġfil et
Ġwork able
ĠCro utons
ĠPo ck
ĠGrand pa
Ġtowel ing
Ch icken
Ġallow ed
Ġbul b
Ġfoam s
ĠBar ley
Th ese
ĠPro verbs
ĠFood s
Ġcurd le
Ġty pes
Ġdecor ated
ĠBas e
ĠRomano ff
ĠHe art
Ġprun e
ĠEx ch
ĠTort ellini
Ġnew spaper
Ġrese al
Ġsec rets
ĠNor th
St uffed
Ġdust ing
ĠEl mer
Ġliver wurst
ĠRich es
ĠRich ards
ug uese
Ġcirc ular
fin ely
ĠMary land
Ġcount ing
Ġ23 4
Ġ28 0
Ġdamp ened
uch en
Ġpal e
Ġslee ves
ĠSkin ny
ĠPig s
Ġcom ing
Ġscramb le
Ġdab s
ĠColor ado
ĠCav at
Ġhum an
Wh en
skin less
ĠEsc ort
ĠWind ow
ĠChest nut
Ġsizz ling
Ġhouse hold
ĠKe mp
Ġton gs
ĠGall iano
Ġprod uct
tCo ver
hal ves
ĠSan ta
Ġarran ged
ĠRoma ine
ĠPlant ation
ĠMarb le
Strawber ry
Ġrecomm ended
umqu ats
ĠHumm us
ĠSatur day
ĠVic tor
Ġhoag ie
Ġblu ing
Ġvol ume
ĠDian e
arsn ips
weg ian
ĠAma z
Ġstudd ed
Ġnectarin es
2 7
4 50
B isquick
B reak
C ol
D ay
D ump
K ids
L a
L ike
M ore
M iracle
O ri
P h
S to
T hey
W ill
W esson
b ies
c lo
e as
f ull
g ah
h erb
h ouse
i ole
m ers
m uff
o a
p urple
r ice
s ee
s ie
t ips
u et
v it
v ia
z er
Ġ arm
Ġ iodized
Ġc al
Ġc or
Ġc row
Ġc ase
in om
Ġs elt
an e
an ger
ar on
Ġo pa
Ġb arbecued
Ġb right
Ġb ody
Ġt int
Ġp ilaf
Ġm alt
Ġm asa
at ional
at wurst
il ee
ut ing
ut ure
al coholic
en ta
ou g
Ġf arm
Ġf eels
Ġch ang
ĠC ath
ĠC afe
or it
rea u
ro d
ro t
Ġa ch
it erran
ĠB er
ĠB ite
ĠB und
ĠB ubb
ĠB atch
ĠB uy
ĠB ird
ĠP arm
ĠP ower
Ġg olf
Ġpe g
Ġpe ace
gg ed
Ġh ad
Ġh eal
Ġh urry
ĠM ush
ĠM im
ĠM oon
ĠM ich
ĠM ild
ĠM achine
ĠM allow
ĠT ar
all ions
Ġfl an
ot ash
us ter
ĠA ut
ĠA id
ĠA dobo
Ġun pared
Ġun melted
Ġcho y
Ġmin imum
ell er
ell ed
ts ugar
Ġst ars
Ġst ain
Ġfor get
ok neck
Ġj el
Ġj im
Ġn ine
Ġn est
Ġsh amp
Ġsa ys
ck rich
ir in
Ġwh eel
ĠD apple
ĠD ab
ĠD one
ĠD ec
ĠD ifferent
ĠD ais
ĠW eed
ĠW anda
ĠW inesap
od les
ans as
st art
ill o
ta c
ĠF u
ĠF le
ĠF eed
Ġcorn s
me ar
Ġre p
Ġre lease
Ġre constituted
qu ant
qu arter
um n
igh ter
ĠSp ider
ĠSp ark
Ġcra y
ĠL yn
ĠL abel
ĠI i
ĠH ow
ĠH erman
im ate
mo s
mo uth
Ġro s
ĠRe member
ub ilee
Ġdry ing
ab ul
Ġk rispies
Ġk ool
Ġcut let
ĠO odles
ĠE r
ĠE ast
ain ts
erv ing
ĠJ ess
ĠJ ubilee
uff et
ĠK o
ĠK etchup
ĠK uchen
Ġex p
Ġjello s
ent y
ĠCut out
ĠMelt ed
Ġrais ed
Ġen amel
Ġpre mium
ac ing
Ġthick est
Ġwarm th
rop roof
ĠCho y
Ġfood s
Ġpeel ings
Ġcol by
ĠBe ck
Ġspoon ed
ĠSl ide
Ġcro quettes
Ġcro okneck
ĠSauce pan
ĠSe parately
ĠTo pper
ĠTurn ip
ĠFill s
Ġpat ting
ĠEgg less
Ġoccasion s
Ġpart ic
Ġsm ash
ĠMin ced
ĠMar ia
Ġcomp ressed
amp le
ĠZ ippy
gs icles
ĠMay o
Ġfold ed
ĠCon s
ĠCon fetti
ĠDream s
ĠDream y
ĠPick in
ĠCheez y
ĠCand ies
oy a
ĠDelight ful
ĠRa spberries
int reau
ĠCrab bies
ĠChe er
Ġcla y
ĠPan k
ĠFarm s
egg s
Ġfil ing
app a
ingers nap
ah i
Ġic y
ĠTur k
ĠSm ucker
Ġtri p
Ġsur round
Ġdel ights
Ġconsom m
av ailable
ĠPop sicles
ĠUs ually
ĠMom ma
flower ets
orb et
Ġinc orp
ĠLa ughter
Ġway s
arbecu es
ĠWork s
ĠWork ing
ib b
ĠNew man
ĠPol ly
Ġdevil s
ĠSnow ball
ĠBl ond
Ġfrankfur ter
atur ated
Ġbl ot
Ġdiet etic
ĠTender ize
ĠStro mb
ĠMed iterran
Ġperson al
ĠSun ny
ĠOli ves
ĠLast ly
ĠPen uch
Ġcrush ing
ĠPark er
ĠMag n
Ġhow ever
ĠInd ividual
ĠHar vey
ĠBra ise
ĠBuck le
ĠFettuc ine
23 4
23 6
Ġappear ance
Ġduck s
ĠWho ppers
Ġpet ite
Ġpet als
ĠLingu ini
ĠLunch eon
Al so
ze ch
ari ation
Ġmatzo h
bot tom
Ġbund les
ĠBloss om
Ġgent leness
ĠJu icy
Ġtan ger
Ġmot or
Ġmot ion
Ġtostad o
Ġhun gry
cool ed
Ġimpro ves
ĠQ ue
ĠJe ff
Ġglycer in
ĠDav is
Ġexch ange
ĠSouthw estern
ĠPur itan
ĠDie ter
ĠJon athan
Ġdelic ately
Ġvari ation
wd ust
Ġmembran e
ĠComplet ely
Ġsund ae
itter lings
ĠHom estyle
Ġenhan cer
ĠSol o
Ġaccomp an
Rec ipe
erit age
Ġmic roproof
Ġprev ious
ĠAmaz ing
Break fast
muff in
inom oto
Ġselt zer
Ġopa que
ĠBund les
ĠParm ig
Ġshamp oo
ĠDais y
abul ous
Ġincorp or
ĠMediterran ean
7 50
A T
B read
C ut
C rack
D ip
D ish
D ough
E R
E ver
F lavor
F illed
H ershey
I ts
M c
M ustard
M ores
N on
P armesan
T op
b and
b rush
c chi
d el
d ivided
e in
f se
g ood
g ener
h ea
h omemade
i ber
j alapeno
l ightly
o uts
p ink
p aper
r ite
s ift
s alad
t Cook
t Cool
u an
u erb
v is
w or
w atch
Ġc u
Ġc er
Ġc ure
Ġc abb
Ġc reat
Ġc ents
in to
in ding
Ġs errano
an zo
Ġb ok
Ġb ri
Ġb uffalo
Ġt il
Ġp yrex
Ġp he
Ġp arsnips
Ġm orn
Ġm ellow
Ġm ex
Ġm alted
at kins
re ct
al ley
al ready
Ġf ar
Ġf uture
Ġw reath
ic us
ic ama
sp ace
el ve
Ġ2 32
Ġ2 30
ro ger
Ġ3 10
Ġa u
Ġa ct
it am
it ters
Ġd isc
ĠS ny
ĠS nap
ĠS errano
ĠB is
ĠB ern
ĠB ible
ĠB asting
ol ph
ra b
ra ight
as ts
ĠM us
ĠM atzo
dd ess
Ġbutter finger
ĠT ip
ĠT ray
ĠT erry
ĠT ass
un ken
Ġv ac
Ġth irty
ĠA ust
ĠA corn
Ġun opened
ĠCo intreau
ell mann
Ġst om
Ġst ated
Ġst uck
to bell
Ġj al
ri k
Ġpepper ed
Ġsh edd
Ġsh owers
ĠCh ick
ĠCh arm
ĠR h
ĠR ight
ĠR ise
ĠD iced
ĠD ates
ĠW ood
od el
od as
ad ise
ĠF ra
ĠF eeds
ĠF eather
ĠF abulous
co on
Ġfro th
Ġr uns
ĠSp routs
om it
om atic
Ġpot ted
am om
am arina
Ġy am
umb le
ĠL y
ĠL ill
ĠL ess
ĠSt ores
Ġsour ce
ĠI re
Ġcon f
ĠCook book
ĠH uck
ĠH ope
sh ortening
ĠG h
ĠG low
len e
ars e
Ġro pe
ĠRe gular
ĠRe fried
ab les
Ġbox ed
Ġk ale
Ġgra ss
ĠO h
ĠO p
ĠO mit
ĠE ckrich
Ġis n
ĠIn n
ĠJ igg
ĠJ em
ul k
Ġjell s
ĠK ar
ĠK ix
ĠK ir
ĠK ern
ĠK ugel
lo ck
Ġsl im
Ġla ugh
Ġli ving
ĠV ick
ĠCr usts
mp le
Ġshred s
Ġ12 5
ĠTh ick
ĠTh yme
ĠTh irty
Ġan g
li ed
ĠBrown ed
ĠN ine
ĠN ell
ĠN ancy
ĠJell ied
Ġout do
Ġset tle
ĠSh er
ĠPot luck
issol ved
ĠU lt
Ġmo ve
Ġfin es
ĠCorn y
Ġliqu e
Ġpla ces
Ġdo ve
Ġste ps
Ġgelat ins
Ġpl ant
Ġhead space
Ġevapor ates
Ġyour self
sc ous
ĠBrand ied
ĠTo dd
Ġsc otch
Ġsc rub
ĠFry ing
itz el
Ġsepar ates
Ġlast ly
ĠLo oks
ĠMex i
Ġar oma
ĠMar vel
ĠMar aschino
ĠMar zetti
ang les
ĠSc ott
ort ment
ĠCon tin
ĠCon nie
Ġdri zz
ĠPick ing
ĠMarin ara
ĠCand i
Ġpound ed
ĠPat ch
Ġherb es
Ġherb al
Ġdi jon
lit er
ĠAll spice
ĠDiv ine
ail ey
Ġsur p
no cchi
ĠPack age
Ġsun shine
Ġfoam ing
ĠRuss et
oe uvres
Ġass ortment
Ġhold ing
Ġac ini
ĠJo an
ĠGrape fruit
ielbas i
the art
Ġinstru cted
Ġfinish ing
Ġsqueez ing
ĠAn isette
roll ed
ĠCur d
ĠCub es
Ġsw ordfish
Ġwra pping
ĠFran co
ĠFran gel
Ġbath tub
Ġfig ure
Ġdia mond
ĠGo ddess
ĠSar ah
ron t
Ġrich er
igg er
Ġna vel
Ġthread s
Ġman ner
Ġtr ust
ĠFri end
Ġmed ley
ĠSand y
ĠCap tain
Ġpersimmon s
Ġcall ing
yn es
ĠJohn son
ĠMel ta
ĠForg iveness
olut ely
ĠAm ount
Ġcit rus
Bro wn
ĠWon der
Ġhus k
Ġcounter top
wal nut
Ġinsert ing
erk ins
Pe ach
rat en
flour ed
Ġpock ets
ĠMaster piece
Ġcard amom
ĠWel sh
ĠLeftover s
Ġsmok ies
Ġjulien ned
ĠBurrit o
Car amel
vi ously
tS erve
ĠFant asy
ĠOle o
Mo zzarella
ĠFud gsicles
Ro asted
Ġvent ed
tCo mbine
Ġsquirrel s
ĠSwee theart
usk i
Ġburrit o
Ġpu ppies
Ġfriend ly
Del icious
ĠMen the
Ġnap kins
Ġripen ed
Ġcrown s
bab y
Ġfrit ters
inet ti
Sa usage
Ġma garine
Ġhol ders
ĠLiqu eur
Ġmil der
ĠSuc cess
ĠBre nda
ĠBurn t
Ġaj inomoto
Ġgreas ing
ĠGer ber
Ġlad le
ĠRob in
Ġtam ari
ĠAsse mble
ĠRefresh er
ĠJun ket
ĠRichards on
vit icus
Ġstain less
ĠLyn n
Ġpartic ular
ĠStromb oli
ĠPenuch e
Ġtanger ine
uerb raten
wor th
Ġcabb ages
Ġphe as
Ġmorn ings
ĠTass ies
Ġstom ach
Ġshedd ed
ĠJem ima
ĠUlt imate
* *
. *
3 1
A p
A r
A nd
B lue
C abbage
C ranberry
D ate
D rain
E l
F l
F resh
H our
H ellmann
K aro
L et
L inks
M on
O ut
O ro
P an
R hubarb
R eady
S G
W rapped
b ber
b owl
b oth
b anese
b ably
b ird
c auliflower
c andy
d one
d iscard
e qual
e vaporated
f ield
g u
g ro
g ly
g olden
g lish
i ans
k i
m at
m ie
m other
m etal
m ints
o ven
p udding
p ork
r ind
s ch
s low
t ou
t to
t art
t ied
t ist
t Sp
u um
v in
v ar
v ie
w ine
w eed
w est
y pe
z os
in os
in ation
in cl
Ġs ort
an ie
ar ingly
Ġb ud
Ġb igger
ed ral
Ġp h
Ġp ail
Ġp ass
Ġm us
Ġm acaroon
Ġm ass
at el
il et
il ies
ut ti
on ara
al i
al k
en ing
en ee
ou la
Ġf ur
Ġf orever
Ġch eez
Ġch itterlings
Ġw ind
Ġw ipe
ĠC ind
Ġin ject
pp e
pp in
pp ey
Ġ2 70
Ġ3 3
Ġ3 4
Ġa sp
Ġa id
Ġd ra
Ġd ream
Ġd ye
ĠS or
ĠS ort
ĠS yl
ĠB ol
ĠB ap
ĠB isc
ĠB oo
ĠB rew
ĠB arbecues
ĠB ailey
ĠP i
ĠP la
ĠP udd
ĠP ul
ĠP oultry
Ġg ourmet
Ġg ingersnap
Ġpe pe
Ġh og
Ġh ere
is ins
is ible
Ġl ighten
ĠM t
ĠM icrow
ĠM ile
ĠM SG
ĠT B
ĠT ree
un ks
Ġv isible
Ġfl uted
ot a
ch atel
Ġun toasted
Ġcho colates
ĠCo d
ell s
Ġst op
Ġwater y
til age
Ġj icama
ĠAdd itional
Ġsh ow
Ġsh ank
ĠCh ic
ĠCh ive
Ġmar ket
Ġcr uet
th at
th en
th ey
ĠR are
ĠR ig
ĠR oux
ĠR oughy
ĠR anger
ĠD en
ĠD ain
ĠD aff
ĠD unk
ĠW ing
ĠW orch
ĠW iener
ĠW atkins
na ment
st ew
Ġgr inding
ad illo
Ġoil s
Ġcook book
ĠF e
Ġbe a
me asure
Ġre g
con cent
co arse
ur key
Ġr itz
Ġsp aringly
ĠSp ec
ĠSp ud
ĠSp ear
om en
om me
Ġy et
ĠL u
ĠL im
ĠL uc
ĠSt ate
ĠSt retch
Ġcon ven
sh akes
op er
ach el
Ġbread ed
ĠG allon
ĠG oya
ant ime
udd y
Ġal fredo
Ġapp etit
ĠO o
ĠO ats
Ġcar nation
Ġcar tilage
ĠE tou
ĠIn side
ĠK al
ĠK ind
ĠK roger
Ġsl ip
Ġra violi
Ġ13 0
ĠV odka
ĠV ermicelli
Ġsof ter
Ġha ving
ĠTh ing
ĠSa wdust
ĠSa uerbraten
ĠN ame
Ġen glish
ĠPre p
Ġsmooth ly
ĠSh aker
Ġdes serts
Ġ7 2
Ġcran k
ec ts
ĠU gly
Ġmo ose
ris es
Ġdo ing
Ġste p
low n
Ġsimmer ed
ĠMo uth
ĠBe ar
Ġstand ard
Ġfat back
Ġfoil ed
ĠSl im
ĠCar ter
Ġri d
izz ards
ĠRo me
ĠRo om
ĠRo bert
udge t
ĠSe ts
Ġcand le
Ġpo inted
Ġmini atures
ĠLe viticus
ĠTurn overs
ĠAr k
Ġpin wheels
ĠSo ck
Ġhe arty
Ġhe aped
oss um
Ġkn ow
so me
so ften
pot atoes
Ġdark er
rit ious
ĠCon t
ici er
ĠTater s
uns et
pick ling
Ġtow ards
fl at
Ġpreheat ing
ĠOr zo
ĠOr ville
wh eel
ĠCrust y
pl um
Ġ18 0
Ġpinto s
Ġdi pper
ĠApp etit
Ġgarnish ing
out h
ĠFarm er
Ġwhich ever
ĠCro iss
ĠChris t
de pends
Ġkind ly
ĠTw ister
ĠTw ists
Ġdel ight
ĠSk ins
ĠSk yl
ĠDri p
Ġdon uts
Ġlas ts
ĠPuff ed
ĠNe uf
ĠWal la
ĠBar ely
Ġwhisk ing
mm un
mm mm
ist ant
Ġburn s
ĠTr uffles
Ġinc reased
ĠLa ura
add ed
ĠBen edic
!! )
Ġpower ed
ĠPol enta
ĠPol ynes
Ġbr ussels
ĠSnow d
ĠCla ms
ĠAn ise
ĠNor wegian
ĠIsland s
ĠMc Kay
ĠCub an
ĠFran c
ĠPar adise
Ġpro ceed
Ġdis jo
uds on
Ġfinger tips
Ġbla des
Ġsee m
ĠSu ggest
ĠLou ise
ĠPap a
ĠWaff le
Ġ23 6
ĠWish bone
ĠGou da
Ġes car
Ġdamp en
ĠBuck eye
Ġlot ion
ĠScramb lers
ĠHal ves
Fro zen
brown ed
Sp inach
ĠEd na
ĠMilliona ires
Ġoverla p
Mix ture
Ġdoll ar
ĠDr unken
part ially
Ġho isin
ĠExtra ct
Ġrotel le
ĠKrisp y
Ġhull s
ĠEsp resso
ming bird
ĠMade ira
ĠStri p
ĠHum mingbird
ze bel
Ġunw ashed
ĠMam aw
ĠFud gy
Ġtra ditional
ĠColl ard
des ired
Ġgroup s
blue berry
ĠMor gan
Ġimpro ve
Mex ican
ĠSwee ts
ĠWin ning
ĠGen oa
ĠJe zebel
ĠMargar et
Ġglycer ine
He art
Ġburrit os
ĠHen ry
Ġcrystall ized
Ġcas ing
Ġrutabag as
Ġdiabetic s
We ight
Ġut ens
Ġgh erkins
Ġher ring
ĠMunch ies
fa its
ĠCarb onara
ĠSop a
oot ball
Ġsat is
ĠPier ogi
Ġhu ge
Ġthought fulness
Ġhotdog s
ĠThumb print
Ġindic ated
Ex cellent
ĠFay e
bohyd rate
Ġdisp os
ĠPock ets
Ġreseal able
ĠVictor ia
Sto ve
ĠCath edral
orit os
ĠMich igan
ĠAut umn
Ġjim mies
tac ular
quarter ed
ĠBeck y
Ġtrip led
ĠQue en
Ġaccompan iment
Crack er
gener ous
hea vy
tobell o
ĠHuck leberry
Ġoutdo or
ĠMarvel ous
ĠFrangel ico
Ap ricot
Mon terey
mat i
ĠCind y
ĠBap tist
ĠRig atoni
ĠSpec tacular
ĠLim as
ĠSkyl ine
ĠNeuf chatel
ĠPolynes ian
Ġdisjo inted
Ġescar ole
A ng
A head
B etter
C risp
D es
D utch
D ouble
E n
E ng
G erman
H a
H oney
H eritage
M M
M rs
N or
P et
R ising
T astes
\ )
b by
b ody
b ulk
c ie
c ider
d ill
d rop
d iet
d issolved
e z
e que
h er
h aw
i pper
i os
i ago
j ar
j ita
j ects
k er
k oe
l ude
l uski
m en
n ies
n eath
n itzel
p ine
