#version: 0.2
Ġ <
N E
X T
NE XT
I N
E N
R E
Ġ c
S T
IN G
D I
T S
EN TS
RE DI
ING REDI
INGREDI ENTS
i n
NE R
T I
Ġ s
e r
Ġ 1
O N
U C
R UC
IN ST
TI ON
RUC TION
INST RUCTION
INSTRUCTION S
a n
Ġ t
Ġ o
Ġ b
a r
e d
e s
A R
EN D
ST AR
STAR T
Ġ p
Ġ m
a t
i l
r e
u t
o n
e n
an d
a l
o u
Ġ and
Ġ f
Ġc h
in g
Ġ w
i c
g ar
Ġt o
s p
p p
Ġ in
l e
L E
P E
TI T
C I
RE CI
TIT LE
RECI PE
r o
Ġ C
o r
a k
Ġ 2
e l
a s
ou r
a m
Ġs u
i t
Ġo n
Ġ a
Ġ 3
Ġ e
Ġsu gar
Ġ d
Ġ S
Ġs al
Ġ g
Ġt sp
Ġ l
t er
Ġsal t
Ġp e
h e
o o
i x
i on
Ġ B
a c
Ġ P
Ġf l
g g
d d
in e
u n
g e
Ġe gg
i s
o w
Ġ T
Ġ (
ut ter
es e
Ġb utter
Ġon ion
ic k
re am
ak e
Ġfl our
Ġ un
Ġch e
Ġ v
Ġche ese
il l
o l
Ġo f
Ġ A
Ġm in
pp er
Ġ h
it h
u s
o t
Ġch o
Ġ M
Ġpe pper
Ġb e
Ġm ix
Ġc ream
Ġw ith
Ġo r
r a
v er
Ġmin ut
il k
t il
Ġun til
Ġminut es
al l
Ġs t
u c
at er
o m
el l
a d
oo k
Ġf or
Ġw ater
c h
Ġegg s
Ġm ilk
ĠA dd
pp ed
at o
i r
ic e
d er
b sp
Ġb ro
ĠT bsp
Ġc r
t o
ick en
t s
u m
Ġc an
Ġt he
r i
Ġ n
0 0
Ġs a
Ġ 4
r ed
Ġcho pped
uc e
l ic
Ġb ak
v e
ill a
Ġo z
Ġbak ing
an illa
e t
Ġv anilla
Ġs h
g h
w n
Ġch icken
Ġs o
Ġt h
Ġ j
Ġin to
Ġg re
Ġ at
Ġg r
u p
ow der
Ġp owder
Ġsa uce
Ġm ar
Ġ le
. )
t h
r y
Ġo ver
u re
ĠB ake
l y
Ġw h
Ġ R
ou p
re ad
as t
Ġc ook
Ġbro wn
n d
Ġo il
e at
i e
ato es
a y
ĠC h
Ġs oup
at e
Ġ r
l es
Ġp an
ut s
t ure
Ġto m
us h
ac k
gar ine
Ġmix ture
ĠM ix
Ġmar garine
Ġc o
c ol
ou nd
Ġ D
5 0
a b
u r
m on
an s
or n
Ġs p
Ġ W
i en
Ġgre en
Ġ re
Ġl b
d a
in ch
s t
Ġl ar
i p
red ien
i gh
ing redien
Ġ ingredien
Ġingredien ts
Ġso da
e f
i m
o il
Ġlar ge
ĠS p
Ġ gar
Ġw ell
Ġ3 50
Ġj u
Ġa dd
Ġs e
q u
Ġju ice
he at
Ġgar lic
er y
ra in
Ġc orn
i d
Ġf ro
ĠS t
v es
is h
Ġ I
Ġs m
Ġgr ound
k g
Ġp kg
um b
igh t
Ġs lic
Ġ F
in n
ro om
r es
t en
v en
el ery
Ġp ot
Ġc elery
ĠP our
o le
Ġ all
us t
th er
om b
at ed
Ġp ie
t ed
Ġ y
oo l
Ġonion s
am on
ush room
Ġc up
omb ine
inn amon
i f
Ġn uts
Ġ 6
Ġbe ef
Ġc innamon
Ġm ushroom
Ġle mon
Ġh our
as s
pp le
col ate
Ġb oil
ĠC ook
ac e
c es
a in
a p
ĠSt ir
Ġ 8
Ġcr umb
ed i
Ġto p
Ġ L
l ace
er s
ol d
Ġst ir
ar s
a ge
Ġo ven
Ġbe at
Ġb l
Ġwh it
Ġs our
Ġsm all
Ġ 5
Ġ heat
ge ther
ow l
edi um
Ġto gether
g er
m e
in k
ac h
Ġb owl
Ġb read
Ġpot atoes
Ġm edium
o ve
Ġ x
Ġcho colate
o p
Ġco c
Ġ H
r ink
Ġtom ato
ou gh
ar m
Ġm el
Ġd rain
ĠC ombine
Ġtom atoes
Ġ1 0
o on
Ġre m
Ġc on
as h
o ut
rink le
ĠI n
Ġ G
ass er
a pple
asser ole
ine apple
Ġcrumb s
as ed
oo d
ar d
f f
Ġc ake
Ġc ar
Ġd ish
r ing
Ġ 9
ine gar
b er
ak es
Ġpe c
Ġslic ed
ed d
Ġv inegar
Ġr ice
edd ar
Ġd ry
Ġs er
Ġp ineapple
o ver
Ġbe ans
e m
z en
i es
ge t
Ġsh or
d ed
Ġh ot
Ġ ro
e get
is e
Ġgr ated
eget ab
el y
ten ing
i re
ĠP lace
Ġshor tening
ĠCh eddar
in s
a g
Ġm eat
ast e
Ġa b
Ġpec ans
l l
s h
Ġmel ted
Ġc l
w e
ĠW h
Ġ is
Ġc ut
ĠS er
u b
Ġwhit e
o a
Ġv egetab
Ġm ay
Ġrem ain
ip s
Ġab out
v ing
t ion
ri es
ĠC ool
an t
ar t
we et
Ġcr ack
Ġ ra
Ġch ips
Ġ3 0
Ġremain ing
Ġfro m
n a
Ġl ight
Ġ red
Ġ al
Ġ k
Ġfro zen
m er
u ff
ot t
Ġcook ed
le y
Ġgre ased
res h
o re
a v
ĠSp rinkle
Ġh al
as on
Ġ as
ust ard
o s
ars ley
an ge
Ġp arsley
c col
ccol i
Ġst ick
ĠC over
e y
Ġe x
Ġcar ro
Ġth en
Ġs l
u l
Ġch il
ĠB eat
Ġa pp
Ġf resh
id e
ac on
Ġm ustard
on na
onna ise
Ġsh red
Ġmay onnaise
en d
Ġser ving
Ġs k
e p
res s
Ġ1 5
Ġb acon
Ġhour s
Ġshred ded
en der
Ġmushroom s
Ġdrain ed
Ġbeat en
ri ger
ar e
u it
on ut
Ġh am
Ġro ll
Ġboil ing
Ġse ason
Ġt aste
l i
Ġp ap
em ove
le t
ĠR emove
ĠP ut
u dd
Ġe ach
k s
udd ing
Ġo li
Ġ1 3
ic ed
t t
Ġbro th
Ġ1 2
Ġbro ccoli
Ġcarro ts
Ġn ut
Ġra is
Ġc ool
ĠB ro
Ġcoc onut
Ġf ir
Ġ2 0
re as
Ġso f
Ġg ra
ay er
Ġd iced
Ġrais ins
im mer
ĠC ream
Ġcr ush
n uts
arm es
armes an
i z
Ġ O
Ġcrush ed
Ġc asserole
Ġpie ces
Ġapp les
Ġb ake
ĠC ake
me g
Ġnut meg
Ġco ver
ĠP armesan
Ġt ender
Ġslic es
st ant
ĠW or
ood les
Ġhal f
an an
ĠSp read
sh ire
ces ter
is s
cester shire
e c
en t
Ġp udding
ĠM akes
pp ing
Ġn oodles
is c
ĠSer ve
Ġo le
ĠWor cestershire
) .
Ġole o
ra w
Ġstir ring
Ġp l
Ġcan s
Ġpe an
av or
Ġsh ell
im e
Ġor ange
Ġb ott
ĠC ut
ĠWh ip
m ilk
Ġbl ack
ber ries
Ġ an
ur n
es t
Ġs he
or k
ĠS al
Ġchil i
Ġpowder ed
Ġch er
y r
il let
Ġpepper s
yr up
all y
ut e
o ves
d s
Ġbutter milk
Ġseason ing
p s
Ġb o
Ġs yrup
Ġre f
ch in
Ġvegetab le
Ġp our
ĠCh icken
Ġcl oves
ber ry
us age
Ġ E
at s
on e
Ġcoc oa
t r
Ġwh i
u e
Ġ he
Ġc old
ĠC asserole
Ġs qu
ĠH eat
ĠC r
Ġb anan
ol l
Ġs et
all ow
Ġsk illet
ĠBro wn
Ġw al
Ġd ough
Ġs weet
ĠP re
Ġcr ust
Ġl i
an o
a ve
Ġ J
Ġref riger
ĠD rain
Ġ up
Ġcrack ers
p an
Ġc ub
Ġl ow
ĠL et
Ġcup s
Ġ K
ar ch
ĠT op
Ġp ack
Ġo ut
Ġ it
Ġst raw
Ġp re
Ġsa usage
Ġsal ad
ress ing
Ġbo x
Ġcook ie
st arch
Ġse ed
Ġcook ing
Ġshe et
Ġwal nuts
Ġcorn starch
ĠB l
um p
Ġ4 5
Ġwh ole
z z
Ġbott om
7 5
g ano
ĠS a
2 5
Ġp ork
b ur
ri ed
Ġ are
e w
Ġsauce pan
Ġw arm
Ġ V
r uit
Ġl ayer
Ġle a
tion al
e a
ight ly
ri m
ing er
Ġ us
ac t
Ġo re
at ter
Ġore gano
k a
Ġal mon
Ġvegetab les
ur p
oo th
reas ts
uc chin
Ġf ill
ucchin i
Ġj ell
c ed
Ġbanan as
Ġex tr
Ġpean ut
Ġb ell
os e
Ġs immer
Ġlight ly
on i
Ġsm ooth
f ore
at ely
Ġbe fore
Ġth in
op tional
ri ka
Ġextr act
Ġb reasts
ten ed
Ġmin ced
Ġfl avor
es s
Ġ3 75
Ġcrack er
Ġpap rika
bur ger
Ġas ide
Ġd ressing
ĠT h
Ġt ab
Ġn ot
ĠSal ad
ab b
ĠR oll
Ġwhit es
i an
e ed
abb age
ĠP e
p oon
les poon
Ġtab lespoon
urp ose
c c
Ġg inger
ĠC he
Ġon e
Ġy ol
ot h
Ġth ick
e ast
p ar
Ġpe el
Ġserving s
qu art
ĠP ie
o c
ĠM el
p urpose
if t
m allow
Ġd one
Ġy east
Ġin stant
Ġ2 5
Ġ if
ĠMel t
Ġfir st
ell a
h am
tt i
Ġf in
Ġfill ing
ag he
aghe tti
rim p
Ġb all
ar ella
o zz
ozz arella
e al
Ġ N
Ġc ombine
Ġ z
Ġ en
oa f
k in
Ġto r
ak ed
Ġt ime
Ġp lace
Ġli qu
Ġham burger
ĠSer ves
Ġoli ve
Ġwhi pped
g re
Ġgra ham
Ġ Y
ĠI t
Ġd es
ell ow
ĠBl end
Ġt ea
Ġso y
v ed
ump kin
me al
Ġc abbage
ĠM ozzarella
Ġsof tened
iss ol
as il
re e
ir ed
ĠPre heat
Ġun c
a w
Ġdes ired
Ġmar sh
Ġmarsh mallow
Ġfin ely
Ġy ellow
Ġb atter
1 0
Ġsp rinkle
Ġz ucchini
ĠA nd
Ġpe as
Ġcl ove
Ġtor t
n e
Ġp ast
Ġliqu id
ac ar
old en
Ġoli ves
Ġw ine
Ġg el
Ġle t
Ġj ar
acar oni
Ġw a
Ġf ruit
ĠS ift
ĠCh ill
en s
al ian
sp oon
Ġgel at
Ġc om
Ġtea spoon
Ġyol ks
Ġ4 0
e x
ĠS h
Ġ3 25
s weet
ĠIt alian
Ġb asil
Ġsp aghetti
ĠB e
Ġm ore
Ġsl ightly
Ġjell o
iz e
ĠB ring
Ġp im
Ġd ash
g es
ro w
Ġg olden
Ġo ther
Ġcher ries
Ġst and
Ġsh rimp
Ġto pping
Ġd o
ough ly
Ġstraw berries
Ġfl akes
or oughly
Ġ4 00
Ġl oaf
c e
ĠCook ies
ire c
Ġo ats
ac o
Ġcon t
Ġd irec
Ġroll s
d ens
Ġmarshmallow s
dens ed
e ep
Ġsof t
Ġp ut
Ġfir m
Ġle tt
Ġsp read
Ġcon densed
Ġflour ed
n ight
Ġ 7
Ġth oroughly
Ġm acaroni
Ġpap er
Ġlett uce
el s
isc uit
Ġb y
ĠP ot
Ġst uff
Ġf at
Ġgelat in
if ted
Ġover night
Ġ U
Ġ qu
ic row
ĠB read
Ġl on
ĠF old
it e
ep t
ro p
at or
u ally
Ġof f
isc o
p e
il e
1 6
Ġmix ing
Ġalmon ds
icrow ave
Ġser ve
Ġb ag
Ġp umpkin
Ġmix ed
' s
k ey
f ter
ĠSp oon
c ept
Ġt ur
gre ased
e e
Ġs ize
ĠCh o
Ġpan s
ĠCr isco
Ġbl end
e ak
ow er
ĠSa ute
in ach
d ually
i el
Ġrefriger ator
ĠR ef
Ġm ake
ĠChe ese
en ded
Ġstuff ing
t le
b le
Ġp aste
Ġ3 5
Ġch ill
ĠRef riger
Ġd ried
Ġy ou
Ġcub es
Ġ Ġ
Ġm ash
Ġbl ended
ĠCho colate
Ġs ifted
Ġbrown ed
un ch
Ġex cept
Ġth icken
Ġball s
ra y
Ġpeel ed
Ġa pple
Ġt aco
l ed
ĠWh en
Ġb iscuit
ĠR ice
Ġf ood
Ġus e
en to
Ġon to
Ġcover ed
Ġc ol
Ġcher ry
Ġcon stant
ĠB oil
tion s
Ġ ice
ar b
Ġtablespoon s
r ange
Ġconstant ly
Ġth is
ĠB utter
Ġpim ento
k e
ĠRefriger ate
at meal
reas e
ĠB r
i v
ĠS immer
f ec
Ġs c
ĠS l
Ġ q
Ġpot ato
Ġb ay
av y
Ġq t
y me
at ure
ces s
Ġf oil
Ġlea ves
Ġb ou
Ġin ch
Ġst ri
ad e
ĠY iel
en ed
Ġth yme
ill on
fec tion
ree z
ĠS w
Ġstick s
Ġf ry
Ġbou illon
Ġw ill
ĠD rop
c ent
Ġcon fection
Ġsp oon
Ġbutter ed
ass es
Ġcont ain
uc umb
Ġconfection ers
Ġ ri
ĠG rease
Ġr ound
ook ed
Ġb on
Ġg l
ar es
id es
ill as
Ġpack age
ic an
Ġc and
ĠJ ell
Ġpe ach
Ġc le
Ġhe avy
if f
Ġcol or
Ġstri ps
ĠL ayer
en ter
ic h
at es
Ġtort illas
Ġflavor ing
Ġm o
Ġsp inach
Ġe ven
Ġs ides
Ġst eak
on ey
ott age
ter n
n ey
Ġc enter
ol asses
n ch
ĠT urn
Ġhe ad
ra b
ats up
v ap
Ġc ucumb
vap or
Ġen ough
ar p
ou n
Ġc atsup
in d
Ġe vapor
over ed
Ġc ottage
it tle
y le
Ġa fter
Ġpre par
Ġk et
Ġth aw
d ing
es er
Ġtur key
Ġevapor ated
Ġsh arp
Ġmash ed
Ġj ust
Ġd issol
m i
Ġk id
Ġt urn
et a
Ġr est
Ġunc overed
ap e
ent ly
Ġf ine
Ġkid ney
Ġse mi
Ġcho ps
Ġv ery
Ġcook ies
Ġch un
Ġd e
Ġm olasses
Ġun greased
n ish
ĠSw iss
Ġt art
Ġprepar ed
e ts
er ry
el ve
s e
Ġeven ly
Ġsqu ash
ing s
1 2
ic es
Ġst al
Ġlea f
Ġchil ies
Ġd ates
ow n
Ġs ide
Ġm uff
ĠG ra
Ġcontain er
ĠV elve
Ġthaw ed
ĠTh en
it s
ĠS et
Ġl ay
Ġcub ed
Ġminut e
Ġcr an
Ġwa x
Ġa p
sp ice
Ġsl ice
Ġh oney
uff y
Ġmix er
Ġrem ove
p er
Ġro ast
Ġpast ry
l d
Ġb re
Ġsp eed
Ġdirec tions
Ġl ittle
ĠS oup
Ġall spice
Ġpack ed
ĠD ip
Ġa cc
Ġp ick
Ġsl ow
it ion
or ding
Ġse par
iz z
as ion
cc asion
Ġo ccasion
ĠVelve eta
ou s
Ġfl uffy
Ġstraw berry
Ġb ut
Ġoccasion ally
Ġp t
Ġsqu ares
Ġacc ording
Ġgr an
l ower
ĠR ed
re nch
Ġc ur
Ġo atmeal
ub b
uc k
Ġal tern
Ġst iff
Ġlay ers
oun t
s s
ĠG r
Ġ 50
Ġ1 6
Ġadd ition
Ġt em
Ġl ime
Ġpeach es
s er
Ġp o
ch up
Ġrefriger ate
ĠD o
Ġwhi pping
ĠP ress
um in
Ġpl ain
Ġwh en
Ġb r
am e
Ġtem per
Ġalmon d
Ġd ou
Ġfor k
Ġch est
Ġhal ves
ro x
ĠF rench
f ul
Ġket chup
ĠA r
Ġcle an
Ġtemper ature
Ġchest nuts
Ġc rab
Ġt ub
Ġfor m
Ġt w
oc k
Ġtart ar
rox im
os s
Ġbiscuit s
Ġth r
er n
t on
Ġh and
Ġbeat ing
ra p
Ġb ubb
ĠC ar
Ġthr ough
ĠC orn
roxim ately
Ġpean uts
Ġr eser
Ġd own
Ġd ill
i sp
ar in
izz a
ĠR o
er b
er m
ĠW ith
ĠM ake
un d
Ġcr isp
oth er
as e
ab out
Ġc ro
Ġb ring
Ġsp ray
Ġlon ger
ex t
ed ges
ĠPot ato
Ġcr es
Ġpast a
Ġbak ed
Ġmel t
issol ve
ĠD issolve
Ġthin ly
o g
qu ick
s a
Ġy our
an ges
en ne
Ġp inch
ĠGra dually
1 5
arb ec
Ġcres cent
Ġf reez
Ġcream ed
ul ated
Ġco ars
Ġse c
Ġcrumb led
Ġdo zen
Ġr ind
Ġcom es
Ġwh ile
Ġunc ooked
Ġshell s
u ll
a uce
Ġm eal
Ġstal ks
Ġle an
u d
Ġor anges
Ġsa ute
ĠB is
ĠT o
Ġgran ulated
ĠAr range
f l
Ġsp ices
Ġpl ate
ĠA pple
ĠYiel ds
Ġle ast
a ul
Ġbl ue
ay enne
Ġcan n
ĠSl ice
Ġcom p
ĠBis quick
Ġ am
ar ts
Ġh ard
Ġun b
Ġc ayenne
Ġcucumb ers
Ġtub e
Ġr ack
if lower
aul iflower
ar k
Ġco at
Ġmuff in
ff ee
Ġseason ed
a il
Ġ ar
ĠF or
Ġthicken ed
p are
er eal
el ess
un a
Ġan other
c o
Ġm icrowave
b read
is t
Ġst ew
Ġr ise
Ġcomp let
ĠS e
Ġwa f
Ġdou ble
Ġk ern
Ġslow ly
Ġc ereal
ĠC o
ri sp
ĠCh op
Ġcolor ing
ĠRed uce
Ġcarro t
om e
in ed
f at
Ġch uck
Ġh igh
i der
all s
arbec ue
Ġcomplet ely
Ġapp roximately
Ġdissol ved
Q u
Ġgl ass
Ġgre ase
Ġbon eless
ĠG ar
Ġchun ks
Ġaltern ately
Ġseasoning s
ĠBro ccoli
ip e
mer ican
Ġthe m
p l
Ġlon g
ĠSh ape
Ġsk in
ul ar
Ġp in
ro cess
ĠF l
Ġre c
n g
Ġ Qu
Ġd ri
as ag
ĠI f
ĠA merican
Ġapples auce
read y
Ġbre ast
Ġcann ed
Ġf ew
Ġn on
iv id
c k
sweet ened
in ue
Ġc ider
Ġbl ender
Ġri pe
i ed
Ġsqu are
Ġc umin
Ġ2 4
Ġc auliflower
ĠL e
Ġsh allow
ar y
Ġd ay
Ġam ount
les s
Ġ3 00
ĠM icrowave
as co
Ġn eed
v el
ĠT ab
Ġqu ick
Ġtw o
Ġkern el
ĠB aked
as y
Ġcur ry
ĠS c
Ġth at
ĠBe ef
ver al
Ġbubb ly
Ġun sweetened
ĠF ill
ĠTab asco
Ġ end
Ġb oth
Ġl ast
ĠH igh
ĠS to
s c
Ġcar am
Ġsh erry
k ra
Ġse veral
Ġcorn meal
g ular
Ġ ready
Ġh ash
st yle
ar ter
Ġn ext
b s
ĠS qu
r ic
Ġto ss
ĠPre pare
Ġsal sa
Ġ Z
ĠF ry
Ġtort illa
Ġh as
il d
ĠPe pper
ĠU se
ĠSe ason
Ġw heat
ud ge
Ġcool ed
ĠTh is
Ġunb aked
Ġto ast
Ġ room
ĠSa uce
Ġfl aked
Ġgra dually
ric ot
Ġp ress
v y
Ġra w
Ġto w
ot ch
ĠG re
il ad
Ġp art
pp y
el f
Ġwaf ers
1 4
u gar
ĠS weet
al ap
ĠF ruit
Ġk n
Ġp at
alap en
Ġh erb
l ish
ĠM eat
Ġpec an
an ut
Ġcar ton
anan a
st ing
Ġf old
i g
as chin
aschin o
Ġg ently
Ġj ars
ne ad
ĠF ro
is k
a z
ĠS o
ĠD el
Ġ im
ĠC on
Ġ4 25
Ġcran berries
Ġus ing
Ġmar aschino
Ġt una
Ġp rocess
ĠPe anut
ĠGar nish
Ġon ce
Ġli ke
Ġst ock
ĠU n
ĠB re
Ġf ish
ĠB anana
ĠM on
Ġbe en
Ġcream y
in i
le c
s o
Ġ6 0
m edi
if e
sc otch
medi ately
Ġdirec ted
ĠT oss
Ġblue berries
ur t
is ing
Ġan y
rain ed
asag na
t z
sp ar
ĠO n
Ġk eep
Ġfirm ly
ĠR ep
pl ant
og urt
i a
Ġcand y
Ġjell y
ut ed
g ain
T el
ĠJ ack
Ġkn ife
Ġcand ied
Ġd ark
ast ic
Ġg ood
Ġj alapen
ful s
Ġa gain
Ġsec on
Ġqu arter
Ġb its
ĠH am
ĠPot atoes
tr ic
r ising
ĠM ex
lec tric
ĠE asy
heat ed
ĠSal t
Ġd eep
Ġh ave
ĠPe el
Ġf ull
ĠC an
Ġy ogurt
Ġmin i
on g
ĠT ake
Ġap ricot
o ke
Ġe lectric
r an
Ġb ars
Ġre gular
ĠRep eat
and arin
Ġsal mon
p ick
Ġs elf
it os
it z
t ing
Ġd ip
b l
ĠBre ak
t ail
at ion
Ġun d
Ġsweet ened
Ġb ite
Ġch i
e as
es ame
ou ld
ic ott
Ġl en
ivid ed
Ġto oth
Ġmar in
Ġr ings
Ġgra vy
Ġb arbecue
Ġp izza
am s
Ġtooth pick
Ġsc all
an ch
m eat
Ġap art
ĠE gg
Ġaddition al
Ġar ound
pping s
Ġd ivided
Ġse al
Ġco ffee
vel op
Ġsepar ate
Ġdri ppings
Ġcoars ely
et t
res er
ĠZ ucchini
Ġw ire
ĠT he
ĠA l
Ġd i
Ġpre heated
Ġbott le
Ġheat ed
Ġmo is
Ġa v
ĠP udding
Ġen velop
Ġ edges
ĠR itz
Ġbutter scotch
Ġpl astic
ĠV egetab
Ġin ser
ĠSt uff
ĠD iv
Ġgar nish
. \
ĠP umpkin
Ġbanan a
Ġf ried
ĠL ine
ins e
o k
Ġpl us
f er
Ġp ound
ĠP ound
Ġsp ice
Ġra sp
i ve
ĠYiel d
Ġs esame
ĠH ot
Ġmel ts
ĠB ars
ver y
Ġneed ed
ĠMex ican
Ġsugar s
st it
Ġboil ed
Ġus ed
Ġim mediately
Ġs ome
Ġbrown s
ĠW ash
n ot
Ġpimento s
ĠS ugar
Ġbe t
Ġcoc k
Ġcock tail
Ġcorn bread
avor ite
' t
ag us
Ġde gre
spar agus
ĠSto re
Ġinser ted
Ġb unch
an g
re me
Ġroll ed
Ġtoast ed
Ġsu b
or s
Ġshe ets
Ġegg plant
u k
Ġm old
l ing
Ġpre tz
ĠLe mon
w ise
ou l
c orn
i ver
ter ey
Ġfry ing
Ġm andarin
oc ad
le ts
c ake
Ġchi ves
Ġcran berry
n ut
er t
Ġfl at
b alls
Ġinch es
il uted
et urn
Ġadd ing
Ġto o
am p
ĠSt raw
ĠR eturn
ĠBr and
ĠF udge
Ġsub stit
im es
Ġjalapen o
Ġ1 1
Ġboil er
Ġrem o
zz le
ro ps
Ġsalt ed
Ġchill ed
risp ies
icott a
Ġb ack
o in
ĠMon terey
Ġe very
Ġ -
Ġgra p
ut ch
Ġun s
ien to
Ġbe an
Ġ4 50
ĠN ut
ĠBe ans
Ġav ocad
ĠK ar
Ġpim iento
ess ert
w h
Ġ1 8
Ġseed s
und t
Ġsl iver
en er
Ġ1 4
ĠC oc
ac le
ir acle
f or
ag le
Ġp er
ĠM in
) ,
ĠRoll s
Ġsa ge
Ġreser ved
ĠKar o
ĠR icotta
ĠF reez
Ġcon s
Ġdegre es
Ġyol k
Ġ el
ĠStraw berry
Ġpo ppy
ĠM ay
ĠD utch
ĠK eep
ĠK rispies
ĠM iracle
on s
ĠCon t
o st
oll ow
Ġfro sting
c ooked
Ġbe g
ĠE agle
st ick
ĠVegetab le
Ġbro il
ĠM uff
ul ly
Ġh or
ĠQu ick
oa ves
Ġfresh ly
ew arm
Ġco ated
ĠY ou
uk ewarm
ion s
Ġt ightly
2 0
Ġpepper oni
Ġm ors
ic i
Ġsoup s
ĠS our
Ġcho p
Ġrec ipe
g th
p ot
Ġmors els
Ġl ukewarm
Ġlen gth
ĠB undt
Ġsepar ated
ĠBr ush
ad ish
Ġrefriger ated
erm an
h ub
Ġwax ed
hub arb
e ar
Ġturn ing
t ra
ĠCr umb
Ġcucumb er
Ġred uce
ĠBe an
ser adish
k en
Ġsu r
ĠL oaf
ĠE ng
er ries
Ġfreez er
Ġt imes
Ġg rain
Ġthe y
em s
Ġchun k
ĠMuff ins
Ġsliver ed
il i
b on
Ġl asagna
fl avor
Ġenvelop e
Ġhor seradish
Ġw rap
ĠP izza
ĠW rap
Ġfreez e
iz ed
Ġflavor ed
ĠP ec
ĠG erman
Ġcrab meat
un s
ĠSh rimp
b ow
inn er
f t
ak ing
Ġal e
mer ic
ĠO re
Ġcro ck
Ġch eddar
ĠA ll
ĠCh ili
u er
Ġl oaves
Ġpretz els
Ġw edges
Ġl im
or t
Ġon ly
Ġa sparagus
ĠA fter
ĠD ream
l it
ĠO atmeal
Ġsur f
o y
Ġbro ken
Ġtur meric
Ġb erries
ĠP ork
Ġex tra
ĠDiv ide
kra ut
uer kraut
Ġsh ould
flavor ed
Ġw eed
ĠP am
ter s
ot s
Ġsh ape
Ġgrap es
r ate
Ġc omb
eas ure
Ġsurf ace
Ġcon cent
Ġsubstit ute
ĠUn c
ĠEng lish
Ġpin to
Ġpie ce
ĠGre en
Ġd rops
Ġn o
w ich
ĠFor m
g s
Ġel bow
inch es
ĠWh ile
ant e
ĠCont inue
and y
Ġwh ich
ĠD or
ĠSp ray
Ġcont inue
ess on
c an
ĠR anch
Ġr um
Ġb ar
ir t
ĠT om
us ts
Ġtop s
Ġskin less
ĠP at
Ġcaram el
N o
ic ante
ur ing
Ġof ten
Ġcoars e
ut ons
Ġmini ature
t ry
Ġstew ed
ĠPec an
and wich
ĠW esson
Ġbo ard
ĠSt ew
Ġp ar
Ġsk im
Ġconcent rate
Ġp ure
az e
oul try
Ġlength wise
Ġcr usts
ĠCar ro
ĠCrumb le
Ġmois tened
Ġor der
Ġbox es
g el
ap ing
Ġthicken s
Ġcro utons
Ġcorn fl
y s
Ġp oultry
ici ous
Ġf avorite
Ġex cess
Ġal so
ĠDor itos
c y
ĠP ineapple
ol a
ĠO ld
Ġtow el
n ess
Ġl id
Ġri bs
ĠD i
Ġp it
reser ves
Ġhal ved
ĠSa usage
al or
Ġadd ed
Ġcaram els
ĠCh ip
i dd
Ġf re
ĠK nead
Ġmo der
Ġpick le
ol es
ĠSp aghetti
Ġbon ed
in t
Ġsecon ds
Ġteaspoon s
Ġo p
ed ge
ĠR a
Ġ5 5
Ġp icante
Ġro s
ĠBl ue
i ble
er i
Ġfre qu
is ten
Ġfry er
Ġscall ions
Ġfrequ ently
ilad a
Ġpat t
b oil
Ġp reserves
ĠM arin
qu al
Ġa c
Ġsa uerkraut
Ġc or
ĠP unch
ĠO r
m ost
Ġan gel
Ġcub e
Ġ quart
ra g
ash ion
em ary
ĠSqu ash
Ġf il
Ġst ill
Ġpick les
Ġ art
Ġnon stick
Ġst ems
inn ed
w ay
Ġs n
ĠP ast
Ġm ade
Ġr hubarb
we en
rag on
ar ragon
Ġquarter ed
Ġrasp berry
ĠFreez e
ĠT ur
d o
ĠD ri
Ġros emary
a ir
e z
Ġday s
ĠF arm
ĠD essert
Ġbet ween
r ans
ĠT aco
Ġal most
ĠCh erry
ĠN o
in y
Ġst yle
ir l
Ġp ink
er ing
in es
ĠO range
Ġlim a
e am
h igh
Ġt arragon
Ġser ved
ĠP ick
ĠM ash
ĠBrown ies
b ell
Ġwh isk
Ġhand s
ĠStuff ed
Ġ edge
Ġmoder ate
Ġm ild
ĠCoc onut
he y
Ġhe aping
Ġund rained
ef ully
Ġmuff ins
e gg
Ġsk inned
Ġcle ar
boil ed
Ġf ollow
e in
Ġb ul
Ġche es
ĠL ightly
ĠMin ute
Ġchil es
Ġun flavored
Ġprocess or
j or
Ġf our
Ġcho ice
Ġall ow
ĠSt eak
Ġcut ting
ĠDri zzle
ering ue
Ġchees es
to ver
ous ly
Ġcomb ined
m a
Ġcrumb ly
isten cy
ĠC amp
ĠP et
ĠT ater
ĠA ng
ĠI ce
Ġpl atter
Ġmeat balls
ĠSp inach
Ġk nead
Ġdissol ve
id ge
ĠChe ez
Ġw ash
Ġmar jor
ers hey
ĠWh iz
Ġcons istency
Ġcl ams
Ġrec t
al ted
Ġmarjor am
ĠCr an
ĠCr ush
Ġbre ak
Ġw ood
ĠC abbage
Ġend ing
Ġbroil er
ĠD ot
Ġb one
ĠA pp
ĠM ars
ĠF resh
Ġcornfl akes
Ġ2 50
Ġfl ower
ĠH ershey
Ġsm oke
Ġreser ving
e g
e an
i ally
Ġp op
Ġg al
ĠD ressing
Ġen ch
Ġo kra
ĠB alls
ant ro
f ry
il antro
is in
ol id
ro uts
Ġn e
ĠCamp bell
Ġteaspoon fuls
ĠPepper idge
ĠCran berry
ĠFro st
Ġs q
ĠC l
ĠSl ow
ĠSqu ares
Ġfil lets
ĠAng el
c l
Ġsu re
Ġwh ip
Ġj am
Ġmarin ade
in ese
Ġlemon ade
Ġf o
ing ers
ĠRo ast
t c
Ġp r
ĠS up
Ġst ove
Ġtow els
a pp
Ġw ee
Ġre al
ĠCar am
ĠS k
Ġnon fat
ĠSo ak
Ġroll ing
Ġref ried
Ġwood en
Ġc ilantro
Ġpe ak
pe el
f ish
Ġc utter
Ġw ide
ĠR inse
ab y
ep ar
Ġpatt ies
Ġ \
Ġsp routs
Ġmay o
c akes
Ġo ys
ĠM ushroom
Ġ ic
ĠCh inese
Ġuns alted
1 3
Ġc ap
Ġb uns
ĠB iscuit
at ing
ee z
Ġpure e
Ġgl aze
Ġfo am
Ġo un
ĠC rab
cess ary
ett uc
Ġne cessary
Ġd rop
Ġart ich
f ast
rans fer
Ġic ing
am b
he ad
Ġremo ving
peel ed
Ġ *
Ġre lish
ĠB est
ĠR eser
Ġform s
ĠPast a
ĠSlow ly
s ize
ĠS epar
Ġju ices
Ġcrumb le
ĠDel icious
Ġavocad o
ĠCaram el
f tover
ĠTur key
Ġench ilada
Ġc alor
Ġd on
Ġun der
Ġbul k
Ġlemon s
umin um
Ġgelat ine
n o
Ġl ined
ood le
al s
ĠA cc
j on
Ġpick ling
Ġle ftover
Ġal uminum
j oy
Ġsecon d
ĠOre o
ĠAll ow
Ġp ul
ĠC up
bl ong
ĠReser ve
Ġl ess
ĠTom ato
Ġpeak s
Ġo blong
ĠR e
Ġbr an
Ġs ift
Ġund iluted
ĠAcc ent
ĠG ood
bur g
Ġround ed
Ġ '
Ġr inse
ĠHam burger
ĠSepar ate
c r
an ish
ĠGre at
ashion ed
f ree
Ġt ap
at ch
ĠDel ight
ĠUnc over
isc ard
ĠPe ach
c ook
p h
Ġd inner
Ġmin t
Ġsh ake
ĠU s
Ġquick ly
a ff
Ġb aby
Ġseed ed
Ġstal k
Ġar range
ĠOn ion
Ġpit ted
e ars
h mallow
Ġmo ist
Ġre t
Ġt es
Ġpe ars
Ġth ree
Ġthick ness
Ġreser ve
s ide
Ġs andwich
Ġt ins
ĠCo at
ĠDi jon
ĠBlue berry
Ġwal nut
Ġqu arts
Ġs ame
ĠC risp
Ġket tle
ĠRa isin
ĠB arbecue
bl er
Ġin d
Ġa irt
ĠD ump
Ġairt ight
Ġs ing
ĠCh r
Ġpul p
Ġw or
ic he
art y
wh ile
Ġm eringue
ab le
aw ay
ĠMars hmallow
Ġflower ets
Ġpart ially
all op
Ġe qual
Ġhe arts
Ġbeg ins
ĠM acaroni
us e
ĠF ried
o d
or b
ĠG l
ĠUs ing
Ġret urn
Ġsing le
Ġp or
oo p
ap le
out h
Ġpop corn
ĠBiscuit s
ĠCarro t
ec or
Ġ &
eat en
ĠN ext
Ġe tc
Ġsp ring
Ġsc al
a f
er e
an n
Ġt ake
ing u
Ġw ild
Ġab s
Ġspray ed
a h
uc h
ĠBr an
Ġsp rink
Ġblue berry
Ġapricot s
ĠBreak fast
ok ed
ĠS m
ĠSc allop
he w
ĠG ently
Ġwith out
oc a
Ġpr un
Ġa head
Ġh oles
Ġcar away
ĠI m
f ten
Ġabs orb
i oca
an y
Ġcorn ed
ĠO ven
ec ipe
Ġp unch
Ġg et
ĠSp anish
l ings
Ġl oo
Ġbe c
ĠCream y
ĠS n
Ġmeat s
ĠSup reme
ĠT ransfer
Ġseed less
oss ible
Ġc as
Ġst ore
ĠBro il
1 1
Ġst age
Ġlea ving
c up
ou ch
th ing
Ġremain der
Ġbag s
Ġbon es
ĠGr and
ĠSo ften
Ġf udge
unch y
Ġal ong
ĠSto ve
Ġtap ioca
Ġm akes
Ġchunk y
Ġt ri
ic y
ĠP h
uc ed
idd le
ean while
v il
Ġavocad os
Ġw ings
Ġh om
Ġham burg
ĠFro sting
Ġrect ang
Ġfoam y
b bler
y re
Ġr ins
ĠL ow
ĠCorn bread
Ġremo ved
yre x
i pped
Ġsu n
Ġgr ill
ĠL asagna
Ġsweet ener
ĠR ecipe
ĠD e
m as
ĠM eanwhile
ir c
Ġst eam
ĠR om
ĠF r
Ġwee ks
ĠC ro
ĠWh ite
Ġbr ush
Ġm easure
Ġf ettuc
ĠE nch
Ġsteak s
Ġquarter s
ĠT w
ĠL ay
isk et
A ll
Ġd uring
Ġrins ed
and er
ĠD ish
Ġspoon fuls
u al
Ġun peeled
Ġv egg
Ġrasp berries
ĠAl tern
Ġm iddle
Ġc irc
Ġsp lit
i al
at h
ĠW ill
Ġro t
Ġp arts
ĠCo ffee
ĠChop s
Ġcalor ies
Ġm aple
ĠP yrex
Ġdou b
ĠChr ist
Ġb est
Ġg ener
ch o
ĠCo bbler
ĠPick les
ĠP ack
Ġsm oked
ĠBl ack
Ġred uced
ĠSp lit
b its
d ish
Ġ "
Ġprun es
Ġbe er
Ġcar efully
ĠJell o
Ġscal ded
Ġin st
ak er
Ġsp ri
Ġbet ter
Ġroast ing
Ġcor ed
S er
ĠK ra
Ġherb s
ĠS eal
ĠO ne
aff in
ĠC reme
ĠT una
ĠM easure
Ġpar affin
ĠT ex
ĠJ ust
ĠSh ake
Ġgra pe
i er
Ġvegg ies
m b
ĠP an
o f
ry e
ĠP r
ir d
Ġcas hew
ĠChrist mas
Ġw ant
Ġv eal
Ġbr andy
op s
Ġpo pped
a dd
Ġ rye
ĠP ro
ĠT ort
Ġevery thing
Ġl ingu
un cooked
Ġbe ets
Ġm aking
el ph
Ġg i
ilad elph
iladelph ia
Ġg erm
is on
Ġfro st
em ade
ag es
und iluted
Ġsqu eez
Ġpre fer
f lower
u ry
ĠSt yle
ĠQu iche
ĠPh iladelphia
2 8
Ġtor n
und rained
Ġend s
app roximately
a i
il y
en ison
Ġd ep
ĠE n
ĠFl at
Ġind ivid
Ġdoub led
m el
Ġh old
ad y
Ġd el
ĠB ur
Ġst art
ĠD ough
w ith
Ġtw ice
irl oin
Ġb urn
ore ts
Ġbubb les
Ġmarin ate
ĠApp les
t y
Ġb ig
ro ss
Ġlar d
Ġcontain ers
ĠFlat ten
Ġt ouch
Ġp uff
Ġac t
m ix
s ave
Ġgreen s
ĠMeat balls
b y
et iz
id bits
ĠC innamon
Ġsaute ed
bon ed
s m
Ġfl orets
ĠScallop ed
b ury
Ġsp ears
Ġdri zzle
Ġuns ifted
Ġartich oke
un t
ĠO f
Ġsun flower
ĠKra ft
a j
ĠT rim
Ġre ach
Ġwash ed
as ter
Ġ3 6
ĠM ar
ach o
Ġde boned
Ġcoat ing
Ġact ive
Ġt idbits
Ġsa ve
Ġover b
ĠCh owder
ul a
ĠCr ust
Ġoys ters
b o
Ġm ein
ro of
ĠP arty
Ġpre ven
reser ve
Ġm eas
ĠT ots
ir on
ĠRom ano
Ġs irloin
op le
Ġit s
ount ry
ĠO ver
ĠChe x
Ġc akes
ĠCr ack
Ġwaf er
C h
asil y
Ġd iscard
Ġgr its
Ġr ing
Ġr ese
ĠSal mon
Ġpound s
b one
Ġt in
Ġop en
Ġc ustard
ĠC ol
Ġpepper corn
Ġbr isket
Ġflat ten
Ġpreven t
Ġin side
Ġe asily
Ġbe ater
ĠH ash
ĠV eg
ĠMarin ate
Ġt rim
Ġb it
ten der
Ġscall ops
Ser ves
o e
ĠC andy
Ġg all
Ġle ave
Ġpar ed
Ġm uch
Ġfl ake
Ġv erm
Ġso ak
o ppy
th s
Ġr un
ĠGr ill
Ġspri gs
es y
ĠCheese cake
ĠLe ave
sm all
ro ll
ĠC al
ef ore
umb o
erb et
Ġindivid ual
m ed
Ġt bsp
Ġth an
Ġloo s
ĠTex as
un can
Ġo ld
Ġd ot
Ġl ump
red ge
ĠH om
Ġunb eaten
ill s
ip ton
Ġra dish
Ġmo st
Ġabsorb ed
us s
ell i
Ġoil ed
ĠW al
cr umb
n ation
Ġw ork
th y
Ġsp at
ff le
ĠTh aw
c ut
Ġs it
Ġe at
Ġpe ar
Ġpe ople
ĠM ilk
ĠChe esy
m ay
ĠL ipton
ĠV al
i um
Ġl ine
Ġsec tions
F at
an k
ĠD on
Ġgi ven
Ġle vel
ĠD ice
ag on
Ġfruit s
ecor ate
Ġspat ula
our bon
ĠD ate
Ġk ind
end ing
Ġpo int
ĠFl our
air y
Ġpeppercorn s
i o
Ġl ook
Ġsh ap
ĠCar nation
ĠTo ast
Ġfollow ing
Ġre p
Ġli ver
Ġcolor ed
ĠCro ck
ĠS outh
um m
Ġboil s
ĠV anilla
ar eri
Ġw ay
ĠB efore
Ġcr unchy
ĠD uncan
asag ne
ĠEn joy
f resh
ĠS ave
ver t
ĠR el
ĠG olden
ĠCr unch
ilad as
l ow
ge al
cl u
z o
Ġsh erbet
Ġcook er
orn ing
ills bury
ĠRel ish
Ġs olid
Ġbrown ie
ĠF avorite
raw fish
Ġd essert
ĠEgg s
Ġoun ce
Ġcashew s
areri bs
Ġp ossible
ĠC akes
Ġd airy
ĠH oney
Ġsk ins
iff y
Ġpin ts
Ġpimiento s
Ġsn ipped
Ġmeas uring
Ġdissol ves
ĠGr ate
Ġop tional
Ġtri ang
ĠVal ley
ĠM old
Ġ1 7
Ġp ower
Ġsh all
ex cept
Ġradish es
Ġn ear
Ġcut lets
Ġsof ten
ĠGar lic
l ined
u les
Ġ +
ar ge
Ġw et
it y
Ġsalt ine
Ġpin t
Ġch ow
Ġa way
ĠH ines
Ġgran ules
ĠSk illet
ĠGrand ma
en ts
Ġl ite
ĠB en
ĠP illsbury
til s
ĠSt ro
ĠCook ie
ĠG inger
Ġal um
ĠUnc le
idd en
ĠAltern ate
f ro
Ġst arts
ĠW heat
ĠH idden
Ġaltern ating
Ġcons om
olid ay
p roof
Ġ2 75
ĠB all
Ġcan ola
Ġth ese
ast ing
ĠButter milk
Ġrectang le
Ġtender l
ĠSh red
ĠCarro ts
Ġp ers
Ġy ams
Ġdo z
Ġroast ed
ic elli
ĠB atter
Ġdi agon
m al
Ġp ull
at ur
Ġblend ing
mb les
Ġconsom me
M akes
g in
Ġpan cake
Ġflavor s
Ġrese mbles
ĠC re
inn ing
ĠN oodle
ĠMarin ated
ec t
Ġde ve
Ġclean ed
Ġcro ss
Ġhom iny
Ġgall on
crumb s
en n
ĠJ iffy
Ġlen tils
Ġm ace
Ġth erm
urp le
ĠN or
Ġtes ts
ĠFr itos
Ġ ent
Ġd ump
ol i
gh t
iss es
Ġhand le
Ġoverb ake
clu ding
U p
Ġm on
or y
ĠM om
Ġstiff ly
ome ter
Ġtherm ometer
Ġ3 2
Ġl oin
ĠP uff
Ġsc rap
Ġrack s
ĠOre os
ĠA n
ell ini
gano ff
ĠMushroom s
i b
Ġs ized
Ġb asting
Ġw ra
Ġf it
Ġmar mal
ĠSl aw
Ġmarmal ade
S t
Ġf ully
am i
Ġcool ing
ĠPe g
Ġstuff ed
ĠT ea
Ġv enison
Ġoun ces
1 8
c i
ĠS eed
Ġst ring
Ġfin ish
az ed
Ġjalapen os
Ġlingu ine
s ugar
t al
ĠS andwich
Ġround s
ĠLayer ed
Ġdi pped
Ġsprink led
1 7
e ad
m int
o z
Ġb ourbon
Ġp urple
ĠD inner
Ġbread crumbs
2 1
3 2
Ġ iron
ist ach
al f
ou ffle
Ġverm icelli
Ġent ire
l and
o bs
Ġt ray
Ġf ran
Ġst ack
Ġpl ac
Ġsc oop
in a
Ġs ter
ak i
is ted
Ġover cook
Ġcl oth
ĠN ew
Ġdo es
aj un
ĠStro ganoff
Ġo wn
Ġm orning
ĠS he
Ġcap ers
v ol
en ess
Ġgre at
ĠL on
Ġbl anch
ag u
ving s
Ġpre pare
Ġpor tions
ĠEnch iladas
ĠApples auce
Ġshall ots
d ry
Ġt ran
ĠP rocess
ĠHeat h
Ġpack et
Ġpo ds
arbec u
ĠEgg plant
Ġtran spar
ĠB ar
ĠB acon
ĠP l
Ġro aster
ig or
ĠHom emade
Ġtranspar ent
u a
Ġf ive
am en
Ġd ust
Ġv igor
ĠFro zen
Ġreach es
Ġp ies
ĠR ub
ĠH erb
Ġhalf way
ec ial
Ġcom e
Ġenvelop es
ĠT ear
ey ed
ĠV ery
ĠCar efully
Ġpart y
Ġrep eat
vol one
T h
Ġm ozzarella
Ġw ok
ĠI r
Ġshor t
aw ai
ĠFl ake
Ġvigor ously
) ;
ĠC om
Ġl isted
ĠSt art
ĠH awai
Ġdish es
Ġdo gs
istach io
e ur
Ġp armesan
le an
ur es
ĠIm mediately
ĠHawai ian
Ġt iny
ĠR amen
oup le
ĠWh isk
ĠWor k
Ġcand ies
b utter
j ust
m ar
Ġg o
ĠA p
et ic
ĠR agu
Ġpl um
Ġcirc le
Ġn acho
ĠMix ture
Ġac ross
Ġblanch ed
arbecu ed
s ized
am ily
ĠGr ind
I f
Ġs w
ou se
Ġf ire
Ġe asy
Ġbrown ies
ĠF ish
Ġshell ed
Ġaltern ate
f e
l arge
Ġ1 00
ĠC ajun
ĠS ea
ĠL ower
ĠAl mon
Ġdon eness
ĠPro volone
Ġdeve ined
d on
l ua
y aki
Ġf ingers
Ġd ice
ĠH ave
ah lua
Ġbec om
ĠCrack er
ĠCol by
Ġc ouple
Ġpepper mint
Ġliqu eur
P ot
Ġc rawfish
ou ble
Ġn ew
Ġle e
ĠSp icy
ther n
Ġteaspoon ful
ĠTom atoes
Ġsn ow
Ġloos ely
b as
m old
t in
ĠP er
Ġsp areribs
Ġbowl s
Ġbeg inning
no x
it ch
Ġen joy
ĠBr ittle
ĠKeep s
Ġinst ead
Ġdep ending
c ine
bo x
Ġshap es
Ġcross wise
L e
in al
Ġp ro
ra pe
ĠO il
ĠK nox
ok es
Ġbunch es
ĠDump lings
Ġscrap ing
ĠIr ish
Ġbecom es
ĠL ime
Ġdash es
wh ite
Ġbeg in
Ġoys ter
Ġleftover s
ĠSouth ern
Ġtenderl oin
Ġw on
ir ds
gh orn
ĠH e
Ġro ma
Ġan ise
Ġbr and
eri yaki
M icrowave
at in
ĠP oppy
ĠA t
ĠM ed
lic ed
ĠPre tz
Ġcap s
ĠCre ole
ĠT ri
Ġh ole
Ġn oodle
ĠF eta
Ġcl am
Ġstick ing
Ġpack ets
Ġde bone
ig inal
Ġt y
am ole
Ġg u
ĠB arbecued
ĠH oliday
Ġab ove
iel bas
ĠGr ound
ĠPan cakes
Ġsal ami
Ġl ater
ac ci
ac amole
ĠP inch
ri d
ĠSt eam
Ġslic ing
ĠU ps
Ġtrim med
Ġroma ine
b e
h y
t ures
al e
ĠC ur
ran ts
ĠNor thern
ĠAp ricot
Ġt ight
Ġb ur
Ġm an
ĠA s
Ġmix tures
ĠPepper s
Ġgener ously
Ġster il
m ann
Ġl og
he ese
Ġstick y
Ġbott les
Ġfry pan
Ġcur rants
Ġtriang les
Ġdiagon ally
atur al
Ġsteril ized
m edium
Ġb ase
Ġl amb
ab etic
Ġz est
Ġflavoring s
b ro
i ander
al d
ith er
im mon
ĠBur g
ĠAlmon d
f ur
k fur
m ore
r ise
u pper
u ice
ĠA unt
ĠF in
ach ed
ĠH ell
ĠN e
Ġcol ander
Ġmois ten
Ġrot ini
etiz er
ĠSea f
ielbas a
ĠUps ide
! )
Ġ ass
Ġt ail
ar i
ĠA sparagus
Ġn ight
ĠW ater
ĠF ood
ĠF ashioned
Ġro ot
ĠE x
Ġpor tion
umm y
A dd
d ium
ĠC ountry
ĠM o
Ġth igh
Ġse af
Ġtoothpick s
Ġseaf ood
r on
Ġs ix
ĠB reasts
Ġ4 8
Ġchicken s
Ġco re
ĠE qual
ĠButter scotch
Ġde vil
ible ts
Ġfollow s
ĠD eep
ĠO ri
ĠK ahlua
ĠAl so
Ġcor iander
Ġartich okes
itch en
m p
r uc
ĠC ustard
ater s
ĠD redge
ĠD ouble
ĠI s
ĠRefriger ator
ous se
ĠFreez es
r ound
or ed
ĠB ay
Ġsmall er
Ġcon geal
Le mon
Ġp ressing
on d
Ġst rain
ĠR hubarb
Ġlow er
Ġspread ing
Ġsepar ately
ĠFill ing
Ġstart ing
ĠLon ghorn
i w
Ġo at
Ġd ro
Ġst em
Ġbrown ing
ĠD ur
ĠSc ald
ĠSeaf ood
3 0
m mer
an ce
or ted
Ġsu mmer
ĠI c
ĠN oodles
ĠWal nut
b an
k ee
u ds
Ġpe a
ĠB aste
Ġn atural
Ġpack ages
Ġsimmer ing
Ġsc ant
oun ts
icott i
Ġpretz el
Ġfran kfur
p le
ĠR ea
ĠD ecorate
ĠJ o
Ġdi pping
ĠVegetab les
ĠStuff ing
for m
Ġh en
Ġth ird
Ġlar ger
iv ide
ĠSc r
Ġgener ous
Ġdump lings
ĠS urp
ĠW atch
ĠSer vings
an gular
ĠM olasses
um ps
ĠH un
sa fe
eez e
ĠGl aze
cho pped
iw i
ĠDur kee
Ġb ath
ic o
Ġin cluding
ĠS ouffle
ĠD irt
ĠSt ick
ĠSt rain
ĠSh oe
ĠFl uff
ĠSc oop
Ġsqueez ed
Ġty pe
Ġthigh s
ĠIc ing
d just
r s
w y
ĠA b
ĠM andarin
ef ul
ĠL a
Ġtablespoon fuls
Ġcur d
Ġam ounts
Ġrect angular
Ġsandwich es
ĠSurp rise
Ġch ip
Ġto pped
ĠB aking
Ġcover ing
ĠTh ese
Ġcrisp y
ĠUn mold
Ġcomb in
Ġliver s
Th is
Ġc uts
Ġp istachio
Ġle ft
ĠSp ice
Ġstri p
Ġspoon ful
ame ter
c risp
n ed
p id
u x
er d
ed ish
Ġd ivide
orn ia
ef ruit
if ornia
ĠL ast
Ġra pid
Ġbubb ling
Ġdi ameter
D own
ĠC ucumb
ĠS ec
ĠP ol
ĠP ea
Ġor iginal
ush y
Ġcrack ed
ĠChe eri
Ġtort ellini
Ġ7 0
ann y
ar a
ĠC lean
Ġl in
dd le
ĠT est
Ġcar eful
Ġsc r
Ġinst ruc
ĠC auliflower
Ġgar ban
ĠJ am
ĠBe aters
Ġri ght
Ġpress ed
ĠCal ifornia
ĠPuff s
ĠCheeri os
! !
m it
re c
Ġl asagne
un n
ĠIn vert
ent al
Ġgl oss
ĠSe ven
Ġdel icious
rid ge
b all
d rained
y e
Ġm et
Ġw ish
Ġfl ank
ĠM edium
ĠSh ell
ĠEnch ilada
Ġp ine
en ough
ĠB aker
ĠP op
ĠM an
ri ddle
Ġfro thy
Ġk iwi
Ġblack berries
Ġhead s
ĠSqu eeze
meat s
ĠCoc a
ĠShe et
Ġlee ks
ĠRea Lemon
y our
Ġr ich
ĠSw edish
h alf
p re
Ġm ound
Ġf inger
Ġch ick
ĠB owl
ĠD iscard
ĠSp ecial
Ġse am
Ġoven proof
ĠH ouse
Ġk ielbasa
Ġnut meats
ĠN ow
Ġri b
Ġde er
ĠGra vy
ĠSn ick
fro zen
ĠPretz el
4 6
F ry
p ec
Ġt eriyaki
Ġg one
um mer
ĠO p
Ġan cho
Ġkern els
ation s
ĠThe y
Ġbar ley
Ġfettuc cine
Ġgarban zo
C ola
h ot
Ġw ould
Ġ2 8
Ġr ub
ĠChe ck
Ġsqueez e
obs ter
mp ty
Ġfrankfur ters
Ġ2 3
ĠS ummer
Ġl umps
Ġn ect
oc ks
pe as
ble ached
ux e
Ġinstruc tions
c em
f ingers
m s
al t
Ġf ree
Ġg riddle
us ages
Ġbl ock
Ġbott led
Ġturn s
Ġchi pped
ĠDiv an
ĠHell mann
Ġass orted
ĠAb out
cem eat
B ake
Ġc re
Ġun bleached
ot ted
um d
ĠD ust
Ġlb s
Ġblack berry
ĠGr anny
pl ain
ĠCl am
ĠIm p
ĠDe vil
Ġtail s
Ġdro pped
al ia
ĠC res
Ġn avy
Ġsl its
Ġsl otted
iff er
Ġprocess ed
ĠIce box
d ough
r ated
Ġc reme
Ġ2 00
it o
ĠSal sa
ett y
Ġgrap efruit
Ġwor ks
c ell
c rease
d en
f le
l a
Ġo mit
at fish
Ġd ecor
ĠA u
ir gin
Ġlayer ing
Ġliquid s
ĠQuick ly
Ġbar ely
C an
D o
m ent
t a
Ġf ridge
Ġl ink
Ġl ady
ĠP ark
ĠT ot
ĠM rs
ab ly
Ġcup cake
Ġset ting
Ġmois ture
Ġpuff ed
Ġd amp
id alia
ĠF at
ĠN est
Ġwor cestershire
etiz ers
Ġgu acamole
3 50
b b
Ġb atch
Ġe ither
ĠW ild
ĠSp iced
Ġpl ates
pan y
ĠGra ham
Ġwee k
Ġspring s
ĠOri ental
b eaten
Ġt ips
Ġo uts
Ġb ark
Ġf amily
Ġd ist
Ġsalt ines
ĠP ull
Ġsa usages
ĠD ill
Ġcon ten
Ġsec tion
ĠUn roll
ett es
ĠGl azed
ĠTort e
l ien
t ich
Ġb ri
ĠS un
ĠB etty
pper s
ir y
Ġthe ir
Ġsa ff
ĠCh ow
Ġju lien
Ġpec tin
Ġcl os
Ġfill ed
ĠSh ort
Ġgl asses
Ġsec ure
ĠTo pping
ig s
Ġbec ome
Ġlump y
acci oli
cell ent
f u
Ġt am
ut y
Ġ2 2
ĠM c
Ġst r
ĠR ot
qu e
ven ly
ap s
ĠK isses
Ġcont in
ĠCup s
ĠRe ady
Ġrectang les
C heese
ak y
am a
is key
Ġn ice
Ġwarm ed
Ġouts ide
sp berry
am ic
Ġso aked
Ġco als
ĠF ir
ĠH eal
Ġcornfl ake
ĠImp ossible
L ow
an ts
as ic
it ation
Ġso on
ĠK ing
Ġhard en
Ġsubstit uted
ut ney
ter ol
ĠM ustard
Ġj umbo
ie ve
da iry
Ġchil e
se ason
Ġcann ing
oles terol
Ġt ill
Ġm ed
Ġf ast
ĠD ay
ĠL aw
ĠV idalia
ĠGra pe
Ġpers immon
Ġchick peas
ĠNest le
Ġc ountry
at a
ick ory
Ġgr ate
ay a
if ici
ĠTh oroughly
ĠAr tich
ĠTort illa
Ġ X
ro st
Ġcl ub
ĠY um
Ġman icotti
iffer ent
Ġconten ts
C r
k y
Ġt est
Ġe ars
ard en
Ġrais in
ĠVelve t
ĠSo da
Ġart ifici
ĠCucumb er
Ġmet al
Ġnect ar
ĠLaw ry
2 9
k es
ĠB o
Ġv ari
ĠM u
Ġpatt y
ĠSandwich es
t Add
w he
ĠM eringue
Ġpan cakes
ef rost
ĠK itchen
ĠQu aker
ĠMon key
so ft
ĠDi abetic
als amic
Ġtouch ed
Ġrun n
F ashioned
y st
al a
Ġfl ame
Ġwh iskey
ĠW ings
ĠF ettuc
ĠGr atin
Ġim itation
Ġcalor ie
rec ipe
Ġlady fingers
o sh
Ġp urpose
ĠT ime
Ġcr yst
ri b
ĠI nd
ain s
ĠH unt
Ġsl aw
Ġcool s
ĠY east
ingers n
ĠGrill ed
Ġartifici al
F ree
Ġf illet
it i
oup e
Ġsp ir
Ġsp icy
ĠW arm
ĠL asagne
ĠG arden
ĠSm ith
ĠPr al
ĠPr ick
uss els
ĠGinger bread
Ġstr ong
F or
Ġb ed
Ġin vert
Ġon es
ĠP in
Ġv irgin
et ter
av ed
ĠPe ar
ia h
ĠSn ow
Ġplac ed
mar garine
umd rops
ĠPark ay
B ran
U ps
m ild
Ġm any
ĠP owder
ĠT ender
Ġth ere
ĠJ er
ĠTh ree
gre en
Ġpress ure
Ġcarton s
ĠDel uxe
Ġloo se
2 4
c ream
c ross
t ies
u g
Ġc ard
Ġm ust
Ġg umdrops
ĠP ies
ĠM y
ĠM ini
Ġsa ving
Ġth irds
ĠR uss
ĠF ran
iel d
fl our
Ġmarin ated
oul der
mel on
ĠIs land
g o
Ġb alsamic
ĠC ub
Ġl ots
ĠP ap
ill ed
Ġcan tal
Ġsh oulder
Ġgr ind
ĠR ing
ock tail
Ġhand ful
alor ie
Ġcirc les
unn el
ĠArtich oke
u y
re t
Ġg ets
Ġfl aky
ĠR ich
Ġ6 5
ĠIn to
ard s
ec k
ue ur
Ġnon dairy
Ġim p
ĠRa spberry
od ka
Ġt ast
at t
Ġd rink
Ġd ecorate
Ġl ove
Ġl obster
Ġh ollow
ĠM ary
ĠCream ed
ian a
Ġdo or
arb oil
ĠOn ions
Ġmold s
Ġchunk ed
Ġtes ter
Ġfettuc ine
Ġlin ers
ĠOp en
Ġcantal oupe
l s
or ch
Ġd is
Ġd redge
Ġmin cemeat
ĠM il
ĠM ac
Ġst ro
Ġcook s
ĠH ea
cl oth
ĠCom pany
ĠNe ver
Ġcombin ation
ĠCres cent
ĠHeal thy
S ueur
b aked
p es
s alt
Ġb erry
Ġm ushy
ĠC ocktail
Ġsu it
ĠS ar
ĠP enn
Ġh ickory
ĠM ag
Ġwith in
Ġst arch
Ġover la
im m
Ġk isses
li ke
ĠCr unchy
ĠK n
ĠV egg
Ġtoss ing
ĠSo ft
ĠCoc oa
ĠAltern ately
Ġpers on
ĠHe arty
F ried
l oc
t C
Ġc it
on ge
ĠC elery
Ġl os
Ġh air
Ġmix es
ell o
Ġr es
Ġr ump
ien ers
ĠL ight
ĠSa uerkraut
ens ter
Ġtopping s
Ġgl ut
ĠLe Sueur
ein z
cook ing
Ġdoes n
hy d
ĠMu enster
Ġoverla pping
I t
c he
t e
u red
Ġb amb
ar ian
ic les
it ters
Ġe qu
ĠS am
oo se
ĠP ure
ĠT r
Ġcheese cloth
Ġh ow
Ġh ock
Ġbe ing
Ġso dium
ate ver
ĠD ash
ĠW a
Ġheat ing
avor y
ĠTh icken
Ġtab le
oun der
Ġel astic
Ġsprink les
mel ted
Ġlos es
Ġbamb oo
g ry
m ents
w s
Ġc ount
Ġe as
ĠS avory
ĠB on
ow ers
ĠM iss
ch icken
Ġj ack
ĠH einz
ub ble
ĠSa ut
Ġsc orch
Ġbut ton
wh ole
ĠPick led
ĠSup er
Ġlook s
Y ou
Ġt ough
at oni
al es
ĠC a
ĠC old
Ġa d
un e
Ġv odka
Ġst ored
Ġn ic
ĠCh ess
ip loc
ĠL ou
ĠH or
ĠG old
ĠO li
iss cross
ĠN uts
ost on
ĠPat ties
Ġtes ted
Ġcontin u
. .
R oni
d uty
l uc
p ack
Ġ rim
ĠB y
Ġbutter nut
Ġh el
Ġsk ew
alapen o
ett e
ĠCal ico
season ed
? ?
M ay
in o
Ġt ex
Ġm icrow
re w
Ġd ate
ĠB uds
ĠA m
ĠA djust
ri z
ĠR ound
Ġre heat
Ġbl ade
Ġmel on
Ġk ept
est y
ĠSw irl
Ġfreez es
ĠSk im
Ġhom emade
Ġrapid ly
ĠFir st
osh er
ĠPure e
4 0
u el
Ġ es
Ġt rans
Ġf ile
Ġto fu
ĠB oston
ac ts
un til
ĠT am
ĠM ousse
Ġsh oo
Ġse g
ĠCook ing
Ġcrust y
ĠV enison
Ġput ting
ĠBre ast
ĠTur tle
Ġfettuc ini
Ġmost accioli
Ġnic ely
3 75
M ix
i pp
t and
y ou
Ġc atfish
ut es
Ġw as
Ġw ieners
Ġl g
ĠM eal
Ġover mix
Ġcl ose
ĠO ys
ĠPre par
Ġextr acts
ĠPe as
pl ants
Ġpure ed
Ġpit a
ĠCrisp y
fro m
Ġmon ths
Ġeas ier
Ġtex ture
e ight
Ġp ats
re gular
ĠB etter
ĠP o
ad le
ĠR um
ef ly
Ġus ually
und y
ĠZ iploc
Ġper for
Ġwor ms
ĠMil not
ello gg
Ġtrans luc
Ġshoo ts
n og
Ġc av
or m
ĠS upper
Ġg ive
Ġegg plants
ot e
ĠM other
ĠW ay
qu et
tt y
Ġbottom s
ree k
Ġlid s
ĠSn ack
Ġlingu ini
Ġhold s
ĠCrock er
Ġstro kes
a use
c overed
e k
Ġs om
Ġ1 9
al aya
Ġf ashion
it a
Ġd iluted
Ġle gs
ĠR i
ĠH ar
Ġtender iz
Ġup side
acar oon
ĠCho pped
Ġri g
ĠCo ke
ĠCon geal
fry er
ĠTw o
Ġnear ly
enn el
Ġplac ing
ĠBurg undy
ĠPop corn
Ġlink s
Ġbri efly
Ġtam ales
ĠHea venly
Ġseg ments
Ġtransluc ent
j uice
w are
Ġc ast
in stant
Ġs ieve
Ġt all
Ġt ransfer
re l
re at
en ce
ou x
Ġd ifferent
oo s
ĠT et
Ġche ck
ra zz
ab el
ĠH al
ĠE mpty
ĠK ellogg
ĠChe wy
Ġqu ite
Ġsc rape
Ġprepar ing
Ġtw ist
ĠZ esty
way s
Ġfour ths
Ġbit ter
ĠHerb ed
ĠTri fle
ĠShell s
ingersn aps
ĠMag ic
ĠTet razz
l aw
s liced
ĠB ra
ĠT ast
Ġh ull
ĠG ener
mer c
ĠE at
ĠJ alapeno
oss om
oul ash
ĠPast ry
ĠApp etizer
ath er
ĠPol ish
ĠTetrazz ini
m et
r itos
in ds
il ute
on y
on es
Ġto tal
ĠM ud
Ġst rained
ĠBrown ie
Ġdo g
ĠJell y
Ġdegre e
ĠMars ala
ĠMed ley
pre fer
ĠRuss ian
ĠVegg ie
R ice
l ight
l ime
Ġc oun
in der
Ġb aste
ar row
re n
Ġw il
ro ut
or r
it es
Ġg iblets
un peeled
ĠM a
ĠM az
to p
Ġn ow
eat h
ĠW ine
Ġse e
Ġapp ear
Ġit ems
iff on
ĠMash ed
ĠRe ese
Ġsw irl
pec ans
Ġvari et
whe els
ĠSam uel
ĠHor mel
ĠPrepar ation
ĠGener ously
Ġcoun ter
b ran
c ress
o at
in ter
Ġt ie
Ġf igs
Ġch utney
Ġin ter
ĠB asic
Ġn arrow
Ġgar den
ĠG oulash
Ġchil d
ĠE l
ĠJ uice
ĠFl avor
ĠSc rape
ĠRoast ed
ĠSnick erd
merc ial
N ut
S p
Ġb as
Ġm ain
am ate
Ġfl owers
ĠSp r
Ġpkg s
Ġhot s
ĠJ ud
row d
Ġdirec ts
ĠCheese burger
ĠBr unch
ĠSl oppy
Ġfry ers
Ġstew ing
ig n
ĠCont ains
stick s
Ġsn ack
Ġcutter s
Ġsteam ed
Ġburn er
ĠCub e
Ġglut amate
% )
, \
N uts
\ \
Ġp al
Ġm y
Ġf ennel
ĠC ole
Ġsu ch
Ġg ummy
ĠP oke
is ins
Ġh ocks
ĠM ama
Ġcream ing
ra ut
Ġwater melon
Ġth read
Ġwh atever
ĠH our
ent y
ĠY ellow
fec t
Ġpo ke
ang o
uk es
ĠCup cakes
ĠDe bone
Ġprefer red
Ġpear l
ĠBurg ers
Ġjulien ne
Ġspir al
ĠSar an
Ġperfor ations
ĠRi bs
Ġtenderiz er
3 25
s elf
v als
w ater
Ġ amon
in ts
Ġt ear
Ġb un
Ġp ier
Ġl abel
ĠB ou
ĠB uns
Ġsa v
Ġsh aved
ĠF ail
ĠH o
Ġpour ing
ĠBr ussels
ail able
ĠFruit cake
ĠMex ic
Ġlim as
ĠKn orr
I n
T he
v ies
an cy
on t
and ied
Ġf ashioned
Ġ2 6
Ġsa uc
Ġsh akes
Ġr oux
ĠL i
me let
ies ta
eed s
ĠN iblets
Ġcom mercial
Ġqu iche
ser t
Ġdi et
Ġcongeal ed
Ġstrain er
ĠHun gry
ĠOli ve
Ġrig atoni
f ashioned
in ity
Ġp ush
re m
ĠS u
Ġl ot
ĠT ony
ol ly
Ġwater cress
Ġsoup y
ĠL ea
ash ed
ĠIn sert
Ġ9 0
ĠWh ole
Ġk raut
Ġpre heat
Ġliqu or
ĠY ummy
ubb ed
Ġform ing
ĠTo ffee
ett i
od ium
ĠPr une
ĠMilk y
Ġwra ppers
ĠMaz ola
1 9
f inger
k et
Ġ 75
Ġf air
Ġch olesterol
Ġto ffee
ĠS und
ĠP ush
ĠT aste
Ġmar ble
ĠW on
ll o
Ġk osher
os odium
Ġpre tty
Ġlim p
ĠCur ried
Ġgloss y
Ġancho vies
Ġrunn ing
Ġamon g
Ġfair ly
f red
t he
Ġc ukes
Ġt ip
Ġf e
ĠC at
Ġd oll
ĠCh iffon
Ġse ven
ĠL ingu
ĠG e
ĠG umbo
Ġ30 3
iss ipp
ĠE ver
Ġbre aking
ĠGr its
Ġtoss ed
can ned
Ġsprink ling
Ġsaff ron
ĠLou is
fred o
issipp i
B ro
c ents
i k
t P
~ )
es ar
Ġa ir
Ġe ight
Ġl it
Ġfl ounder
ĠM or
ĠF ollow
ĠJ amb
Ġpre cooked
Ġseal ed
cl air
ĠCrab meat
ĠTw ink
Ġloos en
Ġtriang le
Ġmon osodium
Ġlog s
ĠEx cellent
ĠDevil ed
Ġdist rib
ĠMiss issippi
ĠCa esar
ĠTam ale
ĠSund ay
ĠJamb alaya
o id
t Bake
ĠP are
Ġbe et
ad a
Ġse ts
ĠG reek
Ġra bb
ĠV inegar
ĠDiv inity
Ġsliver s
Ġshap ed
ĠMed al
ĠFin ely
ĠSnickerd oodles
Ġrabb it
7 0
u f
Ġ #
Ġb ow
il af
Ġe igh
Ġd efrost
der ful
th aw
Ġco d
ĠD ry
ĠL oos
uff ed
ep ending
ĠE clair
Ġlow est
ĠTh in
Ġcur ls
Ġlime ade
Ġcrisp ly
ĠCo pper
ĠPec ans
cr ust
ĠPeach es
Ch eddar
hy llo
Ġad v
prefer ably
Ġinter vals
Ġsav ory
a u
Ġs or
Ġb ubble
Ġp hyllo
Ġm ousse
ut ion
ro s
he aping
Ġh ens
ad am
ri end
ĠSt r
ber g
ĠO kra
Ġz iti
Ġkeep s
ĠCl ose
af ing
ĠFr itters
add ock
Ġpuff s
Ġwra pped
ĠTri ple
ĠCur ry
Ġcit ron
d ay
h n
i gg
t eg
y l
er to
Ġm ango
Ġin s
Ġd ent
ĠB or
ĠP or
us el
ch er
Ġcr isscross
Ġcup cakes
ĠL og
ĠE ar
Ġout er
ĠSh ould
ĠBr isket
iv al
ĠSm ooth
Ġdel i
ĠJo hn
Ġmound s
ĠPap rika
ĠCongeal ed
adam ia
2 3
h od
es to
ĠC or
ĠC erto
th is
ĠL en
Ġ5 00
ĠIn crease
ĠG u
ress o
ĠCorn ed
Ġscall ion
Ġfollow ed
ĠCl ass
Ġrot ary
St yle
bro wn
Ġcryst als
ĠSpr ite
a ver
g round
i ves
r ant
Ġt en
al ina
ĠC ow
ĠS im
ĠT oll
ĠM ock
Ġgr inder
ĠR ib
Ġco b
ĠF iesta
Ġra ise
ĠV eal
Ġthick er
Ġunc over
Ġgl azed
ĠTo st
ĠSeason s
az el
mix ture
ĠOver night
ĠMo isten
ĠScr ub
teg a
. ,
d rain
o b
v i
Ġ1 15
Ġp atter
re usel
ĠC ottage
our met
ĠS esame
Ġl ift
ĠB ell
ĠP u
ĠT ie
Ġst arter
ĠCh ips
ĠW ipe
Ġre ally
Ġcorn ers
em iah
ag ed
Ġsl it
Ġtablespoon ful
Ġdes ire
iel ds
Ġchill ies
ition al
Ġlength s
Ġpr ick
uy ere
Ġdis app
ĠBou quet
Ġpatter n
d ried
s k
Ġ ato
in cluding
ĠS ch
ĠT ang
ĠA mar
ĠM ill
ver ted
Ġst ay
et to
qu ettes
ars ely
ach os
av able
Ġverm outh
ĠFin ish
Cr isco
Ġvariet y
ĠCat alina
Ġato p
ĠAmar etto
r ins
w ell
x x
Ġc oll
Ġt akes
Ġm g
Ġch afing
am ous
Ġsu et
Ġe ar
ĠP ers
ĠP arboil
Ġche wy
ver age
Ġst e
ri e
Ġingredien t
ĠF our
Ġstir red
ĠLet t
ous and
uck y
ĠQu arter
ĠMon te
ĠRep lace
Ġmoder ately
ĠOr tega
amb led
ĠRe heat
ond ue
Ġclos ed
Ġes c
ĠLouis iana
Ġeigh ths
ĠLoos en
D i
o ep
w ick
Ġb ird
gar ian
un k
Ġflour s
ol og
Ġgr ams
ĠD oll
if ied
ĠL adle
Ġapp etizers
ĠButter finger
ĠSw ans
ĠGr uyere
Ġform ed
ĠFro m
az y
ĠOn ce
Ġseal ing
ĠEng land
ĠApp etizers
Ġburn ing
Ġplum s
Ġancho vy
ĠRot el
att ice
ĠOys ter
oep eg
B e
b oy
d e
r ito
t ein
Ġs ol
es tern
Ġp enne
at ive
Ġf unnel
ĠC andied
Ġ2 1
el ow
ĠB ac
ĠB asil
Ġh addock
et imes
ĠSp areribs
ĠF il
ĠTh ousand
Ġmash er
Ġcereal s
Ġav ailable
ĠFreez er
uns wick
ĠMarin ade
Ġbec ause
ĠBlack berry
ĠMar garine
ĠCrack ers
ĠShred ded
St ir
Ġfinish ed
ĠJo es
Ġscorch ing
Ġmicrow avable
ĠClass ic
g n
u da
Ġw edge
ĠC rawfish
or d
Ġe ating
Ġd r
ac os
Ġbutter y
ill y
Ġst one
ĠR un
ush ed
Ġre heated
igh ts
ĠF ive
Ġ8 0
ĠG i
eget arian
ott om
Ġapp etizer
ĠO at
ĠE ach
ĠK ey
Ġpack aged
ĠTh an
Ġthrough out
so dium
Ġav oid
Ġdiagon al
Ġfit ting
be ef
upper ware
ĠSu ey
ival ent
ĠCow boy
Ġsol ution
1 00
B utter
O r
b ble
c innamon
c rew
s uch
Ġs im
Ġs ouffle
Ġt rout
Ġin crease
ro c
ĠC as
ak en
am ble
it as
ĠCh ach
Ġsp onge
ĠSt ack
ĠF amily
ĠF amous
ĠStir ring
ĠL o
Ġal ready
Ġsyrup y
ĠE le
ĠK ool
Ġcom ino
Ġdirec t
ĠBr unswick
izz as
Ġpo ints
ĠCo arsely
ĠMin t
ĠMay onnaise
bon eless
ĠSk or
Ch o
ĠBar rel
Ġrub ber
ĠPin wheels
ĠMac adamia
Ġhel p
Ġskew ers
ossom s
thaw ed
ĠLett uce
M ex
O s
z y
Ġb al
Ġf ries
ĠP ic
Ġegg nog
Ġh oliday
ra pped
th a
ĠR ock
ĠD own
ur ch
Ġsp ace
Ġsp ecial
ĠL oaves
ks crew
ĠPre go
Ġtow ard
oy u
Ġbreak fast
Ġspri g
mb ros
ĠDough nuts
ĠPer rins
Ġdevil ed
acaroon s
ĠTwink ies
olog na
C ook
m in
o ins
u gg
u riz
Ġ 0
Ġs ack
ic ro
Ġl attice
ĠP art
un che
ĠT arts
Ġsh oyu
ĠD rops
st ir
ĠL ef
ĠL azy
Ġsour dough
ĠG oo
Ġro ws
ul ts
est ive
ĠN umb
ĠBoil ed
Ġcenter s
oun ce
Ġturn ips
ĠSeason ing
ĠAl fredo
Ġgrain s
ĠPer fect
bro ccoli
Ġbatch es
ĠPral ines
Ġjack ets
Ġhull ed
ĠJud ges
ĠMexic orn
ĠGe or
Ġdent e
roc ery
ĠChach ere
mbros ia
uriz ed
S our
U se
e ach
m an
y ellow
Ġ .
at zo
on icles
gar nish
ĠS liced
ĠB le
ĠP arsley
ĠP rim
ĠP ort
ĠP ier
ri p
gh um
Ġco gn
ĠSp am
Ġse ams
ap ed
ĠK id
Ġjell ed
par ed
pe pper
Ġpaste urized
ount ain
Ġfreez ing
Ġpart ly
Ġmarin ara
ĠChr onicles
ĠAn n
Ġbur ger
Ġwil ted
Bro ccoli
ĠMor ton
Ġadv ance
ĠMill ion
Ġcogn ac
A id
F ro
c alorie
y ed
Ġt r
Ġp ouch
Ġch ar
ĠB uff
ĠT upperware
ĠA mbrosia
ri ght
lic es
Ġr ising
Ġr anch
ip ing
ag ne
end s
Ġhe av
ĠJ oe
ĠSa uc
ĠN acho
ee bler
ke ts
sc ant
amp i
amp agne
Ġcor kscrew
ĠSteak s
ĠRe ub
cr ushed
Ġabsorb ent
ĠGrand m
ĠBur ger
Ġoverb eat
Ġsw iss
ĠHun garian
ĠJer emiah
ret ch
Ġequ ivalent
ĠHal ve
aver a
unche on
ĠBle u
J ell
b ake
k ing
u v
v al
Ġ1 50
Ġb elow
Ġf all
Ġa djust
ĠM ein
ra d
Ġwh at
im a
ves t
ĠF ast
Ġremain s
ul t
Ġlayer ed
Ġwa ffle
Ġthicken ing
ĠGr ated
Ġbr ick
arin a
ĠSc atter
ĠSc otch
Ġgarnish ed
Ġallow ing
Ġrep lace
Ġtenderl oins
ĠPenn ies
ĠPo or
Ġsauc es
ĠPrim avera
4 5
W h
b aking
c ini
d epending
l ightly
r ich
Ġb undt
Ġb uds
Ġp iping
al o
Ġch owder
ing ton
pp ies
ĠC ap
or i
or tening
or iz
ĠS kin
Ġg umbo
ĠP ar
ĠP ile
Ġfl ute
is ts
Ġh o
ĠM ound
ĠM aple
ri or
Ġth umb
ĠR os
ĠR ings
ab obs
ĠH umm
over s
Ġk itchen
ress ed
Ġpl enty
ĠGr an
ĠFl uffy
ĠPepper oni
Ġpit cher
Ġdust ed
Ġclos ely
ĠPral ine
Ġtast es
pack ed
Ġchild ren
Ġbas ket
Ġdefrost ed
ĠEar th
Ġbal ance
ĠReub en
3 5
g resso
n ic
p r
w al
Ġw ere
ic al
sp ace
ĠC acci
or f
Ġ2 25
ĠS yrup
Ġpe ek
ĠP ilaf
un beaten
ĠT re
ĠA v
Ġcho pper
ĠM ore
ato re
Ġsa ut
ĠCh ile
Ġco ats
ĠH ill
ĠK ings
Ġwa it
Ġhead space
Ġbut t
ĠSc ampi
Ġkeep ing
ĠSugar less
ĠCrisp ix
Ġbrush ing
ĠWal d
ib ut
Ġpro tein
ĠStr ata
Ġheav ily
Y ields
b a
t ime
an ese
ut h
ĠC ore
am om
Ġg rocery
Ġfl oat
ick el
Ġst ream
ĠW e
ĠW il
qu ake
ĠG ingersnaps
ĠWor ld
ĠK iss
ĠK eebler
ĠN ote
ĠY ogurt
Ġcol a
Ġde hyd
Ġcur rant
erm uda
und les
Ġcomplet e
alor ies
mix ed
ĠMar tha
ĠShe ph
butter ed
ĠWatch ers
Ġsaff lower
Ġcard amom
Ġcav ity
Ġlit er
ĠPor cup
ĠLen til
ĠPers immon
ĠWald orf
E yed
T o
g ed
m m
y n
in ai
en e
Ġw atch
le ase
ĠC arb
Ġe mpty
Ġd ab
Ġd uck
ĠS and
ĠS ure
ĠB one
ĠB rie
ĠB ermuda
ĠM ountain
Ġst or
ĠR abb
Ġr is
ĠD ried
Ġre qu
ĠF ant
ĠL ift
Ġdrain ing
ĠWh ipped
Ġk inds
tt e
ent ucky
ĠBl ond
ump ern
gre tte
ĠSl ush
elve eta
Ġgran ola
ĠCar ol
ĠFor g
ah um
Ġprun e
ĠTw ist
Ġdel ic
Ġreach ed
Ġtray s
ĠStick s
Ġcard amon
imm y
Ġres ults
ĠHar vest
Ġdoll op
ĠLingu ine
Ġsor ghum
ĠSim ple
ĠRib bon
ĠGi ant
ĠLef tover
ĠEarth quake
inai grette
ĠRabb it
a ith
f ine
i od
k ins
p art
s kin
w ill
Ġ ??
Ġb ologna
Ġp rior
al i
Ġw inter
ĠC oles
ĠC alories
ĠB ea
ĠP istachio
ch a
Ġn eck
Ġ4 75
ĠR ap
ĠD ean
st raw
ap anese
Ġpec k
sh ine
Ġpl ant
ĠE nd
ĠK entucky
ĠSh oepeg
ee k
Ġtub es
Ġkn ives
ort ant
ĠDe er
Ġfran ks
Ġpro d
Ġscr ambled
ĠInd ian
ĠCas hew
ĠNumb ers
umpern ickel
ĠColes law
f in
g ing
k eep
l ap
m ade
n y
Ġ els
Ġc all
Ġs ink
re ts
al let
ĠC alorie
as o
ĠB erry
ĠP icante
gg y
is ed
Ġv eg
Ġst ep
ĠD anish
Ġse ems
ĠSt reusel
ach ine
ĠG ourmet
sh ip
Ġ13 0
ĠO melet
ĠJ immy
ĠY ork
ĠBe gin
Ġice berg
ock et
ĠSc ore
Ġherb ed
bl ack
ĠMin utes
ĠSour dough
ĠPick le
ĠFrost ed
ĠSm oked
ĠTort ellini
ĠBur ritos
ĠStart ing
Ġlee k
Ġscr ubbed
ĠGu acamole
ĠCacci atore
P e
a que
b ack
g rain
h o
p ie
s ter
Ġs izz
an a
Ġm allet
le e
ĠC ra
ĠS lices
ĠB its
ot ten
Ġbro ad
th in
ack y
Ġse a
ĠSt arter
ĠF ashion
ĠF estive
ent he
Ġpl ump
ĠJ ew
Ġthick ly
ĠN ahum
Ġspoon s
ĠDo g
ĠFill ed
Ġop aque
Ġench iladas
ĠCl ub
aff y
Ġdep th
Ġgall ons
ĠSnick ers
ĠShort cake
ĠFettuc cine
orm ick
ĠTast es
Ġpal m
rem ove
Ġins ides
Ġdisapp ears
wal nuts
ĠSheph erd
ĠForg otten
Ġels e
2 2
A l
C al
C ormick
O T
a x
b atter
b ird
f etti
i or
k ay
m ushroom
s et
Ġm atzo
and a
Ġch oriz
ing bird
Ġto st
Ġl o
is ter
Ġv ary
ĠA head
ri pe
Ġsa ved
ars n
Ġcon verted
ĠJ an
act ing
ĠSl ightly
ĠFl akes
Ġcauliflower ets
Ġfold ing
ĠMon ster
ĠHam burg
ĠRa isins
ĠBroil ed
ĠPro gresso
Ġbeater s
ĠAn y
ĠScr amble
Ġjulien ned
It alian
ĠDoll ar
ĠSauc y
ĠHumm ingbird
ĠGran ola
Ġ?? ?
ĠRap id
M in
P ec
c heese
g ur
r us
Ġt e
Ġt aken
il ar
Ġf aith
Ġ2 9
Ġsu ey
Ġsu per
ĠB ites
ĠP aso
is bury
Ġh ome
ch ange
Ġ4 6
col ored
ĠD ilute
ĠF ingers
amon d
ber ally
edd ing
Ġmeat y
sh arp
ore n
Ġex act
Ġsl ushy
Ġtender s
ĠSal isbury
Ġpack s
Ġen rich
10 5
ĠBe ets
Ġbr ine
Ġcres cents
lec t
ĠTw in
Ġdiscard ing
ĠMold ed
Ġcontinu ously
Ġfile ts
Ġdistrib ute
igg er
ĠTost itos
ĠPart ially
ĠGrandm other
ĠTre ats
Ġdehyd rated
ĠCra zy
Pec an
3 00
4 00
B atter
L ayer
R ise
an ted
es h
Ġp esto
Ġp umpernickel
Ġm e
Ġf riend
ĠB ag
ĠB ourbon
Ġfl uted
ĠT eriyaki
ĠT acos
Ġh azel
ĠM orning
Ġst ar
ad ian
Ġsh aking
Ġth inner
ĠR aw
ĠMix ed
Ġco le
qu id
ress ion
Ġcher vil
Ġfin al
Ġyou ng
sa iah
Ġjelly roll
ĠWash ington
Ġsift ing
Ġrot ating
ĠSouth w
ĠStick y
Ġcombin ing
ĠSec ure
ĠMan icotti
ĠJer ky
ĠWa it
Ġesc ape
Cho colate
ugg ets
6 0
C orn
S h
f ried
g i
s ee
t Stir
w rap
Ġp uffy
Ġp ocket
Ġp arsn
Ġm ill
il le
Ġf eed
Ġf rench
Ġf alls
ĠC rowd
Ġd irt
ĠS ue
Ġg izz
ĠB ut
ĠB ig
ĠB irds
ow s
ĠT art
ĠA d
ĠM ost
Ġor zo
ch i
ve get
Ġle g
ĠW aff
ĠW edding
ef ish
ĠL or
ĠL arge
Ġbread s
ĠH ush
ĠG o
ĠJ apanese
act ur
Ġdes ign
ĠCho ice
Ġturn ip
Ġpick led
co al
ĠMeat ball
Ġbroil ed
ĠTw ice
cho colate
Ġtouch ing
aj itas
ĠHom iny
Ġman uf
Ġ23 4
ĠSun shine
ĠShort bread
ĠBo b
Ġequ ally
sk im
Ġdirect ly
ĠBuff alo
Min ute
Ġenrich ed
Ġmanuf actur
f ir
f tened
g ian
p ut
r one
t w
v anilla
Ġs na
Ġb ra
Ġb ush
Ġm l
Ġm ot
Ġm em
on ion
Ġin c
Ġin t
it ies
Ġa corn
Ġd ra
Ġl ose
Ġl uncheon
ĠB ottom
ĠP ink
Ġfl u
Ġst retch
ĠR eal
ĠCh oc
Ġr ather
ĠD r
ĠD uring
ĠW eight
im p
Ġju icy
Ġsm ashed
ĠH ollow
ĠG en
asser oles
Ġk iss
Ġ12 0
est rone
ĠE v
ĠE sc
ĠE ye
ĠBe er
Ġice box
Ġstal e
Ġcur ly
ĠRo ad
ĠDel ights
Ġhor iz
Ġind ent
ĠCro quettes
Ġcirc ular
Ġprefer ably
with out
Ġopen ing
gin al
Ġwra pper
Ġgo es
ĠPretz els
ĠMo ist
Ġdecor ation
Ġdist illed
Ġsecure ly
ĠMc Cormick
Ġtast y
ont ally
Di abetic
Ġchar coal
Ġho isin
G reat
R a
S weet
a o
d ew
e en
f oil
l on
t S
t ine
t ain
Ġc our
Ġc rowd
Ġc asseroles
an ger
Ġo val
Ġo kay
Ġp arboil
Ġm enthe
ĠC av
el le
Ġ3 70
Ġd ilute
Ġpe t
ĠB ush
un ior
ĠT sp
ĠM ade
Ġsh iny
Ġso ggy
ast ed
ĠD ew
im um
ĠSp onge
ĠSt ep
Ġal ways
ĠO ut
Ġcover s
ĠE d
Ġdough nuts
Ġli king
ĠJ oy
Ġus ual
ĠTh row
Ġstand s
ĠU p
Ġhoney dew
Ġmelt ing
ĠQu es
so ftened
ĠCan adian
ĠMin ce
ĠWal nuts
Ġeat en
ĠLon don
ĠMo cha
ĠTast y
ĠBor den
ĠPu ppies
ĠTang y
ĠFil lets
Fro m
Ġflu id
P ineapple
b eat
c ous
d y
h ard
Ġs lee
Ġm achine
Ġf ancy
Ġw eight
Ġa j
Ġe ye
Ġsalt s
ĠP ace
un sweetened
un ky
Ġv ent
Ġh us
Ġcr unch
et h
ab l
ef in
ĠSt and
ĠCook ed
ĠL amb
Ġ5 7
ĠH old
ĠH alf
Ġhal ibut
Ġex cellent
tr act
Ġthick est
ĠN OT
Ġother s
ĠBr ick
ous cous
ĠCorn ish
ĠFl oren
ĠMon de
ocad o
Ġbul gur
app les
Ġequal s
Ġtri fle
ĠRom a
Ġmon th
ĠPl um
Ġwon ton
ĠRot ate
.. .
Ġsom etimes
Ġpier ced
ĠWon derful
ĠSwans on
ĠEle g
ĠRapid Rise
Ġmanufactur er
Ġint act
A pple
m ake
v it
Ġc ould
Ġt ines
Ġf r
sp ray
ĠC atfish
as ant
Ġa while
Ġg ingersnaps
Ġl imes
ĠB ing
ĠB aby
is ters
Ġbe verage
om m
ell en
to gether
um sticks
Ġj oin
st uffed
ĠSp ring
qu ef
ole o
ĠL ittle
ĠL iver
ĠH ard
Ġtender ness
ĠE aster
Ġup right
ĠK abobs
Ġjell ied
Ġpeel ing
ĠSh ortening
Ġqu ant
Ġsc ore
Ġbre w
ud e
Ġpart ies
ĠNut meg
wh ich
ĠMuff in
ĠDi et
ah ini
ĠSm other
Ġrese m
Ġtin foil
Ġshall ot
Ġpull s
Ġdeve in
Ġscrap ed
ĠTot al
Ġrunn y
Ġimp ortant
ĠWa fer
ĠHo bo
ĠCor don
Ġear ly
Ġsim ilar
ĠRock y
uv res
rad itional
Ġexact ly
Ġgizz ards
Ġhoriz ontally
' re
G ood
S w
a vings
d eep
g y
g ers
i ke
s oup
t D
w rapped
y es
Ġm ine
Ġm outh
il t
il ver
Ġw ing
Ġw anted
pp os
or ange
it ely
ĠS ix
Ġsalt y
oo ps
ĠB av
ĠB oy
un baked
ĠT own
ell s
ad ine
Ġcr isco
Ġsh elf
Ġsh avings
ĠR ellen
ĠD ole
ĠD efrost
ĠI saiah
Ġcrumb les
ĠL ima
ĠG et
sh aped
av a
iz es
ĠO ats
ĠJ if
ĠBl ossoms
ĠN ot
Ġqu ail
rop ical
ĠSl it
Ġcontain ing
ĠBis que
Qu ick
ĠNut ty
ph ant
Ġindivid ually
Ġmeas ured
Ch icken
ib b
Ġster ile
Ġbur rito
ĠTender l
Ġskew er
Ġris es
Ġprod uc
ĠWaff les
efin itely
B l
p ineapple
p acho
s our
s to
u gs
in ess
Ġs at
Ġt ong
Ġt aking
ar ro
il a
Ġch ange
ic us
le ans
le ave
Ġ2 7
Ġsugar ed
ĠS ub
ac es
ac ing
ac ao
ĠP izzas
ĠT en
Ġun roll
ra ine
ch erry
um e
Ġj unior
ĠCh utney
ĠCh olesterol
ĠD ark
ĠW acky
ĠI da
Ġsm ok
ĠF oil
ĠF ree
ĠL ite
ĠG el
Ġser ves
Ġapp ears
ĠE very
Ġdough nut
Ġli berally
Ġup on
ced ure
ĠPe ek
ĠN achos
ĠY ams
Ġcontain s
Ġturn ed
ĠDo gs
ĠRo quef
ĠFl ip
Ġdri p
ĠSc ones
sc i
az pacho
ĠAl a
Ġflat tened
ĠStraw berries
ĠOr leans
Ġgrill ed
Ġprefer ence
ĠWork ing
Ġpro cedure
ĠOri ginal
Ġcre pes
ĠPowder ed
ĠBon n
Ġcoll ard
Ġste el
ĠGoo ey
ĠKid s
Ġparsn ips
veget able
ĠLor raine
Ġmem bran
ĠFloren tine
vit icus
Ġresem ble
ĠBav arian
ĠRoquef ort
" )
A pp
D on
P re
\ .
c al
d own
g l
l t
l uck
n old
n ier
t i
t or
Ġc ouscous
Ġt ry
es law
il s
Ġch oose
ĠC it
Ġsu p
it ter
ac c
ĠT ry
ol f
us ters
ĠM ust
ra ps
om ato
Ġsh o
up s
ĠD eath
ĠW estern
ien t
Ġse m
ĠL ily
ĠL obster
ough y
em p
Ġra vi
anan as
ĠTh at
Ġpeel s
ĠSh erry
Ġchill i
per ial
Ġpick s
Ġhand fuls
ark ling
ĠSc rip
Ġpart icles
Ġagain st
Ġback fin
ĠMin cemeat
Ġskim med
Ġac id
Ġac ini
egg s
Ġflower pot
Ġind efinitely
ĠSm all
ĠIm perial
Ġcas ing
ath y
Ġdep ends
ĠHell o
round ed
Ġcre ate
Ġfast en
ĠFettuc ini
Ġcontinu ing
ĠPier ce
ĠAv ocado
Ġcall ed
ĠJew ish
Ġhazel nuts
Ġravi oli
ĠScrip ture
B aked
L ime
M ake
a is
a ppy
b ook
b ite
c on
g ran
t ou
t Mix
w heat
er ne
Ġm acaroons
ut to
ou ille
Ġf ondue
ĠC ider
ĠC rispies
as ts
Ġe le
Ġg ent
Ġg ame
Ġfl esh
is ette
ĠT affy
ill ing
ra isins
Ġst eep
uc key
Ġcr imp
Ġth row
Ġgre n
ĠR ye
ĠCh uck
ĠCh erries
ĠCh abl
Ġr icotta
col or
ĠD olly
ĠW ish
ĠW inter
ien ce
Ġcorn er
ĠF ix
ĠF ull
ain t
Ġbl ocks
ĠH oll
ough t
ĠIn stant
ĠG azpacho
Ġcar bon
Ġcrack s
Ġshred s
ĠO le
Ġpudding s
Ġpour ed
ĠE tou
ĠTh ank
Ġstand ing
Ġcol eslaw
ĠButter cream
Ġbr isk
ĠCar ne
ĠCon fetti
Ġany thing
Ġinser t
stit ute
Ġtowel ing
Ġget ting
ĠPh illy
ĠMar nier
Pot ato
Ġstem med
ĠCucumb ers
ĠSec rets
Cr ust
ĠBo x
Mix ture
Ġpal ms
Ġpier ce
ĠThin ly
yl v
Ġdelic ately
ĠMost accioli
ĠTenderl oin
sci utto
ĠChabl is
' ll
( "
2 6
4 8
A merican
C ream
E gg
E asy
O range
R itz
S a
S ugar
b ut
b bits
f a
f old
h er
l er
m ber
Ġc ray
Ġt uck
Ġo melet
at el
and el
Ġf ig
Ġf ield
Ġch ampagne
Ġw he
ic ally
le vel
or iginal
ĠB un
ĠP arm
ĠT ropical
Ġun p
Ġv ol
Ġv egetarian
ot o
ĠM e
Ġcream er
Ġcan e
Ġsauce pot
Ġwh ere
ĠD O
Ġsp iced
ĠW et
ĠF inger
ĠF unnel
ĠF ondue
Ġx xx
ĠH el
Ġra bbits
Ġpap ers
Ġhe art
Ġsc iss
Ġri p
12 0
Ġ16 0
ĠDo zen
ĠUn wrap
Ġscall op
ĠEgg nog
Ġuns liced
ĠMin ts
ĠMin estrone
Ġcons ider
ĠDor ito
cl ude
Ġstack s
Ġwon derful
Ġbur ritos
ĠFin ally
ĠLast ly
Ġpine apples
ĠDill y
Ġtam ari
ĠMini ature
ĠLi ke
tP our
ĠGeor g
ĠHill shire
Ra isin
Ġparboil ed
ppos ite
ĠCit rus
Ġsup reme
Ġgren adine
; \
I nch
M ar
O ne
c over
d iced
i as
p let
Ġs ilk
an ks
an ia
Ġt end
Ġo pposite
Ġm aker
le af
ĠS uc
ĠS ome
ĠB arb
Ġfl ip
Ġh um
ĠM icro
all on
ad o
ri en
Ġsa fe
ĠR uth
col d
col ator
Ġsp l
im an
im ate
umb er
me mber
ink s
ĠH ome
Ġcar ob
Ġdry ing
we gian
Ġal one
Ġsl ight
ĠJ ar
Ġpre vi
ew h
ĠRoll ed
oc kets
ĠMel ba
Ġfin d
ĠY our
Ġstand ard
ser ving
Ġtub s
Ġhand led
Ġneed s
Ġend ive
Ġpat ience
Ġper iod
Ġconcent rated
ĠDri bble
Ġscal d
uch en
Ġdoub les
ĠPro sciutto
Ġkind ness
ĠCres cents
hyd rate
ĠFant asy
ĠBlond e
ĠCarol ina
Ġchoriz o
ĠEleg ant
ĠSmother ed
Ġsem is
ĠEtou ffee
Ġvol ume
ĠGeorg ia
' ve
P am
_ _
a gg
c le
c us
g rated
i ber
m ly
p owder
s on
s al
t ips
in ce
Ġt ied
Ġp arch
Ġp ale
en ized
ou ff
Ġf arm
ĠC ast
Ġd ec
Ġd oves
Ġg as
Ġl a
Ġl unch
he asant
ĠB our
ĠB ananas
ĠP aul
Ġun mold
Ġh a
Ġh un
Ġfor ks
ch uck
ri ps
Ġn achos
ĠCh i
ĠCh est
Ġr ubbed
ab isco
ur st
ĠW edges
Ġre g
ĠF le
ĠF it
me as
Ġbread sticks
Ġdish pan
em ber
Ġro pe
Ġab le
ore an
Ġex change
ĠBro th
ĠO w
ĠE sp
ĠE ven
Ġsqu ir
Ġsweet en
ĠV ien
ĠTh ere
oc onut
ĠN ana
ĠSaute ed
Ġsc atter
Ġq ts
Ġkid s
ĠAr m
og enized
ail y
pl us
ĠZ iti
ĠSo y
Ġdi amond
Ġpound ed
Ġknead ing
ĠGl or
af ers
Ġfrost ed
aj ita
ĠToast ed
ĠStro mb
ĠWheat ies
St uffed
ĠNe iman
ĠEx tra
pec ially
ĠSun da
ĠMc Butter
ĠPin to
ĠSaut erne
ĠAm ish
Ġes pecially
ĠOys ters
Ġ26 0
ĠPorcup ine
ĠBea u
Ġveg ies
anda ise
Ġbush el
ĠEv ans
ĠRellen os
ĠGel atin
Ġcarbon ated
ĠParm ig
Ġxxx x
Ġsemis weet
! ).
1 10
F rench
G r
K ay
O n
f ollow
h an
r it
t Sp
Ġc ured
Ġs ilver
Ġs izes
Ġt ater
es is
Ġm ess
re ak
re ng
and ing
Ġf un
Ġw id
Ġw ipe
ic a
ic ient
sp rinkle
ĠC ereal
am arina
Ġe ff
Ġd red
Ġd aily
Ġl adle
ĠB el
is ch
ĠT reat
us ci
ra ight
om ar
Ġth ough
Ġgr oup
Ġr inds
st anding
ef lon
ĠSp ry
ĠL in
ĠL ush
rink les
Ġsl ab
ĠO R
ĠK ielbasa
ĠBl ender
Ġsmooth ly
ĠY am
ĠSh oo
ĠBe et
Ġother wise
Ġlett ing
ĠBread ed
ĠButter nut
Ġevapor ates
Ġpo d
Ġtw ists
erm its
ist rib
ĠSe lect
ĠCon fection
Ġstock pot
Ġbroil ing
do bo
ĠScallop s
Ġsteam er
Ġdep ression
Ġwork ing
ĠPl ay
ĠPl ain
Ġmet hod
Ġomit ting
Ġcontin ually
whe el
Ġcryst all
Ġimp ro
riz e
Ġsom ewh
Ġdr umsticks
Ġholiday s
ori da
ĠChoc o
Ġindent ation
Ġslee ve
ĠHoll andaise
Ġsciss ors
Ġconsider ation
ĠOw ens
reng th
B est
B one
B ean
V ery
Y ield
a fter
b anana
c ub
g an
h erb
i ar
i ger
p or
p ound
r ice
r ano
s lightly
u ke
w urst
Ġ =
in om
in tz
Ġp li
Ġm ush
on ly
Ġf ix
ro ot
Ġsu ff
it al
Ġd ots
ĠS ol
ĠS ens
Ġg oose
ĠB ubble
ĠP ass
ĠP rize
Ġfl uff
ĠT akes
Ġun if
ill i
ĠA ut
Ġmin ce
Ġh er
Ġst raight
Ġn ine
Ġmar k
th ird
ĠR ey
ĠCh ar
ĠD ad
ĠW afers
im ent
ĠSp eed
Ġju g
Ġse ash
ĠSt ar
ĠF ool
ĠF ries
ĠF riend
if th
ass ail
ap es
ach er
Ġcar e
sh ould
Ġal together
os ition
Ġex p
Ġole omar
ĠE venly
ĠBl anch
ĠV egetarian
ĠV inaigrette
ĠChe ws
ĠN abisco
issol ved
Ġsc oops
reez e
Ġspoon ing
Ġcolor s
uck le
Ġhand ling
ĠCorn meal
ĠFl orida
Ġdri bble
ĠLe viticus
ĠCon go
stit uted
ĠPet e
ĠCl oves
ĠSm ok
Ġhom ogenized
Ġdel uxe
crumb led
clu ded
ib by
Ġscoop ed
ĠSteam ed
Ġbur gers
Ġscr ub
!! !
Ġdamp ened
Ġsection ed
Ġfe et
pr int
ali ano
ĠBrick le
Ġproduc t
ĠBonn et
nold s
Ġgent le
ĠFle isch
ĠSunda e
Ġsomewh at
inom oto
Ġunif orm
ĠRey nolds
ĠSpeed y
Ġoleomar garine
) *
3 1
4 50
C he
F ly
N oodle
O e
R emove
S oup
S ave
a ur
l ayer
n eck
o pped
r at
w ood
Ġt ahini
Ġo ur
Ġb is
Ġb undles
Ġp res
Ġp roof
Ġm atch
Ġm icro
at i
al mon
al so
ou d
Ġw e
Ġto ts
sp ic
le mon
ĠC rinkles
as ing
Ġa verage
Ġe yes
ĠS ilk
ter y
oo t
Ġun seasoned
Ġun pared
Ġv elveeta
Ġcho y
ĠM ark
ch atel
um n
Ġsh anks
Ġth ing
Ġover lap
ĠD uck
Ġsp arkling
ĠW el
Ġre lease
ĠF ri
ĠF ud
Ġy et
if ter
ĠCook er
ap er
ĠL ace
Ġwhit efish
ĠH ors
ĠH appy
Ġcl ing
ĠSer ving
Ġk ale
ĠCr isscross
ĠPre p
ĠJ u
ĠK et
Ġus es
ĠIt aliano
Ġcont ro
ĠPot luck
Ġsc raps
ĠRo y
Ġcro iss
Ġpinch ing
Ġcann er
ĠFor est
Ġrec on
Ġrec omm
ran ging
Ġfil o
ĠCaram els
ĠCrisp s
ĠKra ut
Ġits elf
ĠNor wegian
Ġfit ted
Ġstring s
ĠPl us
Ġgo at
Ġgo ing
Ġdro pping
Ġlin er
umd rop
Ġdecor ative
ĠGraham s
ĠFettuc ine
flour ed
Ġhollow ed
tC over
ĠRound s
Ġcheck ing
eath er
ĠLingu ini
uf chatel
Ġcoll ards
ĠPic nic
ĠFast en
Ġreplace ment
straw berry
Pe pper
Ġsna pper
Ġcour se
Ġaj inomoto
eth ing
spray ed
Ġjoin t
Ġbrew ed
lt imate
Mar cus
Ġparch ment
Ġreg isters
ĠVien na
istrib ute
Ġsuff icient
ĠFool proof
ĠFleisch mann
- -
B rien
F l
F illed
H igh
M y
d ivided
h ol
h oney
i pping
s ylv
t ip
t with
u ese
w d
Ġ Q
Ġ rain
Ġs ifter
Ġb asic
Ġp ic
Ġm ight
re ath
ut ing
ut ure
on z
Ġf ound
Ġf iber
Ġf uture
Ġch urn
sp read
Ġin cluded
ĠC rimp
am ount
ĠS ex
ĠB us
ĠB undles
ĠB uckey
ĠP ina
ĠP esto
ĠT eflon
Ġh ouse
ĠM acaroons
Ġst uck
Ġst rength
ir es
Ġn umber
Ġsh aker
Ġso le
Ġth inned
th ick
ĠR ain
ĠR ose
ie v
Ġsp ots
ip es
Ġse em
qu arts
qu ila
ĠF e
ĠF ancy
ven ess
Ġ6 4
Ġbeef y
ĠH and
ĠH azel
Ġhot ter
Ġmeat less
ant ime
uff les
Ġpl ay
est yle
Ġbo k
ĠBrown s
ĠJ umbo
ĠK u
ĠK risp
ĠK uchen
Ġpre baked
Ġsalad s
ĠV ir
ĠChe w
ĠU ltimate
Ġpick ed
Ġcro ok
Ġcomp ressed
Ġhard ens
ĠFruit ed
ĠCan ned
reser ving
Ġper colator
ĠOre gano
Ġwhisk ing
Ġfour th
Ġne ver
Ġunder standing
Ġhamburg ers
Ġsteam ing
Ser ve
ĠCol ada
atur ated
ĠPl ant
ĠCom plet
Ġfinger tips
Ġcre pe
Ġspir als
ug ula
ug uese
ĠTr ash
Ġhel ps
Ġfe els
ĠPu ppy
Ġste ady
ĠGeor ge
ĠCarb on
skin less
Ġmot ion
Ġhus ks
sto ck
Ġtong s
ĠIda ho
acc ording
gran ulated
Ġbrisk ly
Sa usage
fa it
Ġcray fish
Ġspl ash
ĠParmig iana
usci ous
Ġpli able
rat en
Ġcontro l
sylv ania
ĠRain bow
) (
. '
A r
J ack
N ote
R ecipe
b est
b ons
c ass
e er
e ge
g ini
l ers
m o
m akes
t B
w ard
Ġ )
Ġc ase
Ġs ac
an uts
Ġb ought
Ġp rop
Ġp izzas
Ġm en
Ġm ic
en ing
en da
en ted
ro ck
ĠC ab
or por
it t
it an
Ġd ef
Ġpe pe
ĠB ill
Ġun wrapped
us ed
ĠM am
til age
Ġst op
om etimes
ts ugar
ri f
Ġbak es
et hod
Ġat tract
ĠR est
ĠCh ipped
ĠCh ampagne
ĠCh unky
Ġr are
Ġr uns
Ġr oughy
ĠD istribute
ĠW assail
ĠSp l
Ġse ar
qu arter
ĠSt ay
ĠF ajitas
Ġbl ossoms
ĠH ermits
ĠG umdrop
Ġcar tilage
Ġro ck
Ġcl aw
Ġk ahlua
ĠCover ed
Ġtender ized
ĠSal ami
ĠPe ople
Ġfin ally
ĠN ight
ĠN uggets
ĠY ear
rop roof
Ġsc rew
ĠGr ass
Ġbr ittle
Ġcrab s
arin es
Ġbring ing
og i
Ġsec ret
ĠTo pped
ĠTo fu
Ġam mon
co ated
ĠSto p
ild ren
ĠGre ens
ett a
ĠBrand y
Ġcrock pot
irt y
boil ing
ĠFarm s
ĠGl ass
Ġvegg ie
ĠCol or
Ġpull ed
Ġass em
rec t
unn y
Ġbri ght
ĠMc Kay
ĠFir mly
ingersn ap
ĠPenn sylvania
ĠBra ised
Ġcounter top
Ġthread s
Ġfe el
Ġdistrib uted
Mex ican
min utes
ĠRos emary
Ġrequ ired
ĠGen esis
ĠEsc ort
Ġfr itters
Ġquant ity
App etizer
ĠCast le
ĠStromb oli
ĠConfection ers
ital ini
Ġrecomm ended
Ġpic nic
Ġcrook neck
gini a
Ġmic roproof
5 5
C ool
D el
G l
V egetab
d ark
e ver
g ate
k i
k ed
l in
l ite
n ie
p ly
u ra
u erb
z il
Ġ read
Ġc acao
Ġs ake
es ts
Ġp ol
Ġp are
Ġf ifth
it ting
ĠS ize
ĠP ate
ĠP reserves
ĠT raditional
Ġv inaigrette
ĠA spic
us ing
Ġcho pping
ĠM olly
ri a
Ġsh ank
wn s
Ġj igger
Ġgr ater
ie ved
ĠD ifferent
ur key
Ġsp ins
Ġre ar
ĠSt ring
Ġy ears
ĠL op
ĠL ee
ĠL ady
ĠL ibby
ĠL uscious
Ġbl u
Ġheat proof
ĠH i
ĠH er
Ġcon ven
ĠIn g
ĠIn n
ĠG ather
over night
Ġcl ings
ant a
Ġsl ush
ĠE ither
Ġare a
ĠV erm
ĠTh umb
ĠTh yme
row root
Ġbag u
Ġchill ing
Ġmash ing
Ġbou quet
Ġgl oves
Ġcur l
ĠDo es
Ġpinch es
Ġar ugula
Ġar rowroot
ĠFl oat
ĠGre y
ĠFruit y
Ġpat ted
ĠCon c
ĠUn der
Ġgarnish es
ĠLemon ade
for t
ines ap
Ġbul b
ĠCrush ed
ĠApp roximately
Ġret ain
Ġwor th
Ġgrill ing
ĠFr ito
Ġsqueez ing
ĠBur rito
ty pe
ĠCre pes
Ġdust ing
ĠHerb s
ĠCom stock
ĠNe ufchatel
ĠDirt y
ĠOp tional
Ġomit ted
ĠFran ks
Ġsuit able
ĠPenn y
imm ers
tC ook
Ġcav ities
ĠSnack s
ĠBra zil
Ġsnack s
Ġlit ers
Ġcod fish
au gh
Be ef
Cook ies
ĠSouthw est
Ġinc orpor
Ġscallop ed
Ġfarm er
Ġeff ect
ĠAut umn
ĠFriend ship
Oe uvres
Ġrecon stituted
ĠVir ginia
ĠCarbon ara
uerb raten
E x
H e
M o
M ozzarella
O atmeal
U n
V elveeta
b r
c er
e ter
f ound
h al
n er
r ates
s qu
t F
t b
t ub
t rem
w arm
Ġ ut
Ġ iced
in ate
Ġs ort
Ġs immers
Ġb ud
Ġb uy
Ġb igger
Ġp urch
Ġp heasant
Ġm ove
Ġm ussels
Ġm ult
re al
al ity
Ġto es
or es
Ġa u
Ġd uty
Ġd ressed
ĠS ort
Ġg old
Ġg olf
ĠB udd
ĠB atch
ĠT ips
ĠT emp
Ġbutter f
Ġmin imum
Ġh ang
Ġh ors
ra ham
all ions
ad ina
Ġfor gi
ch anges
ĠR ise
ack er
ur ry
Ġsp ear
oil ed
Ġju iced
Ġse lec
ĠF eeds
ven der
Ġbl ot
Ġcon es
ff e
Ġcar cass
Ġcut let
Ġhal ve
Ġrais ed
ĠO wn
ĠCut lets
Ġbo dy
ĠPre cook
ĠSa uerbraten
ĠV ic
ĠTh ins
ift een
ĠSh erbet
Ġbag els
ĠSl ide
ĠGr am
ĠCorn ing
ĠWith out
ext ra
Ġcann ellini
Ġcomp le
Ġ24 0
ĠCon densed
ation al
ĠAl as
wh en
Ġper fect
Ġpinto s
Ġcaramel ized
Ġros amarina
ĠMarin ara
Ġfil et
Ġsn ap
ĠCl ams
ĠRe qu
ĠSm ash
ĠPan cake
Ġgi ves
ĠMar ie
ĠToast ies
alf a
ĠBar ley
Ġfrankfur ter
pre pared
Ġnect arines
bb ie
ĠTr iscuit
ĠJud y
ign on
Ġsauc er
ĠLi quid
ĠPorcup ines
ĠSand ies
Ġstor age
ĠLeftover s
Ġsizz ling
Ġte quila
Ġme antime
ĠCav at
Ġele phant
meas ure
ĠGlor ified
ĠLin da
cub ed
ĠKet chup
ĠBuckey es
Ġattract ive
Ġammon ia
Gl azed
ĠLop ez
Ġforgi veness
. *
8 5
C amp
C rock
M on
O p
a ves
c ool
f alfa
h a
h om
i ano
l o
s in
w ie
Ġ ess
Ġ1 10
Ġb u
Ġb and
Ġp ilaf
Ġm ac
Ġm ugs
il lets
re au
on a
Ġf eta
Ġf ajita
ĠC am
ĠC enter
am el
Ġd ull
ĠS in
ĠS an
ĠS ee
ĠS anta
ĠB isc
ĠB ird
ac ular
ĠP oup
ĠP ep
ĠP ost
Ġfl o
ĠT arragon
ĠT rout
Ġmin s
Ġh ush
Ġcho col
ĠM ove
ĠM aster
ell y
ook s
Ġn or
Ġsh ow
Ġsh oe
Ġsh ows
Ġso ap
Ġth ink
Ġth ose
Ġj imm
Ġwh iz
ĠR ec
ab ul
st ems
ĠSp routs
ĠF abul
Ġsour ce
Ġheat s
op e
ĠG ri
em i
Ġro w
ĠSer rano
Ġmay be
Ġal falfa
li ed
ĠJ im
ĠK r
ĠK orean
ĠBl ossom
Ġore o
ĠN ice
ĠSh ip
Ġqu ality
ĠBr er
Ġri d
Ġstiff en
roxim ate
oss um
Ġcro quettes
Ġhard ened
co hol
Ġhigh est
Ġpin wheels
ĠFl ank
ivid ual
ĠSeason ed
ĠUn baked
Ġany time
for d
Ġper ch
ĠCrumb s
ĠPat ch
Ġallow ed
ĠCl usters
ĠSepar ately
ĠPeach y
ĠGl ory
Ġscal ding
ĠTw ists
Ġ36 0
ĠRomano ff
umm ettes
ect acular
Ġentire ly
ĠAlmon ds
ĠHe ap
ĠHe art
be ans
Ġzest y
ĠWater melon
Ġrib bon
Ġ23 8
Ġdecor ated
ĠHeal th
tC ombine
ĠAm os
ĠBra id
ĠJohn ny
23 4
Ġdisapp ear
Ġstay s
ĠPort uguese
Ġbrick le
Wh en
ĠWil ted
ĠSouthw estern
tw o
ĠQues ad
Ġsat iny
andel ion
ĠBour sin
Ġcrystall ized
intz es
aur ant
ĠChew ies
ĠSpl enda
Vegetab le
ĠConc ord
ffe ec
Camp bell
Mon terey
ĠPoup on
Ġjimm ies
ĠFabul ous
. ;
B Q
C l
C arro
C oconut
D ough
H ot
I ts
J iffy
O ld
P ut
Y um
b led
d issolved
e qual
g allon
i ra
i ppy
i oli
m ini
o pping
p ine
r d
s ifted
s alted
t T
t to
t add
t until
t Remove
t minutes
Ġc al
Ġs we
Ġs ieved
Ġt il
Ġt ang
Ġb und
Ġp u
Ġp ra
Ġp ray
Ġp ockets
re ck
en cy
Ġch anges
le x
ĠC ry
ĠC ola
or ice
Ġd utch
Ġd italini
Ġg ourmet
Ġl ife
Ġl ye
oo per
ion eer
ĠB ak
ĠB as
ĠB BQ
ĠP al
ĠT ra
ĠT ap
Ġh it
Ġst ain
Ġst reusel
ell ed
ad os
to sh
to ps
Ġn og
Ġ4 3
red ded
Ġso aking
Ġgr atin
ĠR em
ĠR anger
ack s
ans as
ĠW eek
im ents
ĠSp ectacular
Ġadd s
heat h
ĠF ont
Ġy ield
Ġcup fuls
Ġ8 5
ĠL and
ĠL akes
Ġcar ne
Ġcar bo
ber t
ies t
Ġro pes
ott i
resh ing
li quid
Ġpap aya
let t
ĠCream ettes
est ring
Ġset t
ĠK ir
ĠK iev
ump ti
ĠChe f
Ġwa ff
ĠCho y
ĠButter ed
ĠButter fingers
iv ely
ĠTurn overs
Ġprepar ation
ser ve
fl ake
ĠSe ar
ĠCo int
ĠCo ffeec
Ġhash brown
Ġfold ed
bl ue
Ġdi abetic
Ġdi ppers
Ġinser ting
ĠDiv ine
Ġsubstit utes
uns ifted
uns alted
ĠCl oud
ĠUs ually
Ġfettuc cini
sm ooth
ĠDon uts
Ġway s
Ġ17 0
ĠAn isette
ĠAn tip
bro ken
Ġ28 0
Ġ23 6
Ġpersimmon s
ĠSnow balls
ĠSnow ball
ĠMary land
Ġmicrow aved
Ġsom ething
Ġappear ance
Ġvariet ies
tP ut
ĠSch illing
min ced
stir ring
yn es
ĠCarb o
ĠFant astic
ho pper
gi ving
fir st
Sw iss
Ġmembran e
ais y
Ġwhe el
Ġprevi ous
Gr and
ĠChar l
ĠKu gel
ĠPlant ation
ĠComplet ely
ege burger
ĠCastle berry
ĠVerm icelli
Ġbagu ette
ĠVic tor
wie back
Ġchocol ates
umpti ous
ĠCoint reau
2 50
8 0
B S
D ay
G ran
P ro
T ime
W ith
a ire
b it
d el
e ither
f ts
f itting
l ast
m ust
n ing
n am
o ise
p ress
r int
s epar
t omato
w or
w ork
y cle
Ġc atch
Ġs y
Ġs ince
Ġt on
Ġt acos
Ġo b
Ġb ias
Ġp en
Ġm il
Ġm id
at at
at ted
ut if
Ġf an
Ġf arina
Ġf ajitas
ing ly
ic le
ic ama
ic orice
Ġin verted
ro wn
as to
Ġe ase
Ġd isp
ĠS us
ĠS op
Ġg in
Ġg her
Ġg ingersnap
Ġl augh
Ġl icorice
Ġpe g
ĠB er
ĠB urn
ĠP ur
ĠP im
ĠP ioneer
un g
un greased
un covered
is o
Ġun less
Ġmin us
Ġh ad
ĠM ain
ĠM ethod
ver ly
Ġst ars
Ġst opping
uc ks
om ach
ch we
der ate
Ġbro ok
Ġn uggets
Ġsh aping
Ġgre asing
th at
ĠR atat
Ġoil s
Ġco bs
Ġco bbler
ĠD ec
ĠD one
ĠD aisy
ur b
ĠW inesap
redien ts
Ġwell s
ĠSt rips
inn y
ars hmallow
ĠH en
ĠG all
Ġmeat ball
ĠCool er
ey e
Ġapp et
Ġsk illets
ks giving
tt a
Ġsof ter
ĠO ur
ĠO ther
ent ine
ĠSal ted
ĠPre acher
ĠJ ean
Ġit alian
ĠPe anuts
Ġginger bread
ĠN illa
Ġsoy a
Ġcom pany
ce an
Ġdirec tion
Ġtur tle
ĠCheese cakes
iv a
Ġspoon ed
mi um
Ġacc om
Ġacc ent
Ġsepar ates
rocess ed
Ġrec ipes
ĠSc ott
ĠSweet en
ĠCan apes
bl end
ĠAl ways
ang ria
ĠCont adina
pot e
Ġgrain y
uns chwe
Ġsurf aces
oy a
Ġfil ing
ma x
Ġpr al
Ġcap ful
ĠRe ally
Ġwor d
ĠRom an
ĠFr itt
ĠWill i
Ġrot el
ĠTort illas
Ġ36 5
ĠOver lap
Ġdump ling
ĠAn ise
ĠCom pote
erd e
ĠPol ynes
ĠMan wich
ĠPark er
ĠRot ini
cream y
ĠRuss et
ĠFran k
ĠFran gel
Ġglut en
ĠBon bons
Ġbutton s
ĠSwirl s
Ġwil t
ĠWon der
ĠSch ool
ĠThan ksgiving
straw berries
Ġplant ains
Ġstep s
Pe anut
ĠJan e
Ġdra ft
Ġpet ite
ĠQues o
gl ass
itter lings
Ġsho estring
ĠArm our
Ġthough ts
almon ds
ĠRoy al
Pepper idge
ĠKrisp ie
Ġprop er
Ġdef atted
rif ice
Del icious
ĠRequ est
ĠTriscuit s
Op tional
Ġess ence
Ġbund le
Ġstain less
ĠFont ina
Ġwaff les
ĠCoffeec ake
ĠAntip asto
ĠCarbo hydrate
unschwe iger
ĠPolynes ian
3 6
A head
C ol
D ish
F resh
L et
M el
N ot
R e
R o
R ed
S o
W ill
b oth
c a
c elery
c etta
g rease
n oc
o ven
s ka
u um
v a
v irgin
w reck
Ġ `
Ġ ST
Ġs and
an na
Ġt im
Ġt reat
Ġb ibb
ar o
Ġp le
Ġp ile
Ġp ig
Ġm a
re f
ut on
on uts
Ġf acing
ĠC ant
or g
Ġ2 30
Ġa ge
Ġa ch
Ġd ove
ĠS ur
ĠS na
ĠS heath
ĠS angria
ac ed
ĠP res
un ge
ĠT e
ĠT er
ĠT reas
ĠT ilt
ĠT BS
Ġun melted
Ġv ents
Ġv ented
ĠM as
ĠM ild
ĠM ys
ĠM acaroon
Ġwater y
Ġmilk s
to asted
Ġbak er
Ġpowder s
.) .
th irds
ĠR ome
nd a
ĠCh urch
ĠD av
ĠW ell
ĠW inning
im inate
Ġy ear
ain ing
ĠL ove
ĠL eek
ach es
Ġcoc onuts
Ġcon e
ĠG ou
ĠG od
Ġro se
Ġcl ay
ĠWh irl
Ġis n
Ġk ing
av ailable
Ġsl ash
ĠE ast
ĠJ on
ĠJ umb
Ġtab asco
ĠPe ars
ĠN og
ĠN eeds
ĠY ank
Ġcom ing
Ġdo ing
ile e
ĠSet t
Ġsepar ating
Ġaccording ly
Ġaddition s
Ġbr unch
Ġsaute ing
ĠFl ounder
ĠQu ik
sc ar
ĠPepper mint
ig atoni
ĠUn cooked
ĠUn fold
so da
ĠMex i
Ġmarin ating
ĠAl most
Ġgarnish ing
Ġsubstit uting
Ġuns ul
ĠNut ra
Ġ14 0
ĠCoc o
Ġsur round
Ġac ting
Ġcor rect
Ġpop s
ĠRe member
Ġtri p
ĠCro utons
ĠTw enty
Ġrot ate
Ġrot elle
Ser vings
add ed
ĠEn ough
ĠCrust y
Ġlump ing
Ġlook ing
atur es
Ġmon terey
ĠFood s
ĠSec ret
Ġdecor ating
bb les
ĠInd ividual
Ġimp rint
Ġperson al
Sp inach
ĠBor ax
Ġdab s
pie ce
Ġplump ed
ĠHamburg ers
Ġdra fts
ĠCav iar
ĠRoma ine
ĠSub stitute
ĠHel en
ouff er
ĠChest nut
ĠEsp resso
On ion
tSp read
Ġseash ell
ĠFud gy
ĠQ ue
Ġrain bow
mo derate
ĠGrass hopper
Ġconven tional
ĠIng redients
Mo ist
ĠBisc otti
ĠGri ff
ĠShip wreck
Ġswe eter
Ġtang y
ĠVictor ia
ĠRatat ouille
ĠFritt ata
ĠFrangel ico
noc chi
ĠTBS P
ĠMys tery
ĠYank ee
6 4
A n
C abbage
D ate
D uncan
P armesan
b and
b ul
b hard
c eed
d i
d one
f igs
g ener
g raham
h old
i qu
j ect
l ice
n on
p our
p ea
s ch
s immer
s eed
z etti
Ġ ide
Ġ upper
Ġc ycle
in ation
Ġs ound
er ed
er os
Ġt arts
Ġb irds
ar on
ar ole
Ġp aint
Ġm ir
Ġm alt
Ġm ug
il ies
ĠC oney
ĠC atsup
or der
Ġe ver
Ġd isc
Ġd eeds
ĠS ally
Ġg m
Ġg if
ac uum
ĠP it
ĠP enne
ĠP ita
un ks
Ġegg be
Ġcheese cake
ill o
ol der
Ġh ere
us illi
ĠM id
ĠM ich
ĠM ah
Ġpepper ed
Ġor ien
ra spberry
ver bs
om at
om it
ad es
Ġfor get
ts h
Ġn ap
Ġj al
Ġgr and
th en
ĠR igatoni
ay st
ĠCh ick
ĠCh unk
Ġr ut
Ġco al
ĠD is
ĠD epending
ĠW ar
ĠW are
ĠW rapped
igh ter
Ġju d
ĠSt ouffer
ĠF un
if ic
ĠCook book
ĠL unch
ers ion
Ġsour ed
ĠH as
Ġcon d
ag a
we ed
ub ilee
Ġcrack lings
Ġal fredo
Ġk abobs
Ġex ten
Ġapp rox
ep tion
tt he
ĠO scar
Ġtender ize
ĠJ ubilee
Ġpre mium
ĠV er
Ġsimmer ed
ĠN ature
ĠN ancy
Ġen cl
Ġspread able
Ġfat back
Ġconfection er
Ġgl ue
Ġevapor ate
Ġacc um
uck et
Ġyour self
ĠBeef y
Ġherb al
ĠDel ite
Ġdeep ly
reser ved
ĠAl pine
amp le
ĠStraw s
Ġ18 0
ĠQuick ie
irl s
Ġfo ams
ĠSk ins
Ġfoam ing
ĠSm uck
ath an
Ġrese al
Ġtin ted
Ġbit ters
ĠHom estyle
uss el
Ġsolid s
Ġwra pping
Ġwra ps
Ġfinish ing
Th ese
Ġgu ava
rid e
ĠRea Lime
ĠScr ambled
ĠScr umptious
Ġcre ole
Ġdamp en
ĠBo ats
Ġvari ous
Ġdrink ing
ĠVegg ies
tC ool
che ck
ĠBon eless
ĠMexic ali
ĠGe bhard
ĠEar ly
Ġlift ing
ord fish
Ġdr ummettes
ĠPier ogi
ĠKid ney
ĠAnn ie
iod ized
fir m
Ġsmok ing
Ġmembran es
Ġunp opped
Ġunp rocessed
Ġrip ened
ĠBarb ara
Ġwid th
Ġdred ging
gan ic
ĠBus y
tB eat
Ġsac rifice
ĠCab in
ĠThumb print
He art
Ġpurch ased
Ġmult i
ĠSin ful
ĠQuesad illas
Carro t
ĠTap ioca
Ġhashbrown s
arshmallow s
ĠWilli ams
ĠST I
ĠGou da
ĠGriff in
Ġgif ts
Ġeggbe ater
Ġorien tal
ĠGebhard t
2 7
4 25
B read
C ake
C auliflower
E agle
G re
H am
L o
M M
M acaroni
O ri
W esson
a utif
b acon
b ean
b alaya
b ottom
c t
c ur
c andied
g ood
h and
h ouse
j oin
l b
l ong
m y
m ers
p ork
p int
s emi
t d
t ie
t Makes
u es
v ice
w ashed
y d
Ġc amp
Ġt an
ar ified
ed ged
es a
Ġp ort
Ġf ar
Ġf ur
Ġf ace
Ġf owl
Ġf ruc
sp ices
Ġin clude
ro z
ĠC oll
ĠC umin
ĠC ilantro
Ġ3 3
Ġ3 9
ĠS andy
Ġpe bbles
ix ie
ĠB u
ĠB ow
ĠB ible
ĠP a
ĠP en
dd ess
ĠT uck
Ġun thawed
Ġv is
ĠA gain
ĠA dobo
Ġh u
Ġh og
us ually
ot to
Ġbe autif
Ġst omach
om on
om ino
to f
to se
ri k
Ġn est
Ġ4 2
Ġsh aken
Ġgr am
Ġgr it
ĠR is
ĠR ipe
ĠR hod
ĠCh ange
ĠCh ildren
Ġpan cetta
ĠD an
ĠD ian
ab les
ĠW he
ĠW agon
ĠW reath
st al
ef f
id s
Ġfro th
ĠSt ella
ĠSt rip
ĠSt retch
ĠF ig
Ġcrumb ling
ĠL uc
ĠL uck
ĠL uncheon
ĠL yn
ars e
Ġbread ed
ĠH I
ĠH on
Ġcon f
ag o
sh redded
ĠWh oop
Ġred uc
av ioli
Ġex trem
ĠCream s
avor ites
Ġan g
Ġbo ys
ĠE as
ĠK e
ĠK athy
ĠV iva
ooth pick
Ġz ip
Ġen han
ĠChill ed
Ġsoft ly
Ġ7 2
ĠSl ip
vapor ated
Ġde velop
Ġbut cher
Ġcro uton
ud ges
ĠCo d
Ġdri zz
ĠPepper ed
Ġkn ow
Ġpat ting
ĠToss ed
bl ended
nut rit
ĠAll spice
oy al
ness ee
ĠDi amond
ĠSk ew
ĠReser ving
cr ack
allop ed
od us
Ġcas ings
Ġgi ant
mel t
Ġburn s
ĠMar ble
ĠMar zetti
oe uvres
Ġpers ons
Ġpull ing
Ġplac es
Ġty pes
mp athy
Ġcurd le
Ġscr amble
ĠMc In
Ġcryst al
ĠPin wheel
Ġcit ric
ĠWa verly
ĠCa vender
ĠPo ached
Ġpush ing
ĠLea f
Ġdoll ops
ĠTwink ie
ĠStr ud
ĠLog s
23 6
ĠEle phant
Cho pped
ĠPic c
ĠPar fait
Ġwait ing
Ġwatch ing
Ġstor es
Ġdelic ate
Al so
Ġchoriz os
Ġtost ada
Ġsuper fine
Ġfriend s
ĠGo ddess
Ġmot or
Bl ue
arro ts
ĠSuc cess
ĠMicro cook
powder ed
Ġha ving
Ġhun gry
Ġimpro ves
ĠSens ational
Ġbis que
Ġrear ranging
Ġincorpor ated
ĠTemp t
ĠAlas ka
ĠCavat ini
hom emade
Ġpray er
ĠKir sch
Ġsy mpathy
Ġlaugh ter
ref riger
ĠNutra Sweet
Ġreseal able
Ġfruc tose
ĠDian e
Ġextrem ely
nutrit ive
ĠMcIn tosh
3 3
A nd
C ut
F ail
G ar
H our
I da
M a
T omato
W e
a pped
b les
b efore
c ture
c ayenne
d ash
f our
f ire
f illed
g ah
h att
i os
l ins
l ukewarm
m ashed
m arshmallows
p a
s ec
s ome
t G
t at
t art
t for
t Serve
t urkey
v ard
y ss
z e
Ġ arm
Ġc ure
Ġc abb
Ġc row
Ġc ert
Ġc ajun
Ġc ause
Ġc yl
Ġt affy
Ġt anger
Ġt raditional
Ġb ook
Ġb uff
Ġp its
Ġp yrex
Ġp istach
Ġm ul
Ġm ann
Ġm acaroon
at ively
il ian
il ity
re ased
ing le
Ġw eather
ic ilian
it er
Ġ3 40
Ġd id
ĠS age
ĠS ock
ĠS elf
ĠS irloin
ĠS icilian
Ġg oo
Ġg ift
he im
he avy
oo m
ĠB ol
ĠB ab
ĠP ul
ĠP oll
ĠP ipe
ĠP osition
ine tti
un cture
Ġun used
Ġv ar
ĠA f
ĠA na
ĠA ss
Ġmin ts
Ġh ope
Ġh older
ĠM us
ĠM aw
ĠM ile
ĠM arb
ĠM ike
ĠM ember
Ġor ganic
uc he
om an
ell er
Ġfor th
ch ili
ch unky
ir th
ir ley
to pping
to bell
Ġn orm
Ġsh rink
Ġsh uck
Ġsh oepeg
Ġj igg
Ġat t
Ġgr ating
ĠR avioli
ast a
ĠCh ik
Ġr ame
Ġtom at
ĠD ou
ĠD ab
ĠD onna
ĠD ann
ab ama
orn s
Ġsp acing
ĠW est
im al
Ġsm ile
amon ds
if y
ĠL ucky
Ġoven s
ĠH ickory
ĠH olly
Ġcon ch
ĠG ame
ĠG ive
over leaf
Ġcl ump
Ġcl usters
Ġcl arified
Ġk rispies
ore ver
av ian
os able
Ġsl ide
udd ed
Ġan isette
Ġhe aped
Ġrefriger ation
ĠK ix
ĠK ay
ĠV erde
Ġjell os
ĠTh ing
ĠTh read
ĠTh irty
ĠN avy
ĠAnd es
Ġgelat ins
ĠSh er
ĠBe g
Ġsc ored
Ġaltern ative
ĠPress ure
aul ts
Ġcann ot
Ġhigh er
ĠSauce pan
Ġtow ards
ĠCon nie
ĠAl abama
Ġdi jon
Ġdi amonds
wh ipped
ici er
Ġchop lets
Ġelbow s
ĠStew ed
do or
Ġbul gar
Ġjam balaya
Ġpul se
Ġind ic
ĠSn ip
ĠPro ven
Ġburn t
ĠMar gar
ĠCrust less
Ch erry
roll ed
Ġwork able
ĠNew man
Ġshort est
Ġshort bread
ĠEx change
ĠPol ska
ĠMan hatt
Ġrich er
pec ted
ĠDiabetic s
ĠHea ven
ĠSuper Moist
ĠOli ves
Ġrim s
ĠHar vard
ĠHal ibut
ĠMa id
ĠSpr itz
ĠLea ves
tP lace
Ġbow s
Ġesc arole
Di et
Wh ip
ĠMound s
Ġris en
Ġrequ ire
Ġsizz les
Ġtost ados
ĠTart ar
Ġbra unschweiger
ĠMade ira
Ġquant ities
ĠTen nessee
Ġsho vel
Ġperiod ically
sal ad
Ġsquir rel
ĠSol omon
ĠWel sh
Ġcroiss ant
wd ust
quarter ed
Ġblu ing
Ex cellent
Ġcomple ted
Cl ub
Gran ny
Ġob tain
ĠSop a
ĠPim ento
Ġaccom pan
Col by
ĠSur round
ĠJon athan
ĠQue en
gener ous
ayst acks
Ġencl ose
ĠSTI R
Ġvis ible
Ġhu ge
ĠRhod es
ĠWhoop ie
oyal ty
ĠStrud el
Ġcabb ages
Ġcert ain
Ġpistach ios
Ġmann er
ĠAna heim
irth day
tobell o
ĠManhatt an
! !)
) )
* *
E ver
G H
H oney
M e
M eat
M edium
M ores
P ol
R om
S c
S n
S to
c arrots
d ri
d ep
e le
e ven
f ield
i ans
j elly
k oe
l oaf
m ati
o am
o uts
p lace
r is
r ist
s ts
s ub
s ift
s lice
t urn
t mix
t butter
t In
v ie
w ide
y uns
in clude
Ġs its
Ġs aturated
Ġt re
Ġt ree
Ġt ears
Ġb ass
Ġb ind
Ġb order
Ġp ass
Ġp osition
Ġm L
Ġm illet
il ed
il ding
al ade
al ready
Ġand ouille
Ġf rag
Ġf ifteen
Ġf usilli
Ġf avorites
Ġf aults
Ġch urch
Ġch itterlings
Ġw at
gar lic
sp berries
ro t
or itos
ak a
el ves
Ġa dobo
Ġ3 20
Ġd iffer
Ġd andelion
Ġg um
Ġg ather
Ġl uck
Ġl ost
Ġl ighter
Ġl oyalty
Ġpe koe
ĠB et
ĠB ul
ĠB ern
ĠP aste
ĠP urpose
Ġfl am
ĠT im
ĠT erry
Ġv ein
Ġv egeburger
Ġv acuum
ĠA le
Ġh is
ot al
ĠM r
ĠM en
ĠM arm
ĠM ull
ĠM iddle
ad ed
ad as
ch illed
ir ling
ts t
Ġcan ister
Ġn ose
Ġj oy
Ġj icama
Ġover ripe
Ġwh irl
ĠR ind
ĠR onz
Ġr oughly
ĠD ie
mon d
ĠW end
Ġre n
Ġre member
st ead
Ġse ep
Ġcorn s
ĠF an
ĠF ield
res ist
Ġpot s
Ġcup ful
ĠL ump
Ġbl intzes
ĠH air
ĠG er
ĠG arb
ĠG oya
Ġser vice
em ble
Ġcl umps
ĠWh ipping
Ġred ness
Ġsl ip
Ġapp ly
Ġcrush ing
ĠO V
). \
Ġpl an
est ic
ĠE th
ĠE ll
Ġsqu id
Ġset tle
ĠBrown ed
ĠJ ul
ĠJ ess
ĠK at
ĠK al
ĠK osher
Ġit em
Ġpre ced
ĠBl ot
ĠSa wdust
ĠTh ick
ĠMelt away
Ġfilling s
ĠN one
ĠN eed
Ġen amel
ĠY u
ens e
ĠSh an
ĠSh irley
Ġlon ghorn
pe aches
Ġturn er
Ġgran ular
Ġchest nut
ĠRo bert
fl at
co arse
ĠSe as
ivid ing
ary l
ĠFill s
ĠOn ly
ĠJack s
ran berry
ran ean
ran ged
ĠMexican a
ĠKar en
ĠMin ced
Ġel iminate
ĠCont in
Ġpit as
ĠRa ise
ĠOr anges
ĠFarm er
ĠAng inetti
ĠFresh ly
Ġunder side
Ġpul ver
ĠChr is
iche ver
od les
ĠGl ad
ĠScallop ini
ĠSn ap
vil le
ĠDish pan
Ch inese
may be
St ep
ĠBar ely
ĠCom fort
ĠMed iter
Ġgu ests
ĠWater gate
ĠEx changes
ĠJo an
Ġlin ing
pec an
Ġdecor ator
ĠShort cut
ĠArtich okes
ĠRich es
Ġdis color
Ġstro ganoff
ĠTr uffles
Ġhow ever
Ġbitter sweet
ik k
Ġadv ice
Ġmango es
ĠLen tils
ĠSim ply
ĠMillion aire
ĠBuff et
Ġprod uce
ĠOmelet te
ĠYork shire
Ġ29 0
Ġfriend ship
ĠEsc alloped
con densed
Ġtuck ing
Ġrip en
Ġhum an
Ġdred ged
Ġmatch stick
oot ball
ĠMark et
ĠJu icy
Ġcroiss ants
onz ola
Ġhouse hold
Ġassem bled
Ġpicnic s
Ġread s
Ġpol yuns
hal ved
squ eeze
tF old
Ġflo ating
ĠPur itan
ĠGall iano
Mel t
Ġma garine
seed less
omat ic
Ġrut ab
Gre en
ĠPen uche
ĠRis otto
ĠLyn n
ĠHI GH
Ġdrizz led
ĠPicc ata
Gar lic
Ġcyl inder
ĠPoll o
Ġnorm ally
Ġshuck ed
ĠBeg inning
Pol ish
dep ends
ĠMarm alade
ĠWend y
Ġpreced ing
ĠMediter ranean
Ġpolyuns aturated
" (
B is
B reak
C ar
C ooked
C andy
E R
G reek
J er
J udges
K aro
L ike
O f
P h
P ie
R hubarb
S m
T hey
Z ucchini
b el
b etter
c om
c eption
d in
d ouble
f ull
g est
g olden
i et
l asic
l ava
m un
n i
n eath
o pp
p ure
p arsley
p udding
s i
t el
t akes
t milk
t hey
t water
t Bl
v ot
w ax
z on
Ġ __
Ġc ents
in ted
Ġt umb
Ġt int
Ġb arbecued
Ġb agg
es qu
es ired
Ġp wd
Ġm ellow
Ġm iracle
on cini
al up
Ġf estive
Ġf lex
Ġw edged
sp lit
pp in
le ge
ĠC our
ĠC ount
or a
Ġ2 20
Ġ2 70
am ata
Ġsu gg
it age
Ġd om
Ġd unk
Ġd ucks
ĠS en
ĠS uch
ĠS atur
Ġl ist
Ġl asts
ĠB art
ĠB ark
ĠB irthday
ĠT oo
ĠT urt
Ġ( #
utter ed
Ġv ert
ill os
ĠA corn
Ġh ook
Ġh uckle
us band
ĠM ad
ĠM em
ĠM outh
ĠM atzo
Ġpepper oncini
Ġbe ad
om atoes
ad illo
Ġcan es
ri an
Ġn av
Ġbak ery
Ġso uth
up er
Ġwh o
ĠR ight
Ġcook book
ĠCh amp
ĠCh alup
ĠD ixie
ĠD omino
orn a
ĠW ing
ĠW ee
ĠW yl
ien ne
st ill
st art
st ew
ingredien ts
ĠSp ark
ĠF ire
ĠF eather
inn ers
ĠL ess
ĠL oin
ĠL orna
ach el
ĠH ow
ĠH ens
ĠH urry
ĠH aystacks
oon e
ĠG allon
ĠG org
ard ee
em ima
ag ie
sh elled
Ġcl ause
Ġcl overleaf
Ġk eros
ott le
Ġex ception
Ġsl ant
Ġsk y
ĠBro ken
Ġgra y
ĠO h
ĠO cean
ec ially
Ġshe ars
Ġref reshing
ĠE r
ĠE ve
Ġhe al
ĠJ enn
ĠJ emima
ĠK ern
ĠK ansas
Ġout door
Ġstraw s
Ġdressing s
ĠTh ai
Ġpeel er
ĠN on
Ġpast ries
ens ive
ĠSh all
Ġbag el
Ġcol by
ĠButter f
ĠButter h
Ġsc otch
Ġsc ones
Ġcolor ful
Ġthaw ing
Ġrest aurant
ĠGra p
ĠSoup er
ĠAr roz
Ġtw elve
ĠRo b
sa uce
ĠTo pper
Ġunb uttered
Ġar ranging
Ġar ranged
ĠSe veral
ĠFl ute
ĠFl aky
Ġlast ly
ĠSqu are
ĠZ wieback
ĠPeanut ty
so ak
ĠMex ene
ĠCan e
Ġmini atures
bl ing
Ġdi pper
ĠBrand ied
Ġremo val
wh atever
ĠRa ised
ĠTater s
Ġwash ing
ĠFrost y
ĠSk inner
Ġunder neath
ĠGood ies
cr usts
ĠDelight ful
Ġspring y
ĠSm oke
ĠDe bbie
ĠLay ers
add y
add itional
Ġhold ing
Ġburn ed
ĠMar vel
bo ard
ĠVal entine
ank et
Ġliver wurst
Ġent ree
ĠNew burg
ĠPl an
ĠPl unge
Ġsw ordfish
bro th
ĠAlmond ine
ĠEx odus
ĠLa ura
ĠSec ond
ĠSnick er
Ġcre ative
ĠInd ia
24 0
ĠCub an
Ġimp orted
ls berg
Ġcit rus
Ġres ift
hyd rates
Ġcount ing
ĠHor seradish
Ġcontinu es
Ġrim med
ĠAm ount
met al
ĠFlavor ed
Ġbas kets
ĠLi qu
Bro wn
ik o
Ġsor row
ĠBor der
ĠTost ada
sk inned
Ġsim ple
Ġtr ick
Ġthumb print
ĠWil der
mm mm
Ġstor ing
Ġrequ ires
fin ely
Ġsizz le
Al mond
ĠBag els
ĠGo es
Ġinc reased
ĠGen oa
lon ger
Ġpet als
Ġcrunch ed
ĠDiet etic
ĠEvery day
ĠOle o
Ġprevi ously
ouff l
Ġdec rease
ĠChest nuts
tSp rinkle
ĠSol o
Ġgoose berries
Ġbis quick
ĠWel ch
ĠHazel nut
Ġclaw s
Ġut ility
Ġbutterf ly
Ġbu ilding
Ġpu ppies
ĠBas ket
Grand ma
separ ate
Ġdisp osable
ĠSus an
Ġgher kins
max imum
ĠCant on
iqu ant
Ġmir in
Ġnap kins
Ġjud ge
Ġcond iments
Ġexten ding
mers e
Ġfur ther
Ġang le
Ġrame kins
Ġtomat illos
ĠDann on
Sto ve
ĠRonz oni
ĠShan gh
ikk oman
Bis quick
Jer emiah
tBl end
vot ion
esqu ite
Ġflex ible
ĠSatur day
ĠTurt les
Ġhuckle berries
ĠGorg onzola
Ġkeros ene
! \
9 0
A T
B anana
C o
C ranberry
D ip
E ng
F ashion
H un
H eal
L a
M om
M arin
M rs
N ew
O at
O ro
P et
P illsbury
S al
S pan
S outh
T ast
T ex
W al
W eight
b ac
b let
b ig
b ably
b reak
c orb
d esired
e ins
f el
g r
g u
g ento
h ere
i ole
i yaki
l us
m ing
o ff
o ha
r ican
s ame
s elves
t is
t pan
t ied
t Serves
t Let
t otal
v inegar
z os
Ġ ,
in th
Ġs el
Ġs oul
Ġ1 75
Ġ1 12
Ġb ad
Ġb ucket
es ted
Ġp igs
Ġm ex
Ġm iso
at elli
on ions
en o
and o
al cohol
Ġw agon
Ġw reath
ic ory
Ġin ner
le ftover
le aves
ro d
ro ger
ĠC omb
ĠC rinkle
or io
Ġ2 32
our i
am ook
Ġsu gah
it am
it ake
Ġ3 4
Ġ3 8
Ġ3 15
Ġd oritos
Ġd ividing
ĠS me
ĠS av
ĠS ara
he art
ĠB ologna
ĠB uckle
ĠB ottle
ac he
ĠP ower
ĠP ig
ĠP oultry
ĠP ockets
un der
ĠT ill
ĠT ag
ĠT ightly
ĠT bl
ĠT andy
ĠT iny
ĠT ahini
Ġche ap
ill er
ol itan
ĠA ust
ĠA nch
Ġh r
Ġh rs
Ġh unk
us ual
ot ash
Ġcho c
ĠM and
ĠM inn
ĠM ango
ra ft
om a
om en
ad ise
ch iko
ĠAdd itional
Ġn ame
red uced
Ġbak on
ve y
Ġsh i
Ġsh ut
Ġsh ot
gh ul
Ġj el
Ġj us
Ġle ak
th ough
ure en
ĠR h
ĠR us
ĠR oul
ĠR oughy
Ġoil y
ĠD ep
ĠD iced
ĠD ates
ĠD oone
ab i
Ġsp icier
ĠW at
ĠW anda
ien er
st one
st rips
Ġlar gest
im ble
id ence
ĠI i
ĠI re
ĠI ced
Ġsm ash
Ġy ields
ass y
ĠL y
ĠH usband
oon s
ĠG erm
ĠG irl
ĠG oose
ood y
ber ts
Ġshor ter
uff in
uff le
ott e
Ġas corb
Ġex pected
ul ates
ĠBeat ing
udd y
Ġsyrup s
ĠE m
Ġhe el
Ġhe arty
Ġsweet ness
ĠPre tty
ĠJ une
ĠJ eff
ĠK ol
ĠBl an
ĠBl anket
Ġbottom ed
ĠV an
ĠV ick
ĠV ich
ĠV lasic
ess el
ĠTh ose
ĠPe ter
ĠN ine
ĠN av
ĠN ame
ĠN atural
Ġliqu ified
Ġsoy beans
ne x
ĠSh aron
Ġqu es
ĠSpoon ful
ĠRef ill
ĠRef ried
ĠButter y
ĠJell ied
Ġdissol ving
Ġde ter
Ġtart ness
Ġleaf y
Ġoccasion s
ĠRed ford
Ġcur ds
Ġcur led
Ġtem p
Ġpo pping
Ġpo ached
Ġpo inted
ĠCar ve
ĠCorn flake
und ry
Ġsec rets
Ġhigh ly
ĠFl an
Ġnon pare
ĠLe vel
Ġneed le
ĠZ ippy
ĠSweet ened
ĠSweet heart
ig an
Ġdark er
ĠAl ice
Ġpound ing
ang les
amp en
Ġback s
wh ites
Ġ18 5
ear ing
ĠDream s
ĠPat io
Ġpar fait
ĠBlue berries
Ġfil m
Ġsn ip
Ġallow s
ĠApp ly
tc r
Ġunder bake
cr unchy
Ġind en
ĠDump ling
ĠMarshmallow s
od ge
Ġreturn s
ĠGrand pa
Ġtri o
Ġtri ple
ĠCro wn
ĠPack ed
ĠPack age
ĠPro verbs
Ġdel ights
ĠMar aschino
Ġpreven ts
Ch ip
Ch rist
Ġdiscard ed
Ġlump ia
ĠCrunch ies
ect ar
St raw
Ġstack ing
ĠPl atter
ĠIr resist
Ġsw ell
tin to
Ġpro v
ĠCur d
Ġbur st
Ġbur ghul
ĠEx tract
Ġdecor ations
Ġconten t
ĠSun flower
season ing
Ġmed allions
ĠInd iana
ĠTender ize
ĠFran kfur
ĠPap rik
ĠSar ah
Ġhel d
Ġcav iar
Ġhull s
ĠSnickerd oodle
ĠMor gan
Fro zen
rad ition
ĠCap tain
ĠPar adise
Ġho agie
ĠAv oid
To pped
pie ces
Sh ould
Ġslee ves
Ġjoin ts
ĠLiver s
tD rop
ĠBoy ardee
Ġtong ue
Ġacid ity
ais er
con om
Ġfig ure
Ġwhe els
Ġhum or
ĠJar lsberg
Ġhun ks
Ġsquir ts
Ġmess y
ĠBel gian
Ġimpro ve
Ġher ring
Ġseash ells
ĠStay s
Ġut ens
ĠBudd y
Ġbutterf lied
Ġselec tion
ĠPep si
Ġnor mal
Ġnor thern
Ġpra ise
ĠCry stal
ĠBak lava
Ġcarbo hydrates
ĠCharl otte
Ġmil der
Ġmid way
ĠBurn t
ĠScott ish
Ġtim ing
Ġach ieve
ĠMild red
Ġtrip led
Ġjal ape
ĠSmuck er
ĠStrip ed
ĠBol ts
ĠAss emble
ĠMus c
ele br
Ġfrag rant
Ġdiffer ence
ĠContin ental
Ġpulver ized
Break fast
Ġtumb ler
Ġdom estic
ĠBart lett
Ġnav el
Ġsouth ern
ĠSpark le
ĠGrap efruit
ĠMarvel ous
ĠWilder ness
ĠShangh ai
Eng lish
Span ish
ĠSme ar
Ġascorb ic
Christ mas
ĠIrresist ible
) :
1 25
1 15
A ng
C over
D e
D utch
F ruit
G erman
G round
H I
K nead
K orean
K raft
L arge
M ushroom
M ore
M iracle
N or
O ut
O ver
P an
P ear
R eser
S k
T op
T urkey
V eg
W or
a us
a wn
b owl
b aby
c il
c ks
c enter
c auliflower
c andy
c top
d iscard
e ason
e vaporated
f y
f ruit
f illing
g ly
i ge
i ola
k o
k er
l ine
m ie
m arin
m aking
m outh
n oon
n itz
o or
o ks
p ect
r al
r ick
r are
r ami
s yrup
s eeds
s ometimes
s aka
t m
t ch
t ec
t aco
t Do
t well
u i
v els
w ine
w ash
y ond
z ucchini
Ġ ...
Ġc m
Ġc er
Ġc ame
Ġc ooper
in to
er o
er le
Ġt radition
Ġb ic
ar ingly
Ġp il
Ġp lease
Ġm at
Ġm atter
at wurst
re y
and s
al most
ou illon
Ġf aster
Ġf iesta
Ġf orever
Ġch ang
Ġch icory
Ġw eak
Ġw att
ic ular
ic ult
Ġto t
sp aper
pp a
Ġin ject
ro thy
ĠC and
ĠC all
ĠC ayenne
ĠC ould
ĠC aps
ak o
ak or
Ġsu pper
Ġ3 1
Ġ3 7
Ġ3 10
Ġe agle
Ġd onut
Ġd ew
Ġd iff
Ġd isk
Ġd inners
ĠS ide
ĠS izz
ĠS ister
ĠS unny
Ġg row
Ġl obs
Ġsalt water
ĠB ass
ĠB ase
ĠB uy
ĠB agg
ac y
ĠP ac
ĠP one
ĠP izz
ĠP ops
ĠP igs
ĠP lease
ĠP aint
Ġfl an
ĠT ail
ĠT ouch
ol ive
ĠA re
Ġmin estrone
us ter
ot a
ĠM s
ĠM er
ĠM al
ĠM oo
ĠM orn
ĠM oon
ĠM ey
ĠM ayer
ĠM yr
ĠM allow
ĠM cc
ĠM unch
ĠM ous
ĠM ist
ĠM ors
ĠM att
ĠM achine
Ġbe yond
Ġst ated
Ġst ops
Ġst ocks
Ġst udded
ad ies
Ġfor ce
ch unks
ir i
um stick
ri ate
ri me
Ġsh ine
Ġth ings
Ġth irty
Ġj er
up ia
Ġmar bles
Ġover fl
ĠR are
ĠCh er
ĠCh ilies
Ġco ins
ĠD ove
ĠD rink
ĠD apple
ĠD addy
ab ber
Ġsp in
Ġsp eck
Ġsp aringly
ĠW ind
ĠW inks
Ġre pl
st eam
im i
ĠSp ir
ĠSp ace
ĠSt ra
ĠSt ud
ĠI ts
Ġsm ell
ĠF ine
ĠF est
ĠF air
ap olitan
ĠL as
ĠL ong
ĠL inks
ĠL ooks
Ġbl ister
Ġbl ades
op ened
ĠH ol
ĠH og
arm el
Ġ10 5
ĠG h
ĠG one
ĠG nocchi
ard i
ber al
Ġro ots
sh rimp
sh ortening
ĠWh o
ĠWh iskey
ub e
art ment
Ġal cohol
Ġex changes
ul s
Ġchil is
Ġapp rop
ep id
li er
li ver
Ġ12 5
ĠBro oks
Ġfir mer
ĠCream ette
ĠO ff
ĠWor thing
ec ks
ĠCut out
Ġblack ening
Ġan imal
Ġbo at
ĠE ight
ĠE ars
oll en
Ġrefriger ating
ĠK im
ĠK iwi
ĠK ikkoman
ĠBl air
ĠSa usages
ĠV en
Ġlea ven
Ġflavor ful
ĠTh om
ĠTh ird
Ġnot e
ĠPe pp
ĠChe es
ĠPie ces
ĠMel ts
ham burger
Ġball er
ĠN ectar
Ġen ter
Ġyellow s
Ġfruit cake
Ġcom fort
ĠSh ut
ĠSh aker
ĠBe e
ĠBe ar
ĠU gly
Ġcol ada
ĠTurn ip
Ġde votion
ĠGra pes
ous el
ĠDo rothy
Ġbr anch
Ġtemper a
ful ness
Ġclean ing
Ġtw enty
ton s
ĠCar away
ĠCar ibb
Ġcrisp s
og s
sa ute
Ġunb l
co b
Ġmicrowave able
ist urb
ĠChop stick
Ġthem selves
ĠQu ail
Ġdri pping
ĠLe an
ĠTab ou
ĠMeat less
ĠSo dium
Ġprocess ing
ĠUn usual
tz er
Ġdark en
Ġgood ies
pick ling
Ġlen til
anch ed
ĠEgg less
ĠAl oha
ĠLemon y
nut meg
Ġconcent rates
ĠPat ty
Ġcaramel ize
Ġop ened
ĠRa spberries
Ġros es
Ġchees y
ĠCheez y
ĠApp roximate
fry ing
ĠCl ove
app rox
ĠSk ro
Ġic y
cook ies
Ġwor ry
Ġpor tobello
af e
ann ie
ĠGrand e
Ġhom estyle
mas ter
ath ering
Ser ving
ĠKra zy
Ġlingu ica
Ġgi ving
Ġgi blet
ai k
ĠDough nut
ĠMar ia
Ch ow
Ġwork ed
may onnaise
ĠNor th
ĠAn ne
ib ly
St uff
ua u
ĠRub y
Ġshort cake
Ġnew spaper
ĠHe avy
ĠTri angles
ban ese
ĠPol ly
ĠPop overs
pre heated
Ġcre m
Ġdist urb
Ġmed ley
Ġvari ation
ĠPear l
ĠIsland s
ĠPap aya
eck er
Ġdis join
ĠSar gento
ĠMag n
Ġres pect
ĠMiss ouri
Ġmicrow aves
ĠAm ber
Ġreheat ing
ĠWay ne
ĠHar vey
ĠBou illon
ĠHo ppin
Ġdiet etic
Ġdoll ar
Ġins ure
23 8
ĠCor inth
brown ed
ĠSch nitz
Di jon
ĠRotel le
ĠFil et
Ġsim ply
Ġhelp ings
ĠPic adillo
Cook ing
ĠNumb er
Ġchar ity
uv re
ĠScotch ies
Wh ite
ĠPar is
pr ints
Ġhazel nut
Ġbra id
Ġindent ations
Sw ans
Ġproduc ts
Ġsmok er
Pre p
Ġtend ency
ĠSuc aryl
ember t
ĠEsp ecially
follow s
ĠBel ieve
Ġgroup s
Ġfix ed
ĠSmok ies
Ġuniform ly
Che ck
ĠBus ter
ĠColor ful
Ġassem ble
Ġblu efish
ĠDoes n
ĠUnder wood
hal ves
Ġselec ted
Ġmac adamia
ĠCam embert
Ġshow ing
Ġpra wns
ĠRem aining
Ġcarbo hydrate
Ġsett les
nam ents
wor th
Ġpral ine
Ġpral ines
Ro asted
anna h
Ġple as
ĠTreas ures
ĠDav is
ĠJumb les
ĠSett lers
bul k
ĠFun fetti
Ġaccum ulated
ĠColl ard
ĠWhe el
Ġconf idence
tG rease
yss oise
Ġgoo ey
ĠAf rican
Ġindic ated
ĠSopa ip
Ġaccompan iment
Rom ano
Ġwat ah
ĠGer ber
ĠOV ER
ĠEth el
ĠWee ks
ĠWyl er
Wal nut
Ġsel tzer
Ġmex ican
ando ori
alcohol ic
ĠTill amook
ĠDep ression
ĠWat kins
ĠVich yssoise
nex t
Reser ve
ctop us
Ġcer amic
Ġcooper ation
Ġdiff icult
Ġlobs ters
ĠMorn ay
ĠMous saka
Ġoverfl ow
Ġapprop riate
ĠWorthing ton
ĠCaribb ean
isturb ed
ĠCorinth ians
' m
* .
1 75
2 60
8 00
A S
A fter
A sparagus
B r
B owl
B acon
C old
C ann
D ouble
F udge
H eat
L L
L inks
M ustard
M aw
P eek
R oll
S auce
T ry
T ab
U s
V idalia
W he
Y our
a ud
b reasts
b ouillon
c omb
c ap
c arp
d ip
e qu
e arm
e lectric
f ill
f ood
f reeze
g a
g rap
h el
i pper
j ar
j alapeno
l or
l ittle
l tra
m ast
m ise
m andy
m uls
o x
p kg
p rise
p opped
p aper
q t
r g
r inse
s ure
t ly
t les
t orn
t est
t Ch
t chicken
t together
u h
u zz
v is
w ards
y pe
z a
z le
z tec
Ġ ir
Ġc u
Ġc at
Ġc alls
Ġc app
Ġs atin
Ġs ouffl
er ican
an e
an as
Ġt ell
Ġt ried
Ġt rench
Ġt eas
Ġt apped
Ġt ureen
Ġt epid
Ġo vals
ar ing
ar ant
ar abi
Ġp ossum
Ġm as
Ġm om
Ġm ass
Ġm ax
Ġm esquite
at ar
ut ely
ut ions
on to
on ata
and om
al le
Ġf its
Ġf ond
Ġch iffon
Ġw arabi
ic er
ic ch
ic ago
sp aghetti
pp s
Ġin k
le ar
ĠC O
ĠC ass
ĠC ray
ĠC irc
or bs
ak s
el ine
Ġsu bs
Ġsu lt
Ġsu nda
Ġ3 80
Ġe muls
Ġd raw
Ġd ices
ĠS or
ĠS it
ĠS ame
ĠS ieve
ĠS ilver
ĠS ylv
ĠS ometimes
Ġg ly
Ġg rained
Ġg au
Ġg nocchi
Ġl ifted
Ġl rg
oo ther
ion ship
ĠB oo
ĠB ap
ĠB ec
ĠB ount
ĠB ors
ĠB alsamic
ĠP ine
ĠP udd
ĠP heasant
ĠP ride
ĠP iquant
Ġfl ow
is a
ĠT al
ĠT all
ĠT ip
ĠT unnel
Ġ( (
ese ed
Ġbutter cream
Ġun to
Ġun heated
Ġun toasted
Ġche w
Ġv ine
Ġv ersion
ol k
ol is
ol ks
ol utely
ĠA tt
ĠA bs
ĠA ztec
Ġh ar
Ġh are
Ġh app
us che
ot es
ot le
ĠM t
ĠM ignon
ra per
all a
Ġst out
Ġst ones
ad en
ch arin
Ġmilk y
der s
Ġcr ink
ts o
ts auce
Ġn one
Ġn ecks
Ġsa y
Ġsa ys
ve t
Ġth imble
th our
th ree
Ġover work
Ġwh ichever
ĠR es
ĠR ay
ĠR ag
ĠR ave
ĠCh ive
ĠCh icago
Ġr ange
Ġr ubb
ĠD ress
ĠD ess
ĠD ig
ĠD andelion
mon t
Ġsp are
Ġsp earm
ĠW ieners
ĠW raps
Ġre ason
st uff
ĠSp ud
Ġgar ni
qu iri
ĠSt re
ĠSt eep
Ġsm oother
umb le
umb ers
ĠF all
ĠF ric
ĠF anny
ĠF ajita
ĠF ifteen
Ġpot luck
Ġy am
if un
ain ts
ĠL ar
ĠL at
ĠL im
ĠL ife
ĠL overs
ĠL uke
ĠL uau
ers on
Ġoven ware
Ġsmall est
ĠH ag
ĠH av
ĠH erman
ĠIn stead
ĠG lace
ĠG ul
ĠG obs
ĠG oat
Ġcar ving
Ġ9 7
Ġser rated
ag ination
Ġcl ou
na pps
Ġlight en
Ġk ol
Ġk ey
ley e
Ġsl oppy
Ġshred ding
ress ions
Ġ15 5
Ġnut r
Ġnut ty
ĠO uts
ĠO ccasion
ĠO odles
ĠO aks
ĠWor ks
Ġblack ened
est le
Ġshe en
Ġpour able
ĠE li
ĠE ating
Ġsqu irt
Ġdough y
Ġcrust ed
Ġli beral
ĠJ us
ĠK elly
ĠK lus
ĠK roger
ĠK iller
Ġpre made
Ġbox ed
ĠBl intzes
ĠBl oody
ĠSa ver
Ġwarm ing
ĠV in
ĠV ari
ĠV odka
ĠV ersion
Ġfill s
Ġjell s
Ġtab lets
ĠPe ggy
Ġpeel ings
ĠN ap
ĠN ibb
Ġen c
Ġen v
Ġen sure
Ġgraham s
Ġunc ut
Ġbatter s
ĠSh ish
ĠBe v
ĠBe ater
Ġfat ty
Ġqu ah
ĠCho col
ĠRef reshing
ĠRefriger ated
ĠBoil ing
ĠBr usche
Ġsc raper
ĠSl ash
Ġbou n
Ġmo ving
Ġmo chiko
Ġeven ing
per iment
Ġacc ept
Ġcur acao
Ġbr ats
ĠAr k
Ġtub ular
Ġtw isted
Ġthr oughly
ton ion
ĠCorn starch
Ġcrisp ed
Ġcrisp ier
Ġcro wn
Ġcro wns
fl akes
Ġcomp l
Ġam ber
Ġam erican
ĠCo ating
pl um
Ġlong ways
Ġpin a
ĠQu art
Ġnon alcoholic
Ġ24 2
Ġ24 8
ĠLe g
ĠSc oops
ĠSto ck
ĠZ in
ĠFry ing
Ġtoast y
Ġtoast ing
Ġpart icular
az ing
ĠCon s
so y
tz el
Ġdark ening
ĠCan n
Ġregular ly
Ġund issolved
Ġund isturbed
ett ini
Ġmois ter
not s
Ġsub mer
uk iyaki
Ġmold ed
Ġbroil ers
Ġsur rounded
Ġsur prise
ort ment
Ġcomb o
Ġpar ing
Ġcor es
ĠCamp fire
Ġbreak s
ĠCl ay
ĠCl ara
tc up
ĠSup erb
Ġstove top
app a
app i
ĠSk y
ĠSk inny
Ġunder beat
ĠRe vie
burg ers
od y
Ġabs orbs
ĠIm merse
ĠGrand s
Ġrins ing
Ġrot elli
ĠChrist ian
ĠChrist mast
ĠPr onto
ĠPro tein
ĠTort oni
ai quiri
ĠEn er
Ġtouch es
aj o
Ġoverb rown
Ġring ed
ĠCol lege
roll s
Ġsit ting
Ġsoften s
ĠGinger ed
ĠCre m
ĠNor mandy
arbecu es
ĠPl ate
Ġrepeat ing
butter milk
ĠAp art
Ġsw irling
ĠFish er
Ġbecom ing
ĠPer k
Le viticus
Ġpro volone
Ġpro ceed
ĠHe arts
ielbas i
ĠSeaf oam
Ġass ortment
ond ra
ĠHun ter
Ġinstruc ted
Ġchick pea
ĠDevil s
Ġlady finger
Ġtest ing
ĠMu eller
ĠFran c
ĠFran co
ĠCub es
ĠPap a
Ġgrind ing
Ġres id
Ġad here
ĠPo ach
ĠBra ise
ones ian
ĠMa jor
Ġbas mati
Ġmain tain
ign oli
Ġpreheat ing
ik i
ĠLoos ely
ĠSch napps
ĠFour th
ĠDoll op
min ute
ugg et
each er
Ġfall ing
Ġadjust ed
ĠHumm us
pr ick
Ġplant ain
black berry
Ġtost ado
Ġte ac
chi ote
Ġsna ils
Ġbra ise
ĠDr umsticks
Ġcour t
ĠJoy ce
Ġaj ar
ĠEleg ante
Sw edish
sto re
Ġsat is
Ġsmok y
ĠBonn ie
Ġflesh ed
Ġhum id
Ġla undry
ĠBour gu
ĠChi ppers
ĠGlor ia
Ġpres ifted
ĠDuck ling
ĠFud g
Ġrain y
Ar tich
Ġsac charin
ĠRest aurant
Ġrear range
cer in
Ġband s
equal s
Ġtil ting
Ġpu ppy
blue berry
Ġpen et
ĠDec ad
Re ady
ĠMas carp
ĠWell ington
Ġunsul ph
Ġsound s
ĠMid night
ĠMich igan
cur d
Ġbeautif ully
Ġreduc ing
ĠEas tern
Ġenhan cer
ĠTempt ations
refriger ated
Ma id
ze ch
Ġbuff et
Ġdid n
ĠPul se
ĠMarb led
Ġatt ached
ĠSher ried
ĠMargar et
sub stitute
Ġtre ated
ĠBet ween
Ġren der
ĠLump ia
ĠGarb age
din ary
Ġvert ically
Ġbead s
ĠShall ot
ĠRob in
ĠLiqu eur
Ġjudge ment
South ern
Tex as
bac ore
Ġwreath s
itam in
ĠSav annah
Ġshi itake
ĠNav ajo
Ġnonpare ils
Ġinden tion
Straw berry
Ġtot ally
ĠMors el
ĠRare bit
ĠPepp ark
Ġdisjoin ted
ĠSchnitz el
ĠSopaip illas
icch io
ĠSylv ia
Ġgly cerin
ĠBap t
ĠBors ch
ĠAtt ach
Ġspearm int
ĠNibb les
ĠBrusche tta
ĠChristmast ime
Ġoverbrown ing
ĠBourgu ignon
ĠMascarp one
) !
2 00
4 2
A m
A unt
A part
B y
B asil
B arbecued
B etter
C risp
D ill
D rain
D rop
D ipped
E P
E n
E ner
F ish
H ershey
I saiah
J apanese
K eep
L D
L on
L ay
L ite
M outh
N estle
O ur
P l
P our
P arty
P each
R A
R agu
S im
S ometimes
W heat
W rapped
\ )
b ab
b asil
b ubb
b elow
c or
c ale
c oconut
d iluted
d ipped
f ew
f ive
f amily
f andel
g rocery
g rown
h ance
i j
j ack
k an
l ay
m ustard
m ian
m icrowave
m other
m ark
m uffin
n ese
p izza
p ensive
r ust
r ams
s y
s en
s eal
s esame
s olid
s low
s aved
t W
t an
t all
t una
t iny
t flour
t top
t brown
t pepper
t baking
t eggs
t When
t Melt
t omatoes
t ingredients
u ly
v in
v ely
v iche
w o
w atch
x tail
y ps
y east
z ab
Ġ ing
in os
Ġs orted
Ġs ense
er al
er ts
er oll
Ġt id
Ġt row
Ġt arter
Ġt asting
Ġt aters
Ġt acky
Ġt ilt
Ġo l
Ġo ctopus
Ġb ased
ar ita
es ter
es ide
Ġp h
Ġp reserve
Ġp reserved
Ġp ignoli
Ġm us
Ġm ice
Ġm idd
at ma
at appi
il es
il ize
re ll
on ate
on berries
en ish
al ded
al uminum
Ġf ats
ing onberries
sp ir
sp icy
Ġin ver
ro ves
ro asted
ĠC e
ĠC el
ĠC ans
ĠC ous
ĠC ort
ĠC ath
ak ers
el ma
our age
Ġsu c
Ġa ff
Ġa ig
Ġd ream
Ġd ries
ĠS ter
ĠS ake
ĠS ole
ĠS ukiyaki
Ġg athering
Ġl oc
Ġl ines
Ġl overs
ter rey
he mian
ĠB ix
ĠB ish
ĠB unch
ĠB ened
ĠB ubb
ĠB arbec
ĠB ud
ĠB ail
ĠB ridge
ac tion
ĠP f
ĠP ay
ĠP ans
ĠP reserve
ĠP urple
ĠP uncture
Ġfl atter
dd led
un flavored
un thawed
un pared
ge ous
Ġegg roll
ow ax
ĠT ir
ĠT ass
ĠT em
ĠT ree
ĠT bs
ĠT int
ĠT idbits
ĠT iger
ĠT oothpick
Ġ( \
Ġun fold
Ġun washed
Ġche ez
Ġv eins
Ġv essel
ill ian
ol ph
ĠA w
ĠA riz
ĠA cini
ĠA lex
Ġh urry
us o
Ġcho sen
ĠM at
ĠM ush
ĠM od
ĠM uddy
Ġcream ier
Ġst ate
om ething
ch ill
ch op
Ġcr iss
Ġcr ump
to il
ts m
ts alt
um qu
ri age
ri vel
ri ft
et y
Ġsh edd
Ġsh rivel
Ġth ins
Ġover stir
ĠR on
ĠR iver
ĠR adish
ĠR ocks
ĠR oom
ast ry
ay s
ay lor
ĠCh ap
ĠCh arm
ĠCh urn
ĠCh oose
ĠCh afing
ĠCh ives
ĠCh unks
Ġr uss
Ġco ddled
ĠD en
ĠD ain
ĠD oc
ĠD airy
ĠD unk
ĠD ampen
ans ion
Ġsp ot
Ġsp ade
Ġsp oke
Ġsp anish
ĠW y
ĠW ood
ĠW right
ĠW ondra
st ep
st iff
igh s
ĠSp arkling
Ġju gs
Ġse lect
id ed
Ġfro gs
ĠSt ill
ĠSt ate
ĠSt ars
ĠSt em
ĠSt one
ĠSt ripe
ĠSt ores
ĠI I
Ġsm other
Ġsm ear
Ġground ed
ĠF ar
ĠF red
ĠF ay
ĠF ork
ĠF illet
ĠF lower
if er
ap ricot
ĠL ook
ĠL over
ĠL av
ĠL asts
Ġ5 4
Ġ5 6
Ġ5 50
Ġbread stick
op t
ĠH ang
ĠH ost
ĠH app
ĠH addock
ĠIn side
ĠG rain
ĠG ems
ĠG ib
ĠG ala
Ġcar nation
Ġcar ousel
edd i
Ġser rano
over n
sh ell
sh allow
sh ells
Ġcut outs
ĠSer ved
art i
Ġra be
Ġal though
Ġal bacore
Ġk ielbasi
Ġsl im
ide o
Ġham mer
ĠO mit
ec he
ent a
Ġbo y
ĠE lectric
ĠE tc
ĠPre bake
Ġli k
Ġli kes
ĠK it
ĠK art
ĠK emp
ĠK nots
Ġpack ing
Ġout ward
ĠBl ush
ĠSa zon
Ġwarm er
ĠV egeburger
ĠV itamin
Ġsmooth ing
ĠTh rift
ĠPe ppy
lespoon s
par ation
oc acc
ĠMel on
ĠMel ted
Ġ25 2
ĠN ear
Ġz wieback
Ġen hance
ĠY et
ĠY ears
Ġpast y
Ġpast rami
Ġfruit y
ĠSh ave
ĠSh opp
irec r
Ġspread s
ĠU ltra
pe anut
Ġfood s
arb onate
ĠBr ussel
ich es
Ġmo cha
tern al
ĠTurn ips
se veral
Ġacc ur
izz le
ĠGr oup
Ġpo or
Ġpo ach
Ġbr atwurst
ĠAr ct
Ġtw irls
oss ibly
Ġdill weed
erm it
Ġcrisp ies
Ġpinch ed
Ġmeal s
fl aked
fl owers
ĠFor ce
ist ant
Ġlong est
Ġpin wheel
Ġ24 5
ĠSc rew
sc alded
ĠPepper corn
ĠSweet a
Ġpat is
alapen os
Ġherb es
ĠFro g
Ġim agination
ĠCon n
ĠCon serve
ĠUn stuffed
ĠBre nda
so ften
Ġany more
ĠOn to
ĠMex ico
Ġseal s
ett ie
ok ee
ĠSugar ed
ang el
Ġevery one
Ġevery day
Ġper k
ĠMin ted
Ġcons isten
ĠKeep ing
uns et
ĠPam med
can ning
Ġexcess ive
ĠDi pping
Ġop t
Ġop tion
Ġpatt ie
Ġfil berts
ĠTur meric
do es
ering ues
ĠCran berries
ĠCl air
ĠCl aud
tc ream
tc ook
tc heese
app roximate
app earing
cook ie
ĠUs ed
Ġmoist ness
Ġsing les
Ġwor ds
orb et
Ġpor cini
ah i
ĠSn aps
Ġtri vet
ĠPh y
ĠPh ill
ĠDe lect
ĠFr ont
add le
ĠPro mise
Ġdep end
ĠCrust ed
ĠCrack ed
Ch ildren
roll ing
Ġloos ened
Ġkind ly
fro st
Ġcross ways
enn y
enn is
ĠMom ma
ĠSeed s
Ġovercook ing
ĠIr on
Ġshort ly
ĠWhisk ers
ĠAp ache
Ġsw itch
Ġpro bably
Ġbrand ied
Ġgu est
ĠAs i
ĠAs ian
ĠNe apolitan
Ġdevil s
ĠWatch er
ĠHun ting
Ġbath tub
Ġcombin ations
Ġgarban zos
ĠJam es
!! !!
Ġmound ing
ĠImp ortant
ĠDill ed
ĠSun rise
fu red
Ġstr ands
Cr acker
ĠBo at
ĠBo hemian
ala o
ĠFettuc cini
ĠInd onesian
ug ly
tC ut
tC ream
hyd rated
ĠTr uffle
ĠTr uly
Ġad ults
ĠLou ise
ĠTam ales
ĠPrepar ed
ĠRum aki
ĠWay s
Ġcast or
ĠMa e
ĠMa x
Sp ray
Ġtear ing
ĠHo pping
ĠLi berally
Ġbow tie
Ġins ist
ĠJohn son
23 5
ĠCor rect
ob by
sk ins
Ġear lier
ĠPers ian
ĠDoll ies
ĠFil es
Ġspecial ty
garnish es
Ġtr ust
Ġtr uffles
ĠCap onata
ĠPar owax
ĠWil ma
ĠSand ra
ĠBlond ies
ĠCarol yn
part ially
Ġwinter green
ĠBea uty
ĠCashew s
thin ly
ĠJew el
Al ways
Ġlo x
Ġparsn ip
ĠAd olph
veget ables
Ġstretch ed
Ġstretch ing
tS ift
ĠStep han
ĠOut ra
Ġhus k
ĠHalf way
ĠSpring time
tD rain
ĠRellen o
App les
Pre paration
gl aze
fa its
ĠSuc c
Ġha upia
meas ured
follow ing
ĠSmok y
Che ez
Ġpres ent
almon d
Ġsufficient ly
Fl avor
ĠFe el
ĠHand le
ĠKrisp y
ĠMam ma
Ġsear ed
ĠColor ado
ĠHer o
ĠHer itage
squ are
Ġbud get
ĠBudd ies
ĠAlas kan
cool ed
lo va
ĠCam per
ĠMaster piece
ĠKr unch
tT op
ĠPal mas
ĠTra il
lett es
ĠCharl ie
Pro gresso
Ġmid get
Ġgher kin
ĠBer ried
Ġappet it
Ġproper ly
So ft
Ġtim er
ĠSna pper
ĠTreas ure
Ġslash es
ĠSett ler
Ġunsul fured
Ġide al
ĠMid w
ĠMah atma
tsh ortening
ĠChick peas
ĠDis appearing
ĠVer mont
Ġaccum ulates
ĠWilliams burg
Ġbeautif ul
ĠLuc ille
Ġboys en
ĠSkew er
Blue berry
ĠTempt ation
Ġarm s
Ġtanger ine
Ġtanger ines
Ġmul let
Ġvar ied
Ġholder s
Ġjigg le
ĠProven ce
ĠProven cale
Ġobtain ed
Sn ack
ĠMull ed
ĠJess ie
ĠKat ie
ĠGlad ys
Ġdiscolor ing
Ġrutab aga
Ġcylinder s
mun ity
ĠCour t
ĠCount y
Ġheal th
ĠKern el
ĠButterf ly
ĠButterh orns
ĠPlan ters
ĠCanton ese
Heal thy
Marin ated
ĠTbl s
ĠAnch o
ĠMinn ie
ĠRh ine
ĠIre ne
ĠEm ily
ĠVick i
Ġques ad
conom ical
Ġutens il
Ġjalape o
elebr ation
Ang el
Ġbic arbonate
Ġchang ing
ĠCand ies
ĠPac ific
ĠMey er
ĠMyr tle
ĠMatt hew
ĠCher okee
ĠFest ival
Ġblister ed
Ġenter tain
Ġbranch es
Ġunbl anched
Ġoverflow ing
Tab asco
Whe els
Ġir regular
arant eed
Ġmas a
Ġmax imum
andom ly
Ġsult anas
Ġsunda e
ĠBec ky
ĠRag out
Ġreason able
ĠFric ass
ĠHav arti
Ġclou dy
ĠEli zab
ĠKlus ki
Ġaccept able
ĠArk ansas
ĠZin fandel
ĠEner gy
ĠCrem ora
Ġresid ue
Ġcourt esy
Artich oke
Ġpenet rate
ĠDecad ent
Ġunsulph ured
ĠBapt ist
Ener gy
Lon ghorn
Ġing red
Ġtrow el
Ġinver ting
ĠCous in
ĠCort land
ourage ment
ĠSter ilize
ĠBened ic
ĠBarbec ups
ĠBail ey
ĠPay day
ĠTass ies
ĠAriz ona
Ġshedd ed
Ġruss et
ĠHost ess
ĠHapp iness
ĠThrift y
ocacc ia
ĠShopp e
ĠArct ic
ĠStephan ie
ĠElizab eth
' d
. (
. ")
1 50
2 25
3 4
7 6
: \
A ust
B ur
B erry
B undt
B etty
C K
C asserole
D O
D essert
F ast
G E
G u
G inger
G olden
G raham
H er
H ard
I ce
J ust
J if
K ids
L Y
L ight
M s
M ac
M iss
M ethod
N umbers
O x
P lace
P ork
P ea
P urpose
S G
S et
U M
V P
W ip
a et
a ute
b re
b iscuit
b uy
b illy
b orio
b ody
c el
c it
c inn
c art
c ider
c ould
c alor
c ilantro
c lean
d r
d ifferent
d efrost
d icchio
f il
f aced
g en
g ency
h l
h ave
h og
h aps
i da
i que
j el
j oles
k id
k ern
k nead
l ie
l eness
l oose
m g
m ine
m ate
m ings
n ow
n et
n acho
o ated
p it
p ans
p urple
p asta
s andwich
s lices
s uper
s worth
t it
t rim
t greased
t egg
t able
t Th
t be
t from
t then
t oothpick
u gh
v able
w a
w ar
w et
z er
z ag
Ġ edi
Ġ ant
Ġ uv
Ġ iodized
Ġc ell
Ġc ent
Ġc ult
in ely
in cinn
Ġs ample
er a
er ie
er ate
er esa
er fulness
an ak
Ġt ass
Ġt reas
Ġt ent
Ġo oz
Ġo xtail
Ġb en
Ġb ac
Ġb ans
Ġb end
Ġb asted
Ġb uckey
Ġb unny
Ġb eside
ar ound
ar ins
ed ar
es ome
Ġp am
Ġp ate
Ġp oll
Ġp ome
Ġp ipe
Ġp uncture
Ġp ige
Ġm orn
Ġm ag
Ġm ock
Ġm ist
Ġm acker
Ġm esa
at elle
re ci
re ls
ut en
en z
en ee
and ine
al tern
al oupe
ou g
ou let
Ġf ans
Ġf auce
Ġf ud
Ġf ist
Ġf ron
Ġf ootball
Ġch ard
ing ed
Ġw all
Ġw ip
Ġw iener
Ġto aster
Ġin ternal
le as
le ep
ĠC ame
ĠC og
ĠC ome
ĠC app
ĠC ouple
ĠC ukes
ĠC lear
ak u
am ed
am eat
am ab
Ġsu pp
Ġsu nd
Ġa ut
Ġa id
Ġa iry
Ġa chiote
Ġd ie
Ġd ue
Ġd iv
Ġd ome
Ġd eseed
ĠS oo
ĠS ack
ĠS we
ĠS oc
ĠS emi
ĠS ingle
ĠS assy
ĠS liver
ĠS zech
ĠS unset
Ġg ot
Ġg lace
Ġg ash
Ġg ills
Ġg elled
Ġl ap
Ġl oves
Ġl atter
Ġl ily
Ġsalt pe
Ġpe aked
ĠB ed
ĠB ri
ĠB erries
ĠB ury
ĠB ows
ĠB reeze
ĠB achel
ĠB arbecues
ac akes
ac ity
ĠP il
ĠP and
ĠP om
ĠP av
ĠP ue
ĠP ray
ĠP sal
ĠP ossum
ĠP rime
Ġfl ag
gg ie
ine t
ow a
ĠT in
ĠT us
ĠT ina
ĠT een
ĠT andoori
ĠT ype
ĠT VP
Ġ( .
Ġun wrap
Ġun shelled
Ġun opened
Ġche f
Ġche erfulness
Ġv elve
Ġv iole
ill es
ill ows
ol or
ol ul
ol ina
ĠA ge
ĠA ir
ĠA sh
ĠA cap
Ġmin eral
Ġh im
Ġh ooks
Ġh yd
ĠM ick
ĠM ott
ĠM ess
ĠM eg
ĠM any
ĠM mm
ĠM enthe
ĠM imi
ĠM eringues
ĠM SG
Ġbe es
Ġor dinary
ra isin
all ic
all as
all ion
Ġst ud
Ġst ron
om ing
ell oni
ch ips
ch olesterol
to ff
ts y
um i
Ġcan ape
ri g
ri bs
ri zzle
Ġn yl
Ġn ests
Ġn ugget
illa ge
Ġsh aring
Ġth inn
Ġth under
Ġgre asy
Ġmar ks
Ġmar gin
Ġmar ket
th ur
Ġover done
ure l
ĠR ol
ĠR ush
ĠR ip
ĠR ear
ĠR eg
ĠR achel
ĠR eddi
Ġcook ware
ĠCh itterlings
Ġr ices
Ġr amen
Ġr icer
Ġco ke
ĠD es
ĠD raw
ĠD isp
ĠD eg
ĠD ecker
ab an
ab ella
ab ob
Ġsp out
Ġsp ec
Ġsp aces
ĠW as
ĠW inner
ĠW olf
ĠW aik
ĠW alla
st or
st rap
ĠSp ears
ĠSp ike
ĠSp anak
Ġse w
qu ash
id ent
ĠSt ollen
ĠI owa
Ġsm ells
ĠF ag
ĠF os
ĠF ile
ĠF ennel
ĠF ootball
ĠF irecr
Ġy o
Ġy ummy
if ul
Ġlemon y
pple ment
ĠCook s
ĠL an
ĠL ater
ĠL ux
ĠL abel
ĠL ord
ĠL isa
ers ey
Ġbl ossom
Ġbl isters
Ġ5 2
Ġ5 3
Ġheat h
Ġbread ing
Ġbread crumb
op ita
ĠH a
ĠH il
ĠH ood
ĠH ank
ĠH orns
ĠH odge
Ġrem oves
ĠG ets
ĠG ull
ĠG ai
ĠG ingersnap
Ġcar t
ring s
Ġ9 3
Ġ9 6
Ġ9 8
Ġ9 9
ber ta
Ġro asts
ag as
ag ain
Ġab ut
sh i
sh erry
sh iny
ĠWh it
ub an
tion ed
Ġra dicchio
Ġ30 5
na ise
Ġred fish
Ġk in
Ġk ill
Ġk iw
Ġk umqu
Ġk amab
mer gency
av o
os ole
Ġex periment
Ġsl at
ul co
Ġapp reci
Ġseason al
li ve
li atelle
let ide
reas es
Ġgra de
ĠO k
ĠO z
ĠO ma
ent ic
Ġpl unge
est a
est one
Ġbo b
Ġref resh
ĠE st
ĠE la
ĠE vaporated
ats um
Ġhe ight
ĠCr usts
ĠCr uda
allow een
ĠJ ay
ĠJ ars
ĠJ oin
ĠJ ug
ĠJ icama
ĠJ alapenos
ĠJ ersey
ĠK ring
ĠK ale
ĠK aiser
Ġpre cook
Ġpre melted
ĠBl iss
ĠBl ock
ĠSa uced
Ġwarm s
ĠV irgin
ĠV iet
ĠV illage
Ġore os
urp entine
oni al
ess e
ĠN ell
ĠN ip
Ġz ig
Ġz ipper
Ġpast el
ĠChill i
Ġcom mon
Ġcom munity
ex ample
ex pensive
ĠBe tsy
Ġsoft ball
Ġfirm ness
Ġfat tening
pe anuts
16 0
ĠRef resh
ĠRef reeze
Ġthicken er
Ġsc rod
reez es
Ġeven t
Ġthaw s
Ġturn overs
Ġde glaze
ĠSoup s
Ġcur ve
Ġcur ling
uck wheat
ĠGr annie
ĠAr ound
ĠAr borio
ĠAr thur
oss al
oss ie
ern et
ton ions
Ġhand y
Ġhand les
ĠCar ob
ĠCar rie
ĠCorn y
ĠRo ka
Ġcrisp er
Ġcro cks
Ġspray s
sa ving
sa usage
ull ers
Ġmeal y
ud ites
ĠTo dd
ĠTo gether
ĠTo asts
Ġar omatic
ĠFor get
ĠFor ty
Ġstew er
ĠSe ash
ĠCo ated
ĠFl ako
ĠFl ossie
Ġrec over
Ġdri er
Ġnon metal
Ġ24 4
ĠTab lespoons
ĠSc and
ĠSc out
ric olor
ĠZ e
ĠPepper y
Ġkn ot
Ġkn ock
Ġkn ots
ig rams
ĠFro sts
az ola
ĠDel i
ĠUn fried
ĠBre y
ĠMon t
Ġany one
ĠJack ie
bl o
bl ers
Ġchi ve
Ġmarin ates
Ġseal able
ok o
Ġsome one
corn starch
Ġflat tening
Ġremo vable
oin ts
wh ere
wh ipping
Ġper cent
Ġper ked
pot atoes
Ġcrock ery
ĠDream y
wich es
ĠRanch o
Ġbar rel
ĠPat rick
Ġskim ming
Ġfre ely
Ġac tion
Ġcor d
most ly
ĠPast ries
ĠTur k
irl oom
Ġbul bs
ĠAng ie
Ġwood chuck
ĠMars ha
ĠCl ar
tc ut
tc akes
Ġcap acity
ĠCrab s
Ġ* *
Ġdon uts
Ġunder cook
Ġless en
ĠGreat est
ĠDump lins
ĠGl uten
ĠFr it
ĠCro iss
ĠPan cit
ĠPr ince
Ġprefer able
ily n
ĠEn ten
ĠBur st
ĠMar g
ĠMar riage
ĠMar ilyn
bo at
Ch i
ĠCol ossal
Ġflatten s
Ġtrim mings
Ġbit es
oe uvre
Ġsoak s
Ġmost ly
ĠWal ker
umm ies
areri b
ĠWheat sworth
Ġconsom m
ĠAn other
St ew
Ġcloth es
mar aschino
bas i
ĠPer ch
ĠPer fection
ĠPer colator
Le ave
ĠHe irloom
Ġty p
rid ay
ĠCur rant
Ġbase ball
bro il
ĠMo chi
ĠIc icle
ĠScr atch
ĠStick ies
Ġcurd ling
Ġchip otle
ĠPol enta
Ġlin en
Ġscr atch
ĠJam a
Ġrich ly
Ġ23 5
ĠDevil ish
Ġdecor atively
Ġclos ing
Ġvari ations
iti ous
ĠSnow y
ĠSnow dri
Ġcard board
ĠRich ards
Ġtast ed
Ġdis ks
ĠKn ow
Ġres istant
Ġeas iest
ĠMiss ion
Ġjack et
Ġcontinu ous
ĠAm andine
Ġperfor ation
Ġ19 9
ĠRi pple
ĠHar ry
ĠHal us
ĠHal ved
ĠBra d
ather ine
met allic
Ġwil ts
ĠMa ine
ĠMa ui
ĠMa ifun
Ġinter est
Sp ice
Sp icy
Ġbas es
ĠSu pplement
Ġmarble ize
ĠMor avian
ada if
Ġeigh ts
Ġsor ry
ĠGu ilt
rins ed
Ġdr umstick
ĠGi org
ĠOat ies
Butter milk
ĠPart ies
Fro sting
Ġtr ace
ĠPar faits
ĠRos amarina
ĠRos arita
Ġpeek ing
ĠHill billy
uth entic
Ġdehyd r
yn am
Ġsea weed
Ġ29 5
Ġsuper mark
Sh rimp
Ġmill igrams
ĠBut t
ĠBut tons
ĠWaff le
fir mly
Ġbush els
ĠEv a
tS et
tS poon
Ġcour age
ĠMade le
ĠEd na
ĠEd ition
ĠEd ible
Ġweight ed
ĠHold ing
Ġfr itter
ĠEvery one
Pre pare
con cent
gran ate
Ġgent leness
Ġcray ons
ĠHel p
ĠHel oise
ĠDorito es
Ġunmold ing
Ġsquir rels
ĠStromb olis
Ġgroup er
Ġslab s
ĠPass ion
ĠStar light
Ġexp and
ĠJu an
ĠJu ly
Fl our
iev able
Ġplay ers
ĠComplet e
Ġprop or
ĠCab ernet
ĠMam ie
rif ic
Ġpol ish
ĠThumb prints
ĠBrazil ian
Ġincorpor ate
Un cle
tb owl
tub e
trem aining
ĠGram ma
Ġbu ild
ĠPep e
Ġrid ge
mini ature
ĠBak ers
Ġsett ling
blue berries
Pro verbs
del i
wor ks
Ġpen cil
ĠSus ie
ĠMethod ist
ĠDec rease
ĠGall o
oven proof
ĠSna ppy
ĠTe acakes
ĠDav id
ĠJumb le
Ġtrip les
Ġide a
Ġdisc s
ĠSmuck ers
Ori gin
Ori ginal
Ġcamp fire
Ġport able
Ġhog s
ĠLuc y
ĠHon or
ĠHon olul
Ġreduc es
ĠKe bab
Ġenhan ces
ĠSkew ered
four th
four ths
sec ond
Ġcrow der
Ġbuff alo
ĠBab ies
Ġvar ies
ĠBern st
Ġflam ing
ĠTim ey
tst ir
ĠDie ter
ĠEll en
ĠMeltaway s
ĠYu letide
Ġrutab agas
Ph illy
com es
wax ed
Ġ__ __
Ġbagg ed
Ġsugg est
ĠSen ate
ĠChalup a
Hun garian
Sal ad
ĠComb o
ĠRoul aden
ĠFrankfur ters
ĠPaprik as
ĠMusc at
Ġinject or
ĠBagg ies
ĠTail gate
ĠWind ows
Ġrepl enish
ĠStra da
ĠHol y
ĠThom as
Ġcomfort able
ĠTabou li
Swans on
Ġpleas er
equ ivalent
grap efruit
ĠCray fish
ĠCirc le
Ġgau ge
ĠPudd in
ĠAbs olutely
tso da
ĠRes ift
Ġrubb ing
ĠStre et
ĠLar ry
ĠLat kes
ĠLim as
ĠHag el
Ġenc ouragement
ĠChocol at
Ġcompl iments
ĠRevie ws
prick ed
Ġteac up
Ġsatis fy
ĠPeppark akor
ĠBorsch t
Ġtid bit
Ġloc al
ĠBish op
ĠAw esome
Ġcrump led
ĠWy oming
ĠGib let
Ġaccur ately
ĠAsi ago
ĠHunting ton
ĠOutra geous
ĠSucc otash
ĠAncho vy
Ġentertain ing
ĠFricass ee
aet zle
calor ic
pit ted
tTh en
Ġedi ble
Ġcult ured
incinn ati
Ġoxtail s
Ġbac alao
Ġpoll ack
Ġpome granate
Ġpige on
Ġmorn ings
Ġmacker el
Ġfauce t
Ġfron t
Ġwip ed
Ġsund ried
Ġsaltpe ter
ĠBachel or
ĠPav lova
ĠPue blo
ĠPsal ms
ĠTus can
ĠAcap ulco
Ġstron ger
Ġnyl on
ĠRear range
ĠWaik iki
ĠFos ter
ĠHank y
Ġkiw is
Ġkamab oko
Ġappreci ation
ĠEla ine
ĠViet nam
ĠSnowdri ft
ĠGiorg io
Ġsupermark et
ĠHonolul u
% ).
* ,
. /
0 7
4 3
4 75
5 3
5 00
? )
A K
A p
A t
A v
A ka
A cc
A djust
B T
B eat
B oil
B ars
B rit
C innamon
C rab
C ajun
C ont
D ream
D ot
D iced
D ried
D inner
E D
E m
E ven
E aster
E ye
F our
F ine
F uss
F aced
F reezes
G en
G arb
G rated
G oya
H E
H o
H en
H el
H ell
H ave
H erb
K nox
K eebler
L and
L ibby
M O
M c
M ade
M int
M iddle
M azola
N e
N ever
O K
O W
O ff
P ort
P yrex
P oppy
R ef
R ich
R anch
S un
S ub
S yrup
S esame
S low
S alt
S eason
S quash
T ot
T ater
T om
T akes
T urn
T wo
W ild
Y LE
Y east
a it
a ving
a zz
b ar
b et
b ott
b urn
b eg
b by
b rien
b acher
c ar
c ing
c ast
c tion
c rab
c ium
c ont
d h
d u
d ra
d ies
e venly
f ace
f ashion
f oam
g ill
g ust
g ant
g ent
g ently
g lish
g ive
g rate
g ium
h on
h or
h ang
i els
i rad
i ables
j onnaise
k ig
k osher
l ick
l ard
l ots
l aze
l ima
l ene
m en
m ish
m ano
m acaroni
n ac
n ake
n oodles
n eed
n ite
n atural
o v
o key
p et
p inch
p ink
p aste
p ints
p urch
p into
r il
r un
r ough
r alian
r ong
s he
s ala
s ingle
t sp
t un
t ake
t ab
t aste
t ree
t about
t meat
t dish
t dry
t If
t medium
t This
t mixture
t beat
t Yield
t Ar
t melt
t Brown
t Heat
u j
u u
u an
u pp
u et
u ie
u rop
v on
v ia
v ance
w an
y olks
Ġ /
Ġ ream
Ġ ul
Ġ est
Ġ usage
Ġ arb
Ġc a
Ġc ou
Ġc ow
Ġc ra
Ġc ab
Ġc raisins
Ġc apped
Ġc aus
Ġc elebration
ST YLE
in ton
in tosh
in avian
Ġs atur
Ġs ided
Ġs atsum
er on
er ds
er oos
an ie
an ten
an zo
Ġt i
Ġt atoes
Ġt ies
Ġt allow
Ġt ends
Ġt ropical
Ġt sub
Ġt atar
Ġt urpentine
Ġt ricolor
Ġo in
Ġo cc
Ġo cean
Ġb il
Ġb ing
Ġb le
Ġb el
Ġb less
Ġb als
Ġb ugs
Ġb uckwheat
ar ed
ar ies
ar ily
ed ly
ed ral
es es
es ca
Ġp he
Ġp ith
Ġp ad
Ġp ay
Ġp uts
Ġp izz
Ġp aints
Ġp addle
Ġm and
Ġm oon
Ġm ant
Ġm other
Ġm ang
Ġm eanwhile
Ġm esh
Ġm ahi
ut eron
on n
on ds
on ny
en uts
en go
en bacher
al at
al em
al itos
ou st
ou ds
Ġf am
Ġf erm
Ġf ail
Ġf ib
Ġf ritos
Ġf oot
Ġf ideo
Ġch ance
Ġw aste
Ġw ife
Ġw ein
Ġw een
Ġw rit
ic ola
sp rink
pp ine
Ġin ward
Ġin expensive
le g
le h
le o
le en
le ted
le ft
ro y
ro ad
ro me
ro ma
ĠC i
ĠC ard
ĠC ec
ĠC ouscous
ĠC athy
ĠC ooper
ĠC HI
ĠC armel
ĠC afe
ĠC atherine
ĠC incinnati
or ies
or ton
or ino
el ini
as ants
am is
am mon
am ans
am blers
Ġsu cc
Ġsu ppos
it ed
Ġa z
Ġa ged
Ġd ic
Ġd ips
Ġd ime
Ġd ig
ĠS i
ĠS ad
ĠS iz
ĠS ince
ĠS omething
ĠS leep
Ġg un
Ġl ie
Ġl ab
Ġl ip
Ġl ace
Ġl ock
ter ed
ter house
he aped
oo ley
ix ies
ĠB i
ĠB and
ĠB ack
ĠB omb
ĠB ite
ĠB uck
ĠB og
ĠB rid
ĠB ug
ĠB eck
ĠB elle
ĠB unny
ĠP i
ĠP ra
ĠP uffy
ĠP uer
ĠP ico
ĠP ipp
ĠP itas
ĠP rior
ĠP ocket
ĠP oulet
ĠP osole
ĠP oints
ĠP ixies
un ion
Ġegg less
is m
is ture
ĠT O
ĠT on
ĠT or
ĠT ies
ĠT ray
ĠT ia
ĠT imes
ĠT aver
ĠT aylor
Ġbutter s
Ġbutter ing
ick in
Ġun frozen
Ġun available
Ġun iodized
Ġun frost
Ġun waxed
Ġche aper
Ġv ers
Ġv erde
Ġcheese cakes
ill ion
ĠA way
ĠA ct
ĠA stor
Ġh oop
Ġh olly
us alem
ĠM ee
ĠM erry
ĠM ount
ĠM aking
ĠM ussels
ĠM oose
ĠM iso
ĠM BT
Ġbe ar
Ġcream s
Ġwith dra
Ġor naments
ra pple
ver se
all ah
Ġst ix
Ġst ur
ater ial
om y
om pany
ell es
ell ane
ad ami
ad just
ook ie
Ġfor dh
Ġwater s
ch es
ch ow
ch ool
ch mer
ĠAdd ed
ir led
ice berg
Ġbro om
Ġcr udites
um ettes
Ġcan isters
Ġcan apes
Ġn op
Ġn iblets
Ġn ative
Ġn appa
Ġsa zon
Ġ4 4
Ġ4 9
et own
Ġsh in
Ġsh ade
Ġsh ark
Ġso ba
Ġth er
Ġth inning
Ġj ob
Ġgr assy
Ġpowder y
Ġsauce pans
Ġmar row
Ġmar sala
th ese
th alf
Ġover cooked
Ġover hang
ĠR ick
ĠR ail
ĠR oca
ĠR io
ĠR ita
ĠR oux
ĠR eroll
ĠR enee
ĠCh a
ĠCh ant
ĠCh ina
Ġr itz
Ġr andomly
les t
ush ian
ĠMix master
Ġco ils
ĠD u
ĠD ick
ĠD oves
ĠD ee
ĠD andy
ĠD ecor
ĠD awn
ĠD aiquiri
ĠD RA
ĠD ynam
ab ur
ab eche
ur s
ĠW eep
ĠW isp
ĠW ok
ĠW iener
Ġgreen ish
Ġre l
st eak
st ale
st udded
im o
im in
im itation
ĠSp ear
ĠSp uds
Ġse ver
qu ette
id i
ĠSt e
ĠSt arch
ĠSt ones
ĠSt agg
ĠI MO
Ġsm iles
Ġground hog
Ġslic er
ĠF re
ĠF oo
ĠF inn
ĠF are
ĠF ew
ĠF eed
ĠF east
ĠF ully
ĠF uss
ĠF unny
ĠF orever
ĠF ocaccia
res cent
ten in
Ġall spices
Ġpie crust
Ġ6 00
ĠL u
ĠL el
ĠL ake
ĠL iz
ĠL atin
ĠL attice
ĠL adies
ĠL illian
age able
Ġoven safe
Ġbl ow
Ġbl ood
Ġbl aded
op en
op han
ĠH ut
ĠH ull
ĠH oles
ĠH ead
ĠH OT
ĠH uckle
ĠH ope
ĠH yd
ĠH alloween
Ġ10 6
oon g
ĠIn c
ĠIn spir
ĠG in
ĠG il
ĠG al
ĠG ate
ĠG eri
ĠG ene
ĠG inny
edd y
over ripe
em ore
Ġshor tcakes
Ġshor tenin
Ġro mano
Ġmeat loaf
Ġab und
sh aw
Ġcl oud
Ġcl abber
ĠWh atever
ant i
Ġcrack ing
Ġcrack lins
Ġra di
Ġal a
Ġal arm
Ġk r
Ġk ick
Ġk its
Ġk aro
Ġk aiser
av as
os ed
Ġstick iness
Ġex cluding
Ġsl anted
ĠBeat en
Ġapp roximate
Ġfresh ness
Ġsk ip
Ġsk irt
Ġsk inny
ep roof
ep eno
Ġham bone
let e
Ġ13 5
Ġ13 6
tt es
tt elli
Ġcool er
iz ing
ĠO l
ĠO la
Ġnutmeg s
ent ial
isc ellane
ĠCut ting
ĠE c
ĠE s
ĠE ss
ĠE ase
ĠE ck
ĠE asily
ĠE lean
ĠE urop
Ġhe ar
Ġsqu ish
ĠCr ullers
ĠBrown berry
ĠPre fer
Ġli ve
Ġli ving
ave ttelli
ĠJ un
ĠJ ones
ĠJ ord
pan cake
pan ionship
ĠK en
ĠK ake
ĠK ind
ĠK ath
ĠK rets
ĠTop s
ĠBl t
ĠBl u
ĠBl intz
ump lings
bur st
ĠV ent
ĠV ern
ĠV ig
ĠV ege
rim i
ĠTh eresa
ĠSalad s
ĠPe ak
oth ing
oc oa
ift y
ĠMelt ing
Ġfin er
Ġfin es
ĠN a
ĠN at
ĠN ick
ĠN ettie
Ġen glish
Ġliqu ify
ĠY olk
Ġdes ires
Ġunc oated
Ġfruit ed
Ġcom meric
Ġcom panionship
ĠSh el
ĠSh ower
ĠItalian a
ĠBe ach
Ġ7 6
ĠU m
ĠU mm
ĠBread sticks
Ġoff er
Ġbag oong
Ġtur tles
Ġblend s
ble ts
Ġbay leaf
Ġstri pped
ĠSw amp
ĠSw ordfish
Ġconfection ary
Ġgl ove
Ġgl azy
Ġgl itter
Ġcle ans
Ġmo chi
tern ess
tern ational
oun g
Ġafter noon
Ġtart let
ĠVelve ty
Ġlay ing
Ġcran apple
per ature
Ġgran ite
ĠRed uced
ĠRed enbacher
Ġcur ried
Ġcur ved
Ġstiff er
Ġpo ppers
Ġbr ussels
Ġbr ought
Ġbr ussel
ĠAr nold
Ġclean ly
Ġtub ettini
ern u
ĠCar ter
ĠCar ole
Ġcrisp ness
Ġspray ing
og any
Ġsec uring
ull ed
ud y
ĠTo ppers
ĠTo kay
fl ingers
fl orets
Ġcomp act
Ġcomp artment
Ġar en
Ġar oma
co d
co arsely
Ġstew s
ĠCo q
ĠCo ast
ĠCo kes
ĠGar am
ĠFl o
ĠFl am
ĠFl avorite
ĠQu arts
ĠQu iches
Ġnon metallic
Ġcumin o
ĠLe ona
ĠLe banese
Ġneed les
ĠSc ot
ĠSc rapple
sc allions
ĠZ esta
ĠFruit s
ĠMeat s
ĠMeat loaf
ĠCon es
ĠUn sweetened
ĠUn used
ĠMon terrey
ĠSalt ine
Ġdeep er
ĠPeel ed
ong he
ĠThe m
ĠAl aga
ĠAl berta
ĠRitz y
.\ )
ok i
ok kig
ĠPound s
ĠHot el
corn bread
ert a
Ġsubstit utions
Ġ11 1
Ġ11 7
Ġback bone
ĠKar toff
wh ichever
Ġper haps
Ġel imin
ĠCont est
stick y
pot ato
Ġlength ways
ĠCrumb led
flavor ing
ĠPizza iola
ĠGerman y
uns liced
ĠAll a
lit ons
ĠDor is
can ola
can non
Ġpar ley
gel atin
ĠDi pped
ĠDi jonnaise
ĠOr ville
ĠOr naments
Ġfil ter
Ġfil leted
Ġsn aps
ĠPast its
ĠNo el
ĠPick in
ĠPet ite
Ġplatter s
Ġwood y
ĠMars h
Ġpop overs
ĠCl ip
ĠCl inton
ĠCl ouds
tc ool
Ġpr act
ĠSk yl
13 0
Ġcap fuls
amb uie
ĠCaramel itas
ĠAcc ording
ĠRe union
ĠGood y
cr ush
cook s
Ġsing ly
allop s
od le
ĠGl en
ĠGl ow
ĠGl ori
Ġspring form
Ġspring erle
Ġscal es
ann ed
ĠSm art
hew y
ĠIm itation
Ġtri pe
Ġsun shine
Ġgrill ers
ĠDe uteron
ĠCro ss
ĠTw elve
ĠTw irls
ĠAltern ating
ĠWill ie
ĠPr in
add ing
Ġdep artment
Ġdep ressions
Ġdel ight
Ġact ually
mix ing
ĠMar engo
ĠCrack les
ĠCrack lin
Ch ili
ĠCol ored
ĠCol onial
ĠCol cannon
Ġtrim ming
Ġbit terness
ĠCal yps
ĠCal avo
ĠMilk less
may o
ĠCrock pot
Ġsolid ly
ĠNor ma
ĠMom ents
ĠPuff ed
ĠAn na
Ġstring y
Ġfran k
Ġstack ed
ĠBar n
Th ree
mar ine
mar kets
Ġgo blets
ĠAp ril
Ġsw irled
ĠPer u
Le banese
Ġanise ed
ĠMed allions
Ġtight en
Ġman ageable
ĠAunt ie
ĠWater cress
Ġseafood s
Ġsix ths
ĠBay ou
Ġlower ed
30 3
ĠJo b
ĠScr amblers
ĠSec tion
ĠPol ka
ĠPop over
pre heat
ĠBowl s
Ġrib bons
Ġrib eye
ĠSummer time
Ġgrapefruit s
Do es
Ġbri quettes
ĠShort ly
Ġsoon er
Ġharden ing
ĠDay s
Ġartifici ally
ĠBo bbie
ĠInd oor
ĠSmith field
Ġbed s
ĠJer usalem
ĠFran ces
ĠFran ce
ĠCub ed
ĠRich ard
ĠKn ock
Ġres ult
ĠTr uss
ĠBon es
Ġtough ening
Ġad ult
Ġmicrow aving
ĠAm azing
ĠTam my
ipp o
ĠPo ds
Ġcav atelli
Ġ19 0
Ġ19 8
Ġrig ati
ĠKellogg s
Ġtwist ing
ĠBra unschweiger
ĠEat en
Ġswirl s
Sp ecial
Ġpier ces
Ġsav oy
ĠHo ff
ĠLi ving
Ġdiet ary
ĠSu z
19 9
Bro iled
Ġdistrib uting
ĠEclair s
au gs
Ġsor rel
ĠPor tion
ĠPor tobello
ĠSmooth ie
Ġuncover ing
ĠTost adas
Ġprick ing
ĠPers on
Ġste ams
ĠReheat s
ĠBac ardi
ĠCas ino
Ġhelp ing
ĠPart ly
ĠLef t
Ġtr ough
Ġtr uss
ĠGrandm om
Ġadjust ing
ĠScotch eroos
oriz o
ĠRos y
ĠRos ie
ĠGran ulated
wal nut
ĠTre et
ba o
ĠWil t
Ġduck ling
Ġcall ing
Ġveg ie
Ġtost adas
Ġlo ving
ĠJan ice
ĠJan et
ĠAny time
Ġsuper markets
Ġfeed ing
Ġgizz ard
ĠAd ams
ĠAd vance
ĠLor ann
Ġdesign s
ĠBob by
Ġsna il
Ġmem ories
ĠDr ambuie
tS aute
anger ine
ĠEd ith
ĠEd ges
Ġhus band
Ġcrunch es
ĠSpring erle
ĠBoy s
ĠSub s
ĠEvery thing
Pre tzel
cal illi
Ġele gant
Ġomelet te
cle ar
Ġla vender
Ġla urel
Ġhun ger
ĠParmig iano
On ly
Ġeff ort
ĠBel gium
Ġcrystall ize
ĠChoco hol
cub e
Ġfix ings
ĠSens ations
Ġher o
Ġexp ensive
Ġexp ansion
Ġmicro cook
Ġmicro safe
ĠFri joles
ĠKet tle
ĠRoy ale
ĠFe et
ĠKu rome
Ġsplash es
Ġmen u
Ġmen tioned
ĠMam aw
Ġrare bit
ĠMcKay s
ĠLee ks
ĠHer ring
Ġconven ient
Ġpurch ase
Ġmult ip
ĠBudd ig
Ġspear ed
Ġcomple ment
Ġperfect ly
Ġflo ats
ĠRec ip
ĠRec over
ĠBraid ed
ĠQuesad illa
Ġcal amans
Ġpray ers
ĠTra vel
Ġdiabetic s
ĠPim iento
Ġappet ite
36 5
Ġple asant
ĠCant aloupe
ĠPres to
ĠTer rific
ĠMas ala
di et
pour ri
Ġnap kin
Ġjal epeno
Ġgrand mother
ĠDis join
Ġcamp hor
ĠColl ards
ĠDan iels
ĠWreath s
stal ks
eff ernu
ĠEas iest
ĠCod fish
crack ers
sec ret
yss op
ĠPul p
ĠDou bles
ĠHolly wood
Ġclump ing
ĠMargar ita
Diet etic
dri zzle
ris es
rot ini
ĠBern ice
Ġflam eproof
Ġren net
ĠJul ia
ĠJul ienne
ĠJess ica
ĠKal amata
ĠYu le
Ġdiscolor ation
Car amel
Sm all
bel ievable
pure e
Ġ__ _
Ġsugg ested
ĠChalup as
ĠWing flingers
Ġheal thy
ĠJenn ifer
ĠButterf lied
ĠButterh orn
Tast y
Tast es
gr ind
ĠAust rian
ĠRus se
ĠGoose berry
ĠJeff erson
ĠBlan che
Ġdeter mine
Ġprov ides
ĠFrankfur ter
ĠPaprik ash
ĠMusc atel
Nor wegian
Wor ld
marin o
ĠSizz lers
Ġjer k
Ġjer ky
ĠSpir al
ĠGh irad
ĠSkro odles
ĠSkro odle
Stuff ing
ĠMagn if
Cann ing
Us ing
tCh ill
Ġfond ant
ĠCO LD
Ġsubs ides
ĠBount y
Ġchew ier
Ġhapp ens
ĠDess erts
ĠGul f
Ġkol basi
Ġnutr itional
ĠOccasion ally
ĠCons istency
Ġsubmer ged
ĠFranc isco
ĠFudg ies
ij ol
slow ly
Ġph one
Ġmus lin
ĠCe viche
ĠCath edral
Ġsuc cess
ĠBud get
ĠPf effernu
Ġflatter y
ĠTir amis
ĠRadish es
ĠChap el
ĠCharm s
ĠFlower pot
ĠBlush ing
Ġconsisten t
ĠPhy llo
ĠDelect able
Ġboysen berry
ĠBenedic t
CK EN
Her itage
defrost ed
kid ney
ugh ter
wa fer
Ġcell ophan
Ġtreas ures
Ġben eath
Ġmist ake
oug at
Ġfud gy
ĠCame o
ĠCog nac
Ġaut omatic
ĠPray er
Ġvelve ty
Ġviole ts
ĠMick ey
ĠDeg laze
aban ero
ĠSpanak opita
ĠFirecr acker
ĠHil da
ĠGull iver
Ġkumqu ats
ĠOz ark
Ġzig zag
ĠSeash ells
ĠEnten mann
ĠJama ican
ĠRichards on
Ġdehydr ator
concent rated
Ġpropor tions
ĠKebab s
ĠVietnam ese
AK E
Ap ricot
Gen esis
Hen ry
Hell mann
Mc Cormick
Port uguese
Sub stitute
bott led
tAr range
Ġul tra
Ġarb orio
Ġcab inet
Ġcaus es
Ġtsub ushian
Ġbil bao
Ġbel ieve
Ġphe asants
Ġmant le
Ġmang os
Ġfam ilies
Ġferm ent
Ġween ies
sprink led
ĠCHI CKEN
ĠBug les
ĠPuer to
ĠPipp in
ĠTaver n
Ġunfrost ed
Ġwithdra wn
Ġstur dy
adami as
Ġfordh ook
Ġnop alitos
ĠChant illy
ĠDRA IN
abur gers
ĠWisp ride
ĠHuckle berry
ĠHyd rox
ĠInspir ation
Ġabund ant
Ġradi atore
iscellane ous
ĠEck rich
ĠEurop ean
ĠJord an
ĠKrets chmer
ĠVig o
Ġcommeric al
okkig ai
ĠSkyl ine
ĠGlori ous
ĠDeuteron omy
ĠCalyps o
ĠChocohol ic
Ġcalamans i
ĠDisjoin t
ĠGhirad elli
ĠTiramis u
Ġcellophan e
! ),
. :
3 7
4 4
4 9
7 50
A N
A b
A s
A u
B or
B ob
B ottom
B order
B AKE
C as
C op
C ustard
C ucumb
C ountry
C alorie
C elebr
C EP
C uban
C hewy
D ur
D ressing
D irt
D epending
E S
E l
E r
E as
E ase
E LL
F ir
F eeds
F illing
F inely
G o
G oo
G rain
G old
H and
H int
H unt
I L
I mp
J ar
J ello
K ar
K ist
K ellogg
K raut
L i
L ef
L oaf
L ittle
L ipton
M P
M olasses
M easure
M ama
N ext
N ahum
O uts
O ven
O mit
O IL
P im
P ap
P op
P ep
P asta
P astry
Q ue
R os
R iz
R ome
R icotta
R uss
S poon
S eal
S kin
S uper
T A
T bsp
T aste
T aco
T una
V e
W on
W ater
W ay
W rap
W inning
X CEP
Z a
Z erta
a el
a ine
a ven
a ger
b ed
b ra
b ly
b age
b ased
b ring
b ber
b ag
b asco
b eam
b ananas
b ought
c ith
c ie
c ottage
c ording
c ount
c ock
c rib
c ocktail
d ec
d ue
d ressing
d irt
d redge
d ivide
e ased
e gs
e que
f ra
f ork
f illet
f ee
f reez
f ind
f oot
g ion
g un
g ol
g us
g rim
g rained
g rape
g riddle
g ment
g ogi
h r
h ing
h our
h ow
h ash
h ome
h oles
h ina
h oriz
h ulled
i gar
i quick
i veness
k iwi
l ar
l ies
l ump
l ose
l og
l ah
l ty
l asting
l ogs
l uh
m ill
m ans
m oon
m ash
m ies
m olasses
m ints
n ers
n ec
n est
n ia
n eeds
o ard
o ats
p t
p ed
p at
p ro
p res
p ull
p rocess
p umpernickel
p odge
p astry
r r
r ub
r ds
r ite
r ind
r itz
r ation
r hubarb
s l
s w
s or
s ix
s im
s uff
s se
s ia
s irloin
s izes
t u
t ro
t oo
t ell
t ri
t heat
t are
t ea
t own
t other
t ear
t boil
t by
t ect
t Microwave
t chopped
t You
t juice
t broccoli
t Use
t Yields
t Layer
t make
t Make
t but
t Un
t blend
t pork
t broth
u z
u ine
u ise
u als
u zo
u lee
u rik
v o
v ate
v osh
v ada
w ild
y ams
z est
z esty
z ones
Ġ i
Ġ ump
Ġ iv
Ġ ign
Ġc t
Ġc in
Ġc am
Ġc ass
Ġc arm
Ġc ott
Ġc alf
Ġc armel
Ġc avettelli
Ġc eased
in ing
in oa
in crease
Ġs in
Ġs ine
Ġs ign
Ġs chool
er en
er ving
an i
an za
Ġt ra
Ġt ag
Ġt iss
Ġt ator
Ġt ons
Ġt unnel
Ġt upperware
Ġt andoori
Ġt eacher
Ġt ennis
Ġo me
Ġo uso
Ġb us
Ġb are
Ġb oll
Ġb ull
Ġb aster
Ġb arbecu
Ġb ijol
ar ney
ar ning
es ape
es ota
Ġp a
Ġp one
Ġp air
Ġp enn
Ġp ico
Ġp ermits
Ġp reserving
Ġp iquant
Ġp rime
Ġp pkg
Ġp ossibly
Ġm iss
Ġm oves
Ġm unch
Ġm ort
Ġm ean
Ġm aters
Ġm oose
Ġm ountain
Ġm oons
Ġm aterial
at ta
il et
ut ettes
on ic
on cho
on tal
en til
en ian
en cer
al ac
al ks
al amata
ou f
Ġf act
Ġf izz
Ġf lec
Ġf uel
Ġf eeds
Ġf amous
Ġf ava
Ġf aces
Ġch ay
Ġch inese
Ġw it
Ġw ise
Ġw esson
Ġw ants
Ġw ives
Ġw estern
Ġw assail
Ġw omen
ic ut
ic el
ic iness
gar d
Ġto e
Ġto y
Ġto ld
Ġto ppers
Ġto ler
sp ring
sp inach
pp ah
Ġin f
le ased
le gs
ro m
ro cc
ro ken
ro aster
ĠC s
ĠC y
ĠC z
ĠC utter
ĠC ay
ĠC art
ĠC ent
ĠC raw
ĠC ape
ĠC af
ĠC reek
ĠC edar
or al
or ough
or row
ak it
ak ia
ak ert
ak ota
Ġ2 10
Ġ2 12
el i
as ilk
as ky
am es
am ent
am ps
Ġsu ck
Ġsu shi
Ġsu rimi
it ate
Ġon gion
Ġa is
Ġa do
Ġa spic
Ġa war
Ġa fra
Ġe aters
Ġe conomical
Ġe mergency
Ġd est
Ġd rench
Ġd eri
Ġd itch
Ġd rape
Ġd ye
Ġd yes
Ġd ense
Ġd aik
Ġd aiquiri
Ġd arning
ĠS y
ĠS ac
ĠS all
ĠS ir
ĠS ay
ĠS omb
ĠS ept
ĠS ets
ĠS ante
ĠS ouffl
ĠS omen
ĠS orbet
Ġg en
Ġg ri
Ġg erman
Ġg ems
Ġg rid
Ġg rown
Ġg irls
Ġg overn
Ġl is
Ġl over
Ġl ah
Ġl aces
Ġl uke
Ġl acy
Ġl adies
Ġl ingonberries
Ġsalt ing
Ġpe p
Ġpe ace
Ġpe ps
Ġpe ppah
oo f
ĠB an
ĠB it
ĠB uc
ĠB ad
ĠB ry
ĠB akes
ĠB yr
ĠB ert
ĠB unt
ĠB ank
ĠB ib
ĠB unn
ĠB olog
ĠB illy
ĠB ugs
ĠB oot
ac qu
ĠP kg
ĠP ain
ĠP ars
ĠP anan
ĠP ats
ĠP ump
ĠP aw
ĠP int
ĠP eri
ĠP osh
ĠP arsn
