{"<s>":0,"<pad>":1,"</s>":2,"<unk>":3,"<mask>":4,"!":5,"\"":6,"#":7,"$":8,"%":9,"&":10,"'":11,"(":12,")":13,"*":14,"+":15,",":16,"-":17,".":18,"/":19,"0":20,"1":21,"2":22,"3":23,"4":24,"5":25,"6":26,"7":27,"8":28,"9":29,":":30,";":31,"<":32,"=":33,">":34,"?":35,"@":36,"A":37,"B":38,"C":39,"D":40,"E":41,"F":42,"G":43,"H":44,"I":45,"J":46,"K":47,"L":48,"M":49,"N":50,"O":51,"P":52,"Q":53,"R":54,"S":55,"T":56,"U":57,"V":58,"W":59,"X":60,"Y":61,"Z":62,"[":63,"\\":64,"]":65,"^":66,"_":67,"`":68,"a":69,"b":70,"c":71,"d":72,"e":73,"f":74,"g":75,"h":76,"i":77,"j":78,"k":79,"l":80,"m":81,"n":82,"o":83,"p":84,"q":85,"r":86,"s":87,"t":88,"u":89,"v":90,"w":91,"x":92,"y":93,"z":94,"{":95,"|":96,"}":97,"~":98,"¡":99,"¢":100,"£":101,"¤":102,"¥":103,"¦":104,"§":105,"¨":106,"©":107,"ª":108,"«":109,"¬":110,"®":111,"¯":112,"°":113,"±":114,"²":115,"³":116,"´":117,"µ":118,"¶":119,"·":120,"¸":121,"¹":122,"º":123,"»":124,"¼":125,"½":126,"¾":127,"¿":128,"À":129,"Á":130,"Â":131,"Ã":132,"Ä":133,"Å":134,"Æ":135,"Ç":136,"È":137,"É":138,"Ê":139,"Ë":140,"Ì":141,"Í":142,"Î":143,"Ï":144,"Ð":145,"Ñ":146,"Ò":147,"Ó":148,"Ô":149,"Õ":150,"Ö":151,"×":152,"Ø":153,"Ù":154,"Ú":155,"Û":156,"Ü":157,"Ý":158,"Þ":159,"ß":160,"à":161,"á":162,"â":163,"ã":164,"ä":165,"å":166,"æ":167,"ç":168,"è":169,"é":170,"ê":171,"ë":172,"ì":173,"í":174,"î":175,"ï":176,"ð":177,"ñ":178,"ò":179,"ó":180,"ô":181,"õ":182,"ö":183,"÷":184,"ø":185,"ù":186,"ú":187,"û":188,"ü":189,"ý":190,"þ":191,"ÿ":192,"Ā":193,"ā":194,"Ă":195,"ă":196,"Ą":197,"ą":198,"Ć":199,"ć":200,"Ĉ":201,"ĉ":202,"Ċ":203,"ċ":204,"Č":205,"č":206,"Ď":207,"ď":208,"Đ":209,"đ":210,"Ē":211,"ē":212,"Ĕ":213,"ĕ":214,"Ė":215,"ė":216,"Ę":217,"ę":218,"Ě":219,"ě":220,"Ĝ":221,"ĝ":222,"Ğ":223,"ğ":224,"Ġ":225,"ġ":226,"Ģ":227,"ģ":228,"Ĥ":229,"ĥ":230,"Ħ":231,"ħ":232,"Ĩ":233,"ĩ":234,"Ī":235,"ī":236,"Ĭ":237,"ĭ":238,"Į":239,"į":240,"İ":241,"ı":242,"Ĳ":243,"ĳ":244,"Ĵ":245,"ĵ":246,"Ķ":247,"ķ":248,"ĸ":249,"Ĺ":250,"ĺ":251,"Ļ":252,"ļ":253,"Ľ":254,"ľ":255,"Ŀ":256,"ŀ":257,"Ł":258,"ł":259,"Ń":260,"Ġ<":261,"NE":262,"XT":263,"NEXT":264,"IN":265,"EN":266,"RE":267,"ST":268,"Ġc":269,"ING":270,"DI":271,"TS":272,"ENTS":273,"REDI":274,"INGREDI":275,"INGREDIENTS":276,"NER":277,"in":278,"TI":279,"Ġs":280,"er":281,"Ġ1":282,"ON":283,"RU":284,"TION":285,"INST":286,"CTION":287,"RUCTION":288,"INSTRUCTION":289,"INSTRUCTIONS":290,"an":291,"AR":292,"STAR":293,"END":294,"START":295,"Ġo":296,"Ġt":297,"ar":298,"Ġb":299,"ed":300,"es":301,"Ġp":302,"Ġm":303,"at":304,"il":305,"re":306,"ut":307,"on":308,"en":309,"al":310,"and":311,"ou":312,"Ġf":313,"Ġand":314,"Ġch":315,"Ġw":316,"ing":317,"ic":318,"gar":319,"LE":320,"PE":321,"CI":322,"TIT":323,"RECI":324,"TITLE":325,"RECIPE":326,"Ġto":327,"sp":328,"pp":329,"Ġin":330,"le":331,"ĠC":332,"or":333,"el":334,"Ġ2":335,"ro":336,"ak":337,"our":338,"as":339,"am":340,"Ġsu":341,"it":342,"Ġsugar":343,"Ġon":344,"Ġ3":345,"Ġa":346,"Ġd":347,"ĠS":348,"Ġe":349,"ter":350,"Ġg":351,"Ġl":352,"Ġsal":353,"Ġtsp":354,"ix":355,"Ġpe":356,"he":357,"oo":358,"ĠB":359,"Ġsalt":360,"ĠP":361,"ion":362,"ine":363,"ge":364,"ac":365,"un":366,"is":367,"gg":368,"dd":369,"Ġfl":370,"Ġegg":371,"ow":372,"ĠT":373,"utter":374,"Ġ(":375,"ese":376,"Ġbutter":377,"ream":378,"ake":379,"ill":380,"Ġche":381,"ĠM":382,"Ġv":383,"Ġonion":384,"Ġcheese":385,"ick":386,"Ġun":387,"Ġflour":388,"ol":389,"us":390,"Ġh":391,"ĠA":392,"ot":393,"Ġof":394,"ra":395,"Ġcream":396,"Ġmin":397,"all":398,"Ġor":399,"ith":400,"Ġcho":401,"pper":402,"ilk":403,"Ġbe":404,"Ġwith":405,"Ġmix":406,"Ġpepper":407,"Ġst":408,"Ġminut":409,"ver":410,"ad":411,"til":412,"ell":413,"Ġuntil":414,"ater":415,"Ġminutes":416,"uc":417,"ice":418,"Ġmilk":419,"Ġwater":420,"Ġfor":421,"to":422,"red":423,"ch":424,"ook":425,"Ġeggs":426,"ts":427,"bsp":428,"ĠTbsp":429,"Ġcr":430,"Ġcan":431,"pped":432,"ĠAdd":433,"ato":434,"der":435,"ri":436,"om":437,"Ġbro":438,"00":439,"Ġ4":440,"um":441,"Ġsa":442,"Ġthe":443,"Ġoz":444,"Ġn":445,"ve":446,"ir":447,"uce":448,"icken":449,"illa":450,"Ġchopped":451,"Ġj":452,"et":453,"lic":454,"anilla":455,"Ġvanilla":456,"Ġsh":457,"gh":458,"Ġbak":459,"Ġinto":460,"Ġat":461,"up":462,"th":463,"Ġle":464,"Ġth":465,"wn":466,"Ġmar":467,"Ġbaking":468,"ry":469,".)":470,"Ġgre":471,"Ġgr":472,"Ġsauce":473,"Ġchicken":474,"owder":475,"Ġso":476,"Ġpowder":477,"ĠR":478,"ĠMix":479,"ie":480,"Ġwh":481,"ĠBake":482,"Ġover":483,"ay":484,"ast":485,"read":486,"ly":487,"ĠCh":488,"oup":489,"Ġoil":490,"ate":491,"Ġcook":492,"Ġbrown":493,"nd":494,"ure":495,"ien":496,"eat":497,"atoes":498,"ĠD":499,"ack":500,"les":501,"ans":502,"Ġco":503,"ush":504,"Ġsoup":505,"Ġr":506,"redien":507,"ĠW":508,"ingredien":509,"Ġingredien":510,"Ġingredients":511,"ip":512,"uts":513,"mon":514,"garine":515,"Ġmargarine":516,"col":517,"50":518,"Ġtom":519,"orn":520,"Ġju":521,"ab":522,"ound":523,"ur":524,"Ġlb":525,"st":526,"Ġbo":527,"Ġjuice":528,"ture":529,"Ġpan":530,"Ġre":531,"Ġsp":532,"Ġmixture":533,"Ġlar":534,"Ġgreen":535,"Ġlarge":536,"ef":537,"igh":538,"im":539,"Ġ350":540,"Ġwell":541,"mall":542,"kg":543,"Ġpkg":544,"inch":545,"Ġgar":546,"Ġall":547,"Ġcorn":548,"pple":549,"ĠF":550,"rain":551,"qu":552,"ĠSp":553,"Ġse":554,"Ġfro":555,"ish":556,"Ġadd":557,"ther":558,"Ġgarlic":559,"res":560,"heat":561,"id":562,"ĠSt":563,"ves":564,"da":565,"ery":566,"ĠI":567,"Ġpie":568,"Ġsoda":569,"ool":570,"ight":571,"Ġlemon":572,"Ġground":573,"ole":574,"umb":575,"ust":576,"Ġslic":577,"ĠPour":578,"Ġy":579,"room":580,"Ġpot":581,"inn":582,"ated":583,"ten":584,"ven":585,"ted":586,"omb":587,"elery":588,"Ġcelery":589,"Ġhour":590,"ers":591,"Ġonions":592,"Ġcup":593,"colate":594,"Ġ6":595,"gether":596,"ombine":597,"Ġtogether":598,"Ġboil":599,"ushroom":600,"apple":601,"ineapple":602,"Ġnuts":603,"ass":604,"age":605,"ĠCook":606,"Ġbeef":607,"amon":608,"ap":609,"ace":610,"if":611,"ain":612,"innamon":613,"ces":614,"Ġmushroom":615,"ĠL":616,"Ġsmall":617,"Ġcinnamon":618,"Ġpineapple":619,"ger":620,"Ġ8":621,"Ġcoc":622,"lace":623,"Ġwhit":624,"edi":625,"Ġsour":626,"Ġbl":627,"ach":628,"old":629,"ĠStir":630,"ĠH":631,"ars":632,"Ġcon":633,"Ġtop":634,"ber":635,"Ġstir":636,"Ġcrumb":637,"Ġheat":638,"Ġ5":639,"edium":640,"Ġchocolate":641,"Ġoven":642,"Ġbeat":643,"op":644,"Ġbread":645,"me":646,"Ġmedium":647,"owl":648,"Ġpotatoes":649,"Ġbowl":650,"Ġdrain":651,"ash":652,"ink":653,"ove":654,"Ġmel":655,"Ġcake":656,"ĠCombine":657,"ough":658,"Ġpec":659,"inegar":660,"arm":661,"Ġvinegar":662,"ĠG":663,"Ġtomatoes":664,"ood":665,"oon":666,"ise":667,"Ġ10":668,"Ġtomato":669,"out":670,"Ġx":671,"ĠWh":672,"asser":673,"asserole":674,"rink":675,"Ġcar":676,"Ġser":677,"Ġrem":678,"ff":679,"ard":680,"zen":681,"akes":682,"sh":683,"Ġhot":684,"Ġdish":685,"Ġmay":686,"ies":687,"ring":688,"ĠIn":689,"Ġsliced":690,"Ġrice":691,"Ġpecans":692,"rinkle":693,"Ġ9":694,"ag":695,"em":696,"edd":697,"Ġcrack":698,"Ġdry":699,"Ġcrumbs":700,"Ġro":701,"eddar":702,"ĠCool":703,"ire":704,"Ġbeans":705,"Ġgrated":706,"we":707,"get":708,"ased":709,"na":710,"ĠCo":711,"eget":712,"ĠPlace":713,"ĠSer":714,"aste":715,"egetab":716,"ries":717,"ub":718,"Ġwhite":719,"ely":720,"ant":721,"Ġmelted":722,"end":723,"Ġab":724,"ĠCheddar":725,"weet":726,"ll":727,"oa":728,"Ġcl":729,"Ġstick":730,"ips":731,"Ġmeat":732,"Ġcut":733,"ins":734,"tion":735,"Ġfrozen":736,"Ġis":737,"Ġshor":738,"ange":739,"Ġvegetab":740,"Ġal":741,"Ġchips":742,"Ġabout":743,"tening":744,"ving":745,"Ġ30":746,"onna":747,"Ġk":748,"onnaise":749,"Ġshortening":750,"Ġmayonnaise":751,"art":752,"Ġremain":753,"uit":754,"ore":755,"resh":756,"ress":757,"Ġra":758,"Ġred":759,"av":760,"Ġfrom":761,"ley":762,"Ġremaining":763,"ey":764,"mer":765,"Ġas":766,"Ġcooked":767,"Ġlight":768,"ustard":769,"uff":770,"riger":771,"ul":772,"Ġapp":773,"ason":774,"onut":775,"Ġfresh":776,"Ġdrained":777,"ccol":778,"ccoli":779,"Ġgreased":780,"Ġhal":781,"Ġchil":782,"Ġsl":783,"Ġthen":784,"acon":785,"arsley":786,"os":787,"Ġcarro":788,"Ġparsley":789,"ep":790,"udd":791,"Ġham":792,"udding":793,"Ġhours":794,"ĠCover":795,"Ġmustard":796,"Ġserving":797,"Ġbacon":798,"Ġcrush":799,"Ġex":800,"ĠSprinkle":801,"ender":802,"Ġgra":803,"Ġtaste":804,"ĠPut":805,"ĠBeat":806,"Ġcrushed":807,"Ġpean":808,"Ġcoconut":809,"ide":810,"ded":811,"Ġ15":812,"Ġsk":813,"ĠWhip":814,"Ġbeaten":815,"Ġboiling":816,"raw":817,"Ġshred":818,"Ġpap":819,"li":820,"ĠO":821,"Ġbot":822,"Ġmushrooms":823,"are":824,"Ġshredded":825,"Ġroll":826,"ĠSal":827,"ec":828,"ks":829,"iz":830,"stant":831,"Ġseason":832,"co":833,"ĠServe":834,"rawber":835,"Ġorange":836,"Ġoli":837,"ĠBro":838,"anan":839,"Ġcool":840,"Ġ12":841,"Ġsof":842,"let":843,"Ġpudding":844,"Ġbake":845,"Ġapples":846,"Ġcarrots":847,"emove":848,"ĠRemove":849,"Ġ20":850,"Ġbroccoli":851,"iced":852,"ĠCake":853,"Ġeach":854,"ĠE":855,"Ġ13":856,"Ġfir":857,"tt":858,"Ġpieces":859,"Ġpowdered":860,"ĠCream":861,"Ġcans":862,"immer":863,"nuts":864,"ĠWor":865,"Ġbroth":866,"Ġcasserole":867,"Ġdiced":868,"Ġshell":869,"armes":870,"armesan":871,"Ġole":872,"ent":873,"Ġslices":874,"ayer":875,"Ġoleo":876,"Ġnut":877,"ĠJ":878,"shire":879,"Ġbox":880,"oodles":881,"tershire":882,"cestershire":883,"reas":884,"avor":885,"Ġrais":886,"Ġcover":887,"pping":888,"ressing":889,"ĠParmesan":890,"ĠWorcestershire":891,"usage":892,"ĠMakes":893,"Ġraisins":894,"ĠSpread":895,"iss":896,"ime":897,"Ġcher":898,"Ġref":899,"Ġpl":900,"ĠK":901,"Ġhalf":902,"Ġtender":903,"Ġnoodles":904,"yr":905,").":906,"ruit":907,"yrup":908,"meg":909,"Ġstrawber":910,"Ġan":911,"Ġnutmeg":912,"Ġpour":913,"Ġsyrup":914,"Ġcrackers":915,"ork":916,"Ġpeanut":917,"Ġcocoa":918,"ĠCut":919,"ĠCr":920,"milk":921,"Ġstirring":922,"Ġbanan":923,"est":924,"oil":925,"oll":926,"Ġchili":927,"ĠSalad":928,"Ġblack":929,"Ġjell":930,"Ġrefriger":931,"Ġcrust":932,"ps":933,"Ġsweet":934,"Ġhe":935,"ue":936,"ĠV":937,"one":938,"Ġpeppers":939,"oves":940,"urn":941,"ĠCasserole":942,"ea":943,"Ġshe":944,"Ġsm":945,"Ġbuttermilk":946,"Ġcloves":947,"ds":948,"ats":949,"Ġsausage":950,"illet":951,"mallow":952,"Ġcold":953,"Ġseasoning":954,"Ġdressing":955,"ĠSa":956,"Ġwhi":957,"ute":958,"Ġvegetable":959,"ally":960,"ĠChicken":961,"Ġit":962,"Ġset":963,"Ġcub":964,"Ġup":965,"Ġsqu":966,"ĠHeat":967,"bur":968,"Ġsalad":969,"tr":970,"ĠLet":971,"ĠBrown":972,"arch":973,"Ġlow":974,"Ġli":975,"Ġcups":976,"chin":977,"ĠPie":978,"ĠChe":979,"Ġblend":980,"Ġfill":981,"Ġwhole":982,"Ġ45":983,"Ġskillet":984,"ĠDrain":985,"Ġdough":986,"Ġwal":987,"inger":988,"ĠBl":989,"starch":990,"Ġcornstarch":991,"ĠPre":992,"Ġout":993,"Ġseed":994,"pan":995,"Ġus":996,"Ġpre":997,"Ġcracker":998,"ano":999,"ried":1000,"Ġpack":1001,"Ġmarsh":1002,"Ġmarshmallow":1003,"Ġbananas":1004,"Ġcookie":1005,"Ġpork":1006,"ham":1007,"Ġsheet":1008,"25":1009,"ave":1010,"ew":1011,"ess":1012,"Ġwarm":1013,"rim":1014,"Ġinstant":1015,"ĠTop":1016,"ĠRoll":1017,"burger":1018,"ian":1019,"Ġcooking":1020,"Ġwalnuts":1021,"eed":1022,"fore":1023,"Ġbefore":1024,"ĠPe":1025,"ooth":1026,"Ġgraham":1027,"Ġare":1028,"Ġflavor":1029,"75":1030,"zz":1031,"ĠMel":1032,"tom":1033,"alls":1034,"ump":1035,"Ġsaucepan":1036,"tional":1037,"ree":1038,"ĠTh":1039,"Ġginger":1040,"Ġvegetables":1041,"ightly":1042,"Ġalmon":1043,"Ġsmooth":1044,"gano":1045,"Ġbottom":1046,"Ġlea":1047,"ka":1048,"ĠMelt":1049,"Ġjello":1050,"Ġfilling":1051,"oni":1052,"abb":1053,"ĠN":1054,"ced":1055,"tened":1056,"Ġfruit":1057,"abbage":1058,"cc":1059,"Ġthick":1060,"act":1061,"Ġnot":1062,"regano":1063,"atter":1064,"Ġlayer":1065,"Ġbell":1066,"Ġsimmer":1067,"Ġoregano":1068,"aked":1069,"Ġminced":1070,"Ġwhites":1071,"optional":1072,"ately":1073,"rika":1074,"Ġhamburger":1075,"Ġmarshmallows":1076,"ellow":1077,"Ġjar":1078,"Ġextr":1079,"eal":1080,"Ġtab":1081,"reasts":1082,"Ġpaprika":1083,"Ġdone":1084,"Ġthin":1085,"tle":1086,"ges":1087,"Ġ375":1088,"Ġlightly":1089,"Ġpeel":1090,"Ġextract":1091,"Ġwa":1092,"rimp":1093,"ĠIt":1094,"urp":1095,"Ġone":1096,"Ġtea":1097,"ucchin":1098,"ucchini":1099,"poon":1100,"Ġen":1101,"lespoon":1102,"Ġbreasts":1103,"Ġfin":1104,"Ġtablespoon":1105,"ĠY":1106,"ĠChill":1107,"east":1108,"Ġyol":1109,"Ġaside":1110,"Ġyellow":1111,"ose":1112,"Ġif":1113,"aw":1114,"Ġfirst":1115,"par":1116,"ott":1117,"Ġplace":1118,"ĠMo":1119,"berry":1120,"Ġyeast":1121,"meal":1122,"isc":1123,"ĠBlend":1124,"Ġdes":1125,"Ġstrawberries":1126,"ella":1127,"Ġservings":1128,"Ġcabbage":1129,"ens":1130,"Ġolive":1131,"Ġsoftened":1132,"arella":1133,"zzarella":1134,"ired":1135,"quart":1136,"ĠAnd":1137,"Ġcont":1138,"Ġdesired":1139,"issol":1140,"Ġ25":1141,"ne":1142,"Ġfinely":1143,"Ġsoy":1144,"alian":1145,"urpose":1146,"oaf":1147,"Ġliqu":1148,"ĠBe":1149,"ĠSh":1150,"unch":1151,"ĠCheese":1152,"hett":1153,"rt":1154,"aghett":1155,"Ġwhipped":1156,"aghetti":1157,"ĠItalian":1158,"Ġtime":1159,"Ġlet":1160,"ĠMozzarella":1161,"ĠServes":1162,"Ġwine":1163,"ved":1164,"gre":1165,"ize":1166,"purpose":1167,"Ġcombine":1168,"Ġz":1169,"Ġother":1170,"acar":1171,"Ġchill":1172,"Ġdash":1173,"Ġice":1174,"Ġpeas":1175,"asil":1176,"olden":1177,"kin":1178,"dens":1179,"densed":1180,"Ġ40":1181,"Ġserve":1182,"10":1183,"Ġ325":1184,"Ġolives":1185,"ck":1186,"spoon":1187,"ĠPreheat":1188,"acaroni":1189,"Ġmore":1190,"Ġteaspoon":1191,"ade":1192,"eep":1193,"Ġcondensed":1194,"Ġput":1195,"ce":1196,"iscuit":1197,"Ġpaper":1198,"Ġliquid":1199,"Ġtort":1200,"ift":1201,"row":1202,"ite":1203,"Ġbatter":1204,"sweet":1205,"umpkin":1206,"Ġshrimp":1207,"Ġsprinkle":1208,"ator":1209,"ex":1210,"Ġ7":1211,"irec":1212,"Ġclove":1213,"Ġcherries":1214,"Ġcom":1215,"Ġyolks":1216,"Ġdirec":1217,"night":1218,"Ġgolden":1219,"ĠBring":1220,"Ġpast":1221,"Ġzucchini":1222,"Ġslightly":1223,"ee":1224,"rop":1225,"elat":1226,"Ġbasil":1227,"Ġflakes":1228,"'s":1229,"Ġovernight":1230,"Ġq":1231,"Ġ400":1232,"Ġbag":1233,"ĠU":1234,"oughly":1235,"Ġby":1236,"els":1237,"Ġdo":1238,"Ġqt":1239,"pe":1240,"oroughly":1241,"Ġgelat":1242,"ĠJell":1243,"ĠDip":1244,"ĠPot":1245,"Ġpim":1246,"Ġtopping":1247,"Ġsoft":1248,"quick":1249,"icrow":1250,"Ġspread":1251,"Ġstand":1252,"Ġspaghetti":1253,"Ġrefrigerator":1254,"ĠCookies":1255,"ĠRef":1256,"ĠButter":1257,"isco":1258,"aco":1259,"Ġthoroughly":1260,"ĠCho":1261,"Ġcontain":1262,"Ġlett":1263,"inach":1264,"ĠRefriger":1265,"Ġcherry":1266,"Ġsize":1267,"Ġmacaroni":1268,"icrowave":1269,"Ġfat":1270,"Ġlettuce":1271,"ĠBread":1272,"ower":1273,"arb":1274,"Ġballs":1275,"Ġloaf":1276,"Ġapple":1277,"16":1278,"Ġoff":1279,"Ġfirm":1280,"ĠRice":1281,"ottage":1282,"ĠCrisco":1283,"berries":1284,"reez":1285,"ĠĠ":1286,"ept":1287,"oney":1288,"Ġrolls":1289,"Ġmixed":1290,"ble":1291,"key":1292,"ĠBr":1293,"Ġcubes":1294,"ĠSift":1295,"Ġfood":1296,"Ġlon":1297,"oth":1298,"ĠFold":1299,"ile":1300,"ĠRefrigerate":1301,"ĠChocolate":1302,"Ġyou":1303,"Ġbiscuit":1304,"Ġoats":1305,"eak":1306,"Ġmash":1307,"Ġuse":1308,"ĠBoil":1309,"Ġfloured":1310,"Ġcottage":1311,"ature":1312,"ucumb":1313,"ke":1314,"Ġmake":1315,"cept":1316,"Ġsticks":1317,"Ġcol":1318,"Ġalmonds":1319,"Ġdried":1320,"Ġpeach":1321,"Ġgelatin":1322,"fec":1323,"vered":1324,"ĠSl":1325,"fter":1326,"ifted":1327,"tions":1328,"cook":1329,"Ġmixing":1330,"iel":1331,"fection":1332,"ually":1333,"Ġ35":1334,"Ġtur":1335,"ened":1336,"Ġconfection":1337,"led":1338,"Ġstuff":1339,"greased":1340,"Ġsc":1341,"range":1342,"Ġcontainer":1343,"Ġconfectioners":1344,"Ġpaste":1345,"eta":1346,"Ġpeeled":1347,"Ġpans":1348,"ĠSpoon":1349,"ĠWhen":1350,"ray":1351,"Ġexcept":1352,"ich":1353,"Ġpumpkin":1354,"Ġblended":1355,"Ġcovered":1356,"Ġcucumb":1357,"ĠSaute":1358,"rab":1359,"elve":1360,"Ġbrowned":1361,"Ġthicken":1362,"arin":1363,"Ġhoney":1364,"Ġspoon":1365,"ento":1366,"cess":1367,"Ġcran":1368,"Ġonto":1369,"Ġtaco":1370,"anges":1371,"Ġfry":1372,"Ġcolor":1373,"ĠDrop":1374,"atsup":1375,"atmeal":1376,"Ġwill":1377,"Ġpimento":1378,"Ġgl":1379,"ĠSimmer":1380,"Ġcatsup":1381,"ĠVelve":1382,"Ġket":1383,"dually":1384,"se":1385,"stantly":1386,"avy":1387,"Ġconstantly":1388,"Ġoranges":1389,"cent":1390,"Ġtablespoons":1391,"Ġbuttered":1392,"Ġleaves":1393,"Ġspinach":1394,"Ġsifted":1395,"ings":1396,"iff":1397,"yle":1398,"Ġfoil":1399,"nch":1400,"Ġthis":1401,"Ġstrawberry":1402,"Ġhead":1403,"Ġpotato":1404,"Ġwax":1405,"oun":1406,"Ġri":1407,"Ġchun":1408,"ĠVelveeta":1409,"iv":1410,"Ġenough":1411,"Ġpackage":1412,"ican":1413,"ides":1414,"Ġstri":1415,"Ġinch":1416,"Ġbou":1417,"rease":1418,"ĠYiel":1419,"illon":1420,"cooked":1421,"ding":1422,"Ġstuffing":1423,"arp":1424,"Ġbouillon":1425,"Ġheavy":1426,"ittle":1427,"Ġround":1428,"Ġmashed":1429,"Ġmo":1430,"Ġpick":1431,"Ġsteak":1432,"Ġsides":1433,"Ġbay":1434,"Ġbon":1435,"ĠSw":1436,"ares":1437,"12":1438,"Ġflavoring":1439,"yme":1440,"ĠLayer":1441,"ĠCorn":1442,"ind":1443,"Ġpt":1444,"Ġdill":1445,"Ġsharp":1446,"Ġcle":1447,"og":1448,"ris":1449,"its":1450,"Ġthyme":1451,"Ġchops":1452,"ape":1453,"Ġthaw":1454,"Ġcand":1455,"apor":1456,"vapor":1457,"Ġfine":1458,"ton":1459,"erry":1460,"Ġevapor":1461,"Ġstrips":1462,"asses":1463,"illas":1464,"Ġde":1465,"Ġmuff":1466,"ets":1467,"ĠGrease":1468,"Ġvery":1469,"Ġdissol":1470,"Ġprepar":1471,"Ġjust":1472,"Ġevaporated":1473,"Ġturn":1474,"Ġpeaches":1475,"enter":1476,"ĠTurn":1477,"lower":1478,"ail":1479,"Ġlime":1480,"Ġroast":1481,"chup":1482,"Ġrefrigerate":1483,"covered":1484,"Ġtortillas":1485,"Ġcenter":1486,"ney":1487,"ates":1488,"per":1489,"Ġketchup":1490,"Ġrest":1491,"Ġeven":1492,"rench":1493,"Ġsquash":1494,"Ġap":1495,"Ġturkey":1496,"Ġdirections":1497,"Ġslice":1498,"Ġacc":1499,"mi":1500,"Ġpeanuts":1501,"Ġprepared":1502,"Ġcookies":1503,"Ġafter":1504,"ĠThen":1505,"nish":1506,"Ġthawed":1507,"ors":1508,"Ġside":1509,"Ġuncovered":1510,"erb":1511,"ording":1512,"Ġsemi":1513,"Ġlittle":1514,"Ġlay":1515,"Ġkid":1516,"Ġmixer":1517,"ĠGr":1518,"Ġcrab":1519,"ently":1520,"Ġchilies":1521,"ĠFrench":1522,"Ġcubed":1523,"olasses":1524,"ĠGra":1525,"Ġtart":1526,"own":1527,"Ġminute":1528,"Ġaccording":1529,"ices":1530,"ld":1531,"Ġslow":1532,"Ġkidney":1533,"Ġdou":1534,"ĠSet":1535,"eser":1536,"ous":1537,"Ġpo":1538,"Ġstal":1539,"izz":1540,"Ġfreez":1541,"ĠSwiss":1542,"Ġremove":1543,"ful":1544,"tern":1545,"Ġbut":1546,"Ġ16":1547,"ount":1548,"Ġcur":1549,"Ġyour":1550,"Ġplain":1551,"Ġungreased":1552,"Ġbiscuits":1553,"emper":1554,"rox":1555,"Ġform":1556,"ĠBis":1557,"Ġbre":1558,"ĠSoup":1559,"emperature":1560,"Ġevenly":1561,"ĠCar":1562,"Ġwhipping":1563,"Ġleaf":1564,"ĠFor":1565,"Ġalmond":1566,"Ġoatmeal":1567,"roxim":1568,"ĠRo":1569,"Ġhand":1570,"Ġdates":1571,"asion":1572,"ccasion":1573,"Ġtemperature":1574,"Ġmolasses":1575,"spice":1576,"Ġcro":1577,"Ġoccasion":1578,"roximately":1579,"Ġlayers":1580,"ĠRed":1581,"umin":1582,"ĠBisquick":1583,"uck":1584,"aul":1585,"ubb":1586,"arbec":1587,"Ġoccasionally":1588,"Ġqu":1589,"Ġallspice":1590,"Ġfork":1591,"Ġchest":1592,"ffee":1593,"ĠMake":1594,"Ġspeed":1595,"Ġwhen":1596,"Ġmeal":1597,"Ġstiff":1598,"Ġblender":1599,"Ġchestnuts":1600,"ame":1601,"Ġ50":1602,"Ġsquares":1603,"ss":1604,"aulif":1605,"auliflower":1606,"Ġunb":1607,"ud":1608,"Ġsepar":1609,"sa":1610,"Ġpacked":1611,"ition":1612,"ern":1613,"Ġtw":1614,"izza":1615,"Ġhalves":1616,"uffy":1617,"ĠPotato":1618,"Ġpastry":1619,"Ġball":1620,"Ġpinch":1621,"Ġtub":1622,"und":1623,"rap":1624,"andarin":1625,"oss":1626,"risp":1627,"ark":1628,"Ġshells":1629,"ĠPress":1630,"arts":1631,"asy":1632,"Ġbubb":1633,"Ġcucumbers":1634,"Ġwaf":1635,"Ġdown":1636,"ider":1637,"Ġclean":1638,"Ġgran":1639,"rough":1640,"Ġbring":1641,"ĠWith":1642,"una":1643,"Ġsec":1644,"ĠApple":1645,"Ġthrough":1646,"issolve":1647,"edges":1648,"Ġbaked":1649,"ĠFruit":1650,"ĠDissolve":1651,"elf":1652,"ĠSlice":1653,"fat":1654,"Ġbr":1655,"isp":1656,"ĠTo":1657,"ĠDo":1658,"Ġtartar":1659,"ase":1660,"oc":1661,"Ġaddition":1662,"Ġcann":1663,"Qu":1664,"Ġfluffy":1665,"Ġcrisp":1666,"arbecue":1667,"Ġhard":1668,"Ġwhile":1669,"Ġam":1670,"Ġspray":1671,"Ġmuffin":1672,"enne":1673,"Ġdouble":1674,"Ġmelt":1675,"ĠSauce":1676,"Ġneed":1677,"ull":1678,"tail":1679,"erm":1680,"ĠSe":1681,"bread":1682,"ĠQu":1683,"kra":1684,"about":1685,"ĠBroccoli":1686,"ĠChop":1687,"Ġlean":1688,"Ġleast":1689,"Ġblue":1690,"ng":1691,"Ġmicrowave":1692,"Ġcrumbled":1693,"Ġpasta":1694,"ock":1695,"ĠAr":1696,"Ġnon":1697,"Ġcider":1698,"auce":1699,"Ġuncooked":1700,"Ġlonger":1701,"Ġcauliflower":1702,"Ġcoloring":1703,"Ġstalks":1704,"Ġreser":1705,"other":1706,"ready":1707,"Ġcomp":1708,"Ġbeating":1709,"ereal":1710,"15":1711,"Ġunbaked":1712,"asco":1713,"ayenne":1714,"Ġcarton":1715,"Ġplate":1716,"Ġshall":1717,"ĠTab":1718,"Ġcres":1719,"Ġrind":1720,"ĠUse":1721,"Ġstew":1722,"ric":1723,"rising":1724,"sc":1725,"Ġaltern":1726,"Ġchunks":1727,"Ġ300":1728,"urt":1729,"Ġcayenne":1730,"ĠTabasco":1731,"fl":1732,"Ġapproximately":1733,"ext":1734,"Ġcereal":1735,"ĠFl":1736,"Ġmandarin":1737,"Ġthinly":1738,"Ġcoars":1739,"Ġar":1740,"ular":1741,"Ġsaute":1742,"ĠPean":1743,"Ġglass":1744,"ĠYields":1745,"pare":1746,"Ġslowly":1747,"ipe":1748,"Ġcrescent":1749,"Ġcomes":1750,"Ġcoat":1751,"Ġcomplet":1752,"ogurt":1753,"Ġself":1754,"ricot":1755,"Ġbottle":1756,"Ġseasoned":1757,"eless":1758,"Ġcornmeal":1759,"ĠSto":1760,"ĠPeanut":1761,"ist":1762,"Ġpro":1763,"ĠBaked":1764,"ulated":1765,"lish":1766,"Ġhigh":1767,"Ġkern":1768,"ĠArrange":1769,"Ġready":1770,"ĠFro":1771,"Ġcarrot":1772,"Ġthickened":1773,"ary":1774,"Ġspices":1775,"Ġcreamed":1776,"ĠGradually":1777,"ome":1778,"ĠEasy":1779,"ĠGar":1780,"Ġwafers":1781,"Ġdissolved":1782,"style":1783,"Ġcanned":1784,"Ġcompletely":1785,"sweetened":1786,"ĠBeef":1787,"Ġale":1788,"udge":1789,"gular":1790,"Ġthem":1791,"Ġday":1792,"ĠGre":1793,"Ġtube":1794,"Ġgranulated":1795,"Ġrack":1796,"ĠShape":1797,"Ġrise":1798,"Ġcock":1799,"Ġcocktail":1800,"Ġlong":1801,"asag":1802,"Ġfew":1803,"veral":1804,"otch":1805,"Ġ24":1806,"Ġcumin":1807,"vel":1808,"Ġmini":1809,"Ġdozen":1810,"Ġchuck":1811,"Ġboneless":1812,"ĠSweet":1813,"Ġyogurt":1814,"Ġamount":1815,"Ġseveral":1816,"ĠFill":1817,"Ġrec":1818,"ĠSqu":1819,"ĠIf":1820,"pl":1821,"ĠMicrowave":1822,"ĠFry":1823,"Ġgrease":1824,"Ġpin":1825,"Ġripe":1826,"ined":1827,"Ġdri":1828,"emon":1829,"less":1830,"Ġskin":1831,"sting":1832,"ĠSc":1833,"Ġsalsa":1834,"Ġunsweetened":1835,"ĠDel":1836,"ĠBrand":1837,"ĠReduce":1838,"Ġtwo":1839,"ĠThis":1840,"ĠSeason":1841,"ild":1842,"merican":1843,"scotch":1844,"Ġapplesauce":1845,"Ġkernel":1846,"Ġanother":1847,"agle":1848,"Ġjars":1849,"ig":1850,"bs":1851,"alap":1852,"alapen":1853,"ia":1854,"ppy":1855,"vy":1856,"Ġtuna":1857,"ĠAmerican":1858,"Ġcranberry":1859,"Ġlast":1860,"Ġthat":1861,"Ġany":1862,"Ġquick":1863,"Ġpress":1864,"Ġgood":1865,"Ġraw":1866,"Ġtoast":1867,"Ġseasonings":1868,"ĠHot":1869,"Ġbubbly":1870,"ĠEagle":1871,"arter":1872,"Ġcranberries":1873,"Ġcaram":1874,"ĠPrepare":1875,"Ġboth":1876,"Ġroom":1877,"Ġtortilla":1878,"Ġshallow":1879,"ĠBanan":1880,"Ġlike":1881,"Ġpart":1882,"Ġapricot":1883,"Ġpat":1884,"inue":1885,"Ġfish":1886,"Ġwheat":1887,"ied":1888,"ĠMeat":1889,"Ġsherry":1890,"ĠPepper":1891,"Ġcurry":1892,"Ġbreast":1893,"Ġsquare":1894,"ĠMon":1895,"ĠSo":1896,"ivid":1897,"ĠOn":1898,"az":1899,"Ġrasp":1900,"ugar":1901,"aschin":1902,"ĠHigh":1903,"aschino":1904,"Ġtoss":1905,"Ġfold":1906,"Ġjelly":1907,"ĠBanana":1908,"nead":1909,"Ġflaked":1910,"Ġhas":1911,"Ġprocess":1912,"ĠZ":1913,"Ġcooled":1914,"ĠPudding":1915,"Ġcoffee":1916,"Ġcreamy":1917,"Ġmaraschino":1918,"Ġusing":1919,"Ġins":1920,"Ġjalapen":1921,"Ġdip":1922,"Ġdirected":1923,"ilad":1924,"ert":1925,"Ġkeep":1926,"ĠHam":1927,"lec":1928,"Ġlemonade":1929,"Ġend":1930,"Ġpecan":1931,"ĠCan":1932,"so":1933,"Ġdeep":1934,"ĠMex":1935,"ĠLemon":1936,"Ġim":1937,"ĠPunch":1938,"anch":1939,"ĠEgg":1940,"Ġbits":1941,"Ġalternately":1942,"14":1943,"ang":1944,"aro":1945,"Ġregular":1946,"Ġsweetened":1947,"ok":1948,"Ġtow":1949,"Ġdark":1950,"tz":1951,"Ġbutterscotch":1952,"Ġbanana":1953,"rained":1954,"Ġ425":1955,"Ġhash":1956,"oke":1957,"ĠKaro":1958,"ĠCon":1959,"ĠBre":1960,"bl":1961,"Ġchi":1962,"ĠPotatoes":1963,"ĠStrawber":1964,"ĠSalt":1965,"reme":1966,"acle":1967,"asagna":1968,"iracle":1969,"ĠGarnish":1970,"Ġstock":1971,"Ġkn":1972,"Ġblueberries":1973,"itz":1974,"Ġnext":1975,"medi":1976,"spar":1977,"mediately":1978,"ĠVegetab":1979,"ĠStore":1980,"Ġgradually":1981,"fuls":1982,"ĠJack":1983,"Ġcandy":1984,"ĠToss":1985,"Ġsecon":1986,"Ġonce":1987,"rispies":1988,"meat":1989,"tric":1990,"lectric":1991,"Ġgently":1992,"astic":1993,"Ġbite":1994,"ini":1995,"ĠMiracle":1996,"ation":1997,"ĠUn":1998,"gain":1999,"Ġbarbecue":2000,"Ġelectric":2001,"ĠPeel":2002,"Ġscall":2003,"ĠCoc":2004,"ong":2005,"reser":2006,"Ġbeen":2007,"ife":2008,"ran":2009,"Ġme":2010,"Ġsalmon":2011,"ĠStrawberry":2012,"Ġquarter":2013,"Ġhave":2014,"ĠRep":2015,"ĠTake":2016,"pick":2017,"adish":2018,"Ġcons":2019,"Ġchilled":2020,"Ġagain":2021,"plant":2022,"eradish":2023,"orseradish":2024,"ĠKrispies":2025,"itos":2026,"ĠFudge":2027,"ive":2028,"icott":2029,"uted":2030,"Ġ60":2031,"Ġrings":2032,"Ġherb":2033,"Ġfull":2034,"Ġtooth":2035,"Ġaround":2036,"avorite":2037,"Ġweed":2038,"Ġtoothpick":2039,"ams":2040,"very":2041,"ĠRitz":2042,"velop":2043,"Ġmarin":2044,"Ġhorseradish":2045,"Ġgrap":2046,"Tel":2047,"Ġdi":2048,"ĠYou":2049,"corn":2050,"Ġknife":2051,"Ġpizza":2052,"ĠMexican":2053,"ĠStuff":2054,"Ġgravy":2055,"ĠBreak":2056,"cake":2057,"heated":2058,"Ġboiled":2059,"Ġenvelop":2060,"Ġseal":2061,"Ġbunch":2062,"ĠFreez":2063,"ĠRepeat":2064,"ould":2065,"Ġbars":2066,"ĠWash":2067,"Ġspice":2068,"essert":2069,"amp":2070,"Ġdripping":2071,"esame":2072,"Ġneeded":2073,"Ġboiler":2074,"not":2075,"Ġdrippings":2076,"fer":2077,"ĠQuick":2078,"ĠPec":2079,"ĠThe":2080,"pot":2081,"Ġlen":2082,"Ġheated":2083,"isten":2084,"Ġfirmly":2085,".\\":2086,"Ġav":2087,"Ġund":2088,"ĠAl":2089,"hub":2090,"ling":2091,"hubarb":2092,"Ġjalapeno":2093,"Ġfreeze":2094,"Ġfried":2095,"Ġpound":2096,"Ġper":2097,"Ġplus":2098,"ĠPineapple":2099,"uer":2100,"ĠSugar":2101,"Ġmelts":2102,"Ġminiature":2103,"Ġcoarsely":2104,"ĠVegetable":2105,"Ġevery":2106,"Ġplastic":2107,"ting":2108,"inse":2109,"Ġused":2110,"centr":2111,"ĠBeans":2112,"Ġcandied":2113,"Ġcrock":2114,"ĠKeep":2115,"andy":2116,"Ġsome":2117,"Ġwaxed":2118,"kraut":2119,"uerkraut":2120,"Ġseeds":2121,"20":2122,"Ġcucumber":2123,"Ġimmediately":2124,"Ġmold":2125,"ĠPound":2126,"Ġconcentr":2127,"Ġflat":2128,"Ġsesame":2129,"Ġcornbread":2130,"stit":2131,"Ġchives":2132,"Ġpreheated":2133,"sparag":2134,"sparagus":2135,"Ġgarnish":2136,"Ġedges":2137,"'t":2138,"oin":2139,"Ġfrying":2140,"Ġpretz":2141,"usts":2142,"Ġadditional":2143,"Ġbet":2144,"ĠLine":2145,"Ġdro":2146,"Ġfreezer":2147,"ĠMin":2148,"Ġchunk":2149,"icotta":2150,"Ġtoasted":2151,"wise":2152,"terey":2153,"ĠBars":2154,"Ġpimentos":2155,"Ġ-":2156,"ĠYield":2157,"Ġcrusts":2158,"ocad":2159,"ĠEng":2160,"ĠSour":2161,"ĠMay":2162,"Ġadding":2163,"orsels":2164,"Ġsage":2165,"Ġseparate":2166,"ĠDiv":2167,"Ġ450":2168,"for":2169,"Ġmorsels":2170,"Ġbroil":2171,"Ġsub":2172,"Ġwire":2173,"lets":2174,"ett":2175,"ivided":2176,"nut":2177,"ĠZucchini":2178,"ĠMonterey":2179,"Ġapart":2180,"balls":2181,"ys":2182,"Ġgrapes":2183,"Ġconcentrate":2184,"ters":2185,"ĠNut":2186,"ĠRicotta":2187,"Ġeggplant":2188,"wh":2189,"ions":2190,"ĠBalls":2191,"Ġbean":2192,"ĠRolls":2193,"Ġtoo":2194,"ĠPumpkin":2195,"Ġbrowns":2196,"ĠDressing":2197,"Ġsalted":2198,"grees":2199,"ĠChil":2200,"Ġdegrees":2201,"wich":2202,"uk":2203,"ĠPecan":2204,"ons":2205,"Ġdivided":2206,"Ġsubstit":2207,"Ġ14":2208,"ici":2209,"esson":2210,"oul":2211,"ĠSausage":2212,"erries":2213,"undt":2214,"ĠRanch":2215,"ft":2216,"oy":2217,"utch":2218,"Ġ18":2219,"Ġpoppy":2220,"Ġavocad":2221,"Ġcrabmeat":2222,"ĠOrange":2223,"Ġrecipe":2224,"can":2225,"Ġback":2226,"ĠEnglish":2227,"ĠChili":2228,"Ġ11":2229,"Ġfrosting":2230,"gs":2231,"ĠWesson":2232,"iluted":2233,"ĠGreen":2234,"Ġraspberry":2235,"Ġ*":2236,"andwich":2237,"ĠDream":2238,"ĠForm":2239,"Ġuns":2240,"ĠRet":2241,"Ġpickles":2242,"Ġboxes":2243,"imes":2244,"ĠReturn":2245,"ĠDutch":2246,"ort":2247,"ollow":2248,"ized":2249,"ĠPork":2250,"ĠBean":2251,"aking":2252,"ĠLoaf":2253,"ĠShrimp":2254,"Ġpepperoni":2255,"Ġinser":2256,"irt":2257,"Ġinserted":2258,"ener":2259,"Ġbeg":2260,"cy":2261,"isk":2262,"Ġberries":2263,"bon":2264,"Ġremo":2265,"Ġfreshly":2266,"ĠWrap":2267,"ken":2268,"Ġrolled":2269,"Ġpar":2270,"uns":2271,"stick":2272,"Ġenvelope":2273,"Ġinches":2274,"ĠMarin":2275,"Ġtightly":2276,"Ġgrain":2277,"ĠBundt":2278,"Ġel":2279,"ĠOre":2280,"ĠPizza":2281,"Ġsli":2282,"Ġsheets":2283,"gth":2284,"Ġgal":2285,"),":2286,"Ġsauerkraut":2287,"Ġshape":2288,"Ġyolk":2289,"Ġsur":2290,"ost":2291,"zzle":2292,"Ġlength":2293,"Ġcoated":2294,"erbet":2295,"Ġwedges":2296,"Ġturning":2297,"lit":2298,"ĠIce":2299,"Ġstem":2300,"Ġchop":2301,"Ġne":2302,"ĠCoconut":2303,"Ġfavorite":2304,"ĠFreeze":2305,"ĠPat":2306,"ĠCrumb":2307,"tra":2308,"Ġrefrigerated":2309,"Ġbar":2310,"reserves":2311,"Ġpickle":2312,"aping":2313,"ĠBrush":2314,"ots":2315,"iento":2316,"Ġpretzels":2317,"Ġlasagna":2318,"Ġdrops":2319,"Ġsugars":2320,"ĠTom":2321,"Ġflavored":2322,"Ġorder":2323,"ĠMuff":2324,"ĠMe":2325,"Ġreduce":2326,"Ġseparated":2327,"Ġbroken":2328,"Ġrum":2329,"Ġpimiento":2330,"Ġonly":2331,"ĠNo":2332,"ĠAll":2333,"Ġthey":2334,"ines":2335,"Ġasparagus":2336,"ully":2337,"Ġsurf":2338,"ewarm":2339,"ukewarm":2340,"Ġrhubarb":2341,"gel":2342,"ĠCont":2343,"idd":2344,"ĠPick":2345,"icious":2346,"ĠPam":2347,"Ġreserved":2348,"Ġart":2349,"ante":2350,"Ġalso":2351,"Ġlukewarm":2352,"ĠAfter":2353,"io":2354,"Ġno":2355,"Ġsurface":2356,"oaves":2357,"Ġpreserves":2358,"ĠBlue":2359,"Ġtimes":2360,"ĠDessert":2361,"Ġmayo":2362,"Ġextra":2363,"No":2364,"inner":2365,"flavor":2366,"Ġcheddar":2367,"Ġwrap":2368,"icante":2369,"Ġangel":2370,"ties":2371,"ĠCarro":2372,"Ġshould":2373,"ĠMuffins":2374,"ness":2375,"ĠCherry":2376,"Ġslivered":2377,"Ġpop":2378,"erman":2379,"ĠCran":2380,"int":2381,"bow":2382,"ĠOld":2383,"ola":2384,"ĠSpray":2385,"Ġtops":2386,"Ġseconds":2387,"Ġac":2388,"Ġsherbet":2389,"Ġpinto":2390,"Ġpure":2391,"Ġchoice":2392,"Ġsubstitute":2393,"Ġpit":2394,"Ġcomb":2395,"Ġop":2396,"Ġstewed":2397,"ĠDivide":2398,"Ġskim":2399,"ĠDi":2400,"ez":2401,"Ġmois":2402,"Ġconsisten":2403,"Ġpiece":2404,"Ġros":2405,"qual":2406,"Ġnonfat":2407,"emary":2408,"ĠSquash":2409,"flavored":2410,"Ġconsistency":2411,"ĠGerman":2412,"aze":2413,"Ġadded":2414,"Ġscallions":2415,"ĠCranberry":2416,"Ġsoups":2417,"Ġlengthwise":2418,"asure":2419,"boil":2420,"Ġquart":2421,"Ġboard":2422,"ĠOatmeal":2423,"Ġpicante":2424,"Ġcontinue":2425,"Ġteaspoons":2426,"Ġfil":2427,"ĠStew":2428,"meric":2429,"Ġloaves":2430,"eg":2431,"Ġskinless":2432,"uring":2433,"ĠGood":2434,"Ġlim":2435,"Ġcaramel":2436,"Ġlid":2437,"Ġheaping":2438,"Ġpunch":2439,"ĠMars":2440,"oles":2441,"Ġoften":2442,"Ġdrop":2443,"Ġturmeric":2444,"Ġthickens":2445,"ĠKnead":2446,"ĠWhile":2447,"Ġcube":2448,"utons":2449,"Ġrosemary":2450,"Ġwhich":2451,"Ġcaramels":2452,"Ġoys":2453,"ĠRa":2454,"ĠPet":2455,"Ġexcess":2456,"most":2457,"Ġmade":2458,"Ġlemons":2459,"ĠCrumble":2460,"inches":2461,"Ġcornfl":2462,"hey":2463,"alor":2464,"Ġtowel":2465,"Ġelbow":2466,"ĠApp":2467,"ĠSpinach":2468,"aff":2469,"Ġrelish":2470,"try":2471,"eri":2472,"iny":2473,"ĠCheez":2474,"ible":2475,"ĠWhiz":2476,"oultry":2477,"Ġcroutons":2478,"Ġfre":2479,"ph":2480,"Ġmild":2481,"Ġhands":2482,"ĠMash":2483,"ĠMinute":2484,"eam":2485,"Ġribs":2486,"Ġwhip":2487,"ĠContinue":2488,"ĠBiscuit":2489,"Ġfrequ":2490,"Ġpoultry":2491,"Ġfrequently":2492,"ĠJello":2493,"Ġmoder":2494,"Ġartich":2495,"Ġalmost":2496,"Ġdays":2497,"Ġprocessor":2498,"Ġcor":2499,"ĠDor":2500,"loin":2501,"Ġstyle":2502,"ershey":2503,"way":2504,"Ġsn":2505,"ĠStuffed":2506,"edge":2507,"air":2508,"ween":2509,"Ġfryer":2510,"istach":2511,"rag":2512,"tc":2513,"boiled":2514,"ĠAng":2515,"ĠOr":2516,"Ġmuffins":2517,"ĠAcc":2518,"ĠChip":2519,"ĠCl":2520,"ĠSpaghetti":2521,"any":2522,"rans":2523,"ering":2524,"Ġokra":2525,"ĠBarbecue":2526,"ĠCup":2527,"Ġbetween":2528,"ĠHershey":2529,"ĠPeach":2530,"istachio":2531,"cakes":2532,"ĠRoast":2533,"Ġwash":2534,"Ġhalved":2535,"ĠTaco":2536,"Ġcoarse":2537,"Ġstems":2538,"ĠCrab":2539,"Ġnonstick":2540,"hmallow":2541,"Ġknead":2542,"ĠAccent":2543,"ĠPast":2544,"eez":2545,"ĠSteak":2546,"ashion":2547,"Ġfour":2548,"ĠSup":2549,"Ġoun":2550,"ĠCabbage":2551,"ĠDump":2552,"do":2553,"Ġstill":2554,"Ġstove":2555,"ilant":2556,"ilantro":2557,"ragon":2558,"Up":2559,"arragon":2560,"Ġbreak":2561,"ĠCamp":2562,"bell":2563,"Ġ55":2564,"amel":2565,"Ġpink":2566,"ĠDelight":2567,"Ġbroiler":2568,"joy":2569,"alted":2570,"ĠAngel":2571,"Ġwood":2572,"ĠBrownies":2573,"Ġserved":2574,"ĠPro":2575,"Ġclear":2576,"eringue":2577,"ĠFresh":2578,"aby":2579,"ĠDoritos":2580,"cl":2581,"Ġpatties":2582,"Ġmint":2583,"Ġclams":2584,"ĠMarshmallow":2585,"Ġboned":2586,"inned":2587,"Ġbul":2588,"free":2589,"Ġcilantro":2590,"ĠTater":2591,"Ġjuices":2592,"Ġmoistened":2593,"Ġfillets":2594,"ĠFr":2595,"olid":2596,"ĠRe":2597,"Ġbuns":2598,"Ġquartered":2599,"ĠGreat":2600,"Ġthree":2601,"burg":2602,"app":2603,"ially":2604,"Ġreal":2605,"ma":2606,"ĠFried":2607,"ilada":2608,"Ġtarragon":2609,"Ġwee":2610,"ĠTur":2611,"fry":2612,"Ġstore":2613,"ĠMushroom":2614,"ĠBall":2615,"ĠFrosting":2616,"ĠBiscuits":2617,"cle":2618,"Ġmoderate":2619,"egg":2620,"Ġsure":2621,"Ġallow":2622,"Ġfollow":2623,"Ġbeets":2624,"Ġ\\":2625,"Ġwooden":2626,"jor":2627,"size":2628,"amb":2629,"Ġplatter":2630,"irtight":2631,"Ġairtight":2632,"tover":2633,"efully":2634,"Ġbeer":2635,"unchy":2636,"Ġedge":2637,"bler":2638,"ĠCrush":2639,"high":2640,"ĠCaramel":2641,"Ġbone":2642,"eses":2643,"Ġ250":2644,"Ġgrape":2645,"ĠFarm":2646,"ĠCampbell":2647,"Ġshake":2648,"cover":2649,"Ġetc":2650,"Ġundrained":2651,"Ġunflavored":2652,"Ġpopcorn":2653,"fast":2654,"ingers":2655,"ĠOnion":2656,"ĠLightly":2657,"Ġskinned":2658,"joram":2659,"Ġbott":2660,"ĠDot":2661,"Ġmarjoram":2662,"Ġnecess":2663,"Ġmeatballs":2664,"ĠSn":2665,"Ġcheeses":2666,"ĠDri":2667,"Ġnecessary":2668,"Ġunder":2669,"ĠFrost":2670,"Ġcrumbly":2671,"ĠSquares":2672,"aple":2673,"Ġmarinade":2674,"Ġsandwich":2675,"ously":2676,"Ġsmoke":2677,"ĠCoat":2678,"Ġchiles":2679,"Ġic":2680,"ĠDelicious":2681,"ĠOreo":2682,"Ġdissolve":2683,"Ġwhisk":2684,"Ġcornflakes":2685,"ty":2686,"ann":2687,"Ġcombined":2688,"ĠCrisp":2689,"Ġhearts":2690,"Ġsq":2691,"Ġunsalted":2692,"inese":2693,"13":2694,"ĠCrust":2695,"Ġforms":2696,"arty":2697,"Ġtap":2698,"ransfer":2699,"Ġbaby":2700,"Ġicing":2701,"affin":2702,"head":2703,"ĠSlow":2704,"ĠSk":2705,"ĠPh":2706,"Ġrolling":2707,"Ġquarts":2708,"ĠChinese":2709,"Ġparaffin":2710,"Ġlima":2711,"bits":2712,"idge":2713,"Ġglaze":2714,"Ġless":2715,"Ġrect":2716,"ĠTomato":2717,"ĠSoak":2718,"ĠShake":2719,"Ġchunky":2720,"od":2721,"Ġ'":2722,"no":2723,"Ġench":2724,"Ġpickling":2725,"ĠDrizzle":2726,"bbler":2727,"Ġavocado":2728,"als":2729,"Ġbulk":2730,"cr":2731,"peel":2732,"Ġgall":2733,"ating":2734,"Ġtowels":2735,"ĠSm":2736,"Ġpuree":2737,"Ġseeded":2738,"uminum":2739,"oked":2740,"ftover":2741,"ear":2742,"isin":2743,"omem":2744,"Ġrinse":2745,"Ġteaspoonfuls":2746,"ĠAllow":2747,"omemade":2748,"Ġcutting":2749,"Ġcutter":2750,"Ġdon":2751,"ĠRinse":2752,"epar":2753,"Ġcap":2754,"af":2755,"fish":2756,"routs":2757,"oam":2758,"ĠHamburger":2759,"jon":2760,"Ġcorned":2761,"Ġcalor":2762,"use":2763,"Ġreserving":2764,"Ġaluminum":2765,"Ġpeak":2766,"ĠKra":2767,"ĠBest":2768,"Ġjam":2769,"Ġleftover":2770,"ĠPepperidge":2771,"Ġpears":2772,"Ġflower":2773,"ĠMacaroni":2774,"ĠRec":2775,"Ġspring":2776,"All":2777,"tm":2778,"ĠCornbread":2779,"vil":2780,"ĠDe":2781,"ĠGl":2782,"anish":2783,"thing":2784,"Ġpistachio":2785,"ĠCreme":2786,"ĠCobbler":2787,"atch":2788,"Ġgrill":2789,"peeled":2790,"uch":2791,"ĠBlueberry":2792,"ah":2793,"oop":2794,"ĠUs":2795,"ĠCandy":2796,"able":2797,"Ġlined":2798,"ĠSlowly":2799,"Ġrefried":2800,"Ġwithout":2801,"blong":2802,"Ġ&":2803,"ĠBroil":2804,"ĠPasta":2805,"Ġind":2806,"ĠCoffee":2807,"Ġhamburg":2808,"ai":2809,"ĠTurkey":2810,"oca":2811,"Ġending":2812,"ĠSepar":2813,"Ġmaple":2814,"ecor":2815,"ften":2816,"ioca":2817,"Ġthickness":2818,"ĠPan":2819,"Ġsprouts":2820,"ĠDijon":2821,"ĠSupreme":2822,"outh":2823,"Ġbags":2824,"Ġoblong":2825,"ops":2826,"Ġtake":2827,"Ġtins":2828,"Ġspoonfuls":2829,"ĠCarrot":2830,"Ġquickly":2831,"lings":2832,"rye":2833,"oodle":2834,"iscard":2835,"Ġpr":2836,"ĠReser":2837,"ial":2838,"Ġsame":2839,"Ġget":2840,"Ġrye":2841,"ĠPickles":2842,"ĠSoften":2843,"ĠWhite":2844,"Ġfoam":2845,"Ġundiluted":2846,"Ġbegins":2847,"Ġwide":2848,"ĠCrack":2849,"ĠRecipe":2850,"icy":2851,"Ġequal":2852,"Ġpitted":2853,"Ġbrandy":2854,"phia":2855,"Ġenchilada":2856,"ĠUsing":2857,"ĠSeparate":2858,"elphia":2859,"away":2860,"iladelphia":2861,"ashioned":2862,"Ġcrumble":2863,"Ġwalnut":2864,"Ġsecond":2865,"ĠWill":2866,"Ġmeringue":2867,"Ġgelatine":2868,"Ġapricots":2869,"ĠLay":2870,"Ġblueberry":2871,"ĠReserve":2872,"Ġpul":2873,"Ġpor":2874,"ĠPhiladelphia":2875,"11":2876,"ĠTea":2877,"uss":2878,"Ġlard":2879,"iffy":2880,"Ġraspberries":2881,"Ġpeaks":2882,"ere":2883,"Ġtapioca":2884,"Ġbran":2885,"ĠScall":2886,"Ġpartially":2887,"Ġstage":2888,"Ġseedless":2889,"Ġret":2890,"ĠGrand":2891,"Ġmoist":2892,"ĠChris":2893,"Ġcas":2894,"Ġremoving":2895,"Ġholes":2896,"Ġsprayed":2897,"hew":2898,"Ġreserve":2899,"Ġ\"":2900,"Ġscal":2901,"Ġwor":2902,"ĠCro":2903,"ĠUncover":2904,"Ġwings":2905,"Ġwild":2906,"ĠChops":2907,"uncan":2908,"mel":2909,"Ġbrush":2910,"Ġgi":2911,"Ġkettle":2912,"Ġahead":2913,"Ġsing":2914,"ingu":2915,"ĠRom":2916,"Ġtid":2917,"ĠTuna":2918,"ander":2919,"ĠDish":2920,"Ġsteam":2921,"Ġcaraway":2922,"ĠJiffy":2923,"Ġbest":2924,"ĠIm":2925,"ossible":2926,"ket":2927,"ĠSpanish":2928,"ĠJust":2929,"Ġsprink":2930,"Ġsmoked":2931,"ĠBreakfast":2932,"Ġcrunchy":2933,"Ġinst":2934,"ĠVeg":2935,"Ġparts":2936,"orb":2937,"Ġweeks":2938,"ĠCreamy":2939,"iche":2940,"ual":2941,"Ġstalk":2942,"while":2943,"ĠTw":2944,"ĠLow":2945,"Ġeverything":2946,"Ġtidbits":2947,"Ġmakes":2948,"ettuc":2949,"Ġgallon":2950,"Ġdinner":2951,"ĠTransfer":2952,"ĠKraft":2953,"ĠRaisin":2954,"Ġpulp":2955,"Ġreturn":2956,"ipped":2957,"ĠMarinate":2958,"ears":2959,"Ġsplit":2960,"ĠOven":2961,"Ġsteaks":2962,"ĠVal":2963,"yre":2964,"Ġbones":2965,"Ġarrange":2966,"tmas":2967,"Ġrounded":2968,"with":2969,"Ġdoub":2970,"yrex":2971,"Ġabs":2972,"Ġsqueez":2973,"Ġmein":2974,"Ġquarters":2975,"insed":2976,"Ġspri":2977,"ĠNext":2978,"Ġsingle":2979,"cho":2980,"ĠDuncan":2981,"ipton":2982,"Ġcir":2983,"Ġbec":2984,"Ġdel":2985,"Ġtes":2986,"Ġwant":2987,"aker":2988,"Ġloo":2989,"ĠLasagna":2990,"ĠApples":2991,"Ġcontainers":2992,"Ġrinsed":2993,"ĠParty":2994,"Ġsun":2995,"ĠChristmas":2996,"ĠLipton":2997,"ĠHines":2998,"Ġfudge":2999,"ĠValley":3000,"eaten":3001,"ĠSeal":3002,"Ġeat":3003,"ĠPyrex":3004,"ĠDough":3005,"Ġabsorb":3006,"Ġremoved":3007,"ath":3008,"ouch":3009,"ĠMilk":3010,"ĠGently":3011,"cup":3012,"Ġavocados":3013,"ĠScallop":3014,"Ġalong":3015,"iddle":3016,"iron":3017,"etiz":3018,"ĠEn":3019,"acho":3020,"Ġbottles":3021,"Ġremainder":3022,"dish":3023,"ĠLea":3024,"add":3025,"ĠStyle":3026,"Ġact":3027,"ĠOne":3028,"Ġgreens":3029,"uced":3030,"Ġsift":3031,"Ġpopped":3032,"undrained":3033,"Ġgener":3034,"Ġrot":3035,"Ġmaking":3036,"ĠFritos":3037,"Ġdoubled":3038,"umbo":3039,"small":3040,"ĠKool":3041,"omme":3042,"Ġleaving":3043,"Ġtri":3044,"ĠTort":3045,"Ġunpeeled":3046,"ĠBlack":3047,"Ġactive":3048,"idden":3049,"bu":3050,"Ġcalories":3051,"Ġprefer":3052,"ĠSplit":3053,"Ġartichoke":3054,"approximately":3055,"ople":3056,"Ġroasting":3057,"Ġflowerets":3058,"Ġmiddle":3059,"Ġcashew":3060,"ect":3061,"Ġbig":3062,"ages":3063,"ĠBran":3064,"ĠPack":3065,"ountry":3066,"ier":3067,"ĠHidden":3068,"ĠGrill":3069,"Ġfruits":3070,"ĠCheesecake":3071,"ĠTex":3072,"ĠCinnamon":3073,"ĠHomemade":3074,"Aid":3075,"Ġmuch":3076,"Ġmeats":3077,"Ġduring":3078,"Ġsweetener":3079,"ĠStove":3080,"unt":3081,"Ġvegg":3082,"Ġconsomme":3083,"28":3084,"Ġscalded":3085,"ĠRomano":3086,"bo":3087,"Ġrectang":3088,"irloin":3089,"ison":3090,"oppy":3091,"bury":3092,"Ġgiven":3093,"Ġwork":3094,"Ġoysters":3095,"Ġwashed":3096,"Ġmarinate":3097,"ĠHoney":3098,"Ġcarefully":3099,"ĠSalmon":3100,"ĠPr":3101,"aster":3102,"ily":3103,"Ġindivid":3104,"nation":3105,"Ġbetter":3106,"ĠBur":3107,"of":3108,"ady":3109,"Ġreduced":3110,"ĠCol":3111,"anwhile":3112,"Ġburn":3113,"enison":3114,"Ġkind":3115,"Ġmeasure":3116,"ĠEggs":3117,"ĠMar":3118,"uncooked":3119,"ĠFrozen":3120,"Ġlingu":3121,"Ġprun":3122,"ĠMeatballs":3123,"Ġfoamy":3124,"Ser":3125,"Ġcoating":3126,"ĠMeanwhile":3127,"Ġcustard":3128,"Ġtbsp":3129,"mb":3130,"flower":3131,"ills":3132,"epend":3133,"Ġherbs":3134,"aj":3135,"Ġveal":3136,"ĠCarnation":3137,"Ġopen":3138,"ĠButtermilk":3139,"ity":3140,"Ch":3141,"Ġtin":3142,"Ġgerm":3143,"ĠOf":3144,"Ġscallops":3145,"Ġbubbles":3146,"Ġcored":3147,"Ġsirloin":3148,"Ġhold":3149,"ĠAltern":3150,"ĠGarlic":3151,"ĠSlaw":3152,"ffle":3153,"ĠOver":3154,"ĠMeasure":3155,"Ġsit":3156,"ĠScalloped":3157,"Ġchow":3158,"ank":3159,"Ġleave":3160,"Ġounce":3161,"Ġsprigs":3162,"Ġveggies":3163,"ĠSandwich":3164,"Ġpeople":3165,"Ġstart":3166,"ĠHaw":3167,"Ġtouch":3168,"Ġlite":3169,"Ġwafer":3170,"ĠEnch":3171,"ĠTots":3172,"by":3173,"geal":3174,"ths":3175,"Ġdogs":3176,"Ġring":3177,"ourbon":3178,"aiian":3179,"Ġgrits":3180,"ĠToast":3181,"ĠCakes":3182,"Ġmeas":3183,"undiluted":3184,"Ġpear":3185,"Ġends":3186,"Ġoyster":3187,"ĠHawaiian":3188,"Ġsunflower":3189,"ross":3190,"ĠVanilla":3191,"vers":3192,"save":3193,"Ġflatten":3194,"ĠEnjoy":3195,"pro":3196,"ĠWal":3197,"Ġsoften":3198,"ĠChex":3199,"ĠThaw":3200,"ula":3201,"ĠCustard":3202,"Ġlevel":3203,"ĠRel":3204,"ĠFlat":3205,"cing":3206,"Ġbris":3207,"ird":3208,"Ġfettuc":3209,"Ġprunes":3210,"Ġfrost":3211,"orets":3212,"Ġpreven":3213,"ĠQuiche":3214,"ĠRelish":3215,"Ġcolored":3216,"illsbury":3217,"ĠPl":3218,"Ġradish":3219,"dry":3220,"ĠSouth":3221,"Ġsoak":3222,"Ġits":3223,"asagne":3224,"Ġdrizzle":3225,"ĠCrock":3226,"Ġtwice":3227,"ĠFlour":3228,"ĠTexas":3229,"Ġpint":3230,"ĠFlatten":3231,"ĠIcing":3232,"Ġinside":3233,"Ġbit":3234,"Ġcakes":3235,"Ġbeater":3236,"ĠGrate":3237,"ĠLeave":3238,"Ġflorets":3239,"Ġsections":3240,"ina":3241,"Ġrun":3242,"ĠTrim":3243,"rn":3244,"Ġdrink":3245,"umm":3246,"Ġsave":3247,"Ġthan":3248,"fresh":3249,"oliday":3250,"ĠHash":3251,"Ġprevent":3252,"med":3253,"ĠCrunch":3254,"Ġdessert":3255,"Ġhom":3256,"okes":3257,"Ġsauteed":3258,"Ġroasted":3259,"Ġindividual":3260,"ents":3261,"Ġthese":3262,"fro":3263,"ĠMold":3264,"efore":3265,"Ġiron":3266,"Ġtrim":3267,"clu":3268,"Ġtorn":3269,"ĠFavorite":3270,"ĠJo":3271,"ĠPillsbury":3272,"ĠMom":3273,"boned":3274,"Ġpoint":3275,"esy":3276,"Ġalum":3277,"Ġpies":3278,"Ġpuff":3279,"ĠCal":3280,"thy":3281,"zo":3282,"Ġlook":3283,"isted":3284,"ght":3285,"Ġreach":3286,"Ġunsifted":3287,"crumb":3288,"ĠDon":3289,"ĠHe":3290,"Ġlump":3291,"Ġspat":3292,"ĠWater":3293,"Ġpounds":3294,"cut":3295,"Ġdiscard":3296,"Ġdeboned":3297,"ĠGrandma":3298,"tender":3299,"agon":3300,"bone":3301,"arge":3302,"Ġshap":3303,"reserve":3304,"Ġoptional":3305,"mint":3306,"areri":3307,"Ġgreat":3308,"asily":3309,"may":3310,"tal":3311,"Ġdissolves":3312,"Ġabsorbed":3313,"Ġcashews":3314,"Fat":3315,"ĠDice":3316,"Ġline":3317,"ĠBatter":3318,"Ġ36":3319,"Ġparty":3320,"ĠPuff":3321,"Ġmost":3322,"Ġeasily":3323,"Ġspatula":3324,"Ġfran":3325,"ĠDate":3326,"areribs":3327,"enn":3328,"Ġlisted":3329,"ĠBefore":3330,"ecial":3331,"Ġabove":3332,"mix":3333,"Ġdot":3334,"Ġounces":3335,"gin":3336,"Ġsaltine":3337,"Ġoiled":3338,"ĠCheesy":3339,"ĠCracker":3340,"Ġbrownie":3341,"Ġdoz":3342,"azed":3343,"Ġfollowing":3344,"ecorate":3345,"Ġflake":3346,"ĠCarrots":3347,"Ġbrisket":3348,"Ġloos":3349,"Ġpower":3350,"ĠCre":3351,"epending":3352,"ĠChowder":3353,"Ġradishes":3354,"Ġrese":3355,"ĠSave":3356,"airy":3357,"Ġold":3358,"ĠMushrooms":3359,"Ġskins":3360,"ĠUncle":3361,"Serves":3362,"Ġbark":3363,"Ġcooker":3364,"Ġpancake":3365,"ĠMarinated":3366,"ĠBen":3367,"obs":3368,"Ġpossible":3369,"ĠTang":3370,"ieners":3371,"Ġenjoy":3372,"ouse":3373,"Ġpeppercorn":3374,"asting":3375,"ĠPancakes":3376,"ĠAn":3377,"ĠOreos":3378,"Ġmeasuring":3379,"ron":3380,"ĠSeed":3381,"Ġboils":3382,"Ġaway":3383,"Ġartichokes":3384,"ĠVery":3385,"low":3386,"ond":3387,"ĠCucumb":3388,"ĠBacon":3389,"Ġrep":3390,"ium":3391,"Ġoverb":3392,"Ġspears":3393,"Ġpared":3394,"Ġass":3395,"Ġway":3396,"ĠWheat":3397,"Ġtiny":3398,"Ġbourbon":3399,"Ġstarts":3400,"Makes":3401,"ib":3402,"Ġverm":3403,"Ġflavors":3404,"lean":3405,"ĠMandarin":3406,"elli":3407,"Ġscoop":3408,"Ġown":3409,"alade":3410,"Ġsolid":3411,"redge":3412,"Ġfinish":3413,"uice":3414,"Ġjalapenos":3415,"Ġ275":3416,"roll":3417,"ĠBar":3418,"Ġnacho":3419,"ĠGinger":3420,"urple":3421,"Ġpers":3422,"ory":3423,"ĠCookie":3424,"Ġcanola":3425,"Ġdairy":3426,"ĠRub":3427,"Ġsized":3428,"Ġtray":3429,"Ġcross":3430,"Ġlit":3431,"18":3432,"Ġ17":3433,"Ġblending":3434,"Ġbrand":3435,"iladas":3436,"ĠDumplings":3437,"Pot":3438,"land":3439,"Ġyams":3440,"vert":3441,"Ġfive":3442,"ĠPop":3443,"Ġsnipped":3444,"Ġpeppermint":3445,"ĠDinner":3446,"proof":3447,"Ġmon":3448,"Ġstring":3449,"cluding":3450,"Ġcandies":3451,"ectar":3452,"46":3453,"orning":3454,"ĠGrind":3455,"Ġcleaned":3456,"ĠFlake":3457,"ĠNoodle":3458,"Ġstuffed":3459,"Ġshallots":3460,"Ġwet":3461,"ĠTomatoes":3462,"ĠHell":3463,"Ġdiagon":3464,"Ġrectangle":3465,"mann":3466,"ĠShred":3467,"ead":3468,"Ġcloth":3469,"Ġbunches":3470,"ĠFish":3471,"ĠGolden":3472,"orted":3473,"crumbs":3474,"St":3475,"Ġfit":3476,"ĠDill":3477,"ĠAlternate":3478,"except":3479,"Ġcurd":3480,"ules":3481,"asa":3482,"ĠAp":3483,"ouffle":3484,"ĠSea":3485,"iskey":3486,"ĠNew":3487,"Ġbowls":3488,"ĠSkillet":3489,"Ġtriang":3490,"Ġpeppercorns":3491,"Ġloin":3492,"Ġvenison":3493,"ĠStro":3494,"ĠLime":3495,"irl":3496,"inning":3497,"Ġdoes":3498,"Ġgranules":3499,"Ġtoothpicks":3500,"lined":3501,"ĠRuss":3502,"ĠApplesauce":3503,"Ġparmesan":3504,"Ġtherm":3505,"ĠNor":3506,"sugar":3507,"Ġster":3508,"Ġrounds":3509,"Ġpimientos":3510,"ajun":3511,"vings":3512,"Ġdeve":3513,"Ġwok":3514,"Ġbasting":3515,"Ġpull":3516,"Ġeasy":3517,"ruc":3518,"Ġmace":3519,"Ġhominy":3520,"Ġhandle":3521,"ua":3522,"alf":3523,"ĠEqual":3524,"Ġgo":3525,"ometer":3526,"Ġcome":3527,"ĠRhubarb":3528,"ielb":3529,"ĠAlmon":3530,"Ġthermometer":3531,"Ġent":3532,"Ġcircle":3533,"malade":3534,"Ġmarmalade":3535,"ĠWork":3536,"Ġ32":3537,"Ġclub":3538,"isses":3539,"Ġenvelopes":3540,"odka":3541,"Ġbreadcrumbs":3542,"Ġpints":3543,"Ġpurple":3544,"Ġstiffly":3545,"oli":3546,"Ġstack":3547,"Ġblanch":3548,"Ġwra":3549,"Ġcutlets":3550,"rawfish":3551,"atur":3552,"Ġfire":3553,"ĠHave":3554,"Ġplac":3555,"Ġdevil":3556,"Ġunbeaten":3557,"ug":3558,"ĠHoliday":3559,"ĠSpiced":3560,"amily":3561,"ĠHeath":3562,"Ġlinguine":3563,"large":3564,"Ġdice":3565,"ĠAm":3566,"ĠProcess":3567,"Ġwieners":3568,"ĠCom":3569,"ĠAunt":3570,"ellini":3571,"ganoff":3572,"ĠNest":3573,"Ġracks":3574,"Ġdishes":3575,"Ġportions":3576,"oz":3577,"Ġclam":3578,"ĠApricot":3579,"Ġroot":3580,"Ġplum":3581,"eyed":3582,"box":3583,"Ġnectar":3584,"Ġalternating":3585,"Ġnear":3586,"ĠIr":3587,"ĠSho":3588,"ĠBurg":3589,"ple":3590,"Ġscrap":3591,"te":3592,"Ġdump":3593,"Ġpacket":3594,"arbecu":3595,"etizer":3596,"fe":3597,"32":3598,"eur":3599,"ĠCauliflower":3600,"aki":3601,"Ġfingers":3602,"ĠCajun":3603,"ĠSpicy":3604,"Ġtight":3605,"Ġfri":3606,"ĠWhisk":3607,"Ġprepare":3608,"amen":3609,"Ġshort":3610,"Ġtenderloin":3611,"Ġentire":3612,"sized":3613,"Ġlamb":3614,"Ġwhiskey":3615,"ĠStart":3616,"ahl":3617,"be":3618,"Ġvodka":3619,"ahlua":3620,"iander":3621,"Ġ+":3622,"ĠNoodles":3623,"!!":3624,"tils":3625,"ĠGravy":3626,"ĠSeaf":3627,"acc":3628,"ĠStrain":3629,"ĠKeeps":3630,"ĠStroganoff":3631,"Ġblanched":3632,"ĠFin":3633,"white":3634,"mbles":3635,"Ġassorted":3636,"Ġlater":3637,"ĠSouthern":3638,"Ġresembles":3639,"ielbasa":3640,"ouble":3641,"Ġinstead":3642,"ĠIrish":3643,"just":3644,"Ġovercook":3645,"ĠPoppy":3646,"Ġspareribs":3647,"itch":3648,"ĠSpecial":3649,"icelli":3650,"ami":3651,"ĠHerb":3652,"Ġteaspoonful":3653,"Ġcoriander":3654,"Ġsticky":3655,"Ġacross":3656,"ĠHellmann":3657,"ĠRussian":3658,"ĠNe":3659,"ale":3660,"rape":3661,"Ġnew":3662,"ĠPeppers":3663,"tin":3664,"ouple":3665,"ĠIs":3666,"form":3667,"Ġshapes":3668,"yaki":3669,"Ġliqueur":3670,"ĠEggplant":3671,"ĠPretz":3672,"Ġspoonful":3673,"Ġdelicious":3674,"Th":3675,"uac":3676,"Ġlog":3677,"ither":3678,"ĠRamen":3679,"Ġzest":3680,"Ġcrosswise":3681,"hy":3682,"ĠCountry":3683,"ĠFood":3684,"ĠEx":3685,"Ġbeginning":3686,"21":3687,"mp":3688,"amole":3689,"Ġhalfway":3690,"Ġmoisten":3691,"ĠLayered":3692,"Ġpods":3693,"Ġlentils":3694,"arbecued":3695,"Ġ100":3696,"Ġdepending":3697,"ĠCreole":3698,"uacamole":3699,"Ġblock":3700,"ĠColby":3701,"Ġrepeat":3702,"Ġmorning":3703,"17":3704,"butter":3705,"Ġcaps":3706,"Ġcouple":3707,"Ġchipped":3708,"ĠAlmond":3709,"ari":3710,"ĠCur":3711,"ĠSu":3712,"Ġdashes":3713,"Ġdipping":3714,"ĠPer":3715,"ĠPea":3716,"ĠArt":3717,"igor":3718,"ranspar":3719,"eness":3720,"ĠClean":3721,"ĠCucumber":3722,"ĠSteam":3723,"Ġcongeal":3724,"ĠPeg":3725,"Ġdipped":3726,"ransparent":3727,"Ġty":3728,"spberry":3729,"Ġdust":3730,"ĠChess":3731,"Lemon":3732,"Ġvigor":3733,"ounts":3734,"Ġtests":3735,"inal":3736,"heese":3737,"irds":3738,"ĠPinch":3739,"omes":3740,"ĠCarefully":3741,"agu":3742,"Ġsticking":3743,"rise":3744,"Ġtransparent":3745,"Ġshelled":3746,"Ġglasses":3747,"eriyaki":3748,"ddle":3749,"Ġcore":3750,"ĠFilling":3751,"eeze":3752,"ĠEnchiladas":3753,"thern":3754,"Ġright":3755,"Ġbarley":3756,"Ġsnow":3757,");":3758,"Ġfully":3759,"iginal":3760,"ghorn":3761,"ned":3762,"vol":3763,"Ġsw":3764,"ĠBaste":3765,"Ġthigh":3766,"Ġsandwiches":3767,"ĠImmediately":3768,"Ġsprinkled":3769,"!)":3770,"If":3771,"Ġseaf":3772,"Ġinstruc":3773,"Ġseafood":3774,"Ġroaster":3775,"ĠOri":3776,"rants":3777,"Ġvigorously":3778,"Ġdeveined":3779,"ĠJam":3780,"ĠKahlua":3781,"ĠButterscotch":3782,"Ġwon":3783,"abet":3784,"efruit":3785,"ĠOil":3786,"ĠSalsa":3787,"riddle":3788,"Ġsteril":3789,"ban":3790,"ĠBay":3791,"Ġfrypan":3792,"Ġcurrants":3793,"Ġoverbake":3794,"ĠSeafood":3795,"Ġsix":3796,"Ġchip":3797,"liced":3798,"ĠBrittle":3799,"Ġsqueeze":3800,"ye":3801,"Ġreaches":3802,"Ġhole":3803,"Ġlower":3804,"igs":3805,"Ġbecomes":3806,"volone":3807,"Ġvermicelli":3808,"Ġbrownies":3809,"Ġcapers":3810,"Ġsterilized":3811,"ĠAsparagus":3812,"Ġbrowning":3813,"ĠLower":3814,"ĠArtich":3815,"onghorn":3816,"ĠFeta":3817,"Ġcooling":3818,"itchen":3819,"more":3820,"Ġ48":3821,"ĠMixture":3822,"Ġspreading":3823,"anny":3824,"ummy":3825,"medium":3826,"round":3827,"ems":3828,"Ġliter":3829,"ald":3830,"Ġstrain":3831,"iry":3832,"Ġlee":3833,"ĠRagu":3834,"ĠCups":3835,"ĠTri":3836,"Ġlarger":3837,"enough":3838,"ĠTear":3839,"ĠGraham":3840,"Ġamounts":3841,"fur":3842,"kfur":3843,"ĠPol":3844,"ĠSurp":3845,"Ġcolander":3846,"ures":3847,"Ġmozzarella":3848,"ĠGrape":3849,"Ġdoneness":3850,"ĠNestle":3851,"ĠBarbecued":3852,"ĠDeep":3853,"cktail":3854,"ĠSeven":3855,"Ġportion":3856,"Ġtrimmed":3857,"Ġgriddle":3858,"ĠSqueeze":3859,"Ġgenerously":3860,"Ġsum":3861,"ĠShe":3862,"ĠLonghorn":3863,"ĠFluff":3864,"frozen":3865,"alia":3866,"Add":3867,"pec":3868,"ĠMed":3869,"dairy":3870,"nox":3871,"ĠPuffs":3872,"30":3873,"Ġlasagne":3874,"ĠHor":3875,"ĠProvolone":3876,"dge":3877,"iw":3878,"rs":3879,"ored":3880,"ĠSouffle":3881,"ĠDouble":3882,"ĠNorthern":3883,"ĠBaking":3884,"safe":3885,"obster":3886,"Ġdiagonally":3887,"Ġbase":3888,"ĠRefrigerator":3889,"Ġscraping":3890,"ĠKnox":3891,"Ġsummer":3892,"ord":3893,"Ġnight":3894,"ĠFashioned":3895,"ĠCocktail":3896,"idalia":3897,"Ġsqueezed":3898,"ĠRea":3899,"Ġdebone":3900,"Ġloosely":3901,"dium":3902,"mold":3903,"usages":3904,"Ġflavorings":3905,"ĠVegetables":3906,"Ġthighs":3907,"Ġinstructions":3908,"Microwave":3909,"Ġbur":3910,"Ġdiv":3911,"ĠGround":3912,"ĠDevil":3913,"Ġchickens":3914,"ĠHouse":3915,"Ġhandful":3916,"ousse":3917,"ĠAlso":3918,"Ġcombin":3919,"ance":3920,"Ġfree":3921,"ĠServings":3922,"ĠThese":3923,"Ġleftovers":3924,"chopped":3925,"ioli":3926,"ĠMan":3927,"aters":3928,"Ġpackets":3929,"ĠSnack":3930,"Ġtype":3931,"ached":3932,"ĠScald":3933,"umps":3934,"ĠScr":3935,"ĠGlaze":3936,"ĠSurprise":3937,"ĠCat":3938,"ĠOp":3939,"ĠHormel":3940,"Ġmet":3941,"Ġkielbasa":3942,"ĠFrit":3943,"Ġcrawfish":3944,"edish":3945,"ĠChow":3946,"Ġpressed":3947,"Ġbegin":3948,"Ġfrothy":3949,"Ġgenerous":3950,"ĠAs":3951,"Ġrub":3952,"Ġslicing":3953,"Ġfrankfur":3954,"drained":3955,"ĠPu":3956,"Ġnoodle":3957,"ĠGranny":3958,"maine":3959,"Ġfollows":3960,"ĠSandwiches":3961,"iwi":3962,"Ġdivide":3963,"ĠStick":3964,"ĠYum":3965,"ĠArtichoke":3966,"dough":3967,"ĠReaLemon":3968,"ĠAt":3969,"ornia":3970,"ifornia":3971,"ĠLe":3972,"Ġrotini":3973,"Ġpretzel":3974,"Ġsaltines":3975,"Ġgarban":3976,"ĠSpice":3977,"bro":3978,"ppers":3979,"Ġgrapefruit":3980,"Ġleft":3981,"ental":3982,"ĠFreezes":3983,"ĠWalnut":3984,"Ġpea":3985,"ĠPies":3986,"ĠNot":3987,"ameter":3988,"abetic":3989,"ĠDecorate":3990,"Ġcrispy":3991,"ĠGlazed":3992,"mpty":3993,"Ġman":3994,"ĠAb":3995,"Ġoriginal":3996,"Ġcracked":3997,"Ġanise":3998,"Ġdiameter":3999,"ĠCalifornia":4000,"ĠDirt":4001,"Ġseparately":4002,"ĠScoop":4003,"Ġseam":4004,"Ġsmaller":4005,"Ġromaine":4006,"ĠVidalia":4007,"Ġscant":4008,"pre":4009,"ux":4010,"ĠShell":4011,"ĠRaspberry":4012,"mit":4013,"your":4014,"ĠSec":4015,"venly":4016,"ĠChew":4017,"ĠSwedish":4018,"ĠBaker":4019,"oupe":4020,"atural":4021,"de":4022,"Ġdecor":4023,"plain":4024,"ettes":4025,"hot":4026,"uds":4027,"Ġchick":4028,"Ġhen":4029,"Ġstr":4030,"Ġsausages":4031,"ĠKn":4032,"tures":4033,"Ġouts":4034,"Ġwish":4035,"side":4036,"ummer":4037,"ĠDredge":4038,"ĠLa":4039,"Ġcupcake":4040,"ĠSauerkraut":4041,"Ġfinger":4042,"irgin":4043,"ĠClam":4044,"Ġtail":4045,"ĠCoca":4046,"Bake":4047,"ment":4048,"peas":4049,"djust":4050,"Ġcantal":4051,"ĠCocoa":4052,"Ġtriangles":4053,"Ġcreme":4054,"Ġtall":4055,"Ġlink":4056,"Ġalternate":4057,"cine":4058,"lime":4059,"alt":4060,"Ġflank":4061,"ĠMrs":4062,"ĠIcebox":4063,"ĠSun":4064,"Ġmixtures":4065,"ocks":4066,"Ġrab":4067,"Ġrap":4068,"Ġancho":4069,"ĠUps":4070,"Ġnondairy":4071,"ĠStuffing":4072,"Ġcirc":4073,"Ġsimmering":4074,"Ġrapid":4075,"ĠFir":4076,"rops":4077,"ĠSummer":4078,"ushy":4079,"Ġrich":4080,"ĠWatch":4081,"Ġlbs":4082,"eful":4083,"Ġpackages":4084,"ĠTopping":4085,"Cola":4086,"Ġblackberry":4087,"Ġ70":4088,"Ġstrip":4089,"Ġgarbanzo":4090,"Fry":4091,"Ġstarting":4092,"ik":4093,"Ġincluding":4094,"Ġlumps":4095,"Ġkiwi":4096,"Ġbubbling":4097,"angular":4098,"Ġoutside":4099,"Ġbath":4100,"Ġeither":4101,"Ġsalami":4102,"ĠSpr":4103,"Ġbottled":4104,"Ġgone":4105,"Ġtheir":4106,"Ġbas":4107,"ĠDog":4108,"ĠHun":4109,"Ġsecure":4110,"etizers":4111,"over":4112,"ĠMustard":4113,"Ġovenproof":4114,"Ġscr":4115,"uxe":4116,"beaten":4117,"cem":4118,"fu":4119,"Ġfamily":4120,"Ġ200":4121,"ĠPopcorn":4122,"ĠAbout":4123,"Ġtopped":4124,"ĠTest":4125,"ĠMedium":4126,"icotti":4127,"ĠSnick":4128,"cemeat":4129,"cell":4130,"Ġblackberries":4131,"Ġdumplings":4132,"ĠDay":4133,"ĠPretzel":4134,"ara":4135,"ably":4136,"Ġtablespoonfuls":4137,"Ġfrankfurters":4138,"Ġdamp":4139,"ĠDiscard":4140,"This":4141,"ĠBowl":4142,"ĠShort":4143,"ĠPickled":4144,"Ġworks":4145,"Ġnatural":4146,"ĠOys":4147,"Ġheads":4148,"cellent":4149,"Ups":4150,"ĠBeaters":4151,"Ġfridge":4152,"Ġnice":4153,"Ġpancakes":4154,"go":4155,"raut":4156,"Ġjumbo":4157,"Ġthird":4158,"Ġcanning":4159,"iblets":4160,"Ġrectangular":4161,"ĠImp":4162,"Can":4163,"Ġcreamer":4164,"ĠWarm":4165,"erios":4166,"Ġweek":4167,"Ġcantaloupe":4168,"ĠUpside":4169,"Ġpine":4170,"urk":4171,"ĠReady":4172,"Ġclos":4173,"ĠSnow":4174,"ama":4175,"Ġsaff":4176,"Ġslits":4177,"Ġwould":4178,"Ġfilled":4179,"ĠNow":4180,"ĠMolasses":4181,"ĠOriental":4182,"Ġnavy":4183,"immon":4184,"Ġkraut":4185,"meats":4186,"Ġfigs":4187,"ob":4188,"Ġcountry":4189,"ĠCheerios":4190,"Ġcuts":4191,"Ġoat":4192,"Ġpressing":4193,"ĠBreasts":4194,"otted":4195,"ĠCheck":4196,"Ġlimeade":4197,"orm":4198,"ĠWings":4199,"Ġsetting":4200,"Ġturns":4201,"urkee":4202,"Ġfast":4203,"Ġcareful":4204,"awry":4205,"ussels":4206,"Ġomit":4207,"que":4208,"ĠLi":4209,"ĠTender":4210,"Ġnutmeats":4211,"Ġgloss":4212,"ations":4213,"ĠTortilla":4214,"ball":4215,"Ġgets":4216,"ĠMc":4217,"Ġslaw":4218,"Ġrib":4219,"Do":4220,"Ġspicy":4221,"ĠLast":4222,"Ġsection":4223,"ĠPatties":4224,"Free":4225,"Ġcovering":4226,"ĠThoroughly":4227,"ĠImpossible":4228,"half":4229,"atin":4230,"orr":4231,"Ġguacamole":4232,"ĠDust":4233,"ĠFat":4234,"ĠCoke":4235,"Ġprocessed":4236,"whole":4237,"Ġstrong":4238,"Ġcoals":4239,"ĠShoe":4240,"Ġliver":4241,"ĠCub":4242,"ounds":4243,"Ġpectin":4244,"ĠInvert":4245,"ĠRot":4246,"Ġslotted":4247,"Ġkernels":4248,"ĠZest":4249,"ĠGrilled":4250,"ĠDurkee":4251,"ĠLawry":4252,"ennel":4253,"350":4254,"rec":4255,"ico":4256,"Ġ23":4257,"Ġ28":4258,"ĠPull":4259,"ĠThey":4260,"Cheese":4261,"aps":4262,"Ġhots":4263,"Ġchile":4264,"ĠKnorr":4265,"ny":4266,"Ġtips":4267,"amic":4268,"Ġlove":4269,"Ġleeks":4270,"la":4271,"Ġbatch":4272,"ĠIsland":4273,"Ġmetal":4274,"Ġchickpeas":4275,"ĠTime":4276,"ĠHea":4277,"ĠButterf":4278,"Ġsprinkles":4279,"rost":4280,"Ġvari":4281,"Ġharden":4282,"Ġdropped":4283,"ĠSprite":4284,"Ġteriyaki":4285,"Ġsoaked":4286,"Ġliquids":4287,"ĠMonkey":4288,"ants":4289,"Ġtortellini":4290,"etty":4291,"itation":4292,"ĠTre":4293,"ĠMeringue":4294,"iffer":4295,"ĠTot":4296,"bleached":4297,"Ġcornflake":4298,"Down":4299,"Ġfennel":4300,"unk":4301,"ĠEat":4302,"ĠOnions":4303,"ĠTorte":4304,"crisp":4305,"osh":4306,"etter":4307,"ĠWild":4308,"Ġcard":4309,"pany":4310,"Ġdeer":4311,"Ġcartons":4312,"crease":4313,"Ġflame":4314,"lien":4315,"ĠMill":4316,"Ġjulien":4317,"agne":4318,"ta":4319,"yst":4320,"efrost":4321,"ĠPral":4322,"Low":4323,"Ġmany":4324,"Ġlobster":4325,"ickory":4326,"ĠKisses":4327,"ampagne":4328,"Ġbarely":4329,"ĠDash":4330,"ĠLight":4331,"Ġlivers":4332,"Ġears":4333,"ĠOpen":4334,"24":4335,"ĠPistachio":4336,"ĠMy":4337,"Ġcryst":4338,"Ġtoppings":4339,"ĠUnmold":4340,"ĠPolish":4341,"Ġmed":4342,"ĠPowder":4343,"Ġunbleached":4344,"ĠOli":4345,"Ġdiet":4346,"Ġperson":4347,"ĠCole":4348,"ĠMil":4349,"For":4350,"Ġtam":4351,"Ġsubstituted":4352,"ppies":4353,"ĠBon":4354,"Ġstarch":4355,"Ġskew":4356,"Ġcontin":4357,"Ġsprings":4358,"ĠZesty":4359,"aky":4360,"ĠWa":4361,"Ġlayering":4362,"alorie":4363,"ĠFirst":4364,"juice":4365,"ĠBetty":4366,"Ġes":4367,"ĠCres":4368,"Ġgrate":4369,"ĠNever":4370,"Ġcombination":4371,"rant":4372,"alina":4373,"ieve":4374,"undy":4375,"ĠHeavenly":4376,"oat":4377,"ĠPark":4378,"ĠJuice":4379,"rit":4380,"umd":4381,"alsamic":4382,"Ġcre":4383,"ĠKitchen":4384,"Ġelastic":4385,"Ġworcestershire":4386,"Ġris":4387,"ĠFail":4388,"Ġwarmed":4389,"don":4390,"ĠFran":4391,"Ġconten":4392,"ĠQuickly":4393,"ĠSeasons":4394,"Ġbri":4395,"Ġdist":4396,"ĠTr":4397,"Ġplates":4398,"Ġimitation":4399,"Ġcircles":4400,"cher":4401,"oose":4402,"ĠPure":4403,"green":4404,"ĠDeluxe":4405,"ĠSoda":4406,"Ġmoisture":4407,"melon":4408,"dr":4409,"kes":4410,"uy":4411,"Ġpurpose":4412,"Ġtofu":4413,"Ġ22":4414,"ĠCatalina":4415,"You":4416,"ĠPin":4417,"Ġdog":4418,"arboil":4419,"Ġpita":4420,"ĠSuper":4421,"ĠTwink":4422,"ifferent":4423,"Ġtill":4424,"argarine":4425,"ĠVegg":4426,"ĠYeast":4427,"ĠAppetizer":4428,"Ġpuffed":4429,"Ġtails":4430,"Ġmang":4431,"Ġlots":4432,"ĠAu":4433,"ubble":4434,"aved":4435,"ĠNote":4436,"May":4437,"cream":4438,"ms":4439,"oux":4440,"Ġthirds":4441,"eck":4442,"regular":4443,"Ġones":4444,"ains":4445,"Ġmelon":4446,"arden":4447,"like":4448,"self":4449,"ĠX":4450,"ĠBy":4451,"ĠNuts":4452,"ĠSmith":4453,"osher":4454,"terol":4455,"ĠVelvet":4456,"Ġpatty":4457,"ĠMarinade":4458,"olesterol":4459,"ĠCrackers":4460,"Ġfettuccine":4461,"Ġlumpy":4462,"rel":4463,"Ġlin":4464,"ifici":4465,"unn":4466,"Ġlegs":4467,"astes":4468,"ĠSloppy":4469,"??":4470,"tAdd":4471,"inz":4472,"uty":4473,"ĠLasagne":4474,"ĠJelly":4475,"season":4476,"iah":4477,"Ġmolds":4478,"adyf":4479,"ĠEnchilada":4480,"ĠPuree":4481,"baked":4482,"ments":4483,"Ġbalsamic":4484,"ala":4485,"Ġsuit":4486,"ĠRi":4487,"ĠEl":4488,"ingersn":4489,"Ġlooks":4490,"ĠSheet":4491,"Ġcit":4492,"Ġberry":4493,"icles":4494,"ĠCottage":4495,"ello":4496,"ĠCrunchy":4497,"Ġusually":4498,"29":4499,"ounder":4500,"Ġmarinated":4501,"ĠMayonnaise":4502,"Ġloose":4503,"ĠMillion":4504,"loc":4505,"ret":4506,"ĠMac":4507,"atever":4508,"Ġcalorie":4509,"ĠPrick":4510,"mild":4511,"Ġcat":4512,"Ġfillet":4513,"Ġhickory":4514,"Ġbeing":4515,"Ġsoon":4516,"Ġspir":4517,"Ġartifici":4518,"Ġmonths":4519,"accioli":4520,"Fashioned":4521,"ĠMini":4522,"ĠBurgundy":4523,"ino":4524,"ĠCold":4525,"Ġkept":4526,"ĠZip":4527,"Bran":4528,"Cr":4529,"Ġbed":4530,"ĠGarden":4531,"ĠPecans":4532,"ause":4533,"ĠSar":4534,"Ġpressure":4535,"ĠSkim":4536,"ĠOyster":4537,"ĠMilnot":4538,"soft":4539,"Ġlids":4540,"erd":4541,"Ġmust":4542,"Ġbutternut":4543,"ĠMiss":4544,"Ġtable":4545,"ĠCongeal":4546,"ĠUnroll":4547,"Nuts":4548,"ata":4549,"Ġmincemeat":4550,"ĠJer":4551,"ukes":4552,"ĠMag":4553,"Ġthere":4554,"ĠRing":4555,"ĠWine":4556,"ĠHeal":4557,"ĠRoasted":4558,"arian":4559,"ĠBas":4560,"ĠBetter":4561,"ĠPink":4562,"ĠMa":4563,"Ġbeet":4564,"Ġthread":4565,"ĠLou":4566,"acaroon":4567,"ning":4568,"salt":4569,"rib":4570,"ĠInd":4571,"Ġbecome":4572,"hydr":4573,"Ġartificial":4574,"It":4575,"fle":4576,"Ġhair":4577,"reek":4578,"Ġplaced":4579,"ita":4580,"Ġhel":4581,"ada":4582,"Ġsodium":4583,"ĠHunt":4584,"Ġtossing":4585,"ĠDeviled":4586,"ancy":4587,"Ġequ":4588,"ĠThree":4589,"ĠSoft":4590,"ĠMeal":4591,"Ġhow":4592,"Ġroux":4593,"ĠPear":4594,"ĠCube":4595,"Ġpats":4596,"ĠCand":4597,"oos":4598,"ĠGratin":4599,"ĠSmooth":4600,"ĠZiploc":4601,"Ġ19":4602,"Ġgrind":4603,"ĠRich":4604,"enty":4605,"ĠSaut":4606,"sticks":4607,"ĠHeinz":4608,"ĠPuppies":4609,"Ġcontents":4610,"ĠMother":4611,"Ġhollow":4612,"adle":4613,"ĠMexic":4614,"amboo":4615,"ĠGingerbread":4616,"ĠFritters":4617,"adyfingers":4618,"ĠRum":4619,"ĠMashed":4620,"Cook":4621,"pes":4622,"ured":4623,"Ġmicrow":4624,"ĠSim":4625,"until":4626,"Ġclose":4627,"Ġcurrant":4628,"Ġlinks":4629,"Ġbamboo":4630,"ĠCelery":4631,"ĠCider":4632,"Ġvirgin":4633,"Ġhomemade":4634,"asty":4635,"ĠPeas":4636,"Ġpureed":4637,"Ġtest":4638,"Ġtex":4639,"Ġinvert":4640,"Ġlg":4641,"ĠFollow":4642,"iana":4643,"alapeno":4644,"ĠDiabetic":4645,"Ġsnack":4646,"ĠCompany":4647,"gate":4648,"ware":4649,"Ġhock":4650,"Ġoverla":4651,"Ġcooks":4652,"ĠHo":4653,"ĠHush":4654,"Ġpreferred":4655,"Ġgumbo":4656,"Ġraisin":4657,"Ġstewing":4658,"Ġtouched":4659,"ĠShells":4660,"Ġtexture":4661,"utney":4662,"asier":4663,"Ġstored":4664,"aya":4665,"ĠPastry":4666,"Ġmanicotti":4667,"Ġoverlapping":4668,"ĠBra":4669,"flour":4670,"ĠScrape":4671,"Ġbreakfast":4672,"Ġdoesn":4673,"ones":4674,"ĠCa":4675,"Ġsuch":4676,"Ġdis":4677,"Ġwithin":4678,"Ġcools":4679,"Ġupside":4680,"oulash":4681,"Ġcontinu":4682,"Ġcav":4683,"ites":4684,"Ġitems":4685,"ĠBeer":4686,"ĠQuaker":4687,"Ġsteamed":4688,"Ġrectangles":4689,"unnel":4690,"Ġcatfish":4691,"you":4692,"aret":4693,"ĠEmpty":4694,"canned":4695,"Ġtester":4696,"Ġcukes":4697,"Ġtransfer":4698,"ĠSyrup":4699,"Ġflaky":4700,"ĠMary":4701,"ĠKing":4702,"Ġpoke":4703,"ways":4704,"ĠReese":4705,"Ġrapidly":4706,"instant":4707,"iti":4708,"Ġdecorate":4709,"Ġgumd":4710,"ĠTaste":4711,"Ġblade":4712,"cooking":4713,"ĠOlive":4714,"nog":4715,"orch":4716,"ĠMu":4717,"Ġwhatever":4718,"Ġres":4719,"fect":4720,"ĠSlush":4721,"Ġdeg":4722,"Ġfourths":4723,"Roni":4724,"ales":4725,"quet":4726,"ĠHar":4727,"ĠCreamed":4728,"ĠThicken":4729,"ĠYellow":4730,"ĠBurgers":4731,"pecans":4732,"recipe":4733,"Fried":4734,"den":4735,"igg":4736,"att":4737,"Ġladyfingers":4738,"ĠPo":4739,"ĠMousse":4740,"cloth":4741,"from":4742,"Ġpersimmon":4743,"ĠButterfinger":4744,"met":4745,"Ġ#":4746,"Ġmy":4747,"Ġwas":4748,"ĠSam":4749,"ĠMaz":4750,"oulder":4751,"ean":4752,"ren":4753,"ĠCrispy":4754,"ĠSupper":4755,"ĠParkay":4756,"bit":4757,"cial":4758,"lo":4759,"ence":4760,"leph":4761,"ĠDry":4762,"imm":4763,"Ġseg":4764,"ĠDivan":4765,"sliced":4766,"Ġeasier":4767,"olog":4768,"Ġnow":4769,"Ġjack":4770,"oses":4771,"Ġdoor":4772,"Ġquite":4773,"In":4774,"luc":4775,"pack":4776,"whe":4777,"Ġcount":4778,"Ġstro":4779,"Ġsaving":4780,"Ġshoo":4781,"ĠGold":4782,"ĠGoulash":4783,"upper":4784,"inity":4785,"illed":4786,"verage":4787,"ĠWe":4788,"Ġmango":4789,"top":4790,"ĠJalapeno":4791,"ĠBrownie":4792,"Ġcurl":4793,"ros":4794,"oops":4795,"ĠCooking":4796,"ĠVenison":4797,"plants":4798,"ĠWatergate":4799,"Ġrim":4800,"Ġbaste":4801,"owers":4802,"Ġcheesecloth":4803,"Ġkisses":4804,"Ġkosher":4805,"ĠOkra":4806,"Ġtenderiz":4807,"Ġsegments":4808,"margarine":4809,"Ġbun":4810,"onge":4811,"ĠFettuc":4812,"mercial":4813,"Ġscorch":4814,"ingersnaps":4815,"Ġgumdrops":4816,"Ġcast":4817,"Ġdifferent":4818,"ĠPap":4819,"Ġrump":4820,"ĠFive":4821,"ĠJoes":4822,"lephant":4823,"cross":4824,"tP":4825,"the":4826,"Ġtrans":4827,"Ġshoulder":4828,"Ġheating":4829,"ĠToffee":4830,"ologna":4831,"..":4832,"ipp":4833,"Ġfile":4834,"Ġad":4835,"Ġeggplants":4836,"Ġreheat":4837,"ĠYogurt":4838,"ĠMonte":4839,"sert":4840,"Ġnic":4841,"ĠDoll":4842,"Ġpitcher":4843,"light":4844,"anese":4845,"eath":4846,"ards":4847,"ĠMock":4848,"ĠCorned":4849,"melted":4850,"Ġshoots":4851,"Ġtransluc":4852,"Ġsieve":4853,"abel":4854,"ĠKey":4855,"ĠBeets":4856,"Ġbutton":4857,"fryer":4858,"Ġlinguini":4859,"Ġfranks":4860,"Ġsaffron":4861,"ĠCrescent":4862,"ĠRibs":4863,"ĠMagic":4864,"ĠMazola":4865,"Ġwil":4866,"ĠMama":4867,"ĠAdjust":4868,"Ġwatermelon":4869,"melet":4870,"ondue":4871,"ĠVeggie":4872,"ellogg":4873,"aretto":4874,"Ġdegree":4875,"bran":4876,"Ġtotal":4877,"Ġloses":4878,"omet":4879,"ĠInstant":4880,"Ġbottoms":4881,"ield":4882,"Ġrunning":4883,"Ġnicely":4884,"Ġtranslucent":4885,"Ġtie":4886,"Ġmarble":4887,"ĠInsert":4888,"llo":4889,"Ġpouring":4890,"pared":4891,"Ġputting":4892,"ĠBrussels":4893,"ĠCrabmeat":4894,"Ġplacing":4895,"ĠBasic":4896,"hn":4897,"oriz":4898,"Ġmixes":4899,"tty":4900,"ĠCongealed":4901,"duty":4902,"law":4903,"Ġfashion":4904,"Ġair":4905,"Ġdiluted":4906,"ueur":4907,"Ġcommercial":4908,"ĠTwo":4909,"Ġtenderizer":4910,"ĠBou":4911,"ĠChips":4912,"ĠLog":4913,"ĠGreek":4914,"ĠWhole":4915,"ĠKellogg":4916,"ĠChopped":4917,"ĠLemonade":4918,"ĠDivinity":4919,"ĠCrispix":4920,"heaping":4921,"Ġhens":4922,"Ġvariet":4923,"Ġspiral":4924,"Sp":4925,"rew":4926,"riz":4927,"ĠEver":4928,"ĠThin":4929,"ĠMonde":4930,"Ġholds":4931,"Ġjulienne":4932,"ĠSaran":4933,"ĠCandied":4934,"Ġmushy":4935,"atoni":4936,"iffon":4937,"Ġdeli":4938,"ĠExcellent":4939,"~)":4940,"Ġcoun":4941,"inder":4942,"Ġchampagne":4943,"apanese":4944,"Ġcrusty":4945,"ĠYummy":4946,"ĠFlavor":4947,"ĠTwinkies":4948,"ĠHealthy":4949,"19":4950,"tand":4951,"inds":4952,"Ġdate":4953,"Ġdredge":4954,"ĠSavor":4955,"ĠPoke":4956,"ĠTon":4957,"ĠEcl":4958,"ousand":4959,"ĠJohn":4960,"ĠFinely":4961,"ĠMud":4962,"chicken":4963,"isscross":4964,"ĠAmaretto":4965,"prefer":4966,"Ġcounter":4967,"au":4968,"Ġtear":4969,"esto":4970,"ĠBuns":4971,"ĠBuds":4972,"Ġshaved":4973,"Ġgarden":4974,"ĠFour":4975,"ĠKid":4976,"rteg":4977,"Ġpreparing":4978,"Ġskewers":4979,"seasoned":4980,"ba":4981,"uel":4982,"utes":4983,"ĠBea":4984,"Ġsee":4985,"ĠInto":4986,"Ġdesire":4987,"Ġscrape":4988,"Cheddar":4989,"Ġnearly":4990,"Ġesc":4991,"Sueur":4992,"che":4993,"water":4994,"Ġ65":4995,"ĠHal":4996,"Ġdirects":4997,"ĠCurry":4998,"ormick":4999,"ĠLouis":5000,"40":5001,"Rice":5002,"ious":5003,"yl":5004,"ĠPenn":5005,"Ġcheck":5006,"Ġtamales":5007,"Ġstrokes":5008,"ĠSavory":5009,"Cormick":5010,"Ġsor":5011,"ical":5012,"Ġ500":5013,"ĠSherbet":5014,"ĠTost":5015,"Ġchunked":5016,"Ġcutters":5017,"Ġburner":5018,"Ġfettucini":5019,"ĠEclair":5020,"Mix":5021,"Ġbubble":5022,"Ġflounder":5023,"Ġhocks":5024,"Ġshakes":5025,"ĠHearty":5026,"Ġdeviled":5027,"hyllo":5028,"Ġbasket":5029,"Ġliners":5030,"Ġphyllo":5031,"Ġmain":5032,"Ġgive":5033,"ĠTam":5034,"efly":5035,"ĠThousand":5036,"Ġturnips":5037,"ailable":5038,"ĠBreast":5039,"afing":5040,"ĠMexicorn":5041,"ĠCow":5042,"Ġpkgs":5043,"Ġscoops":5044,"Ġsealed":5045,"ĠPlay":5046,"ĠCrocker":5047,"Ġwrappers":5048,"ĠFinish":5049,",\\":5050,"The":5051,"ground":5052,"Ġstrained":5053,"ather":5054,"ĠTriple":5055,"ĠMedley":5056,"ĠLeSueur":5057,"Ġclosed":5058,"Ġtip":5059,"ĠBac":5060,"Ġovermix":5061,"achos":5062,"ĠOrteg":5063,"ĠBrunch":5064,"ubbed":5065,"Ġtwist":5066,"ign":5067,"ĠChewy":5068,"une":5069,"illy":5070,"ĠAmb":5071,"resso":5072,"ĠJud":5073,"ĠMoisten":5074,"enster":5075,"rowd":5076,"ĠMarsala":5077,"ĠAppetizers":5078,"Ġtested":5079,"Ġpearl":5080,"Ġmostaccioli":5081,"ĠMuenster":5082,"Ġdr":5083,"ĠLo":5084,"edding":5085,"ĠJapanese":5086,"Ġliquor":5087,"ĠSwirl":5088,"Ġbreaking":5089,"ĠDogs":5090,"vory":5091,"Ġsup":5092,"Ġlot":5093,"ĠLoos":5094,"Ġpreheat":5095,"Ġpock":5096,"Ġformed":5097,"ĠFreezer":5098,"Ġbriefly":5099,"rosia":5100,"Ġtakes":5101,"estern":5102,"Ġdoll":5103,"Ġhull":5104,"ĠGrits":5105,"Ġlimas":5106,"ĠTurtle":5107,"Nut":5108,"Ġ75":5109,"including":5110,"Ġouter":5111,"Ġprecooked":5112,"ĠCurried":5113,"ĠAmbrosia":5114,"Ġwe":5115,"ĠTarts":5116,"Ġreally":5117,"ival":5118,"Ġimp":5119,"Ġfinished":5120,"cents":5121,"ĠPort":5122,"Ġraise":5123,"Ġfreezes":5124,"ĠPeaches":5125,"Ġglossy":5126,"tC":5127,"Ġsauc":5128,"berg":5129,"Ġ90":5130,"Ġstrainer":5131,"Ġsupreme":5132,"Use":5133,"ints":5134,"ilute":5135,"ĠPare":5136,"ĠHour":5137,"tte":5138,"ĠVinegar":5139,"Ġwaffle":5140,"Ġchillies":5141,"ĠSwans":5142,"Ġperfor":5143,"ĠContains":5144,"Ġlimp":5145,"crust":5146,"Ġloosen":5147,"ĠSimple":5148,"gry":5149,"Ġsho":5150,"ĠWon":5151,"emiah":5152,"addock":5153,"ĠTreats":5154,"inter":5155,"Ġtough":5156,"Ġdent":5157,"ĠMor":5158,"ĠWay":5159,"Ġsets":5160,"ĠHom":5161,"avable":5162,"Ġchild":5163,"ĠPrego":5164,"ĠNacho":5165,"paration":5166,"Ġrig":5167,"ĠRock":5168,"ĠQuik":5169,"etti":5170,"Ġanchovy":5171,"ĠSamuel":5172,"vies":5173,"ution":5174,"rout":5175,"ĠChiffon":5176,"ĠWedding":5177,"ĠGumbo":5178,"uffed":5179,"ounce":5180,"ucky":5181,"ossom":5182,"ĠFluffy":5183,"Ġgallons":5184,"Ġbitter":5185,"Ġrabbits":5186,"ĠOrtega":5187,"xx":5188,"Ġingredient":5189,"urch":5190,"Ġ303":5191,"Ġforming":5192,"arkling":5193,"azy":5194,"ette":5195,"ĠOvernight":5196,"Ġfettucine":5197,"Ġlogs":5198,"ĠRotel":5199,"acaroons":5200,"ek":5201,"Ġchafing":5202,"amous":5203,"ĠPush":5204,"ashed":5205,"iesta":5206,"issipp":5207,"itional":5208,"Ġtossed":5209,"ĠCupcakes":5210,"issippi":5211,"dor":5212,"Ġamon":5213,"Ġbologna":5214,"Ġextrac":5215,"oston":5216,"Ġrotary":5217,"Ġtriangle":5218,"ĠMississippi":5219,"tBake":5220,"ont":5221,"unpeeled":5222,"ĠTet":5223,"cha":5224,"ĠSpam":5225,"ĠGener":5226,"Ġalready":5227,"Ġpretty":5228,"Ġglazed":5229,"Ġbecause":5230,"well":5231,"Ġte":5232,"Ġlabel":5233,"usters":5234,"razz":5235,"ĠLingu":5236,"Ġmasher":5237,"Ġslivers":5238,"ĠHerbed":5239,"Ġrabbit":5240,"ĠTetrazz":5241,"cress":5242,"day":5243,"Ġgiblets":5244,"ickel":5245,"Ġswirl":5246,"uyere":5247,"upperware":5248,"Ġamong":5249,"ĠTetrazzini":5250,"yellow":5251,"esar":5252,"Ġ26":5253,"ĠPor":5254,"Ġuncover":5255,"Ġrow":5256,"Ġglut":5257,"ĠOnce":5258,"Ġworms":5259,"ĠMilky":5260,"ĠMcCormick":5261,"ĠBoston":5262,"derful":5263,"Ġsourdough":5264,"ĠGe":5265,"Ġziti":5266,"ĠClose":5267,"ĠAlternately":5268,"Ġanchovies":5269,"Ġdistrib":5270,"inai":5271,"Ġsim":5272,"Ġ115":5273,"ĠSund":5274,"ĠPart":5275,"Ġflowers":5276,"Ġsavory":5277,"ĠDried":5278,"ĠBoiled":5279,"Ġsprinkling":5280,"Ġcrystals":5281,"Ġcitron":5282,"Ġextracts":5283,"Ġpier":5284,"Ġgummy":5285,"ĠIncrease":5286,"airly":5287,"Ġcongealed":5288,"Ġmicrowavable":5289,"ĠCaesar":5290,"Ġvariety":5291,"Ġinter":5292,"Ġdefrost":5293,"ĠSch":5294,"Ġear":5295,"Ġchopper":5296,"ĠEar":5297,"grette":5298,"ĠGruyere":5299,"Ġquiche":5300,"Ġrigatoni":5301,"inaigrette":5302,"uda":5303,"rem":5304,"Ġchutney":5305,"Ġdep":5306,"ĠTart":5307,"Ġstay":5308,"redo":5309,"Ġ46":5310,"ĠLadle":5311,"Ġappear":5312,"ĠBrisk":5313,"Ġhelp":5314,"wheels":5315,"Bro":5316,"dried":5317,"arrow":5318,"Ġpal":5319,"ĠPreparation":5320,"ĠMint":5321,"ĠBouquet":5322,"ĠTony":5323,"ivalent":5324,"dorf":5325,"375":5326,"eel":5327,"fredo":5328,"Ġmousse":5329,"alaya":5330,"Ġfashioned":5331,"ourmet":5332,"lices":5333,"ĠFri":5334,"ĠLazy":5335,"epeg":5336,"ĠWaldorf":5337,"loins":5338,"325":5339,"Fro":5340,"sk":5341,"Ġfairly":5342,"Ġnarrow":5343,"ushed":5344,"ĠGoo":5345,"Ġplenty":5346,"elveeta":5347,"ambalaya":5348,"Ġwrapped":5349,"ĠTrifle":5350,"Ġrubber":5351,"ĠDollar":5352,"preferably":5353,"ĠLoosen":5354,"ĠSunday":5355,"ĠBrisket":5356,"amble":5357,"ĠBri":5358,"isins":5359,"this":5360,"ĠFiesta":5361,"ĠCooked":5362,"ĠLett":5363,"umpern":5364,"ields":5365,"brown":5366,"%)":5367,"Jell":5368,"oid":5369,"Ġcholesterol":5370,"Ġstraw":5371,"Ġcob":5372,"Or":5373,"ritos":5374,"uf":5375,"ĠCap":5376,"ghum":5377,"Ġgrams":5378,"egetarian":5379,"Ġshaped":5380,"umpernickel":5381,"Be":5382,"hod":5383,"Ġlift":5384,"olly":5385,"Ġwatercress":5386,"together":5387,"ĠWaff":5388,"ĠThan":5389,"ĠBlackberry":5390,"ĠCalico":5391,"ĠPralines":5392,"Ġdente":5393,"ĠSkin":5394,"ights":5395,"Ġsea":5396,"Ġstirred":5397,"ambled":5398,"Ġprick":5399,"Ġsprig":5400,"drain":5401,"tly":5402,"Ġmound":5403,"reat":5404,"Ġeating":5405,"Ġgro":5406,"ĠTupperware":5407,"Ġstarter":5408,"ĠRings":5409,"Ġcod":5410,"Ġcarbon":5411,"Ġusual":5412,"ĠReub":5413,"Ġburning":5414,"ĠScrub":5415,"ĠTamale":5416,"ĠLettuce":5417,"Ġmg":5418,"thaw":5419,"Ġgrains":5420,"ĠPerfect":5421,"ĠGenerously":5422,"zy":5423,"ilaf":5424,"ĠPar":5425,"ĠRun":5426,"ĠCheeseburger":5427,"ĠFrom":5428,"Ġkeeps":5429,"tein":5430,"ĠBerry":5431,"olution":5432,"Ġcola":5433,"Ġscallion":5434,"Ġmoderately":5435,"Os":5436,"iant":5437,"ĠBo":5438,"ĠToll":5439,"adam":5440,"Ġgrinder":5441,"ĠFamous":5442,"ĠDebone":5443,"garian":5444,"leu":5445,"ĠTie":5446,"rapped":5447,"ĠRound":5448,"aint":5449,"eeds":5450,"ĠReheat":5451,"Ġperforations":5452,"adamia":5453,"rone":5454,"ĠPas":5455,"ĠParboil":5456,"ĠWish":5457,"ĠStr":5458,"estrone":5459,"ropical":5460,"ĠSkor":5461,"Ġrising":5462,"70":5463,"Ġchew":5464,"Ġhaddock":5465,"Ġcorners":5466,"ult":5467,"Ġtenderloins":5468,"ĠShould":5469,"izzas":5470,"ĠQuarter":5471,"ĠScotch":5472,"Ġavailable":5473,"ĠClass":5474,"ĠSticks":5475,"Ġcurls":5476,"Ġpri":5477,"Ġpush":5478,"orange":5479,"usel":5480,"Ġreheated":5481,"aged":5482,"Ġappetizer":5483,"Ġvermouth":5484,"ĠBarrel":5485,"fashioned":5486,"Ġeight":5487,"Ġelephant":5488,"ified":5489,"ĠCore":5490,"ĠKings":5491,"iod":5492,"Ġcardamon":5493,"ĠJeremiah":5494,"ĠBeau":5495,"Ġcarbonated":5496,"ĠReuben":5497,"ults":5498,"ĠSeasoning":5499,"Ġpartly":5500,"Ġadv":5501,"vals":5502,"ative":5503,"Ġchar":5504,"ĠCalorie":5505,"ĠSure":5506,"ĠBleu":5507,"acos":5508,"ĠAv":5509,"Ġcreaming":5510,"Ġbeverage":5511,"verted":5512,"ermuda":5513,"Ġequivalent":5514,".,":5515,"erto":5516,"Ġmounds":5517,"reusel":5518,"Ġ225":5519,"Ġlo":5520,"strawber":5521,"ĠJambalaya":5522,"Ġsyrupy":5523,"Ġjelled":5524,"ĠNiblets":5525,"Ġyoung":5526,"ĠFruitcake":5527,"ĠBasil":5528,"Ġcrisscross":5529,"ĠRib":5530,"ĠWipe":5531,"Ġrequ":5532,"ĠFil":5533,"Ġ80":5534,"ĠWhipped":5535,"Ġlowest":5536,"ĠCarol":5537,"To":5538,"amate":5539,"ĠSesame":5540,"Ġholiday":5541,"ĠFast":5542,"Ġcenters":5543,"Ġthroughout":5544,"Ġcrisply":5545,"Ġsealing":5546,"ĠSmoked":5547,"Style":5548,"Ġglutamate":5549,"Ġbow":5550,"Ġtoffee":5551,"Ġdab":5552,"ĠPile":5553,"ĠMaple":5554,"Ġranch":5555,"Ġtablespoonful":5556,"ĠSnickerd":5557,"ĠLouisiana":5558,"ives":5559,"Ġsolution":5560,"Ġbal":5561,"itas":5562,"ĠStack":5563,"Ġcupcakes":5564,"Ġappetizers":5565,"Ġfryers":5566,"lect":5567,"ĠSourdough":5568,"crushed":5569,"ĠAny":5570,"ĠHungry":5571,"ĠHungarian":5572,"Ġwilted":5573,"Ġsorghum":5574,"kay":5575,"uv":5576,"Ġpumpernickel":5577,"ĠCerto":5578,"ĠParsley":5579,"ĠGet":5580,"ship":5581,"Crisco":5582,"Ġdisapp":5583,"cini":5584,"gn":5585,"iano":5586,"Ġfall":5587,"ĠBermuda":5588,"ottom":5589,"tha":5590,"ĠSpareribs":5591,"Ġbrine":5592,"ĠAnn":5593,"ĠMedal":5594,"ĠTostitos":5595,"Di":5596,"Mex":5597,"Ġfries":5598,"Ġfloat":5599,"Ġstor":5600,"azel":5601,"Ġfolding":5602,"Ġkeeping":5603,"Ġlengths":5604,"Ġdiagonal":5605,"Ġfriend":5606,"ĠSnickers":5607,"ĠMacadamia":5608,"boy":5609,"cery":5610,"kins":5611,"icro":5612,"Ġadjust":5613,"Ġempty":5614,"rip":5615,"ĠRos":5616,"ĠMixed":5617,"Ġsoupy":5618,"ĠLef":5619,"Ġprotein":5620,"ĠPepperoni":5621,"ĠHamburg":5622,"oyu":5623,"wal":5624,"Ġeigh":5625,"estive":5626,"ĠFlakes":5627,"ĠMein":5628,"ĠDiet":5629,"without":5630,"ĠCowboy":5631,"gy":5632,"Ġthumb":5633,"ĠFamily":5634,"quettes":5635,"shine":5636,"Ġaltogether":5637,"Ġkitchen":5638,"ĠJan":5639,"ĠMocha":5640,"ountain":5641,"Ġavoid":5642,"boneless":5643,"odium":5644,"Ġpuffs":5645,"ĠPaso":5646,"len":5647,"ĠCas":5648,"Ġ21":5649,"ĠPier":5650,"ĠDrink":5651,"ĠVeal":5652,"ĠFrosted":5653,"ĠKraut":5654,"ĠWaffles":5655,"gi":5656,"Ġpatter":5657,"Ġwedge":5658,"ĠSlices":5659,"gets":5660,"Ġ475":5661,"Ġsparkling":5662,"ĠLift":5663,"ĠGuacamole":5664,"ĠGiant":5665,"Ġslushy":5666,"Ġspoons":5667,"ĠNutty":5668,"ortant":5669,"Ġintervals":5670,"Ġchewy":5671,"45":5672,"Bone":5673,"Sour":5674,"ĠSand":5675,"ĠBob":5676,"unsweetened":5677,"ĠFix":5678,"umber":5679,"ĠLittle":5680,"ĠOat":5681,"Ġthicker":5682,"Ġcomplete":5683,"Ġprod":5684,"ĠEngland":5685,"ĠGrandm":5686,"uggets":5687,"Ġpattern":5688,"aith":5689,"gresso":5690,"king":5691,"Ġato":5692,"ila":5693,"ĠBell":5694,"ĠTeriyaki":5695,"ĠGo":5696,"ĠJul":5697,"ĠMelba":5698,"Ġdehydr":5699,"ĠStrawberries":5700,"ĠSmok":5701,"ĠBroiled":5702,"ĠPrune":5703,"ĠCucumbers":5704,"ĠGeor":5705,"Ġeighths":5706,"Ġatop":5707,"22":5708,"Cal":5709,"man":5710,"will":5711,"Ġcall":5712,"Ġho":5713,"Ġshoyu":5714,"Ġseven":5715,"ĠLen":5716,"ĠLoaves":5717,"Ġslit":5718,"osodium":5719,"pepper":5720,"sodium":5721,"Ġallowing":5722,"afers":5723,"Ġtrays":5724,"immy":5725,"packed":5726,"ĠClassic":5727,"fin":5728,"ĠCra":5729,"stir":5730,"emp":5731,"Ġinsert":5732,"ĠAlfredo":5733,"ĠPuppy":5734,"Ġbatches":5735,"ĠPraline":5736,"ĠPoor":5737,"ĠJudges":5738,"Ġgrocery":5739,"23":5740,"uriz":5741,"ĠColes":5742,"unbeaten":5743,"uckey":5744,"ĠDr":5745,"ima":5746,"ĠCopper":5747,"Ġfreezing":5748,"ĠShoepeg":5749,"beef":5750,"From":5751,"urized":5752,"ĠColeslaw":5753,"rus":5754,"Ġsouffle":5755,"Ġpenne":5756,"ĠBuff":5757,"ĠChunk":5758,"ĠWafers":5759,"ĠEach":5760,"Ġiceberg":5761,"ĠCornish":5762,"ibut":5763,"ĠSuey":5764,"Ġcavity":5765,"ax":5766,"overs":5767,"Ġsomet":5768,"Ġbird":5769,"ister":5770,"ĠHi":5771,"entucky":5772,"Ġpackaged":5773,"ĠGran":5774,"ĠClub":5775,"ahini":5776,"Stir":5777,"ĠSnickerdoodles":5778,"Sweet":5779,"cinnamon":5780,"rich":5781,"anda":5782,"elow":5783,"amom":5784,"ĠPic":5785,"ĠPers":5786,"Ġshaking":5787,"achine":5788,"ĠUp":5789,"Ġgranola":5790,"ĠClusters":5791,"ĠTangy":5792,"Ġmonosodium":5793,"Ġburger":5794,"ĠPartially":5795,"thawed":5796,"bake":5797,"made":5798,"Ġ??":5799,"Ġcoll":5800,"Ġten":5801,"uth":5802,"ĠBig":5803,"ĠWil":5804,"acting":5805,"Ġlayered":5806,"Ġbrick":5807,"scant":5808,"ĠSteaks":5809,"Ġdusted":5810,"ĠPaprika":5811,"\\\\":5812,"Ġ.":5813,"Ġawhile":5814,"Ġgu":5815,"ists":5816,"ĠMountain":5817,"Ġstone":5818,"ĠReplace":5819,"ĠPickle":5820,"Ġfollowed":5821,"retch":5822,"Ġprior":5823,"such":5824,"yed":5825,"Ġ150":5826,"Ġtrout":5827,"thin":5828,"Ġwhat":5829,"ĠHumm":5830,"ĠMoist":5831,"Ġpasteurized":5832,"ĠRoad":5833,"ĠDoughnuts":5834,"Ġfitting":5835,"ĠPinwheels":5836,"ĠPorcup":5837,"Ġadvance":5838,"Ġsack":5839,"Ġsuper":5840,"right":5841,"asted":5842,"arsely":5843,"Ġ130":5844,"elatin":5845,"ĠDean":5846,"attice":5847,"Ġdollop":5848,"ossoms":5849,"ucy":5850,"ĠRaw":5851,"ĠChach":5852,"ĠDown":5853,"Ġcole":5854,"ĠStarter":5855,"ĠHel":5856,"ĠGourmet":5857,"ĠKentucky":5858,"ĠThank":5859,"ĠYork":5860,"Ġpoints":5861,"ĠQues":5862,"Ġplums":5863,"Ġcardamom":5864,"ĠMorton":5865,"Ġdefrosted":5866,"Ġbalance":5867,"gnac":5868,"foil":5869,"ky":5870,"Ġbra":5871,"Ġfunnel":5872,"Ġwatch":5873,"ĠTastes":5874,"abobs":5875,"ĠFree":5876,"ĠStirring":5877,"avily":5878,"ĠJimmy":5879,"mixed":5880,"Ġchildren":5881,"gr":5882,"Ġ0":5883,"ĠBites":5884,"Ġbuttery":5885,"Ġhome":5886,"adine":5887,"Ġsaut":5888,"ĠChile":5889,"ĠDrops":5890,"Ġjellied":5891,"eek":5892,"ĠMartha":5893,"Cho":5894,"ronicles":5895,"rito":5896,"Ġresults":5897,"ĠKids":5898,"Ġpocket":5899,"Ġrows":5900,"Ġ???":5901,"bb":5902,"ho":5903,"hol":5904,"Ġbuds":5905,"alo":5906,"lee":5907,"Ġspace":5908,"Ġspecial":5909,"Ġblocks":5910,"ĠOmelet":5911,"ĠFilled":5912,"ocado":5913,"Ġbrushing":5914,"ĠRocky":5915,"ĠEarth":5916,"Pineapple":5917,"calorie":5918,"fine":5919,"ftened":5920,"lightly":5921,"Ġbundt":5922,"Ġchowder":5923,"ington":5924,"ĠBord":5925,"ĠChronicles":5926,"ĠEd":5927,"ĠJoy":5928,"ĠSlightly":5929,"ĠProgresso":5930,"aver":5931,"euv":5932,"ugs":5933,"Ġokay":5934,"Ġtr":5935,"Ġmal":5936,"Ġincrease":5937,"elle":5938,"Ġduck":5939,"Ġeggnog":5940,"omm":5941,"Ġcoats":5942,"ressed":5943,"Ġmelting":5944,"ĠMargarine":5945,"Ġreplace":5946,"ĠPretzels":5947,"ĠShortcake":5948,"ser":5949,"val":5950,"ĠBaby":5951,"ĠPilaf":5952,"Ġflours":5953,"Ġjigg":5954,"iping":5955,"ĠFingers":5956,"eebler":5957,"Ġbutt":5958,"Ġmarinara":5959,"mixture":5960,"Ġliters":5961,"Ġsauces":5962,"ĠHominy":5963,"Ġdehydrated":5964,"ĠCrazy":5965,"Ġmallet":5966,"aque":5967,"cheese":5968,"iato":5969,"Ġtastes":5970,"atzo":5971,"ilar":5972,"Ġfaith":5973,"Ġgingersnaps":5974,"ĠBag":5975,"ĠMade":5976,"rad":5977,"ellen":5978,"Ġthinner":5979,"ĠFinger":5980,"ĠFashion":5981,"Ġalways":5982,"Ġothers":5983,"Ġclosely":5984,"ĠChachere":5985,"mushroom":5986,"Ġparboil":5987,"Ġinc":5988,"Ġgel":5989,"ĠBing":5990,"acky":5991,"Ġcognac":5992,"Ġjug":5993,"quef":5994,"buttered":5995,"ĠShortbread":5996,"Ġsafflower":5997,"Ġdrum":5998,"Broccoli":5999,"iatore":6000,"cal":6001,"yn":6002,"Ġpesto":6003,"ĠCrawfish":6004,"Ġsuet":6005,"unche":6006,"ĠRellen":6007,"umbers":6008,"Ġenchiladas":6009,"ĠJoe":6010,"Ġoverbeat":6011,"ĠShredded":6012,"Ġjackets":6013,"Ġscorching":6014,"Ġescape":6015,"ĠHalve":6016,"ĠLinguine":6017,"ĠAvocado":6018,"dew":6019,"tain":6020,"vanilla":6021,"Ġpouch":6022,"leg":6023,"ĠPim":6024,"ience":6025,"ĠKiss":6026,"105":6027,"ĠScore":6028,"softened":6029,"ĠSugarless":6030,"Ġopaque":6031,"ĠTwist":6032,"ĠPerr":6033,"ĠWatchers":6034,"Ġcontinuously":6035,"bble":6036,"time":6037,"Ġtasty":6038,"Ġmem":6039,"ĠBourbon":6040,"quake":6041,"assail":6042,"oped":6043,"cohol":6044,"ĠSnacks":6045,"ĠIndian":6046,"walnuts":6047,"Eyed":6048,"Yields":6049,"depending":6050,"see":6051,"Ġbelow":6052,"ene":6053,"ĠCacc":6054,"ĠSliced":6055,"Ġvary":6056,"usc":6057,"Ġseams":6058,"eps":6059,"Ġheavily":6060,"Ġpickled":6061,"Ġtubes":6062,"Ġgarnished":6063,"Ġacid":6064,"ĠSunshine":6065,"ĠTenderloin":6066,"ĠBorden":6067,"ĠPerrins":6068,"dy":6069,"Ġels":6070,"esh":6071,"Ġlattice":6072,"Ġflute":6073,"Ġvelveeta":6074,"colored":6075,"quila":6076,"ĠKeebler":6077,"Ġpacks":6078,"Ġpeeling":6079,"arina":6080,"Ġcrescents":6081,"48":6082,"OT":6083,"iut":6084,"ana":6085,"Ġpiping":6086,"Ġfondue":6087,"ĠCarb":6088,"aken":6089,"ised":6090,"adian":6091,"ĠFant":6092,"ĠSpring":6093,"ĠHard":6094,"ĠHalf":6095,"arsn":6096,"Ġslush":6097,"ĠBlond":6098,"ĠBegin":6099,"Ġdirectly":6100,"Ġhoneydew":6101,"sciut":6102,"Ġcereals":6103,"Ġtoward":6104,"Ġmonth":6105,"ĠCashew":6106,"Ġelse":6107,"100":6108,"pie":6109,"iness":6110,"ĠBone":6111,"Ġveg":6112,"Ġcheesecake":6113,"Ġorzo":6114,"Ġstream":6115,"Ġshiny":6116,"quid":6117,"ĠStreusel":6118,"ĠGelatin":6119,"ĠCoarsely":6120,"Ġremains":6121,"ĠEye":6122,"Ġheart":6123,"Ġsmok":6124,"ĠArm":6125,"Ġeaten":6126,"ĠSecure":6127,"ĠWait":6128,"uncheon":6129,"'re":6130,"nic":6131,"pineapple":6132,"Ġfe":6133,"garnish":6134,"ĠSix":6135,"ĠAhead":6136,"ĠWassail":6137,"ought":6138,"ĠEaster":6139,"ĠWorld":6140,"ampi":6141,"ahum":6142,"epends":6143,"ĠWalnuts":6144,"Ġleek":6145,"ĠThinly":6146,"ĠEarthquake":6147,"quefort":6148,"Not":6149,"skin":6150,"inute":6151,"Ġfancy":6152,"ortening":6153,"Ġneck":6154,"ĠSponge":6155,"Ġseems":6156,"aped":6157,"ĠLarge":6158,"Ġbreads":6159,"ĠEv":6160,"ĠGrated":6161,"ĠRoquefort":6162,"black":6163,"Ġindividually":6164,"ĠSouthw":6165,"Ġimportant":6166,"ĠGooey":6167,"ĠGrandmother":6168,"Easy":6169,"each":6170,"yes":6171,"Ġtaking":6172,"Ġwere":6173,"ĠLamb":6174,"ĠHoll":6175,"Ġthickening":6176,"Ġbrew":6177,"ĠDeer":6178,"chocolate":6179,"Ġtinfoil":6180,"ĠPlum":6181,"Ġpulls":6182,"ĠCacciatore":6183,"crew":6184,"anger":6185,"Ġfeed":6186,"Ġacorn":6187,"ĠTropical":6188,"Ġgren":6189,"ĠRap":6190,"ĠDanish":6191,"Ġjuicy":6192,"ĠFestive":6193,"Ġmeaty":6194,"ĠEnd":6195,"ĠDelights":6196,"ĠEggnog":6197,"ĠBurger":6198,"broccoli":6199,"Ġsecurely":6200,"sciutto":6201,"Great":6202,"Ra":6203,"Wh":6204,"tw":6205,"Ġslee":6206,"Ġparch":6207,"Ġlunch":6208,"ĠDefrost":6209,"ĠWestern":6210,"Ġkinds":6211,"kscrew":6212,"coal":6213,"ĠJew":6214,"Ġquant":6215,"ĠCanadian":6216,"affy":6217,"Ġrotating":6218,"ĠScramble":6219,"Ġscrambled":6220,"ĠPennies":6221,"ĠFriend":6222,"ĠLeftover":6223,"Ġproduc":6224,"Al":6225,"aire":6226,"mate":6227,"Ġdra":6228,"Ġpet":6229,"ggy":6230,"ĠMore":6231,"Ġsole":6232,"ffles":6233,"ĠNab":6234,"Ġicebox":6235,"Ġsciss":6236,"ude":6237,"ĠBananas":6238,"Ġconcentrated":6239,"Ġpops":6240,"Ġgoes":6241,"Ġsimilar":6242,"remove":6243,"skim":6244,"ĠGranola":6245,"26":6246,"Ġint":6247,"allow":6248,"Ġcrunch":6249,"ĠChar":6250,"ĠLobster":6251,"napper":6252,"ĠEsc":6253,"Ġwait":6254,"Ġglue":6255,"Ġstale":6256,"ajitas":6257,"ondon":6258,"ĠSwanson":6259,"ĠBrie":6260,"ĠStrata":6261,"anding":6262,"ĠPreserves":6263,"ĠTasty":6264,"ĠMound":6265,"colator":6266,"Ġ120":6267,"enthe":6268,"ĠSaucy":6269,"Ġliber":6270,"Ġwaffles":6271,"ĠBeet":6272,"Ġchilli":6273,"ĠScatter":6274,"ĠScampi":6275,"Ġpreferably":6276,"Ġtouching":6277,"ĠManicotti":6278,"ĠRibbon":6279,"Ġgrenadine":6280,"Apple":6281,"fa":6282,"part":6283,"anted":6284,"Ġpuffy":6285,"Ġmill":6286,"Ġmachine":6287,"Ġstar":6288,"cherry":6289,"Ġsponge":6290,"asseroles":6291,"sharp":6292,"Ġexact":6293,"Ġpapers":6294,"Ġturnip":6295,"Ġpod":6296,"Ġshallot":6297,"ĠSoy":6298,"apples":6299,"Ġreached":6300,"Ġswiss":6301,"ĠSheph":6302,"Ġscrubbed":6303,"Ġdistribute":6304,"Ġdisappears":6305,"\\.":6306,"pr":6307,"Ġsizz":6308,"Ġmaker":6309,"space":6310,"spray":6311,"lease":6312,"ĠBuckey":6313,"Ġhoriz":6314,"ipes":6315,"urst":6316,"ĠHill":6317,"Ġexcellent":6318,"ĠEsp":6319,"Ġtenderness":6320,"ĠNahum":6321,"Ġfind":6322,"ĠChoice":6323,"ogen":6324,"undles":6325,"ĠCondensed":6326,"stitute":6327,"ĠMuffin":6328,"Ġgrilled":6329,"Chicken":6330,"ĠMolded":6331,"ginal":6332,"Ġhulled":6333,"ĠRapid":6334,"One":6335,"ner":6336,"Ġparsn":6337,"leave":6338,"ĠTown":6339,".).":6340,"amond":6341,"ĠLondon":6342,"Ġdraining":6343,"ĠGall":6344,"ĠMost":6345,"Ġanything":6346,"ĠCanned":6347,"Ġknives":6348,"ĠProsciutto":6349,"Ġbeaters":6350,"ogenized":6351,")*":6352,"Butter":6353,"Mo":6354,"Rise":6355,"bird":6356,"Ġtahini":6357,"Ġfalls":6358,"ĠCereal":6359,"Ġfluted":6360,"Ġunpared":6361,"Ġ57":6362,"ashell":6363,"anana":6364,"ĠYams":6365,"Ġheadspace":6366,"Ġcurly":6367,"ĠBisque":6368,"Ġbrittle":6369,"ĠMints":6370,"Ġequals":6371,"ĠImper":6372,"Ġtequila":6373,"Ġscissors":6374,"Good":6375,"baking":6376,"tS":6377,"Ġtong":6378,"Ġmatzo":6379,"ĠBun":6380,"ĠPaul":6381,"ĠPicante":6382,"ĠPizzas":6383,"Ġleg":6384,"ĠRabb":6385,"ĠGingersnaps":6386,"oren":6387,"izes":6388,"ĠNachos":6389,"ĠPete":6390,"Ġsterile":6391,"Italian":6392,"Ġmembran":6393,"35":6394,"App":6395,"Layer":6396,"got":6397,"ior":6398,"mm":6399,"Ġmussels":6400,"rets":6401,"onion":6402,"Ġwinter":6403,"ingbird":6404,"ĠPrim":6405,"unbaked":6406,"ĠTacos":6407,"ripe":6408,"ĠDew":6409,"imp":6410,"ĠFull":6411,"ĠFondue":6412,"Ġchervil":6413,"Quick":6414,"ĠWashington":6415,"Ġwonton":6416,"Ġearly":6417,"Ġpalm":6418,"strawberry":6419,"ĠNabisco":6420,"ĠShepherd":6421,"ĠRabbit":6422,"con":6423,"eer":6424,"een":6425,"Ġcasseroles":6426,"Ġml":6427,"ilver":6428,"icle":6429,"ically":6430,"isters":6431,"ĠMacaroons":6432,"ĠChipped":6433,"monia":6434,"standing":6435,"vest":6436,"ĠGen":6437,"Ġxxx":6438,"Ġliking":6439,"ĠNumbers":6440,"ĠNOT":6441,"Ġenrich":6442,"Ġcomino":6443,"Ġneeds":6444,"Ġcorkscrew":6445,"ĠPhilly":6446,"ĠTwin":6447,"ĠColada":6448,"Ġopening":6449,"ĠAmish":6450,"ĠPinto":6451,"Ġdepth":6452,"Ġcharcoal":6453,"euvres":6454,"Orange":6455,"beat":6456,"fir":6457,"gers":6458,"keep":6459,"wick":6460,"wrap":6461,"wurst":6462,"Ġtry":6463,"ĠCav":6464,"ĠBus":6465,"ĠBits":6466,"ĠPass":6467,"Ġhazel":6468,"Ġshelf":6469,"Ġsoap":6470,"efin":6471,"ĠStep":6472,"ĠHay":6473,"ĠHollow":6474,"ĠEleg":6475,"Ġcolors":6476,"othered":6477,"ĠFloat":6478,"ĠScones":6479,"Ġpreference":6480,"ĠWafer":6481,"ĠWeight":6482,"Ġfilets":6483,"Diabetic":6484,"ĠPersimmon":6485,"ĠHummingbird":6486,"ĠImperial":6487,"eady":6488,"fried":6489,"wheat":6490,"Ġcould":6491,"Ġsink":6492,"Ġ29":6493,"ĠSub":6494,"Ġpeek":6495,"ĠPina":6496,"aces":6497,"ĠMem":6498,"Ġunmold":6499,"ĠAd":6500,"ĠRye":6501,"ĠChuck":6502,"acks":6503,"imum":6504,"ĠLima":6505,"ended":6506,"ĠVinaigrette":6507,"Ġthickly":6508,"Ġammonia":6509,"Ġcauliflowerets":6510,"unswick":6511,"Ġkneading":6512,"Ġabsorbent":6513,"ĠTortellini":6514,"ĠBurritos":6515,"cluded":6516,"ĠStarting":6517,"ĠLiver":6518,"ĠJuli":6519,"tStir":6520,"erne":6521,"Ġwing":6522,"Ġwhe":6523,"ĠBarb":6524,"ĠPace":6525,"change":6526,"Ġshaker":6527,"ĠLite":6528,"Ġpeck":6529,"Ġpatience":6530,"Ġinsides":6531,"ĠRaisins":6532,"ĠCroquettes":6533,"pecially":6534,"Ġcombining":6535,"ĠChews":6536,"augh":6537,"ontally":6538,"Ġcalled":6539,"andaise":6540,"Ġenriched":6541,"Bl":6542,"Sh":6543,"ao":6544,"fetti":6545,"ged":6546,"set":6547,"vit":6548,"ests":6549,"Ġpres":6550,"lemon":6551,"ĠSmall":6552,"ĠSue":6553,"Ġeye":6554,"Ġhus":6555,"ĠDuring":6556,"Ġreg":6557,"Ġrock":6558,"Ġhalibut":6559,"Ġupright":6560,"tract":6561,"ĠBrunswick":6562,"ĠSeasoned":6563,"Ġparties":6564,"Ġperiod":6565,"ĠRoma":6566,"Ġdevein":6567,"!!!":6568,"Ġmanuf":6569,"tPour":6570,"Ġintact":6571,"On":6572,"gur":6573,"iger":6574,"lap":6575,"Ġchurn":6576,"Ġdilute":6577,"ĠMorning":6578,"Ġsteel":6579,"ĠChampagne":6580,"Ġconverted":6581,"Ġplant":6582,"Ġplump":6583,"Ġagainst":6584,"Ġflattened":6585,"ĠMince":6586,"ĠToasted":6587,"Ġhomogenized":6588,"ĠFranks":6589,"Ġequally":6590,"ĠPierce":6591,"ĠLentil":6592,"avera":6593,"gotten":6594,"Ġmanufact":6595,"bons":6596,"her":6597,"Ġmug":6598,"Ġincluded":6599,"ĠCrowd":6600,"itely":6601,"ĠBush":6602,"isbury":6603,"ĠTsp":6604,"ĠTaffy":6605,"Ġstretch":6606,"Ġcrisco":6607,"Ġsaved":6608,"ava":6609,"ĠSalisbury":6610,"ĠCornmeal":6611,"Ġkids":6612,"ĠForgotten":6613,"Ġquail":6614,"ĠPeanuts":6615,"Ġindent":6616,"Ġdelic":6617,"Ġmeasured":6618,"ĠPowdered":6619,"ĠRellenos":6620,"Ġparchment":6621,"Ġhorizontally":6622,"ĠJulius":6623,"Ġmanufactur":6624,"300":6625,"gl":6626,"gent":6627,"ike":6628,"put":6629,"arro":6630,"Ġpale":6631,"ality":6632,"andel":6633,"ĠBirds":6634,"ows":6635,"Ġstre":6636,"Ġnachos":6637,"Ġgroup":6638,"ĠHold":6639,"ĠCooler":6640,"ĠJar":6641,"Ġpoured":6642,"Ġdesign":6643,"alories":6644,"ĠScallops":6645,"ĠTwice":6646,"Ġrunny":6647,"ĠSticky":6648,"Ġjulienned":6649,"ĠRapidRise":6650,"efinitely":6651,"vitic":6652,"400":6653,"Sw":6654,"grain":6655,"Ġcrowd":6656,"Ġtuck":6657,"ille":6658,"reath":6659,"Ġchoriz":6660,"ĠBottom":6661,"Ġhouse":6662,"Ġnumber":6663,"ĠDole":6664,"Ġricotta":6665,"ĠStand":6666,"Ġsmashed":6667,"ĠPeople":6668,"ĠMeatball":6669,"anging":6670,"ĠMinutes":6671,"ĠMinestrone":6672,"ĠOriginal":6673,"ĠBonn":6674,"ĠBuffalo":6675,"ĠHollandaise":6676,"ĠPrimavera":6677,"viticus":6678,"nier":6679,"tine":6680,"Ġomelet":6681,"Ġchoose":6682,"Ġwanted":6683,"Ġdec":6684,"Ġlimes":6685,"Ġve":6686,"ĠChest":6687,"ĠWieners":6688,"cold":6689,"Ġspins":6690,"Ġthickest":6691,"Ġdrip":6692,"Ġrises":6693,"ĠHobo":6694,"ĠHarvest":6695,"ĠWonderful":6696,"ĠFillets":6697,"--":6698,"back":6699,"diced":6700,"sto":6701,"uke":6702,"Ġfun":6703,"Ġfif":6704,"ĠCalories":6705,"Ġflip":6706,"ĠTry":6707,"ĠReal":6708,"ĠDilute":6709,"ĠWacky":6710,"ĠHa":6711,"estring":6712,"ĠFlip":6713,"Ġstemmed":6714,"ĠGlor":6715,"Ġsteaming":6716,"ĠMarnier":6717,"Ġdecoration":6718,"Ġfasten":6719,"Ġskewer":6720,"ĠFettuccine":6721,"...":6722,"ĠSmokies":6723,"Chocolate":6724,"Ġexactly":6725,"Minute":6726,"Pec":6727,"ever":6728,"powder":6729,"wrapped":6730,"Ġmouth":6731,"ĠBut":6732,"ĠBav":6733,"ado":6734,"Ġforks":6735,"ĠFries":6736,"Ġsweeten":6737,"Ġsalads":6738,"iscuits":6739,"Ġcontaining":6740,"uckle":6741,"Ġtwists":6742,"ĠSelect":6743,"Ġendive":6744,"ĠMincemeat":6745,"Ġacini":6746,"Ġunderstanding":6747,"Potato":6748,"ĠFrito":6749,"ĠTreat":6750,"Ġcontinuing":6751,"lenda":6752,"Ġdrumsticks":6753,"Ġproduct":6754,"Ġliberally":6755,"Ġhazelnuts":6756,"Pecan":6757,"Very":6758,"batter":6759,"tMix":6760,"Ġsat":6761,"Ġchange":6762,"ĠCit":6763,"ĠCord":6764,"Ġla":6765,"Ġflesh":6766,"veget":6767,"ĠRain":6768,"Ġwhere":6769,"Ġseashell":6770,"Ġcrumbles":6771,"ĠJu":6772,"ĠYour":6773,"ĠButtercream":6774,"aily":6775,"Ġflowerpot":6776,"Ġworking":6777,"ĠColor":6778,"Ġsleeve":6779,"Ġparsnips":6780,"60":6781,"cer":6782,"tR":6783,"Ġoval":6784,"Ġfrench":6785,"ities":6786,"Ġgas":6787,"Ġbroad":6788,"ĠRuth":6789,"abl":6790,"ĠFoil":6791,"ĠStraw":6792,"oleo":6793,"ĠLush":6794,"Ġcones":6795,"Ġserves":6796,"ĠOut":6797,"Ġstands":6798,"ĠCarne":6799,"ĠRoy":6800,"Ġhandfuls":6801,"ngth":6802,"ĠFloren":6803,"Ġbroiled":6804,"Ġindefinitely":6805,"ĠCatfish":6806,"ĠRotate":6807,"ĠMillionaire":6808,"ĠSauterne":6809,"ĠBavarian":6810,"Batter":6811,"Corn":6812,"cous":6813,"hing":6814,"iar":6815,"lon":6816,"opped":6817,"Ġdaily":6818,"Ġrubbed":6819,"iform":6820,"Ġappears":6821,"ĠCreamettes":6822,"ĠThins":6823,"Ġtubs":6824,"ĠSmothered":6825,"Ġhamburgers":6826,"Ġkindness":6827,"Ġespecially":6828,"Ġdistilled":6829,"ĠArmour":6830,"Ġmanufacturer":6831,"ais":6832,"hard":6833,"ler":6834,"ster":6835,"Ġfound":6836,"Ġeyes":6837,"Ġlaugh":6838,"acao":6839,"ĠMarb":6840,"rips":6841,"Ġjun":6842,"Ġjoin":6843,"stuffed":6844,"efish":6845,"ope":6846,"osition":6847,"ĠKielbasa":6848,"Ġfinal":6849,"Ġdeter":6850,"Ġparticles":6851,"Ġherbed":6852,"ĠHayst":6853,"'ll":6854,"Ġcour":6855,"Ġtaken":6856,"Ġprop":6857,"Ġmot":6858,"Ġtost":6859,"ĠSuc":6860,"Ġuniform":6861,"ida":6862,"ĠLor":6863,"ĠSauteed":6864,"ouscous":6865,"saiah":6866,"Ġcanner":6867,"Ġjellyroll":6868,"Ġbroiling":6869,"Ġbackfin":6870,"ĠPancake":6871,"Ġgetting":6872,"Ġcasing":6873,"athy":6874,"Ġscraped":6875,"Ġwonderful":6876,"ĠPorcupine":6877,"grated":6878,"fait":6879,"ince":6880,"Ġmacaroons":6881,"ĠCry":6882,"orp":6883,"order":6884,"Ġlose":6885,"olf":6886,"Ġhum":6887,"iment":6888,"ĠHome":6889,"ĠKabobs":6890,"120":6891,"Ġdippers":6892,"Ġfilo":6893,"Ġdiscarding":6894,"ĠOysters":6895,"ĠPimento":6896,"ĠElegant":6897,"Cream":6898,"Sugar":6899,"mber":6900,"Ġpaint":6901,"Ġmine":6902,"asts":6903,"Ġeff":6904,"tops":6905,"ĠDeath":6906,"color":6907,"ĠSplenda":6908,"ĠIda":6909,"ression":6910,"Ġcovers":6911,"ĠItal":6912,"reeze":6913,"Ġpercolator":6914,"eather":6915,"Ġpierced":6916,"Ġhoisin":6917,"raditional":6918,"Ġbrewed":6919,"ĠCitrus":6920,"Mar":6921,"Ritz":6922,"ipping":6923,"esis":6924,"ilt":6925,"Ġgin":6926,"Ġsalty":6927,"ĠPops":6928,"ĠPesto":6929,"Ġflu":6930,"ĠTen":6931,"illing":6932,"Ġsha":6933,"ient":6934,"ĠFig":6935,"ĠFancy":6936,"Ġkiss":6937,"ĠThrow":6938,"Ġevaporates":6939,"ĠMonster":6940,"which":6941,"Ġskimmed":6942,"Ġbulgur":6943,"ibb":6944,"Ġgoing":6945,"rounded":6946,"prepared":6947,"Ġrequired":6948,"ĠBuckeyes":6949,"gian":6950,"ira":6951,"Ġsilk":6952,"Ġmenthe":6953,"ica":6954,"Ġ27":6955,"Ġdirt":6956,"ĠSome":6957,"acing":6958,"ĠMaster":6959,"Ġthrow":6960,"Ġsoggy":6961,"ĠCherries":6962,"ĠDO":6963,"Ġrinds":6964,"ĠWedges":6965,"ĠFunnel":6966,"apes":6967,"oughy":6968,"Ġkale":6969,"ĠKrisp":6970,"ĠVirgin":6971,"Ġpicked":6972,"Stuffed":6973,"ĠChunky":6974,"ĠRainbow":6975,"Ġshavings":6976,"\")":6977,"down":6978,"nold":6979,"violi":6980,"Ġsnapper":6981,"Ġbis":6982,"ppos":6983,"ĠCor":6984,"Ġ370":6985,"ĠPig":6986,"Ġvegetarian":6987,"Ġsteep":6988,"Ġsafe":6989,"ĠWinter":6990,"ĠSpeed":6991,"Ġravioli":6992,"ĠVer":6993,"Ġpeels":6994,"Ġcontains":6995,"kets":6996,"Ġscore":6997,"Ġpicks":6998,"ĠDozen":6999,"flake":7000,"clude":7001,"ĠTotal":7002,"ĠJerky":7003,"ĠGeorg":7004,"Ġfifth":7005,"Cl":7006,"Gr":7007,"ki":7008,"min":7009,"Ġsizes":7010,"anks":7011,"leans":7012,"ores":7013,"Ġsalts":7014,"Ġvent":7015,"ups":7016,"Ġrare":7017,"ĠFajitas":7018,"Ġsem":7019,"ĠHors":7020,"ĠVegetarian":7021,"Ġupon":7022,"ĠBlender":7023,"ĠThat":7024,"Ġhandling":7025,"ildren":7026,"ĠConfetti":7027,"Serve":7028,"Ġbrisk":7029,"ĠExtra":7030,"ĠGrahams":7031,"Ġmethod":7032,"ĠTriscuits":7033,"Ġhollowed":7034,"Ġparboiled":7035,"Raisin":7036,"ĠFriendship":7037,"Ġfluid":7038,"Baked":7039,"fold":7040,"ti":7041,"tor":7042,"Ġmatch":7043,"Ġsuey":7044,"oot":7045,"ĠTakes":7046,"raSweet":7047,"irrel":7048,"ĠCholesterol":7049,"iman":7050,"ĠFud":7051,"bert":7052,"member":7053,"ĠPeek":7054,"Ġbagels":7055,"Ġturned":7056,"Ġproced":7057,"ĠSweetened":7058,"Ġtrifle":7059,"ĠBarley":7060,"ĠWorking":7061,"Ġthreads":7062,"Ġshoestring":7063,"ĠCordon":7064,"agg":7065,"book":7066,"gran":7067,"ias":7068,"pacho":7069,"rock":7070,"asing":7071,"Ġsugared":7072,"Ġgold":7073,"Ġluncheon":7074,"ĠBubble":7075,"ĠMust":7076,"raps":7077,"tose":7078,"ume":7079,"Ġspiced":7080,"ĠLily":7081,"shaped":7082,"emble":7083,"Ġexp":7084,"ĠOther":7085,"Ġcannellini":7086,"azpacho":7087,"ĠOrleans":7088,"Ġresem":7089,"ĠDilly":7090,"ĠCarolina":7091,"ĠQueso":7092,"ĠEvans":7093,"ablis":7094,"ĠFlorentine":7095,"French":7096,"High":7097,"Make":7098,"but":7099,"cus":7100,"han":7101,"son":7102,"tou":7103,"wood":7104,"Ġsom":7105,"Ġmicro":7106,"Ġfruc":7107,"ĠCrispies":7108,"Ġgent":7109,"Ġpepe":7110,"Ġvinaigrette":7111,"ĠWet":7112,"Ġspl":7113,"Ġbreadsticks":7114,"Ġalone":7115,"Ġtenders":7116,"ĠNuggets":7117,"ĠSherry":7118,"Ġstanding":7119,"ĠBrick":7120,"ĠSlit":7121,"ĠFrosty":7122,"ĠNeiman":7123,"Ġburgers":7124,"Ġdecorative":7125,"ĠSunda":7126,"Ġomitting":7127,"ĠLike":7128,"hydrate":7129,"Ġweight":7130,"ĠBlonde":7131,"ĠJewish":7132,"Ġstrength":7133,"vegetable":7134,"ĠGeorgia":7135,"Ġprocedure":7136,"Ġfructose":7137,"Vegetab":7138,"plet":7139,"arole":7140,"Ġbush":7141,"Ġpol":7142,"reak":7143,"ĠMull":7144,"raight":7145,"iener":7146,"ĠGazpacho":7147,"Ġcare":7148,"ĠCovered":7149,"ĠOle":7150,"ĠEvery":7151,"Ġprev":7152,"ĠButternut":7153,"plus":7154,"Ġtoweling":7155,"Ġwhisking":7156,"ĠSecrets":7157,"Ġquantity":7158,"ĠStraws":7159,"ĠSpeedy":7160,"Egg":7161,"bite":7162,"lin":7163,"nam":7164,"popped":7165,"Ġwid":7166,"asant":7167,"ito":7168,"Ġgoose":7169,"Ġladle":7170,"ĠParm":7171,"Ġfluff":7172,"ĠMam":7173,"Ġsaucepot":7174,"ĠChablis":7175,"Ġcorner":7176,"acher":7177,"ĠServing":7178,"ĠOw":7179,"Ġpuddings":7180,"ĠVien":7181,"Ġspreadable":7182,"ĠTopped":7183,"Ġimpro":7184,"ĠUnwrap":7185,"ĠClou":7186,"ajita":7187,"Ġbasic":7188,"Ġsectioned":7189,"ĠBonbons":7190,"ĠCrescents":7191,"ĠTartar":7192,"giving":7193,"Ġsometimes":7194,"Ġregisters":7195,";\\":7196,"ands":7197,"root":7198,"Ġsuff":7199,"Ġdepends":7200,"Ġgizz":7201,"Ġlye":7202,"ĠBel":7203,"ĠTap":7204,"Ġstop":7205,"Ġshot":7206,"Ġthing":7207,"Ġmark":7208,"Ġrather":7209,"Ġalcohol":7210,"Ġslab":7211,"ĠOwn":7212,"estyle":7213,"ĠBlossoms":7214,"ĠNilla":7215,"Ġconsider":7216,"ĠCrisps":7217,"ĠSteamed":7218,"ĠSmoothie":7219,"Ġpierce":7220,"Ġcollard":7221,"sprayed":7222,"ĠHaystacks":7223,"orpor":7224,"Ġresemble":7225,"lt":7226,"layer":7227,"lite":7228,"slightly":7229,"vard":7230,"Ġ=":7231,"sprinkle":7232,"Ġgame":7233,"chi":7234,"Ġcane":7235,"ĠRey":7236,"vender":7237,"Ġrope":7238,"Ġalf":7239,"Ġexchange":7240,"ĠOregano":7241,"ĠEtou":7242,"ewh":7243,"ĠScrip":7244,"ĠNutraSweet":7245,"uchen":7246,"Ġsteamer":7247,"Ġprune":7248,"ĠHello":7249,"alfa":7250,"ĠLeviticus":7251,"Ġpineapples":7252,"Crust":7253,"ĠHarvard":7254,"ĠJohnny":7255,"Ġxxxx":7256,"ĠItaliano":7257,"ĠVirginia":7258,"110":7259,"Bri":7260,"makes":7261,"warm":7262,"Ġread":7263,"Ġmult":7264,"atel":7265,"ouille":7266,"Ġfrit":7267,"amount":7268,"ĠPate":7269,"Ġminus":7270,"ĠRose":7271,"Ġhotter":7272,"Ġcracks":7273,"coated":7274,"ĠBlanch":7275,"ĠNog":7276,"ĠGram":7277,"Ġpounded":7278,"ĠNutmeg":7279,"ĠTortillas":7280,"Ġveggie":7281,"ĠPlain":7282,"ibby":7283,"according":7284,"Ġfingert":7285,"Ġ234":7286,"ĠBraz":7287,"ĠRosemary":7288,"Ġtongs":7289,"ĠBusy":7290,"stock":7291,"Ġlaughter":7292,"ĠReynold":7293,"Ġalfalfa":7294,"ĠScripture":7295,"American":7296,"rano":7297,"tD":7298,"Ġcouscous":7299,"Ġtines":7300,"Ġmush":7301,"Ġmight":7302,"Ġfix":7303,"Ġfig":7304,"roof":7305,"tery":7306,"isweet":7307,"Ġunroll":7308,"Ġmince":7309,"redded":7310,"Ġwhiz":7311,"acker":7312,"ĠString":7313,"ĠIsaiah":7314,"Ġbeefy":7315,"should":7316,"ĠJif":7317,"ĠThere":7318,"Ġgingerbread":7319,"ĠFruity":7320,"Ġhardens":7321,"Ġproof":7322,"ĠBeefy":7323,"fort":7324,"Ġgrilling":7325,"Ġscald":7326,"Ġwrapper":7327,"ĠMiniature":7328,"Ġholidays":7329,"serving":7330,"ĠMostaccioli":7331,"Don":7332,"Lime":7333,"after":7334,"cub":7335,"make":7336,"pound":7337,"sm":7338,"tSp":7339,"Ġob":7340,"Ġour":7341,"amels":7342,"ĠBoy":7343,"Ġflo":7344,"ĠMicro":7345,"Ġstep":7346,"Ġcrimp":7347,"ĠDark":7348,"Ġdrying":7349,"Ġdoughnuts":7350,"Ġdoughnut":7351,"ĠRolled":7352,"Ġdiamond":7353,"ĠFinally":7354,"Ġburrito":7355,"Ġtamari":7356,"Ġincorpor":7357,"Ġchorizo":7358,"Pe":7359,"ply":7360,"Ġbuck":7361,"Ġpli":7362,"onz":7363,"leaf":7364,"itan":7365,"aced":7366,"used":7367,"ooks":7368,"abag":7369,"Ġbody":7370,"eflon":7371,"aper":7372,"aches":7373,"ĠGu":7374,"Ġarea":7375,"Ġqts":7376,"ĠButtered":7377,"Ġspooning":7378,"Ġhandled":7379,"Ġpinching":7380,"Ġrecipes":7381,"Ġstockpot":7382,"Ġunsliced":7383,"Ġnever":7384,"ugu":7385,"ĠManwich":7386,"ĠThanks":7387,"Ġstorage":7388,"Appetizer":7389,"ĠCryst":7390,"Ġeffect":7391,"ĠOwens":7392,"ĠBrazil":7393,"ĠReynolds":7394,"(\"":7395,"Inch":7396,"Oeuvres":7397,"ca":7398,"Ġiced":7399,"Ġsilver":7400,"Ġtied":7401,"Ġbu":7402,"Ġbuy":7403,"real":7404,"original":7405,"Ġaj":7406,"ĠBB":7407,"ĠChutney":7408,"ĠDad":7409,"veness":7410,"ĠLove":7411,"ĠLee":7412,"Ġable":7413,"ĠOR":7414,"ĠElephant":7415,"Ġplay":7416,"ĠBlan":7417,"Ġletting":7418,"Ġgloves":7419,"ĠCorning":7420,"ĠFruited":7421,"ĠFlank":7422,"ĠGreens":7423,"ĠSweeten":7424,"ĠUnbaked":7425,"eggs":7426,"Ġdoubles":7427,"Ġdeluxe":7428,"ĠMargar":7429,"Ġcircular":7430,"Cookies":7431,"ĠFettucini":7432,"Ġpockets":7433,"ĠSouthwestern":7434,"Ġindentation":7435,"ĠHappy":7436,"Marcus":7437,"Club":7438,"Ġsemisweet":7439,"ĠParmig":7440,"Ġsuffic":7441,"ĠEtouffee":7442,"uguese":7443,"ĠThanksgiving":7444,"Yield":7445,"deep":7446,"lers":7447,"soup":7448,"Ġoppos":7449,"Ġbought":7450,"eslaw":7451,"Ġmugs":7452,"Ġchanges":7453,"ĠBill":7454,"ĠBudd":7455,"Ġminestrone":7456,"Ġstraight":7457,"verly":7458,"umn":7459,"ĠDuck":7460,"ĠFun":7461,"ĠNana":7462,"Ġtabasco":7463,"Ġrip":7464,"Ġcrabs":7465,"Ġquality":7466,"ĠCongo":7467,"ĠCrumbs":7468,"Ġfilet":7469,"Ġcrystall":7470,"Ġcrepes":7471,"ĠJane":7472,"ĠHelen":7473,"ĠFantasy":7474,"Ġdetergent":7475,"Ġsomewh":7476,"Ġgizzards":7477,"Pam":7478,"Sa":7479,"sour":7480,"squ":7481,"Ġpurch":7482,"only":7483,"garlic":7484,"ĠSilk":7485,"ĠTips":7486,"ĠMark":7487,"raine":7488,"allon":7489,"ĠLin":7490,"ĠHand":7491,"Ġconven":7492,"Ġking":7493,"ĠNon":7494,"issolved":7495,"ĠShoo":7496,"Ġcoleslaw":7497,"Ġscrew":7498,"Ġ160":7499,"Ġbringing":7500,"ĠQuickie":7501,"Ġsnap":7502,"ĠDribble":7503,"Ġstacks":7504,"ĠComplet":7505,"Ġdampened":7506,"ĠBraised":7507,"uscious":7508,"two":7509,"ĠGenesis":7510,"ĠIdaho":7511,"'ve":7512,"aur":7513,"gallon":7514,"ze":7515,"unks":7516,"Ġstain":7517,"Ġnuggets":7518,"ĠRounds":7519,"urry":7520,"ĠFool":7521,"ĠStrips":7522,"ĠGod":7523,"Ġcarob":7524,"ardi":7525,"Ġcracklings":7526,"Ġcling":7527,"ĠEvenly":7528,"ĠKet":7529,"Ġencl":7530,"ĠShortening":7531,"Ġbagel":7532,"ĠCaramels":7533,"Ġpinches":7534,"ĠFlor":7535,"ĠBrandy":7536,"ĠUnder":7537,"ĠPlan":7538,"ĠPlus":7539,"ĠAlmonds":7540,"Ġescarole":7541,"giveness":7542,"epsi":7543,"ĠSubstitute":7544,"glass":7545,"ĠGlorified":7546,"ĠLorraine":7547,"Ġbriskly":7548,"Ġgentle":7549,"ĠSundae":7550,"Brien":7551,"Ġpliable":7552,"ĠBBQ":7553,"Crock":7554,"Yum":7555,"__":7556,"follow":7557,"sifted":7558,"Ġtend":7559,"aring":7560,"utabag":7561,"ĠBour":7562,"ĠPepsi":7563,"Ġvol":7564,"Ġunwrapped":7565,"Ġmins":7566,"Ġminimum":7567,"ucks":7568,"Ġshanks":7569,"Ġsoaking":7570,"ĠWel":7571,"imate":7572,"ĠStar":7573,"ĠLibby":7574,"arshmallow":7575,"ffe":7576,"Ġhalve":7577,"Ġsmoothly":7578,"scar":7579,"Ġrecomm":7580,"Ġfolded":7581,"Ġperfect":7582,"Ġgrainy":7583,"Ġfitted":7584,"ordfish":7585,"ĠOptional":7586,"ĠDirty":7587,"ĠChewies":7588,"Ġdecorating":7589,"ylv":7590,"Ġpalms":7591,"Beef":7592,"ĠBox":7593,"ĠHamburgers":7594,"ĠMadeira":7595,"Ġfeet":7596,"print":7597,"Ġjunior":7598,"Ġsomewhat":7599,"pour":7600,"rat":7601,"ĠQ":7602,"Ġcase":7603,"Ġcured":7604,"almon":7605,"spic":7606,"ĠAut":7607,"alloped":7608,"Ġsteady":7609,"chatel":7610,"ĠChildren":7611,"ĠFit":7612,"ĠHorseradish":7613,"Ġslight":7614,"ĠOats":7615,"ĠYam":7616,"ĠChoco":7617,"ossum":7618,"ĠAla":7619,"Ġscalding":7620,"Ġfrosted":7621,"Ġstrings":7622,"bean":7623,"Ġjigger":7624,"Ġmembrane":7625,"ĠMember":7626,"ĠBonnet":7627,"ĠRoyal":7628,"Vegetable":7629,"ĠCloud":7630,"Ġopposite":7631,"He":7632,"hal":7633,"iber":7634,"mly":7635,"Ġton":7636,"ouff":7637,"spread":7638,"level":7639,"ĠPaint":7640,"ĠTeflon":7641,"Ġbutterf":7642,"ĠMounds":7643,"Ġchopping":7644,"Ġnor":7645,"Ġatt":7646,"Ġthose":7647,"ĠChi":7648,"ĠLuscious":7649,"ĠGri":7650,"shake":7651,"anta":7652,"ĠOscar":7653,"ĠJean":7654,"ĠBrowns":7655,"rowroot":7656,"ĠStewed":7657,"ĠCrushed":7658,"ĠVeggies":7659,"Ġhelps":7660,"Ġsaucer":7661,"Ġdistributed":7662,"Ġconsideration":7663,"Ġvolume":7664,"Cool":7665,"Coc":7666,"Duncan":7667,"Fly":7668,"Old":7669,"Rec":7670,"Un":7671,"banana":7672,"dark":7673,"ura":7674,"uture":7675,"rol":7676,"Ġ38":7677,"ĠBundles":7678,"Ġha":7679,"raisins":7680,"chwe":7681,"Ġthink":7682,"ĠDolly":7683,"Ġ64":7684,"Ġdishpan":7685,"ĠEven":7686,"Ġsquirrel":7687,"fectioners":7688,"Ġaccom":7689,"Ġhardened":7690,"ĠPeppermint":7691,"ĠUncooked":7692,"ample":7693,"Ġdropping":7694,"ford":7695,"unsalted":7696,"unschwe":7697,"ĠPlant":7698,"pected":7699,"Ġ238":7700,"ĠButterfingers":7701,"Ġbright":7702,"ometimes":7703,"Ġ260":7704,"ufchatel":7705,"ĠPicnic":7706,"Note":7707,"Pepper":7708,"Ġstainless":7709,"unschweiger":7710,")(":7711,"31":7712,"Bean":7713,"Pre":7714,"bled":7715,"cks":7716,"luck":7717,"mo":7718,"mini":7719,"tto":7720,"Ġcamp":7721,"ania":7722,"ati":7723,"Ġwipe":7724,"ĠCenter":7725,"ĠBak":7726,"ĠPit":7727,"ioneer":7728,"ĠTra":7729,"raspberry":7730,"rif":7731,"Ġnine":7732,"Ġroughy":7733,"ĠInn":7734,"ĠJumbo":7735,"Ġarrowroot":7736,"Ġ240":7737,"reserving":7738,"ĠAlas":7739,"Ġsubstitutes":7740,"Ġsifting":7741,"crumbled":7742,"ĠDonuts":7743,"ĠCrepes":7744,"Ġgoat":7745,"ĠComstock":7746,"ĠSnowballs":7747,"creamy":7748,"floured":7749,"Mexican":7750,"Ġvegies":7751,"Ġsplash":7752,"ĠTapioca":7753,"ĠCrystal":7754,"!).":7755,".;":7756,"With":7757,"tB":7758,"Ġcacao":7759,"Ġpray":7760,"ona":7761,"Ġfuture":7762,"ĠCola":7763,"ĠSex":7764,"ĠPita":7765,"illi":7766,"ĠAss":7767,"tosh":7768,"ĠWyl":7769,"Ġjuiced":7770,"ersion":7771,"ifter":7772,"Ġwhitefish":7773,"shredded":7774,"reshing":7775,"Ġitalian":7776,"Ġcontrol":7777,"Ġbouquet":7778,"Ġpreparation":7779,"Ġcroiss":7780,"istrib":7781,"ĠCloves":7782,"ĠPopovers":7783,"ĠLastly":7784,"ĠWaverly":7785,"ĠFrank":7786,"ĠTwinkie":7787,"Ġsomething":7788,"Ġhusks":7789,"andelion":7790,"ĠParmigiana":7791,"Coconut":7792,"Recipe":7793,"either":7794,"gan":7795,"house":7796,"ues":7797,"Ġ110":7798,"Ġmiracle":7799,"Ġface":7800,"ĠSens":7801,"ixie":7802,"chuck":7803,"oma":7804,"Ġshank":7805,"Ġbakes":7806,"wns":7807,"ids":7808,"Ġblossoms":7809,"shell":7810,"Ġclaw":7811,"eye":7812,"Ġpapaya":7813,"ĠNectar":7814,"Ġsoya":7815,"Ġchestnut":7816,"ĠTofu":7817,"Ġcompressed":7818,"ĠGrey":7819,"ĠSmash":7820,"Ġrotelle":7821,"Ġdecorations":7822,"Ġomitted":7823,"ĠLinguini":7824,"ĠGeorge":7825,"Ġguests":7826,"ĠHillshire":7827,"Ġcourse":7828,"granulated":7829,"ltimate":7830,"ĠKetchup":7831,"ĠGriff":7832,"Gl":7833,"wd":7834,"Ġcal":7835,"ils":7836,"ĠCle":7837,"Ġdred":7838,"Ġgolf":7839,"ĠPioneer":7840,"ĠTarragon":7841,"Ġunpopped":7842,"Ġoverlap":7843,"ĠChurch":7844,"ĠLady":7845,"ĠGather":7846,"ĠKu":7847,"ĠKuchen":7848,"ĠNice":7849,"ĠNight":7850,"Ġscatter":7851,"Ġsecret":7852,"ĠSear":7853,"irty":7854,"Ġitself":7855,"ummettes":7856,"ĠAmos":7857,"ĠSecret":7858,"Ġscramble":7859,"rect":7860,"Ġcreate":7861,"rize":7862,"Ġcountertop":7863,"Ġdelicately":7864,"ĠMulled":7865,"Ġfingertips":7866,"ĠFlorida":7867,"istribute":7868,"Cauliflower":7869,"Eagle":7870,"Op":7871,"br":7872,"must":7873,"Ġrain":7874,"Ġsac":7875,"ero":7876,"Ġtater":7877,"Ġbud":7878,"Ġpu":7879,"Ġpic":7880,"Ġmic":7881,"Ġmess":7882,"uting":7883,"ĠCast":7884,"asi":7885,"ital":7886,"ĠSop":7887,"ĠPri":7888,"ĠPur":7889,"ĠAspic":7890,"Ġstuck":7891,"verbs":7892,"elly":7893,"ĠRest":7894,"imin":7895,"armalade":7896,"ĠWhirl":7897,"rinkles":7898,"iest":7899,"wegian":7900,"Ġexten":7901,"ĠEas":7902,"Ġzip":7903,"Ġchilling":7904,"cean":7905,"ĠUltimate":7906,"Ġstandard":7907,"ĠChoy":7908,"Ġcolada":7909,"ĠGrass":7910,"extra":7911,"ĠStop":7912,"Ġscalloped":7913,"Ġcrockpot":7914,"dobo":7915,"type":7916,"Ġgives":7917,"Ġbitters":7918,"ĠWheaties":7919,"ĠStromb":7920,"ĠScrambled":7921,"ĠLiquid":7922,"Ġribbon":7923,"ĠTrash":7924,"ĠTruff":7925,"Ġpersimmons":7926,"ĠKidney":7927,"ĠEscalloped":7928,"ĠMarble":7929,"Ġbushel":7930,"Ġsufficient":7931,".'":7932,"Ex":7933,"Gar":7934,"aut":7935,"neck":7936,"rami":7937,"Ġbirds":7938,"Ġpen":7939,"Ġfur":7940,"itting":7941,"Ġaverage":7942,"ĠSanta":7943,"ĠBark":7944,"ĠMarmalade":7945,"Ġunseasoned":7946,"Ġhad":7947,"Ġhope":7948,"ĠAle":7949,"Ġpepperon":7950,"ria":7951,"oman":7952,"Ġgreasing":7953,"ĠDistribute":7954,"ĠWind":7955,"Ġspots":7956,"ĠFle":7957,"ĠSpry":7958,"Ġisn":7959,"orean":7960,"liquid":7961,"lett":7962,"Ġang":7963,"ĠPrep":7964,"ĠNature":7965,"Ġfinally":7966,"ĠYear":7967,"Ġotherwise":7968,"roproof":7969,"ĠBreaded":7970,"Ġadditions":7971,"Ġhighest":7972,"ĠCanapes":7973,"stituted":7974,"ystery":7975,"Ġcaramelized":7976,"ĠReally":7977,"ĠCrustless":7978,"ĠGlass":7979,"added":7980,"Servings":7981,"ĠRusset":7982,"Ġshortbread":7983,"Ġburritos":7984,"broken":7985,"ĠSnicker":7986,"Ġcrystal":7987,"Ġcontinually":7988,"wheel":7989,"Ġmangoes":7990,"ĠCharl":7991,"arrots":7992,"Ġproper":7993,"ĠBrickle":7994,"Ġmicroproof":7995,"Del":7996,"Ida":7997,"Jack":7998,"Let":7999,"bel":8000,"ippy":8001,"lins":8002,"my":8003,"non":8004,"Ġsand":8005,"Ġsifter":8006,"Ġtacos":8007,"Ġpizzas":8008,"ented":8009,"Ġfeel":8010,"Ġtots":8011,"ĠSin":8012,"ĠSol":8013,"ĠSize":8014,"Ġgher":8015,"ĠPres":8016,"ĠPrize":8017,"uncovered":8018,"Ġmints":8019,"allions":8020,"Ġforgiveness":8021,"thick":8022,"iev":8023,"Ġrutabag":8024,"ĠWare":8025,"iments":8026,"ĠIced":8027,"Ġcond":8028,"opez":8029,"inks":8030,"Ġshreds":8031,"Ġheal":8032,"ĠChef":8033,"ĠThyme":8034,"ĠWithout":8035,"ĠDoes":8036,"Ġcomple":8037,"ĠMarshmallows":8038,"Ġbulb":8039,"ĠWatermelon":8040,"Ġdumpling":8041,"ĠSnowball":8042,"Ġvarious":8043,"ĠMaid":8044,"ĠFettucine":8045,"Ġfriendship":8046,"Ġdraft":8047,"Swiss":8048,"ĠVienna":8049,"Ġcrystallized":8050,"Ġenclose":8051,"ĠAutumn":8052,"ĠGriffin":8053,"Best":8054,"Che":8055,"Dish":8056,"Hot":8057,"Me":8058,"Ro":8059,"Soup":8060,"Tom":8061,"divided":8062,"eter":8063,"hold":8064,"last":8065,"ranging":8066,"sal":8067,"tCook":8068,"wash":8069,"Ġbass":8070,"ouda":8071,"Ġfajita":8072,"ĠCam":8073,"ora":8074,"iter":8075,"heasant":8076,"using":8077,"Ġhush":8078,"Ġcanister":8079,"Ġnect":8080,"ĠWell":8081,"ĠLace":8082,"Ġraised":8083,"ĠVerm":8084,"Ġprebaked":8085,"ĠThumb":8086,"ĠCheesecakes":8087,"Ġmashing":8088,"arines":8089,"ively":8090,"ividual":8091,"oyal":8092,"ĠMarinara":8093,"ĠWilli":8094,"ĠMarie":8095,"ĠNeufchatel":8096,"Ġzesty":8097,"ĠParker":8098,"strawberries":8099,"skinless":8100,"Ġwheel":8101,"ĠFoolproof":8102,"ĠPlanters":8103,"arshmallows":8104,"ĠWyler":8105,"Col":8106,"Dough":8107,"My":8108,"Save":8109,"Velveeta":8110,"fire":8111,"rice":8112,"tT":8113,"eros":8114,"Ġpass":8115,"Ġmen":8116,"atelli":8117,"ĠCant":8118,"Ġdots":8119,"Ġlife":8120,"ĠBor":8121,"ĠPock":8122,"isch":8123,"ĠMystery":8124,"raft":8125,"ades":8126,"ches":8127,"tsugar":8128,"ders":8129,"Ġ43":8130,"Ġthough":8131,"oupon":8132,"Ġrubb":8133,"ĠWeek":8134,"quarter":8135,"ĠSprouts":8136,"Ġyet":8137,"Ġyear":8138,"ĠLopez":8139,"ĠWhiskey":8140,"Ġcarbo":8141,"emi":8142,"ĠBroth":8143,"Ġcrook":8144,"ĠConc":8145,"blue":8146,"whipped":8147,"Ġpral":8148,"ĠCroutons":8149,"Ġsqueezing":8150,"ĠEnough":8151,"addy":8152,"ĠAnt":8153,"Ġ170":8154,"aturated":8155,"overnight":8156,"Ġsnacks":8157,"Intosh":8158,"Ġbuttons":8159,"ĠPortuguese":8160,"tCover":8161,"ĠFasten":8162,"Ġpopsicle":8163,"ĠEspresso":8164,"Moist":8165,"ĠChestnuts":8166,"ĠKrispie":8167,"Ġfritters":8168,"Ham":8169,"Oatmeal":8170,"Pean":8171,"apped":8172,"zetti":8173,"Ġbibb":8174,"Ġmil":8175,"Ġfield":8176,"Ġinverted":8177,"ĠCrinkles":8178,"amarina":8179,"ĠSan":8180,"oto":8181,"ires":8182,"ethod":8183,"Ġattract":8184,"Ġgrater":8185,"ĠRem":8186,"urkey":8187,"Ġrelease":8188,"quarts":8189,"ĠHen":8190,"Ġcone":8191,"ĠGumd":8192,"ago":8193,"napp":8194,"antime":8195,"ecially":8196,"ĠKar":8197,"oiled":8198,"ogi":8199,"Ġpatted":8200,"Ġmarinating":8201,"oya":8202,"Ġacting":8203,"boiling":8204,"board":8205,"Ġlooking":8206,"ĠHeart":8207,"Ġplaces":8208,"Ġmangos":8209,"Ġcitric":8210,"ĠHealth":8211,"Ġchecking":8212,"Mixture":8213,"ĠJudy":8214,"iodized":8215,"bbles":8216,"Ġfeels":8217,"ĠGalliano":8218,"Ġmulti":8219,"Ġpurchased":8220,"aurant":8221,"Ġrecommended":8222,"ĠStromboli":8223,"Ġpepperoncini":8224,"Ener":8225,"We":8226,"best":8227,"honey":8228,"sylv":8229,"tata":8230,"ward":8231,"onstituted":8232,"Ġau":8233,"Ġdef":8234,"ĠPi":8235,"ĠPen":8236,"ĠPost":8237,"ĠPoupon":8238,"acular":8239,"ĠTer":8240,"illo":8241,"Ġhors":8242,"Ġsto":8243,"etic":8244,"Ġshow":8245,"third":8246,"nda":8247,"ĠWrapped":8248,"Ġspear":8249,"Ġsource":8250,"Ġheatproof":8251,"Ġsmell":8252,"ĠPears":8253,"ĠNancy":8254,"iva":8255,"ounty":8256,"ĠForest":8257,"ĠFlounder":8258,"ĠZiti":8259,"ĠConfectioners":8260,"Ġherbal":8261,"unsifted":8262,"ectacular":8263,"Ġsolids":8264,"ĠSandies":8265,"ĠCaviar":8266,"Ġperiodically":8267,"cubed":8268,"ĠLinda":8269,"ĠKugel":8270,"Ġpicnic":8271,"ĠFleisch":8272,"Ġnectarines":8273,"Energy":8274,"sylvania":8275,"250":8276,"55":8277,"aid":8278,"bottom":8279,"gra":8280,"iri":8281,"twith":8282,"Ġ`":8283,"Ġarm":8284,"Ġess":8285,"Ġcy":8286,"Ġswe":8287,"Ġtemp":8288,"Ġbias":8289,"reck":8290,"ali":8291,"rown":8292,"Ġdressed":8293,"ĠSus":8294,"ĠSally":8295,"ĠSort":8296,"Ġgly":8297,"ĠBible":8298,"ĠBird":8299,"ĠAgain":8300,"Ġthinned":8301,"ieved":8302,"ĠDec":8303,"ĠDian":8304,"ĠWest":8305,"stems":8306,"Ġyears":8307,"ĠGouda":8308,"Ġcutlet":8309,"ulous":8310,"ĠSalami":8311,"Ġtenderized":8312,"ĠCrisscross":8313,"Ġenamel":8314,"rayfish":8315,"Ġstiffen":8316,"angria":8317,"ational":8318,"Ġcasings":8319,"Ġreplacement":8320,"ĠCarbon":8321,"Ġmotion":8322,"Ġbucket":8323,"Ġconventional":8324,"ĠCompletely":8325,"Glazed":8326,"Ġrubbing":8327,"ĠConcord":8328,"napps":8329,"Ġglycer":8330,"Fl":8331,"separ":8332,"trem":8333,"wine":8334,"xtail":8335,"Ġ)":8336,"Ġut":8337,"Ġore":8338,"Ġtarts":8339,"Ġtreat":8340,"Ġtropical":8341,"Ġtanger":8342,"Ġpare":8343,"Ġmalt":8344,"onath":8345,"Ġfar":8346,"ĠTe":8347,"ĠTemperature":8348,"ĠTurt":8349,"ĠMayer":8350,"ĠMacaroon":8351,"Ġvar":8352,"Ġhere":8353,"that":8354,"Ġgratin":8355,"Ġcobbler":8356,"abulous":8357,"Ġrear":8358,"pplement":8359,"ĠSpectacular":8360,"Ġseem":8361,"Ġselec":8362,"Ġbreaded":8363,"weetened":8364,"ĠEither":8365,"ĠCutlets":8366,"ĠPrecook":8367,"ĠCornflake":8368,"roximate":8369,"Ġdribble":8370,"ĠSugared":8371,"ĠPatch":8372,"inesap":8373,"ĠRequ":8374,"process":8375,"ĠSeafoam":8376,"ĠFirmly":8377,"Ġscrub":8378,"ĠQuesad":8379,"ĠFantastic":8380,"ĠLeftovers":8381,"Ġsatiny":8382,"Peanut":8383,"ĠGumdrop":8384,"Ġstopping":8385,"ĠFleischmann":8386,"bably":8387,"ceed":8388,"fts":8389,"herb":8390,"ls":8391,"loaf":8392,"marshmallows":8393,"pint":8394,"salted":8395,"tie":8396,"Ġpile":8397,"ref":8398,"ening":8399,"ĠColl":8400,"ĠCatsup":8401,"itter":8402,"ĠSangria":8403,"isette":8404,"gges":8405,"Ġher":8406,"Ġhang":8407,"Ġstars":8408,"Ġsteps":8409,"ucc":8410,"omargarine":8411,"ĠRat":8412,"Ġren":8413,"Ġsear":8414,"ĠStay":8415,"ĠCooker":8416,"ĠWhipping":8417,"Ġrose":8418,"Ġclusters":8419,"Ġkahlua":8420,"lied":8421,"ĠOh":8422,"tthe":8423,"Ġoleomargarine":8424,"ĠJumb":8425,"Ġhearty":8426,"Ġdirect":8427,"Ġconfectioner":8428,"Ġseparating":8429,"Ġpina":8430,"Ġelimin":8431,"ĠCrusty":8432,"Ġ360":8433,"Ġways":8434,"ĠNorwegian":8435,"ĠBoneless":8436,"Ġcrepe":8437,"ingersnap":8438,"ĠPennsylvania":8439,"ignon":8440,"Ġstays":8441,"ĠGoes":8442,"ĠPorcupines":8443,"Ġbraunschweiger":8444,"Ġjoint":8445,"ĠFudgy":8446,"naments":8447,"smooth":8448,"raten":8449,"Optional":8450,"italini":8451,"ĠTurtles":8452,"Car":8453,"Day":8454,"Lo":8455,"found":8456,"sch":8457,"tuntil":8458,"uerb":8459,"esa":8460,"Ġport":8461,"ilian":8462,"Ġfo":8463,"Ġwreath":8464,"icama":8465,"ppe":8466,"Ġ320":8467,"Ġdoves":8468,"Ġever":8469,"Ġeggbe":8470,"ĠTemp":8471,"ĠMas":8472,"tilage":8473,"toasted":8474,"ĠDan":8475,"ĠDifferent":8476,"ĠDixie":8477,"ĠWreath":8478,"ĠStrip":8479,"ĠHazel":8480,"measure":8481,"Ġcarne":8482,"ĠSerrano":8483,"Ġmeatless":8484,"Ġappet":8485,"Ġapprox":8486,"ecake":8487,"ĠCreams":8488,"ĠKol":8489,"undle":8490,"anged":8491,"reserved":8492,"Ġpintos":8493,"ĠRemember":8494,"Ġtrip":8495,"ĠToasties":8496,"Ġreseal":8497,"Step":8498,"Ġdusting":8499,"Ġfrankfurter":8500,"Ġpersonal":8501,"Ġcreole":8502,"ĠCavender":8503,"tPut":8504,"Ġbrickle":8505,"bbie":8506,"ĠCarbo":8507,"ĠSouthwest":8508,"Ġsizzling":8509,"ĠEspecially":8510,"powdered":8511,"ĠSuccess":8512,"Ġincorporated":8513,"ĠCastle":8514,"ĠWilliams":8515,"Ġcrookneck":8516,"Ġattractive":8517,"uccino":8518,"uerbraten":8519,"An":8520,"Fresh":8521,"Noodle":8522,"cool":8523,"carrots":8524,"fitting":8525,"ha":8526,"ked":8527,"lb":8528,"mar":8529,"nie":8530,"sift":8531,"tub":8532,"Ġbuff":8533,"Ġbundles":8534,"ĠPa":8535,"ĠTuck":8536,"Ġhol":8537,"changes":8538,"ĠAdditional":8539,"Ġ42":8540,"irth":8541,"ĠDecor":8542,"ĠDaddy":8543,"ĠWar":8544,"ĠFe":8545,"ĠFire":8546,"inny":8547,"ĠHolly":8548,"Ġcartilage":8549,"ĠIng":8550,"Ġclings":8551,"Ġclover":8552,"coc":8553,"ĠVan":8554,"ĠSauerbraten":8555,"Ġcompany":8556,"ĠPotluck":8557,"ango":8558,"blend":8559,"appuccino":8560,"ville":8561,"ĠSeparately":8562,"Ġretain":8563,"ĠBurrito":8564,"ĠMarzetti":8565,"ĠCrunchies":8566,"ĠCrem":8567,"Ġcurdle":8568,"Ġpulled":8569,"ielbasi":8570,"ĠOlives":8571,"Ġliner":8572,"Ġcavities":8573,"immers":8574,"tCool":8575,"ĠSchool":8576,"Ġlifting":8577,"ĠBarbara":8578,"Ġpresweetened":8579,"Ġbisquick":8580,"Ġsweeter":8581,"ĠDiane":8582,"Cut":8583,"Fruit":8584,"Filled":8585,"aves":8586,"long":8587,"sl":8588,"Ġcatch":8589,"inom":8590,"Ġsimmers":8591,"Ġtil":8592,"ili":8593,"iles":8594,"onuts":8595,"Ġfarm":8596,"icilian":8597,"Ġtoaster":8598,"ung":8599,"ĠMid":8600,"ĠMild":8601,"eller":8602,"Ġshaping":8603,"Ġwho":8604,"ĠChick":8605,"colates":8606,"Ġspacing":8607,"ĠFabulous":8608,"Ġadds":8609,"ĠLucky":8610,"Ġcoconuts":8611,"ĠOur":8612,"ĠKorean":8613,"Ġtenderize":8614,"umpt":8615,"ĠShip":8616,"Ġpastrami":8617,"peaches":8618,"Ġscraps":8619,"ogs":8620,"fulness":8621,"Ġbutcher":8622,"Ġsauteing":8623,"Ġreconstituted":8624,"ĠOnly":8625,"ranean":8626,"ĠApproximately":8627,"aiqu":8628,"Ġpersons":8629,"Ġtypes":8630,"ĠSimply":8631,"tPlace":8632,"Ġappearance":8633,"Ġsmoking":8634,"first":8635,"ĠRomaine":8636,"Onion":8637,"Ġtucking":8638,"Ġprevious":8639,"ffeecake":8640,"Ġaccompan":8641,"ĠClear":8642,"Ġrainbow":8643,"ĠSinful":8644,"iterranean":8645,"oyalty":8646,"ĠBorax":8647,"onathan":8648,"refriger":8649,"ĠRatat":8650,"Ġeggbeater":8651,"ĠCarbohydrate":8652,"irthday":8653,"inomoto":8654,"425":8655,"Banana":8656,"Co":8657,"Camp":8658,"Put":8659,"Time":8660,"sts":8661,"seed":8662,"same":8663,"Ġtre":8664,"Ġtemper":8665,"Ġbundle":8666,"Ġditalini":8667,"ungreased":8668,"ĠMich":8669,"Ġvert":8670,"usilli":8671,"Ġchoy":8672,"Ġnose":8673,"ĠRise":8674,"ĠRav":8675,"ĠRanger":8676,"ĠDav":8677,"ĠWagon":8678,"stead":8679,"ĠFont":8680,"Ġ85":8681,"ĠHow":8682,"oody":8683,"ĠCod":8684,"Ġkabobs":8685,"Ġexpected":8686,"ĠJim":8687,"ĠKosher":8688,"Ġcroquettes":8689,"ĠAlways":8690,"Ġgarnishing":8691,"Ġ140":8692,"Ġparfait":8693,"ĠContin":8694,"ĠDorito":8695,"Ġfourth":8696,"appiness":8697,"ugula":8698,"ĠComfort":8699,"ĠArtichokes":8700,"ĠMediterranean":8701,"Ġdampen":8702,"ĠMcIntosh":8703,"Ġ236":8704,"ĠSuperMoist":8705,"Ġsuitable":8706,"ĠIndividual":8707,"ĠMaryland":8708,"metal":8709,"ĠLogs":8710,"ĠPenny":8711,"Ġdrummettes":8712,"ĠHomestyle":8713,"Ġsimple":8714,"Ġdabs":8715,"Ġdisappear":8716,"firm":8717,"Ġajinomoto":8718,"Ġfurther":8719,"Ġessence":8720,"Ġcycle":8721,"ĠRatatouille":8722,"27":8723,"Cake":8724,"Pro":8725,"band":8726,"pork":8727,"sin":8728,"tF":8729,"tadd":8730,"Ġupper":8731,"Ġsy":8732,"Ġsake":8733,"Ġsch":8734,"anna":8735,"Ġpig":8736,"orice":8737,"Ġdull":8738,"ĠSicilian":8739,"Ġease":8740,"Ġgift":8741,"ĠTrout":8742,"usually":8743,"Ġhare":8744,"Ġbeaut":8745,"ados":8746,"irley":8747,"ĠSteep":8748,"ify":8749,"ĠLy":8750,"ĠLand":8751,"ĠLunch":8752,"ĠLoin":8753,"ĠCoffeecake":8754,"Ġclause":8755,"Ġslide":8756,"ollo":8757,"Ġuses":8758,"Ġsimmered":8759,"ĠRefill":8760,"ĠSlide":8761,"mium":8762,"Ġpopping":8763,"ĠFlan":8764,"Ġknow":8765,"etta":8766,"Ġsurfaces":8767,"Ġelbows":8768,"ĠClams":8769,"ĠProverbs":8770,"tmix":8771,"Ġgiving":8772,"ĠTwenty":8773,"ĠMaraschino":8774,"Ġwrapping":8775,"Ġwraps":8776,"beans":8777,"Ġswordfish":8778,"ĠLiqu":8779,"ĠFlavored":8780,"Ġdepression":8781,"ĠParfait":8782,"Ġsuperfine":8783,"tRemove":8784,"Pepperidge":8785,"ĠPuritan":8786,"Garlic":8787,"ĠCarbonara":8788,"ĠCremora":8789,"ĠFontina":8790,"Ġbeautif":8791,".*":8792,"85":8793,"Mon":8794,"awn":8795,"bles":8796,"fill":8797,"iole":8798,"join":8799,"Ġide":8800,"Ġsince":8801,"atic":8802,"ilee":8803,"also":8804,"Ġfiber":8805,"ĠCilantro":8806,"asto":8807,"Ġage":8808,"Ġdisc":8809,"Ġduty":8810,"Ġdandelion":8811,"Ġgourmet":8812,"ĠMove":8813,"chunk":8814,"Ġcanes":8815,"Ġgram":8816,"ĠDab":8817,"ansas":8818,"Ġruns":8819,"ighter":8820,"ĠSparkling":8821,"ĠGor":8822,"Ġmaybe":8823,"ĠSalted":8824,"Ġ125":8825,"Ġsofter":8826,"ĠBlossom":8827,"ĠPeter":8828,"Ġyellows":8829,"ĠShirley":8830,"Ġdills":8831,"ĠSouper":8832,"Ġseparates":8833,"Ġbrunch":8834,"Ġcannot":8835,"ĠScott":8836,"angel":8837,"Ġmeantime":8838,"pote":8839,"when":8840,"ĠChilies":8841,"Ġ180":8842,"ĠSnap":8843,"odus":8844,"crack":8845,"afe":8846,"ĠRoman":8847,"Ġfettuccini":8848,"Ġdrinking":8849,"ondra":8850,"ĠCompote":8851,"ĠBacardi":8852,"ĠSchilling":8853,"ĠSchnapps":8854,"Ġstraws":8855,"Ġcodfish":8856,"Ġstoring":8857,"Ġfriends":8858,"ĠWilted":8859,"When":8860,"Ġdrafts":8861,"Ġpetals":8862,"Grand":8863,"ĠBoursin":8864,"Ġcroissants":8865,"ĠSopa":8866,"Ġangle":8867,"Ġdefat":8868,"Ġresealable":8869,"450":8870,"And":8871,"Fail":8872,"Its":8873,"Re":8874,"bacon":8875,"four":8876,"ging":8877,"ni":8878,"virgin":8879,"intz":8880,"eral":8881,"Ġtang":8882,"Ġmid":8883,"Ġmellow":8884,"Ġmann":8885,"Ġmasa":8886,"Ġweather":8887,"ingle":8888,"Ġinclude":8889,"ĠSirloin":8890,"ĠPosition":8891,"iso":8892,"ĠTB":8893,"Ġhun":8894,"Ġjicama":8895,"then":8896,"asta":8897,"Ġcobs":8898,"ĠWinesap":8899,"ipasto":8900,"Ġtomat":8901,"ables":8902,"Ġbok":8903,"ĠFeeds":8904,"ifts":8905,"Ġblot":8906,"ĠHens":8907,"Ġdishwash":8908,"ubilee":8909,"ĠJubilee":8910,"Ġsweetness":8911,"ĠViva":8912,"ĠMelon":8913,"ceding":8914,"ĠYank":8915,"ensive":8916,"Ġdirection":8917,"Ġscones":8918,"Ġrid":8919,"vaporated":8920,"ĠTurnovers":8921,"azing":8922,"ĠBrew":8923,"ĠDivine":8924,"nessee":8925,"ĠRaise":8926,"ĠFarms":8927,"Ġworth":8928,"Ġrotate":8929,"Ġ365":8930,"ĠFoods":8931,"ĠFrittata":8932,"Ġdecorated":8933,"ĠSpritz":8934,"Ġspirals":8935,"Ġmicrowaved":8936,"Ġwilt":8937,"tCombine":8938,"Ġshoe":8939,"ĠBuffet":8940,"serve":8941,"coholic":8942,"Ġpetite":8943,"Mozzarella":8944,"Ġmembranes":8945,"Ġobtain":8946,"Sausage":8947,"zech":8948,"ĠPlantation":8949,"Tomato":8950,"ĠVermicelli":8951,"umptious":8952,"Campbell":8953,"ĠYankee":8954,"33":8955,"ER":8956,"equal":8957,"good":8958,"gah":8959,"homemade":8960,"iet":8961,"ming":8962,"oe":8963,"pa":8964,"wor":8965,"Ġoxtail":8966,"Ġtim":8967,"Ġpilaf":8968,"Ġposition":8969,"Ġma":8970,"atini":8971,"Ġfaul":8972,"Ġwiener":8973,"ĠCab":8974,"Ġdisp":8975,"Ġgifts":8976,"ĠBurn":8977,"ĠBug":8978,"ĠBologna":8979,"ĠPaste":8980,"ĠPul":8981,"ĠPurple":8982,"geburger":8983,"illos":8984,"ĠMain":8985,"Ġvis":8986,"Ġforget":8987,"Ġjoy":8988,"ĠRis":8989,"Ġwhirl":8990,"Ġoils":8991,"ĠDie":8992,"redients":8993,"imal":8994,"ided":8995,"ĠLakes":8996,"ĠHerm":8997,"Ġmelons":8998,"shortening":8999,"agie":9000,"Ġropes":9001,"ĠOcean":9002,"Ġsquirt":9003,"Ġpreceding":9004,"Ġenhan":9005,"iscott":9006,"ifteen":9007,"Ġ72":9008,"Ġspooned":9009,"ĠCornstarch":9010,"Ġaccum":9011,"Ġdrizz":9012,"Ġdiabetic":9013,"Ġgarnishes":9014,"Ġsurround":9015,"eringues":9016,"ĠPeachy":9017,"Ġcapful":9018,"ĠLeaves":9019,"Ġrotel":9020,"Ġtriple":9021,"Ġscooped":9022,"atures":9023,"ĠHerbs":9024,"Ġdecorator":9025,"ĠMcButter":9026,"ĠRotini":9027,"Spinach":9028,"ĠWonder":9029,"Ġcollards":9030,"Ġplantains":9031,"arrot":9032,"Ġhousehold":9033,"Ġwidth":9034,"Ġimproves":9035,"ĠBlanket":9036,"ouffer":9037,"Ġprayer":9038,"Ġdefatted":9039,"36":9040,"64":9041,"Jiffy":9042,"SP":9043,"cil":9044,"iously":9045,"lus":9046,"outs":9047,"pine":9048,"td":9049,"work":9050,"washed":9051,"Ġcalls":9052,"Ġcrayfish":9053,"inutes":9054,"Ġsits":9055,"Ġborder":9056,"Ġmove":9057,"ility":9058,"icorice":9059,"ĠCrimp":9060,"itake":9061,"Ġdutch":9062,"ĠSelf":9063,"ĠSara":9064,"Ġloyalty":9065,"ĠBet":9066,"ĠBab":9067,"ĠPizz":9068,"ĠMunch":9069,"ĠMolly":9070,"Ġhit":9071,"ottle":9072,"Ġstops":9073,"Ġstreusel":9074,"omino":9075,"Ġshuck":9076,"ĠDonna":9077,"abama":9078,"ĠStouffer":9079,"ĠCookbook":9080,"ĠLong":9081,"ĠHas":9082,"ĠWhoop":9083,"available":9084,"entine":9085,"ĠKir":9086,"ĠVic":9087,"Ġsett":9088,"Ġsettle":9089,"ense":9090,"ĠSlip":9091,"Ġdevelop":9092,"udel":9093,"udges":9094,"Ġarugula":9095,"Ġprobably":9096,"ĠJacks":9097,"Ġsubstituting":9098,"ĠSkew":9099,"Ġworkable":9100,"ĠJoan":9101,"ĠDilled":9102,"These":9103,"ĠSupplement":9104,"Ġcitrus":9105,"Ġhowever":9106,"igger":9107,"Ġrequire":9108,"ĠAnnie":9109,"Ġwatching":9110,"Blue":9111,"ĠJuicy":9112,"aisy":9113,"ĠTennessee":9114,"ĠUnderwood":9115,"ĠAssemble":9116,"Ġgherkins":9117,"Ġcompleted":9118,"ĠAntipasto":9119,"ĠQuesadillas":9120,"Ġfoams":9121,"ĠRavioli":9122,"Monterey":9123,"Ġmanner":9124,"ĠTBSP":9125,"Le":9126,"Mushroom":9127,"both":9128,"cand":9129,"filled":9130,"wreck":9131,"Ġsieved":9132,"Ġtree":9133,"Ġtraditional":9134,"arified":9135,"reau":9136,"Ġweak":9137,"ĠCappuccino":9138,"Ġach":9139,"ĠSide":9140,"Ġgm":9141,"Ġlicorice":9142,"Ġpeg":9143,"ĠTraditional":9144,"ĠMah":9145,"Ġunless":9146,"Ġunused":9147,"adillo":9148,"Ġwatery":9149,"Ġjal":9150,"ĠRipe":9151,"ĠDis":9152,"quant":9153,"ĠIi":9154,"Ġyield":9155,"Ġcupfuls":9156,"Ġkaro":9157,"Ġslash":9158,"avorites":9159,"Ġitem":9160,"Ġoutdo":9161,"Ġfillings":9162,"ĠNeeds":9163,"Ġcoming":9164,"Ġdoing":9165,"pean":9166,"Ġcranapple":9167,"ĠRob":9168,"ĠPeppered":9169,"ĠAlabama":9170,"Ġconcentrates":9171,"Ġrosamarina":9172,"annie":9173,"ĠSmoke":9174,"Ġpulse":9175,"orbet":9176,"Ġpulling":9177,"ĠPerk":9178,"Ġliverwurst":9179,"Ġrisen":9180,"Ġdollops":9181,"stirring":9182,"Ġjiggers":9183,"ynes":9184,"piece":9185,"wdust":9186,"erosene":9187,"ĠPockets":9188,"Ġeliminate":9189,"ĠShipwreck":9190,"Cup":9191,"Mores":9192,"ct":9193,"depends":9194,"fruit":9195,"gonz":9196,"hand":9197,"iitake":9198,"lukewarm":9199,"mashed":9200,"oise":9201,"off":9202,"qt":9203,"rated":9204,"tat":9205,"turn":9206,"tServe":9207,"wie":9208,"zos":9209,"Ġbigger":9210,"esired":9211,"Ġple":9212,"Ġpra":9213,"reen":9214,"andar":9215,"Ġfan":9216,"Ġfeta":9217,"Ġfrag":9218,"Ġfarina":9219,"Ġ33":9220,"ĠSur":9221,"ĠBu":9222,"ĠPenne":9223,"unge":9224,"olks":9225,"ĠAcorn":9226,"Ġchocolates":9227,"tst":9228,"omon":9229,"Ġshut":9230,"Ġrange":9231,"ĠLuncheon":9232,"weed":9233,"ĠCoco":9234,"Ġmeatball":9235,"Ġkielbasi":9236,"Ġkerosene":9237,"eption":9238,"ĠJonathan":9239,"Ġsmile":9240,"ĠPreacher":9241,"tomato":9242,"ĠThing":9243,"ĠNeed":9244,"Ġpeelings":9245,"ĠGrap":9246,"Ġyourself":9247,"ĠPressure":9248,"ĠSeas":9249,"ĠFlaky":9250,"Ġhigher":9251,"Ġpinwheels":9252,"ĠMexi":9253,"ĠCons":9254,"Ġallowed":9255,"tminutes":9256,"ĠGlory":9257,"ĠLayers":9258,"ĠRomanoff":9259,"ĠHeap":9260,"maybe":9261,"obsters":9262,"ĠAnise":9263,"Ġfinishing":9264,"ĠExtract":9265,"mpathy":9266,"ĠPolynes":9267,"ĠMexicali":9268,"Ġvarieties":9269,"ĠHalibut":9270,"Ġbittersweet":9271,"ĠEarly":9272,"Ġstores":9273,"ĠPimiento":9274,"aiser":9275,"minced":9276,"ĠQue":9277,"almonds":9278,"gonzola":9279,"ĠPolynesian":9280,"**":9281,"Ahead":9282,"Ever":9283,"Judges":9284,"Ready":9285,"celery":9286,"done":9287,"gu":9288,"grease":9289,"mers":9290,"semi":9291,"they":9292,"tCh":9293,"erit":9294,"Ġtan":9295,"Ġbarbecued":9296,"Ġbagg":9297,"edged":9298,"illets":9299,"Ġchurch":9300,"lege":9301,"ĠConey":9302,"Ġdraw":9303,"Ġdeeds":9304,"Ġlobsters":9305,"ĠBer":9306,"ĠPal":9307,"ĠPollo":9308,"ĠMallow":9309,"Ġhu":9310,"Ġhis":9311,"Ġmineral":9312,"adina":9313,"Ġmilks":9314,"omit":9315,"omatic":9316,"Ġshows":9317,"Ġthings":9318,"ĠDaisy":9319,"ĠWondra":9320,"Ġspeck":9321,"ĠWho":9322,"avian":9323,"ĠEm":9324,"Ġrefrigeration":9325,"ĠVick":9326,"ĠVari":9327,"ĠChilled":9328,"Ġcolorful":9329,"Ġcrout":9330,"Ġgranular":9331,"flat":9332,"ĠFrog":9333,"ĠDelite":9334,"ĠBrandied":9335,"Ġpatting":9336,"Ġhashbrown":9337,"ranberry":9338,"ĠAlmost":9339,"ĠGoodies":9340,"Ġgiant":9341,"Ġlinguica":9342,"Ġlumping":9343,"Ġassem":9344,"ĠRuby":9345,"Strawber":9346,"Ġhulls":9347,"Brown":9348,"ĠWilder":9349,"ĠChestnut":9350,"tSprinkle":9351,"Heart":9352,"graham":9353,"processed":9354,"ĠIngredients":9355,"aiquiri":9356,"Ġsympathy":9357,"ĠGorgonzola":9358,"Ġtomatillos":9359,"Ġvisible":9360,"andarins":9361,"80":9362,"Bread":9363,"Carrot":9364,"Gran":9365,"Kay":9366,"Miracle":9367,"So":9368,"Span":9369,"Will":9370,"hi":9371,"jelly":9372,"oven":9373,"tel":9374,"tMakes":9375,"Ġsort":9376,"ane":9377,"Ġpheasant":9378,"aloupe":9379,"roz":9380,"aka":9381,"Ġ39":9382,"ĠSatur":9383,"heavy":9384,"ĠBatch":9385,"ĠPone":9386,"acy":9387,"ĠTreas":9388,"iller":9389,"ĠMad":9390,"Ġunmelted":9391,"ĠAdobo":9392,"uche":9393,"Ġnest":9394,"Ġshots":9395,"ĠRig":9396,"ĠRhod":9397,"ĠDone":9398,"ĠWat":9399,"Ġlarg":9400,"quite":9401,"ĠStella":9402,"ĠStretch":9403,"ĠIts":9404,"ĠHol":9405,"ĠGoya":9406,"ĠCoint":9407,"avel":9408,"udded":9409,"ĠEll":9410,"ĠKathy":9411,"ĠSawdust":9412,"Ġnote":9413,"ĠBrer":9414,"ĠRobert":9415,"sauce":9416,"ĠSquirt":9417,"Ġanytime":9418,"Ġprocessing":9419,"angles":9420,"Ġchive":9421,"ĠClay":9422,"crunchy":9423,"ĠUsually":9424,"ĠGrandpa":9425,"ĠTwists":9426,"ĠLeaf":9427,"ĠOverlap":9428,"ĠNewman":9429,"iki":9430,"Ġ280":9431,"ĠBraid":9432,"ĠPierogi":9433,"Ġhoagie":9434,"Ġquantities":9435,"Also":9436,"Ġdecrease":9437,"Ġhumor":9438,"ĠBuddig":9439,"rifice":9440,"Ġpuppies":9441,"Ġrutabaga":9442,"tremely":9443,"ĠRequest":9444,"ĠCastleberry":9445,"Ġdishwashing":9446,"Ġfaults":9447,"eritage":9448,"ĠCointreau":9449,"Bis":9450,"Medium":9451,"bowl":9452,"cass":9453,"carp":9454,"del":9455,"dissolved":9456,"ject":9457,"oeuvres":9458,"place":9459,"test":9460,"tLet":9461,"turkey":9462,"va":9463,"inted":9464,"ination":9465,"Ġ175":9466,"Ġtint":9467,"Ġmir":9468,"Ġmandarins":9469,"Ġfestive":9470,"ori":9471,"Ġ230":9472,"itam":9473,"Ġducks":9474,"ĠSock":9475,"Ġgingersnap":9476,"ooper":9477,"ĠBow":9478,"ĠBirthday":9479,"ache":9480,"ddess":9481,"ĠTim":9482,"ĠTilt":9483,"ĠMaw":9484,"ĠMango":9485,"Ġvents":9486,"uster":9487,"Ġhuckle":9488,"ads":9489,"Ġforth":9490,"Ġnap":9491,"Ġshiitake":9492,"Ġoverripe":9493,"ĠDou":9494,"ĠWall":9495,"ĠWiener":9496,"Ġwells":9497,"ĠLooks":9498,"ĠHI":9499,"arse":9500,"opened":9501,"ĠGarb":9502,"Ġclarified":9503,"Ġslip":9504,"Ġextremely":9505,"ĠJun":9506,"Ġsmash":9507,"Ġsmiles":9508,"ĠThick":9509,"Ġbagu":9510,"Ġfatback":9511,"Ġevaporate":9512,"ĠGrapes":9513,"ucker":9514,"phabet":9515,"Ġdonuts":9516,"ĠDebbie":9517,"Ġburnt":9518,"ĠMaria":9519,"Ġtinted":9520,"Ġentirely":9521,"Ġbaskets":9522,"ĠFrankfur":9523,"Ġcaviar":9524,"ĠCaptain":9525,"ĠBoats":9526,"ĠGoddess":9527,"hopper":9528,"ĠEscort":9529,"Ġwheels":9530,"Ġdelicate":9531,"Ġreads":9532,"Ġripen":9533,"Ġattached":9534,"Delicious":9535,"ĠPenuche":9536,"ĠSusan":9537,"Ġtangerine":9538,"ĠContinental":9539,"iscotti":9540,"ĠVictor":9541,"wieback":9542,"Ġhuge":9543,"Bisquick":9544,"carpone":9545,"Ġhuckleberries":9546,"\"(":9547,"Dip":9548,"Green":9549,"Kraft":9550,"More":9551,"Macaroni":9552,"Pillsbury":9553,"cture":9554,"jack":9555,"neath":9556,"tbutter":9557,"Ġiodized":9558,"Ġcajun":9559,"include":9560,"Ġsounds":9561,"Ġtep":9562,"Ġmom":9563,"Ġmalted":9564,"spir":9565,"ppin":9566,"Ġinner":9567,"ĠCour":9568,"ĠCounty":9569,"ĠSee":9570,"ĠSzech":9571,"Ġgoo":9572,"uncture":9573,"ĠToo":9574,"ĠMoon":9575,"ĠMethod":9576,"olph":9577,"otal":9578,"otto":9579,"Ġpeppered":9580,"tof":9581,"topping":9582,"Ġnorm":9583,"Ġpowders":9584,"ĠDep":9585,"ĠDiced":9586,"ĠWinning":9587,"ĠWraps":9588,"mond":9589,"orns":9590,"Ġspot":9591,"Ġblu":9592,"achel":9593,"Ġcrumbling":9594,"Ġheats":9595,"Ġserrated":9596,"ĠCoated":9597,"Ġclay":9598,"Ġalfredo":9599,"ĠKr":9600,"Ġgrahams":9601,"ĠThread":9602,"ĠNine":9603,"othy":9604,"Ġscra":9605,"Ġturner":9606,"ividing":9607,"blended":9608,"ĠDreams":9609,"ĠPatty":9610,"ĠContadina":9611,"burgers":9612,"Ġunderneath":9613,"ody":9614,"Ġindic":9615,"ĠChrist":9616,"ĠMilkshake":9617,"Chris":9618,"Ġinstructed":9619,"Ġvariation":9620,"ĠRiver":9621,"Ġshoepeg":9622,"ĠStrudel":9623,"ĠPicc":9624,"ĠHelper":9625,"Chopped":9626,"Ġ290":9627,"reakfast":9628,"tSpread":9629,"Ġbuil":9630,"ĠWelch":9631,"halves":9632,"ĠAlaska":9633,"Ġdredging":9634,"Ġpencil":9635,"Ġhealth":9636,"ĠCantaloupe":9637,"Ġthoughts":9638,"ĠKaren":9639,"Ġcloverleaf":9640,"Ġvertically":9641,"Ġmagarine":9642,"ĠBugles":9643,"luski":9644,"ĠWhoopie":9645,"ĠSkewer":9646,"ĠQueen":9647,"Ġhashbrowns":9648,"ĠWilderness":9649,"Heal":9650,"Jer":9651,"Like":9652,"Mc":9653,"cayenne":9654,"double":9655,"full":9656,"gie":9657,"gly":9658,"golden":9659,"here":9660,"ians":9661,"lava":9662,"noc":9663,"vice":9664,"ĠST":9665,"inos":9666,"Ġsel":9667,"Ġtapped":9668,"Ġpossum":9669,"Ġmex":9670,"Ġ34":9671,"ĠSole":9672,"ĠSandy":9673,"ĠSometimes":9674,"heim":9675,"ĠBart":9676,"ĠBorder":9677,"ĠBottle":9678,"ĠPigs":9679,"ĠTass":9680,"Ġcheap":9681,"ĠMist":9682,"usk":9683,"Ġhim":9684,"ĠAna":9685,"ĠAtt":9686,"Ġorien":9687,"Ġsays":9688,"Ġnog":9689,"vey":9690,"thirds":9691,"ienne":9692,"ĠDomino":9693,"Ġrame":9694,"ĠFeather":9695,"heath":9696,"ific":9697,"aining":9698,"ĠLeg":9699,"ĠLeek":9700,"ĠLyn":9701,"ĠHon":9702,"ĠGer":9703,"ĠGirl":9704,"Ġcarcass":9705,"Ġclumps":9706,"Ġhammer":9707,"Ġgray":9708,"Ġrefreshing":9709,"ĠCutout":9710,"estic":9711,"Ġdressings":9712,"ĠCheer":9713,"ĠBear":9714,"ĠBoiling":9715,"ĠTurnip":9716,"orsch":9717,"ĠRoka":9718,"Ġtwelve":9719,"ĠFlute":9720,"ĠSoap":9721,"ĠUnfold":9722,"Ġsurp":9723,"Ġopened":9724,"Ġfilm":9725,"Ġfiling":9726,"ĠMarvel":9727,"ĠAnisette":9728,"ĠSeeds":9729,"Ġmonterey":9730,"ĠAmazing":9731,"Ġswir":9732,"ĠScrumptious":9733,"ikk":9734,"immies":9735,"Ġmaintain":9736,"ĠParis":9737,"ĠCarolyn":9738,"Ġproduce":9739,"finely":9740,"Ġinserting":9741,"ĠDrum":9742,"ĠPopsicles":9743,"Ġbisque":9744,"Ġmatchstick":9745,"onzoni":9746,"Ġnorthern":9747,"Ġhaving":9748,"Ġsquirrels":9749,"ĠGrasshopper":9750,"Roasted":9751,"ĠThumbprint":9752,"Colby":9753,"Ġtripled":9754,"Ġschool":9755,"ĠKirsch":9756,"candied":9757,"ĠGrapefruit":9758,"Spanish":9759,"ĠWatkins":9760,"Ġnormal":9761,"Ġscraper":9762,"Christmas":9763,"Jeremiah":9764,"ĠAnaheim":9765,"Ġoriental":9766,"!\\":9767,"Meat":9768,"Ph":9769,"Red":9770,"Sal":9771,"They":9772,"Wesson":9773,"bul":9774,"discard":9775,"tIn":9776,"Ġsound":9777,"Ġtumb":9778,"Ġtears":9779,"esquite":9780,"Ġph":9781,"Ġmass":9782,"Ġmoon":9783,"atwurst":9784,"rey":9785,"Ġtoes":9786,"ppa":9787,"elt":9788,"elves":9789,"Ġsupper":9790,"Ġsugah":9791,"Ġdid":9792,"Ġdonut":9793,"ĠSna":9794,"Ġgather":9795,"ĠBiscotti":9796,"ĠPine":9797,"ĠTree":9798,"ĠTahini":9799,"ĠMile":9800,"adas":9801,"Ġshrink":9802,"ĠRight":9803,"ĠWhe":9804,"Ġyields":9805,"ĠHank":9806,"ĠHickory":9807,"ĠHurry":9808,"Ġovens":9809,"ĠGive":9810,"ubstitute":9811,"Ġkrispies":9812,"uffin":9813,"ĠOccasion":9814,"ecks":9815,"coarse":9816,"ĠWorks":9817,"ĠKiev":9818,"Ġjellos":9819,"ĠSausages":9820,"ĠBrowned":9821,"ĠBloody":9822,"ĠMelted":9823,"ĠNell":9824,"ĠYumm":9825,"tons":9826,"Ġaccent":9827,"ĠFills":9828,"ĠCanola":9829,"bling":9830,"ĠTossed":9831,"Ġundissolved":9832,"ĠAlpine":9833,"Ġperch":9834,"Ġeveryone":9835,"ĠMinced":9836,"ĠCross":9837,"melt":9838,"ichever":9839,"Ġburns":9840,"Ġhomestyle":9841,"ĠExodus":9842,"Ġswell":9843,"ĠSecond":9844,"ĠCuban":9845,"ĠFranc":9846,"ĠPinwheel":9847,"ĠDollies":9848,"check":9849,"Ġimported":9850,"Ġpushing":9851,"234":9852,"236":9853,"Ġincre":9854,"alloween":9855,"Ġsizzles":9856,"ĠCavatini":9857,"ĠPassion":9858,"Ġplumped":9859,"ĠBonnie":9860,"Ġvein":9861,"Ġvegeburger":9862,"Ġjoints":9863,"Ġmotor":9864,"Ġtostada":9865,"Ġhuman":9866,"ĠVerde":9867,"Ġpreviously":9868,"Ġgooseberries":9869,"ĠMargarita":9870,"Ġsacrifice":9871,"ĠTruffles":9872,"Excellent":9873,"ĠSolomon":9874,"lsberg":9875,"Ġrender":9876,"ĠMascarpone":9877,"Ġtangy":9878,"Ġhungry":9879,"Ġcrouton":9880,"Granny":9881,"ĠRigatoni":9882,"ĠRhodes":9883,"nocchi":9884,"Ar":9885,"Ang":9886,"Dried":9887,"GH":9888,"Ori":9889,"Zucchini":9890,"freeze":9891,"grap":9892,"laze":9893,"ranged":9894,"vels":9895,"Ġcyl":9896,"erts":9897,"ergy":9898,"Ġmac":9899,"Ġfore":9900,"Ġfajitas":9901,"ĠCumin":9902,"Ġdiff":9903,"Ġdividing":9904,"ĠSage":9905,"ĠSizz":9906,"ĠBit":9907,"ĠPipe":9908,"Ġflam":9909,"ĠTip":9910,"Ġversion":9911,"Ġunprocessed":9912,"ĠAf":9913,"ĠAw":9914,"ota":9915,"rik":9916,"Ġjimmies":9917,"Ġbaker":9918,"Ġgrand":9919,"ĠRh":9920,"ĠRonzoni":9921,"urb":9922,"start":9923,"ĠFair":9924,"ĠSpir":9925,"Ġfroth":9926,"ĠII":9927,"ĠLim":9928,"Ġblades":9929,"ĠHus":9930,"ĠWhat":9931,"Ġcracklins":9932,"Ġroots":9933,"Ġreduc":9934,"Ġapply":9935,"Ġchilis":9936,"Ġcrushing":9937,"ĠKay":9938,").\\":9939,"Ġanimal":9940,"ĠVodka":9941,"Ġsquid":9942,"esserts":9943,"ĠMeltaway":9944,"ĠYu":9945,"ĠUgly":9946,"ĠJellied":9947,"ĠButtery":9948,"ĠChoc":9949,"Ġpointed":9950,"ĠArroz":9951,"Ġalternative":9952,"Ġperk":9953,"Ġparing":9954,"liter":9955,"ĠAllspice":9956,"ĠDiamond":9957,"ĠApply":9958,"ĠDorothy":9959,"Ġunderside":9960,"Ġicy":9961,"ĠReserving":9962,"Ġwords":9963,"ĠCollege":9964,"Ġholding":9965,"Ġbites":9966,"Ġassemble":9967,"ĠNewburg":9968,"ĠMcKay":9969,"ĠPoached":9970,"Ġthumbprint":9971,"ĠEdible":9972,"pieces":9973,"White":9974,"condensed":9975,"ĠColorado":9976,"Ġfloating":9977,"ĠMarket":9978,"Ġoreo":9979,"Ġrearranging":9980,"ĠJumbles":9981,"slice":9982,"intzes":9983,"Ġoxtails":9984,"ĠCabin":9985,"ĠHermits":9986,"Ġshucked":9987,"ĠSaturday":9988,"Ġlargest":9989,"ĠVictoria":9990,"Ġtepid":9991,"ĠBartlett":9992,"Cover":9993,"Hershey":9994,"Parmesan":9995,"Sc":9996,"Sn":9997,"Top":9998,"Wal":9999}