{"<s>":0,"<pad>":1,"</s>":2,"<unk>":3,"<mask>":4,"!":5,"\"":6,"#":7,"$":8,"%":9,"&":10,"'":11,"(":12,")":13,"*":14,"+":15,",":16,"-":17,".":18,"/":19,"0":20,"1":21,"2":22,"3":23,"4":24,"5":25,"6":26,"7":27,"8":28,"9":29,":":30,";":31,"<":32,"=":33,">":34,"?":35,"@":36,"A":37,"B":38,"C":39,"D":40,"E":41,"F":42,"G":43,"H":44,"I":45,"J":46,"K":47,"L":48,"M":49,"N":50,"O":51,"P":52,"Q":53,"R":54,"S":55,"T":56,"U":57,"V":58,"W":59,"X":60,"Y":61,"Z":62,"[":63,"\\":64,"]":65,"^":66,"_":67,"`":68,"a":69,"b":70,"c":71,"d":72,"e":73,"f":74,"g":75,"h":76,"i":77,"j":78,"k":79,"l":80,"m":81,"n":82,"o":83,"p":84,"q":85,"r":86,"s":87,"t":88,"u":89,"v":90,"w":91,"x":92,"y":93,"z":94,"{":95,"|":96,"}":97,"~":98,"¡":99,"¢":100,"£":101,"¤":102,"¥":103,"¦":104,"§":105,"¨":106,"©":107,"ª":108,"«":109,"¬":110,"®":111,"¯":112,"°":113,"±":114,"²":115,"³":116,"´":117,"µ":118,"¶":119,"·":120,"¸":121,"¹":122,"º":123,"»":124,"¼":125,"½":126,"¾":127,"¿":128,"À":129,"Á":130,"Â":131,"Ã":132,"Ä":133,"Å":134,"Æ":135,"Ç":136,"È":137,"É":138,"Ê":139,"Ë":140,"Ì":141,"Í":142,"Î":143,"Ï":144,"Ð":145,"Ñ":146,"Ò":147,"Ó":148,"Ô":149,"Õ":150,"Ö":151,"×":152,"Ø":153,"Ù":154,"Ú":155,"Û":156,"Ü":157,"Ý":158,"Þ":159,"ß":160,"à":161,"á":162,"â":163,"ã":164,"ä":165,"å":166,"æ":167,"ç":168,"è":169,"é":170,"ê":171,"ë":172,"ì":173,"í":174,"î":175,"ï":176,"ð":177,"ñ":178,"ò":179,"ó":180,"ô":181,"õ":182,"ö":183,"÷":184,"ø":185,"ù":186,"ú":187,"û":188,"ü":189,"ý":190,"þ":191,"ÿ":192,"Ā":193,"ā":194,"Ă":195,"ă":196,"Ą":197,"ą":198,"Ć":199,"ć":200,"Ĉ":201,"ĉ":202,"Ċ":203,"ċ":204,"Č":205,"č":206,"Ď":207,"ď":208,"Đ":209,"đ":210,"Ē":211,"ē":212,"Ĕ":213,"ĕ":214,"Ė":215,"ė":216,"Ę":217,"ę":218,"Ě":219,"ě":220,"Ĝ":221,"ĝ":222,"Ğ":223,"ğ":224,"Ġ":225,"ġ":226,"Ģ":227,"ģ":228,"Ĥ":229,"ĥ":230,"Ħ":231,"ħ":232,"Ĩ":233,"ĩ":234,"Ī":235,"ī":236,"Ĭ":237,"ĭ":238,"Į":239,"į":240,"İ":241,"ı":242,"Ĳ":243,"ĳ":244,"Ĵ":245,"ĵ":246,"Ķ":247,"ķ":248,"ĸ":249,"Ĺ":250,"ĺ":251,"Ļ":252,"ļ":253,"Ľ":254,"ľ":255,"Ŀ":256,"ŀ":257,"Ł":258,"ł":259,"Ń":260,"Ġ<":261,"NE":262,"XT":263,"NEXT":264,"IN":265,"EN":266,"RE":267,"Ġc":268,"ST":269,"ING":270,"DI":271,"TS":272,"ENTS":273,"REDI":274,"INGREDI":275,"INGREDIENTS":276,"in":277,"NER":278,"TI":279,"Ġs":280,"er":281,"Ġ1":282,"ON":283,"UC":284,"RUC":285,"INST":286,"TION":287,"RUCTION":288,"INSTRUCTION":289,"INSTRUCTIONS":290,"an":291,"Ġt":292,"Ġo":293,"Ġb":294,"ar":295,"ed":296,"es":297,"AR":298,"END":299,"STAR":300,"START":301,"Ġp":302,"Ġm":303,"at":304,"il":305,"re":306,"ut":307,"on":308,"en":309,"and":310,"al":311,"ou":312,"Ġand":313,"Ġf":314,"Ġch":315,"ing":316,"Ġw":317,"ic":318,"gar":319,"Ġto":320,"sp":321,"pp":322,"Ġin":323,"le":324,"LE":325,"PE":326,"TIT":327,"CI":328,"RECI":329,"TITLE":330,"RECIPE":331,"ro":332,"ĠC":333,"or":334,"ak":335,"Ġ2":336,"el":337,"as":338,"our":339,"am":340,"Ġsu":341,"it":342,"Ġon":343,"Ġa":344,"Ġ3":345,"Ġe":346,"Ġsugar":347,"Ġd":348,"ĠS":349,"Ġsal":350,"Ġg":351,"Ġtsp":352,"Ġl":353,"ter":354,"Ġsalt":355,"Ġpe":356,"he":357,"oo":358,"ix":359,"ion":360,"ĠB":361,"ac":362,"ĠP":363,"Ġfl":364,"gg":365,"dd":366,"ine":367,"un":368,"ge":369,"Ġegg":370,"is":371,"ow":372,"ĠT":373,"Ġ(":374,"utter":375,"ese":376,"Ġbutter":377,"Ġonion":378,"ick":379,"ream":380,"ake":381,"Ġflour":382,"Ġun":383,"Ġche":384,"Ġv":385,"Ġcheese":386,"ill":387,"ol":388,"Ġof":389,"ĠA":390,"Ġmin":391,"pper":392,"Ġh":393,"ith":394,"us":395,"ot":396,"Ġcho":397,"ĠM":398,"Ġpepper":399,"Ġbe":400,"Ġmix":401,"Ġcream":402,"Ġwith":403,"Ġor":404,"ra":405,"ver":406,"Ġminut":407,"ilk":408,"til":409,"Ġuntil":410,"Ġminutes":411,"all":412,"Ġst":413,"uc":414,"ater":415,"om":416,"ell":417,"ad":418,"ook":419,"Ġfor":420,"Ġwater":421,"ch":422,"Ġeggs":423,"Ġmilk":424,"ĠAdd":425,"pped":426,"ato":427,"ir":428,"ice":429,"der":430,"bsp":431,"Ġbro":432,"ĠTbsp":433,"Ġcr":434,"to":435,"icken":436,"ts":437,"um":438,"Ġcan":439,"Ġthe":440,"ri":441,"Ġn":442,"00":443,"Ġsa":444,"Ġ4":445,"red":446,"Ġchopped":447,"uce":448,"lic":449,"Ġbak":450,"ve":451,"illa":452,"Ġoz":453,"Ġbaking":454,"anilla":455,"et":456,"Ġvanilla":457,"Ġsh":458,"gh":459,"wn":460,"Ġchicken":461,"Ġso":462,"Ġth":463,"Ġj":464,"Ġinto":465,"Ġgre":466,"Ġat":467,"Ġgr":468,"up":469,"owder":470,"Ġpowder":471,"Ġsauce":472,"Ġmar":473,"Ġle":474,".)":475,"th":476,"ry":477,"Ġover":478,"ure":479,"ĠBake":480,"ly":481,"Ġwh":482,"ĠR":483,"oup":484,"read":485,"ast":486,"Ġcook":487,"Ġbrown":488,"nd":489,"Ġoil":490,"eat":491,"ie":492,"atoes":493,"ay":494,"ĠCh":495,"Ġsoup":496,"ate":497,"Ġr":498,"les":499,"Ġpan":500,"uts":501,"ture":502,"Ġtom":503,"ush":504,"ack":505,"garine":506,"Ġmixture":507,"ĠMix":508,"Ġmargarine":509,"Ġco":510,"col":511,"ound":512,"ĠD":513,"50":514,"ab":515,"ur":516,"mon":517,"ans":518,"orn":519,"Ġsp":520,"ĠW":521,"ien":522,"Ġgreen":523,"Ġre":524,"Ġlb":525,"da":526,"inch":527,"st":528,"Ġlar":529,"ip":530,"redien":531,"igh":532,"ingredien":533,"Ġingredien":534,"Ġingredients":535,"Ġsoda":536,"ef":537,"im":538,"oil":539,"Ġlarge":540,"ĠSp":541,"Ġgar":542,"Ġwell":543,"Ġ350":544,"Ġju":545,"Ġadd":546,"Ġse":547,"qu":548,"Ġjuice":549,"heat":550,"Ġgarlic":551,"ery":552,"rain":553,"Ġcorn":554,"id":555,"Ġfro":556,"ĠSt":557,"ves":558,"ish":559,"ĠI":560,"Ġsm":561,"Ġground":562,"kg":563,"Ġpkg":564,"umb":565,"ight":566,"Ġslic":567,"ĠF":568,"inn":569,"room":570,"res":571,"ten":572,"ven":573,"elery":574,"Ġpot":575,"Ġcelery":576,"ĠPour":577,"ole":578,"Ġall":579,"ust":580,"ther":581,"omb":582,"ated":583,"Ġpie":584,"ted":585,"Ġy":586,"ool":587,"Ġonions":588,"amon":589,"ushroom":590,"Ġcup":591,"ombine":592,"innamon":593,"if":594,"Ġnuts":595,"Ġ6":596,"Ġbeef":597,"Ġcinnamon":598,"Ġmushroom":599,"Ġlemon":600,"Ġhour":601,"ass":602,"pple":603,"colate":604,"Ġboil":605,"ĠCook":606,"ace":607,"ces":608,"ain":609,"ap":610,"ĠStir":611,"Ġ8":612,"Ġcrumb":613,"edi":614,"Ġtop":615,"ĠL":616,"lace":617,"ers":618,"old":619,"Ġstir":620,"ars":621,"age":622,"Ġoven":623,"Ġbeat":624,"Ġbl":625,"Ġwhit":626,"Ġsour":627,"Ġsmall":628,"Ġ5":629,"Ġheat":630,"gether":631,"owl":632,"edium":633,"Ġtogether":634,"ger":635,"me":636,"ink":637,"ach":638,"Ġbowl":639,"Ġbread":640,"Ġpotatoes":641,"Ġmedium":642,"ove":643,"Ġx":644,"Ġchocolate":645,"op":646,"Ġcoc":647,"ĠH":648,"rink":649,"Ġtomato":650,"ough":651,"arm":652,"Ġmel":653,"Ġdrain":654,"ĠCombine":655,"Ġtomatoes":656,"Ġ10":657,"oon":658,"Ġrem":659,"Ġcon":660,"ash":661,"out":662,"rinkle":663,"ĠIn":664,"ĠG":665,"asser":666,"apple":667,"asserole":668,"ineapple":669,"Ġcrumbs":670,"ased":671,"ood":672,"ard":673,"ff":674,"Ġcake":675,"Ġcar":676,"Ġdish":677,"ring":678,"Ġ9":679,"inegar":680,"ber":681,"akes":682,"Ġpec":683,"Ġsliced":684,"edd":685,"Ġvinegar":686,"Ġrice":687,"eddar":688,"Ġdry":689,"Ġser":690,"Ġpineapple":691,"over":692,"Ġbeans":693,"em":694,"zen":695,"ies":696,"get":697,"Ġshor":698,"ded":699,"Ġhot":700,"Ġro":701,"eget":702,"ise":703,"Ġgrated":704,"egetab":705,"ely":706,"tening":707,"ire":708,"ĠPlace":709,"Ġshortening":710,"ĠCheddar":711,"ins":712,"ag":713,"Ġmeat":714,"aste":715,"Ġab":716,"Ġpecans":717,"ll":718,"sh":719,"Ġmelted":720,"Ġcl":721,"we":722,"ĠWh":723,"Ġis":724,"Ġcut":725,"ĠSer":726,"ub":727,"Ġwhite":728,"oa":729,"Ġvegetab":730,"Ġmay":731,"Ġremain":732,"ips":733,"Ġabout":734,"ving":735,"tion":736,"ries":737,"ĠCool":738,"ant":739,"art":740,"weet":741,"Ġcrack":742,"Ġra":743,"Ġchips":744,"Ġ30":745,"Ġremaining":746,"Ġfrom":747,"na":748,"Ġlight":749,"Ġred":750,"Ġal":751,"Ġk":752,"Ġfrozen":753,"mer":754,"uff":755,"ott":756,"Ġcooked":757,"ley":758,"Ġgreased":759,"resh":760,"ore":761,"av":762,"ĠSprinkle":763,"Ġhal":764,"ason":765,"Ġas":766,"ustard":767,"os":768,"arsley":769,"ange":770,"Ġparsley":771,"ccol":772,"ccoli":773,"Ġstick":774,"ĠCover":775,"ey":776,"Ġex":777,"Ġcarro":778,"Ġthen":779,"Ġsl":780,"ul":781,"Ġchil":782,"ĠBeat":783,"Ġapp":784,"Ġfresh":785,"ide":786,"acon":787,"Ġmustard":788,"onna":789,"onnaise":790,"Ġshred":791,"Ġmayonnaise":792,"end":793,"Ġserving":794,"Ġsk":795,"ep":796,"ress":797,"Ġ15":798,"Ġbacon":799,"Ġhours":800,"Ġshredded":801,"ender":802,"Ġmushrooms":803,"Ġdrained":804,"Ġbeaten":805,"riger":806,"are":807,"uit":808,"onut":809,"Ġham":810,"Ġroll":811,"Ġboiling":812,"Ġseason":813,"Ġtaste":814,"li":815,"Ġpap":816,"emove":817,"let":818,"ĠRemove":819,"ĠPut":820,"udd":821,"Ġeach":822,"ks":823,"udding":824,"Ġoli":825,"Ġ13":826,"iced":827,"tt":828,"Ġbroth":829,"Ġ12":830,"Ġbroccoli":831,"Ġcarrots":832,"Ġnut":833,"Ġrais":834,"Ġcool":835,"ĠBro":836,"Ġcoconut":837,"Ġfir":838,"Ġ20":839,"reas":840,"Ġsof":841,"Ġgra":842,"ayer":843,"Ġdiced":844,"Ġraisins":845,"immer":846,"ĠCream":847,"Ġcrush":848,"nuts":849,"armes":850,"armesan":851,"iz":852,"ĠO":853,"Ġcrushed":854,"Ġcasserole":855,"Ġpieces":856,"Ġapples":857,"Ġbake":858,"ĠCake":859,"meg":860,"Ġnutmeg":861,"Ġcover":862,"ĠParmesan":863,"Ġtender":864,"Ġslices":865,"stant":866,"ĠWor":867,"oodles":868,"Ġhalf":869,"anan":870,"ĠSpread":871,"shire":872,"cester":873,"iss":874,"cestershire":875,"ec":876,"ent":877,"Ġpudding":878,"ĠMakes":879,"pping":880,"Ġnoodles":881,"isc":882,"ĠServe":883,"Ġole":884,"ĠWorcestershire":885,").":886,"Ġoleo":887,"raw":888,"Ġstirring":889,"Ġpl":890,"Ġcans":891,"Ġpean":892,"avor":893,"Ġshell":894,"ime":895,"Ġorange":896,"Ġbott":897,"ĠCut":898,"ĠWhip":899,"milk":900,"Ġblack":901,"berries":902,"Ġan":903,"urn":904,"est":905,"Ġshe":906,"ork":907,"ĠSal":908,"Ġchili":909,"Ġpowdered":910,"Ġcher":911,"yr":912,"illet":913,"Ġpeppers":914,"yrup":915,"ally":916,"ute":917,"oves":918,"ds":919,"Ġbuttermilk":920,"Ġseasoning":921,"ps":922,"Ġbo":923,"Ġsyrup":924,"Ġref":925,"chin":926,"Ġvegetable":927,"Ġpour":928,"ĠChicken":929,"Ġcloves":930,"berry":931,"usage":932,"ĠE":933,"ats":934,"one":935,"Ġcocoa":936,"tr":937,"Ġwhi":938,"ue":939,"Ġhe":940,"Ġcold":941,"ĠCasserole":942,"Ġsqu":943,"ĠHeat":944,"ĠCr":945,"Ġbanan":946,"oll":947,"Ġset":948,"allow":949,"Ġskillet":950,"ĠBrown":951,"Ġwal":952,"Ġdough":953,"Ġsweet":954,"ĠPre":955,"Ġcrust":956,"Ġli":957,"ano":958,"ave":959,"ĠJ":960,"Ġrefriger":961,"ĠDrain":962,"Ġup":963,"Ġcrackers":964,"pan":965,"Ġcub":966,"Ġlow":967,"ĠLet":968,"Ġcups":969,"ĠK":970,"arch":971,"ĠTop":972,"Ġpack":973,"Ġout":974,"Ġit":975,"Ġstraw":976,"Ġpre":977,"Ġsausage":978,"Ġsalad":979,"ressing":980,"Ġbox":981,"Ġcookie":982,"starch":983,"Ġseed":984,"Ġcooking":985,"Ġsheet":986,"Ġwalnuts":987,"Ġcornstarch":988,"ĠBl":989,"ump":990,"Ġ45":991,"Ġwhole":992,"zz":993,"Ġbottom":994,"75":995,"gano":996,"ĠSa":997,"25":998,"Ġpork":999,"bur":1000,"ried":1001,"Ġare":1002,"ew":1003,"Ġsaucepan":1004,"Ġwarm":1005,"ĠV":1006,"ruit":1007,"Ġlayer":1008,"Ġlea":1009,"tional":1010,"ea":1011,"ightly":1012,"rim":1013,"inger":1014,"Ġus":1015,"act":1016,"Ġore":1017,"atter":1018,"Ġoregano":1019,"ka":1020,"Ġalmon":1021,"Ġvegetables":1022,"urp":1023,"ooth":1024,"reasts":1025,"ucchin":1026,"Ġfill":1027,"ucchini":1028,"Ġjell":1029,"ced":1030,"Ġbananas":1031,"Ġextr":1032,"Ġpeanut":1033,"Ġbell":1034,"ose":1035,"Ġsimmer":1036,"Ġlightly":1037,"oni":1038,"Ġsmooth":1039,"fore":1040,"ately":1041,"Ġbefore":1042,"Ġthin":1043,"optional":1044,"rika":1045,"Ġextract":1046,"Ġbreasts":1047,"tened":1048,"Ġminced":1049,"Ġflavor":1050,"ess":1051,"Ġ375":1052,"Ġcracker":1053,"Ġpaprika":1054,"burger":1055,"Ġaside":1056,"Ġdressing":1057,"ĠTh":1058,"Ġtab":1059,"Ġnot":1060,"ĠSalad":1061,"abb":1062,"ĠRoll":1063,"Ġwhites":1064,"ian":1065,"eed":1066,"abbage":1067,"ĠPe":1068,"poon":1069,"lespoon":1070,"Ġtablespoon":1071,"urpose":1072,"cc":1073,"Ġginger":1074,"ĠChe":1075,"Ġone":1076,"Ġyol":1077,"oth":1078,"Ġthick":1079,"east":1080,"par":1081,"Ġpeel":1082,"Ġservings":1083,"quart":1084,"ĠPie":1085,"oc":1086,"ĠMel":1087,"purpose":1088,"ift":1089,"mallow":1090,"Ġdone":1091,"Ġyeast":1092,"Ġinstant":1093,"Ġ25":1094,"Ġif":1095,"ĠMelt":1096,"Ġfirst":1097,"ella":1098,"ham":1099,"tti":1100,"Ġfin":1101,"Ġfilling":1102,"aghe":1103,"aghetti":1104,"rimp":1105,"Ġball":1106,"arella":1107,"ozz":1108,"ozzarella":1109,"eal":1110,"ĠN":1111,"Ġcombine":1112,"Ġz":1113,"Ġen":1114,"oaf":1115,"kin":1116,"Ġtor":1117,"aked":1118,"Ġtime":1119,"Ġplace":1120,"Ġliqu":1121,"Ġhamburger":1122,"ĠServes":1123,"Ġolive":1124,"Ġwhipped":1125,"gre":1126,"Ġgraham":1127,"ĠY":1128,"ĠIt":1129,"Ġdes":1130,"ellow":1131,"ĠBlend":1132,"Ġtea":1133,"Ġsoy":1134,"ved":1135,"umpkin":1136,"meal":1137,"Ġcabbage":1138,"ĠMozzarella":1139,"Ġsoftened":1140,"issol":1141,"asil":1142,"ree":1143,"ired":1144,"ĠPreheat":1145,"Ġunc":1146,"aw":1147,"Ġdesired":1148,"Ġmarsh":1149,"Ġmarshmallow":1150,"Ġfinely":1151,"Ġyellow":1152,"Ġbatter":1153,"10":1154,"Ġsprinkle":1155,"Ġzucchini":1156,"ĠAnd":1157,"Ġpeas":1158,"Ġclove":1159,"Ġtort":1160,"ne":1161,"Ġpast":1162,"Ġliquid":1163,"acar":1164,"olden":1165,"Ġolives":1166,"Ġwine":1167,"Ġgel":1168,"Ġlet":1169,"Ġjar":1170,"acaroni":1171,"Ġwa":1172,"Ġfruit":1173,"ĠSift":1174,"ĠChill":1175,"ens":1176,"alian":1177,"spoon":1178,"Ġgelat":1179,"Ġcom":1180,"Ġteaspoon":1181,"Ġyolks":1182,"Ġ40":1183,"ex":1184,"ĠSh":1185,"Ġ325":1186,"sweet":1187,"ĠItalian":1188,"Ġbasil":1189,"Ġspaghetti":1190,"ĠBe":1191,"Ġmore":1192,"Ġslightly":1193,"Ġjello":1194,"ize":1195,"ĠBring":1196,"Ġpim":1197,"Ġdash":1198,"ges":1199,"row":1200,"Ġgolden":1201,"Ġother":1202,"Ġcherries":1203,"Ġstand":1204,"Ġshrimp":1205,"Ġtopping":1206,"Ġdo":1207,"oughly":1208,"Ġstrawberries":1209,"Ġflakes":1210,"oroughly":1211,"Ġ400":1212,"Ġloaf":1213,"ce":1214,"ĠCookies":1215,"irec":1216,"Ġoats":1217,"aco":1218,"Ġcont":1219,"Ġdirec":1220,"Ġrolls":1221,"dens":1222,"Ġmarshmallows":1223,"densed":1224,"eep":1225,"Ġsoft":1226,"Ġput":1227,"Ġfirm":1228,"Ġlett":1229,"Ġspread":1230,"Ġcondensed":1231,"Ġfloured":1232,"night":1233,"Ġ7":1234,"Ġthoroughly":1235,"Ġmacaroni":1236,"Ġpaper":1237,"Ġlettuce":1238,"els":1239,"iscuit":1240,"Ġby":1241,"ĠPot":1242,"Ġstuff":1243,"Ġfat":1244,"Ġgelatin":1245,"ifted":1246,"Ġovernight":1247,"ĠU":1248,"Ġqu":1249,"icrow":1250,"ĠBread":1251,"Ġlon":1252,"ĠFold":1253,"ite":1254,"ept":1255,"rop":1256,"ator":1257,"ually":1258,"Ġoff":1259,"isco":1260,"pe":1261,"ile":1262,"16":1263,"Ġmixing":1264,"Ġalmonds":1265,"icrowave":1266,"Ġserve":1267,"Ġbag":1268,"Ġpumpkin":1269,"Ġmixed":1270,"'s":1271,"key":1272,"fter":1273,"ĠSpoon":1274,"cept":1275,"Ġtur":1276,"greased":1277,"ee":1278,"Ġsize":1279,"ĠCho":1280,"Ġpans":1281,"ĠCrisco":1282,"Ġblend":1283,"eak":1284,"ower":1285,"ĠSaute":1286,"inach":1287,"dually":1288,"iel":1289,"Ġrefrigerator":1290,"ĠRef":1291,"Ġmake":1292,"ĠCheese":1293,"ended":1294,"Ġstuffing":1295,"tle":1296,"ble":1297,"Ġpaste":1298,"Ġ35":1299,"Ġchill":1300,"ĠRefriger":1301,"Ġdried":1302,"Ġyou":1303,"Ġcubes":1304,"ĠĠ":1305,"Ġmash":1306,"Ġblended":1307,"ĠChocolate":1308,"Ġsifted":1309,"Ġbrowned":1310,"unch":1311,"Ġexcept":1312,"Ġthicken":1313,"Ġballs":1314,"ray":1315,"Ġpeeled":1316,"Ġapple":1317,"Ġtaco":1318,"led":1319,"ĠWhen":1320,"Ġbiscuit":1321,"ĠRice":1322,"Ġfood":1323,"Ġuse":1324,"ento":1325,"Ġonto":1326,"Ġcovered":1327,"Ġcol":1328,"Ġcherry":1329,"Ġconstant":1330,"ĠBoil":1331,"tions":1332,"Ġice":1333,"arb":1334,"Ġtablespoons":1335,"range":1336,"Ġconstantly":1337,"Ġthis":1338,"ĠButter":1339,"Ġpimento":1340,"ke":1341,"ĠRefrigerate":1342,"atmeal":1343,"rease":1344,"ĠBr":1345,"iv":1346,"ĠSimmer":1347,"fec":1348,"Ġsc":1349,"ĠSl":1350,"Ġq":1351,"Ġpotato":1352,"Ġbay":1353,"avy":1354,"Ġqt":1355,"yme":1356,"ature":1357,"cess":1358,"Ġfoil":1359,"Ġleaves":1360,"Ġbou":1361,"Ġinch":1362,"Ġstri":1363,"ade":1364,"ĠYiel":1365,"ened":1366,"Ġthyme":1367,"illon":1368,"fection":1369,"reez":1370,"ĠSw":1371,"Ġsticks":1372,"Ġfry":1373,"Ġbouillon":1374,"Ġwill":1375,"ĠDrop":1376,"cent":1377,"Ġconfection":1378,"Ġspoon":1379,"Ġbuttered":1380,"asses":1381,"Ġcontain":1382,"ucumb":1383,"Ġconfectioners":1384,"Ġri":1385,"ĠGrease":1386,"Ġround":1387,"ooked":1388,"Ġbon":1389,"Ġgl":1390,"ares":1391,"ides":1392,"illas":1393,"Ġpackage":1394,"ican":1395,"Ġcand":1396,"ĠJell":1397,"Ġpeach":1398,"Ġcle":1399,"Ġheavy":1400,"iff":1401,"Ġcolor":1402,"Ġstrips":1403,"ĠLayer":1404,"enter":1405,"ich":1406,"ates":1407,"Ġtortillas":1408,"Ġflavoring":1409,"Ġmo":1410,"Ġspinach":1411,"Ġeven":1412,"Ġsides":1413,"Ġsteak":1414,"oney":1415,"ottage":1416,"tern":1417,"ney":1418,"Ġcenter":1419,"olasses":1420,"nch":1421,"ĠTurn":1422,"Ġhead":1423,"rab":1424,"atsup":1425,"vap":1426,"Ġcucumb":1427,"vapor":1428,"Ġenough":1429,"arp":1430,"oun":1431,"Ġcatsup":1432,"ind":1433,"Ġevapor":1434,"overed":1435,"Ġcottage":1436,"ittle":1437,"yle":1438,"Ġafter":1439,"Ġprepar":1440,"Ġket":1441,"Ġthaw":1442,"ding":1443,"eser":1444,"Ġturkey":1445,"Ġevaporated":1446,"Ġsharp":1447,"Ġmashed":1448,"Ġjust":1449,"Ġdissol":1450,"mi":1451,"Ġkid":1452,"Ġturn":1453,"eta":1454,"Ġrest":1455,"Ġuncovered":1456,"ape":1457,"ently":1458,"Ġfine":1459,"Ġkidney":1460,"Ġsemi":1461,"Ġchops":1462,"Ġvery":1463,"Ġcookies":1464,"Ġchun":1465,"Ġde":1466,"Ġmolasses":1467,"Ġungreased":1468,"nish":1469,"ĠSwiss":1470,"Ġtart":1471,"Ġprepared":1472,"ets":1473,"erry":1474,"elve":1475,"se":1476,"Ġevenly":1477,"Ġsquash":1478,"ings":1479,"12":1480,"ices":1481,"Ġstal":1482,"Ġleaf":1483,"Ġchilies":1484,"Ġdates":1485,"own":1486,"Ġside":1487,"Ġmuff":1488,"ĠGra":1489,"Ġcontainer":1490,"ĠVelve":1491,"Ġthawed":1492,"ĠThen":1493,"its":1494,"ĠSet":1495,"Ġlay":1496,"Ġcubed":1497,"Ġminute":1498,"Ġcran":1499,"Ġwax":1500,"Ġap":1501,"spice":1502,"Ġslice":1503,"Ġhoney":1504,"uffy":1505,"Ġmixer":1506,"Ġremove":1507,"per":1508,"Ġroast":1509,"Ġpastry":1510,"ld":1511,"Ġbre":1512,"Ġspeed":1513,"Ġdirections":1514,"Ġlittle":1515,"ĠSoup":1516,"Ġallspice":1517,"Ġpacked":1518,"ĠDip":1519,"Ġacc":1520,"Ġpick":1521,"Ġslow":1522,"ition":1523,"ording":1524,"Ġsepar":1525,"izz":1526,"asion":1527,"ccasion":1528,"Ġoccasion":1529,"ĠVelveeta":1530,"ous":1531,"Ġfluffy":1532,"Ġstrawberry":1533,"Ġbut":1534,"Ġoccasionally":1535,"Ġpt":1536,"Ġsquares":1537,"Ġaccording":1538,"Ġgran":1539,"lower":1540,"ĠRed":1541,"rench":1542,"Ġcur":1543,"Ġoatmeal":1544,"ubb":1545,"uck":1546,"Ġaltern":1547,"Ġstiff":1548,"Ġlayers":1549,"ount":1550,"ss":1551,"ĠGr":1552,"Ġ50":1553,"Ġ16":1554,"Ġaddition":1555,"Ġtem":1556,"Ġlime":1557,"Ġpeaches":1558,"ser":1559,"Ġpo":1560,"chup":1561,"Ġrefrigerate":1562,"ĠDo":1563,"Ġwhipping":1564,"ĠPress":1565,"umin":1566,"Ġplain":1567,"Ġwhen":1568,"Ġbr":1569,"ame":1570,"Ġtemper":1571,"Ġalmond":1572,"Ġdou":1573,"Ġfork":1574,"Ġchest":1575,"Ġhalves":1576,"rox":1577,"ĠFrench":1578,"ful":1579,"Ġketchup":1580,"ĠAr":1581,"Ġclean":1582,"Ġtemperature":1583,"Ġchestnuts":1584,"Ġcrab":1585,"Ġtub":1586,"Ġform":1587,"Ġtw":1588,"ock":1589,"Ġtartar":1590,"roxim":1591,"oss":1592,"Ġbiscuits":1593,"Ġthr":1594,"ern":1595,"ton":1596,"Ġhand":1597,"Ġbeating":1598,"rap":1599,"Ġbubb":1600,"ĠCar":1601,"Ġthrough":1602,"ĠCorn":1603,"roximately":1604,"Ġpeanuts":1605,"Ġreser":1606,"Ġdown":1607,"Ġdill":1608,"isp":1609,"arin":1610,"izza":1611,"ĠRo":1612,"erb":1613,"erm":1614,"ĠWith":1615,"ĠMake":1616,"und":1617,"Ġcrisp":1618,"other":1619,"ase":1620,"about":1621,"Ġcro":1622,"Ġbring":1623,"Ġspray":1624,"Ġlonger":1625,"ext":1626,"edges":1627,"ĠPotato":1628,"Ġcres":1629,"Ġpasta":1630,"Ġbaked":1631,"Ġmelt":1632,"issolve":1633,"ĠDissolve":1634,"Ġthinly":1635,"og":1636,"quick":1637,"sa":1638,"Ġyour":1639,"anges":1640,"enne":1641,"Ġpinch":1642,"ĠGradually":1643,"15":1644,"arbec":1645,"Ġcrescent":1646,"Ġfreez":1647,"Ġcreamed":1648,"ulated":1649,"Ġcoars":1650,"Ġsec":1651,"Ġcrumbled":1652,"Ġdozen":1653,"Ġrind":1654,"Ġcomes":1655,"Ġwhile":1656,"Ġuncooked":1657,"Ġshells":1658,"ull":1659,"auce":1660,"Ġmeal":1661,"Ġstalks":1662,"Ġlean":1663,"ud":1664,"Ġoranges":1665,"Ġsaute":1666,"ĠBis":1667,"ĠTo":1668,"Ġgranulated":1669,"ĠArrange":1670,"fl":1671,"Ġspices":1672,"Ġplate":1673,"ĠApple":1674,"ĠYields":1675,"Ġleast":1676,"aul":1677,"Ġblue":1678,"ayenne":1679,"Ġcann":1680,"ĠSlice":1681,"Ġcomp":1682,"ĠBisquick":1683,"Ġam":1684,"arts":1685,"Ġhard":1686,"Ġunb":1687,"Ġcayenne":1688,"Ġcucumbers":1689,"Ġtube":1690,"Ġrack":1691,"iflower":1692,"auliflower":1693,"ark":1694,"Ġcoat":1695,"Ġmuffin":1696,"ffee":1697,"Ġseasoned":1698,"ail":1699,"Ġar":1700,"ĠFor":1701,"Ġthickened":1702,"pare":1703,"ereal":1704,"eless":1705,"una":1706,"Ġanother":1707,"co":1708,"Ġmicrowave":1709,"bread":1710,"ist":1711,"Ġstew":1712,"Ġrise":1713,"Ġcomplet":1714,"ĠSe":1715,"Ġwaf":1716,"Ġdouble":1717,"Ġkern":1718,"Ġslowly":1719,"Ġcereal":1720,"ĠCo":1721,"risp":1722,"ĠChop":1723,"Ġcoloring":1724,"ĠReduce":1725,"Ġcarrot":1726,"ome":1727,"ined":1728,"fat":1729,"Ġchuck":1730,"Ġhigh":1731,"ider":1732,"alls":1733,"arbecue":1734,"Ġcompletely":1735,"Ġapproximately":1736,"Ġdissolved":1737,"Qu":1738,"Ġglass":1739,"Ġgrease":1740,"Ġboneless":1741,"ĠGar":1742,"Ġchunks":1743,"Ġalternately":1744,"Ġseasonings":1745,"ĠBroccoli":1746,"ipe":1747,"merican":1748,"Ġthem":1749,"pl":1750,"Ġlong":1751,"ĠShape":1752,"Ġskin":1753,"ular":1754,"Ġpin":1755,"rocess":1756,"ĠFl":1757,"Ġrec":1758,"ng":1759,"ĠQu":1760,"Ġdri":1761,"asag":1762,"ĠIf":1763,"ĠAmerican":1764,"Ġapplesauce":1765,"ready":1766,"Ġbreast":1767,"Ġcanned":1768,"Ġfew":1769,"Ġnon":1770,"ivid":1771,"ck":1772,"sweetened":1773,"inue":1774,"Ġcider":1775,"Ġblender":1776,"Ġripe":1777,"ied":1778,"Ġsquare":1779,"Ġcumin":1780,"Ġ24":1781,"Ġcauliflower":1782,"ĠLe":1783,"Ġshallow":1784,"ary":1785,"Ġday":1786,"Ġamount":1787,"less":1788,"Ġ300":1789,"ĠMicrowave":1790,"asco":1791,"Ġneed":1792,"vel":1793,"ĠTab":1794,"Ġquick":1795,"Ġtwo":1796,"Ġkernel":1797,"ĠBaked":1798,"asy":1799,"Ġcurry":1800,"ĠSc":1801,"Ġthat":1802,"ĠBeef":1803,"veral":1804,"Ġbubbly":1805,"Ġunsweetened":1806,"ĠFill":1807,"ĠTabasco":1808,"Ġend":1809,"Ġboth":1810,"Ġlast":1811,"ĠHigh":1812,"ĠSto":1813,"sc":1814,"Ġcaram":1815,"Ġsherry":1816,"kra":1817,"Ġseveral":1818,"Ġcornmeal":1819,"gular":1820,"Ġready":1821,"Ġhash":1822,"style":1823,"arter":1824,"Ġnext":1825,"bs":1826,"ĠSqu":1827,"ric":1828,"Ġtoss":1829,"ĠPrepare":1830,"Ġsalsa":1831,"ĠZ":1832,"ĠFry":1833,"Ġtortilla":1834,"Ġhas":1835,"ild":1836,"ĠPepper":1837,"ĠUse":1838,"ĠSeason":1839,"Ġwheat":1840,"udge":1841,"Ġcooled":1842,"ĠThis":1843,"Ġunbaked":1844,"Ġtoast":1845,"Ġroom":1846,"ĠSauce":1847,"Ġflaked":1848,"Ġgradually":1849,"ricot":1850,"Ġpress":1851,"vy":1852,"Ġraw":1853,"Ġtow":1854,"otch":1855,"ĠGre":1856,"ilad":1857,"Ġpart":1858,"ppy":1859,"elf":1860,"Ġwafers":1861,"14":1862,"ugar":1863,"ĠSweet":1864,"alap":1865,"ĠFruit":1866,"Ġkn":1867,"Ġpat":1868,"alapen":1869,"Ġherb":1870,"lish":1871,"ĠMeat":1872,"Ġpecan":1873,"anut":1874,"Ġcarton":1875,"anana":1876,"sting":1877,"Ġfold":1878,"ig":1879,"aschin":1880,"aschino":1881,"Ġgently":1882,"Ġjars":1883,"nead":1884,"ĠFro":1885,"isk":1886,"az":1887,"ĠSo":1888,"ĠDel":1889,"Ġim":1890,"ĠCon":1891,"Ġ425":1892,"Ġcranberries":1893,"Ġusing":1894,"Ġmaraschino":1895,"Ġtuna":1896,"Ġprocess":1897,"ĠPeanut":1898,"ĠGarnish":1899,"Ġonce":1900,"Ġlike":1901,"Ġstock":1902,"ĠUn":1903,"ĠBre":1904,"Ġfish":1905,"ĠBanana":1906,"ĠMon":1907,"Ġbeen":1908,"Ġcreamy":1909,"ini":1910,"lec":1911,"so":1912,"Ġ60":1913,"medi":1914,"ife":1915,"scotch":1916,"mediately":1917,"Ġdirected":1918,"ĠToss":1919,"Ġblueberries":1920,"urt":1921,"ising":1922,"Ġany":1923,"rained":1924,"asagna":1925,"tz":1926,"spar":1927,"ĠOn":1928,"Ġkeep":1929,"Ġfirmly":1930,"ĠRep":1931,"plant":1932,"ogurt":1933,"ia":1934,"Ġcandy":1935,"Ġjelly":1936,"uted":1937,"gain":1938,"Tel":1939,"ĠJack":1940,"Ġknife":1941,"Ġcandied":1942,"Ġdark":1943,"astic":1944,"Ġgood":1945,"Ġjalapen":1946,"fuls":1947,"Ġagain":1948,"Ġsecon":1949,"Ġquarter":1950,"Ġbits":1951,"ĠHam":1952,"ĠPotatoes":1953,"tric":1954,"rising":1955,"ĠMex":1956,"lectric":1957,"ĠEasy":1958,"heated":1959,"ĠSalt":1960,"Ġdeep":1961,"Ġhave":1962,"ĠPeel":1963,"Ġfull":1964,"ĠCan":1965,"Ġyogurt":1966,"Ġmini":1967,"ong":1968,"ĠTake":1969,"Ġapricot":1970,"oke":1971,"Ġelectric":1972,"ran":1973,"Ġbars":1974,"Ġregular":1975,"ĠRepeat":1976,"andarin":1977,"Ġsalmon":1978,"pick":1979,"Ġself":1980,"itos":1981,"itz":1982,"ting":1983,"Ġdip":1984,"bl":1985,"ĠBreak":1986,"tail":1987,"ation":1988,"Ġund":1989,"Ġsweetened":1990,"Ġbite":1991,"Ġchi":1992,"eas":1993,"esame":1994,"ould":1995,"icott":1996,"Ġlen":1997,"ivided":1998,"Ġtooth":1999,"Ġmarin":2000,"Ġrings":2001,"Ġgravy":2002,"Ġbarbecue":2003,"Ġpizza":2004,"ams":2005,"Ġtoothpick":2006,"Ġscall":2007,"anch":2008,"meat":2009,"Ġapart":2010,"ĠEgg":2011,"Ġadditional":2012,"Ġaround":2013,"ppings":2014,"Ġdivided":2015,"Ġseal":2016,"Ġcoffee":2017,"velop":2018,"Ġseparate":2019,"Ġdrippings":2020,"Ġcoarsely":2021,"ett":2022,"reser":2023,"ĠZucchini":2024,"Ġwire":2025,"ĠThe":2026,"ĠAl":2027,"Ġdi":2028,"Ġpreheated":2029,"Ġbottle":2030,"Ġheated":2031,"Ġmois":2032,"Ġav":2033,"ĠPudding":2034,"Ġenvelop":2035,"Ġedges":2036,"ĠRitz":2037,"Ġbutterscotch":2038,"Ġplastic":2039,"ĠVegetab":2040,"Ġinser":2041,"ĠStuff":2042,"ĠDiv":2043,"Ġgarnish":2044,".\\":2045,"ĠPumpkin":2046,"Ġbanana":2047,"Ġfried":2048,"ĠLine":2049,"inse":2050,"ok":2051,"Ġplus":2052,"fer":2053,"Ġpound":2054,"ĠPound":2055,"Ġspice":2056,"Ġrasp":2057,"ive":2058,"ĠYield":2059,"Ġsesame":2060,"ĠHot":2061,"Ġmelts":2062,"ĠBars":2063,"very":2064,"Ġneeded":2065,"ĠMexican":2066,"Ġsugars":2067,"stit":2068,"Ġboiled":2069,"Ġused":2070,"Ġimmediately":2071,"Ġsome":2072,"Ġbrowns":2073,"ĠWash":2074,"not":2075,"Ġpimentos":2076,"ĠSugar":2077,"Ġbet":2078,"Ġcock":2079,"Ġcocktail":2080,"Ġcornbread":2081,"avorite":2082,"'t":2083,"agus":2084,"Ġdegre":2085,"sparagus":2086,"ĠStore":2087,"Ġinserted":2088,"Ġbunch":2089,"ang":2090,"reme":2091,"Ġrolled":2092,"Ġtoasted":2093,"Ġsub":2094,"ors":2095,"Ġsheets":2096,"Ġeggplant":2097,"uk":2098,"Ġmold":2099,"ling":2100,"Ġpretz":2101,"ĠLemon":2102,"wise":2103,"oul":2104,"corn":2105,"iver":2106,"terey":2107,"Ġfrying":2108,"Ġmandarin":2109,"ocad":2110,"lets":2111,"cake":2112,"Ġchives":2113,"Ġcranberry":2114,"nut":2115,"ert":2116,"Ġflat":2117,"balls":2118,"Ġinches":2119,"iluted":2120,"eturn":2121,"Ġadding":2122,"Ġtoo":2123,"amp":2124,"ĠStraw":2125,"ĠReturn":2126,"ĠBrand":2127,"ĠFudge":2128,"Ġsubstit":2129,"imes":2130,"Ġjalapeno":2131,"Ġ11":2132,"Ġboiler":2133,"Ġremo":2134,"zzle":2135,"rops":2136,"Ġsalted":2137,"Ġchilled":2138,"rispies":2139,"icotta":2140,"Ġback":2141,"oin":2142,"ĠMonterey":2143,"Ġevery":2144,"Ġ-":2145,"Ġgrap":2146,"utch":2147,"Ġuns":2148,"iento":2149,"Ġbean":2150,"Ġ450":2151,"ĠNut":2152,"ĠBeans":2153,"Ġavocad":2154,"ĠKar":2155,"Ġpimiento":2156,"essert":2157,"wh":2158,"Ġ18":2159,"Ġseeds":2160,"undt":2161,"Ġsliver":2162,"ener":2163,"Ġ14":2164,"ĠCoc":2165,"acle":2166,"iracle":2167,"for":2168,"agle":2169,"Ġper":2170,"ĠMin":2171,"),":2172,"ĠRolls":2173,"Ġsage":2174,"Ġreserved":2175,"ĠKaro":2176,"ĠRicotta":2177,"ĠFreez":2178,"Ġcons":2179,"Ġdegrees":2180,"Ġyolk":2181,"Ġel":2182,"ĠStrawberry":2183,"Ġpoppy":2184,"ĠMay":2185,"ĠDutch":2186,"ĠKeep":2187,"ĠKrispies":2188,"ĠMiracle":2189,"ons":2190,"ĠCont":2191,"ost":2192,"ollow":2193,"Ġfrosting":2194,"cooked":2195,"Ġbeg":2196,"ĠEagle":2197,"stick":2198,"ĠVegetable":2199,"Ġbroil":2200,"ĠMuff":2201,"ully":2202,"Ġhor":2203,"ĠQuick":2204,"oaves":2205,"Ġfreshly":2206,"ewarm":2207,"Ġcoated":2208,"ĠYou":2209,"ukewarm":2210,"ions":2211,"Ġtightly":2212,"20":2213,"Ġpepperoni":2214,"Ġmors":2215,"ici":2216,"Ġsoups":2217,"ĠSour":2218,"Ġchop":2219,"Ġrecipe":2220,"gth":2221,"pot":2222,"Ġmorsels":2223,"Ġlukewarm":2224,"Ġlength":2225,"ĠBundt":2226,"Ġseparated":2227,"ĠBrush":2228,"adish":2229,"Ġrefrigerated":2230,"erman":2231,"hub":2232,"Ġwaxed":2233,"hubarb":2234,"ear":2235,"Ġturning":2236,"tra":2237,"ĠCrumb":2238,"Ġcucumber":2239,"Ġreduce":2240,"ĠBean":2241,"seradish":2242,"ken":2243,"Ġsur":2244,"ĠLoaf":2245,"ĠEng":2246,"erries":2247,"Ġfreezer":2248,"Ġtimes":2249,"Ġgrain":2250,"Ġthey":2251,"ems":2252,"Ġchunk":2253,"ĠMuffins":2254,"Ġslivered":2255,"ili":2256,"bon":2257,"Ġlasagna":2258,"flavor":2259,"Ġenvelope":2260,"Ġhorseradish":2261,"Ġwrap":2262,"ĠPizza":2263,"ĠWrap":2264,"Ġfreeze":2265,"ized":2266,"Ġflavored":2267,"ĠPec":2268,"ĠGerman":2269,"Ġcrabmeat":2270,"uns":2271,"ĠShrimp":2272,"bow":2273,"inner":2274,"ft":2275,"aking":2276,"Ġale":2277,"meric":2278,"ĠOre":2279,"Ġcrock":2280,"Ġcheddar":2281,"ĠAll":2282,"ĠChili":2283,"uer":2284,"Ġloaves":2285,"Ġpretzels":2286,"Ġwedges":2287,"Ġlim":2288,"ort":2289,"Ġonly":2290,"Ġasparagus":2291,"ĠAfter":2292,"ĠDream":2293,"lit":2294,"ĠOatmeal":2295,"Ġsurf":2296,"oy":2297,"Ġbroken":2298,"Ġturmeric":2299,"Ġberries":2300,"ĠPork":2301,"Ġextra":2302,"ĠDivide":2303,"kraut":2304,"uerkraut":2305,"Ġshould":2306,"flavored":2307,"Ġweed":2308,"ĠPam":2309,"ters":2310,"ots":2311,"Ġshape":2312,"Ġgrapes":2313,"rate":2314,"Ġcomb":2315,"easure":2316,"Ġsurface":2317,"Ġconcent":2318,"Ġsubstitute":2319,"ĠUnc":2320,"ĠEnglish":2321,"Ġpinto":2322,"Ġpiece":2323,"ĠGreen":2324,"Ġdrops":2325,"Ġno":2326,"wich":2327,"ĠForm":2328,"gs":2329,"Ġelbow":2330,"inches":2331,"ĠWhile":2332,"ante":2333,"ĠContinue":2334,"andy":2335,"Ġwhich":2336,"ĠDor":2337,"ĠSpray":2338,"Ġcontinue":2339,"esson":2340,"can":2341,"ĠRanch":2342,"Ġrum":2343,"Ġbar":2344,"irt":2345,"ĠTom":2346,"usts":2347,"Ġtops":2348,"Ġskinless":2349,"ĠPat":2350,"Ġcaramel":2351,"No":2352,"icante":2353,"uring":2354,"Ġoften":2355,"Ġcoarse":2356,"utons":2357,"Ġminiature":2358,"try":2359,"Ġstewed":2360,"ĠPecan":2361,"andwich":2362,"ĠWesson":2363,"Ġboard":2364,"ĠStew":2365,"Ġpar":2366,"Ġskim":2367,"Ġconcentrate":2368,"Ġpure":2369,"aze":2370,"oultry":2371,"Ġlengthwise":2372,"Ġcrusts":2373,"ĠCarro":2374,"ĠCrumble":2375,"Ġmoistened":2376,"Ġorder":2377,"Ġboxes":2378,"gel":2379,"aping":2380,"Ġthickens":2381,"Ġcroutons":2382,"Ġcornfl":2383,"ys":2384,"Ġpoultry":2385,"icious":2386,"Ġfavorite":2387,"Ġexcess":2388,"Ġalso":2389,"ĠDoritos":2390,"cy":2391,"ĠPineapple":2392,"ola":2393,"ĠOld":2394,"Ġtowel":2395,"ness":2396,"Ġlid":2397,"Ġribs":2398,"ĠDi":2399,"Ġpit":2400,"reserves":2401,"Ġhalved":2402,"ĠSausage":2403,"alor":2404,"Ġadded":2405,"Ġcaramels":2406,"ĠChip":2407,"idd":2408,"Ġfre":2409,"ĠKnead":2410,"Ġmoder":2411,"Ġpickle":2412,"oles":2413,"ĠSpaghetti":2414,"Ġboned":2415,"int":2416,"Ġseconds":2417,"Ġteaspoons":2418,"Ġop":2419,"edge":2420,"ĠRa":2421,"Ġ55":2422,"Ġpicante":2423,"Ġros":2424,"ĠBlue":2425,"ible":2426,"eri":2427,"Ġfrequ":2428,"isten":2429,"Ġfryer":2430,"Ġscallions":2431,"Ġfrequently":2432,"ilada":2433,"Ġpatt":2434,"boil":2435,"Ġpreserves":2436,"ĠMarin":2437,"qual":2438,"Ġac":2439,"Ġsauerkraut":2440,"Ġcor":2441,"ĠPunch":2442,"ĠOr":2443,"most":2444,"Ġangel":2445,"Ġcube":2446,"Ġquart":2447,"rag":2448,"ashion":2449,"emary":2450,"ĠSquash":2451,"Ġfil":2452,"Ġstill":2453,"Ġpickles":2454,"Ġart":2455,"Ġnonstick":2456,"Ġstems":2457,"inned":2458,"way":2459,"Ġsn":2460,"ĠPast":2461,"Ġmade":2462,"Ġrhubarb":2463,"ween":2464,"ragon":2465,"arragon":2466,"Ġquartered":2467,"Ġraspberry":2468,"ĠFreeze":2469,"ĠTur":2470,"do":2471,"ĠDri":2472,"Ġrosemary":2473,"air":2474,"ez":2475,"Ġdays":2476,"ĠFarm":2477,"ĠDessert":2478,"Ġbetween":2479,"rans":2480,"ĠTaco":2481,"Ġalmost":2482,"ĠCherry":2483,"ĠNo":2484,"iny":2485,"Ġstyle":2486,"irl":2487,"Ġpink":2488,"ering":2489,"ines":2490,"ĠOrange":2491,"Ġlima":2492,"eam":2493,"high":2494,"Ġtarragon":2495,"Ġserved":2496,"ĠPick":2497,"ĠMash":2498,"ĠBrownies":2499,"bell":2500,"Ġwhisk":2501,"Ġhands":2502,"ĠStuffed":2503,"Ġedge":2504,"Ġmoderate":2505,"Ġmild":2506,"ĠCoconut":2507,"hey":2508,"Ġheaping":2509,"Ġundrained":2510,"efully":2511,"Ġmuffins":2512,"egg":2513,"Ġskinned":2514,"Ġclear":2515,"boiled":2516,"Ġfollow":2517,"ein":2518,"Ġbul":2519,"Ġchees":2520,"ĠLightly":2521,"ĠMinute":2522,"Ġchiles":2523,"Ġunflavored":2524,"Ġprocessor":2525,"jor":2526,"Ġfour":2527,"Ġchoice":2528,"Ġallow":2529,"ĠSteak":2530,"Ġcutting":2531,"ĠDrizzle":2532,"eringue":2533,"Ġcheeses":2534,"tover":2535,"ously":2536,"Ġcombined":2537,"ma":2538,"Ġcrumbly":2539,"istency":2540,"ĠCamp":2541,"ĠPet":2542,"ĠTater":2543,"ĠAng":2544,"ĠIce":2545,"Ġplatter":2546,"Ġmeatballs":2547,"ĠSpinach":2548,"Ġknead":2549,"Ġdissolve":2550,"idge":2551,"ĠCheez":2552,"Ġwash":2553,"Ġmarjor":2554,"ershey":2555,"ĠWhiz":2556,"Ġconsistency":2557,"Ġclams":2558,"Ġrect":2559,"alted":2560,"Ġmarjoram":2561,"ĠCran":2562,"ĠCrush":2563,"Ġbreak":2564,"Ġwood":2565,"ĠCabbage":2566,"Ġending":2567,"Ġbroiler":2568,"ĠDot":2569,"Ġbone":2570,"ĠApp":2571,"ĠMars":2572,"ĠFresh":2573,"Ġcornflakes":2574,"Ġ250":2575,"Ġflower":2576,"ĠHershey":2577,"Ġsmoke":2578,"Ġreserving":2579,"eg":2580,"ean":2581,"ially":2582,"Ġpop":2583,"Ġgal":2584,"ĠDressing":2585,"Ġench":2586,"Ġokra":2587,"ĠBalls":2588,"antro":2589,"fry":2590,"ilantro":2591,"isin":2592,"olid":2593,"routs":2594,"Ġne":2595,"ĠCampbell":2596,"Ġteaspoonfuls":2597,"ĠPepperidge":2598,"ĠCranberry":2599,"ĠFrost":2600,"Ġsq":2601,"ĠCl":2602,"ĠSlow":2603,"ĠSquares":2604,"Ġfillets":2605,"ĠAngel":2606,"cl":2607,"Ġsure":2608,"Ġwhip":2609,"Ġjam":2610,"Ġmarinade":2611,"inese":2612,"Ġlemonade":2613,"Ġfo":2614,"ingers":2615,"ĠRoast":2616,"tc":2617,"Ġpr":2618,"ĠSup":2619,"Ġstove":2620,"Ġtowels":2621,"app":2622,"Ġwee":2623,"Ġreal":2624,"ĠCaram":2625,"ĠSk":2626,"Ġnonfat":2627,"ĠSoak":2628,"Ġrolling":2629,"Ġrefried":2630,"Ġwooden":2631,"Ġcilantro":2632,"Ġpeak":2633,"peel":2634,"fish":2635,"Ġcutter":2636,"Ġwide":2637,"ĠRinse":2638,"aby":2639,"epar":2640,"Ġpatties":2641,"Ġ\\":2642,"Ġsprouts":2643,"Ġmayo":2644,"cakes":2645,"Ġoys":2646,"ĠMushroom":2647,"Ġic":2648,"ĠChinese":2649,"Ġunsalted":2650,"13":2651,"Ġcap":2652,"Ġbuns":2653,"ĠBiscuit":2654,"ating":2655,"eez":2656,"Ġpuree":2657,"Ġglaze":2658,"Ġfoam":2659,"Ġoun":2660,"ĠCrab":2661,"cessary":2662,"ettuc":2663,"Ġnecessary":2664,"Ġdrop":2665,"Ġartich":2666,"fast":2667,"ransfer":2668,"Ġicing":2669,"amb":2670,"head":2671,"Ġremoving":2672,"peeled":2673,"Ġ*":2674,"Ġrelish":2675,"ĠBest":2676,"ĠReser":2677,"Ġforms":2678,"ĠPasta":2679,"ĠSlowly":2680,"size":2681,"ĠSepar":2682,"Ġjuices":2683,"Ġcrumble":2684,"ĠDelicious":2685,"Ġavocado":2686,"ĠCaramel":2687,"ftover":2688,"ĠTurkey":2689,"Ġenchilada":2690,"Ġcalor":2691,"Ġdon":2692,"Ġunder":2693,"Ġbulk":2694,"Ġlemons":2695,"uminum":2696,"Ġgelatine":2697,"no":2698,"Ġlined":2699,"oodle":2700,"als":2701,"ĠAcc":2702,"jon":2703,"Ġpickling":2704,"Ġleftover":2705,"Ġaluminum":2706,"joy":2707,"Ġsecond":2708,"ĠOreo":2709,"ĠAllow":2710,"Ġpul":2711,"ĠCup":2712,"blong":2713,"ĠReserve":2714,"Ġless":2715,"ĠTomato":2716,"Ġpeaks":2717,"Ġoblong":2718,"ĠRe":2719,"Ġbran":2720,"Ġsift":2721,"Ġundiluted":2722,"ĠAccent":2723,"ĠGood":2724,"burg":2725,"Ġrounded":2726,"Ġ'":2727,"Ġrinse":2728,"ĠHamburger":2729,"ĠSeparate":2730,"cr":2731,"anish":2732,"ĠGreat":2733,"ashioned":2734,"free":2735,"Ġtap":2736,"atch":2737,"ĠDelight":2738,"ĠUncover":2739,"iscard":2740,"ĠPeach":2741,"cook":2742,"ph":2743,"Ġdinner":2744,"Ġmint":2745,"Ġshake":2746,"ĠUs":2747,"Ġquickly":2748,"aff":2749,"Ġbaby":2750,"Ġseeded":2751,"Ġstalk":2752,"Ġarrange":2753,"ĠOnion":2754,"Ġpitted":2755,"ears":2756,"hmallow":2757,"Ġmoist":2758,"Ġret":2759,"Ġtes":2760,"Ġpears":2761,"Ġthree":2762,"Ġthickness":2763,"Ġreserve":2764,"side":2765,"Ġsandwich":2766,"Ġtins":2767,"ĠCoat":2768,"ĠDijon":2769,"ĠBlueberry":2770,"Ġwalnut":2771,"Ġquarts":2772,"Ġsame":2773,"ĠCrisp":2774,"Ġkettle":2775,"ĠRaisin":2776,"ĠBarbecue":2777,"bler":2778,"Ġind":2779,"Ġairt":2780,"ĠDump":2781,"Ġairtight":2782,"Ġsing":2783,"ĠChr":2784,"Ġpulp":2785,"Ġwor":2786,"iche":2787,"arty":2788,"while":2789,"Ġmeringue":2790,"able":2791,"away":2792,"ĠMarshmallow":2793,"Ġflowerets":2794,"Ġpartially":2795,"allop":2796,"Ġequal":2797,"Ġhearts":2798,"Ġbegins":2799,"ĠMacaroni":2800,"use":2801,"ĠFried":2802,"od":2803,"orb":2804,"ĠGl":2805,"ĠUsing":2806,"Ġreturn":2807,"Ġsingle":2808,"Ġpor":2809,"oop":2810,"aple":2811,"outh":2812,"Ġpopcorn":2813,"ĠBiscuits":2814,"ĠCarrot":2815,"ecor":2816,"Ġ&":2817,"eaten":2818,"ĠNext":2819,"Ġetc":2820,"Ġspring":2821,"Ġscal":2822,"af":2823,"ere":2824,"ann":2825,"Ġtake":2826,"ingu":2827,"Ġwild":2828,"Ġabs":2829,"Ġsprayed":2830,"ah":2831,"uch":2832,"ĠBran":2833,"Ġsprink":2834,"Ġblueberry":2835,"Ġapricots":2836,"ĠBreakfast":2837,"oked":2838,"ĠSm":2839,"ĠScallop":2840,"hew":2841,"ĠGently":2842,"Ġwithout":2843,"oca":2844,"Ġprun":2845,"Ġahead":2846,"Ġholes":2847,"Ġcaraway":2848,"ĠIm":2849,"ften":2850,"Ġabsorb":2851,"ioca":2852,"any":2853,"Ġcorned":2854,"ĠOven":2855,"ecipe":2856,"Ġpunch":2857,"Ġget":2858,"ĠSpanish":2859,"lings":2860,"Ġloo":2861,"Ġbec":2862,"ĠCreamy":2863,"ĠSn":2864,"Ġmeats":2865,"ĠSupreme":2866,"ĠTransfer":2867,"Ġseedless":2868,"ossible":2869,"Ġcas":2870,"Ġstore":2871,"ĠBroil":2872,"11":2873,"Ġstage":2874,"Ġleaving":2875,"cup":2876,"ouch":2877,"thing":2878,"Ġremainder":2879,"Ġbags":2880,"Ġbones":2881,"ĠGrand":2882,"ĠSoften":2883,"Ġfudge":2884,"unchy":2885,"Ġalong":2886,"ĠStove":2887,"Ġtapioca":2888,"Ġmakes":2889,"Ġchunky":2890,"Ġtri":2891,"icy":2892,"ĠPh":2893,"uced":2894,"iddle":2895,"eanwhile":2896,"vil":2897,"Ġavocados":2898,"Ġwings":2899,"Ġhom":2900,"Ġhamburg":2901,"ĠFrosting":2902,"Ġrectang":2903,"Ġfoamy":2904,"bbler":2905,"yre":2906,"Ġrins":2907,"ĠLow":2908,"ĠCornbread":2909,"Ġremoved":2910,"yrex":2911,"ipped":2912,"Ġsun":2913,"Ġgrill":2914,"ĠLasagna":2915,"Ġsweetener":2916,"ĠRecipe":2917,"ĠDe":2918,"mas":2919,"ĠMeanwhile":2920,"irc":2921,"Ġsteam":2922,"ĠRom":2923,"ĠFr":2924,"Ġweeks":2925,"ĠCro":2926,"ĠWhite":2927,"Ġbrush":2928,"Ġmeasure":2929,"Ġfettuc":2930,"ĠEnch":2931,"Ġsteaks":2932,"Ġquarters":2933,"ĠTw":2934,"ĠLay":2935,"isket":2936,"All":2937,"Ġduring":2938,"Ġrinsed":2939,"ander":2940,"ĠDish":2941,"Ġspoonfuls":2942,"ual":2943,"Ġunpeeled":2944,"Ġvegg":2945,"Ġraspberries":2946,"ĠAltern":2947,"Ġmiddle":2948,"Ġcirc":2949,"Ġsplit":2950,"ial":2951,"ath":2952,"ĠWill":2953,"Ġrot":2954,"Ġparts":2955,"ĠCoffee":2956,"ĠChops":2957,"Ġcalories":2958,"Ġmaple":2959,"ĠPyrex":2960,"Ġdoub":2961,"ĠChrist":2962,"Ġbest":2963,"Ġgener":2964,"cho":2965,"ĠCobbler":2966,"ĠPickles":2967,"ĠPack":2968,"Ġsmoked":2969,"ĠBlack":2970,"Ġreduced":2971,"ĠSplit":2972,"bits":2973,"dish":2974,"Ġ\"":2975,"Ġprunes":2976,"Ġbeer":2977,"Ġcarefully":2978,"ĠJello":2979,"Ġscalded":2980,"Ġinst":2981,"aker":2982,"Ġspri":2983,"Ġbetter":2984,"Ġroasting":2985,"Ġcored":2986,"Ser":2987,"ĠKra":2988,"Ġherbs":2989,"ĠSeal":2990,"ĠOne":2991,"affin":2992,"ĠCreme":2993,"ĠTuna":2994,"ĠMeasure":2995,"Ġparaffin":2996,"ĠTex":2997,"ĠJust":2998,"ĠShake":2999,"Ġgrape":3000,"ier":3001,"Ġveggies":3002,"mb":3003,"ĠPan":3004,"of":3005,"rye":3006,"ĠPr":3007,"ird":3008,"Ġcashew":3009,"ĠChristmas":3010,"Ġwant":3011,"Ġveal":3012,"Ġbrandy":3013,"ops":3014,"Ġpopped":3015,"add":3016,"Ġrye":3017,"ĠPro":3018,"ĠTort":3019,"Ġeverything":3020,"Ġlingu":3021,"uncooked":3022,"Ġbeets":3023,"Ġmaking":3024,"elph":3025,"Ġgi":3026,"iladelph":3027,"iladelphia":3028,"Ġgerm":3029,"ison":3030,"Ġfrost":3031,"emade":3032,"ages":3033,"undiluted":3034,"Ġsqueez":3035,"Ġprefer":3036,"flower":3037,"ury":3038,"ĠStyle":3039,"ĠQuiche":3040,"ĠPhiladelphia":3041,"28":3042,"Ġtorn":3043,"undrained":3044,"Ġends":3045,"approximately":3046,"ai":3047,"ily":3048,"enison":3049,"Ġdep":3050,"ĠEn":3051,"ĠFlat":3052,"Ġindivid":3053,"Ġdoubled":3054,"mel":3055,"Ġhold":3056,"ady":3057,"Ġdel":3058,"ĠBur":3059,"Ġstart":3060,"ĠDough":3061,"with":3062,"Ġtwice":3063,"irloin":3064,"Ġburn":3065,"orets":3066,"Ġbubbles":3067,"Ġmarinate":3068,"ĠApples":3069,"ty":3070,"Ġbig":3071,"ross":3072,"Ġlard":3073,"Ġcontainers":3074,"ĠFlatten":3075,"Ġtouch":3076,"Ġpuff":3077,"Ġact":3078,"mix":3079,"save":3080,"Ġgreens":3081,"ĠMeatballs":3082,"by":3083,"etiz":3084,"idbits":3085,"ĠCinnamon":3086,"Ġsauteed":3087,"boned":3088,"sm":3089,"Ġflorets":3090,"ĠScalloped":3091,"bury":3092,"Ġspears":3093,"Ġdrizzle":3094,"Ġunsifted":3095,"Ġartichoke":3096,"unt":3097,"ĠOf":3098,"Ġsunflower":3099,"ĠKraft":3100,"aj":3101,"ĠTrim":3102,"Ġreach":3103,"Ġwashed":3104,"aster":3105,"Ġ36":3106,"ĠMar":3107,"acho":3108,"Ġdeboned":3109,"Ġcoating":3110,"Ġactive":3111,"Ġtidbits":3112,"Ġsave":3113,"Ġoverb":3114,"ĠChowder":3115,"ula":3116,"ĠCrust":3117,"Ġoysters":3118,"bo":3119,"Ġmein":3120,"roof":3121,"ĠParty":3122,"Ġpreven":3123,"reserve":3124,"Ġmeas":3125,"ĠTots":3126,"iron":3127,"ĠRomano":3128,"Ġsirloin":3129,"ople":3130,"Ġits":3131,"ountry":3132,"ĠOver":3133,"ĠChex":3134,"Ġcakes":3135,"ĠCrack":3136,"Ġwafer":3137,"Ch":3138,"asily":3139,"Ġdiscard":3140,"Ġgrits":3141,"Ġring":3142,"Ġrese":3143,"ĠSalmon":3144,"Ġpounds":3145,"bone":3146,"Ġtin":3147,"Ġopen":3148,"Ġcustard":3149,"ĠCol":3150,"Ġpeppercorn":3151,"Ġbrisket":3152,"Ġflatten":3153,"Ġprevent":3154,"Ġinside":3155,"Ġeasily":3156,"Ġbeater":3157,"ĠHash":3158,"ĠVeg":3159,"ĠMarinate":3160,"Ġtrim":3161,"Ġbit":3162,"tender":3163,"Ġscallops":3164,"Serves":3165,"oe":3166,"ĠCandy":3167,"Ġgall":3168,"Ġleave":3169,"Ġpared":3170,"Ġmuch":3171,"Ġflake":3172,"Ġverm":3173,"Ġsoak":3174,"oppy":3175,"ths":3176,"Ġrun":3177,"ĠGrill":3178,"Ġsprigs":3179,"esy":3180,"ĠCheesecake":3181,"ĠLeave":3182,"small":3183,"roll":3184,"ĠCal":3185,"efore":3186,"umbo":3187,"erbet":3188,"Ġindividual":3189,"med":3190,"Ġtbsp":3191,"Ġthan":3192,"Ġloos":3193,"ĠTexas":3194,"uncan":3195,"Ġold":3196,"Ġdot":3197,"Ġlump":3198,"redge":3199,"ĠHom":3200,"Ġunbeaten":3201,"ills":3202,"ipton":3203,"Ġradish":3204,"Ġmost":3205,"Ġabsorbed":3206,"uss":3207,"elli":3208,"Ġoiled":3209,"ĠWal":3210,"crumb":3211,"nation":3212,"Ġwork":3213,"thy":3214,"Ġspat":3215,"ffle":3216,"ĠThaw":3217,"cut":3218,"Ġsit":3219,"Ġeat":3220,"Ġpear":3221,"Ġpeople":3222,"ĠMilk":3223,"ĠCheesy":3224,"may":3225,"ĠLipton":3226,"ĠVal":3227,"ium":3228,"Ġline":3229,"Ġsections":3230,"Fat":3231,"ank":3232,"ĠDon":3233,"Ġgiven":3234,"Ġlevel":3235,"ĠDice":3236,"agon":3237,"Ġfruits":3238,"ecorate":3239,"Ġspatula":3240,"ourbon":3241,"ĠDate":3242,"Ġkind":3243,"ending":3244,"Ġpoint":3245,"ĠFlour":3246,"airy":3247,"Ġpeppercorns":3248,"io":3249,"Ġlook":3250,"Ġshap":3251,"ĠCarnation":3252,"ĠToast":3253,"Ġfollowing":3254,"Ġrep":3255,"Ġliver":3256,"Ġcolored":3257,"ĠCrock":3258,"ĠSouth":3259,"umm":3260,"Ġboils":3261,"ĠVanilla":3262,"areri":3263,"Ġway":3264,"ĠBefore":3265,"Ġcrunchy":3266,"ĠDuncan":3267,"asagne":3268,"ĠEnjoy":3269,"fresh":3270,"ĠSave":3271,"vert":3272,"ĠRel":3273,"ĠGolden":3274,"ĠCrunch":3275,"iladas":3276,"low":3277,"geal":3278,"clu":3279,"zo":3280,"Ġsherbet":3281,"Ġcooker":3282,"orning":3283,"illsbury":3284,"ĠRelish":3285,"Ġsolid":3286,"Ġbrownie":3287,"ĠFavorite":3288,"rawfish":3289,"Ġdessert":3290,"ĠEggs":3291,"Ġounce":3292,"Ġcashews":3293,"areribs":3294,"Ġpossible":3295,"ĠCakes":3296,"Ġdairy":3297,"ĠHoney":3298,"Ġskins":3299,"iffy":3300,"Ġpints":3301,"Ġpimientos":3302,"Ġsnipped":3303,"Ġmeasuring":3304,"Ġdissolves":3305,"ĠGrate":3306,"Ġoptional":3307,"Ġtriang":3308,"ĠValley":3309,"ĠMold":3310,"Ġ17":3311,"Ġpower":3312,"Ġshall":3313,"except":3314,"Ġradishes":3315,"Ġnear":3316,"Ġcutlets":3317,"Ġsoften":3318,"ĠGarlic":3319,"lined":3320,"ules":3321,"Ġ+":3322,"arge":3323,"Ġwet":3324,"ity":3325,"Ġsaltine":3326,"Ġpint":3327,"Ġchow":3328,"Ġaway":3329,"ĠHines":3330,"Ġgranules":3331,"ĠSkillet":3332,"ĠGrandma":3333,"ents":3334,"Ġlite":3335,"ĠBen":3336,"ĠPillsbury":3337,"tils":3338,"ĠStro":3339,"ĠCookie":3340,"ĠGinger":3341,"Ġalum":3342,"ĠUncle":3343,"idden":3344,"ĠAlternate":3345,"fro":3346,"Ġstarts":3347,"ĠWheat":3348,"ĠHidden":3349,"Ġalternating":3350,"Ġconsom":3351,"oliday":3352,"proof":3353,"Ġ275":3354,"ĠBall":3355,"Ġcanola":3356,"Ġthese":3357,"asting":3358,"ĠButtermilk":3359,"Ġrectangle":3360,"Ġtenderl":3361,"ĠShred":3362,"ĠCarrots":3363,"Ġpers":3364,"Ġyams":3365,"Ġdoz":3366,"Ġroasted":3367,"icelli":3368,"ĠBatter":3369,"Ġdiagon":3370,"mal":3371,"Ġpull":3372,"atur":3373,"Ġblending":3374,"mbles":3375,"Ġconsomme":3376,"Makes":3377,"gin":3378,"Ġpancake":3379,"Ġflavors":3380,"Ġresembles":3381,"ĠCre":3382,"inning":3383,"ĠNoodle":3384,"ĠMarinated":3385,"ect":3386,"Ġdeve":3387,"Ġcleaned":3388,"Ġcross":3389,"Ġhominy":3390,"Ġgallon":3391,"crumbs":3392,"enn":3393,"ĠJiffy":3394,"Ġlentils":3395,"Ġmace":3396,"Ġtherm":3397,"urple":3398,"ĠNor":3399,"Ġtests":3400,"ĠFritos":3401,"Ġent":3402,"Ġdump":3403,"oli":3404,"ght":3405,"isses":3406,"Ġhandle":3407,"Ġoverbake":3408,"cluding":3409,"Up":3410,"Ġmon":3411,"ory":3412,"ĠMom":3413,"Ġstiffly":3414,"ometer":3415,"Ġthermometer":3416,"Ġ32":3417,"Ġloin":3418,"ĠPuff":3419,"Ġscrap":3420,"Ġracks":3421,"ĠOreos":3422,"ĠAn":3423,"ellini":3424,"ganoff":3425,"ĠMushrooms":3426,"ib":3427,"Ġsized":3428,"Ġbasting":3429,"Ġwra":3430,"Ġfit":3431,"Ġmarmal":3432,"ĠSlaw":3433,"Ġmarmalade":3434,"St":3435,"Ġfully":3436,"ami":3437,"Ġcooling":3438,"ĠPeg":3439,"Ġstuffed":3440,"ĠTea":3441,"Ġvenison":3442,"Ġounces":3443,"18":3444,"ci":3445,"ĠSeed":3446,"Ġstring":3447,"Ġfinish":3448,"azed":3449,"Ġjalapenos":3450,"Ġlinguine":3451,"sugar":3452,"tal":3453,"ĠSandwich":3454,"Ġrounds":3455,"ĠLayered":3456,"Ġdipped":3457,"Ġsprinkled":3458,"17":3459,"ead":3460,"mint":3461,"oz":3462,"Ġbourbon":3463,"Ġpurple":3464,"ĠDinner":3465,"Ġbreadcrumbs":3466,"21":3467,"32":3468,"Ġiron":3469,"istach":3470,"alf":3471,"ouffle":3472,"Ġvermicelli":3473,"Ġentire":3474,"land":3475,"obs":3476,"Ġtray":3477,"Ġfran":3478,"Ġstack":3479,"Ġplac":3480,"Ġscoop":3481,"ina":3482,"Ġster":3483,"aki":3484,"isted":3485,"Ġovercook":3486,"Ġcloth":3487,"ĠNew":3488,"Ġdoes":3489,"ajun":3490,"ĠStroganoff":3491,"Ġown":3492,"Ġmorning":3493,"ĠShe":3494,"Ġcapers":3495,"vol":3496,"eness":3497,"Ġgreat":3498,"ĠLon":3499,"Ġblanch":3500,"agu":3501,"vings":3502,"Ġprepare":3503,"Ġportions":3504,"ĠEnchiladas":3505,"ĠApplesauce":3506,"Ġshallots":3507,"dry":3508,"Ġtran":3509,"ĠProcess":3510,"ĠHeath":3511,"Ġpacket":3512,"Ġpods":3513,"arbecu":3514,"ĠEggplant":3515,"Ġtranspar":3516,"ĠBar":3517,"ĠBacon":3518,"ĠPl":3519,"Ġroaster":3520,"igor":3521,"ĠHomemade":3522,"Ġtransparent":3523,"ua":3524,"Ġfive":3525,"amen":3526,"Ġdust":3527,"Ġvigor":3528,"ĠFrozen":3529,"Ġreaches":3530,"Ġpies":3531,"ĠRub":3532,"ĠHerb":3533,"Ġhalfway":3534,"ecial":3535,"Ġcome":3536,"Ġenvelopes":3537,"ĠTear":3538,"eyed":3539,"ĠVery":3540,"ĠCarefully":3541,"Ġparty":3542,"Ġrepeat":3543,"volone":3544,"Th":3545,"Ġmozzarella":3546,"Ġwok":3547,"ĠIr":3548,"Ġshort":3549,"awai":3550,"ĠFlake":3551,"Ġvigorously":3552,");":3553,"ĠCom":3554,"Ġlisted":3555,"ĠStart":3556,"ĠHawai":3557,"Ġdishes":3558,"Ġdogs":3559,"istachio":3560,"eur":3561,"Ġparmesan":3562,"lean":3563,"ures":3564,"ĠImmediately":3565,"ĠHawaiian":3566,"Ġtiny":3567,"ĠRamen":3568,"ouple":3569,"ĠWhisk":3570,"ĠWork":3571,"Ġcandies":3572,"butter":3573,"just":3574,"mar":3575,"Ġgo":3576,"ĠAp":3577,"etic":3578,"ĠRagu":3579,"Ġplum":3580,"Ġcircle":3581,"Ġnacho":3582,"ĠMixture":3583,"Ġacross":3584,"Ġblanched":3585,"arbecued":3586,"sized":3587,"amily":3588,"ĠGrind":3589,"If":3590,"Ġsw":3591,"ouse":3592,"Ġfire":3593,"Ġeasy":3594,"Ġbrownies":3595,"ĠFish":3596,"Ġshelled":3597,"Ġalternate":3598,"fe":3599,"large":3600,"Ġ100":3601,"ĠCajun":3602,"ĠSea":3603,"ĠLower":3604,"ĠAlmon":3605,"Ġdoneness":3606,"ĠProvolone":3607,"Ġdeveined":3608,"don":3609,"lua":3610,"yaki":3611,"Ġfingers":3612,"Ġdice":3613,"ĠHave":3614,"ahlua":3615,"Ġbecom":3616,"ĠCracker":3617,"ĠColby":3618,"Ġcouple":3619,"Ġpeppermint":3620,"Ġliqueur":3621,"Pot":3622,"Ġcrawfish":3623,"ouble":3624,"Ġnew":3625,"Ġlee":3626,"ĠSpicy":3627,"thern":3628,"Ġteaspoonful":3629,"ĠTomatoes":3630,"Ġsnow":3631,"Ġloosely":3632,"bas":3633,"mold":3634,"tin":3635,"ĠPer":3636,"Ġspareribs":3637,"Ġbowls":3638,"Ġbeginning":3639,"nox":3640,"itch":3641,"Ġenjoy":3642,"ĠBrittle":3643,"ĠKeeps":3644,"Ġinstead":3645,"Ġdepending":3646,"cine":3647,"box":3648,"Ġshapes":3649,"Ġcrosswise":3650,"Le":3651,"inal":3652,"Ġpro":3653,"rape":3654,"ĠOil":3655,"ĠKnox":3656,"okes":3657,"Ġbunches":3658,"ĠDumplings":3659,"Ġscraping":3660,"ĠIrish":3661,"Ġbecomes":3662,"ĠLime":3663,"Ġdashes":3664,"white":3665,"Ġbegin":3666,"Ġoyster":3667,"Ġleftovers":3668,"ĠSouthern":3669,"Ġtenderloin":3670,"Ġwon":3671,"irds":3672,"ghorn":3673,"ĠHe":3674,"Ġroma":3675,"Ġanise":3676,"Ġbrand":3677,"eriyaki":3678,"Microwave":3679,"atin":3680,"ĠPoppy":3681,"ĠAt":3682,"ĠMed":3683,"liced":3684,"ĠPretz":3685,"Ġcaps":3686,"ĠCreole":3687,"ĠTri":3688,"Ġhole":3689,"Ġnoodle":3690,"ĠFeta":3691,"Ġclam":3692,"Ġsticking":3693,"Ġpackets":3694,"Ġdebone":3695,"iginal":3696,"Ġty":3697,"amole":3698,"Ġgu":3699,"ĠBarbecued":3700,"ĠHoliday":3701,"Ġabove":3702,"ielbas":3703,"ĠGround":3704,"ĠPancakes":3705,"Ġsalami":3706,"Ġlater":3707,"acci":3708,"acamole":3709,"ĠPinch":3710,"rid":3711,"ĠSteam":3712,"Ġslicing":3713,"ĠUps":3714,"Ġtrimmed":3715,"Ġromaine":3716,"be":3717,"hy":3718,"tures":3719,"ale":3720,"ĠCur":3721,"rants":3722,"ĠNorthern":3723,"ĠApricot":3724,"Ġtight":3725,"Ġbur":3726,"Ġman":3727,"ĠAs":3728,"Ġmixtures":3729,"ĠPeppers":3730,"Ġgenerously":3731,"Ġsteril":3732,"mann":3733,"Ġlog":3734,"heese":3735,"Ġsticky":3736,"Ġbottles":3737,"Ġfrypan":3738,"Ġcurrants":3739,"Ġtriangles":3740,"Ġdiagonally":3741,"atural":3742,"Ġsterilized":3743,"medium":3744,"Ġbase":3745,"Ġlamb":3746,"abetic":3747,"Ġzest":3748,"Ġflavorings":3749,"bro":3750,"iander":3751,"ald":3752,"ither":3753,"immon":3754,"ĠBurg":3755,"ĠAlmond":3756,"fur":3757,"kfur":3758,"more":3759,"rise":3760,"upper":3761,"uice":3762,"ĠAunt":3763,"ĠFin":3764,"ached":3765,"ĠHell":3766,"ĠNe":3767,"Ġcolander":3768,"Ġmoisten":3769,"Ġrotini":3770,"etizer":3771,"ĠSeaf":3772,"ielbasa":3773,"ĠUpside":3774,"!)":3775,"Ġass":3776,"Ġtail":3777,"ari":3778,"ĠAsparagus":3779,"Ġnight":3780,"ĠWater":3781,"ĠFood":3782,"ĠFashioned":3783,"Ġroot":3784,"ĠEx":3785,"Ġportion":3786,"ummy":3787,"Add":3788,"dium":3789,"ĠCountry":3790,"ĠMo":3791,"Ġthigh":3792,"Ġseaf":3793,"Ġtoothpicks":3794,"Ġseafood":3795,"ron":3796,"Ġsix":3797,"ĠBreasts":3798,"Ġ48":3799,"Ġchickens":3800,"Ġcore":3801,"ĠEqual":3802,"ĠButterscotch":3803,"Ġdevil":3804,"iblets":3805,"Ġfollows":3806,"ĠDeep":3807,"ĠOri":3808,"ĠKahlua":3809,"ĠAlso":3810,"Ġcoriander":3811,"Ġartichokes":3812,"itchen":3813,"mp":3814,"ruc":3815,"ĠCustard":3816,"aters":3817,"ĠDredge":3818,"ĠDouble":3819,"ĠIs":3820,"ĠRefrigerator":3821,"ousse":3822,"ĠFreezes":3823,"round":3824,"ored":3825,"ĠBay":3826,"Ġsmaller":3827,"Ġcongeal":3828,"Lemon":3829,"Ġpressing":3830,"ond":3831,"Ġstrain":3832,"ĠRhubarb":3833,"Ġlower":3834,"Ġspreading":3835,"Ġseparately":3836,"ĠFilling":3837,"Ġstarting":3838,"ĠLonghorn":3839,"iw":3840,"Ġoat":3841,"Ġdro":3842,"Ġstem":3843,"Ġbrowning":3844,"ĠDur":3845,"ĠScald":3846,"ĠSeafood":3847,"30":3848,"mmer":3849,"ance":3850,"orted":3851,"Ġsummer":3852,"ĠIc":3853,"ĠNoodles":3854,"ĠWalnut":3855,"ban":3856,"kee":3857,"uds":3858,"Ġpea":3859,"ĠBaste":3860,"Ġnatural":3861,"Ġpackages":3862,"Ġsimmering":3863,"Ġscant":3864,"ounts":3865,"icotti":3866,"Ġpretzel":3867,"Ġfrankfur":3868,"ple":3869,"ĠRea":3870,"ĠDecorate":3871,"ĠJo":3872,"Ġdipping":3873,"ĠVegetables":3874,"ĠStuffing":3875,"form":3876,"Ġhen":3877,"Ġthird":3878,"Ġlarger":3879,"ivide":3880,"ĠScr":3881,"Ġgenerous":3882,"Ġdumplings":3883,"ĠSurp":3884,"ĠWatch":3885,"ĠServings":3886,"angular":3887,"ĠMolasses":3888,"umps":3889,"ĠHun":3890,"safe":3891,"eeze":3892,"ĠGlaze":3893,"chopped":3894,"iwi":3895,"ĠDurkee":3896,"Ġbath":3897,"ico":3898,"Ġincluding":3899,"ĠSouffle":3900,"ĠDirt":3901,"ĠStick":3902,"ĠStrain":3903,"ĠShoe":3904,"ĠFluff":3905,"ĠScoop":3906,"Ġsqueezed":3907,"Ġtype":3908,"Ġthighs":3909,"ĠIcing":3910,"djust":3911,"rs":3912,"wy":3913,"ĠAb":3914,"ĠMandarin":3915,"eful":3916,"ĠLa":3917,"Ġtablespoonfuls":3918,"Ġcurd":3919,"Ġamounts":3920,"Ġrectangular":3921,"Ġsandwiches":3922,"ĠSurprise":3923,"Ġchip":3924,"Ġtopped":3925,"ĠBaking":3926,"Ġcovering":3927,"ĠThese":3928,"Ġcrispy":3929,"ĠUnmold":3930,"Ġcombin":3931,"Ġlivers":3932,"This":3933,"Ġcuts":3934,"Ġpistachio":3935,"Ġleft":3936,"ĠSpice":3937,"Ġstrip":3938,"Ġspoonful":3939,"ameter":3940,"crisp":3941,"ned":3942,"pid":3943,"ux":3944,"erd":3945,"edish":3946,"Ġdivide":3947,"ornia":3948,"efruit":3949,"ifornia":3950,"ĠLast":3951,"Ġrapid":3952,"Ġbubbling":3953,"Ġdiameter":3954,"Down":3955,"ĠCucumb":3956,"ĠSec":3957,"ĠPol":3958,"ĠPea":3959,"Ġoriginal":3960,"ushy":3961,"Ġcracked":3962,"ĠCheeri":3963,"Ġtortellini":3964,"Ġ70":3965,"anny":3966,"ara":3967,"ĠClean":3968,"Ġlin":3969,"ddle":3970,"ĠTest":3971,"Ġcareful":3972,"Ġscr":3973,"Ġinstruc":3974,"ĠCauliflower":3975,"Ġgarban":3976,"ĠJam":3977,"ĠBeaters":3978,"Ġright":3979,"Ġpressed":3980,"ĠCalifornia":3981,"ĠPuffs":3982,"ĠCheerios":3983,"!!":3984,"mit":3985,"rec":3986,"Ġlasagne":3987,"unn":3988,"ĠInvert":3989,"ental":3990,"Ġgloss":3991,"ĠSeven":3992,"Ġdelicious":3993,"ridge":3994,"ball":3995,"drained":3996,"ye":3997,"Ġmet":3998,"Ġwish":3999,"Ġflank":4000,"ĠMedium":4001,"ĠShell":4002,"ĠEnchilada":4003,"Ġpine":4004,"enough":4005,"ĠBaker":4006,"ĠPop":4007,"ĠMan":4008,"riddle":4009,"Ġfrothy":4010,"Ġkiwi":4011,"Ġblackberries":4012,"Ġheads":4013,"ĠSqueeze":4014,"meats":4015,"ĠCoca":4016,"ĠSheet":4017,"Ġleeks":4018,"ĠReaLemon":4019,"your":4020,"Ġrich":4021,"ĠSwedish":4022,"half":4023,"pre":4024,"Ġmound":4025,"Ġfinger":4026,"Ġchick":4027,"ĠBowl":4028,"ĠDiscard":4029,"ĠSpecial":4030,"Ġseam":4031,"Ġovenproof":4032,"ĠHouse":4033,"Ġkielbasa":4034,"Ġnutmeats":4035,"ĠNow":4036,"Ġrib":4037,"Ġdeer":4038,"ĠGravy":4039,"ĠSnick":4040,"frozen":4041,"ĠPretzel":4042,"46":4043,"Fry":4044,"pec":4045,"Ġteriyaki":4046,"Ġgone":4047,"ummer":4048,"ĠOp":4049,"Ġancho":4050,"Ġkernels":4051,"ations":4052,"ĠThey":4053,"Ġbarley":4054,"Ġfettuccine":4055,"Ġgarbanzo":4056,"Cola":4057,"hot":4058,"Ġwould":4059,"Ġ28":4060,"Ġrub":4061,"ĠCheck":4062,"Ġsqueeze":4063,"obster":4064,"mpty":4065,"Ġfrankfurters":4066,"Ġ23":4067,"ĠSummer":4068,"Ġlumps":4069,"Ġnect":4070,"ocks":4071,"peas":4072,"bleached":4073,"uxe":4074,"Ġinstructions":4075,"cem":4076,"fingers":4077,"ms":4078,"alt":4079,"Ġfree":4080,"Ġgriddle":4081,"usages":4082,"Ġblock":4083,"Ġbottled":4084,"Ġturns":4085,"Ġchipped":4086,"ĠDivan":4087,"ĠHellmann":4088,"Ġassorted":4089,"ĠAbout":4090,"cemeat":4091,"Bake":4092,"Ġcre":4093,"Ġunbleached":4094,"otted":4095,"umd":4096,"ĠDust":4097,"Ġlbs":4098,"Ġblackberry":4099,"ĠGranny":4100,"plain":4101,"ĠClam":4102,"ĠImp":4103,"ĠDevil":4104,"Ġtails":4105,"Ġdropped":4106,"alia":4107,"ĠCres":4108,"Ġnavy":4109,"Ġslits":4110,"Ġslotted":4111,"iffer":4112,"Ġprocessed":4113,"ĠIcebox":4114,"dough":4115,"rated":4116,"Ġcreme":4117,"Ġ200":4118,"ito":4119,"ĠSalsa":4120,"etty":4121,"Ġgrapefruit":4122,"Ġworks":4123,"cell":4124,"crease":4125,"den":4126,"fle":4127,"la":4128,"Ġomit":4129,"atfish":4130,"Ġdecor":4131,"ĠAu":4132,"irgin":4133,"Ġlayering":4134,"Ġliquids":4135,"ĠQuickly":4136,"Ġbarely":4137,"Can":4138,"Do":4139,"ment":4140,"ta":4141,"Ġfridge":4142,"Ġlink":4143,"Ġlady":4144,"ĠPark":4145,"ĠTot":4146,"ĠMrs":4147,"ably":4148,"Ġcupcake":4149,"Ġsetting":4150,"Ġmoisture":4151,"Ġpuffed":4152,"Ġdamp":4153,"idalia":4154,"ĠFat":4155,"ĠNest":4156,"Ġworcestershire":4157,"etizers":4158,"Ġguacamole":4159,"350":4160,"bb":4161,"Ġbatch":4162,"Ġeither":4163,"ĠWild":4164,"ĠSpiced":4165,"Ġplates":4166,"pany":4167,"ĠGraham":4168,"Ġweek":4169,"Ġsprings":4170,"ĠOriental":4171,"beaten":4172,"Ġtips":4173,"Ġouts":4174,"Ġbark":4175,"Ġfamily":4176,"Ġdist":4177,"Ġsaltines":4178,"ĠPull":4179,"Ġsausages":4180,"ĠDill":4181,"Ġconten":4182,"Ġsection":4183,"ĠUnroll":4184,"ettes":4185,"ĠGlazed":4186,"ĠTorte":4187,"lien":4188,"tich":4189,"Ġbri":4190,"ĠSun":4191,"ĠBetty":4192,"ppers":4193,"iry":4194,"Ġtheir":4195,"Ġsaff":4196,"ĠChow":4197,"Ġjulien":4198,"Ġpectin":4199,"Ġclos":4200,"Ġfilled":4201,"ĠShort":4202,"Ġglasses":4203,"Ġsecure":4204,"ĠTopping":4205,"igs":4206,"Ġbecome":4207,"Ġlumpy":4208,"accioli":4209,"cellent":4210,"fu":4211,"Ġtam":4212,"uty":4213,"Ġ22":4214,"ĠMc":4215,"Ġstr":4216,"ĠRot":4217,"que":4218,"venly":4219,"aps":4220,"ĠKisses":4221,"Ġcontin":4222,"ĠCups":4223,"ĠReady":4224,"Ġrectangles":4225,"Cheese":4226,"aky":4227,"ama":4228,"iskey":4229,"Ġnice":4230,"Ġwarmed":4231,"Ġoutside":4232,"spberry":4233,"amic":4234,"Ġsoaked":4235,"Ġcoals":4236,"ĠFir":4237,"ĠHeal":4238,"Ġcornflake":4239,"ĠImpossible":4240,"Low":4241,"ants":4242,"asic":4243,"itation":4244,"Ġsoon":4245,"ĠKing":4246,"Ġharden":4247,"Ġsubstituted":4248,"utney":4249,"terol":4250,"ĠMustard":4251,"Ġjumbo":4252,"ieve":4253,"dairy":4254,"Ġchile":4255,"season":4256,"Ġcanning":4257,"olesterol":4258,"Ġtill":4259,"Ġmed":4260,"Ġfast":4261,"ĠDay":4262,"ĠLaw":4263,"ĠVidalia":4264,"ĠGrape":4265,"Ġpersimmon":4266,"Ġchickpeas":4267,"ĠNestle":4268,"Ġcountry":4269,"ata":4270,"ickory":4271,"Ġgrate":4272,"aya":4273,"ifici":4274,"ĠThoroughly":4275,"ĠArtich":4276,"ĠTortilla":4277,"ĠX":4278,"rost":4279,"Ġclub":4280,"ĠYum":4281,"Ġmanicotti":4282,"ifferent":4283,"Ġcontents":4284,"Cr":4285,"ky":4286,"Ġtest":4287,"Ġears":4288,"arden":4289,"Ġraisin":4290,"ĠVelvet":4291,"ĠSoda":4292,"Ġartifici":4293,"ĠCucumber":4294,"Ġmetal":4295,"Ġnectar":4296,"ĠLawry":4297,"29":4298,"kes":4299,"ĠBo":4300,"Ġvari":4301,"ĠMu":4302,"Ġpatty":4303,"ĠSandwiches":4304,"tAdd":4305,"whe":4306,"ĠMeringue":4307,"Ġpancakes":4308,"efrost":4309,"ĠKitchen":4310,"ĠQuaker":4311,"ĠMonkey":4312,"soft":4313,"ĠDiabetic":4314,"alsamic":4315,"Ġtouched":4316,"Ġrunn":4317,"Fashioned":4318,"yst":4319,"ala":4320,"Ġflame":4321,"Ġwhiskey":4322,"ĠWings":4323,"ĠFettuc":4324,"ĠGratin":4325,"Ġimitation":4326,"Ġcalorie":4327,"recipe":4328,"Ġladyfingers":4329,"osh":4330,"Ġpurpose":4331,"ĠTime":4332,"Ġcryst":4333,"rib":4334,"ĠInd":4335,"ains":4336,"ĠHunt":4337,"Ġslaw":4338,"Ġcools":4339,"ĠYeast":4340,"ingersn":4341,"ĠGrilled":4342,"Ġartificial":4343,"Free":4344,"Ġfillet":4345,"iti":4346,"oupe":4347,"Ġspir":4348,"Ġspicy":4349,"ĠWarm":4350,"ĠLasagne":4351,"ĠGarden":4352,"ĠSmith":4353,"ĠPral":4354,"ĠPrick":4355,"ussels":4356,"ĠGingerbread":4357,"Ġstrong":4358,"For":4359,"Ġbed":4360,"Ġinvert":4361,"Ġones":4362,"ĠPin":4363,"Ġvirgin":4364,"etter":4365,"aved":4366,"ĠPear":4367,"iah":4368,"ĠSnow":4369,"Ġplaced":4370,"margarine":4371,"umdrops":4372,"ĠParkay":4373,"Bran":4374,"Ups":4375,"mild":4376,"Ġmany":4377,"ĠPowder":4378,"ĠTender":4379,"Ġthere":4380,"ĠJer":4381,"ĠThree":4382,"green":4383,"Ġpressure":4384,"Ġcartons":4385,"ĠDeluxe":4386,"Ġloose":4387,"24":4388,"cream":4389,"cross":4390,"ties":4391,"ug":4392,"Ġcard":4393,"Ġmust":4394,"Ġgumdrops":4395,"ĠPies":4396,"ĠMy":4397,"ĠMini":4398,"Ġsaving":4399,"Ġthirds":4400,"ĠRuss":4401,"ĠFran":4402,"ield":4403,"flour":4404,"Ġmarinated":4405,"oulder":4406,"melon":4407,"ĠIsland":4408,"go":4409,"Ġbalsamic":4410,"ĠCub":4411,"Ġlots":4412,"ĠPap":4413,"illed":4414,"Ġcantal":4415,"Ġshoulder":4416,"Ġgrind":4417,"ĠRing":4418,"ocktail":4419,"Ġhandful":4420,"alorie":4421,"Ġcircles":4422,"unnel":4423,"ĠArtichoke":4424,"uy":4425,"ret":4426,"Ġgets":4427,"Ġflaky":4428,"ĠRich":4429,"Ġ65":4430,"ĠInto":4431,"ards":4432,"eck":4433,"ueur":4434,"Ġnondairy":4435,"Ġimp":4436,"ĠRaspberry":4437,"odka":4438,"Ġtast":4439,"att":4440,"Ġdrink":4441,"Ġdecorate":4442,"Ġlove":4443,"Ġlobster":4444,"Ġhollow":4445,"ĠMary":4446,"ĠCreamed":4447,"iana":4448,"Ġdoor":4449,"arboil":4450,"ĠOnions":4451,"Ġmolds":4452,"Ġchunked":4453,"Ġtester":4454,"Ġfettucine":4455,"Ġliners":4456,"ĠOpen":4457,"Ġcantaloupe":4458,"ls":4459,"orch":4460,"Ġdis":4461,"Ġdredge":4462,"Ġmincemeat":4463,"ĠMil":4464,"ĠMac":4465,"Ġstro":4466,"Ġcooks":4467,"ĠHea":4468,"cloth":4469,"ĠCompany":4470,"ĠNever":4471,"Ġcombination":4472,"ĠCrescent":4473,"ĠHealthy":4474,"Sueur":4475,"baked":4476,"pes":4477,"salt":4478,"Ġberry":4479,"Ġmushy":4480,"ĠCocktail":4481,"Ġsuit":4482,"ĠSar":4483,"ĠPenn":4484,"Ġhickory":4485,"ĠMag":4486,"Ġwithin":4487,"Ġstarch":4488,"Ġoverla":4489,"imm":4490,"Ġkisses":4491,"like":4492,"ĠCrunchy":4493,"ĠKn":4494,"ĠVegg":4495,"Ġtossing":4496,"ĠSoft":4497,"ĠCocoa":4498,"ĠAlternately":4499,"Ġperson":4500,"ĠHearty":4501,"Fried":4502,"loc":4503,"tC":4504,"Ġcit":4505,"onge":4506,"ĠCelery":4507,"Ġlos":4508,"Ġhair":4509,"Ġmixes":4510,"ello":4511,"Ġres":4512,"Ġrump":4513,"ieners":4514,"ĠLight":4515,"ĠSauerkraut":4516,"enster":4517,"Ġtoppings":4518,"Ġglut":4519,"ĠLeSueur":4520,"einz":4521,"cooking":4522,"Ġdoesn":4523,"hyd":4524,"ĠMuenster":4525,"Ġoverlapping":4526,"It":4527,"che":4528,"te":4529,"ured":4530,"Ġbamb":4531,"arian":4532,"icles":4533,"itters":4534,"Ġequ":4535,"ĠSam":4536,"oose":4537,"ĠPure":4538,"ĠTr":4539,"Ġcheesecloth":4540,"Ġhow":4541,"Ġhock":4542,"Ġbeing":4543,"Ġsodium":4544,"atever":4545,"ĠDash":4546,"ĠWa":4547,"Ġheating":4548,"avory":4549,"ĠThicken":4550,"Ġtable":4551,"ounder":4552,"Ġelastic":4553,"Ġsprinkles":4554,"melted":4555,"Ġloses":4556,"Ġbamboo":4557,"gry":4558,"ments":4559,"ws":4560,"Ġcount":4561,"Ġeas":4562,"ĠSavory":4563,"ĠBon":4564,"owers":4565,"ĠMiss":4566,"chicken":4567,"Ġjack":4568,"ĠHeinz":4569,"ubble":4570,"ĠSaut":4571,"Ġscorch":4572,"Ġbutton":4573,"whole":4574,"ĠPickled":4575,"ĠSuper":4576,"Ġlooks":4577,"You":4578,"Ġtough":4579,"atoni":4580,"ales":4581,"ĠCa":4582,"ĠCold":4583,"Ġad":4584,"une":4585,"Ġvodka":4586,"Ġstored":4587,"Ġnic":4588,"ĠChess":4589,"iploc":4590,"ĠLou":4591,"ĠHor":4592,"ĠGold":4593,"ĠOli":4594,"isscross":4595,"ĠNuts":4596,"oston":4597,"ĠPatties":4598,"Ġtested":4599,"Ġcontinu":4600,"..":4601,"Roni":4602,"duty":4603,"luc":4604,"pack":4605,"Ġrim":4606,"ĠBy":4607,"Ġbutternut":4608,"Ġhel":4609,"Ġskew":4610,"alapeno":4611,"ette":4612,"ĠCalico":4613,"seasoned":4614,"??":4615,"May":4616,"ino":4617,"Ġtex":4618,"Ġmicrow":4619,"rew":4620,"Ġdate":4621,"ĠBuds":4622,"ĠAm":4623,"ĠAdjust":4624,"riz":4625,"ĠRound":4626,"Ġreheat":4627,"Ġblade":4628,"Ġmelon":4629,"Ġkept":4630,"esty":4631,"ĠSwirl":4632,"Ġfreezes":4633,"ĠSkim":4634,"Ġhomemade":4635,"Ġrapidly":4636,"ĠFirst":4637,"osher":4638,"ĠPuree":4639,"40":4640,"uel":4641,"Ġes":4642,"Ġtrans":4643,"Ġfile":4644,"Ġtofu":4645,"ĠBoston":4646,"acts":4647,"until":4648,"ĠTam":4649,"ĠMousse":4650,"Ġshoo":4651,"Ġseg":4652,"ĠCooking":4653,"Ġcrusty":4654,"ĠVenison":4655,"Ġputting":4656,"ĠBreast":4657,"ĠTurtle":4658,"Ġfettucini":4659,"Ġmostaccioli":4660,"Ġnicely":4661,"375":4662,"Mix":4663,"ipp":4664,"tand":4665,"you":4666,"Ġcatfish":4667,"utes":4668,"Ġwas":4669,"Ġwieners":4670,"Ġlg":4671,"ĠMeal":4672,"Ġovermix":4673,"Ġclose":4674,"ĠOys":4675,"ĠPrepar":4676,"Ġextracts":4677,"ĠPeas":4678,"plants":4679,"Ġpureed":4680,"Ġpita":4681,"ĠCrispy":4682,"from":4683,"Ġmonths":4684,"Ġeasier":4685,"Ġtexture":4686,"eight":4687,"Ġpats":4688,"regular":4689,"ĠBetter":4690,"ĠPo":4691,"adle":4692,"ĠRum":4693,"efly":4694,"Ġusually":4695,"undy":4696,"ĠZiploc":4697,"Ġperfor":4698,"Ġworms":4699,"ĠMilnot":4700,"ellogg":4701,"Ġtransluc":4702,"Ġshoots":4703,"nog":4704,"Ġcav":4705,"orm":4706,"ĠSupper":4707,"Ġgive":4708,"Ġeggplants":4709,"ote":4710,"ĠMother":4711,"ĠWay":4712,"quet":4713,"tty":4714,"Ġbottoms":4715,"reek":4716,"Ġlids":4717,"ĠSnack":4718,"Ġlinguini":4719,"Ġholds":4720,"ĠCrocker":4721,"Ġstrokes":4722,"ause":4723,"covered":4724,"ek":4725,"Ġsom":4726,"Ġ19":4727,"alaya":4728,"Ġfashion":4729,"ita":4730,"Ġdiluted":4731,"Ġlegs":4732,"ĠRi":4733,"ĠHar":4734,"Ġtenderiz":4735,"Ġupside":4736,"acaroon":4737,"ĠChopped":4738,"Ġrig":4739,"ĠCoke":4740,"ĠCongeal":4741,"fryer":4742,"ĠTwo":4743,"Ġnearly":4744,"ennel":4745,"Ġplacing":4746,"ĠBurgundy":4747,"ĠPopcorn":4748,"Ġlinks":4749,"Ġbriefly":4750,"Ġtamales":4751,"ĠHeavenly":4752,"Ġsegments":4753,"Ġtranslucent":4754,"juice":4755,"ware":4756,"Ġcast":4757,"instant":4758,"Ġsieve":4759,"Ġtall":4760,"Ġtransfer":4761,"rel":4762,"reat":4763,"ence":4764,"oux":4765,"Ġdifferent":4766,"oos":4767,"ĠTet":4768,"Ġcheck":4769,"razz":4770,"abel":4771,"ĠHal":4772,"ĠEmpty":4773,"ĠKellogg":4774,"ĠChewy":4775,"Ġquite":4776,"Ġscrape":4777,"Ġpreparing":4778,"Ġtwist":4779,"ĠZesty":4780,"ways":4781,"Ġfourths":4782,"Ġbitter":4783,"ĠHerbed":4784,"ĠTrifle":4785,"ĠShells":4786,"ingersnaps":4787,"ĠMagic":4788,"ĠTetrazz":4789,"law":4790,"sliced":4791,"ĠBra":4792,"ĠTast":4793,"Ġhull":4794,"ĠGener":4795,"merc":4796,"ĠEat":4797,"ĠJalapeno":4798,"ossom":4799,"oulash":4800,"ĠPastry":4801,"ĠAppetizer":4802,"ather":4803,"ĠPolish":4804,"ĠTetrazzini":4805,"met":4806,"ritos":4807,"inds":4808,"ilute":4809,"ony":4810,"ones":4811,"Ġtotal":4812,"ĠMud":4813,"Ġstrained":4814,"ĠBrownie":4815,"Ġdog":4816,"ĠJelly":4817,"Ġdegree":4818,"ĠMarsala":4819,"ĠMedley":4820,"prefer":4821,"ĠRussian":4822,"ĠVeggie":4823,"Rice":4824,"light":4825,"lime":4826,"Ġcoun":4827,"inder":4828,"Ġbaste":4829,"arrow":4830,"ren":4831,"Ġwil":4832,"rout":4833,"orr":4834,"ites":4835,"Ġgiblets":4836,"unpeeled":4837,"ĠMa":4838,"ĠMaz":4839,"top":4840,"Ġnow":4841,"eath":4842,"ĠWine":4843,"Ġsee":4844,"Ġappear":4845,"Ġitems":4846,"iffon":4847,"ĠMashed":4848,"ĠReese":4849,"Ġswirl":4850,"pecans":4851,"Ġvariet":4852,"wheels":4853,"ĠSamuel":4854,"ĠHormel":4855,"ĠPreparation":4856,"ĠGenerously":4857,"Ġcounter":4858,"bran":4859,"cress":4860,"oat":4861,"inter":4862,"Ġtie":4863,"Ġfigs":4864,"Ġchutney":4865,"Ġinter":4866,"ĠBasic":4867,"Ġnarrow":4868,"Ġgarden":4869,"ĠGoulash":4870,"Ġchild":4871,"ĠEl":4872,"ĠJuice":4873,"ĠFlavor":4874,"ĠScrape":4875,"ĠRoasted":4876,"ĠSnickerd":4877,"mercial":4878,"Nut":4879,"Sp":4880,"Ġbas":4881,"Ġmain":4882,"amate":4883,"Ġflowers":4884,"ĠSpr":4885,"Ġpkgs":4886,"Ġhots":4887,"ĠJud":4888,"rowd":4889,"Ġdirects":4890,"ĠCheeseburger":4891,"ĠBrunch":4892,"ĠSloppy":4893,"Ġfryers":4894,"Ġstewing":4895,"ign":4896,"ĠContains":4897,"sticks":4898,"Ġsnack":4899,"Ġcutters":4900,"Ġsteamed":4901,"Ġburner":4902,"ĠCube":4903,"Ġglutamate":4904,"%)":4905,",\\":4906,"Nuts":4907,"\\\\":4908,"Ġpal":4909,"Ġmy":4910,"Ġfennel":4911,"ĠCole":4912,"Ġsuch":4913,"Ġgummy":4914,"ĠPoke":4915,"isins":4916,"Ġhocks":4917,"ĠMama":4918,"Ġcreaming":4919,"raut":4920,"Ġwatermelon":4921,"Ġthread":4922,"Ġwhatever":4923,"ĠHour":4924,"enty":4925,"ĠYellow":4926,"fect":4927,"Ġpoke":4928,"ango":4929,"ukes":4930,"ĠCupcakes":4931,"ĠDebone":4932,"Ġpreferred":4933,"Ġpearl":4934,"ĠBurgers":4935,"Ġjulienne":4936,"Ġspiral":4937,"ĠSaran":4938,"Ġperforations":4939,"ĠRibs":4940,"Ġtenderizer":4941,"325":4942,"self":4943,"vals":4944,"water":4945,"Ġamon":4946,"ints":4947,"Ġtear":4948,"Ġbun":4949,"Ġpier":4950,"Ġlabel":4951,"ĠBou":4952,"ĠBuns":4953,"Ġsav":4954,"Ġshaved":4955,"ĠFail":4956,"ĠHo":4957,"Ġpouring":4958,"ĠBrussels":4959,"ailable":4960,"ĠFruitcake":4961,"ĠMexic":4962,"Ġlimas":4963,"ĠKnorr":4964,"In":4965,"The":4966,"vies":4967,"ancy":4968,"ont":4969,"andied":4970,"Ġfashioned":4971,"Ġ26":4972,"Ġsauc":4973,"Ġshakes":4974,"Ġroux":4975,"ĠLi":4976,"melet":4977,"iesta":4978,"eeds":4979,"ĠNiblets":4980,"Ġcommercial":4981,"Ġquiche":4982,"sert":4983,"Ġdiet":4984,"Ġcongealed":4985,"Ġstrainer":4986,"ĠHungry":4987,"ĠOlive":4988,"Ġrigatoni":4989,"fashioned":4990,"inity":4991,"Ġpush":4992,"rem":4993,"ĠSu":4994,"Ġlot":4995,"ĠTony":4996,"olly":4997,"Ġwatercress":4998,"Ġsoupy":4999,"ĠLea":5000,"ashed":5001,"ĠInsert":5002,"Ġ90":5003,"ĠWhole":5004,"Ġkraut":5005,"Ġpreheat":5006,"Ġliquor":5007,"ĠYummy":5008,"ubbed":5009,"Ġforming":5010,"ĠToffee":5011,"etti":5012,"odium":5013,"ĠPrune":5014,"ĠMilky":5015,"Ġwrappers":5016,"ĠMazola":5017,"19":5018,"finger":5019,"ket":5020,"Ġ75":5021,"Ġfair":5022,"Ġcholesterol":5023,"Ġtoffee":5024,"ĠSund":5025,"ĠPush":5026,"ĠTaste":5027,"Ġmarble":5028,"ĠWon":5029,"llo":5030,"Ġkosher":5031,"osodium":5032,"Ġpretty":5033,"Ġlimp":5034,"ĠCurried":5035,"Ġglossy":5036,"Ġanchovies":5037,"Ġrunning":5038,"Ġamong":5039,"Ġfairly":5040,"fred":5041,"the":5042,"Ġcukes":5043,"Ġtip":5044,"Ġfe":5045,"ĠCat":5046,"Ġdoll":5047,"ĠChiffon":5048,"Ġseven":5049,"ĠLingu":5050,"ĠGe":5051,"ĠGumbo":5052,"Ġ303":5053,"issipp":5054,"ĠEver":5055,"Ġbreaking":5056,"ĠGrits":5057,"Ġtossed":5058,"canned":5059,"Ġsprinkling":5060,"Ġsaffron":5061,"ĠLouis":5062,"fredo":5063,"issippi":5064,"Bro":5065,"cents":5066,"ik":5067,"tP":5068,"~)":5069,"esar":5070,"Ġair":5071,"Ġeight":5072,"Ġlit":5073,"Ġflounder":5074,"ĠMor":5075,"ĠFollow":5076,"ĠJamb":5077,"Ġprecooked":5078,"Ġsealed":5079,"clair":5080,"ĠCrabmeat":5081,"ĠTwink":5082,"Ġloosen":5083,"Ġtriangle":5084,"Ġmonosodium":5085,"Ġlogs":5086,"ĠExcellent":5087,"ĠDeviled":5088,"Ġdistrib":5089,"ĠMississippi":5090,"ĠCaesar":5091,"ĠTamale":5092,"ĠSunday":5093,"ĠJambalaya":5094,"oid":5095,"tBake":5096,"ĠPare":5097,"Ġbeet":5098,"ada":5099,"Ġsets":5100,"ĠGreek":5101,"Ġrabb":5102,"ĠVinegar":5103,"ĠDivinity":5104,"Ġslivers":5105,"Ġshaped":5106,"ĠMedal":5107,"ĠFinely":5108,"ĠSnickerdoodles":5109,"Ġrabbit":5110,"70":5111,"uf":5112,"Ġ#":5113,"Ġbow":5114,"ilaf":5115,"Ġeigh":5116,"Ġdefrost":5117,"derful":5118,"thaw":5119,"Ġcod":5120,"ĠDry":5121,"ĠLoos":5122,"uffed":5123,"epending":5124,"ĠEclair":5125,"Ġlowest":5126,"ĠThin":5127,"Ġcurls":5128,"Ġlimeade":5129,"Ġcrisply":5130,"ĠCopper":5131,"ĠPecans":5132,"crust":5133,"ĠPeaches":5134,"Cheddar":5135,"hyllo":5136,"Ġadv":5137,"preferably":5138,"Ġintervals":5139,"Ġsavory":5140,"au":5141,"Ġsor":5142,"Ġbubble":5143,"Ġphyllo":5144,"Ġmousse":5145,"ution":5146,"ros":5147,"heaping":5148,"Ġhens":5149,"adam":5150,"riend":5151,"ĠStr":5152,"berg":5153,"ĠOkra":5154,"Ġziti":5155,"Ġkeeps":5156,"ĠClose":5157,"afing":5158,"ĠFritters":5159,"addock":5160,"Ġpuffs":5161,"Ġwrapped":5162,"ĠTriple":5163,"ĠCurry":5164,"Ġcitron":5165,"day":5166,"hn":5167,"igg":5168,"teg":5169,"yl":5170,"erto":5171,"Ġmango":5172,"Ġins":5173,"Ġdent":5174,"ĠBor":5175,"ĠPor":5176,"usel":5177,"cher":5178,"Ġcrisscross":5179,"Ġcupcakes":5180,"ĠLog":5181,"ĠEar":5182,"Ġouter":5183,"ĠShould":5184,"ĠBrisket":5185,"ival":5186,"ĠSmooth":5187,"Ġdeli":5188,"ĠJohn":5189,"Ġmounds":5190,"ĠPaprika":5191,"ĠCongealed":5192,"adamia":5193,"23":5194,"hod":5195,"esto":5196,"ĠCor":5197,"ĠCerto":5198,"this":5199,"ĠLen":5200,"Ġ500":5201,"ĠIncrease":5202,"ĠGu":5203,"resso":5204,"ĠCorned":5205,"Ġscallion":5206,"Ġfollowed":5207,"ĠClass":5208,"Ġrotary":5209,"Style":5210,"brown":5211,"Ġcrystals":5212,"ĠSprite":5213,"aver":5214,"ground":5215,"ives":5216,"rant":5217,"Ġten":5218,"alina":5219,"ĠCow":5220,"ĠSim":5221,"ĠToll":5222,"ĠMock":5223,"Ġgrinder":5224,"ĠRib":5225,"Ġcob":5226,"ĠFiesta":5227,"Ġraise":5228,"ĠVeal":5229,"Ġthicker":5230,"Ġuncover":5231,"Ġglazed":5232,"ĠTost":5233,"ĠSeasons":5234,"azel":5235,"mixture":5236,"ĠOvernight":5237,"ĠMoisten":5238,"ĠScrub":5239,"tega":5240,".,":5241,"drain":5242,"ob":5243,"vi":5244,"Ġ115":5245,"Ġpatter":5246,"reusel":5247,"ĠCottage":5248,"ourmet":5249,"ĠSesame":5250,"Ġlift":5251,"ĠBell":5252,"ĠPu":5253,"ĠTie":5254,"Ġstarter":5255,"ĠChips":5256,"ĠWipe":5257,"Ġreally":5258,"Ġcorners":5259,"emiah":5260,"aged":5261,"Ġslit":5262,"Ġtablespoonful":5263,"Ġdesire":5264,"ields":5265,"Ġchillies":5266,"itional":5267,"Ġlengths":5268,"Ġprick":5269,"uyere":5270,"Ġdisapp":5271,"ĠBouquet":5272,"Ġpattern":5273,"dried":5274,"sk":5275,"Ġato":5276,"including":5277,"ĠSch":5278,"ĠTang":5279,"ĠAmar":5280,"ĠMill":5281,"verted":5282,"Ġstay":5283,"etto":5284,"quettes":5285,"arsely":5286,"achos":5287,"avable":5288,"Ġvermouth":5289,"ĠFinish":5290,"Crisco":5291,"Ġvariety":5292,"ĠCatalina":5293,"Ġatop":5294,"ĠAmaretto":5295,"rins":5296,"well":5297,"xx":5298,"Ġcoll":5299,"Ġtakes":5300,"Ġmg":5301,"Ġchafing":5302,"amous":5303,"Ġsuet":5304,"Ġear":5305,"ĠPers":5306,"ĠParboil":5307,"Ġchewy":5308,"verage":5309,"Ġste":5310,"rie":5311,"Ġingredient":5312,"ĠFour":5313,"Ġstirred":5314,"ĠLett":5315,"ousand":5316,"ucky":5317,"ĠQuarter":5318,"ĠMonte":5319,"ĠReplace":5320,"Ġmoderately":5321,"ĠOrtega":5322,"ambled":5323,"ĠReheat":5324,"ondue":5325,"Ġclosed":5326,"Ġesc":5327,"ĠLouisiana":5328,"Ġeighths":5329,"ĠLoosen":5330,"Di":5331,"oep":5332,"wick":5333,"Ġbird":5334,"garian":5335,"unk":5336,"Ġflours":5337,"olog":5338,"Ġgrams":5339,"ĠDoll":5340,"ified":5341,"ĠLadle":5342,"Ġappetizers":5343,"ĠButterfinger":5344,"ĠSwans":5345,"ĠGruyere":5346,"Ġformed":5347,"ĠFrom":5348,"azy":5349,"ĠOnce":5350,"Ġsealing":5351,"ĠEngland":5352,"ĠAppetizers":5353,"Ġburning":5354,"Ġplums":5355,"Ġanchovy":5356,"ĠRotel":5357,"attice":5358,"ĠOyster":5359,"oepeg":5360,"Be":5361,"boy":5362,"de":5363,"rito":5364,"tein":5365,"Ġsol":5366,"estern":5367,"Ġpenne":5368,"ative":5369,"Ġfunnel":5370,"ĠCandied":5371,"Ġ21":5372,"elow":5373,"ĠBac":5374,"ĠBasil":5375,"Ġhaddock":5376,"etimes":5377,"ĠSpareribs":5378,"ĠFil":5379,"ĠThousand":5380,"Ġmasher":5381,"Ġcereals":5382,"Ġavailable":5383,"ĠFreezer":5384,"unswick":5385,"ĠMarinade":5386,"Ġbecause":5387,"ĠBlackberry":5388,"ĠMargarine":5389,"ĠCrackers":5390,"ĠShredded":5391,"Stir":5392,"Ġfinished":5393,"ĠJoes":5394,"Ġscorching":5395,"Ġmicrowavable":5396,"ĠClassic":5397,"gn":5398,"uda":5399,"Ġwedge":5400,"ĠCrawfish":5401,"ord":5402,"Ġeating":5403,"Ġdr":5404,"acos":5405,"Ġbuttery":5406,"illy":5407,"Ġstone":5408,"ĠRun":5409,"ushed":5410,"Ġreheated":5411,"ights":5412,"ĠFive":5413,"Ġ80":5414,"ĠGi":5415,"egetarian":5416,"ottom":5417,"Ġappetizer":5418,"ĠOat":5419,"ĠEach":5420,"ĠKey":5421,"Ġpackaged":5422,"ĠThan":5423,"Ġthroughout":5424,"sodium":5425,"Ġavoid":5426,"Ġdiagonal":5427,"Ġfitting":5428,"beef":5429,"upperware":5430,"ĠSuey":5431,"ivalent":5432,"ĠCowboy":5433,"Ġsolution":5434,"100":5435,"Butter":5436,"Or":5437,"bble":5438,"cinnamon":5439,"crew":5440,"such":5441,"Ġsim":5442,"Ġsouffle":5443,"Ġtrout":5444,"Ġincrease":5445,"roc":5446,"ĠCas":5447,"aken":5448,"amble":5449,"itas":5450,"ĠChach":5451,"Ġsponge":5452,"ĠStack":5453,"ĠFamily":5454,"ĠFamous":5455,"ĠStirring":5456,"ĠLo":5457,"Ġalready":5458,"Ġsyrupy":5459,"ĠEle":5460,"ĠKool":5461,"Ġcomino":5462,"Ġdirect":5463,"ĠBrunswick":5464,"izzas":5465,"Ġpoints":5466,"ĠCoarsely":5467,"ĠMint":5468,"ĠMayonnaise":5469,"boneless":5470,"ĠSkor":5471,"Cho":5472,"ĠBarrel":5473,"Ġrubber":5474,"ĠPinwheels":5475,"ĠMacadamia":5476,"Ġhelp":5477,"Ġskewers":5478,"ossoms":5479,"thawed":5480,"ĠLettuce":5481,"Mex":5482,"Os":5483,"zy":5484,"Ġbal":5485,"Ġfries":5486,"ĠPic":5487,"Ġeggnog":5488,"Ġholiday":5489,"rapped":5490,"tha":5491,"ĠRock":5492,"ĠDown":5493,"urch":5494,"Ġspace":5495,"Ġspecial":5496,"ĠLoaves":5497,"kscrew":5498,"ĠPrego":5499,"Ġtoward":5500,"oyu":5501,"Ġbreakfast":5502,"Ġsprig":5503,"mbros":5504,"ĠDoughnuts":5505,"ĠPerrins":5506,"Ġdeviled":5507,"acaroons":5508,"ĠTwinkies":5509,"ologna":5510,"Cook":5511,"min":5512,"oins":5513,"ugg":5514,"uriz":5515,"Ġ0":5516,"Ġsack":5517,"icro":5518,"Ġlattice":5519,"ĠPart":5520,"unche":5521,"ĠTarts":5522,"Ġshoyu":5523,"ĠDrops":5524,"stir":5525,"ĠLef":5526,"ĠLazy":5527,"Ġsourdough":5528,"ĠGoo":5529,"Ġrows":5530,"ults":5531,"estive":5532,"ĠNumb":5533,"ĠBoiled":5534,"Ġcenters":5535,"ounce":5536,"Ġturnips":5537,"ĠSeasoning":5538,"ĠAlfredo":5539,"Ġgrains":5540,"ĠPerfect":5541,"broccoli":5542,"Ġbatches":5543,"ĠPralines":5544,"Ġjackets":5545,"Ġhulled":5546,"ĠJudges":5547,"ĠMexicorn":5548,"ĠGeor":5549,"Ġdente":5550,"rocery":5551,"ĠChachere":5552,"mbrosia":5553,"urized":5554,"Sour":5555,"Use":5556,"each":5557,"man":5558,"yellow":5559,"Ġ.":5560,"atzo":5561,"onicles":5562,"garnish":5563,"ĠSliced":5564,"ĠBle":5565,"ĠParsley":5566,"ĠPrim":5567,"ĠPort":5568,"ĠPier":5569,"rip":5570,"ghum":5571,"Ġcogn":5572,"ĠSpam":5573,"Ġseams":5574,"aped":5575,"ĠKid":5576,"Ġjelled":5577,"pared":5578,"pepper":5579,"Ġpasteurized":5580,"ountain":5581,"Ġfreezing":5582,"Ġpartly":5583,"Ġmarinara":5584,"ĠChronicles":5585,"ĠAnn":5586,"Ġburger":5587,"Ġwilted":5588,"Broccoli":5589,"ĠMorton":5590,"Ġadvance":5591,"ĠMillion":5592,"Ġcognac":5593,"Aid":5594,"Fro":5595,"calorie":5596,"yed":5597,"Ġtr":5598,"Ġpouch":5599,"Ġchar":5600,"ĠBuff":5601,"ĠTupperware":5602,"ĠAmbrosia":5603,"right":5604,"lices":5605,"Ġrising":5606,"Ġranch":5607,"iping":5608,"agne":5609,"ends":5610,"Ġheav":5611,"ĠJoe":5612,"ĠSauc":5613,"ĠNacho":5614,"eebler":5615,"kets":5616,"scant":5617,"ampi":5618,"ampagne":5619,"Ġcorkscrew":5620,"ĠSteaks":5621,"ĠReub":5622,"crushed":5623,"Ġabsorbent":5624,"ĠGrandm":5625,"ĠBurger":5626,"Ġoverbeat":5627,"Ġswiss":5628,"ĠHungarian":5629,"ĠJeremiah":5630,"retch":5631,"Ġequivalent":5632,"ĠHalve":5633,"avera":5634,"uncheon":5635,"ĠBleu":5636,"Jell":5637,"bake":5638,"king":5639,"uv":5640,"val":5641,"Ġ150":5642,"Ġbelow":5643,"Ġfall":5644,"Ġadjust":5645,"ĠMein":5646,"rad":5647,"Ġwhat":5648,"ima":5649,"vest":5650,"ĠFast":5651,"Ġremains":5652,"ult":5653,"Ġlayered":5654,"Ġwaffle":5655,"Ġthickening":5656,"ĠGrated":5657,"Ġbrick":5658,"arina":5659,"ĠScatter":5660,"ĠScotch":5661,"Ġgarnished":5662,"Ġallowing":5663,"Ġreplace":5664,"Ġtenderloins":5665,"ĠPennies":5666,"ĠPoor":5667,"Ġsauces":5668,"ĠPrimavera":5669,"45":5670,"Wh":5671,"baking":5672,"cini":5673,"depending":5674,"lightly":5675,"rich":5676,"Ġbundt":5677,"Ġbuds":5678,"Ġpiping":5679,"alo":5680,"Ġchowder":5681,"ington":5682,"ppies":5683,"ĠCap":5684,"ori":5685,"ortening":5686,"oriz":5687,"ĠSkin":5688,"Ġgumbo":5689,"ĠPar":5690,"ĠPile":5691,"Ġflute":5692,"ists":5693,"Ġho":5694,"ĠMound":5695,"ĠMaple":5696,"rior":5697,"Ġthumb":5698,"ĠRos":5699,"ĠRings":5700,"abobs":5701,"ĠHumm":5702,"overs":5703,"Ġkitchen":5704,"ressed":5705,"Ġplenty":5706,"ĠGran":5707,"ĠFluffy":5708,"ĠPepperoni":5709,"Ġpitcher":5710,"Ġdusted":5711,"Ġclosely":5712,"ĠPraline":5713,"Ġtastes":5714,"packed":5715,"Ġchildren":5716,"Ġbasket":5717,"Ġdefrosted":5718,"ĠEarth":5719,"Ġbalance":5720,"ĠReuben":5721,"35":5722,"gresso":5723,"nic":5724,"pr":5725,"wal":5726,"Ġwere":5727,"ical":5728,"space":5729,"ĠCacci":5730,"orf":5731,"Ġ225":5732,"ĠSyrup":5733,"Ġpeek":5734,"ĠPilaf":5735,"unbeaten":5736,"ĠTre":5737,"ĠAv":5738,"Ġchopper":5739,"ĠMore":5740,"atore":5741,"Ġsaut":5742,"ĠChile":5743,"Ġcoats":5744,"ĠHill":5745,"ĠKings":5746,"Ġwait":5747,"Ġheadspace":5748,"Ġbutt":5749,"ĠScampi":5750,"Ġkeeping":5751,"ĠSugarless":5752,"ĠCrispix":5753,"Ġbrushing":5754,"ĠWald":5755,"ibut":5756,"Ġprotein":5757,"ĠStrata":5758,"Ġheavily":5759,"Yields":5760,"ba":5761,"time":5762,"anese":5763,"uth":5764,"ĠCore":5765,"amom":5766,"Ġgrocery":5767,"Ġfloat":5768,"ickel":5769,"Ġstream":5770,"ĠWe":5771,"ĠWil":5772,"quake":5773,"ĠGingersnaps":5774,"ĠWorld":5775,"ĠKiss":5776,"ĠKeebler":5777,"ĠNote":5778,"ĠYogurt":5779,"Ġcola":5780,"Ġdehyd":5781,"Ġcurrant":5782,"ermuda":5783,"undles":5784,"Ġcomplete":5785,"alories":5786,"mixed":5787,"ĠMartha":5788,"ĠSheph":5789,"buttered":5790,"ĠWatchers":5791,"Ġsafflower":5792,"Ġcardamom":5793,"Ġcavity":5794,"Ġliter":5795,"ĠPorcup":5796,"ĠLentil":5797,"ĠPersimmon":5798,"ĠWaldorf":5799,"Eyed":5800,"To":5801,"ged":5802,"mm":5803,"yn":5804,"inai":5805,"ene":5806,"Ġwatch":5807,"lease":5808,"ĠCarb":5809,"Ġempty":5810,"Ġdab":5811,"Ġduck":5812,"ĠSand":5813,"ĠSure":5814,"ĠBone":5815,"ĠBrie":5816,"ĠBermuda":5817,"ĠMountain":5818,"Ġstor":5819,"ĠRabb":5820,"Ġris":5821,"ĠDried":5822,"Ġrequ":5823,"ĠFant":5824,"ĠLift":5825,"Ġdraining":5826,"ĠWhipped":5827,"Ġkinds":5828,"tte":5829,"entucky":5830,"ĠBlond":5831,"umpern":5832,"grette":5833,"ĠSlush":5834,"elveeta":5835,"Ġgranola":5836,"ĠCarol":5837,"ĠForg":5838,"ahum":5839,"Ġprune":5840,"ĠTwist":5841,"Ġdelic":5842,"Ġreached":5843,"Ġtrays":5844,"ĠSticks":5845,"Ġcardamon":5846,"immy":5847,"Ġresults":5848,"ĠHarvest":5849,"Ġdollop":5850,"ĠLinguine":5851,"Ġsorghum":5852,"ĠSimple":5853,"ĠRibbon":5854,"ĠGiant":5855,"ĠLeftover":5856,"ĠEarthquake":5857,"inaigrette":5858,"ĠRabbit":5859,"aith":5860,"fine":5861,"iod":5862,"kins":5863,"part":5864,"skin":5865,"will":5866,"Ġ??":5867,"Ġbologna":5868,"Ġprior":5869,"ali":5870,"Ġwinter":5871,"ĠColes":5872,"ĠCalories":5873,"ĠBea":5874,"ĠPistachio":5875,"cha":5876,"Ġneck":5877,"Ġ475":5878,"ĠRap":5879,"ĠDean":5880,"straw":5881,"apanese":5882,"Ġpeck":5883,"shine":5884,"Ġplant":5885,"ĠEnd":5886,"ĠKentucky":5887,"ĠShoepeg":5888,"eek":5889,"Ġtubes":5890,"Ġknives":5891,"ortant":5892,"ĠDeer":5893,"Ġfranks":5894,"Ġprod":5895,"Ġscrambled":5896,"ĠIndian":5897,"ĠCashew":5898,"ĠNumbers":5899,"umpernickel":5900,"ĠColeslaw":5901,"fin":5902,"ging":5903,"keep":5904,"lap":5905,"made":5906,"ny":5907,"Ġels":5908,"Ġcall":5909,"Ġsink":5910,"rets":5911,"allet":5912,"ĠCalorie":5913,"aso":5914,"ĠBerry":5915,"ĠPicante":5916,"ggy":5917,"ised":5918,"Ġveg":5919,"Ġstep":5920,"ĠDanish":5921,"Ġseems":5922,"ĠStreusel":5923,"achine":5924,"ĠGourmet":5925,"ship":5926,"Ġ130":5927,"ĠOmelet":5928,"ĠJimmy":5929,"ĠYork":5930,"ĠBegin":5931,"Ġiceberg":5932,"ocket":5933,"ĠScore":5934,"Ġherbed":5935,"black":5936,"ĠMinutes":5937,"ĠSourdough":5938,"ĠPickle":5939,"ĠFrosted":5940,"ĠSmoked":5941,"ĠTortellini":5942,"ĠBurritos":5943,"ĠStarting":5944,"Ġleek":5945,"Ġscrubbed":5946,"ĠGuacamole":5947,"ĠCacciatore":5948,"Pe":5949,"aque":5950,"back":5951,"grain":5952,"ho":5953,"pie":5954,"ster":5955,"Ġsizz":5956,"ana":5957,"Ġmallet":5958,"lee":5959,"ĠCra":5960,"ĠSlices":5961,"ĠBits":5962,"otten":5963,"Ġbroad":5964,"thin":5965,"acky":5966,"Ġsea":5967,"ĠStarter":5968,"ĠFashion":5969,"ĠFestive":5970,"enthe":5971,"Ġplump":5972,"ĠJew":5973,"Ġthickly":5974,"ĠNahum":5975,"Ġspoons":5976,"ĠDog":5977,"ĠFilled":5978,"Ġopaque":5979,"Ġenchiladas":5980,"ĠClub":5981,"affy":5982,"Ġdepth":5983,"Ġgallons":5984,"ĠSnickers":5985,"ĠShortcake":5986,"ĠFettuccine":5987,"ormick":5988,"ĠTastes":5989,"Ġpalm":5990,"remove":5991,"Ġinsides":5992,"Ġdisappears":5993,"walnuts":5994,"ĠShepherd":5995,"ĠForgotten":5996,"Ġelse":5997,"22":5998,"Al":5999,"Cal":6000,"Cormick":6001,"OT":6002,"ax":6003,"batter":6004,"bird":6005,"fetti":6006,"ior":6007,"kay":6008,"mushroom":6009,"set":6010,"Ġmatzo":6011,"anda":6012,"Ġchoriz":6013,"ingbird":6014,"Ġtost":6015,"Ġlo":6016,"ister":6017,"Ġvary":6018,"ĠAhead":6019,"ripe":6020,"Ġsaved":6021,"arsn":6022,"Ġconverted":6023,"ĠJan":6024,"acting":6025,"ĠSlightly":6026,"ĠFlakes":6027,"Ġcauliflowerets":6028,"Ġfolding":6029,"ĠMonster":6030,"ĠHamburg":6031,"ĠRaisins":6032,"ĠBroiled":6033,"ĠProgresso":6034,"Ġbeaters":6035,"ĠAny":6036,"ĠScramble":6037,"Ġjulienned":6038,"Italian":6039,"ĠDollar":6040,"ĠSaucy":6041,"ĠHummingbird":6042,"ĠGranola":6043,"Ġ???":6044,"ĠRapid":6045,"Min":6046,"Pec":6047,"cheese":6048,"gur":6049,"rus":6050,"Ġte":6051,"Ġtaken":6052,"ilar":6053,"Ġfaith":6054,"Ġ29":6055,"Ġsuey":6056,"Ġsuper":6057,"ĠBites":6058,"ĠPaso":6059,"isbury":6060,"Ġhome":6061,"change":6062,"Ġ46":6063,"colored":6064,"ĠDilute":6065,"ĠFingers":6066,"amond":6067,"berally":6068,"edding":6069,"Ġmeaty":6070,"sharp":6071,"oren":6072,"Ġexact":6073,"Ġslushy":6074,"Ġtenders":6075,"ĠSalisbury":6076,"Ġpacks":6077,"Ġenrich":6078,"105":6079,"ĠBeets":6080,"Ġbrine":6081,"Ġcrescents":6082,"lect":6083,"ĠTwin":6084,"Ġdiscarding":6085,"ĠMolded":6086,"Ġcontinuously":6087,"Ġfilets":6088,"Ġdistribute":6089,"igger":6090,"ĠTostitos":6091,"ĠPartially":6092,"ĠGrandmother":6093,"ĠTreats":6094,"Ġdehydrated":6095,"ĠCrazy":6096,"Pecan":6097,"300":6098,"400":6099,"Batter":6100,"Layer":6101,"Rise":6102,"anted":6103,"esh":6104,"Ġpesto":6105,"Ġpumpernickel":6106,"Ġme":6107,"Ġfriend":6108,"ĠBag":6109,"ĠBourbon":6110,"Ġfluted":6111,"ĠTeriyaki":6112,"ĠTacos":6113,"Ġhazel":6114,"ĠMorning":6115,"Ġstar":6116,"adian":6117,"Ġshaking":6118,"Ġthinner":6119,"ĠRaw":6120,"ĠMixed":6121,"Ġcole":6122,"quid":6123,"ression":6124,"Ġchervil":6125,"Ġfinal":6126,"Ġyoung":6127,"saiah":6128,"Ġjellyroll":6129,"ĠWashington":6130,"Ġsifting":6131,"Ġrotating":6132,"ĠSouthw":6133,"ĠSticky":6134,"Ġcombining":6135,"ĠSecure":6136,"ĠManicotti":6137,"ĠJerky":6138,"ĠWait":6139,"Ġescape":6140,"Chocolate":6141,"uggets":6142,"60":6143,"Corn":6144,"Sh":6145,"fried":6146,"gi":6147,"see":6148,"tStir":6149,"wrap":6150,"Ġpuffy":6151,"Ġpocket":6152,"Ġparsn":6153,"Ġmill":6154,"ille":6155,"Ġfeed":6156,"Ġfrench":6157,"Ġfalls":6158,"ĠCrowd":6159,"Ġdirt":6160,"ĠSue":6161,"Ġgizz":6162,"ĠBut":6163,"ĠBig":6164,"ĠBirds":6165,"ows":6166,"ĠTart":6167,"ĠAd":6168,"ĠMost":6169,"Ġorzo":6170,"chi":6171,"veget":6172,"Ġleg":6173,"ĠWaff":6174,"ĠWedding":6175,"efish":6176,"ĠLor":6177,"ĠLarge":6178,"Ġbreads":6179,"ĠHush":6180,"ĠGo":6181,"ĠJapanese":6182,"actur":6183,"Ġdesign":6184,"ĠChoice":6185,"Ġturnip":6186,"Ġpickled":6187,"coal":6188,"ĠMeatball":6189,"Ġbroiled":6190,"ĠTwice":6191,"chocolate":6192,"Ġtouching":6193,"ajitas":6194,"ĠHominy":6195,"Ġmanuf":6196,"Ġ234":6197,"ĠSunshine":6198,"ĠShortbread":6199,"ĠBob":6200,"Ġequally":6201,"skim":6202,"Ġdirectly":6203,"ĠBuffalo":6204,"Minute":6205,"Ġenriched":6206,"Ġmanufactur":6207,"fir":6208,"ftened":6209,"gian":6210,"put":6211,"rone":6212,"tw":6213,"vanilla":6214,"Ġsna":6215,"Ġbra":6216,"Ġbush":6217,"Ġml":6218,"Ġmot":6219,"Ġmem":6220,"onion":6221,"Ġinc":6222,"Ġint":6223,"ities":6224,"Ġacorn":6225,"Ġdra":6226,"Ġlose":6227,"Ġluncheon":6228,"ĠBottom":6229,"ĠPink":6230,"Ġflu":6231,"Ġstretch":6232,"ĠReal":6233,"ĠChoc":6234,"Ġrather":6235,"ĠDr":6236,"ĠDuring":6237,"ĠWeight":6238,"imp":6239,"Ġjuicy":6240,"Ġsmashed":6241,"ĠHollow":6242,"ĠGen":6243,"asseroles":6244,"Ġkiss":6245,"Ġ120":6246,"estrone":6247,"ĠEv":6248,"ĠEsc":6249,"ĠEye":6250,"ĠBeer":6251,"Ġicebox":6252,"Ġstale":6253,"Ġcurly":6254,"ĠRoad":6255,"ĠDelights":6256,"Ġhoriz":6257,"Ġindent":6258,"ĠCroquettes":6259,"Ġcircular":6260,"Ġpreferably":6261,"without":6262,"Ġopening":6263,"ginal":6264,"Ġwrapper":6265,"Ġgoes":6266,"ĠPretzels":6267,"ĠMoist":6268,"Ġdecoration":6269,"Ġdistilled":6270,"Ġsecurely":6271,"ĠMcCormick":6272,"Ġtasty":6273,"ontally":6274,"Diabetic":6275,"Ġcharcoal":6276,"Ġhoisin":6277,"Great":6278,"Ra":6279,"Sweet":6280,"ao":6281,"dew":6282,"een":6283,"foil":6284,"lon":6285,"tS":6286,"tine":6287,"tain":6288,"Ġcour":6289,"Ġcrowd":6290,"Ġcasseroles":6291,"anger":6292,"Ġoval":6293,"Ġokay":6294,"Ġparboil":6295,"Ġmenthe":6296,"ĠCav":6297,"elle":6298,"Ġ370":6299,"Ġdilute":6300,"Ġpet":6301,"ĠBush":6302,"unior":6303,"ĠTsp":6304,"ĠMade":6305,"Ġshiny":6306,"Ġsoggy":6307,"asted":6308,"ĠDew":6309,"imum":6310,"ĠSponge":6311,"ĠStep":6312,"Ġalways":6313,"ĠOut":6314,"Ġcovers":6315,"ĠEd":6316,"Ġdoughnuts":6317,"Ġliking":6318,"ĠJoy":6319,"Ġusual":6320,"ĠThrow":6321,"Ġstands":6322,"ĠUp":6323,"Ġhoneydew":6324,"Ġmelting":6325,"ĠQues":6326,"softened":6327,"ĠCanadian":6328,"ĠMince":6329,"ĠWalnuts":6330,"Ġeaten":6331,"ĠLondon":6332,"ĠMocha":6333,"ĠTasty":6334,"ĠBorden":6335,"ĠPuppies":6336,"ĠTangy":6337,"ĠFillets":6338,"From":6339,"Ġfluid":6340,"Pineapple":6341,"beat":6342,"cous":6343,"dy":6344,"hard":6345,"Ġslee":6346,"Ġmachine":6347,"Ġfancy":6348,"Ġweight":6349,"Ġaj":6350,"Ġeye":6351,"Ġsalts":6352,"ĠPace":6353,"unsweetened":6354,"unky":6355,"Ġvent":6356,"Ġhus":6357,"Ġcrunch":6358,"eth":6359,"abl":6360,"efin":6361,"ĠStand":6362,"ĠCooked":6363,"ĠLamb":6364,"Ġ57":6365,"ĠHold":6366,"ĠHalf":6367,"Ġhalibut":6368,"Ġexcellent":6369,"tract":6370,"Ġthickest":6371,"ĠNOT":6372,"Ġothers":6373,"ĠBrick":6374,"ouscous":6375,"ĠCornish":6376,"ĠFloren":6377,"ĠMonde":6378,"ocado":6379,"Ġbulgur":6380,"apples":6381,"Ġequals":6382,"Ġtrifle":6383,"ĠRoma":6384,"Ġmonth":6385,"ĠPlum":6386,"Ġwonton":6387,"ĠRotate":6388,"...":6389,"Ġsometimes":6390,"Ġpierced":6391,"ĠWonderful":6392,"ĠSwanson":6393,"ĠEleg":6394,"ĠRapidRise":6395,"Ġmanufacturer":6396,"Ġintact":6397,"Apple":6398,"make":6399,"vit":6400,"Ġcould":6401,"Ġtines":6402,"Ġfr":6403,"spray":6404,"ĠCatfish":6405,"asant":6406,"Ġawhile":6407,"Ġgingersnaps":6408,"Ġlimes":6409,"ĠBing":6410,"ĠBaby":6411,"isters":6412,"Ġbeverage":6413,"omm":6414,"ellen":6415,"together":6416,"umsticks":6417,"Ġjoin":6418,"stuffed":6419,"ĠSpring":6420,"quef":6421,"oleo":6422,"ĠLittle":6423,"ĠLiver":6424,"ĠHard":6425,"Ġtenderness":6426,"ĠEaster":6427,"Ġupright":6428,"ĠKabobs":6429,"Ġjellied":6430,"Ġpeeling":6431,"ĠShortening":6432,"Ġquant":6433,"Ġscore":6434,"Ġbrew":6435,"ude":6436,"Ġparties":6437,"ĠNutmeg":6438,"which":6439,"ĠMuffin":6440,"ĠDiet":6441,"ahini":6442,"ĠSmother":6443,"Ġresem":6444,"Ġtinfoil":6445,"Ġshallot":6446,"Ġpulls":6447,"Ġdevein":6448,"Ġscraped":6449,"ĠTotal":6450,"Ġrunny":6451,"Ġimportant":6452,"ĠWafer":6453,"ĠHobo":6454,"ĠCordon":6455,"Ġearly":6456,"Ġsimilar":6457,"ĠRocky":6458,"uvres":6459,"raditional":6460,"Ġexactly":6461,"Ġgizzards":6462,"Ġhorizontally":6463,"'re":6464,"Good":6465,"Sw":6466,"avings":6467,"deep":6468,"gy":6469,"gers":6470,"ike":6471,"soup":6472,"tD":6473,"wrapped":6474,"yes":6475,"Ġmine":6476,"Ġmouth":6477,"ilt":6478,"ilver":6479,"Ġwing":6480,"Ġwanted":6481,"ppos":6482,"orange":6483,"itely":6484,"ĠSix":6485,"Ġsalty":6486,"oops":6487,"ĠBav":6488,"ĠBoy":6489,"unbaked":6490,"ĠTown":6491,"ells":6492,"adine":6493,"Ġcrisco":6494,"Ġshelf":6495,"Ġshavings":6496,"ĠRellen":6497,"ĠDole":6498,"ĠDefrost":6499,"ĠIsaiah":6500,"Ġcrumbles":6501,"ĠLima":6502,"ĠGet":6503,"shaped":6504,"ava":6505,"izes":6506,"ĠOats":6507,"ĠJif":6508,"ĠBlossoms":6509,"ĠNot":6510,"Ġquail":6511,"ropical":6512,"ĠSlit":6513,"Ġcontaining":6514,"ĠBisque":6515,"Quick":6516,"ĠNutty":6517,"phant":6518,"Ġindividually":6519,"Ġmeasured":6520,"Chicken":6521,"ibb":6522,"Ġsterile":6523,"Ġburrito":6524,"ĠTenderl":6525,"Ġskewer":6526,"Ġrises":6527,"Ġproduc":6528,"ĠWaffles":6529,"efinitely":6530,"Bl":6531,"pineapple":6532,"pacho":6533,"sour":6534,"sto":6535,"ugs":6536,"iness":6537,"Ġsat":6538,"Ġtong":6539,"Ġtaking":6540,"arro":6541,"ila":6542,"Ġchange":6543,"icus":6544,"leans":6545,"leave":6546,"Ġ27":6547,"Ġsugared":6548,"ĠSub":6549,"aces":6550,"acing":6551,"acao":6552,"ĠPizzas":6553,"ĠTen":6554,"Ġunroll":6555,"raine":6556,"cherry":6557,"ume":6558,"Ġjunior":6559,"ĠChutney":6560,"ĠCholesterol":6561,"ĠDark":6562,"ĠWacky":6563,"ĠIda":6564,"Ġsmok":6565,"ĠFoil":6566,"ĠFree":6567,"ĠLite":6568,"ĠGel":6569,"Ġserves":6570,"Ġappears":6571,"ĠEvery":6572,"Ġdoughnut":6573,"Ġliberally":6574,"Ġupon":6575,"cedure":6576,"ĠPeek":6577,"ĠNachos":6578,"ĠYams":6579,"Ġcontains":6580,"Ġturned":6581,"ĠDogs":6582,"ĠRoquef":6583,"ĠFlip":6584,"Ġdrip":6585,"ĠScones":6586,"sci":6587,"azpacho":6588,"ĠAla":6589,"Ġflattened":6590,"ĠStrawberries":6591,"ĠOrleans":6592,"Ġgrilled":6593,"Ġpreference":6594,"ĠWorking":6595,"Ġprocedure":6596,"ĠOriginal":6597,"Ġcrepes":6598,"ĠPowdered":6599,"ĠBonn":6600,"Ġcollard":6601,"Ġsteel":6602,"ĠGooey":6603,"ĠKids":6604,"Ġparsnips":6605,"vegetable":6606,"ĠLorraine":6607,"Ġmembran":6608,"ĠFlorentine":6609,"viticus":6610,"Ġresemble":6611,"ĠBavarian":6612,"ĠRoquefort":6613,"\")":6614,"App":6615,"Don":6616,"Pre":6617,"\\.":6618,"cal":6619,"down":6620,"gl":6621,"lt":6622,"luck":6623,"nold":6624,"nier":6625,"ti":6626,"tor":6627,"Ġcouscous":6628,"Ġtry":6629,"eslaw":6630,"ils":6631,"Ġchoose":6632,"ĠCit":6633,"Ġsup":6634,"itter":6635,"acc":6636,"ĠTry":6637,"olf":6638,"usters":6639,"ĠMust":6640,"raps":6641,"omato":6642,"Ġsho":6643,"ups":6644,"ĠDeath":6645,"ĠWestern":6646,"ient":6647,"Ġsem":6648,"ĠLily":6649,"ĠLobster":6650,"oughy":6651,"emp":6652,"Ġravi":6653,"ananas":6654,"ĠThat":6655,"Ġpeels":6656,"ĠSherry":6657,"Ġchilli":6658,"perial":6659,"Ġpicks":6660,"Ġhandfuls":6661,"arkling":6662,"ĠScrip":6663,"Ġparticles":6664,"Ġagainst":6665,"Ġbackfin":6666,"ĠMincemeat":6667,"Ġskimmed":6668,"Ġacid":6669,"Ġacini":6670,"eggs":6671,"Ġflowerpot":6672,"Ġindefinitely":6673,"ĠSmall":6674,"ĠImperial":6675,"Ġcasing":6676,"athy":6677,"Ġdepends":6678,"ĠHello":6679,"rounded":6680,"Ġcreate":6681,"Ġfasten":6682,"ĠFettucini":6683,"Ġcontinuing":6684,"ĠPierce":6685,"ĠAvocado":6686,"Ġcalled":6687,"ĠJewish":6688,"Ġhazelnuts":6689,"Ġravioli":6690,"ĠScripture":6691,"Baked":6692,"Lime":6693,"Make":6694,"ais":6695,"appy":6696,"book":6697,"bite":6698,"con":6699,"gran":6700,"tou":6701,"tMix":6702,"wheat":6703,"erne":6704,"Ġmacaroons":6705,"utto":6706,"ouille":6707,"Ġfondue":6708,"ĠCider":6709,"ĠCrispies":6710,"asts":6711,"Ġele":6712,"Ġgent":6713,"Ġgame":6714,"Ġflesh":6715,"isette":6716,"ĠTaffy":6717,"illing":6718,"raisins":6719,"Ġsteep":6720,"uckey":6721,"Ġcrimp":6722,"Ġthrow":6723,"Ġgren":6724,"ĠRye":6725,"ĠChuck":6726,"ĠCherries":6727,"ĠChabl":6728,"Ġricotta":6729,"color":6730,"ĠDolly":6731,"ĠWish":6732,"ĠWinter":6733,"ience":6734,"Ġcorner":6735,"ĠFix":6736,"ĠFull":6737,"aint":6738,"Ġblocks":6739,"ĠHoll":6740,"ought":6741,"ĠInstant":6742,"ĠGazpacho":6743,"Ġcarbon":6744,"Ġcracks":6745,"Ġshreds":6746,"ĠOle":6747,"Ġpuddings":6748,"Ġpoured":6749,"ĠEtou":6750,"ĠThank":6751,"Ġstanding":6752,"Ġcoleslaw":6753,"ĠButtercream":6754,"Ġbrisk":6755,"ĠCarne":6756,"ĠConfetti":6757,"Ġanything":6758,"Ġinsert":6759,"stitute":6760,"Ġtoweling":6761,"Ġgetting":6762,"ĠPhilly":6763,"ĠMarnier":6764,"Potato":6765,"Ġstemmed":6766,"ĠCucumbers":6767,"ĠSecrets":6768,"Crust":6769,"ĠBox":6770,"Mixture":6771,"Ġpalms":6772,"Ġpierce":6773,"ĠThinly":6774,"ylv":6775,"Ġdelicately":6776,"ĠMostaccioli":6777,"ĠTenderloin":6778,"sciutto":6779,"ĠChablis":6780,"'ll":6781,"(\"":6782,"26":6783,"48":6784,"American":6785,"Cream":6786,"Egg":6787,"Easy":6788,"Orange":6789,"Ritz":6790,"Sa":6791,"Sugar":6792,"but":6793,"bbits":6794,"fa":6795,"fold":6796,"her":6797,"ler":6798,"mber":6799,"Ġcray":6800,"Ġtuck":6801,"Ġomelet":6802,"atel":6803,"andel":6804,"Ġfig":6805,"Ġfield":6806,"Ġchampagne":6807,"Ġwhe":6808,"ically":6809,"level":6810,"original":6811,"ĠBun":6812,"ĠParm":6813,"ĠTropical":6814,"Ġunp":6815,"Ġvol":6816,"Ġvegetarian":6817,"oto":6818,"ĠMe":6819,"Ġcreamer":6820,"Ġcane":6821,"Ġsaucepot":6822,"Ġwhere":6823,"ĠDO":6824,"Ġspiced":6825,"ĠWet":6826,"ĠFinger":6827,"ĠFunnel":6828,"ĠFondue":6829,"Ġxxx":6830,"ĠHel":6831,"Ġrabbits":6832,"Ġpapers":6833,"Ġheart":6834,"Ġsciss":6835,"Ġrip":6836,"120":6837,"Ġ160":6838,"ĠDozen":6839,"ĠUnwrap":6840,"Ġscallop":6841,"ĠEggnog":6842,"Ġunsliced":6843,"ĠMints":6844,"ĠMinestrone":6845,"Ġconsider":6846,"ĠDorito":6847,"clude":6848,"Ġstacks":6849,"Ġwonderful":6850,"Ġburritos":6851,"ĠFinally":6852,"ĠLastly":6853,"Ġpineapples":6854,"ĠDilly":6855,"Ġtamari":6856,"ĠMiniature":6857,"ĠLike":6858,"tPour":6859,"ĠGeorg":6860,"ĠHillshire":6861,"Raisin":6862,"Ġparboiled":6863,"pposite":6864,"ĠCitrus":6865,"Ġsupreme":6866,"Ġgrenadine":6867,";\\":6868,"Inch":6869,"Mar":6870,"One":6871,"cover":6872,"diced":6873,"ias":6874,"plet":6875,"Ġsilk":6876,"anks":6877,"ania":6878,"Ġtend":6879,"Ġopposite":6880,"Ġmaker":6881,"leaf":6882,"ĠSuc":6883,"ĠSome":6884,"ĠBarb":6885,"Ġflip":6886,"Ġhum":6887,"ĠMicro":6888,"allon":6889,"ado":6890,"rien":6891,"Ġsafe":6892,"ĠRuth":6893,"cold":6894,"colator":6895,"Ġspl":6896,"iman":6897,"imate":6898,"umber":6899,"member":6900,"inks":6901,"ĠHome":6902,"Ġcarob":6903,"Ġdrying":6904,"wegian":6905,"Ġalone":6906,"Ġslight":6907,"ĠJar":6908,"Ġprevi":6909,"ewh":6910,"ĠRolled":6911,"ockets":6912,"ĠMelba":6913,"Ġfind":6914,"ĠYour":6915,"Ġstandard":6916,"serving":6917,"Ġtubs":6918,"Ġhandled":6919,"Ġneeds":6920,"Ġendive":6921,"Ġpatience":6922,"Ġperiod":6923,"Ġconcentrated":6924,"ĠDribble":6925,"Ġscald":6926,"uchen":6927,"Ġdoubles":6928,"ĠProsciutto":6929,"Ġkindness":6930,"ĠCrescents":6931,"hydrate":6932,"ĠFantasy":6933,"ĠBlonde":6934,"ĠCarolina":6935,"Ġchorizo":6936,"ĠElegant":6937,"ĠSmothered":6938,"Ġsemis":6939,"ĠEtouffee":6940,"Ġvolume":6941,"ĠGeorgia":6942,"'ve":6943,"Pam":6944,"__":6945,"agg":6946,"cle":6947,"cus":6948,"grated":6949,"iber":6950,"mly":6951,"powder":6952,"son":6953,"sal":6954,"tips":6955,"ince":6956,"Ġtied":6957,"Ġparch":6958,"Ġpale":6959,"enized":6960,"ouff":6961,"Ġfarm":6962,"ĠCast":6963,"Ġdec":6964,"Ġdoves":6965,"Ġgas":6966,"Ġla":6967,"Ġlunch":6968,"heasant":6969,"ĠBour":6970,"ĠBananas":6971,"ĠPaul":6972,"Ġunmold":6973,"Ġha":6974,"Ġhun":6975,"Ġforks":6976,"chuck":6977,"rips":6978,"Ġnachos":6979,"ĠChi":6980,"ĠChest":6981,"Ġrubbed":6982,"abisco":6983,"urst":6984,"ĠWedges":6985,"Ġreg":6986,"ĠFle":6987,"ĠFit":6988,"meas":6989,"Ġbreadsticks":6990,"Ġdishpan":6991,"ember":6992,"Ġrope":6993,"Ġable":6994,"orean":6995,"Ġexchange":6996,"ĠBroth":6997,"ĠOw":6998,"ĠEsp":6999,"ĠEven":7000,"Ġsquir":7001,"Ġsweeten":7002,"ĠVien":7003,"ĠThere":7004,"oconut":7005,"ĠNana":7006,"ĠSauteed":7007,"Ġscatter":7008,"Ġqts":7009,"Ġkids":7010,"ĠArm":7011,"ogenized":7012,"aily":7013,"plus":7014,"ĠZiti":7015,"ĠSoy":7016,"Ġdiamond":7017,"Ġpounded":7018,"Ġkneading":7019,"ĠGlor":7020,"afers":7021,"Ġfrosted":7022,"ajita":7023,"ĠToasted":7024,"ĠStromb":7025,"ĠWheaties":7026,"Stuffed":7027,"ĠNeiman":7028,"ĠExtra":7029,"pecially":7030,"ĠSunda":7031,"ĠMcButter":7032,"ĠPinto":7033,"ĠSauterne":7034,"ĠAmish":7035,"Ġespecially":7036,"ĠOysters":7037,"Ġ260":7038,"ĠPorcupine":7039,"ĠBeau":7040,"Ġvegies":7041,"andaise":7042,"Ġbushel":7043,"ĠEvans":7044,"ĠRellenos":7045,"ĠGelatin":7046,"Ġcarbonated":7047,"ĠParmig":7048,"Ġxxxx":7049,"Ġsemisweet":7050,"!).":7051,"110":7052,"French":7053,"Gr":7054,"Kay":7055,"On":7056,"follow":7057,"han":7058,"rit":7059,"tSp":7060,"Ġcured":7061,"Ġsilver":7062,"Ġsizes":7063,"Ġtater":7064,"esis":7065,"Ġmess":7066,"reak":7067,"reng":7068,"anding":7069,"Ġfun":7070,"Ġwid":7071,"Ġwipe":7072,"ica":7073,"icient":7074,"sprinkle":7075,"ĠCereal":7076,"amarina":7077,"Ġeff":7078,"Ġdred":7079,"Ġdaily":7080,"Ġladle":7081,"ĠBel":7082,"isch":7083,"ĠTreat":7084,"usci":7085,"raight":7086,"omar":7087,"Ġthough":7088,"Ġgroup":7089,"Ġrinds":7090,"standing":7091,"eflon":7092,"ĠSpry":7093,"ĠLin":7094,"ĠLush":7095,"rinkles":7096,"Ġslab":7097,"ĠOR":7098,"ĠKielbasa":7099,"ĠBlender":7100,"Ġsmoothly":7101,"ĠYam":7102,"ĠShoo":7103,"ĠBeet":7104,"Ġotherwise":7105,"Ġletting":7106,"ĠBreaded":7107,"ĠButternut":7108,"Ġevaporates":7109,"Ġpod":7110,"Ġtwists":7111,"ermits":7112,"istrib":7113,"ĠSelect":7114,"ĠConfection":7115,"Ġstockpot":7116,"Ġbroiling":7117,"dobo":7118,"ĠScallops":7119,"Ġsteamer":7120,"Ġdepression":7121,"Ġworking":7122,"ĠPlay":7123,"ĠPlain":7124,"Ġmethod":7125,"Ġomitting":7126,"Ġcontinually":7127,"wheel":7128,"Ġcrystall":7129,"Ġimpro":7130,"rize":7131,"Ġsomewh":7132,"Ġdrumsticks":7133,"Ġholidays":7134,"orida":7135,"ĠChoco":7136,"Ġindentation":7137,"Ġsleeve":7138,"ĠHollandaise":7139,"Ġscissors":7140,"Ġconsideration":7141,"ĠOwens":7142,"rength":7143,"Best":7144,"Bone":7145,"Bean":7146,"Very":7147,"Yield":7148,"after":7149,"banana":7150,"cub":7151,"gan":7152,"herb":7153,"iar":7154,"iger":7155,"por":7156,"pound":7157,"rice":7158,"rano":7159,"slightly":7160,"uke":7161,"wurst":7162,"Ġ=":7163,"inom":7164,"intz":7165,"Ġpli":7166,"Ġmush":7167,"only":7168,"Ġfix":7169,"root":7170,"Ġsuff":7171,"ital":7172,"Ġdots":7173,"ĠSol":7174,"ĠSens":7175,"Ġgoose":7176,"ĠBubble":7177,"ĠPass":7178,"ĠPrize":7179,"Ġfluff":7180,"ĠTakes":7181,"Ġunif":7182,"illi":7183,"ĠAut":7184,"Ġmince":7185,"Ġher":7186,"Ġstraight":7187,"Ġnine":7188,"Ġmark":7189,"third":7190,"ĠRey":7191,"ĠChar":7192,"ĠDad":7193,"ĠWafers":7194,"iment":7195,"ĠSpeed":7196,"Ġjug":7197,"Ġseash":7198,"ĠStar":7199,"ĠFool":7200,"ĠFries":7201,"ĠFriend":7202,"ifth":7203,"assail":7204,"apes":7205,"acher":7206,"Ġcare":7207,"should":7208,"Ġaltogether":7209,"osition":7210,"Ġexp":7211,"Ġoleomar":7212,"ĠEvenly":7213,"ĠBlanch":7214,"ĠVegetarian":7215,"ĠVinaigrette":7216,"ĠChews":7217,"ĠNabisco":7218,"issolved":7219,"Ġscoops":7220,"reeze":7221,"Ġspooning":7222,"Ġcolors":7223,"uckle":7224,"Ġhandling":7225,"ĠCornmeal":7226,"ĠFlorida":7227,"Ġdribble":7228,"ĠLeviticus":7229,"ĠCongo":7230,"stituted":7231,"ĠPete":7232,"ĠCloves":7233,"ĠSmok":7234,"Ġhomogenized":7235,"Ġdeluxe":7236,"crumbled":7237,"cluded":7238,"ibby":7239,"Ġscooped":7240,"ĠSteamed":7241,"Ġburgers":7242,"Ġscrub":7243,"!!!":7244,"Ġdampened":7245,"Ġsectioned":7246,"Ġfeet":7247,"print":7248,"aliano":7249,"ĠBrickle":7250,"Ġproduct":7251,"ĠBonnet":7252,"nolds":7253,"Ġgentle":7254,"ĠFleisch":7255,"ĠSundae":7256,"Ġsomewhat":7257,"inomoto":7258,"Ġuniform":7259,"ĠReynolds":7260,"ĠSpeedy":7261,"Ġoleomargarine":7262,")*":7263,"31":7264,"450":7265,"Che":7266,"Fly":7267,"Noodle":7268,"Oe":7269,"Remove":7270,"Soup":7271,"Save":7272,"aur":7273,"layer":7274,"neck":7275,"opped":7276,"rat":7277,"wood":7278,"Ġtahini":7279,"Ġour":7280,"Ġbis":7281,"Ġbundles":7282,"Ġpres":7283,"Ġproof":7284,"Ġmatch":7285,"Ġmicro":7286,"ati":7287,"almon":7288,"also":7289,"oud":7290,"Ġwe":7291,"Ġtots":7292,"spic":7293,"lemon":7294,"ĠCrinkles":7295,"asing":7296,"Ġaverage":7297,"Ġeyes":7298,"ĠSilk":7299,"tery":7300,"oot":7301,"Ġunseasoned":7302,"Ġunpared":7303,"Ġvelveeta":7304,"Ġchoy":7305,"ĠMark":7306,"chatel":7307,"umn":7308,"Ġshanks":7309,"Ġthing":7310,"Ġoverlap":7311,"ĠDuck":7312,"Ġsparkling":7313,"ĠWel":7314,"Ġrelease":7315,"ĠFri":7316,"ĠFud":7317,"Ġyet":7318,"ifter":7319,"ĠCooker":7320,"aper":7321,"ĠLace":7322,"Ġwhitefish":7323,"ĠHors":7324,"ĠHappy":7325,"Ġcling":7326,"ĠServing":7327,"Ġkale":7328,"ĠCrisscross":7329,"ĠPrep":7330,"ĠJu":7331,"ĠKet":7332,"Ġuses":7333,"ĠItaliano":7334,"Ġcontro":7335,"ĠPotluck":7336,"Ġscraps":7337,"ĠRoy":7338,"Ġcroiss":7339,"Ġpinching":7340,"Ġcanner":7341,"ĠForest":7342,"Ġrecon":7343,"Ġrecomm":7344,"ranging":7345,"Ġfilo":7346,"ĠCaramels":7347,"ĠCrisps":7348,"ĠKraut":7349,"Ġitself":7350,"ĠNorwegian":7351,"Ġfitted":7352,"Ġstrings":7353,"ĠPlus":7354,"Ġgoat":7355,"Ġgoing":7356,"Ġdropping":7357,"Ġliner":7358,"umdrop":7359,"Ġdecorative":7360,"ĠGrahams":7361,"ĠFettucine":7362,"floured":7363,"Ġhollowed":7364,"tCover":7365,"ĠRounds":7366,"Ġchecking":7367,"eather":7368,"ĠLinguini":7369,"ufchatel":7370,"Ġcollards":7371,"ĠPicnic":7372,"ĠFasten":7373,"Ġreplacement":7374,"strawberry":7375,"Pepper":7376,"Ġsnapper":7377,"Ġcourse":7378,"Ġajinomoto":7379,"ething":7380,"sprayed":7381,"Ġjoint":7382,"Ġbrewed":7383,"ltimate":7384,"Marcus":7385,"Ġparchment":7386,"Ġregisters":7387,"ĠVienna":7388,"istribute":7389,"Ġsufficient":7390,"ĠFoolproof":7391,"ĠFleischmann":7392,"--":7393,"Brien":7394,"Fl":7395,"Filled":7396,"High":7397,"My":7398,"divided":7399,"hol":7400,"honey":7401,"ipping":7402,"sylv":7403,"tip":7404,"twith":7405,"uese":7406,"wd":7407,"ĠQ":7408,"Ġrain":7409,"Ġsifter":7410,"Ġbasic":7411,"Ġpic":7412,"Ġmight":7413,"reath":7414,"uting":7415,"uture":7416,"onz":7417,"Ġfound":7418,"Ġfiber":7419,"Ġfuture":7420,"Ġchurn":7421,"spread":7422,"Ġincluded":7423,"ĠCrimp":7424,"amount":7425,"ĠSex":7426,"ĠBus":7427,"ĠBundles":7428,"ĠBuckey":7429,"ĠPina":7430,"ĠPesto":7431,"ĠTeflon":7432,"Ġhouse":7433,"ĠMacaroons":7434,"Ġstuck":7435,"Ġstrength":7436,"ires":7437,"Ġnumber":7438,"Ġshaker":7439,"Ġsole":7440,"Ġthinned":7441,"thick":7442,"ĠRain":7443,"ĠRose":7444,"iev":7445,"Ġspots":7446,"ipes":7447,"Ġseem":7448,"quarts":7449,"quila":7450,"ĠFe":7451,"ĠFancy":7452,"veness":7453,"Ġ64":7454,"Ġbeefy":7455,"ĠHand":7456,"ĠHazel":7457,"Ġhotter":7458,"Ġmeatless":7459,"antime":7460,"uffles":7461,"Ġplay":7462,"estyle":7463,"Ġbok":7464,"ĠBrowns":7465,"ĠJumbo":7466,"ĠKu":7467,"ĠKrisp":7468,"ĠKuchen":7469,"Ġprebaked":7470,"Ġsalads":7471,"ĠVir":7472,"ĠChew":7473,"ĠUltimate":7474,"Ġpicked":7475,"Ġcrook":7476,"Ġcompressed":7477,"Ġhardens":7478,"ĠFruited":7479,"ĠCanned":7480,"reserving":7481,"Ġpercolator":7482,"ĠOregano":7483,"Ġwhisking":7484,"Ġfourth":7485,"Ġnever":7486,"Ġunderstanding":7487,"Ġhamburgers":7488,"Ġsteaming":7489,"Serve":7490,"ĠColada":7491,"aturated":7492,"ĠPlant":7493,"ĠComplet":7494,"Ġfingertips":7495,"Ġcrepe":7496,"Ġspirals":7497,"ugula":7498,"uguese":7499,"ĠTrash":7500,"Ġhelps":7501,"Ġfeels":7502,"ĠPuppy":7503,"Ġsteady":7504,"ĠGeorge":7505,"ĠCarbon":7506,"skinless":7507,"Ġmotion":7508,"Ġhusks":7509,"stock":7510,"Ġtongs":7511,"ĠIdaho":7512,"according":7513,"granulated":7514,"Ġbriskly":7515,"Sausage":7516,"fait":7517,"Ġcrayfish":7518,"Ġsplash":7519,"ĠParmigiana":7520,"uscious":7521,"Ġpliable":7522,"raten":7523,"Ġcontrol":7524,"sylvania":7525,"ĠRainbow":7526,")(":7527,".'":7528,"Ar":7529,"Jack":7530,"Note":7531,"Recipe":7532,"best":7533,"bons":7534,"cass":7535,"eer":7536,"ege":7537,"gini":7538,"lers":7539,"mo":7540,"makes":7541,"tB":7542,"ward":7543,"Ġ)":7544,"Ġcase":7545,"Ġsac":7546,"anuts":7547,"Ġbought":7548,"Ġprop":7549,"Ġpizzas":7550,"Ġmen":7551,"Ġmic":7552,"ening":7553,"enda":7554,"ented":7555,"rock":7556,"ĠCab":7557,"orpor":7558,"itt":7559,"itan":7560,"Ġdef":7561,"Ġpepe":7562,"ĠBill":7563,"Ġunwrapped":7564,"used":7565,"ĠMam":7566,"tilage":7567,"Ġstop":7568,"ometimes":7569,"tsugar":7570,"rif":7571,"Ġbakes":7572,"ethod":7573,"Ġattract":7574,"ĠRest":7575,"ĠChipped":7576,"ĠChampagne":7577,"ĠChunky":7578,"Ġrare":7579,"Ġruns":7580,"Ġroughy":7581,"ĠDistribute":7582,"ĠWassail":7583,"ĠSpl":7584,"Ġsear":7585,"quarter":7586,"ĠStay":7587,"ĠFajitas":7588,"Ġblossoms":7589,"ĠHermits":7590,"ĠGumdrop":7591,"Ġcartilage":7592,"Ġrock":7593,"Ġclaw":7594,"Ġkahlua":7595,"ĠCovered":7596,"Ġtenderized":7597,"ĠSalami":7598,"ĠPeople":7599,"Ġfinally":7600,"ĠNight":7601,"ĠNuggets":7602,"ĠYear":7603,"roproof":7604,"Ġscrew":7605,"ĠGrass":7606,"Ġbrittle":7607,"Ġcrabs":7608,"arines":7609,"Ġbringing":7610,"ogi":7611,"Ġsecret":7612,"ĠTopped":7613,"ĠTofu":7614,"Ġammon":7615,"coated":7616,"ĠStop":7617,"ildren":7618,"ĠGreens":7619,"etta":7620,"ĠBrandy":7621,"Ġcrockpot":7622,"irty":7623,"boiling":7624,"ĠFarms":7625,"ĠGlass":7626,"Ġveggie":7627,"ĠColor":7628,"Ġpulled":7629,"Ġassem":7630,"rect":7631,"unny":7632,"Ġbright":7633,"ĠMcKay":7634,"ĠFirmly":7635,"ingersnap":7636,"ĠPennsylvania":7637,"ĠBraised":7638,"Ġcountertop":7639,"Ġthreads":7640,"Ġfeel":7641,"Ġdistributed":7642,"Mexican":7643,"minutes":7644,"ĠRosemary":7645,"Ġrequired":7646,"ĠGenesis":7647,"ĠEscort":7648,"Ġfritters":7649,"Ġquantity":7650,"Appetizer":7651,"ĠCastle":7652,"ĠStromboli":7653,"ĠConfectioners":7654,"italini":7655,"Ġrecommended":7656,"Ġpicnic":7657,"Ġcrookneck":7658,"ginia":7659,"Ġmicroproof":7660,"55":7661,"Cool":7662,"Del":7663,"Gl":7664,"Vegetab":7665,"dark":7666,"ever":7667,"gate":7668,"ki":7669,"ked":7670,"lin":7671,"lite":7672,"nie":7673,"ply":7674,"ura":7675,"uerb":7676,"zil":7677,"Ġread":7678,"Ġcacao":7679,"Ġsake":7680,"ests":7681,"Ġpol":7682,"Ġpare":7683,"Ġfifth":7684,"itting":7685,"ĠSize":7686,"ĠPate":7687,"ĠPreserves":7688,"ĠTraditional":7689,"Ġvinaigrette":7690,"ĠAspic":7691,"using":7692,"Ġchopping":7693,"ĠMolly":7694,"ria":7695,"Ġshank":7696,"wns":7697,"Ġjigger":7698,"Ġgrater":7699,"ieved":7700,"ĠDifferent":7701,"urkey":7702,"Ġspins":7703,"Ġrear":7704,"ĠString":7705,"Ġyears":7706,"ĠLop":7707,"ĠLee":7708,"ĠLady":7709,"ĠLibby":7710,"ĠLuscious":7711,"Ġblu":7712,"Ġheatproof":7713,"ĠHi":7714,"ĠHer":7715,"Ġconven":7716,"ĠIng":7717,"ĠInn":7718,"ĠGather":7719,"overnight":7720,"Ġclings":7721,"anta":7722,"Ġslush":7723,"ĠEither":7724,"Ġarea":7725,"ĠVerm":7726,"ĠThumb":7727,"ĠThyme":7728,"rowroot":7729,"Ġbagu":7730,"Ġchilling":7731,"Ġmashing":7732,"Ġbouquet":7733,"Ġgloves":7734,"Ġcurl":7735,"ĠDoes":7736,"Ġpinches":7737,"Ġarugula":7738,"Ġarrowroot":7739,"ĠFloat":7740,"ĠGrey":7741,"ĠFruity":7742,"Ġpatted":7743,"ĠConc":7744,"ĠUnder":7745,"Ġgarnishes":7746,"ĠLemonade":7747,"fort":7748,"inesap":7749,"Ġbulb":7750,"ĠCrushed":7751,"ĠApproximately":7752,"Ġretain":7753,"Ġworth":7754,"Ġgrilling":7755,"ĠFrito":7756,"Ġsqueezing":7757,"ĠBurrito":7758,"type":7759,"ĠCrepes":7760,"Ġdusting":7761,"ĠHerbs":7762,"ĠComstock":7763,"ĠNeufchatel":7764,"ĠDirty":7765,"ĠOptional":7766,"Ġomitted":7767,"ĠFranks":7768,"Ġsuitable":7769,"ĠPenny":7770,"immers":7771,"tCook":7772,"Ġcavities":7773,"ĠSnacks":7774,"ĠBrazil":7775,"Ġsnacks":7776,"Ġliters":7777,"Ġcodfish":7778,"augh":7779,"Beef":7780,"Cookies":7781,"ĠSouthwest":7782,"Ġincorpor":7783,"Ġscalloped":7784,"Ġfarmer":7785,"Ġeffect":7786,"ĠAutumn":7787,"ĠFriendship":7788,"Oeuvres":7789,"Ġreconstituted":7790,"ĠVirginia":7791,"ĠCarbonara":7792,"uerbraten":7793,"Ex":7794,"He":7795,"Mo":7796,"Mozzarella":7797,"Oatmeal":7798,"Un":7799,"Velveeta":7800,"br":7801,"cer":7802,"eter":7803,"found":7804,"hal":7805,"ner":7806,"rates":7807,"squ":7808,"tF":7809,"tb":7810,"tub":7811,"trem":7812,"warm":7813,"Ġut":7814,"Ġiced":7815,"inate":7816,"Ġsort":7817,"Ġsimmers":7818,"Ġbud":7819,"Ġbuy":7820,"Ġbigger":7821,"Ġpurch":7822,"Ġpheasant":7823,"Ġmove":7824,"Ġmussels":7825,"Ġmult":7826,"real":7827,"ality":7828,"Ġtoes":7829,"ores":7830,"Ġau":7831,"Ġduty":7832,"Ġdressed":7833,"ĠSort":7834,"Ġgold":7835,"Ġgolf":7836,"ĠBudd":7837,"ĠBatch":7838,"ĠTips":7839,"ĠTemp":7840,"Ġbutterf":7841,"Ġminimum":7842,"Ġhang":7843,"Ġhors":7844,"raham":7845,"allions":7846,"adina":7847,"Ġforgi":7848,"changes":7849,"ĠRise":7850,"acker":7851,"urry":7852,"Ġspear":7853,"oiled":7854,"Ġjuiced":7855,"Ġselec":7856,"ĠFeeds":7857,"vender":7858,"Ġblot":7859,"Ġcones":7860,"ffe":7861,"Ġcarcass":7862,"Ġcutlet":7863,"Ġhalve":7864,"Ġraised":7865,"ĠOwn":7866,"ĠCutlets":7867,"Ġbody":7868,"ĠPrecook":7869,"ĠSauerbraten":7870,"ĠVic":7871,"ĠThins":7872,"ifteen":7873,"ĠSherbet":7874,"Ġbagels":7875,"ĠSlide":7876,"ĠGram":7877,"ĠCorning":7878,"ĠWithout":7879,"extra":7880,"Ġcannellini":7881,"Ġcomple":7882,"Ġ240":7883,"ĠCondensed":7884,"ational":7885,"ĠAlas":7886,"when":7887,"Ġperfect":7888,"Ġpintos":7889,"Ġcaramelized":7890,"Ġrosamarina":7891,"ĠMarinara":7892,"Ġfilet":7893,"Ġsnap":7894,"ĠClams":7895,"ĠRequ":7896,"ĠSmash":7897,"ĠPancake":7898,"Ġgives":7899,"ĠMarie":7900,"ĠToasties":7901,"alfa":7902,"ĠBarley":7903,"Ġfrankfurter":7904,"prepared":7905,"Ġnectarines":7906,"bbie":7907,"ĠTriscuit":7908,"ĠJudy":7909,"ignon":7910,"Ġsaucer":7911,"ĠLiquid":7912,"ĠPorcupines":7913,"ĠSandies":7914,"Ġstorage":7915,"ĠLeftovers":7916,"Ġsizzling":7917,"Ġtequila":7918,"Ġmeantime":7919,"ĠCavat":7920,"Ġelephant":7921,"measure":7922,"ĠGlorified":7923,"ĠLinda":7924,"cubed":7925,"ĠKetchup":7926,"ĠBuckeyes":7927,"Ġattractive":7928,"Ġammonia":7929,"Glazed":7930,"ĠLopez":7931,"Ġforgiveness":7932,".*":7933,"85":7934,"Camp":7935,"Crock":7936,"Mon":7937,"Op":7938,"aves":7939,"cool":7940,"falfa":7941,"ha":7942,"hom":7943,"iano":7944,"lo":7945,"sin":7946,"wie":7947,"Ġess":7948,"Ġ110":7949,"Ġbu":7950,"Ġband":7951,"Ġpilaf":7952,"Ġmac":7953,"Ġmugs":7954,"illets":7955,"reau":7956,"ona":7957,"Ġfeta":7958,"Ġfajita":7959,"ĠCam":7960,"ĠCenter":7961,"amel":7962,"Ġdull":7963,"ĠSin":7964,"ĠSan":7965,"ĠSee":7966,"ĠSanta":7967,"ĠBisc":7968,"ĠBird":7969,"acular":7970,"ĠPoup":7971,"ĠPep":7972,"ĠPost":7973,"Ġflo":7974,"ĠTarragon":7975,"ĠTrout":7976,"Ġmins":7977,"Ġhush":7978,"Ġchocol":7979,"ĠMove":7980,"ĠMaster":7981,"elly":7982,"ooks":7983,"Ġnor":7984,"Ġshow":7985,"Ġshoe":7986,"Ġshows":7987,"Ġsoap":7988,"Ġthink":7989,"Ġthose":7990,"Ġjimm":7991,"Ġwhiz":7992,"ĠRec":7993,"abul":7994,"stems":7995,"ĠSprouts":7996,"ĠFabul":7997,"Ġsource":7998,"Ġheats":7999,"ope":8000,"ĠGri":8001,"emi":8002,"Ġrow":8003,"ĠSerrano":8004,"Ġmaybe":8005,"Ġalfalfa":8006,"lied":8007,"ĠJim":8008,"ĠKr":8009,"ĠKorean":8010,"ĠBlossom":8011,"Ġoreo":8012,"ĠNice":8013,"ĠShip":8014,"Ġquality":8015,"ĠBrer":8016,"Ġrid":8017,"Ġstiffen":8018,"roximate":8019,"ossum":8020,"Ġcroquettes":8021,"Ġhardened":8022,"cohol":8023,"Ġhighest":8024,"Ġpinwheels":8025,"ĠFlank":8026,"ividual":8027,"ĠSeasoned":8028,"ĠUnbaked":8029,"Ġanytime":8030,"ford":8031,"Ġperch":8032,"ĠCrumbs":8033,"ĠPatch":8034,"Ġallowed":8035,"ĠClusters":8036,"ĠSeparately":8037,"ĠPeachy":8038,"ĠGlory":8039,"Ġscalding":8040,"ĠTwists":8041,"Ġ360":8042,"ĠRomanoff":8043,"ummettes":8044,"ectacular":8045,"Ġentirely":8046,"ĠAlmonds":8047,"ĠHeap":8048,"ĠHeart":8049,"beans":8050,"Ġzesty":8051,"ĠWatermelon":8052,"Ġribbon":8053,"Ġ238":8054,"Ġdecorated":8055,"ĠHealth":8056,"tCombine":8057,"ĠAmos":8058,"ĠBraid":8059,"ĠJohnny":8060,"234":8061,"Ġdisappear":8062,"Ġstays":8063,"ĠPortuguese":8064,"Ġbrickle":8065,"When":8066,"ĠWilted":8067,"ĠSouthwestern":8068,"two":8069,"ĠQuesad":8070,"Ġsatiny":8071,"andelion":8072,"ĠBoursin":8073,"Ġcrystallized":8074,"intzes":8075,"aurant":8076,"ĠChewies":8077,"ĠSplenda":8078,"Vegetable":8079,"ĠConcord":8080,"ffeec":8081,"Campbell":8082,"Monterey":8083,"ĠPoupon":8084,"Ġjimmies":8085,"ĠFabulous":8086,".;":8087,"BQ":8088,"Cl":8089,"Carro":8090,"Coconut":8091,"Dough":8092,"Hot":8093,"Its":8094,"Jiffy":8095,"Old":8096,"Put":8097,"Yum":8098,"bled":8099,"dissolved":8100,"equal":8101,"gallon":8102,"ira":8103,"ippy":8104,"ioli":8105,"mini":8106,"opping":8107,"pine":8108,"rd":8109,"sifted":8110,"salted":8111,"tT":8112,"tto":8113,"tadd":8114,"tuntil":8115,"tRemove":8116,"tminutes":8117,"Ġcal":8118,"Ġswe":8119,"Ġsieved":8120,"Ġtil":8121,"Ġtang":8122,"Ġbund":8123,"Ġpu":8124,"Ġpra":8125,"Ġpray":8126,"Ġpockets":8127,"reck":8128,"ency":8129,"Ġchanges":8130,"lex":8131,"ĠCry":8132,"ĠCola":8133,"orice":8134,"Ġdutch":8135,"Ġditalini":8136,"Ġgourmet":8137,"Ġlife":8138,"Ġlye":8139,"ooper":8140,"ioneer":8141,"ĠBak":8142,"ĠBas":8143,"ĠBBQ":8144,"ĠPal":8145,"ĠTra":8146,"ĠTap":8147,"Ġhit":8148,"Ġstain":8149,"Ġstreusel":8150,"elled":8151,"ados":8152,"tosh":8153,"tops":8154,"Ġnog":8155,"Ġ43":8156,"redded":8157,"Ġsoaking":8158,"Ġgratin":8159,"ĠRem":8160,"ĠRanger":8161,"acks":8162,"ansas":8163,"ĠWeek":8164,"iments":8165,"ĠSpectacular":8166,"Ġadds":8167,"heath":8168,"ĠFont":8169,"Ġyield":8170,"Ġcupfuls":8171,"Ġ85":8172,"ĠLand":8173,"ĠLakes":8174,"Ġcarne":8175,"Ġcarbo":8176,"bert":8177,"iest":8178,"Ġropes":8179,"otti":8180,"reshing":8181,"liquid":8182,"Ġpapaya":8183,"lett":8184,"ĠCreamettes":8185,"estring":8186,"Ġsett":8187,"ĠKir":8188,"ĠKiev":8189,"umpti":8190,"ĠChef":8191,"Ġwaff":8192,"ĠChoy":8193,"ĠButtered":8194,"ĠButterfingers":8195,"ively":8196,"ĠTurnovers":8197,"Ġpreparation":8198,"serve":8199,"flake":8200,"ĠSear":8201,"ĠCoint":8202,"ĠCoffeec":8203,"Ġhashbrown":8204,"Ġfolded":8205,"blue":8206,"Ġdiabetic":8207,"Ġdippers":8208,"Ġinserting":8209,"ĠDivine":8210,"Ġsubstitutes":8211,"unsifted":8212,"unsalted":8213,"ĠCloud":8214,"ĠUsually":8215,"Ġfettuccini":8216,"smooth":8217,"ĠDonuts":8218,"Ġways":8219,"Ġ170":8220,"ĠAnisette":8221,"ĠAntip":8222,"broken":8223,"Ġ280":8224,"Ġ236":8225,"Ġpersimmons":8226,"ĠSnowballs":8227,"ĠSnowball":8228,"ĠMaryland":8229,"Ġmicrowaved":8230,"Ġsomething":8231,"Ġappearance":8232,"Ġvarieties":8233,"tPut":8234,"ĠSchilling":8235,"minced":8236,"stirring":8237,"ynes":8238,"ĠCarbo":8239,"ĠFantastic":8240,"hopper":8241,"giving":8242,"first":8243,"Swiss":8244,"Ġmembrane":8245,"aisy":8246,"Ġwheel":8247,"Ġprevious":8248,"Grand":8249,"ĠCharl":8250,"ĠKugel":8251,"ĠPlantation":8252,"ĠCompletely":8253,"egeburger":8254,"ĠCastleberry":8255,"ĠVermicelli":8256,"Ġbaguette":8257,"ĠVictor":8258,"wieback":8259,"Ġchocolates":8260,"umptious":8261,"ĠCointreau":8262,"250":8263,"80":8264,"BS":8265,"Day":8266,"Gran":8267,"Pro":8268,"Time":8269,"With":8270,"aire":8271,"bit":8272,"del":8273,"either":8274,"fts":8275,"fitting":8276,"last":8277,"must":8278,"ning":8279,"nam":8280,"oise":8281,"press":8282,"rint":8283,"separ":8284,"tomato":8285,"wor":8286,"work":8287,"ycle":8288,"Ġcatch":8289,"Ġsy":8290,"Ġsince":8291,"Ġton":8292,"Ġtacos":8293,"Ġob":8294,"Ġbias":8295,"Ġpen":8296,"Ġmil":8297,"Ġmid":8298,"atat":8299,"atted":8300,"utif":8301,"Ġfan":8302,"Ġfarina":8303,"Ġfajitas":8304,"ingly":8305,"icle":8306,"icama":8307,"icorice":8308,"Ġinverted":8309,"rown":8310,"asto":8311,"Ġease":8312,"Ġdisp":8313,"ĠSus":8314,"ĠSop":8315,"Ġgin":8316,"Ġgher":8317,"Ġgingersnap":8318,"Ġlaugh":8319,"Ġlicorice":8320,"Ġpeg":8321,"ĠBer":8322,"ĠBurn":8323,"ĠPur":8324,"ĠPim":8325,"ĠPioneer":8326,"ung":8327,"ungreased":8328,"uncovered":8329,"iso":8330,"Ġunless":8331,"Ġminus":8332,"Ġhad":8333,"ĠMain":8334,"ĠMethod":8335,"verly":8336,"Ġstars":8337,"Ġstopping":8338,"ucks":8339,"omach":8340,"chwe":8341,"derate":8342,"Ġbrook":8343,"Ġnuggets":8344,"Ġshaping":8345,"Ġgreasing":8346,"that":8347,"ĠRatat":8348,"Ġoils":8349,"Ġcobs":8350,"Ġcobbler":8351,"ĠDec":8352,"ĠDone":8353,"ĠDaisy":8354,"urb":8355,"ĠWinesap":8356,"redients":8357,"Ġwells":8358,"ĠStrips":8359,"inny":8360,"arshmallow":8361,"ĠHen":8362,"ĠGall":8363,"Ġmeatball":8364,"ĠCooler":8365,"eye":8366,"Ġappet":8367,"Ġskillets":8368,"ksgiving":8369,"tta":8370,"Ġsofter":8371,"ĠOur":8372,"ĠOther":8373,"entine":8374,"ĠSalted":8375,"ĠPreacher":8376,"ĠJean":8377,"Ġitalian":8378,"ĠPeanuts":8379,"Ġgingerbread":8380,"ĠNilla":8381,"Ġsoya":8382,"Ġcompany":8383,"cean":8384,"Ġdirection":8385,"Ġturtle":8386,"ĠCheesecakes":8387,"iva":8388,"Ġspooned":8389,"mium":8390,"Ġaccom":8391,"Ġaccent":8392,"Ġseparates":8393,"rocessed":8394,"Ġrecipes":8395,"ĠScott":8396,"ĠSweeten":8397,"ĠCanapes":8398,"blend":8399,"ĠAlways":8400,"angria":8401,"ĠContadina":8402,"pote":8403,"Ġgrainy":8404,"unschwe":8405,"Ġsurfaces":8406,"oya":8407,"Ġfiling":8408,"max":8409,"Ġpral":8410,"Ġcapful":8411,"ĠReally":8412,"Ġword":8413,"ĠRoman":8414,"ĠFritt":8415,"ĠWilli":8416,"Ġrotel":8417,"ĠTortillas":8418,"Ġ365":8419,"ĠOverlap":8420,"Ġdumpling":8421,"ĠAnise":8422,"ĠCompote":8423,"erde":8424,"ĠPolynes":8425,"ĠManwich":8426,"ĠParker":8427,"ĠRotini":8428,"creamy":8429,"ĠRusset":8430,"ĠFrank":8431,"ĠFrangel":8432,"Ġgluten":8433,"ĠBonbons":8434,"Ġbuttons":8435,"ĠSwirls":8436,"Ġwilt":8437,"ĠWonder":8438,"ĠSchool":8439,"ĠThanksgiving":8440,"strawberries":8441,"Ġplantains":8442,"Ġsteps":8443,"Peanut":8444,"ĠJane":8445,"Ġdraft":8446,"Ġpetite":8447,"ĠQueso":8448,"glass":8449,"itterlings":8450,"Ġshoestring":8451,"ĠArmour":8452,"Ġthoughts":8453,"almonds":8454,"ĠRoyal":8455,"Pepperidge":8456,"ĠKrispie":8457,"Ġproper":8458,"Ġdefatted":8459,"rifice":8460,"Delicious":8461,"ĠRequest":8462,"ĠTriscuits":8463,"Optional":8464,"Ġessence":8465,"Ġbundle":8466,"Ġstainless":8467,"ĠFontina":8468,"Ġwaffles":8469,"ĠCoffeecake":8470,"ĠAntipasto":8471,"ĠCarbohydrate":8472,"unschweiger":8473,"ĠPolynesian":8474,"36":8475,"Ahead":8476,"Col":8477,"Dish":8478,"Fresh":8479,"Let":8480,"Mel":8481,"Not":8482,"Re":8483,"Ro":8484,"Red":8485,"So":8486,"Will":8487,"both":8488,"ca":8489,"celery":8490,"cetta":8491,"grease":8492,"noc":8493,"oven":8494,"ska":8495,"uum":8496,"va":8497,"virgin":8498,"wreck":8499,"Ġ`":8500,"ĠST":8501,"Ġsand":8502,"anna":8503,"Ġtim":8504,"Ġtreat":8505,"Ġbibb":8506,"aro":8507,"Ġple":8508,"Ġpile":8509,"Ġpig":8510,"Ġma":8511,"ref":8512,"uton":8513,"onuts":8514,"Ġfacing":8515,"ĠCant":8516,"org":8517,"Ġ230":8518,"Ġage":8519,"Ġach":8520,"Ġdove":8521,"ĠSur":8522,"ĠSna":8523,"ĠSheath":8524,"ĠSangria":8525,"aced":8526,"ĠPres":8527,"unge":8528,"ĠTe":8529,"ĠTer":8530,"ĠTreas":8531,"ĠTilt":8532,"ĠTBS":8533,"Ġunmelted":8534,"Ġvents":8535,"Ġvented":8536,"ĠMas":8537,"ĠMild":8538,"ĠMys":8539,"ĠMacaroon":8540,"Ġwatery":8541,"Ġmilks":8542,"toasted":8543,"Ġbaker":8544,"Ġpowders":8545,".).":8546,"thirds":8547,"ĠRome":8548,"nda":8549,"ĠChurch":8550,"ĠDav":8551,"ĠWell":8552,"ĠWinning":8553,"iminate":8554,"Ġyear":8555,"aining":8556,"ĠLove":8557,"ĠLeek":8558,"aches":8559,"Ġcoconuts":8560,"Ġcone":8561,"ĠGou":8562,"ĠGod":8563,"Ġrose":8564,"Ġclay":8565,"ĠWhirl":8566,"Ġisn":8567,"Ġking":8568,"available":8569,"Ġslash":8570,"ĠEast":8571,"ĠJon":8572,"ĠJumb":8573,"Ġtabasco":8574,"ĠPears":8575,"ĠNog":8576,"ĠNeeds":8577,"ĠYank":8578,"Ġcoming":8579,"Ġdoing":8580,"ilee":8581,"ĠSett":8582,"Ġseparating":8583,"Ġaccordingly":8584,"Ġadditions":8585,"Ġbrunch":8586,"Ġsauteing":8587,"ĠFlounder":8588,"ĠQuik":8589,"scar":8590,"ĠPeppermint":8591,"igatoni":8592,"ĠUncooked":8593,"ĠUnfold":8594,"soda":8595,"ĠMexi":8596,"Ġmarinating":8597,"ĠAlmost":8598,"Ġgarnishing":8599,"Ġsubstituting":8600,"Ġunsul":8601,"ĠNutra":8602,"Ġ140":8603,"ĠCoco":8604,"Ġsurround":8605,"Ġacting":8606,"Ġcorrect":8607,"Ġpops":8608,"ĠRemember":8609,"Ġtrip":8610,"ĠCroutons":8611,"ĠTwenty":8612,"Ġrotate":8613,"Ġrotelle":8614,"Servings":8615,"added":8616,"ĠEnough":8617,"ĠCrusty":8618,"Ġlumping":8619,"Ġlooking":8620,"atures":8621,"Ġmonterey":8622,"ĠFoods":8623,"ĠSecret":8624,"Ġdecorating":8625,"bbles":8626,"ĠIndividual":8627,"Ġimprint":8628,"Ġpersonal":8629,"Spinach":8630,"ĠBorax":8631,"Ġdabs":8632,"piece":8633,"Ġplumped":8634,"ĠHamburgers":8635,"Ġdrafts":8636,"ĠCaviar":8637,"ĠRomaine":8638,"ĠSubstitute":8639,"ĠHelen":8640,"ouffer":8641,"ĠChestnut":8642,"ĠEspresso":8643,"Onion":8644,"tSpread":8645,"Ġseashell":8646,"ĠFudgy":8647,"ĠQue":8648,"Ġrainbow":8649,"moderate":8650,"ĠGrasshopper":8651,"Ġconventional":8652,"ĠIngredients":8653,"Moist":8654,"ĠBiscotti":8655,"ĠGriff":8656,"ĠShipwreck":8657,"Ġsweeter":8658,"Ġtangy":8659,"ĠVictoria":8660,"ĠRatatouille":8661,"ĠFrittata":8662,"ĠFrangelico":8663,"nocchi":8664,"ĠTBSP":8665,"ĠMystery":8666,"ĠYankee":8667,"64":8668,"An":8669,"Cabbage":8670,"Date":8671,"Duncan":8672,"Parmesan":8673,"band":8674,"bul":8675,"bhard":8676,"ceed":8677,"di":8678,"done":8679,"figs":8680,"gener":8681,"graham":8682,"hold":8683,"iqu":8684,"ject":8685,"lice":8686,"non":8687,"pour":8688,"pea":8689,"sch":8690,"simmer":8691,"seed":8692,"zetti":8693,"Ġide":8694,"Ġupper":8695,"Ġcycle":8696,"ination":8697,"Ġsound":8698,"ered":8699,"eros":8700,"Ġtarts":8701,"Ġbirds":8702,"aron":8703,"arole":8704,"Ġpaint":8705,"Ġmir":8706,"Ġmalt":8707,"Ġmug":8708,"ilies":8709,"ĠConey":8710,"ĠCatsup":8711,"order":8712,"Ġever":8713,"Ġdisc":8714,"Ġdeeds":8715,"ĠSally":8716,"Ġgm":8717,"Ġgif":8718,"acuum":8719,"ĠPit":8720,"ĠPenne":8721,"ĠPita":8722,"unks":8723,"Ġeggbe":8724,"Ġcheesecake":8725,"illo":8726,"older":8727,"Ġhere":8728,"usilli":8729,"ĠMid":8730,"ĠMich":8731,"ĠMah":8732,"Ġpeppered":8733,"Ġorien":8734,"raspberry":8735,"verbs":8736,"omat":8737,"omit":8738,"ades":8739,"Ġforget":8740,"tsh":8741,"Ġnap":8742,"Ġjal":8743,"Ġgrand":8744,"then":8745,"ĠRigatoni":8746,"ayst":8747,"ĠChick":8748,"ĠChunk":8749,"Ġrut":8750,"Ġcoal":8751,"ĠDis":8752,"ĠDepending":8753,"ĠWar":8754,"ĠWare":8755,"ĠWrapped":8756,"ighter":8757,"Ġjud":8758,"ĠStouffer":8759,"ĠFun":8760,"ific":8761,"ĠCookbook":8762,"ĠLunch":8763,"ersion":8764,"Ġsoured":8765,"ĠHas":8766,"Ġcond":8767,"aga":8768,"weed":8769,"ubilee":8770,"Ġcracklings":8771,"Ġalfredo":8772,"Ġkabobs":8773,"Ġexten":8774,"Ġapprox":8775,"eption":8776,"tthe":8777,"ĠOscar":8778,"Ġtenderize":8779,"ĠJubilee":8780,"Ġpremium":8781,"ĠVer":8782,"Ġsimmered":8783,"ĠNature":8784,"ĠNancy":8785,"Ġencl":8786,"Ġspreadable":8787,"Ġfatback":8788,"Ġconfectioner":8789,"Ġglue":8790,"Ġevaporate":8791,"Ġaccum":8792,"ucket":8793,"Ġyourself":8794,"ĠBeefy":8795,"Ġherbal":8796,"ĠDelite":8797,"Ġdeeply":8798,"reserved":8799,"ĠAlpine":8800,"ample":8801,"ĠStraws":8802,"Ġ180":8803,"ĠQuickie":8804,"irls":8805,"Ġfoams":8806,"ĠSkins":8807,"Ġfoaming":8808,"ĠSmuck":8809,"athan":8810,"Ġreseal":8811,"Ġtinted":8812,"Ġbitters":8813,"ĠHomestyle":8814,"ussel":8815,"Ġsolids":8816,"Ġwrapping":8817,"Ġwraps":8818,"Ġfinishing":8819,"These":8820,"Ġguava":8821,"ride":8822,"ĠReaLime":8823,"ĠScrambled":8824,"ĠScrumptious":8825,"Ġcreole":8826,"Ġdampen":8827,"ĠBoats":8828,"Ġvarious":8829,"Ġdrinking":8830,"ĠVeggies":8831,"tCool":8832,"check":8833,"ĠBoneless":8834,"ĠMexicali":8835,"ĠGebhard":8836,"ĠEarly":8837,"Ġlifting":8838,"ordfish":8839,"Ġdrummettes":8840,"ĠPierogi":8841,"ĠKidney":8842,"ĠAnnie":8843,"iodized":8844,"firm":8845,"Ġsmoking":8846,"Ġmembranes":8847,"Ġunpopped":8848,"Ġunprocessed":8849,"Ġripened":8850,"ĠBarbara":8851,"Ġwidth":8852,"Ġdredging":8853,"ganic":8854,"ĠBusy":8855,"tBeat":8856,"Ġsacrifice":8857,"ĠCabin":8858,"ĠThumbprint":8859,"Heart":8860,"Ġpurchased":8861,"Ġmulti":8862,"ĠSinful":8863,"ĠQuesadillas":8864,"Carrot":8865,"ĠTapioca":8866,"Ġhashbrowns":8867,"arshmallows":8868,"ĠWilliams":8869,"ĠSTI":8870,"ĠGouda":8871,"ĠGriffin":8872,"Ġgifts":8873,"Ġeggbeater":8874,"Ġoriental":8875,"ĠGebhardt":8876,"27":8877,"425":8878,"Bread":8879,"Cake":8880,"Cauliflower":8881,"Eagle":8882,"Gre":8883,"Ham":8884,"Lo":8885,"MM":8886,"Macaroni":8887,"Ori":8888,"Wesson":8889,"autif":8890,"bacon":8891,"bean":8892,"balaya":8893,"bottom":8894,"ct":8895,"cur":8896,"candied":8897,"good":8898,"hand":8899,"house":8900,"join":8901,"lb":8902,"long":8903,"my":8904,"mers":8905,"pork":8906,"pint":8907,"semi":8908,"td":8909,"tie":8910,"tMakes":8911,"ues":8912,"vice":8913,"washed":8914,"yd":8915,"Ġcamp":8916,"Ġtan":8917,"arified":8918,"edged":8919,"esa":8920,"Ġport":8921,"Ġfar":8922,"Ġfur":8923,"Ġface":8924,"Ġfowl":8925,"Ġfruc":8926,"spices":8927,"Ġinclude":8928,"roz":8929,"ĠColl":8930,"ĠCumin":8931,"ĠCilantro":8932,"Ġ33":8933,"Ġ39":8934,"ĠSandy":8935,"Ġpebbles":8936,"ixie":8937,"ĠBu":8938,"ĠBow":8939,"ĠBible":8940,"ĠPa":8941,"ĠPen":8942,"ddess":8943,"ĠTuck":8944,"Ġunthawed":8945,"Ġvis":8946,"ĠAgain":8947,"ĠAdobo":8948,"Ġhu":8949,"Ġhog":8950,"usually":8951,"otto":8952,"Ġbeautif":8953,"Ġstomach":8954,"omon":8955,"omino":8956,"tof":8957,"tose":8958,"rik":8959,"Ġnest":8960,"Ġ42":8961,"Ġshaken":8962,"Ġgram":8963,"Ġgrit":8964,"ĠRis":8965,"ĠRipe":8966,"ĠRhod":8967,"ĠChange":8968,"ĠChildren":8969,"Ġpancetta":8970,"ĠDan":8971,"ĠDian":8972,"ables":8973,"ĠWhe":8974,"ĠWagon":8975,"ĠWreath":8976,"stal":8977,"eff":8978,"ids":8979,"Ġfroth":8980,"ĠStella":8981,"ĠStrip":8982,"ĠStretch":8983,"ĠFig":8984,"Ġcrumbling":8985,"ĠLuc":8986,"ĠLuck":8987,"ĠLuncheon":8988,"ĠLyn":8989,"arse":8990,"Ġbreaded":8991,"ĠHI":8992,"ĠHon":8993,"Ġconf":8994,"ago":8995,"shredded":8996,"ĠWhoop":8997,"Ġreduc":8998,"avioli":8999,"Ġextrem":9000,"ĠCreams":9001,"avorites":9002,"Ġang":9003,"Ġboys":9004,"ĠEas":9005,"ĠKe":9006,"ĠKathy":9007,"ĠViva":9008,"oothpick":9009,"Ġzip":9010,"Ġenhan":9011,"ĠChilled":9012,"Ġsoftly":9013,"Ġ72":9014,"ĠSlip":9015,"vaporated":9016,"Ġdevelop":9017,"Ġbutcher":9018,"Ġcrouton":9019,"udges":9020,"ĠCod":9021,"Ġdrizz":9022,"ĠPeppered":9023,"Ġknow":9024,"Ġpatting":9025,"ĠTossed":9026,"blended":9027,"nutrit":9028,"ĠAllspice":9029,"oyal":9030,"nessee":9031,"ĠDiamond":9032,"ĠSkew":9033,"ĠReserving":9034,"crack":9035,"alloped":9036,"odus":9037,"Ġcasings":9038,"Ġgiant":9039,"melt":9040,"Ġburns":9041,"ĠMarble":9042,"ĠMarzetti":9043,"oeuvres":9044,"Ġpersons":9045,"Ġpulling":9046,"Ġplaces":9047,"Ġtypes":9048,"mpathy":9049,"Ġcurdle":9050,"Ġscramble":9051,"ĠMcIn":9052,"Ġcrystal":9053,"ĠPinwheel":9054,"Ġcitric":9055,"ĠWaverly":9056,"ĠCavender":9057,"ĠPoached":9058,"Ġpushing":9059,"ĠLeaf":9060,"Ġdollops":9061,"ĠTwinkie":9062,"ĠStrud":9063,"ĠLogs":9064,"236":9065,"ĠElephant":9066,"Chopped":9067,"ĠPicc":9068,"ĠParfait":9069,"Ġwaiting":9070,"Ġwatching":9071,"Ġstores":9072,"Ġdelicate":9073,"Also":9074,"Ġchorizos":9075,"Ġtostada":9076,"Ġsuperfine":9077,"Ġfriends":9078,"ĠGoddess":9079,"Ġmotor":9080,"Blue":9081,"arrots":9082,"ĠSuccess":9083,"ĠMicrocook":9084,"powdered":9085,"Ġhaving":9086,"Ġhungry":9087,"Ġimproves":9088,"ĠSensational":9089,"Ġbisque":9090,"Ġrearranging":9091,"Ġincorporated":9092,"ĠTempt":9093,"ĠAlaska":9094,"ĠCavatini":9095,"homemade":9096,"Ġprayer":9097,"ĠKirsch":9098,"Ġsympathy":9099,"Ġlaughter":9100,"refriger":9101,"ĠNutraSweet":9102,"Ġresealable":9103,"Ġfructose":9104,"ĠDiane":9105,"Ġextremely":9106,"nutritive":9107,"ĠMcIntosh":9108,"33":9109,"And":9110,"Cut":9111,"Fail":9112,"Gar":9113,"Hour":9114,"Ida":9115,"Ma":9116,"Tomato":9117,"We":9118,"apped":9119,"bles":9120,"before":9121,"cture":9122,"cayenne":9123,"dash":9124,"four":9125,"fire":9126,"filled":9127,"gah":9128,"hatt":9129,"ios":9130,"lins":9131,"lukewarm":9132,"mashed":9133,"marshmallows":9134,"pa":9135,"sec":9136,"some":9137,"tG":9138,"tat":9139,"tart":9140,"tfor":9141,"tServe":9142,"turkey":9143,"vard":9144,"yss":9145,"ze":9146,"Ġarm":9147,"Ġcure":9148,"Ġcabb":9149,"Ġcrow":9150,"Ġcert":9151,"Ġcajun":9152,"Ġcause":9153,"Ġcyl":9154,"Ġtaffy":9155,"Ġtanger":9156,"Ġtraditional":9157,"Ġbook":9158,"Ġbuff":9159,"Ġpits":9160,"Ġpyrex":9161,"Ġpistach":9162,"Ġmul":9163,"Ġmann":9164,"Ġmacaroon":9165,"atively":9166,"ilian":9167,"ility":9168,"reased":9169,"ingle":9170,"Ġweather":9171,"icilian":9172,"iter":9173,"Ġ340":9174,"Ġdid":9175,"ĠSage":9176,"ĠSock":9177,"ĠSelf":9178,"ĠSirloin":9179,"ĠSicilian":9180,"Ġgoo":9181,"Ġgift":9182,"heim":9183,"heavy":9184,"oom":9185,"ĠBol":9186,"ĠBab":9187,"ĠPul":9188,"ĠPoll":9189,"ĠPipe":9190,"ĠPosition":9191,"inetti":9192,"uncture":9193,"Ġunused":9194,"Ġvar":9195,"ĠAf":9196,"ĠAna":9197,"ĠAss":9198,"Ġmints":9199,"Ġhope":9200,"Ġholder":9201,"ĠMus":9202,"ĠMaw":9203,"ĠMile":9204,"ĠMarb":9205,"ĠMike":9206,"ĠMember":9207,"Ġorganic":9208,"uche":9209,"oman":9210,"eller":9211,"Ġforth":9212,"chili":9213,"chunky":9214,"irth":9215,"irley":9216,"topping":9217,"tobell":9218,"Ġnorm":9219,"Ġshrink":9220,"Ġshuck":9221,"Ġshoepeg":9222,"Ġjigg":9223,"Ġatt":9224,"Ġgrating":9225,"ĠRavioli":9226,"asta":9227,"ĠChik":9228,"Ġrame":9229,"Ġtomat":9230,"ĠDou":9231,"ĠDab":9232,"ĠDonna":9233,"ĠDann":9234,"abama":9235,"orns":9236,"Ġspacing":9237,"ĠWest":9238,"imal":9239,"Ġsmile":9240,"amonds":9241,"ify":9242,"ĠLucky":9243,"Ġovens":9244,"ĠHickory":9245,"ĠHolly":9246,"Ġconch":9247,"ĠGame":9248,"ĠGive":9249,"overleaf":9250,"Ġclump":9251,"Ġclusters":9252,"Ġclarified":9253,"Ġkrispies":9254,"orever":9255,"avian":9256,"osable":9257,"Ġslide":9258,"udded":9259,"Ġanisette":9260,"Ġheaped":9261,"Ġrefrigeration":9262,"ĠKix":9263,"ĠKay":9264,"ĠVerde":9265,"Ġjellos":9266,"ĠThing":9267,"ĠThread":9268,"ĠThirty":9269,"ĠNavy":9270,"ĠAndes":9271,"Ġgelatins":9272,"ĠSher":9273,"ĠBeg":9274,"Ġscored":9275,"Ġalternative":9276,"ĠPressure":9277,"aults":9278,"Ġcannot":9279,"Ġhigher":9280,"ĠSaucepan":9281,"Ġtowards":9282,"ĠConnie":9283,"ĠAlabama":9284,"Ġdijon":9285,"Ġdiamonds":9286,"whipped":9287,"icier":9288,"Ġchoplets":9289,"Ġelbows":9290,"ĠStewed":9291,"door":9292,"Ġbulgar":9293,"Ġjambalaya":9294,"Ġpulse":9295,"Ġindic":9296,"ĠSnip":9297,"ĠProven":9298,"Ġburnt":9299,"ĠMargar":9300,"ĠCrustless":9301,"Cherry":9302,"rolled":9303,"Ġworkable":9304,"ĠNewman":9305,"Ġshortest":9306,"Ġshortbread":9307,"ĠExchange":9308,"ĠPolska":9309,"ĠManhatt":9310,"Ġricher":9311,"pected":9312,"ĠDiabetics":9313,"ĠHeaven":9314,"ĠSuperMoist":9315,"ĠOlives":9316,"Ġrims":9317,"ĠHarvard":9318,"ĠHalibut":9319,"ĠMaid":9320,"ĠSpritz":9321,"ĠLeaves":9322,"tPlace":9323,"Ġbows":9324,"Ġescarole":9325,"Diet":9326,"Whip":9327,"ĠMounds":9328,"Ġrisen":9329,"Ġrequire":9330,"Ġsizzles":9331,"Ġtostados":9332,"ĠTartar":9333,"Ġbraunschweiger":9334,"ĠMadeira":9335,"Ġquantities":9336,"ĠTennessee":9337,"Ġshovel":9338,"Ġperiodically":9339,"salad":9340,"Ġsquirrel":9341,"ĠSolomon":9342,"ĠWelsh":9343,"Ġcroissant":9344,"wdust":9345,"quartered":9346,"Ġbluing":9347,"Excellent":9348,"Ġcompleted":9349,"Club":9350,"Granny":9351,"Ġobtain":9352,"ĠSopa":9353,"ĠPimento":9354,"Ġaccompan":9355,"Colby":9356,"ĠSurround":9357,"ĠJonathan":9358,"ĠQueen":9359,"generous":9360,"aystacks":9361,"Ġenclose":9362,"ĠSTIR":9363,"Ġvisible":9364,"Ġhuge":9365,"ĠRhodes":9366,"ĠWhoopie":9367,"oyalty":9368,"ĠStrudel":9369,"Ġcabbages":9370,"Ġcertain":9371,"Ġpistachios":9372,"Ġmanner":9373,"ĠAnaheim":9374,"irthday":9375,"tobello":9376,"ĠManhattan":9377,"!!)":9378,"))":9379,"**":9380,"Ever":9381,"GH":9382,"Honey":9383,"Me":9384,"Meat":9385,"Medium":9386,"Mores":9387,"Pol":9388,"Rom":9389,"Sc":9390,"Sn":9391,"Sto":9392,"carrots":9393,"dri":9394,"dep":9395,"ele":9396,"even":9397,"field":9398,"ians":9399,"jelly":9400,"koe":9401,"loaf":9402,"mati":9403,"oam":9404,"outs":9405,"place":9406,"ris":9407,"rist":9408,"sts":9409,"sub":9410,"sift":9411,"slice":9412,"turn":9413,"tmix":9414,"tbutter":9415,"tIn":9416,"vie":9417,"wide":9418,"yuns":9419,"include":9420,"Ġsits":9421,"Ġsaturated":9422,"Ġtre":9423,"Ġtree":9424,"Ġtears":9425,"Ġbass":9426,"Ġbind":9427,"Ġborder":9428,"Ġpass":9429,"Ġposition":9430,"ĠmL":9431,"Ġmillet":9432,"iled":9433,"ilding":9434,"alade":9435,"already":9436,"Ġandouille":9437,"Ġfrag":9438,"Ġfifteen":9439,"Ġfusilli":9440,"Ġfavorites":9441,"Ġfaults":9442,"Ġchurch":9443,"Ġchitterlings":9444,"Ġwat":9445,"garlic":9446,"spberries":9447,"rot":9448,"oritos":9449,"aka":9450,"elves":9451,"Ġadobo":9452,"Ġ320":9453,"Ġdiffer":9454,"Ġdandelion":9455,"Ġgum":9456,"Ġgather":9457,"Ġluck":9458,"Ġlost":9459,"Ġlighter":9460,"Ġloyalty":9461,"Ġpekoe":9462,"ĠBet":9463,"ĠBul":9464,"ĠBern":9465,"ĠPaste":9466,"ĠPurpose":9467,"Ġflam":9468,"ĠTim":9469,"ĠTerry":9470,"Ġvein":9471,"Ġvegeburger":9472,"Ġvacuum":9473,"ĠAle":9474,"Ġhis":9475,"otal":9476,"ĠMr":9477,"ĠMen":9478,"ĠMarm":9479,"ĠMull":9480,"ĠMiddle":9481,"aded":9482,"adas":9483,"chilled":9484,"irling":9485,"tst":9486,"Ġcanister":9487,"Ġnose":9488,"Ġjoy":9489,"Ġjicama":9490,"Ġoverripe":9491,"Ġwhirl":9492,"ĠRind":9493,"ĠRonz":9494,"Ġroughly":9495,"ĠDie":9496,"mond":9497,"ĠWend":9498,"Ġren":9499,"Ġremember":9500,"stead":9501,"Ġseep":9502,"Ġcorns":9503,"ĠFan":9504,"ĠField":9505,"resist":9506,"Ġpots":9507,"Ġcupful":9508,"ĠLump":9509,"Ġblintzes":9510,"ĠHair":9511,"ĠGer":9512,"ĠGarb":9513,"ĠGoya":9514,"Ġservice":9515,"emble":9516,"Ġclumps":9517,"ĠWhipping":9518,"Ġredness":9519,"Ġslip":9520,"Ġapply":9521,"Ġcrushing":9522,"ĠOV":9523,").\\":9524,"Ġplan":9525,"estic":9526,"ĠEth":9527,"ĠEll":9528,"Ġsquid":9529,"Ġsettle":9530,"ĠBrowned":9531,"ĠJul":9532,"ĠJess":9533,"ĠKat":9534,"ĠKal":9535,"ĠKosher":9536,"Ġitem":9537,"Ġpreced":9538,"ĠBlot":9539,"ĠSawdust":9540,"ĠThick":9541,"ĠMeltaway":9542,"Ġfillings":9543,"ĠNone":9544,"ĠNeed":9545,"Ġenamel":9546,"ĠYu":9547,"ense":9548,"ĠShan":9549,"ĠShirley":9550,"Ġlonghorn":9551,"peaches":9552,"Ġturner":9553,"Ġgranular":9554,"Ġchestnut":9555,"ĠRobert":9556,"flat":9557,"coarse":9558,"ĠSeas":9559,"ividing":9560,"aryl":9561,"ĠFills":9562,"ĠOnly":9563,"ĠJacks":9564,"ranberry":9565,"ranean":9566,"ranged":9567,"ĠMexicana":9568,"ĠKaren":9569,"ĠMinced":9570,"Ġeliminate":9571,"ĠContin":9572,"Ġpitas":9573,"ĠRaise":9574,"ĠOranges":9575,"ĠFarmer":9576,"ĠAnginetti":9577,"ĠFreshly":9578,"Ġunderside":9579,"Ġpulver":9580,"ĠChris":9581,"ichever":9582,"odles":9583,"ĠGlad":9584,"ĠScallopini":9585,"ĠSnap":9586,"ville":9587,"ĠDishpan":9588,"Chinese":9589,"maybe":9590,"Step":9591,"ĠBarely":9592,"ĠComfort":9593,"ĠMediter":9594,"Ġguests":9595,"ĠWatergate":9596,"ĠExchanges":9597,"ĠJoan":9598,"Ġlining":9599,"pecan":9600,"Ġdecorator":9601,"ĠShortcut":9602,"ĠArtichokes":9603,"ĠRiches":9604,"Ġdiscolor":9605,"Ġstroganoff":9606,"ĠTruffles":9607,"Ġhowever":9608,"Ġbittersweet":9609,"ikk":9610,"Ġadvice":9611,"Ġmangoes":9612,"ĠLentils":9613,"ĠSimply":9614,"ĠMillionaire":9615,"ĠBuffet":9616,"Ġproduce":9617,"ĠOmelette":9618,"ĠYorkshire":9619,"Ġ290":9620,"Ġfriendship":9621,"ĠEscalloped":9622,"condensed":9623,"Ġtucking":9624,"Ġripen":9625,"Ġhuman":9626,"Ġdredged":9627,"Ġmatchstick":9628,"ootball":9629,"ĠMarket":9630,"ĠJuicy":9631,"Ġcroissants":9632,"onzola":9633,"Ġhousehold":9634,"Ġassembled":9635,"Ġpicnics":9636,"Ġreads":9637,"Ġpolyuns":9638,"halved":9639,"squeeze":9640,"tFold":9641,"Ġfloating":9642,"ĠPuritan":9643,"ĠGalliano":9644,"Melt":9645,"Ġmagarine":9646,"seedless":9647,"omatic":9648,"Ġrutab":9649,"Green":9650,"ĠPenuche":9651,"ĠRisotto":9652,"ĠLynn":9653,"ĠHIGH":9654,"Ġdrizzled":9655,"ĠPiccata":9656,"Garlic":9657,"Ġcylinder":9658,"ĠPollo":9659,"Ġnormally":9660,"Ġshucked":9661,"ĠBeginning":9662,"Polish":9663,"depends":9664,"ĠMarmalade":9665,"ĠWendy":9666,"Ġpreceding":9667,"ĠMediterranean":9668,"Ġpolyunsaturated":9669,"\"(":9670,"Bis":9671,"Break":9672,"Car":9673,"Cooked":9674,"Candy":9675,"ER":9676,"Greek":9677,"Jer":9678,"Judges":9679,"Karo":9680,"Like":9681,"Of":9682,"Ph":9683,"Pie":9684,"Rhubarb":9685,"Sm":9686,"They":9687,"Zucchini":9688,"bel":9689,"better":9690,"com":9691,"ception":9692,"din":9693,"double":9694,"full":9695,"gest":9696,"golden":9697,"iet":9698,"lasic":9699,"lava":9700,"mun":9701,"ni":9702,"neath":9703,"opp":9704,"pure":9705,"parsley":9706,"pudding":9707,"si":9708,"tel":9709,"takes":9710,"tmilk":9711,"they":9712,"twater":9713,"tBl":9714,"vot":9715,"wax":9716,"zon":9717,"Ġ__":9718,"Ġcents":9719,"inted":9720,"Ġtumb":9721,"Ġtint":9722,"Ġbarbecued":9723,"Ġbagg":9724,"esqu":9725,"esired":9726,"Ġpwd":9727,"Ġmellow":9728,"Ġmiracle":9729,"oncini":9730,"alup":9731,"Ġfestive":9732,"Ġflex":9733,"Ġwedged":9734,"split":9735,"ppin":9736,"lege":9737,"ĠCour":9738,"ĠCount":9739,"ora":9740,"Ġ220":9741,"Ġ270":9742,"amata":9743,"Ġsugg":9744,"itage":9745,"Ġdom":9746,"Ġdunk":9747,"Ġducks":9748,"ĠSen":9749,"ĠSuch":9750,"ĠSatur":9751,"Ġlist":9752,"Ġlasts":9753,"ĠBart":9754,"ĠBark":9755,"ĠBirthday":9756,"ĠToo":9757,"ĠTurt":9758,"Ġ(#":9759,"uttered":9760,"Ġvert":9761,"illos":9762,"ĠAcorn":9763,"Ġhook":9764,"Ġhuckle":9765,"usband":9766,"ĠMad":9767,"ĠMem":9768,"ĠMouth":9769,"ĠMatzo":9770,"Ġpepperoncini":9771,"Ġbead":9772,"omatoes":9773,"adillo":9774,"Ġcanes":9775,"rian":9776,"Ġnav":9777,"Ġbakery":9778,"Ġsouth":9779,"uper":9780,"Ġwho":9781,"ĠRight":9782,"Ġcookbook":9783,"ĠChamp":9784,"ĠChalup":9785,"ĠDixie":9786,"ĠDomino":9787,"orna":9788,"ĠWing":9789,"ĠWee":9790,"ĠWyl":9791,"ienne":9792,"still":9793,"start":9794,"stew":9795,"ingredients":9796,"ĠSpark":9797,"ĠFire":9798,"ĠFeather":9799,"inners":9800,"ĠLess":9801,"ĠLoin":9802,"ĠLorna":9803,"achel":9804,"ĠHow":9805,"ĠHens":9806,"ĠHurry":9807,"ĠHaystacks":9808,"oone":9809,"ĠGallon":9810,"ĠGorg":9811,"ardee":9812,"emima":9813,"agie":9814,"shelled":9815,"Ġclause":9816,"Ġcloverleaf":9817,"Ġkeros":9818,"ottle":9819,"Ġexception":9820,"Ġslant":9821,"Ġsky":9822,"ĠBroken":9823,"Ġgray":9824,"ĠOh":9825,"ĠOcean":9826,"ecially":9827,"Ġshears":9828,"Ġrefreshing":9829,"ĠEr":9830,"ĠEve":9831,"Ġheal":9832,"ĠJenn":9833,"ĠJemima":9834,"ĠKern":9835,"ĠKansas":9836,"Ġoutdoor":9837,"Ġstraws":9838,"Ġdressings":9839,"ĠThai":9840,"Ġpeeler":9841,"ĠNon":9842,"Ġpastries":9843,"ensive":9844,"ĠShall":9845,"Ġbagel":9846,"Ġcolby":9847,"ĠButterf":9848,"ĠButterh":9849,"Ġscotch":9850,"Ġscones":9851,"Ġcolorful":9852,"Ġthawing":9853,"Ġrestaurant":9854,"ĠGrap":9855,"ĠSouper":9856,"ĠArroz":9857,"Ġtwelve":9858,"ĠRob":9859,"sauce":9860,"ĠTopper":9861,"Ġunbuttered":9862,"Ġarranging":9863,"Ġarranged":9864,"ĠSeveral":9865,"ĠFlute":9866,"ĠFlaky":9867,"Ġlastly":9868,"ĠSquare":9869,"ĠZwieback":9870,"ĠPeanutty":9871,"soak":9872,"ĠMexene":9873,"ĠCane":9874,"Ġminiatures":9875,"bling":9876,"Ġdipper":9877,"ĠBrandied":9878,"Ġremoval":9879,"whatever":9880,"ĠRaised":9881,"ĠTaters":9882,"Ġwashing":9883,"ĠFrosty":9884,"ĠSkinner":9885,"Ġunderneath":9886,"ĠGoodies":9887,"crusts":9888,"ĠDelightful":9889,"Ġspringy":9890,"ĠSmoke":9891,"ĠDebbie":9892,"ĠLayers":9893,"addy":9894,"additional":9895,"Ġholding":9896,"Ġburned":9897,"ĠMarvel":9898,"board":9899,"ĠValentine":9900,"anket":9901,"Ġliverwurst":9902,"Ġentree":9903,"ĠNewburg":9904,"ĠPlan":9905,"ĠPlunge":9906,"Ġswordfish":9907,"broth":9908,"ĠAlmondine":9909,"ĠExodus":9910,"ĠLaura":9911,"ĠSecond":9912,"ĠSnicker":9913,"Ġcreative":9914,"ĠIndia":9915,"240":9916,"ĠCuban":9917,"Ġimported":9918,"lsberg":9919,"Ġcitrus":9920,"Ġresift":9921,"hydrates":9922,"Ġcounting":9923,"ĠHorseradish":9924,"Ġcontinues":9925,"Ġrimmed":9926,"ĠAmount":9927,"metal":9928,"ĠFlavored":9929,"Ġbaskets":9930,"ĠLiqu":9931,"Brown":9932,"iko":9933,"Ġsorrow":9934,"ĠBorder":9935,"ĠTostada":9936,"skinned":9937,"Ġsimple":9938,"Ġtrick":9939,"Ġthumbprint":9940,"ĠWilder":9941,"mmmm":9942,"Ġstoring":9943,"Ġrequires":9944,"finely":9945,"Ġsizzle":9946,"Almond":9947,"ĠBagels":9948,"ĠGoes":9949,"Ġincreased":9950,"ĠGenoa":9951,"longer":9952,"Ġpetals":9953,"Ġcrunched":9954,"ĠDietetic":9955,"ĠEveryday":9956,"ĠOleo":9957,"Ġpreviously":9958,"ouffl":9959,"Ġdecrease":9960,"ĠChestnuts":9961,"tSprinkle":9962,"ĠSolo":9963,"Ġgooseberries":9964,"Ġbisquick":9965,"ĠWelch":9966,"ĠHazelnut":9967,"Ġclaws":9968,"Ġutility":9969,"Ġbutterfly":9970,"Ġbuilding":9971,"Ġpuppies":9972,"ĠBasket":9973,"Grandma":9974,"separate":9975,"Ġdisposable":9976,"ĠSusan":9977,"Ġgherkins":9978,"maximum":9979,"ĠCanton":9980,"iquant":9981,"Ġmirin":9982,"Ġnapkins":9983,"Ġjudge":9984,"Ġcondiments":9985,"Ġextending":9986,"merse":9987,"Ġfurther":9988,"Ġangle":9989,"Ġramekins":9990,"Ġtomatillos":9991,"ĠDannon":9992,"Stove":9993,"ĠRonzoni":9994,"ĠShangh":9995,"ikkoman":9996,"Bisquick":9997,"Jeremiah":9998,"tBlend":9999,"votion":10000,"esquite":10001,"Ġflexible":10002,"ĠSaturday":10003,"ĠTurtles":10004,"Ġhuckleberries":10005,"ĠGorgonzola":10006,"Ġkerosene":10007,"!\\":10008,"90":10009,"AT":10010,"Banana":10011,"Co":10012,"Cranberry":10013,"Dip":10014,"Eng":10015,"Fashion":10016,"Hun":10017,"Heal":10018,"La":10019,"Mom":10020,"Marin":10021,"Mrs":10022,"New":10023,"Oat":10024,"Oro":10025,"Pet":10026,"Pillsbury":10027,"Sal":10028,"Span":10029,"South":10030,"Tast":10031,"Tex":10032,"Wal":10033,"Weight":10034,"bac":10035,"blet":10036,"big":10037,"bably":10038,"break":10039,"corb":10040,"desired":10041,"eins":10042,"fel":10043,"gr":10044,"gu":10045,"gento":10046,"here":10047,"iole":10048,"iyaki":10049,"lus":10050,"ming":10051,"off":10052,"oha":10053,"rican":10054,"same":10055,"selves":10056,"tis":10057,"tpan":10058,"tied":10059,"tServes":10060,"tLet":10061,"total":10062,"vinegar":10063,"zos":10064,"Ġ,":10065,"inth":10066,"Ġsel":10067,"Ġsoul":10068,"Ġ175":10069,"Ġ112":10070,"Ġbad":10071,"Ġbucket":10072,"ested":10073,"Ġpigs":10074,"Ġmex":10075,"Ġmiso":10076,"atelli":10077,"onions":10078,"eno":10079,"ando":10080,"alcohol":10081,"Ġwagon":10082,"Ġwreath":10083,"icory":10084,"Ġinner":10085,"leftover":10086,"leaves":10087,"rod":10088,"roger":10089,"ĠComb":10090,"ĠCrinkle":10091,"orio":10092,"Ġ232":10093,"ouri":10094,"amook":10095,"Ġsugah":10096,"itam":10097,"itake":10098,"Ġ34":10099,"Ġ38":10100,"Ġ315":10101,"Ġdoritos":10102,"Ġdividing":10103,"ĠSme":10104,"ĠSav":10105,"ĠSara":10106,"heart":10107,"ĠBologna":10108,"ĠBuckle":10109,"ĠBottle":10110,"ache":10111,"ĠPower":10112,"ĠPig":10113,"ĠPoultry":10114,"ĠPockets":10115,"under":10116,"ĠTill":10117,"ĠTag":10118,"ĠTightly":10119,"ĠTbl":10120,"ĠTandy":10121,"ĠTiny":10122,"ĠTahini":10123,"Ġcheap":10124,"iller":10125,"olitan":10126,"ĠAust":10127,"ĠAnch":10128,"Ġhr":10129,"Ġhrs":10130,"Ġhunk":10131,"usual":10132,"otash":10133,"Ġchoc":10134,"ĠMand":10135,"ĠMinn":10136,"ĠMango":10137,"raft":10138,"oma":10139,"omen":10140,"adise":10141,"chiko":10142,"ĠAdditional":10143,"Ġname":10144,"reduced":10145,"Ġbakon":10146,"vey":10147,"Ġshi":10148,"Ġshut":10149,"Ġshot":10150,"ghul":10151,"Ġjel":10152,"Ġjus":10153,"Ġleak":10154,"though":10155,"ureen":10156,"ĠRh":10157,"ĠRus":10158,"ĠRoul":10159,"ĠRoughy":10160,"Ġoily":10161,"ĠDep":10162,"ĠDiced":10163,"ĠDates":10164,"ĠDoone":10165,"abi":10166,"Ġspicier":10167,"ĠWat":10168,"ĠWanda":10169,"iener":10170,"stone":10171,"strips":10172,"Ġlargest":10173,"imble":10174,"idence":10175,"ĠIi":10176,"ĠIre":10177,"ĠIced":10178,"Ġsmash":10179,"Ġyields":10180,"assy":10181,"ĠLy":10182,"ĠHusband":10183,"oons":10184,"ĠGerm":10185,"ĠGirl":10186,"ĠGoose":10187,"oody":10188,"berts":10189,"Ġshorter":10190,"uffin":10191,"uffle":10192,"otte":10193,"Ġascorb":10194,"Ġexpected":10195,"ulates":10196,"ĠBeating":10197,"uddy":10198,"Ġsyrups":10199,"ĠEm":10200,"Ġheel":10201,"Ġhearty":10202,"Ġsweetness":10203,"ĠPretty":10204,"ĠJune":10205,"ĠJeff":10206,"ĠKol":10207,"ĠBlan":10208,"ĠBlanket":10209,"Ġbottomed":10210,"ĠVan":10211,"ĠVick":10212,"ĠVich":10213,"ĠVlasic":10214,"essel":10215,"ĠThose":10216,"ĠPeter":10217,"ĠNine":10218,"ĠNav":10219,"ĠName":10220,"ĠNatural":10221,"Ġliquified":10222,"Ġsoybeans":10223,"nex":10224,"ĠSharon":10225,"Ġques":10226,"ĠSpoonful":10227,"ĠRefill":10228,"ĠRefried":10229,"ĠButtery":10230,"ĠJellied":10231,"Ġdissolving":10232,"Ġdeter":10233,"Ġtartness":10234,"Ġleafy":10235,"Ġoccasions":10236,"ĠRedford":10237,"Ġcurds":10238,"Ġcurled":10239,"Ġtemp":10240,"Ġpopping":10241,"Ġpoached":10242,"Ġpointed":10243,"ĠCarve":10244,"ĠCornflake":10245,"undry":10246,"Ġsecrets":10247,"Ġhighly":10248,"ĠFlan":10249,"Ġnonpare":10250,"ĠLevel":10251,"Ġneedle":10252,"ĠZippy":10253,"ĠSweetened":10254,"ĠSweetheart":10255,"igan":10256,"Ġdarker":10257,"ĠAlice":10258,"Ġpounding":10259,"angles":10260,"ampen":10261,"Ġbacks":10262,"whites":10263,"Ġ185":10264,"earing":10265,"ĠDreams":10266,"ĠPatio":10267,"Ġparfait":10268,"ĠBlueberries":10269,"Ġfilm":10270,"Ġsnip":10271,"Ġallows":10272,"ĠApply":10273,"tcr":10274,"Ġunderbake":10275,"crunchy":10276,"Ġinden":10277,"ĠDumpling":10278,"ĠMarshmallows":10279,"odge":10280,"Ġreturns":10281,"ĠGrandpa":10282,"Ġtrio":10283,"Ġtriple":10284,"ĠCrown":10285,"ĠPacked":10286,"ĠPackage":10287,"ĠProverbs":10288,"Ġdelights":10289,"ĠMaraschino":10290,"Ġprevents":10291,"Chip":10292,"Christ":10293,"Ġdiscarded":10294,"Ġlumpia":10295,"ĠCrunchies":10296,"ectar":10297,"Straw":10298,"Ġstacking":10299,"ĠPlatter":10300,"ĠIrresist":10301,"Ġswell":10302,"tinto":10303,"Ġprov":10304,"ĠCurd":10305,"Ġburst":10306,"Ġburghul":10307,"ĠExtract":10308,"Ġdecorations":10309,"Ġcontent":10310,"ĠSunflower":10311,"seasoning":10312,"Ġmedallions":10313,"ĠIndiana":10314,"ĠTenderize":10315,"ĠFrankfur":10316,"ĠPaprik":10317,"ĠSarah":10318,"Ġheld":10319,"Ġcaviar":10320,"Ġhulls":10321,"ĠSnickerdoodle":10322,"ĠMorgan":10323,"Frozen":10324,"radition":10325,"ĠCaptain":10326,"ĠParadise":10327,"Ġhoagie":10328,"ĠAvoid":10329,"Topped":10330,"pieces":10331,"Should":10332,"Ġsleeves":10333,"Ġjoints":10334,"ĠLivers":10335,"tDrop":10336,"ĠBoyardee":10337,"Ġtongue":10338,"Ġacidity":10339,"aiser":10340,"conom":10341,"Ġfigure":10342,"Ġwheels":10343,"Ġhumor":10344,"ĠJarlsberg":10345,"Ġhunks":10346,"Ġsquirts":10347,"Ġmessy":10348,"ĠBelgian":10349,"Ġimprove":10350,"Ġherring":10351,"Ġseashells":10352,"ĠStays":10353,"Ġutens":10354,"ĠBuddy":10355,"Ġbutterflied":10356,"Ġselection":10357,"ĠPepsi":10358,"Ġnormal":10359,"Ġnorthern":10360,"Ġpraise":10361,"ĠCrystal":10362,"ĠBaklava":10363,"Ġcarbohydrates":10364,"ĠCharlotte":10365,"Ġmilder":10366,"Ġmidway":10367,"ĠBurnt":10368,"ĠScottish":10369,"Ġtiming":10370,"Ġachieve":10371,"ĠMildred":10372,"Ġtripled":10373,"Ġjalape":10374,"ĠSmucker":10375,"ĠStriped":10376,"ĠBolts":10377,"ĠAssemble":10378,"ĠMusc":10379,"elebr":10380,"Ġfragrant":10381,"Ġdifference":10382,"ĠContinental":10383,"Ġpulverized":10384,"Breakfast":10385,"Ġtumbler":10386,"Ġdomestic":10387,"ĠBartlett":10388,"Ġnavel":10389,"Ġsouthern":10390,"ĠSparkle":10391,"ĠGrapefruit":10392,"ĠMarvelous":10393,"ĠWilderness":10394,"ĠShanghai":10395,"English":10396,"Spanish":10397,"ĠSmear":10398,"Ġascorbic":10399,"Christmas":10400,"ĠIrresistible":10401,"):":10402,"125":10403,"115":10404,"Ang":10405,"Cover":10406,"De":10407,"Dutch":10408,"Fruit":10409,"German":10410,"Ground":10411,"HI":10412,"Knead":10413,"Korean":10414,"Kraft":10415,"Large":10416,"Mushroom":10417,"More":10418,"Miracle":10419,"Nor":10420,"Out":10421,"Over":10422,"Pan":10423,"Pear":10424,"Reser":10425,"Sk":10426,"Top":10427,"Turkey":10428,"Veg":10429,"Wor":10430,"aus":10431,"awn":10432,"bowl":10433,"baby":10434,"cil":10435,"cks":10436,"center":10437,"cauliflower":10438,"candy":10439,"ctop":10440,"discard":10441,"eason":10442,"evaporated":10443,"fy":10444,"fruit":10445,"filling":10446,"gly":10447,"ige":10448,"iola":10449,"ko":10450,"ker":10451,"line":10452,"mie":10453,"marin":10454,"making":10455,"mouth":10456,"noon":10457,"nitz":10458,"oor":10459,"oks":10460,"pect":10461,"ral":10462,"rick":10463,"rare":10464,"rami":10465,"syrup":10466,"seeds":10467,"sometimes":10468,"saka":10469,"tm":10470,"tch":10471,"tec":10472,"taco":10473,"tDo":10474,"twell":10475,"ui":10476,"vels":10477,"wine":10478,"wash":10479,"yond":10480,"zucchini":10481,"Ġ...":10482,"Ġcm":10483,"Ġcer":10484,"Ġcame":10485,"Ġcooper":10486,"into":10487,"ero":10488,"erle":10489,"Ġtradition":10490,"Ġbic":10491,"aringly":10492,"Ġpil":10493,"Ġplease":10494,"Ġmat":10495,"Ġmatter":10496,"atwurst":10497,"rey":10498,"ands":10499,"almost":10500,"ouillon":10501,"Ġfaster":10502,"Ġfiesta":10503,"Ġforever":10504,"Ġchang":10505,"Ġchicory":10506,"Ġweak":10507,"Ġwatt":10508,"icular":10509,"icult":10510,"Ġtot":10511,"spaper":10512,"ppa":10513,"Ġinject":10514,"rothy":10515,"ĠCand":10516,"ĠCall":10517,"ĠCayenne":10518,"ĠCould":10519,"ĠCaps":10520,"ako":10521,"akor":10522,"Ġsupper":10523,"Ġ31":10524,"Ġ37":10525,"Ġ310":10526,"Ġeagle":10527,"Ġdonut":10528,"Ġdew":10529,"Ġdiff":10530,"Ġdisk":10531,"Ġdinners":10532,"ĠSide":10533,"ĠSizz":10534,"ĠSister":10535,"ĠSunny":10536,"Ġgrow":10537,"Ġlobs":10538,"Ġsaltwater":10539,"ĠBass":10540,"ĠBase":10541,"ĠBuy":10542,"ĠBagg":10543,"acy":10544,"ĠPac":10545,"ĠPone":10546,"ĠPizz":10547,"ĠPops":10548,"ĠPigs":10549,"ĠPlease":10550,"ĠPaint":10551,"Ġflan":10552,"ĠTail":10553,"ĠTouch":10554,"olive":10555,"ĠAre":10556,"Ġminestrone":10557,"uster":10558,"ota":10559,"ĠMs":10560,"ĠMer":10561,"ĠMal":10562,"ĠMoo":10563,"ĠMorn":10564,"ĠMoon":10565,"ĠMey":10566,"ĠMayer":10567,"ĠMyr":10568,"ĠMallow":10569,"ĠMcc":10570,"ĠMunch":10571,"ĠMous":10572,"ĠMist":10573,"ĠMors":10574,"ĠMatt":10575,"ĠMachine":10576,"Ġbeyond":10577,"Ġstated":10578,"Ġstops":10579,"Ġstocks":10580,"Ġstudded":10581,"adies":10582,"Ġforce":10583,"chunks":10584,"iri":10585,"umstick":10586,"riate":10587,"rime":10588,"Ġshine":10589,"Ġthings":10590,"Ġthirty":10591,"Ġjer":10592,"upia":10593,"Ġmarbles":10594,"Ġoverfl":10595,"ĠRare":10596,"ĠCher":10597,"ĠChilies":10598,"Ġcoins":10599,"ĠDove":10600,"ĠDrink":10601,"ĠDapple":10602,"ĠDaddy":10603,"abber":10604,"Ġspin":10605,"Ġspeck":10606,"Ġsparingly":10607,"ĠWind":10608,"ĠWinks":10609,"Ġrepl":10610,"steam":10611,"imi":10612,"ĠSpir":10613,"ĠSpace":10614,"ĠStra":10615,"ĠStud":10616,"ĠIts":10617,"Ġsmell":10618,"ĠFine":10619,"ĠFest":10620,"ĠFair":10621,"apolitan":10622,"ĠLas":10623,"ĠLong":10624,"ĠLinks":10625,"ĠLooks":10626,"Ġblister":10627,"Ġblades":10628,"opened":10629,"ĠHol":10630,"ĠHog":10631,"armel":10632,"Ġ105":10633,"ĠGh":10634,"ĠGone":10635,"ĠGnocchi":10636,"ardi":10637,"beral":10638,"Ġroots":10639,"shrimp":10640,"shortening":10641,"ĠWho":10642,"ĠWhiskey":10643,"ube":10644,"artment":10645,"Ġalcohol":10646,"Ġexchanges":10647,"uls":10648,"Ġchilis":10649,"Ġapprop":10650,"epid":10651,"lier":10652,"liver":10653,"Ġ125":10654,"ĠBrooks":10655,"Ġfirmer":10656,"ĠCreamette":10657,"ĠOff":10658,"ĠWorthing":10659,"ecks":10660,"ĠCutout":10661,"Ġblackening":10662,"Ġanimal":10663,"Ġboat":10664,"ĠEight":10665,"ĠEars":10666,"ollen":10667,"Ġrefrigerating":10668,"ĠKim":10669,"ĠKiwi":10670,"ĠKikkoman":10671,"ĠBlair":10672,"ĠSausages":10673,"ĠVen":10674,"Ġleaven":10675,"Ġflavorful":10676,"ĠThom":10677,"ĠThird":10678,"Ġnote":10679,"ĠPepp":10680,"ĠChees":10681,"ĠPieces":10682,"ĠMelts":10683,"hamburger":10684,"Ġballer":10685,"ĠNectar":10686,"Ġenter":10687,"Ġyellows":10688,"Ġfruitcake":10689,"Ġcomfort":10690,"ĠShut":10691,"ĠShaker":10692,"ĠBee":10693,"ĠBear":10694,"ĠUgly":10695,"Ġcolada":10696,"ĠTurnip":10697,"Ġdevotion":10698,"ĠGrapes":10699,"ousel":10700,"ĠDorothy":10701,"Ġbranch":10702,"Ġtempera":10703,"fulness":10704,"Ġcleaning":10705,"Ġtwenty":10706,"tons":10707,"ĠCaraway":10708,"ĠCaribb":10709,"Ġcrisps":10710,"ogs":10711,"saute":10712,"Ġunbl":10713,"cob":10714,"Ġmicrowaveable":10715,"isturb":10716,"ĠChopstick":10717,"Ġthemselves":10718,"ĠQuail":10719,"Ġdripping":10720,"ĠLean":10721,"ĠTabou":10722,"ĠMeatless":10723,"ĠSodium":10724,"Ġprocessing":10725,"ĠUnusual":10726,"tzer":10727,"Ġdarken":10728,"Ġgoodies":10729,"pickling":10730,"Ġlentil":10731,"anched":10732,"ĠEggless":10733,"ĠAloha":10734,"ĠLemony":10735,"nutmeg":10736,"Ġconcentrates":10737,"ĠPatty":10738,"Ġcaramelize":10739,"Ġopened":10740,"ĠRaspberries":10741,"Ġroses":10742,"Ġcheesy":10743,"ĠCheezy":10744,"ĠApproximate":10745,"frying":10746,"ĠClove":10747,"approx":10748,"ĠSkro":10749,"Ġicy":10750,"cookies":10751,"Ġworry":10752,"Ġportobello":10753,"afe":10754,"annie":10755,"ĠGrande":10756,"Ġhomestyle":10757,"master":10758,"athering":10759,"Serving":10760,"ĠKrazy":10761,"Ġlinguica":10762,"Ġgiving":10763,"Ġgiblet":10764,"aik":10765,"ĠDoughnut":10766,"ĠMaria":10767,"Chow":10768,"Ġworked":10769,"mayonnaise":10770,"ĠNorth":10771,"ĠAnne":10772,"ibly":10773,"Stuff":10774,"uau":10775,"ĠRuby":10776,"Ġshortcake":10777,"Ġnewspaper":10778,"ĠHeavy":10779,"ĠTriangles":10780,"banese":10781,"ĠPolly":10782,"ĠPopovers":10783,"preheated":10784,"Ġcrem":10785,"Ġdisturb":10786,"Ġmedley":10787,"Ġvariation":10788,"ĠPearl":10789,"ĠIslands":10790,"ĠPapaya":10791,"ecker":10792,"Ġdisjoin":10793,"ĠSargento":10794,"ĠMagn":10795,"Ġrespect":10796,"ĠMissouri":10797,"Ġmicrowaves":10798,"ĠAmber":10799,"Ġreheating":10800,"ĠWayne":10801,"ĠHarvey":10802,"ĠBouillon":10803,"ĠHoppin":10804,"Ġdietetic":10805,"Ġdollar":10806,"Ġinsure":10807,"238":10808,"ĠCorinth":10809,"browned":10810,"ĠSchnitz":10811,"Dijon":10812,"ĠRotelle":10813,"ĠFilet":10814,"Ġsimply":10815,"Ġhelpings":10816,"ĠPicadillo":10817,"Cooking":10818,"ĠNumber":10819,"Ġcharity":10820,"uvre":10821,"ĠScotchies":10822,"White":10823,"ĠParis":10824,"prints":10825,"Ġhazelnut":10826,"Ġbraid":10827,"Ġindentations":10828,"Swans":10829,"Ġproducts":10830,"Ġsmoker":10831,"Prep":10832,"Ġtendency":10833,"ĠSucaryl":10834,"embert":10835,"ĠEspecially":10836,"follows":10837,"ĠBelieve":10838,"Ġgroups":10839,"Ġfixed":10840,"ĠSmokies":10841,"Ġuniformly":10842,"Check":10843,"ĠBuster":10844,"ĠColorful":10845,"Ġassemble":10846,"Ġbluefish":10847,"ĠDoesn":10848,"ĠUnderwood":10849,"halves":10850,"Ġselected":10851,"Ġmacadamia":10852,"ĠCamembert":10853,"Ġshowing":10854,"Ġprawns":10855,"ĠRemaining":10856,"Ġcarbohydrate":10857,"Ġsettles":10858,"naments":10859,"worth":10860,"Ġpraline":10861,"Ġpralines":10862,"Roasted":10863,"annah":10864,"Ġpleas":10865,"ĠTreasures":10866,"ĠDavis":10867,"ĠJumbles":10868,"ĠSettlers":10869,"bulk":10870,"ĠFunfetti":10871,"Ġaccumulated":10872,"ĠCollard":10873,"ĠWheel":10874,"Ġconfidence":10875,"tGrease":10876,"yssoise":10877,"Ġgooey":10878,"ĠAfrican":10879,"Ġindicated":10880,"ĠSopaip":10881,"Ġaccompaniment":10882,"Romano":10883,"Ġwatah":10884,"ĠGerber":10885,"ĠOVER":10886,"ĠEthel":10887,"ĠWeeks":10888,"ĠWyler":10889,"Walnut":10890,"Ġseltzer":10891,"Ġmexican":10892,"andoori":10893,"alcoholic":10894,"ĠTillamook":10895,"ĠDepression":10896,"ĠWatkins":10897,"ĠVichyssoise":10898,"next":10899,"Reserve":10900,"ctopus":10901,"Ġceramic":10902,"Ġcooperation":10903,"Ġdifficult":10904,"Ġlobsters":10905,"ĠMornay":10906,"ĠMoussaka":10907,"Ġoverflow":10908,"Ġappropriate":10909,"ĠWorthington":10910,"ĠCaribbean":10911,"isturbed":10912,"ĠCorinthians":10913,"'m":10914,"*.":10915,"175":10916,"260":10917,"800":10918,"AS":10919,"After":10920,"Asparagus":10921,"Br":10922,"Bowl":10923,"Bacon":10924,"Cold":10925,"Cann":10926,"Double":10927,"Fudge":10928,"Heat":10929,"LL":10930,"Links":10931,"Mustard":10932,"Maw":10933,"Peek":10934,"Roll":10935,"Sauce":10936,"Try":10937,"Tab":10938,"Us":10939,"Vidalia":10940,"Whe":10941,"Your":10942,"aud":10943,"breasts":10944,"bouillon":10945,"comb":10946,"cap":10947,"carp":10948,"dip":10949,"equ":10950,"earm":10951,"electric":10952,"fill":10953,"food":10954,"freeze":10955,"ga":10956,"grap":10957,"hel":10958,"ipper":10959,"jar":10960,"jalapeno":10961,"lor":10962,"little":10963,"ltra":10964,"mast":10965,"mise":10966,"mandy":10967,"muls":10968,"ox":10969,"pkg":10970,"prise":10971,"popped":10972,"paper":10973,"qt":10974,"rg":10975,"rinse":10976,"sure":10977,"tly":10978,"tles":10979,"torn":10980,"test":10981,"tCh":10982,"tchicken":10983,"ttogether":10984,"uh":10985,"uzz":10986,"vis":10987,"wards":10988,"ype":10989,"za":10990,"zle":10991,"ztec":10992,"Ġir":10993,"Ġcu":10994,"Ġcat":10995,"Ġcalls":10996,"Ġcapp":10997,"Ġsatin":10998,"Ġsouffl":10999,"erican":11000,"ane":11001,"anas":11002,"Ġtell":11003,"Ġtried":11004,"Ġtrench":11005,"Ġteas":11006,"Ġtapped":11007,"Ġtureen":11008,"Ġtepid":11009,"Ġovals":11010,"aring":11011,"arant":11012,"arabi":11013,"Ġpossum":11014,"Ġmas":11015,"Ġmom":11016,"Ġmass":11017,"Ġmax":11018,"Ġmesquite":11019,"atar":11020,"utely":11021,"utions":11022,"onto":11023,"onata":11024,"andom":11025,"alle":11026,"Ġfits":11027,"Ġfond":11028,"Ġchiffon":11029,"Ġwarabi":11030,"icer":11031,"icch":11032,"icago":11033,"spaghetti":11034,"pps":11035,"Ġink":11036,"lear":11037,"ĠCO":11038,"ĠCass":11039,"ĠCray":11040,"ĠCirc":11041,"orbs":11042,"aks":11043,"eline":11044,"Ġsubs":11045,"Ġsult":11046,"Ġsunda":11047,"Ġ380":11048,"Ġemuls":11049,"Ġdraw":11050,"Ġdices":11051,"ĠSor":11052,"ĠSit":11053,"ĠSame":11054,"ĠSieve":11055,"ĠSilver":11056,"ĠSylv":11057,"ĠSometimes":11058,"Ġgly":11059,"Ġgrained":11060,"Ġgau":11061,"Ġgnocchi":11062,"Ġlifted":11063,"Ġlrg":11064,"oother":11065,"ionship":11066,"ĠBoo":11067,"ĠBap":11068,"ĠBec":11069,"ĠBount":11070,"ĠBors":11071,"ĠBalsamic":11072,"ĠPine":11073,"ĠPudd":11074,"ĠPheasant":11075,"ĠPride":11076,"ĠPiquant":11077,"Ġflow":11078,"isa":11079,"ĠTal":11080,"ĠTall":11081,"ĠTip":11082,"ĠTunnel":11083,"Ġ((":11084,"eseed":11085,"Ġbuttercream":11086,"Ġunto":11087,"Ġunheated":11088,"Ġuntoasted":11089,"Ġchew":11090,"Ġvine":11091,"Ġversion":11092,"olk":11093,"olis":11094,"olks":11095,"olutely":11096,"ĠAtt":11097,"ĠAbs":11098,"ĠAztec":11099,"Ġhar":11100,"Ġhare":11101,"Ġhapp":11102,"usche":11103,"otes":11104,"otle":11105,"ĠMt":11106,"ĠMignon":11107,"raper":11108,"alla":11109,"Ġstout":11110,"Ġstones":11111,"aden":11112,"charin":11113,"Ġmilky":11114,"ders":11115,"Ġcrink":11116,"tso":11117,"tsauce":11118,"Ġnone":11119,"Ġnecks":11120,"Ġsay":11121,"Ġsays":11122,"vet":11123,"Ġthimble":11124,"thour":11125,"three":11126,"Ġoverwork":11127,"Ġwhichever":11128,"ĠRes":11129,"ĠRay":11130,"ĠRag":11131,"ĠRave":11132,"ĠChive":11133,"ĠChicago":11134,"Ġrange":11135,"Ġrubb":11136,"ĠDress":11137,"ĠDess":11138,"ĠDig":11139,"ĠDandelion":11140,"mont":11141,"Ġspare":11142,"Ġspearm":11143,"ĠWieners":11144,"ĠWraps":11145,"Ġreason":11146,"stuff":11147,"ĠSpud":11148,"Ġgarni":11149,"quiri":11150,"ĠStre":11151,"ĠSteep":11152,"Ġsmoother":11153,"umble":11154,"umbers":11155,"ĠFall":11156,"ĠFric":11157,"ĠFanny":11158,"ĠFajita":11159,"ĠFifteen":11160,"Ġpotluck":11161,"Ġyam":11162,"ifun":11163,"aints":11164,"ĠLar":11165,"ĠLat":11166,"ĠLim":11167,"ĠLife":11168,"ĠLovers":11169,"ĠLuke":11170,"ĠLuau":11171,"erson":11172,"Ġovenware":11173,"Ġsmallest":11174,"ĠHag":11175,"ĠHav":11176,"ĠHerman":11177,"ĠInstead":11178,"ĠGlace":11179,"ĠGul":11180,"ĠGobs":11181,"ĠGoat":11182,"Ġcarving":11183,"Ġ97":11184,"Ġserrated":11185,"agination":11186,"Ġclou":11187,"napps":11188,"Ġlighten":11189,"Ġkol":11190,"Ġkey":11191,"leye":11192,"Ġsloppy":11193,"Ġshredding":11194,"ressions":11195,"Ġ155":11196,"Ġnutr":11197,"Ġnutty":11198,"ĠOuts":11199,"ĠOccasion":11200,"ĠOodles":11201,"ĠOaks":11202,"ĠWorks":11203,"Ġblackened":11204,"estle":11205,"Ġsheen":11206,"Ġpourable":11207,"ĠEli":11208,"ĠEating":11209,"Ġsquirt":11210,"Ġdoughy":11211,"Ġcrusted":11212,"Ġliberal":11213,"ĠJus":11214,"ĠKelly":11215,"ĠKlus":11216,"ĠKroger":11217,"ĠKiller":11218,"Ġpremade":11219,"Ġboxed":11220,"ĠBlintzes":11221,"ĠBloody":11222,"ĠSaver":11223,"Ġwarming":11224,"ĠVin":11225,"ĠVari":11226,"ĠVodka":11227,"ĠVersion":11228,"Ġfills":11229,"Ġjells":11230,"Ġtablets":11231,"ĠPeggy":11232,"Ġpeelings":11233,"ĠNap":11234,"ĠNibb":11235,"Ġenc":11236,"Ġenv":11237,"Ġensure":11238,"Ġgrahams":11239,"Ġuncut":11240,"Ġbatters":11241,"ĠShish":11242,"ĠBev":11243,"ĠBeater":11244,"Ġfatty":11245,"Ġquah":11246,"ĠChocol":11247,"ĠRefreshing":11248,"ĠRefrigerated":11249,"ĠBoiling":11250,"ĠBrusche":11251,"Ġscraper":11252,"ĠSlash":11253,"Ġboun":11254,"Ġmoving":11255,"Ġmochiko":11256,"Ġevening":11257,"periment":11258,"Ġaccept":11259,"Ġcuracao":11260,"Ġbrats":11261,"ĠArk":11262,"Ġtubular":11263,"Ġtwisted":11264,"Ġthroughly":11265,"tonion":11266,"ĠCornstarch":11267,"Ġcrisped":11268,"Ġcrispier":11269,"Ġcrown":11270,"Ġcrowns":11271,"flakes":11272,"Ġcompl":11273,"Ġamber":11274,"Ġamerican":11275,"ĠCoating":11276,"plum":11277,"Ġlongways":11278,"Ġpina":11279,"ĠQuart":11280,"Ġnonalcoholic":11281,"Ġ242":11282,"Ġ248":11283,"ĠLeg":11284,"ĠScoops":11285,"ĠStock":11286,"ĠZin":11287,"ĠFrying":11288,"Ġtoasty":11289,"Ġtoasting":11290,"Ġparticular":11291,"azing":11292,"ĠCons":11293,"soy":11294,"tzel":11295,"Ġdarkening":11296,"ĠCann":11297,"Ġregularly":11298,"Ġundissolved":11299,"Ġundisturbed":11300,"ettini":11301,"Ġmoister":11302,"nots":11303,"Ġsubmer":11304,"ukiyaki":11305,"Ġmolded":11306,"Ġbroilers":11307,"Ġsurrounded":11308,"Ġsurprise":11309,"ortment":11310,"Ġcombo":11311,"Ġparing":11312,"Ġcores":11313,"ĠCampfire":11314,"Ġbreaks":11315,"ĠClay":11316,"ĠClara":11317,"tcup":11318,"ĠSuperb":11319,"Ġstovetop":11320,"appa":11321,"appi":11322,"ĠSky":11323,"ĠSkinny":11324,"Ġunderbeat":11325,"ĠRevie":11326,"burgers":11327,"ody":11328,"Ġabsorbs":11329,"ĠImmerse":11330,"ĠGrands":11331,"Ġrinsing":11332,"Ġrotelli":11333,"ĠChristian":11334,"ĠChristmast":11335,"ĠPronto":11336,"ĠProtein":11337,"ĠTortoni":11338,"aiquiri":11339,"ĠEner":11340,"Ġtouches":11341,"ajo":11342,"Ġoverbrown":11343,"Ġringed":11344,"ĠCollege":11345,"rolls":11346,"Ġsitting":11347,"Ġsoftens":11348,"ĠGingered":11349,"ĠCrem":11350,"ĠNormandy":11351,"arbecues":11352,"ĠPlate":11353,"Ġrepeating":11354,"buttermilk":11355,"ĠApart":11356,"Ġswirling":11357,"ĠFisher":11358,"Ġbecoming":11359,"ĠPerk":11360,"Leviticus":11361,"Ġprovolone":11362,"Ġproceed":11363,"ĠHearts":11364,"ielbasi":11365,"ĠSeafoam":11366,"Ġassortment":11367,"ondra":11368,"ĠHunter":11369,"Ġinstructed":11370,"Ġchickpea":11371,"ĠDevils":11372,"Ġladyfinger":11373,"Ġtesting":11374,"ĠMueller":11375,"ĠFranc":11376,"ĠFranco":11377,"ĠCubes":11378,"ĠPapa":11379,"Ġgrinding":11380,"Ġresid":11381,"Ġadhere":11382,"ĠPoach":11383,"ĠBraise":11384,"onesian":11385,"ĠMajor":11386,"Ġbasmati":11387,"Ġmaintain":11388,"ignoli":11389,"Ġpreheating":11390,"iki":11391,"ĠLoosely":11392,"ĠSchnapps":11393,"ĠFourth":11394,"ĠDollop":11395,"minute":11396,"ugget":11397,"eacher":11398,"Ġfalling":11399,"Ġadjusted":11400,"ĠHummus":11401,"prick":11402,"Ġplantain":11403,"blackberry":11404,"Ġtostado":11405,"Ġteac":11406,"chiote":11407,"Ġsnails":11408,"Ġbraise":11409,"ĠDrumsticks":11410,"Ġcourt":11411,"ĠJoyce":11412,"Ġajar":11413,"ĠElegante":11414,"Swedish":11415,"store":11416,"Ġsatis":11417,"Ġsmoky":11418,"ĠBonnie":11419,"Ġfleshed":11420,"Ġhumid":11421,"Ġlaundry":11422,"ĠBourgu":11423,"ĠChippers":11424,"ĠGloria":11425,"Ġpresifted":11426,"ĠDuckling":11427,"ĠFudg":11428,"Ġrainy":11429,"Artich":11430,"Ġsaccharin":11431,"ĠRestaurant":11432,"Ġrearrange":11433,"cerin":11434,"Ġbands":11435,"equals":11436,"Ġtilting":11437,"Ġpuppy":11438,"blueberry":11439,"Ġpenet":11440,"ĠDecad":11441,"Ready":11442,"ĠMascarp":11443,"ĠWellington":11444,"Ġunsulph":11445,"Ġsounds":11446,"ĠMidnight":11447,"ĠMichigan":11448,"curd":11449,"Ġbeautifully":11450,"Ġreducing":11451,"ĠEastern":11452,"Ġenhancer":11453,"ĠTemptations":11454,"refrigerated":11455,"Maid":11456,"zech":11457,"Ġbuffet":11458,"Ġdidn":11459,"ĠPulse":11460,"ĠMarbled":11461,"Ġattached":11462,"ĠSherried":11463,"ĠMargaret":11464,"substitute":11465,"Ġtreated":11466,"ĠBetween":11467,"Ġrender":11468,"ĠLumpia":11469,"ĠGarbage":11470,"dinary":11471,"Ġvertically":11472,"Ġbeads":11473,"ĠShallot":11474,"ĠRobin":11475,"ĠLiqueur":11476,"Ġjudgement":11477,"Southern":11478,"Texas":11479,"bacore":11480,"Ġwreaths":11481,"itamin":11482,"ĠSavannah":11483,"Ġshiitake":11484,"ĠNavajo":11485,"Ġnonpareils":11486,"Ġindention":11487,"Strawberry":11488,"Ġtotally":11489,"ĠMorsel":11490,"ĠRarebit":11491,"ĠPeppark":11492,"Ġdisjointed":11493,"ĠSchnitzel":11494,"ĠSopaipillas":11495,"icchio":11496,"ĠSylvia":11497,"Ġglycerin":11498,"ĠBapt":11499,"ĠBorsch":11500,"ĠAttach":11501,"Ġspearmint":11502,"ĠNibbles":11503,"ĠBruschetta":11504,"ĠChristmastime":11505,"Ġoverbrowning":11506,"ĠBourguignon":11507,"ĠMascarpone":11508,")!":11509,"200":11510,"42":11511,"Am":11512,"Aunt":11513,"Apart":11514,"By":11515,"Basil":11516,"Barbecued":11517,"Better":11518,"Crisp":11519,"Dill":11520,"Drain":11521,"Drop":11522,"Dipped":11523,"EP":11524,"En":11525,"Ener":11526,"Fish":11527,"Hershey":11528,"Isaiah":11529,"Japanese":11530,"Keep":11531,"LD":11532,"Lon":11533,"Lay":11534,"Lite":11535,"Mouth":11536,"Nestle":11537,"Our":11538,"Pl":11539,"Pour":11540,"Party":11541,"Peach":11542,"RA":11543,"Ragu":11544,"Sim":11545,"Sometimes":11546,"Wheat":11547,"Wrapped":11548,"\\)":11549,"bab":11550,"basil":11551,"bubb":11552,"below":11553,"cor":11554,"cale":11555,"coconut":11556,"diluted":11557,"dipped":11558,"few":11559,"five":11560,"family":11561,"fandel":11562,"grocery":11563,"grown":11564,"hance":11565,"ij":11566,"jack":11567,"kan":11568,"lay":11569,"mustard":11570,"mian":11571,"microwave":11572,"mother":11573,"mark":11574,"muffin":11575,"nese":11576,"pizza":11577,"pensive":11578,"rust":11579,"rams":11580,"sy":11581,"sen":11582,"seal":11583,"sesame":11584,"solid":11585,"slow":11586,"saved":11587,"tW":11588,"tan":11589,"tall":11590,"tuna":11591,"tiny":11592,"tflour":11593,"ttop":11594,"tbrown":11595,"tpepper":11596,"tbaking":11597,"teggs":11598,"tWhen":11599,"tMelt":11600,"tomatoes":11601,"tingredients":11602,"uly":11603,"vin":11604,"vely":11605,"viche":11606,"wo":11607,"watch":11608,"xtail":11609,"yps":11610,"yeast":11611,"zab":11612,"Ġing":11613,"inos":11614,"Ġsorted":11615,"Ġsense":11616,"eral":11617,"erts":11618,"eroll":11619,"Ġtid":11620,"Ġtrow":11621,"Ġtarter":11622,"Ġtasting":11623,"Ġtaters":11624,"Ġtacky":11625,"Ġtilt":11626,"Ġol":11627,"Ġoctopus":11628,"Ġbased":11629,"arita":11630,"ester":11631,"eside":11632,"Ġph":11633,"Ġpreserve":11634,"Ġpreserved":11635,"Ġpignoli":11636,"Ġmus":11637,"Ġmice":11638,"Ġmidd":11639,"atma":11640,"atappi":11641,"iles":11642,"ilize":11643,"rell":11644,"onate":11645,"onberries":11646,"enish":11647,"alded":11648,"aluminum":11649,"Ġfats":11650,"ingonberries":11651,"spir":11652,"spicy":11653,"Ġinver":11654,"roves":11655,"roasted":11656,"ĠCe":11657,"ĠCel":11658,"ĠCans":11659,"ĠCous":11660,"ĠCort":11661,"ĠCath":11662,"akers":11663,"elma":11664,"ourage":11665,"Ġsuc":11666,"Ġaff":11667,"Ġaig":11668,"Ġdream":11669,"Ġdries":11670,"ĠSter":11671,"ĠSake":11672,"ĠSole":11673,"ĠSukiyaki":11674,"Ġgathering":11675,"Ġloc":11676,"Ġlines":11677,"Ġlovers":11678,"terrey":11679,"hemian":11680,"ĠBix":11681,"ĠBish":11682,"ĠBunch":11683,"ĠBened":11684,"ĠBubb":11685,"ĠBarbec":11686,"ĠBud":11687,"ĠBail":11688,"ĠBridge":11689,"action":11690,"ĠPf":11691,"ĠPay":11692,"ĠPans":11693,"ĠPreserve":11694,"ĠPurple":11695,"ĠPuncture":11696,"Ġflatter":11697,"ddled":11698,"unflavored":11699,"unthawed":11700,"unpared":11701,"geous":11702,"Ġeggroll":11703,"owax":11704,"ĠTir":11705,"ĠTass":11706,"ĠTem":11707,"ĠTree":11708,"ĠTbs":11709,"ĠTint":11710,"ĠTidbits":11711,"ĠTiger":11712,"ĠToothpick":11713,"Ġ(\\":11714,"Ġunfold":11715,"Ġunwashed":11716,"Ġcheez":11717,"Ġveins":11718,"Ġvessel":11719,"illian":11720,"olph":11721,"ĠAw":11722,"ĠAriz":11723,"ĠAcini":11724,"ĠAlex":11725,"Ġhurry":11726,"uso":11727,"Ġchosen":11728,"ĠMat":11729,"ĠMush":11730,"ĠMod":11731,"ĠMuddy":11732,"Ġcreamier":11733,"Ġstate":11734,"omething":11735,"chill":11736,"chop":11737,"Ġcriss":11738,"Ġcrump":11739,"toil":11740,"tsm":11741,"tsalt":11742,"umqu":11743,"riage":11744,"rivel":11745,"rift":11746,"ety":11747,"Ġshedd":11748,"Ġshrivel":11749,"Ġthins":11750,"Ġoverstir":11751,"ĠRon":11752,"ĠRiver":11753,"ĠRadish":11754,"ĠRocks":11755,"ĠRoom":11756,"astry":11757,"ays":11758,"aylor":11759,"ĠChap":11760,"ĠCharm":11761,"ĠChurn":11762,"ĠChoose":11763,"ĠChafing":11764,"ĠChives":11765,"ĠChunks":11766,"Ġruss":11767,"Ġcoddled":11768,"ĠDen":11769,"ĠDain":11770,"ĠDoc":11771,"ĠDairy":11772,"ĠDunk":11773,"ĠDampen":11774,"ansion":11775,"Ġspot":11776,"Ġspade":11777,"Ġspoke":11778,"Ġspanish":11779,"ĠWy":11780,"ĠWood":11781,"ĠWright":11782,"ĠWondra":11783,"step":11784,"stiff":11785,"ighs":11786,"ĠSparkling":11787,"Ġjugs":11788,"Ġselect":11789,"ided":11790,"Ġfrogs":11791,"ĠStill":11792,"ĠState":11793,"ĠStars":11794,"ĠStem":11795,"ĠStone":11796,"ĠStripe":11797,"ĠStores":11798,"ĠII":11799,"Ġsmother":11800,"Ġsmear":11801,"Ġgrounded":11802,"ĠFar":11803,"ĠFred":11804,"ĠFay":11805,"ĠFork":11806,"ĠFillet":11807,"ĠFlower":11808,"ifer":11809,"apricot":11810,"ĠLook":11811,"ĠLover":11812,"ĠLav":11813,"ĠLasts":11814,"Ġ54":11815,"Ġ56":11816,"Ġ550":11817,"Ġbreadstick":11818,"opt":11819,"ĠHang":11820,"ĠHost":11821,"ĠHapp":11822,"ĠHaddock":11823,"ĠInside":11824,"ĠGrain":11825,"ĠGems":11826,"ĠGib":11827,"ĠGala":11828,"Ġcarnation":11829,"Ġcarousel":11830,"eddi":11831,"Ġserrano":11832,"overn":11833,"shell":11834,"shallow":11835,"shells":11836,"Ġcutouts":11837,"ĠServed":11838,"arti":11839,"Ġrabe":11840,"Ġalthough":11841,"Ġalbacore":11842,"Ġkielbasi":11843,"Ġslim":11844,"ideo":11845,"Ġhammer":11846,"ĠOmit":11847,"eche":11848,"enta":11849,"Ġboy":11850,"ĠElectric":11851,"ĠEtc":11852,"ĠPrebake":11853,"Ġlik":11854,"Ġlikes":11855,"ĠKit":11856,"ĠKart":11857,"ĠKemp":11858,"ĠKnots":11859,"Ġpacking":11860,"Ġoutward":11861,"ĠBlush":11862,"ĠSazon":11863,"Ġwarmer":11864,"ĠVegeburger":11865,"ĠVitamin":11866,"Ġsmoothing":11867,"ĠThrift":11868,"ĠPeppy":11869,"lespoons":11870,"paration":11871,"ocacc":11872,"ĠMelon":11873,"ĠMelted":11874,"Ġ252":11875,"ĠNear":11876,"Ġzwieback":11877,"Ġenhance":11878,"ĠYet":11879,"ĠYears":11880,"Ġpasty":11881,"Ġpastrami":11882,"Ġfruity":11883,"ĠShave":11884,"ĠShopp":11885,"irecr":11886,"Ġspreads":11887,"ĠUltra":11888,"peanut":11889,"Ġfoods":11890,"arbonate":11891,"ĠBrussel":11892,"iches":11893,"Ġmocha":11894,"ternal":11895,"ĠTurnips":11896,"several":11897,"Ġaccur":11898,"izzle":11899,"ĠGroup":11900,"Ġpoor":11901,"Ġpoach":11902,"Ġbratwurst":11903,"ĠArct":11904,"Ġtwirls":11905,"ossibly":11906,"Ġdillweed":11907,"ermit":11908,"Ġcrispies":11909,"Ġpinched":11910,"Ġmeals":11911,"flaked":11912,"flowers":11913,"ĠForce":11914,"istant":11915,"Ġlongest":11916,"Ġpinwheel":11917,"Ġ245":11918,"ĠScrew":11919,"scalded":11920,"ĠPeppercorn":11921,"ĠSweeta":11922,"Ġpatis":11923,"alapenos":11924,"Ġherbes":11925,"ĠFrog":11926,"Ġimagination":11927,"ĠConn":11928,"ĠConserve":11929,"ĠUnstuffed":11930,"ĠBrenda":11931,"soften":11932,"Ġanymore":11933,"ĠOnto":11934,"ĠMexico":11935,"Ġseals":11936,"ettie":11937,"okee":11938,"ĠSugared":11939,"angel":11940,"Ġeveryone":11941,"Ġeveryday":11942,"Ġperk":11943,"ĠMinted":11944,"Ġconsisten":11945,"ĠKeeping":11946,"unset":11947,"ĠPammed":11948,"canning":11949,"Ġexcessive":11950,"ĠDipping":11951,"Ġopt":11952,"Ġoption":11953,"Ġpattie":11954,"Ġfilberts":11955,"ĠTurmeric":11956,"does":11957,"eringues":11958,"ĠCranberries":11959,"ĠClair":11960,"ĠClaud":11961,"tcream":11962,"tcook":11963,"tcheese":11964,"approximate":11965,"appearing":11966,"cookie":11967,"ĠUsed":11968,"Ġmoistness":11969,"Ġsingles":11970,"Ġwords":11971,"orbet":11972,"Ġporcini":11973,"ahi":11974,"ĠSnaps":11975,"Ġtrivet":11976,"ĠPhy":11977,"ĠPhill":11978,"ĠDelect":11979,"ĠFront":11980,"addle":11981,"ĠPromise":11982,"Ġdepend":11983,"ĠCrusted":11984,"ĠCracked":11985,"Children":11986,"rolling":11987,"Ġloosened":11988,"Ġkindly":11989,"frost":11990,"Ġcrossways":11991,"enny":11992,"ennis":11993,"ĠMomma":11994,"ĠSeeds":11995,"Ġovercooking":11996,"ĠIron":11997,"Ġshortly":11998,"ĠWhiskers":11999,"ĠApache":12000,"Ġswitch":12001,"Ġprobably":12002,"Ġbrandied":12003,"Ġguest":12004,"ĠAsi":12005,"ĠAsian":12006,"ĠNeapolitan":12007,"Ġdevils":12008,"ĠWatcher":12009,"ĠHunting":12010,"Ġbathtub":12011,"Ġcombinations":12012,"Ġgarbanzos":12013,"ĠJames":12014,"!!!!":12015,"Ġmounding":12016,"ĠImportant":12017,"ĠDilled":12018,"ĠSunrise":12019,"fured":12020,"Ġstrands":12021,"Cracker":12022,"ĠBoat":12023,"ĠBohemian":12024,"alao":12025,"ĠFettuccini":12026,"ĠIndonesian":12027,"ugly":12028,"tCut":12029,"tCream":12030,"hydrated":12031,"ĠTruffle":12032,"ĠTruly":12033,"Ġadults":12034,"ĠLouise":12035,"ĠTamales":12036,"ĠPrepared":12037,"ĠRumaki":12038,"ĠWays":12039,"Ġcastor":12040,"ĠMae":12041,"ĠMax":12042,"Spray":12043,"Ġtearing":12044,"ĠHopping":12045,"ĠLiberally":12046,"Ġbowtie":12047,"Ġinsist":12048,"ĠJohnson":12049,"235":12050,"ĠCorrect":12051,"obby":12052,"skins":12053,"Ġearlier":12054,"ĠPersian":12055,"ĠDollies":12056,"ĠFiles":12057,"Ġspecialty":12058,"garnishes":12059,"Ġtrust":12060,"Ġtruffles":12061,"ĠCaponata":12062,"ĠParowax":12063,"ĠWilma":12064,"ĠSandra":12065,"ĠBlondies":12066,"ĠCarolyn":12067,"partially":12068,"Ġwintergreen":12069,"ĠBeauty":12070,"ĠCashews":12071,"thinly":12072,"ĠJewel":12073,"Always":12074,"Ġlox":12075,"Ġparsnip":12076,"ĠAdolph":12077,"vegetables":12078,"Ġstretched":12079,"Ġstretching":12080,"tSift":12081,"ĠStephan":12082,"ĠOutra":12083,"Ġhusk":12084,"ĠHalfway":12085,"ĠSpringtime":12086,"tDrain":12087,"ĠRelleno":12088,"Apples":12089,"Preparation":12090,"glaze":12091,"faits":12092,"ĠSucc":12093,"Ġhaupia":12094,"measured":12095,"following":12096,"ĠSmoky":12097,"Cheez":12098,"Ġpresent":12099,"almond":12100,"Ġsufficiently":12101,"Flavor":12102,"ĠFeel":12103,"ĠHandle":12104,"ĠKrispy":12105,"ĠMamma":12106,"Ġseared":12107,"ĠColorado":12108,"ĠHero":12109,"ĠHeritage":12110,"square":12111,"Ġbudget":12112,"ĠBuddies":12113,"ĠAlaskan":12114,"cooled":12115,"lova":12116,"ĠCamper":12117,"ĠMasterpiece":12118,"ĠKrunch":12119,"tTop":12120,"ĠPalmas":12121,"ĠTrail":12122,"lettes":12123,"ĠCharlie":12124,"Progresso":12125,"Ġmidget":12126,"Ġgherkin":12127,"ĠBerried":12128,"Ġappetit":12129,"Ġproperly":12130,"Soft":12131,"Ġtimer":12132,"ĠSnapper":12133,"ĠTreasure":12134,"Ġslashes":12135,"ĠSettler":12136,"Ġunsulfured":12137,"Ġideal":12138,"ĠMidw":12139,"ĠMahatma":12140,"tshortening":12141,"ĠChickpeas":12142,"ĠDisappearing":12143,"ĠVermont":12144,"Ġaccumulates":12145,"ĠWilliamsburg":12146,"Ġbeautiful":12147,"ĠLucille":12148,"Ġboysen":12149,"ĠSkewer":12150,"Blueberry":12151,"ĠTemptation":12152,"Ġarms":12153,"Ġtangerine":12154,"Ġtangerines":12155,"Ġmullet":12156,"Ġvaried":12157,"Ġholders":12158,"Ġjiggle":12159,"ĠProvence":12160,"ĠProvencale":12161,"Ġobtained":12162,"Snack":12163,"ĠMulled":12164,"ĠJessie":12165,"ĠKatie":12166,"ĠGladys":12167,"Ġdiscoloring":12168,"Ġrutabaga":12169,"Ġcylinders":12170,"munity":12171,"ĠCourt":12172,"ĠCounty":12173,"Ġhealth":12174,"ĠKernel":12175,"ĠButterfly":12176,"ĠButterhorns":12177,"ĠPlanters":12178,"ĠCantonese":12179,"Healthy":12180,"Marinated":12181,"ĠTbls":12182,"ĠAncho":12183,"ĠMinnie":12184,"ĠRhine":12185,"ĠIrene":12186,"ĠEmily":12187,"ĠVicki":12188,"Ġquesad":12189,"conomical":12190,"Ġutensil":12191,"Ġjalapeo":12192,"elebration":12193,"Angel":12194,"Ġbicarbonate":12195,"Ġchanging":12196,"ĠCandies":12197,"ĠPacific":12198,"ĠMeyer":12199,"ĠMyrtle":12200,"ĠMatthew":12201,"ĠCherokee":12202,"ĠFestival":12203,"Ġblistered":12204,"Ġentertain":12205,"Ġbranches":12206,"Ġunblanched":12207,"Ġoverflowing":12208,"Tabasco":12209,"Wheels":12210,"Ġirregular":12211,"aranteed":12212,"Ġmasa":12213,"Ġmaximum":12214,"andomly":12215,"Ġsultanas":12216,"Ġsundae":12217,"ĠBecky":12218,"ĠRagout":12219,"Ġreasonable":12220,"ĠFricass":12221,"ĠHavarti":12222,"Ġcloudy":12223,"ĠElizab":12224,"ĠKluski":12225,"Ġacceptable":12226,"ĠArkansas":12227,"ĠZinfandel":12228,"ĠEnergy":12229,"ĠCremora":12230,"Ġresidue":12231,"Ġcourtesy":12232,"Artichoke":12233,"Ġpenetrate":12234,"ĠDecadent":12235,"Ġunsulphured":12236,"ĠBaptist":12237,"Energy":12238,"Longhorn":12239,"Ġingred":12240,"Ġtrowel":12241,"Ġinverting":12242,"ĠCousin":12243,"ĠCortland":12244,"ouragement":12245,"ĠSterilize":12246,"ĠBenedic":12247,"ĠBarbecups":12248,"ĠBailey":12249,"ĠPayday":12250,"ĠTassies":12251,"ĠArizona":12252,"Ġshedded":12253,"Ġrusset":12254,"ĠHostess":12255,"ĠHappiness":12256,"ĠThrifty":12257,"ocaccia":12258,"ĠShoppe":12259,"ĠArctic":12260,"ĠStephanie":12261,"ĠElizabeth":12262,"'d":12263,".(":12264,".\")":12265,"150":12266,"225":12267,"34":12268,"76":12269,":\\":12270,"Aust":12271,"Bur":12272,"Berry":12273,"Bundt":12274,"Betty":12275,"CK":12276,"Casserole":12277,"DO":12278,"Dessert":12279,"Fast":12280,"GE":12281,"Gu":12282,"Ginger":12283,"Golden":12284,"Graham":12285,"Her":12286,"Hard":12287,"Ice":12288,"Just":12289,"Jif":12290,"Kids":12291,"LY":12292,"Light":12293,"Ms":12294,"Mac":12295,"Miss":12296,"Method":12297,"Numbers":12298,"Ox":12299,"Place":12300,"Pork":12301,"Pea":12302,"Purpose":12303,"SG":12304,"Set":12305,"UM":12306,"VP":12307,"Wip":12308,"aet":12309,"aute":12310,"bre":12311,"biscuit":12312,"buy":12313,"billy":12314,"borio":12315,"body":12316,"cel":12317,"cit":12318,"cinn":12319,"cart":12320,"cider":12321,"could":12322,"calor":12323,"cilantro":12324,"clean":12325,"dr":12326,"different":12327,"defrost":12328,"dicchio":12329,"fil":12330,"faced":12331,"gen":12332,"gency":12333,"hl":12334,"have":12335,"hog":12336,"haps":12337,"ida":12338,"ique":12339,"jel":12340,"joles":12341,"kid":12342,"kern":12343,"knead":12344,"lie":12345,"leness":12346,"loose":12347,"mg":12348,"mine":12349,"mate":12350,"mings":12351,"now":12352,"net":12353,"nacho":12354,"oated":12355,"pit":12356,"pans":12357,"purple":12358,"pasta":12359,"sandwich":12360,"slices":12361,"super":12362,"sworth":12363,"tit":12364,"trim":12365,"tgreased":12366,"tegg":12367,"table":12368,"tTh":12369,"tbe":12370,"tfrom":12371,"tthen":12372,"toothpick":12373,"ugh":12374,"vable":12375,"wa":12376,"war":12377,"wet":12378,"zer":12379,"zag":12380,"Ġedi":12381,"Ġant":12382,"Ġuv":12383,"Ġiodized":12384,"Ġcell":12385,"Ġcent":12386,"Ġcult":12387,"inely":12388,"incinn":12389,"Ġsample":12390,"era":12391,"erie":12392,"erate":12393,"eresa":12394,"erfulness":12395,"anak":12396,"Ġtass":12397,"Ġtreas":12398,"Ġtent":12399,"Ġooz":12400,"Ġoxtail":12401,"Ġben":12402,"Ġbac":12403,"Ġbans":12404,"Ġbend":12405,"Ġbasted":12406,"Ġbuckey":12407,"Ġbunny":12408,"Ġbeside":12409,"around":12410,"arins":12411,"edar":12412,"esome":12413,"Ġpam":12414,"Ġpate":12415,"Ġpoll":12416,"Ġpome":12417,"Ġpipe":12418,"Ġpuncture":12419,"Ġpige":12420,"Ġmorn":12421,"Ġmag":12422,"Ġmock":12423,"Ġmist":12424,"Ġmacker":12425,"Ġmesa":12426,"atelle":12427,"reci":12428,"rels":12429,"uten":12430,"enz":12431,"enee":12432,"andine":12433,"altern":12434,"aloupe":12435,"oug":12436,"oulet":12437,"Ġfans":12438,"Ġfauce":12439,"Ġfud":12440,"Ġfist":12441,"Ġfron":12442,"Ġfootball":12443,"Ġchard":12444,"inged":12445,"Ġwall":12446,"Ġwip":12447,"Ġwiener":12448,"Ġtoaster":12449,"Ġinternal":12450,"leas":12451,"leep":12452,"ĠCame":12453,"ĠCog":12454,"ĠCome":12455,"ĠCapp":12456,"ĠCouple":12457,"ĠCukes":12458,"ĠClear":12459,"aku":12460,"amed":12461,"ameat":12462,"amab":12463,"Ġsupp":12464,"Ġsund":12465,"Ġaut":12466,"Ġaid":12467,"Ġairy":12468,"Ġachiote":12469,"Ġdie":12470,"Ġdue":12471,"Ġdiv":12472,"Ġdome":12473,"Ġdeseed":12474,"ĠSoo":12475,"ĠSack":12476,"ĠSwe":12477,"ĠSoc":12478,"ĠSemi":12479,"ĠSingle":12480,"ĠSassy":12481,"ĠSliver":12482,"ĠSzech":12483,"ĠSunset":12484,"Ġgot":12485,"Ġglace":12486,"Ġgash":12487,"Ġgills":12488,"Ġgelled":12489,"Ġlap":12490,"Ġloves":12491,"Ġlatter":12492,"Ġlily":12493,"Ġsaltpe":12494,"Ġpeaked":12495,"ĠBed":12496,"ĠBri":12497,"ĠBerries":12498,"ĠBury":12499,"ĠBows":12500,"ĠBreeze":12501,"ĠBachel":12502,"ĠBarbecues":12503,"acakes":12504,"acity":12505,"ĠPil":12506,"ĠPand":12507,"ĠPom":12508,"ĠPav":12509,"ĠPue":12510,"ĠPray":12511,"ĠPsal":12512,"ĠPossum":12513,"ĠPrime":12514,"Ġflag":12515,"ggie":12516,"inet":12517,"owa":12518,"ĠTin":12519,"ĠTus":12520,"ĠTina":12521,"ĠTeen":12522,"ĠTandoori":12523,"ĠType":12524,"ĠTVP":12525,"Ġ(.":12526,"Ġunwrap":12527,"Ġunshelled":12528,"Ġunopened":12529,"Ġchef":12530,"Ġcheerfulness":12531,"Ġvelve":12532,"Ġviole":12533,"illes":12534,"illows":12535,"olor":12536,"olul":12537,"olina":12538,"ĠAge":12539,"ĠAir":12540,"ĠAsh":12541,"ĠAcap":12542,"Ġmineral":12543,"Ġhim":12544,"Ġhooks":12545,"Ġhyd":12546,"ĠMick":12547,"ĠMott":12548,"ĠMess":12549,"ĠMeg":12550,"ĠMany":12551,"ĠMmm":12552,"ĠMenthe":12553,"ĠMimi":12554,"ĠMeringues":12555,"ĠMSG":12556,"Ġbees":12557,"Ġordinary":12558,"raisin":12559,"allic":12560,"allas":12561,"allion":12562,"Ġstud":12563,"Ġstron":12564,"oming":12565,"elloni":12566,"chips":12567,"cholesterol":12568,"toff":12569,"tsy":12570,"umi":12571,"Ġcanape":12572,"rig":12573,"ribs":12574,"rizzle":12575,"Ġnyl":12576,"Ġnests":12577,"Ġnugget":12578,"illage":12579,"Ġsharing":12580,"Ġthinn":12581,"Ġthunder":12582,"Ġgreasy":12583,"Ġmarks":12584,"Ġmargin":12585,"Ġmarket":12586,"thur":12587,"Ġoverdone":12588,"urel":12589,"ĠRol":12590,"ĠRush":12591,"ĠRip":12592,"ĠRear":12593,"ĠReg":12594,"ĠRachel":12595,"ĠReddi":12596,"Ġcookware":12597,"ĠChitterlings":12598,"Ġrices":12599,"Ġramen":12600,"Ġricer":12601,"Ġcoke":12602,"ĠDes":12603,"ĠDraw":12604,"ĠDisp":12605,"ĠDeg":12606,"ĠDecker":12607,"aban":12608,"abella":12609,"abob":12610,"Ġspout":12611,"Ġspec":12612,"Ġspaces":12613,"ĠWas":12614,"ĠWinner":12615,"ĠWolf":12616,"ĠWaik":12617,"ĠWalla":12618,"stor":12619,"strap":12620,"ĠSpears":12621,"ĠSpike":12622,"ĠSpanak":12623,"Ġsew":12624,"quash":12625,"ident":12626,"ĠStollen":12627,"ĠIowa":12628,"Ġsmells":12629,"ĠFag":12630,"ĠFos":12631,"ĠFile":12632,"ĠFennel":12633,"ĠFootball":12634,"ĠFirecr":12635,"Ġyo":12636,"Ġyummy":12637,"iful":12638,"Ġlemony":12639,"pplement":12640,"ĠCooks":12641,"ĠLan":12642,"ĠLater":12643,"ĠLux":12644,"ĠLabel":12645,"ĠLord":12646,"ĠLisa":12647,"ersey":12648,"Ġblossom":12649,"Ġblisters":12650,"Ġ52":12651,"Ġ53":12652,"Ġheath":12653,"Ġbreading":12654,"Ġbreadcrumb":12655,"opita":12656,"ĠHa":12657,"ĠHil":12658,"ĠHood":12659,"ĠHank":12660,"ĠHorns":12661,"ĠHodge":12662,"Ġremoves":12663,"ĠGets":12664,"ĠGull":12665,"ĠGai":12666,"ĠGingersnap":12667,"Ġcart":12668,"rings":12669,"Ġ93":12670,"Ġ96":12671,"Ġ98":12672,"Ġ99":12673,"berta":12674,"Ġroasts":12675,"agas":12676,"again":12677,"Ġabut":12678,"shi":12679,"sherry":12680,"shiny":12681,"ĠWhit":12682,"uban":12683,"tioned":12684,"Ġradicchio":12685,"Ġ305":12686,"naise":12687,"Ġredfish":12688,"Ġkin":12689,"Ġkill":12690,"Ġkiw":12691,"Ġkumqu":12692,"Ġkamab":12693,"mergency":12694,"avo":12695,"osole":12696,"Ġexperiment":12697,"Ġslat":12698,"ulco":12699,"Ġappreci":12700,"Ġseasonal":12701,"live":12702,"liatelle":12703,"letide":12704,"reases":12705,"Ġgrade":12706,"ĠOk":12707,"ĠOz":12708,"ĠOma":12709,"entic":12710,"Ġplunge":12711,"esta":12712,"estone":12713,"Ġbob":12714,"Ġrefresh":12715,"ĠEst":12716,"ĠEla":12717,"ĠEvaporated":12718,"atsum":12719,"Ġheight":12720,"ĠCrusts":12721,"ĠCruda":12722,"alloween":12723,"ĠJay":12724,"ĠJars":12725,"ĠJoin":12726,"ĠJug":12727,"ĠJicama":12728,"ĠJalapenos":12729,"ĠJersey":12730,"ĠKring":12731,"ĠKale":12732,"ĠKaiser":12733,"Ġprecook":12734,"Ġpremelted":12735,"ĠBliss":12736,"ĠBlock":12737,"ĠSauced":12738,"Ġwarms":12739,"ĠVirgin":12740,"ĠViet":12741,"ĠVillage":12742,"Ġoreos":12743,"urpentine":12744,"onial":12745,"esse":12746,"ĠNell":12747,"ĠNip":12748,"Ġzig":12749,"Ġzipper":12750,"Ġpastel":12751,"ĠChilli":12752,"Ġcommon":12753,"Ġcommunity":12754,"example":12755,"expensive":12756,"ĠBetsy":12757,"Ġsoftball":12758,"Ġfirmness":12759,"Ġfattening":12760,"peanuts":12761,"160":12762,"ĠRefresh":12763,"ĠRefreeze":12764,"Ġthickener":12765,"Ġscrod":12766,"reezes":12767,"Ġevent":12768,"Ġthaws":12769,"Ġturnovers":12770,"Ġdeglaze":12771,"ĠSoups":12772,"Ġcurve":12773,"Ġcurling":12774,"uckwheat":12775,"ĠGrannie":12776,"ĠAround":12777,"ĠArborio":12778,"ĠArthur":12779,"ossal":12780,"ossie":12781,"ernet":12782,"tonions":12783,"Ġhandy":12784,"Ġhandles":12785,"ĠCarob":12786,"ĠCarrie":12787,"ĠCorny":12788,"ĠRoka":12789,"Ġcrisper":12790,"Ġcrocks":12791,"Ġsprays":12792,"saving":12793,"sausage":12794,"ullers":12795,"Ġmealy":12796,"udites":12797,"ĠTodd":12798,"ĠTogether":12799,"ĠToasts":12800,"Ġaromatic":12801,"ĠForget":12802,"ĠForty":12803,"Ġstewer":12804,"ĠSeash":12805,"ĠCoated":12806,"ĠFlako":12807,"ĠFlossie":12808,"Ġrecover":12809,"Ġdrier":12810,"Ġnonmetal":12811,"Ġ244":12812,"ĠTablespoons":12813,"ĠScand":12814,"ĠScout":12815,"ricolor":12816,"ĠZe":12817,"ĠPeppery":12818,"Ġknot":12819,"Ġknock":12820,"Ġknots":12821,"igrams":12822,"ĠFrosts":12823,"azola":12824,"ĠDeli":12825,"ĠUnfried":12826,"ĠBrey":12827,"ĠMont":12828,"Ġanyone":12829,"ĠJackie":12830,"blo":12831,"blers":12832,"Ġchive":12833,"Ġmarinates":12834,"Ġsealable":12835,"oko":12836,"Ġsomeone":12837,"cornstarch":12838,"Ġflattening":12839,"Ġremovable":12840,"oints":12841,"where":12842,"whipping":12843,"Ġpercent":12844,"Ġperked":12845,"potatoes":12846,"Ġcrockery":12847,"ĠDreamy":12848,"wiches":12849,"ĠRancho":12850,"Ġbarrel":12851,"ĠPatrick":12852,"Ġskimming":12853,"Ġfreely":12854,"Ġaction":12855,"Ġcord":12856,"mostly":12857,"ĠPastries":12858,"ĠTurk":12859,"irloom":12860,"Ġbulbs":12861,"ĠAngie":12862,"Ġwoodchuck":12863,"ĠMarsha":12864,"ĠClar":12865,"tcut":12866,"tcakes":12867,"Ġcapacity":12868,"ĠCrabs":12869,"Ġ**":12870,"Ġdonuts":12871,"Ġundercook":12872,"Ġlessen":12873,"ĠGreatest":12874,"ĠDumplins":12875,"ĠGluten":12876,"ĠFrit":12877,"ĠCroiss":12878,"ĠPancit":12879,"ĠPrince":12880,"Ġpreferable":12881,"ilyn":12882,"ĠEnten":12883,"ĠBurst":12884,"ĠMarg":12885,"ĠMarriage":12886,"ĠMarilyn":12887,"boat":12888,"Chi":12889,"ĠColossal":12890,"Ġflattens":12891,"Ġtrimmings":12892,"Ġbites":12893,"oeuvre":12894,"Ġsoaks":12895,"Ġmostly":12896,"ĠWalker":12897,"ummies":12898,"arerib":12899,"ĠWheatsworth":12900,"Ġconsomm":12901,"ĠAnother":12902,"Stew":12903,"Ġclothes":12904,"maraschino":12905,"basi":12906,"ĠPerch":12907,"ĠPerfection":12908,"ĠPercolator":12909,"Leave":12910,"ĠHeirloom":12911,"Ġtyp":12912,"riday":12913,"ĠCurrant":12914,"Ġbaseball":12915,"broil":12916,"ĠMochi":12917,"ĠIcicle":12918,"ĠScratch":12919,"ĠStickies":12920,"Ġcurdling":12921,"Ġchipotle":12922,"ĠPolenta":12923,"Ġlinen":12924,"Ġscratch":12925,"ĠJama":12926,"Ġrichly":12927,"Ġ235":12928,"ĠDevilish":12929,"Ġdecoratively":12930,"Ġclosing":12931,"Ġvariations":12932,"itious":12933,"ĠSnowy":12934,"ĠSnowdri":12935,"Ġcardboard":12936,"ĠRichards":12937,"Ġtasted":12938,"Ġdisks":12939,"ĠKnow":12940,"Ġresistant":12941,"Ġeasiest":12942,"ĠMission":12943,"Ġjacket":12944,"Ġcontinuous":12945,"ĠAmandine":12946,"Ġperforation":12947,"Ġ199":12948,"ĠRipple":12949,"ĠHarry":12950,"ĠHalus":12951,"ĠHalved":12952,"ĠBrad":12953,"atherine":12954,"metallic":12955,"Ġwilts":12956,"ĠMaine":12957,"ĠMaui":12958,"ĠMaifun":12959,"Ġinterest":12960,"Spice":12961,"Spicy":12962,"Ġbases":12963,"ĠSupplement":12964,"Ġmarbleize":12965,"ĠMoravian":12966,"adaif":12967,"Ġeights":12968,"Ġsorry":12969,"ĠGuilt":12970,"rinsed":12971,"Ġdrumstick":12972,"ĠGiorg":12973,"ĠOaties":12974,"Buttermilk":12975,"ĠParties":12976,"Frosting":12977,"Ġtrace":12978,"ĠParfaits":12979,"ĠRosamarina":12980,"ĠRosarita":12981,"Ġpeeking":12982,"ĠHillbilly":12983,"uthentic":12984,"Ġdehydr":12985,"ynam":12986,"Ġseaweed":12987,"Ġ295":12988,"Ġsupermark":12989,"Shrimp":12990,"Ġmilligrams":12991,"ĠButt":12992,"ĠButtons":12993,"ĠWaffle":12994,"firmly":12995,"Ġbushels":12996,"ĠEva":12997,"tSet":12998,"tSpoon":12999,"Ġcourage":13000,"ĠMadele":13001,"ĠEdna":13002,"ĠEdition":13003,"ĠEdible":13004,"Ġweighted":13005,"ĠHolding":13006,"Ġfritter":13007,"ĠEveryone":13008,"Prepare":13009,"concent":13010,"granate":13011,"Ġgentleness":13012,"Ġcrayons":13013,"ĠHelp":13014,"ĠHeloise":13015,"ĠDoritoes":13016,"Ġunmolding":13017,"Ġsquirrels":13018,"ĠStrombolis":13019,"Ġgrouper":13020,"Ġslabs":13021,"ĠPassion":13022,"ĠStarlight":13023,"Ġexpand":13024,"ĠJuan":13025,"ĠJuly":13026,"Flour":13027,"ievable":13028,"Ġplayers":13029,"ĠComplete":13030,"Ġpropor":13031,"ĠCabernet":13032,"ĠMamie":13033,"rific":13034,"Ġpolish":13035,"ĠThumbprints":13036,"ĠBrazilian":13037,"Ġincorporate":13038,"Uncle":13039,"tbowl":13040,"tube":13041,"tremaining":13042,"ĠGramma":13043,"Ġbuild":13044,"ĠPepe":13045,"Ġridge":13046,"miniature":13047,"ĠBakers":13048,"Ġsettling":13049,"blueberries":13050,"Proverbs":13051,"deli":13052,"works":13053,"Ġpencil":13054,"ĠSusie":13055,"ĠMethodist":13056,"ĠDecrease":13057,"ĠGallo":13058,"ovenproof":13059,"ĠSnappy":13060,"ĠTeacakes":13061,"ĠDavid":13062,"ĠJumble":13063,"Ġtriples":13064,"Ġidea":13065,"Ġdiscs":13066,"ĠSmuckers":13067,"Origin":13068,"Original":13069,"Ġcampfire":13070,"Ġportable":13071,"Ġhogs":13072,"ĠLucy":13073,"ĠHonor":13074,"ĠHonolul":13075,"Ġreduces":13076,"ĠKebab":13077,"Ġenhances":13078,"ĠSkewered":13079,"fourth":13080,"fourths":13081,"second":13082,"Ġcrowder":13083,"Ġbuffalo":13084,"ĠBabies":13085,"Ġvaries":13086,"ĠBernst":13087,"Ġflaming":13088,"ĠTimey":13089,"tstir":13090,"ĠDieter":13091,"ĠEllen":13092,"ĠMeltaways":13093,"ĠYuletide":13094,"Ġrutabagas":13095,"Philly":13096,"comes":13097,"waxed":13098,"Ġ____":13099,"Ġbagged":13100,"Ġsuggest":13101,"ĠSenate":13102,"ĠChalupa":13103,"Hungarian":13104,"Salad":13105,"ĠCombo":13106,"ĠRouladen":13107,"ĠFrankfurters":13108,"ĠPaprikas":13109,"ĠMuscat":13110,"Ġinjector":13111,"ĠBaggies":13112,"ĠTailgate":13113,"ĠWindows":13114,"Ġreplenish":13115,"ĠStrada":13116,"ĠHoly":13117,"ĠThomas":13118,"Ġcomfortable":13119,"ĠTabouli":13120,"Swanson":13121,"Ġpleaser":13122,"equivalent":13123,"grapefruit":13124,"ĠCrayfish":13125,"ĠCircle":13126,"Ġgauge":13127,"ĠPuddin":13128,"ĠAbsolutely":13129,"tsoda":13130,"ĠResift":13131,"Ġrubbing":13132,"ĠStreet":13133,"ĠLarry":13134,"ĠLatkes":13135,"ĠLimas":13136,"ĠHagel":13137,"Ġencouragement":13138,"ĠChocolat":13139,"Ġcompliments":13140,"ĠReviews":13141,"pricked":13142,"Ġteacup":13143,"Ġsatisfy":13144,"ĠPepparkakor":13145,"ĠBorscht":13146,"Ġtidbit":13147,"Ġlocal":13148,"ĠBishop":13149,"ĠAwesome":13150,"Ġcrumpled":13151,"ĠWyoming":13152,"ĠGiblet":13153,"Ġaccurately":13154,"ĠAsiago":13155,"ĠHuntington":13156,"ĠOutrageous":13157,"ĠSuccotash":13158,"ĠAnchovy":13159,"Ġentertaining":13160,"ĠFricassee":13161,"aetzle":13162,"caloric":13163,"pitted":13164,"tThen":13165,"Ġedible":13166,"Ġcultured":13167,"incinnati":13168,"Ġoxtails":13169,"Ġbacalao":13170,"Ġpollack":13171,"Ġpomegranate":13172,"Ġpigeon":13173,"Ġmornings":13174,"Ġmackerel":13175,"Ġfaucet":13176,"Ġfront":13177,"Ġwiped":13178,"Ġsundried":13179,"Ġsaltpeter":13180,"ĠBachelor":13181,"ĠPavlova":13182,"ĠPueblo":13183,"ĠPsalms":13184,"ĠTuscan":13185,"ĠAcapulco":13186,"Ġstronger":13187,"Ġnylon":13188,"ĠRearrange":13189,"ĠWaikiki":13190,"ĠFoster":13191,"ĠHanky":13192,"Ġkiwis":13193,"Ġkamaboko":13194,"Ġappreciation":13195,"ĠElaine":13196,"ĠVietnam":13197,"ĠSnowdrift":13198,"ĠGiorgio":13199,"Ġsupermarket":13200,"ĠHonolulu":13201,"%).":13202,"*,":13203,"./":13204,"07":13205,"43":13206,"475":13207,"53":13208,"500":13209,"?)":13210,"AK":13211,"Ap":13212,"At":13213,"Av":13214,"Aka":13215,"Acc":13216,"Adjust":13217,"BT":13218,"Beat":13219,"Boil":13220,"Bars":13221,"Brit":13222,"Cinnamon":13223,"Crab":13224,"Cajun":13225,"Cont":13226,"Dream":13227,"Dot":13228,"Diced":13229,"Dried":13230,"Dinner":13231,"ED":13232,"Em":13233,"Even":13234,"Easter":13235,"Eye":13236,"Four":13237,"Fine":13238,"Fuss":13239,"Faced":13240,"Freezes":13241,"Gen":13242,"Garb":13243,"Grated":13244,"Goya":13245,"HE":13246,"Ho":13247,"Hen":13248,"Hel":13249,"Hell":13250,"Have":13251,"Herb":13252,"Knox":13253,"Keebler":13254,"Land":13255,"Libby":13256,"MO":13257,"Mc":13258,"Made":13259,"Mint":13260,"Middle":13261,"Mazola":13262,"Ne":13263,"Never":13264,"OK":13265,"OW":13266,"Off":13267,"Port":13268,"Pyrex":13269,"Poppy":13270,"Ref":13271,"Rich":13272,"Ranch":13273,"Sun":13274,"Sub":13275,"Syrup":13276,"Sesame":13277,"Slow":13278,"Salt":13279,"Season":13280,"Squash":13281,"Tot":13282,"Tater":13283,"Tom":13284,"Takes":13285,"Turn":13286,"Two":13287,"Wild":13288,"YLE":13289,"Yeast":13290,"ait":13291,"aving":13292,"azz":13293,"bar":13294,"bet":13295,"bott":13296,"burn":13297,"beg":13298,"bby":13299,"brien":13300,"bacher":13301,"car":13302,"cing":13303,"cast":13304,"ction":13305,"crab":13306,"cium":13307,"cont":13308,"dh":13309,"du":13310,"dra":13311,"dies":13312,"evenly":13313,"face":13314,"fashion":13315,"foam":13316,"gill":13317,"gust":13318,"gant":13319,"gent":13320,"gently":13321,"glish":13322,"give":13323,"grate":13324,"gium":13325,"hon":13326,"hor":13327,"hang":13328,"iels":13329,"irad":13330,"iables":13331,"jonnaise":13332,"kig":13333,"kosher":13334,"lick":13335,"lard":13336,"lots":13337,"laze":13338,"lima":13339,"lene":13340,"men":13341,"mish":13342,"mano":13343,"macaroni":13344,"nac":13345,"nake":13346,"noodles":13347,"need":13348,"nite":13349,"natural":13350,"ov":13351,"okey":13352,"pet":13353,"pinch":13354,"pink":13355,"paste":13356,"pints":13357,"purch":13358,"pinto":13359,"ril":13360,"run":13361,"rough":13362,"ralian":13363,"rong":13364,"she":13365,"sala":13366,"single":13367,"tsp":13368,"tun":13369,"take":13370,"tab":13371,"taste":13372,"tree":13373,"tabout":13374,"tmeat":13375,"tdish":13376,"tdry":13377,"tIf":13378,"tmedium":13379,"tThis":13380,"tmixture":13381,"tbeat":13382,"tYield":13383,"tAr":13384,"tmelt":13385,"tBrown":13386,"tHeat":13387,"uj":13388,"uu":13389,"uan":13390,"upp":13391,"uet":13392,"uie":13393,"urop":13394,"von":13395,"via":13396,"vance":13397,"wan":13398,"yolks":13399,"Ġ/":13400,"Ġream":13401,"Ġul":13402,"Ġest":13403,"Ġusage":13404,"Ġarb":13405,"Ġca":13406,"Ġcou":13407,"Ġcow":13408,"Ġcra":13409,"Ġcab":13410,"Ġcraisins":13411,"Ġcapped":13412,"Ġcaus":13413,"Ġcelebration":13414,"STYLE":13415,"inton":13416,"intosh":13417,"inavian":13418,"Ġsatur":13419,"Ġsided":13420,"Ġsatsum":13421,"eron":13422,"erds":13423,"eroos":13424,"anie":13425,"anten":13426,"anzo":13427,"Ġti":13428,"Ġtatoes":13429,"Ġties":13430,"Ġtallow":13431,"Ġtends":13432,"Ġtropical":13433,"Ġtsub":13434,"Ġtatar":13435,"Ġturpentine":13436,"Ġtricolor":13437,"Ġoin":13438,"Ġocc":13439,"Ġocean":13440,"Ġbil":13441,"Ġbing":13442,"Ġble":13443,"Ġbel":13444,"Ġbless":13445,"Ġbals":13446,"Ġbugs":13447,"Ġbuckwheat":13448,"ared":13449,"aries":13450,"arily":13451,"edly":13452,"edral":13453,"eses":13454,"esca":13455,"Ġphe":13456,"Ġpith":13457,"Ġpad":13458,"Ġpay":13459,"Ġputs":13460,"Ġpizz":13461,"Ġpaints":13462,"Ġpaddle":13463,"Ġmand":13464,"Ġmoon":13465,"Ġmant":13466,"Ġmother":13467,"Ġmang":13468,"Ġmeanwhile":13469,"Ġmesh":13470,"Ġmahi":13471,"uteron":13472,"onn":13473,"onds":13474,"onny":13475,"enuts":13476,"engo":13477,"enbacher":13478,"alat":13479,"alem":13480,"alitos":13481,"oust":13482,"ouds":13483,"Ġfam":13484,"Ġferm":13485,"Ġfail":13486,"Ġfib":13487,"Ġfritos":13488,"Ġfoot":13489,"Ġfideo":13490,"Ġchance":13491,"Ġwaste":13492,"Ġwife":13493,"Ġwein":13494,"Ġween":13495,"Ġwrit":13496,"icola":13497,"sprink":13498,"ppine":13499,"Ġinward":13500,"Ġinexpensive":13501,"leg":13502,"leh":13503,"leo":13504,"leen":13505,"leted":13506,"left":13507,"roy":13508,"road":13509,"rome":13510,"roma":13511,"ĠCi":13512,"ĠCard":13513,"ĠCec":13514,"ĠCouscous":13515,"ĠCathy":13516,"ĠCooper":13517,"ĠCHI":13518,"ĠCarmel":13519,"ĠCafe":13520,"ĠCatherine":13521,"ĠCincinnati":13522,"ories":13523,"orton":13524,"orino":13525,"elini":13526,"asants":13527,"amis":13528,"ammon":13529,"amans":13530,"amblers":13531,"Ġsucc":13532,"Ġsuppos":13533,"ited":13534,"Ġaz":13535,"Ġaged":13536,"Ġdic":13537,"Ġdips":13538,"Ġdime":13539,"Ġdig":13540,"ĠSi":13541,"ĠSad":13542,"ĠSiz":13543,"ĠSince":13544,"ĠSomething":13545,"ĠSleep":13546,"Ġgun":13547,"Ġlie":13548,"Ġlab":13549,"Ġlip":13550,"Ġlace":13551,"Ġlock":13552,"tered":13553,"terhouse":13554,"heaped":13555,"ooley":13556,"ixies":13557,"ĠBi":13558,"ĠBand":13559,"ĠBack":13560,"ĠBomb":13561,"ĠBite":13562,"ĠBuck":13563,"ĠBog":13564,"ĠBrid":13565,"ĠBug":13566,"ĠBeck":13567,"ĠBelle":13568,"ĠBunny":13569,"ĠPi":13570,"ĠPra":13571,"ĠPuffy":13572,"ĠPuer":13573,"ĠPico":13574,"ĠPipp":13575,"ĠPitas":13576,"ĠPrior":13577,"ĠPocket":13578,"ĠPoulet":13579,"ĠPosole":13580,"ĠPoints":13581,"ĠPixies":13582,"union":13583,"Ġeggless":13584,"ism":13585,"isture":13586,"ĠTO":13587,"ĠTon":13588,"ĠTor":13589,"ĠTies":13590,"ĠTray":13591,"ĠTia":13592,"ĠTimes":13593,"ĠTaver":13594,"ĠTaylor":13595,"Ġbutters":13596,"Ġbuttering":13597,"ickin":13598,"Ġunfrozen":13599,"Ġunavailable":13600,"Ġuniodized":13601,"Ġunfrost":13602,"Ġunwaxed":13603,"Ġcheaper":13604,"Ġvers":13605,"Ġverde":13606,"Ġcheesecakes":13607,"illion":13608,"ĠAway":13609,"ĠAct":13610,"ĠAstor":13611,"Ġhoop":13612,"Ġholly":13613,"usalem":13614,"ĠMee":13615,"ĠMerry":13616,"ĠMount":13617,"ĠMaking":13618,"ĠMussels":13619,"ĠMoose":13620,"ĠMiso":13621,"ĠMBT":13622,"Ġbear":13623,"Ġcreams":13624,"Ġwithdra":13625,"Ġornaments":13626,"rapple":13627,"verse":13628,"allah":13629,"Ġstix":13630,"Ġstur":13631,"aterial":13632,"omy":13633,"ompany":13634,"elles":13635,"ellane":13636,"adami":13637,"adjust":13638,"ookie":13639,"Ġfordh":13640,"Ġwaters":13641,"ches":13642,"chow":13643,"chool":13644,"chmer":13645,"ĠAdded":13646,"irled":13647,"iceberg":13648,"Ġbroom":13649,"Ġcrudites":13650,"umettes":13651,"Ġcanisters":13652,"Ġcanapes":13653,"Ġnop":13654,"Ġniblets":13655,"Ġnative":13656,"Ġnappa":13657,"Ġsazon":13658,"Ġ44":13659,"Ġ49":13660,"etown":13661,"Ġshin":13662,"Ġshade":13663,"Ġshark":13664,"Ġsoba":13665,"Ġther":13666,"Ġthinning":13667,"Ġjob":13668,"Ġgrassy":13669,"Ġpowdery":13670,"Ġsaucepans":13671,"Ġmarrow":13672,"Ġmarsala":13673,"these":13674,"thalf":13675,"Ġovercooked":13676,"Ġoverhang":13677,"ĠRick":13678,"ĠRail":13679,"ĠRoca":13680,"ĠRio":13681,"ĠRita":13682,"ĠRoux":13683,"ĠReroll":13684,"ĠRenee":13685,"ĠCha":13686,"ĠChant":13687,"ĠChina":13688,"Ġritz":13689,"Ġrandomly":13690,"lest":13691,"ushian":13692,"ĠMixmaster":13693,"Ġcoils":13694,"ĠDu":13695,"ĠDick":13696,"ĠDoves":13697,"ĠDee":13698,"ĠDandy":13699,"ĠDecor":13700,"ĠDawn":13701,"ĠDaiquiri":13702,"ĠDRA":13703,"ĠDynam":13704,"abur":13705,"abeche":13706,"urs":13707,"ĠWeep":13708,"ĠWisp":13709,"ĠWok":13710,"ĠWiener":13711,"Ġgreenish":13712,"Ġrel":13713,"steak":13714,"stale":13715,"studded":13716,"imo":13717,"imin":13718,"imitation":13719,"ĠSpear":13720,"ĠSpuds":13721,"Ġsever":13722,"quette":13723,"idi":13724,"ĠSte":13725,"ĠStarch":13726,"ĠStones":13727,"ĠStagg":13728,"ĠIMO":13729,"Ġsmiles":13730,"Ġgroundhog":13731,"Ġslicer":13732,"ĠFre":13733,"ĠFoo":13734,"ĠFinn":13735,"ĠFare":13736,"ĠFew":13737,"ĠFeed":13738,"ĠFeast":13739,"ĠFully":13740,"ĠFuss":13741,"ĠFunny":13742,"ĠForever":13743,"ĠFocaccia":13744,"rescent":13745,"tenin":13746,"Ġallspices":13747,"Ġpiecrust":13748,"Ġ600":13749,"ĠLu":13750,"ĠLel":13751,"ĠLake":13752,"ĠLiz":13753,"ĠLatin":13754,"ĠLattice":13755,"ĠLadies":13756,"ĠLillian":13757,"ageable":13758,"Ġovensafe":13759,"Ġblow":13760,"Ġblood":13761,"Ġbladed":13762,"open":13763,"ophan":13764,"ĠHut":13765,"ĠHull":13766,"ĠHoles":13767,"ĠHead":13768,"ĠHOT":13769,"ĠHuckle":13770,"ĠHope":13771,"ĠHyd":13772,"ĠHalloween":13773,"Ġ106":13774,"oong":13775,"ĠInc":13776,"ĠInspir":13777,"ĠGin":13778,"ĠGil":13779,"ĠGal":13780,"ĠGate":13781,"ĠGeri":13782,"ĠGene":13783,"ĠGinny":13784,"eddy":13785,"overripe":13786,"emore":13787,"Ġshortcakes":13788,"Ġshortenin":13789,"Ġromano":13790,"Ġmeatloaf":13791,"Ġabund":13792,"shaw":13793,"Ġcloud":13794,"Ġclabber":13795,"ĠWhatever":13796,"anti":13797,"Ġcracking":13798,"Ġcracklins":13799,"Ġradi":13800,"Ġala":13801,"Ġalarm":13802,"Ġkr":13803,"Ġkick":13804,"Ġkits":13805,"Ġkaro":13806,"Ġkaiser":13807,"avas":13808,"osed":13809,"Ġstickiness":13810,"Ġexcluding":13811,"Ġslanted":13812,"ĠBeaten":13813,"Ġapproximate":13814,"Ġfreshness":13815,"Ġskip":13816,"Ġskirt":13817,"Ġskinny":13818,"eproof":13819,"epeno":13820,"Ġhambone":13821,"lete":13822,"Ġ135":13823,"Ġ136":13824,"ttes":13825,"ttelli":13826,"Ġcooler":13827,"izing":13828,"ĠOl":13829,"ĠOla":13830,"Ġnutmegs":13831,"ential":13832,"iscellane":13833,"ĠCutting":13834,"ĠEc":13835,"ĠEs":13836,"ĠEss":13837,"ĠEase":13838,"ĠEck":13839,"ĠEasily":13840,"ĠElean":13841,"ĠEurop":13842,"Ġhear":13843,"Ġsquish":13844,"ĠCrullers":13845,"ĠBrownberry":13846,"ĠPrefer":13847,"Ġlive":13848,"Ġliving":13849,"avettelli":13850,"ĠJun":13851,"ĠJones":13852,"ĠJord":13853,"pancake":13854,"panionship":13855,"ĠKen":13856,"ĠKake":13857,"ĠKind":13858,"ĠKath":13859,"ĠKrets":13860,"ĠTops":13861,"ĠBlt":13862,"ĠBlu":13863,"ĠBlintz":13864,"umplings":13865,"burst":13866,"ĠVent":13867,"ĠVern":13868,"ĠVig":13869,"ĠVege":13870,"rimi":13871,"ĠTheresa":13872,"ĠSalads":13873,"ĠPeak":13874,"othing":13875,"ocoa":13876,"ifty":13877,"ĠMelting":13878,"Ġfiner":13879,"Ġfines":13880,"ĠNa":13881,"ĠNat":13882,"ĠNick":13883,"ĠNettie":13884,"Ġenglish":13885,"Ġliquify":13886,"ĠYolk":13887,"Ġdesires":13888,"Ġuncoated":13889,"Ġfruited":13890,"Ġcommeric":13891,"Ġcompanionship":13892,"ĠShel":13893,"ĠShower":13894,"ĠItaliana":13895,"ĠBeach":13896,"Ġ76":13897,"ĠUm":13898,"ĠUmm":13899,"ĠBreadsticks":13900,"Ġoffer":13901,"Ġbagoong":13902,"Ġturtles":13903,"Ġblends":13904,"blets":13905,"Ġbayleaf":13906,"Ġstripped":13907,"ĠSwamp":13908,"ĠSwordfish":13909,"Ġconfectionary":13910,"Ġglove":13911,"Ġglazy":13912,"Ġglitter":13913,"Ġcleans":13914,"Ġmochi":13915,"terness":13916,"ternational":13917,"oung":13918,"Ġafternoon":13919,"Ġtartlet":13920,"ĠVelvety":13921,"Ġlaying":13922,"Ġcranapple":13923,"perature":13924,"Ġgranite":13925,"ĠReduced":13926,"ĠRedenbacher":13927,"Ġcurried":13928,"Ġcurved":13929,"Ġstiffer":13930,"Ġpoppers":13931,"Ġbrussels":13932,"Ġbrought":13933,"Ġbrussel":13934,"ĠArnold":13935,"Ġcleanly":13936,"Ġtubettini":13937,"ernu":13938,"ĠCarter":13939,"ĠCarole":13940,"Ġcrispness":13941,"Ġspraying":13942,"ogany":13943,"Ġsecuring":13944,"ulled":13945,"udy":13946,"ĠToppers":13947,"ĠTokay":13948,"flingers":13949,"florets":13950,"Ġcompact":13951,"Ġcompartment":13952,"Ġaren":13953,"Ġaroma":13954,"cod":13955,"coarsely":13956,"Ġstews":13957,"ĠCoq":13958,"ĠCoast":13959,"ĠCokes":13960,"ĠGaram":13961,"ĠFlo":13962,"ĠFlam":13963,"ĠFlavorite":13964,"ĠQuarts":13965,"ĠQuiches":13966,"Ġnonmetallic":13967,"Ġcumino":13968,"ĠLeona":13969,"ĠLebanese":13970,"Ġneedles":13971,"ĠScot":13972,"ĠScrapple":13973,"scallions":13974,"ĠZesta":13975,"ĠFruits":13976,"ĠMeats":13977,"ĠMeatloaf":13978,"ĠCones":13979,"ĠUnsweetened":13980,"ĠUnused":13981,"ĠMonterrey":13982,"ĠSaltine":13983,"Ġdeeper":13984,"ĠPeeled":13985,"onghe":13986,"ĠThem":13987,"ĠAlaga":13988,"ĠAlberta":13989,"ĠRitzy":13990,".\\)":13991,"oki":13992,"okkig":13993,"ĠPounds":13994,"ĠHotel":13995,"cornbread":13996,"erta":13997,"Ġsubstitutions":13998,"Ġ111":13999,"Ġ117":14000,"Ġbackbone":14001,"ĠKartoff":14002,"whichever":14003,"Ġperhaps":14004,"Ġelimin":14005,"ĠContest":14006,"sticky":14007,"potato":14008,"Ġlengthways":14009,"ĠCrumbled":14010,"flavoring":14011,"ĠPizzaiola":14012,"ĠGermany":14013,"unsliced":14014,"ĠAlla":14015,"litons":14016,"ĠDoris":14017,"canola":14018,"cannon":14019,"Ġparley":14020,"gelatin":14021,"ĠDipped":14022,"ĠDijonnaise":14023,"ĠOrville":14024,"ĠOrnaments":14025,"Ġfilter":14026,"Ġfilleted":14027,"Ġsnaps":14028,"ĠPastits":14029,"ĠNoel":14030,"ĠPickin":14031,"ĠPetite":14032,"Ġplatters":14033,"Ġwoody":14034,"ĠMarsh":14035,"Ġpopovers":14036,"ĠClip":14037,"ĠClinton":14038,"ĠClouds":14039,"tcool":14040,"Ġpract":14041,"ĠSkyl":14042,"130":14043,"Ġcapfuls":14044,"ambuie":14045,"ĠCaramelitas":14046,"ĠAccording":14047,"ĠReunion":14048,"ĠGoody":14049,"crush":14050,"cooks":14051,"Ġsingly":14052,"allops":14053,"odle":14054,"ĠGlen":14055,"ĠGlow":14056,"ĠGlori":14057,"Ġspringform":14058,"Ġspringerle":14059,"Ġscales":14060,"anned":14061,"ĠSmart":14062,"hewy":14063,"ĠImitation":14064,"Ġtripe":14065,"Ġsunshine":14066,"Ġgrillers":14067,"ĠDeuteron":14068,"ĠCross":14069,"ĠTwelve":14070,"ĠTwirls":14071,"ĠAlternating":14072,"ĠWillie":14073,"ĠPrin":14074,"adding":14075,"Ġdepartment":14076,"Ġdepressions":14077,"Ġdelight":14078,"Ġactually":14079,"mixing":14080,"ĠMarengo":14081,"ĠCrackles":14082,"ĠCracklin":14083,"Chili":14084,"ĠColored":14085,"ĠColonial":14086,"ĠColcannon":14087,"Ġtrimming":14088,"Ġbitterness":14089,"ĠCalyps":14090,"ĠCalavo":14091,"ĠMilkless":14092,"mayo":14093,"ĠCrockpot":14094,"Ġsolidly":14095,"ĠNorma":14096,"ĠMoments":14097,"ĠPuffed":14098,"ĠAnna":14099,"Ġstringy":14100,"Ġfrank":14101,"Ġstacked":14102,"ĠBarn":14103,"Three":14104,"marine":14105,"markets":14106,"Ġgoblets":14107,"ĠApril":14108,"Ġswirled":14109,"ĠPeru":14110,"Lebanese":14111,"Ġaniseed":14112,"ĠMedallions":14113,"Ġtighten":14114,"Ġmanageable":14115,"ĠAuntie":14116,"ĠWatercress":14117,"Ġseafoods":14118,"Ġsixths":14119,"ĠBayou":14120,"Ġlowered":14121,"303":14122,"ĠJob":14123,"ĠScramblers":14124,"ĠSection":14125,"ĠPolka":14126,"ĠPopover":14127,"preheat":14128,"ĠBowls":14129,"Ġribbons":14130,"Ġribeye":14131,"ĠSummertime":14132,"Ġgrapefruits":14133,"Does":14134,"Ġbriquettes":14135,"ĠShortly":14136,"Ġsooner":14137,"Ġhardening":14138,"ĠDays":14139,"Ġartificially":14140,"ĠBobbie":14141,"ĠIndoor":14142,"ĠSmithfield":14143,"Ġbeds":14144,"ĠJerusalem":14145,"ĠFrances":14146,"ĠFrance":14147,"ĠCubed":14148,"ĠRichard":14149,"ĠKnock":14150,"Ġresult":14151,"ĠTruss":14152,"ĠBones":14153,"Ġtoughening":14154,"Ġadult":14155,"Ġmicrowaving":14156,"ĠAmazing":14157,"ĠTammy":14158,"ippo":14159,"ĠPods":14160,"Ġcavatelli":14161,"Ġ190":14162,"Ġ198":14163,"Ġrigati":14164,"ĠKelloggs":14165,"Ġtwisting":14166,"ĠBraunschweiger":14167,"ĠEaten":14168,"Ġswirls":14169,"Special":14170,"Ġpierces":14171,"Ġsavoy":14172,"ĠHoff":14173,"ĠLiving":14174,"Ġdietary":14175,"ĠSuz":14176,"199":14177,"Broiled":14178,"Ġdistributing":14179,"ĠEclairs":14180,"augs":14181,"Ġsorrel":14182,"ĠPortion":14183,"ĠPortobello":14184,"ĠSmoothie":14185,"Ġuncovering":14186,"ĠTostadas":14187,"Ġpricking":14188,"ĠPerson":14189,"Ġsteams":14190,"ĠReheats":14191,"ĠBacardi":14192,"ĠCasino":14193,"Ġhelping":14194,"ĠPartly":14195,"ĠLeft":14196,"Ġtrough":14197,"Ġtruss":14198,"ĠGrandmom":14199,"Ġadjusting":14200,"ĠScotcheroos":14201,"orizo":14202,"ĠRosy":14203,
[...]
