#version: 0.2
Ġ <
N E
X T
NE XT
I N
E N
R E
Ġ c
S T
IN G
D I
T S
EN TS
RE DI
ING REDI
INGREDI ENTS
i n
NE R
T I
Ġ s
e r
Ġ 1
O N
R U
TI ON
IN ST
C TION
RU CTION
INST RUCTION
INSTRUCTION S
a n
Ġ t
Ġ o
Ġ b
a r
e d
e s
A R
EN D
ST AR
STAR T
Ġ p
Ġ m
a t
i l
r e
u t
o n
e n
an d
a l
o u
Ġ and
Ġ f
Ġc h
Ġ w
in g
i c
g ar
Ġt o
s p
p p
Ġ in
l e
L E
P E
TI T
C I
RE CI
TIT LE
RECI PE
r o
Ġ C
o r
a k
e l
Ġ 2
ou r
a s
a m
i t
Ġo n
Ġs u
Ġ a
Ġ 3
Ġ e
Ġ d
Ġsu gar
Ġ S
Ġs al
Ġ g
Ġt sp
Ġ l
t er
Ġsal t
Ġp e
h e
o o
i x
i on
Ġ B
a c
Ġ P
Ġf l
g g
d d
in e
u n
g e
Ġe gg
i s
o w
Ġ T
ut ter
Ġ (
es e
Ġon ion
Ġb utter
ak e
re am
Ġfl our
ic k
Ġch e
Ġ un
Ġche ese
Ġ v
il l
Ġ A
Ġo f
o l
Ġm in
pp er
Ġ h
it h
u s
Ġ M
Ġch o
o t
Ġpe pper
Ġb e
Ġm ix
Ġc ream
Ġw ith
Ġo r
r a
v er
Ġmin ut
il k
t il
Ġun til
Ġminut es
al l
u c
Ġs t
at er
a d
el l
o m
Ġw ater
Ġf or
oo k
c h
Ġegg s
ĠA dd
Ġm ilk
pp ed
ic e
at o
i r
d er
b sp
ĠT bsp
Ġb ro
Ġc r
t o
u m
t s
ick en
Ġc an
Ġt he
Ġs a
0 0
r i
Ġ n
Ġ 4
Ġcho pped
uc e
r ed
l ic
v e
Ġb ak
ill a
Ġo z
Ġbak ing
an illa
e t
Ġv anilla
Ġs h
g h
w n
Ġ j
Ġs o
Ġt h
Ġch icken
Ġin to
Ġg re
Ġ at
Ġg r
u p
ow der
Ġsa uce
Ġ le
Ġp owder
Ġm ar
. )
t h
r y
Ġo ver
u re
ĠB ake
Ġ R
Ġw h
l y
re ad
ou p
as t
Ġbro wn
n d
Ġc ook
e at
Ġo il
i e
a y
ĠC h
ato es
l es
Ġs oup
Ġ r
at e
Ġp an
t ure
ut s
Ġto m
us h
gar ine
ac k
Ġmar garine
ĠM ix
Ġmix ture
Ġc o
ou nd
Ġ D
5 0
c ol
a b
m on
u r
Ġs p
Ġ W
an s
or n
Ġ re
i en
Ġgre en
Ġl b
d a
i p
in ch
Ġl ar
i gh
e f
s t
Ġso da
red ien
ing redien
Ġb o
Ġ ingredien
Ġingredien ts
i m
Ġlar ge
Ġw ell
Ġ gar
ĠS p
Ġj u
Ġ3 50
Ġs e
Ġa dd
he at
Ġju ice
q u
Ġgar lic
er y
ra in
Ġf ro
ĠS t
Ġc orn
i d
v es
is h
Ġ I
Ġs m
Ġgr ound
k g
Ġp kg
igh t
um b
Ġ F
Ġs lic
r es
ro om
in n
v en
ĠP our
t en
el ery
Ġc elery
o le
th er
Ġp ot
Ġp ie
us t
at ed
om b
Ġ all
Ġ y
t ed
oo l
Ġonion s
am on
ush room
inn amon
Ġle mon
Ġc up
i f
Ġ 6
omb ine
Ġbe ef
Ġn uts
Ġc innamon
Ġh our
Ġm ushroom
pp le
as s
Ġbo il
ac e
ĠC ook
col ate
a in
c es
a p
ĠSt ir
Ġto p
Ġ 8
ed i
Ġcr umb
l ace
Ġ L
a ge
er s
ar s
ol d
Ġo ven
Ġst ir
Ġwh it
Ġb l
Ġbe at
Ġs our
g er
Ġsm all
ge ther
Ġ heat
Ġto gether
Ġ 5
Ġb read
edi um
ow l
Ġb owl
ac h
in k
m e
Ġm edium
o ve
Ġpot atoes
Ġco c
Ġ x
o p
Ġcho colate
Ġ H
Ġtom ato
r ink
Ġtom atoes
ou gh
Ġm el
Ġre m
Ġd rain
Ġ1 0
ĠC ombine
ar m
as h
Ġc on
o on
o ut
ĠI n
rink le
a pple
ine apple
ass er
asser ole
oo d
Ġ G
Ġc ar
Ġcrumb s
Ġc ake
f f
Ġ 9
b er
Ġd ish
r ing
as ed
Ġr ice
Ġslic ed
Ġpe c
ar d
Ġd ry
ed d
Ġp ineapple
edd ar
ine gar
ak es
Ġv inegar
Ġs er
e m
o ver
Ġbe ans
z en
ge t
Ġgr ated
el y
Ġ ro
Ġh ot
e get
ĠP lace
eget ab
i es
is e
Ġsh or
d ed
i re
ten ing
ĠCh eddar
a g
Ġshor tening
ast e
Ġm eat
in s
Ġpec ans
u b
Ġc l
Ġa b
Ġ is
l l
s h
Ġmel ted
ĠW h
ĠS er
w e
Ġwhit e
Ġc ut
ip s
Ġrem ain
o a
Ġv egetab
Ġm ay
Ġab out
ĠC ool
v ing
ar t
ri es
Ġch ips
t ion
Ġcr ack
an t
Ġ3 0
Ġremain ing
Ġ ra
we et
Ġfro m
ot t
n a
Ġl ight
Ġ al
Ġfro zen
Ġ k
le y
o re
Ġ red
u ff
Ġcook ed
m er
res h
Ġgre ased
as on
a v
Ġ as
Ġh al
ĠSp rinkle
e y
ars ley
ust ard
Ġa pp
Ġp arsley
Ġst ick
Ġcar ro
o s
ĠC over
Ġs l
Ġth en
an ge
Ġch il
ĠB eat
u l
Ġe x
id e
Ġf resh
c col
ccol i
on na
onna ise
ac on
e p
res s
Ġm ustard
Ġmay onnaise
Ġser ving
Ġ1 5
Ġhour s
Ġs k
en d
Ġmushroom s
Ġsh red
en der
Ġb acon
ri ger
Ġbeat en
Ġdrain ed
Ġshred ded
u it
Ġboil ing
Ġh am
on ut
Ġt aste
ar e
Ġse ason
l i
Ġro ll
ĠP ut
le t
Ġp ap
k s
em ove
ĠR emove
Ġo li
Ġcarro ts
Ġe ach
Ġ1 2
Ġ1 3
Ġbro th
Ġcoc onut
u dd
t t
Ġg ra
udd ing
ic ed
Ġc ool
ĠB ro
Ġn ut
Ġapp les
ay er
Ġso f
Ġ2 0
Ġcr ush
Ġra is
i z
n uts
im mer
Ġbro ccoli
Ġf ir
Ġcrush ed
re as
Ġpie ces
Ġrais ins
Ġd iced
ĠC ream
Ġc asserole
ĠC ake
Ġ O
Ġb ake
ood les
arm es
armes an
me g
Ġt ender
Ġco ver
Ġnut meg
Ġhal f
Ġslic es
ĠSp read
ĠW or
an an
st ant
ĠP armesan
is c
Ġn oodles
sh ire
ter shire
ces tershire
is s
e c
pp ing
en t
ĠSer ve
) .
ra w
ĠWor cestershire
ĠM akes
Ġp l
Ġcan s
Ġpe an
Ġp udding
Ġb ott
Ġstir ring
Ġo le
Ġole o
av or
Ġsh ell
ĠWh ip
m ilk
ĠC ut
Ġ an
im e
Ġbl ack
es t
raw ber
Ġor ange
Ġpepper s
ur n
Ġchil i
us age
or k
Ġseason ing
Ġs he
Ġre f
d s
ĠS al
ut e
Ġpowder ed
y r
Ġbutter milk
yr up
Ġch er
ch in
il let
o il
Ġp our
o ves
p s
Ġs yrup
all y
on e
Ġcl oves
Ġvegetab le
Ġ E
at s
Ġcoc oa
ĠCh icken
ĠC asserole
Ġ he
u e
ĠC r
Ġs qu
ol l
t r
Ġb anan
Ġs et
Ġwh i
ĠH eat
ĠBro wn
all ow
Ġcr ust
Ġsk illet
Ġw al
Ġc ub
Ġref riger
Ġc old
Ġd ough
ĠP re
Ġ J
a ve
an o
Ġs weet
Ġsa usage
p an
ĠD rain
Ġl i
Ġl ow
Ġ up
Ġ it
Ġcrack ers
ar ch
Ġo ut
Ġ K
ĠL et
Ġp ack
Ġcup s
ress ing
Ġst rawber
ĠT op
Ġp re
Ġ4 5
Ġcook ie
Ġse ed
Ġbo x
st arch
Ġshe et
Ġcorn starch
Ġsal ad
Ġbott om
Ġwal nuts
b ur
ĠB l
z z
ĠS a
Ġwh ole
Ġcook ing
um p
2 5
7 5
g ano
r uit
Ġ V
Ġ are
Ġsauce pan
Ġl ayer
Ġp ork
ight ly
Ġw arm
e w
Ġ us
at ter
ri m
ri ed
Ġal mon
tion al
Ġvegetab les
re gano
Ġle a
Ġj ell
ing er
e a
uc chin
k a
ucchin i
Ġo regano
ac t
Ġpean ut
Ġbanan as
oo th
Ġf ill
Ġb ell
f ore
Ġbe fore
bur ger
Ġmin c
Ġs immer
Ġlight ly
es s
Ġn ot
Ġd ressing
Ġsm ooth
Ġex tr
at ely
on i
reas ts
ri ka
ĠT h
Ġfl avor
Ġcrack er
ur p
Ġpap rika
ten ed
ĠR oll
Ġwhit es
Ġ3 75
Ġextr act
Ġas ide
ĠSal ad
Ġminc ed
Ġt ab
op tional
os e
Ġth in
ĠC he
Ġb reasts
i an
c c
Ġon e
Ġth ick
p oon
ab b
ĠP e
les poon
Ġpe el
e ast
Ġtab lespoon
e ed
ot h
abb age
Ġf in
Ġy ol
o c
h am
ĠM el
p ar
Ġd one
Ġserving s
Ġg inger
qu art
if t
Ġy east
m allow
ĠP ie
ĠM o
ĠMel t
ell a
urp ose
ar ella
zz arella
rim p
Ġ if
Ġ N
Ġgra ham
Ġ z
Ġb all
Ġham burger
Ġfir st
he tt
Ġp lace
ag hett
Ġ en
aghett i
Ġin stant
Ġfill ing
Ġc ombine
p urpose
Ġ2 5
re e
oa f
Ġt ime
Ġoli ve
k in
ĠI t
Ġ Y
Ġto r
ĠSer ves
ell ow
e al
ak ed
Ġfin ely
ĠMo zzarella
me al
ĠBl end
Ġd es
Ġli qu
g re
Ġwhi pped
Ġso y
Ġb atter
as il
ump kin
ĠPre heat
ir ed
Ġun c
Ġsof tened
iss ol
Ġt ea
Ġy ellow
Ġsp rinkle
Ġmar sh
Ġmarsh mallow
Ġz ucchini
a w
Ġc abbage
Ġdes ired
1 0
n e
v ed
Ġpe as
ĠA nd
Ġw ine
Ġj ar
Ġf ruit
Ġtor t
Ġoli ves
Ġcl ove
Ġc om
Ġw a
Ġp ast
ac ar
ĠCh ill
old en
Ġm ore
Ġle t
ĠS ift
Ġliqu id
en s
al ian
el at
iz e
Ġ4 0
Ġ3 25
Ġjell o
acar oni
Ġsl ightly
Ġg elat
e x
Ġyol ks
ĠIt alian
ĠB e
Ġb asil
s weet
ĠS h
sp oon
Ġd ash
Ġtea spoon
g es
Ġsp aghetti
Ġp im
ĠB ring
ac o
Ġcher ries
Ġg olden
Ġo ther
Ġsh rimp
ro w
Ġto pping
Ġd o
ough ly
Ġstrawber ries
Ġ4 00
Ġp ut
or oughly
e ep
Ġfl akes
Ġl oaf
Ġst and
Ġcon t
Ġsp read
Ġmarshmallow s
ber ry
d ens
dens ed
c e
Ġsof t
ire c
n ight
Ġd irec
Ġroll s
Ġcon densed
Ġ 7
Ġle tt
isc uit
Ġo ats
ĠCook ies
Ġflour ed
Ġth oroughly
Ġpap er
Ġlett uce
Ġb y
Ġf at
el s
at or
Ġfir m
Ġover night
Ġm acaroni
it e
if ted
Ġl on
Ġ U
ĠB read
Ġst uff
isc o
Ġof f
Ġalmon ds
Ġgelat in
Ġ qu
ĠF old
ic row
ĠP ot
ep t
p e
' s
Ġser ve
Ġmix ed
Ġb ag
ro p
1 6
ĠChe ese
Ġmix ing
f ter
Ġs ize
e e
k ey
il e
u ally
icrow ave
Ġp umpkin
ĠCr isco
Ġrefriger ator
c ept
Ġpan s
in ach
gre ased
Ġt ur
Ġcub es
ĠSa ute
e ak
ĠSp oon
ow er
ĠR ef
Ġch ill
Ġbl end
ĠCh o
b le
Ġp aste
un ch
Ġt aco
ĠRef riger
i el
Ġ3 5
t le
Ġ Ġ
Ġm ake
Ġy ou
en ded
Ġbrown ed
Ġm ash
Ġstuff ing
d ually
Ġs ifted
Ġd ried
Ġpeel ed
ber ries
Ġbl ended
Ġb iscuit
Ġus e
Ġex cept
en to
ĠCho colate
Ġ ice
Ġf ood
Ġa pple
ĠWh en
Ġball s
ra y
Ġpim ento
Ġth icken
ĠR ice
tion s
Ġcover ed
Ġs c
ĠRefriger ate
r ange
at meal
ĠB oil
Ġtablespoon s
ar b
Ġth is
k e
Ġcon stant
Ġconstant ly
ĠS immer
l ed
Ġon to
ĠB utter
reas e
Ġc ol
Ġ q
ĠB r
ĠS l
Ġq t
at ure
Ġbutter ed
ad e
Ġcher ry
Ġlea ves
ces s
Ġb ou
i v
ill on
on ey
Ġf oil
av y
f ec
en ed
Ġbou illon
Ġin ch
Ġstick s
ree z
Ġst ri
Ġpot ato
Ġw ill
ĠY iel
ĠS w
Ġm o
Ġsp oon
Ġf ry
ĠJ ell
Ġ ri
Ġc le
Ġr ound
Ġcont ain
y me
fec tion
ĠG rease
ook ed
id es
ass es
Ġg l
Ġb ay
ĠD rop
uc umb
Ġb on
ott age
Ġpack age
c ent
Ġth yme
Ġflavor ing
Ġcon fection
ic an
ar es
ic h
Ġpe ach
Ġsp inach
ill as
en ter
Ġconfection ers
Ġs ides
Ġhe avy
Ġc and
at es
Ġstri ps
Ġe ven
Ġc enter
ou n
Ġhe ad
n ey
if f
Ġc ottage
ĠL ayer
Ġst eak
Ġtort illas
ats up
ter n
ra b
Ġc atsup
ĠT urn
ol asses
in d
ar p
Ġcol or
Ġen ough
y le
it tle
over ed
n ch
ap or
v apor
Ġa fter
d ing
Ġc ucumb
Ġe vapor
Ġsh arp
Ġk id
s e
Ġt urn
Ġth aw
Ġtur key
et a
Ġk et
m i
Ġh oney
Ġj ust
Ġr est
Ġevapor ated
Ġkid ney
Ġcho ps
Ġpre par
Ġmash ed
Ġv ery
es er
Ġunc overed
Ġse mi
Ġsqu ash
Ġf ine
el ve
Ġd issol
ap e
ent ly
ĠSw iss
ing s
Ġch un
1 2
Ġm olasses
Ġcook ies
Ġt art
n ish
it s
Ġeven ly
Ġl ay
Ġst al
Ġun greased
Ġd e
Ġcub ed
Ġd ates
Ġs ide
ĠV elve
Ġprepar ed
ic es
ow n
er ry
Ġro ast
Ġchil ies
Ġwa x
e ts
ĠS et
Ġrem ove
Ġcontain er
p er
ĠTh en
Ġa p
Ġm uff
ĠD ip
Ġthaw ed
Ġpack ed
Ġsl ice
Ġdirec tions
ĠG ra
Ġa cc
ĠS oup
Ġl ittle
Ġminut e
Ġcr an
Ġsl ow
Ġmix er
uff y
Ġpast ry
Ġb ut
Ġstrawber ry
sp ice
or ding
l d
Ġc ur
Ġse par
iz z
ĠVelve eta
Ġb re
ĠR ed
it ion
Ġlea f
Ġall spice
as ion
cc asion
Ġp ick
Ġp t
l ower
Ġlay ers
Ġacc ording
Ġo ccasion
Ġo atmeal
Ġch est
ou s
Ġoccasion ally
Ġrefriger ate
oun t
Ġchest nuts
Ġpl ain
re nch
Ġsp eed
ub b
Ġp o
Ġb r
uc k
Ġsqu ares
Ġfor k
Ġfl uffy
Ġcle an
Ġd ou
s er
Ġ 50
em per
s s
Ġ1 6
Ġst iff
ro x
ĠG r
Ġal tern
oc k
Ġt emper
um in
ĠD o
Ġgr an
Ġpeach es
Ġtemper ature
ch up
Ġfor m
am e
Ġalmon d
Ġadd ition
ĠF rench
rox im
ĠA r
Ġc rab
Ġt ub
Ġd ill
Ġwhi pping
f ul
Ġwh en
Ġket chup
ĠP ress
Ġhal ves
ar in
Ġc ro
Ġbiscuit s
roxim ately
Ġt w
Ġpean uts
Ġh and
t on
Ġb ubb
Ġd own
ed ges
ĠC orn
izz a
ĠC ar
Ġtart ar
Ġth r
ĠM ake
Ġl ime
os s
un d
Ġthr ough
Ġb ring
ĠR o
er m
ĠW ith
Ġbeat ing
ra p
er n
Ġlon ger
i sp
er b
Ġr eser
oth er
o g
Ġy our
Ġsp ray
Ġse c
Ġcr isp
a uce
Ġmel t
Ġstal ks
issol ve
ex t
as e
Ġle an
ĠPot ato
ĠD issolve
Ġcom es
ĠA pple
ab out
Ġr ind
Ġpast a
en ne
Ġshell s
an ges
Ġcr es
s a
a ul
Ġbak ed
Ġp inch
Ġf reez
arb ec
Ġco ars
Ġthin ly
u d
Ġcom p
ĠAr range
u ll
Ġwh ile
Ġsa ute
Ġunc ooked
Ġcres cent
1 5
Ġle ast
Ġdo zen
c o
Ġor anges
Ġsp ices
ĠSl ice
Ġcan n
ul ated
Ġcream ed
if lower
aul iflower
ĠGra dually
ĠT o
ay enne
Ġ am
ĠYiel ds
f l
Ġcrumb led
ar ts
Ġpl ate
Ġbl ue
Ġh ard
Ġgran ulated
Ġc ayenne
Ġtub e
Ġcomp let
Ġ ar
Ġr ise
a il
ĠS e
ff ee
qu ick
ĠF or
Ġm eal
ar k
Ġr ack
Ġmuff in
Ġdou ble
Ġco at
Ġseason ed
Ġun b
Ġwa f
p are
Ġslow ly
ĠC o
ĠCh op
el ess
un a
Ġthicken ed
Ġcomplet ely
is t
er eal
Ġst ew
ĠB is
Ġcarro t
Ġan other
b read
i der
ĠRed uce
ri sp
Ġapp roximately
f at
om e
Ġcucumb ers
ul ar
Ġseasoning s
Ġm icrowave
Ġgl ass
Ġc ereal
in ed
ĠG ar
Ġch uck
ĠBis quick
n g
as co
as ag
Ġlon g
ĠT ab
all s
Ġdissol ved
Ġh igh
Ġk ern
Q u
ar y
Ġcolor ing
Ġd ri
read y
Ġaltern ately
c k
Ġc auliflower
Ġchun ks
arbec ue
Ġthe m
Ġapples auce
Ġbon eless
ĠL e
ĠTab asco
p l
Ġp ro
Ġn on
Ġsk in
mer ican
Ġcann ed
ĠBe ef
Ġc ider
Ġbl ender
ĠI f
ĠBro ccoli
Ġc umin
Ġre c
ip e
in ue
Ġ3 00
Ġsh allow
Ġf ew
ĠF l
Ġam ount
Ġn eed
ĠSh ape
Ġ Qu
les s
Ġri pe
Ġ2 4
ĠA merican
Ġgre ase
g ular
ĠM icrowave
Ġqu ick
sweet ened
v el
Ġcur ry
Ġd ay
Ġp in
Ġth at
ĠS c
Ġsqu are
as y
ver al
Ġtw o
ĠS qu
Ġbubb ly
Ġ ready
b s
k ra
s c
ĠF ill
Ġse veral
r ic
iv id
ĠS to
Ġcorn meal
il d
Ġw heat
i ed
Ġb oth
Ġl ast
ĠPe pper
Ġh as
Ġto ast
Ġbre ast
ĠH igh
Ġun sweetened
ĠTh is
ĠSe ason
Ġ Z
Ġcool ed
ĠB aked
Ġkern el
ĠU se
ĠSa uce
st yle
Ġsh erry
ric ot
Ġto ss
ĠPre pare
Ġtort illa
Ġ end
Ġp ress
Ġsal sa
ĠF ry
Ġcar am
v y
ud ge
Ġh ash
Ġn ext
Ġfl aked
Ġra w
ar ter
Ġcar ton
Ġunb aked
Ġ room
Ġwaf ers
Ġp art
pp y
ĠG re
il ad
as chin
ne ad
al ap
aschin o
alap en
Ġp at
ur t
Ġgra dually
ĠM on
Ġbe en
ĠM eat
i g
Ġf old
Ġmar aschino
og urt
ĠF ruit
a z
an ut
1 4
ot ch
Ġj ars
st ing
Ġcream y
Ġf ish
Ġli ke
l ish
Ġk n
el f
Ġg ently
Ġh erb
anan a
Ġ4 25
Ġus ing
ĠS o
ĠPe anut
u gar
Ġpro cess
ĠS weet
ĠD el
asag na
Ġt una
Ġst ock
ĠGar nish
Ġan y
ĠU n
Ġto w
ĠF ro
Ġk eep
ĠR ep
ĠB re
Ġg ood
ĠJ ack
le c
Ġon ce
Ġ6 0
ĠC on
ĠB anana
Ġ im
if e
ĠO n
Ġy ogurt
Ġpec an
g ain
sc otch
sp ar
rain ed
Ġj alapen
pl ant
i a
r an
ĠH am
Ġsec on
ĠT oss
Ġh ave
Ġcand y
Ġfirm ly
Ġblue berries
is k
t z
Ġa gain
m edi
Ġre gular
s o
Ġd eep
Ġcran berries
medi ately
is ing
Ġd ark
heat ed
ĠM ex
ut ed
Ġdirec ted
ĠRep eat
Ġb its
Ġkn ife
it os
Ġap ricot
on g
p ick
Ġjell y
and arin
Ġsc all
in i
ast ic
Ġb ite
ĠE asy
Ġd ip
T el
Ġmin i
t ail
Ġf ull
Ġto oth
ĠC an
tr ic
Ġtooth pick
lec tric
ic ott
Ġsweet ened
ĠSal t
ful s
ĠBre ak
Ġch i
Ġcand ied
r ising
at ion
Ġe lectric
it z
Ġp izza
ĠPot atoes
Ġar ound
b l
Ġr ings
Ġgra vy
t ing
ĠT ake
ĠSt uff
Ġqu arter
am s
Ġm e
m eat
Ġmar in
ĠPe el
Ġbott le
Ġsp ice
Ġdri pping
Ġcoars ely
Ġb ars
res er
Ġd i
ou ld
Ġs elf
Ġco ffee
ĠV egetab
Ġdripping s
Ġun d
Ġsepar ate
ĠP udding
o ke
es ame
Ġpre heated
vel op
Ġra sp
Ġheat ed
ĠE gg
Ġap art
ĠZ ucchini
an ch
Ġboil ed
Ġb arbecue
Ġse al
s els
Ġaddition al
Ġin ser
ĠH ot
Ġ edges
. \
Ġl en
o k
Ġen velop
Ġpl us
Ġmo is
ĠA l
ĠL ine
ĠMex ican
i ve
ĠR itz
Ġbutter scotch
Ġsal mon
ver y
f er
Ġsugar s
ins e
ivid ed
Ġmel ts
ĠP ound
Ġa v
Ġneed ed
ĠT he
Ġp ound
Ġgar nish
an g
Ġpl astic
ĠD iv
Ġbanan a
Ġtoast ed
Ġs ome
ĠB ars
ter ey
ĠYiel d
Ġus ed
n ot
ĠP umpkin
ĠSto re
ĠLe mon
Ġpimento s
Ġw ire
Ġd ivided
Ġm old
Ġcoc k
Ġcock tail
Ġfl at
Ġs esame
Ġm andarin
spar ag
Ġinser ted
l ing
sparag us
ĠW ash
c ake
o in
Ġcran berry
Ġbrown s
Ġb unch
Ġf ried
c orn
Ġbe t
avor ite
i ver
Ġjalapen o
ĠMon terey
Ġsa ge
re me
Ġegg plant
Ġchi ves
er t
Ġfry ing
' t
on s
Ġim mediately
icott a
u k
st it
Ġpre tz
ou l
et t
w ise
ĠR et
Ġinch es
n ut
ĠF udge
Ġrem o
Ġb ack
ĠRet urn
le ts
Ġroll ed
Ġgra p
Ġseed s
ĠS ugar
Ġcorn bread
Ġbe an
risp ies
il uted
Ġe very
Ġ1 1
Ġto o
ĠRoll s
oc ad
ut ch
Ġsu b
Ġsalt ed
f or
Ġm or
ĠSt rawber
Ġ -
ĠVegetab le
Ġcon s
am p
Ġadd ing
Ġ1 8
ĠN ut
ĠM in
ĠR icotta
im es
Ġshe ets
zz le
ess ert
b alls
Ġ1 4
ĠK ar
Ġchill ed
ion s
Ġpo ppy
ac le
Ġmor sels
Ġp er
ĠF reez
ir acle
) ,
Ġsl iver
und t
ĠBr and
Ġun s
ĠK eep
Ġsub stit
Ġd ro
ĠD utch
w h
Ġboil er
Ġfro sting
ĠStrawber ry
ĠKar o
ĠK rispies
ĠC oc
ĠBe ans
Ġav ocad
c ooked
Ġh or
ĠM iracle
ien to
p ot
Ġbe g
Ġbro il
Ġ4 50
2 0
oll ow
Ġpim iento
ag le
gre es
Ġde grees
Ġcucumb er
ĠCon t
Ġpepper oni
ĠY ou
Ġg rain
st ick
Ġyol k
Ġw edges
ĠM uff
ĠS our
Ġst em
Ġwax ed
Ġ el
ew arm
Ġreser ved
uk ewarm
oa ves
Ġturn ing
l it
en er
k en
ĠB undt
Ġcho p
Ġsoup s
ĠE agle
ĠM ay
Ġfresh ly
Ġsepar ated
il i
h ub
ĠM e
hub arb
ĠQu ick
Ġt ightly
iz ed
Ġcro ck
Ġred uce
ĠBr ush
Ġl ukewarm
ad ish
Ġrec ipe
u er
ĠE ng
ak ing
Ġl asagna
Ġcrab meat
ser adish
ic i
ĠP ec
ĠD ream
Ġsu r
ĠCr umb
ĠP ork
g th
ĠP izza
ĠCh ili
ĠBe an
Ġfreez e
o st
Ġn e
ĠL oaf
Ġsliver ed
fl avor
kra ut
Ġlen gth
uer kraut
Ġhor seradish
ter s
Ġt imes
Ġon ly
ĠMuff ins
Ġb ar
er ries
Ġfreez er
ĠSh rimp
Ġchun k
erm an
ĠA ll
Ġenvelop e
ĠW rap
Ġco ated
ul ly
t ra
Ġbro ken
or t
Ġw eed
Ġa sparagus
Ġrefriger ated
f t
inn er
Ġthe y
b on
ess on
Ġgrap es
Ġsur f
Ġch eddar
Ġflavor ed
flavor ed
ĠP am
Ġc omb
ĠG erman
g s
Ġl oaves
ĠP at
Ġpretz els
ĠA fter
Ġsh ape
ut ons
Ġw rap
Ġal e
b ow
ĠW esson
Ġsh ould
ĠDiv ide
o y
Ġl im
ĠUn c
Ġcont inue
Ġwh ich
ĠO re
Ġtop s
Ġsurf ace
ĠEng lish
ĠFor m
Ġb erries
g el
cent r
c an
us ts
Ġcro utons
ĠGre en
inch es
ĠO atmeal
w ich
Ġp ar
as ure
Ġstew ed
Ġn o
Ġex tra
Ġcon centr
mer ic
ĠWh ile
ĠSp ray
Ġbo ard
un s
Ġpin to
Ġcr usts
ĠPec an
Ġsubstit ute
ur ing
Ġtur meric
c y
Ġp ure
Ġro s
Ġmini ature
ĠD or
and wich
Ġscall ions
Ġskin less
ĠCont inue
t ry
ot s
Ġpie ce
Ġan gel
em ary
az e
ĠT om
Ġdro ps
Ġp reser
and y
ir t
n ess
is ten
oul try
Ġex cess
Ġel bow
ap ing
ĠP ineapple
ĠCar ro
Ġsk im
Ġbox es
Ġp oultry
in t
Ġo p
Ġadd ed
ant e
Ġcaram el
Ġconcentr ate
ĠR anch
ol a
ĠM arin
N o
ol es
Ġl id
Ġal so
ĠDor itos
ĠD i
ĠCrumb le
Ġrasp berry
Ġmois tened
ĠSt ew
Ġpreser ves
y s
Ġsa uerkraut
ĠSa usage
Ġri bs
Ġlength wise
Ġros emary
Ġp it
ici ous
Ġf avorite
ilad a
Ġf il
ĠP unch
ic ante
Ġpat t
Ġor der
ĠK nead
Ġsecon ds
Ġthicken s
Ġcorn fl
ĠR a
ĠBl ue
Ġf re
Ġa c
ĠCh ip
ed ge
Ġcub e
Ġof ten
Ġm ade
Ġtow el
m ost
Ġcoars e
Ġ quart
ĠO ld
Ġfre qu
Ġc or
ĠSp aghetti
Ġfrequ ently
ĠSqu ash
Ġr um
Ġmo der
i dd
Ġ5 5
ĠO r
Ġbon ed
ĠStuff ed
Ġstem s
Ġfry er
Ġcaram els
a ir
Ġr hubarb
in es
w ay
ĠFreez e
Ġpick le
l oin
qu al
Ġp icante
ĠT aco
Ġnon stick
ra g
al or
Ġst ill
Ġhal ved
Ġ art
Ġal most
Ġteaspoon s
b oil
i ble
we en
e am
Ġst yle
er i
Ġpick les
er ing
ĠD essert
he y
ĠF arm
ĠMin ute
rag on
ar ragon
Ġbet ween
r ans
ĠCoc onut
Ġk nead
inn ed
ash ion
Ġcons isten
j or
ĠO range
Ġm ild
ĠM ash
Ġ edge
ĠL ightly
Ġhe aping
Ġday s
e z
Ġhand s
Ġun flavored
ĠP ast
Ġcle ar
e g
Ġconsisten cy
Ġb ul
ĠD ri
jor am
in y
ĠSt eak
Ġbre ak
Ġf ollow
Ġcl ams
Ġmar joram
Ġp op
Ġen ch
ering ue
Ġw ash
es es
ĠN o
Ġprocess or
ĠCh erry
Ġt arragon
ĠP ick
ĠA pp
Ġquarter ed
Ġs n
ĠSp inach
ĠA ng
d o
Ġw ood
ers hey
Ġpl atter
Ġmoder ate
Ġcrumb ly
Ġcho ice
Ġmuff ins
h igh
ĠI ce
ĠP ro
ĠT ur
Ġche eses
id ge
to ver
ant ro
Ġcomb ined
Ġlim a
Ġb one
il antro
Ġfil lets
Ġp ink
Ġsk inned
Ġf our
ĠP et
Ġall ow
ef ully
ĠH ershey
Ġnon fat
Ġsu re
ĠCr an
ĠD ot
i ally
Ġbroil er
Ġwh isk
ous ly
al ted
am b
Ġmay o
ĠD ressing
m a
Ġrec t
Ġchil es
boil ed
Ġmarin ade
c l
Ġw ee
Ġpatt ies
ĠC abbage
ĠM ars
ĠRo ast
ĠDri zzle
ĠChe ez
Ġcut ting
Ġund rained
Ġwood en
ĠB alls
ĠAng el
f ry
ĠBrown ies
ĠWh iz
e gg
Ġser ved
ĠSqu ares
Ġc ilantro
Ġmeat balls
ĠF resh
ee z
ol id
ĠM ushroom
ĠPepper idge
ĠS up
b ell
t c
ĠCr ush
f ast
ĠCran berry
ab y
Ġreser ving
1 3
at ing
Ġ2 50
Ġsm oke
ĠC amp
is in
ĠFro st
Ġg al
Ġench ilada
s ize
ĠC l
Ġgl aze
Ġ \
Ġf o
am el
Ġdissol ve
Ġ ic
Ġlemon ade
a pp
Ġ *
Ġo kra
Ġc utter
Ġs q
Ġth ree
Ġre al
Ġo un
Ġwh ip
Ġst ove
ing ers
Ġmin t
Ġbr an
Ġp r
ĠSl ow
Ġend ing
ĠSo ak
Ġcornfl akes
he ad
Ġne cess
Ġnecess ary
ro uts
ep ar
pe el
ĠS k
Ġpure e
Ġfl ower
Ġic ing
f ish
Ġteaspoon fuls
Ġd rop
ĠA cc
Ġun der
ĠR inse
Ġo ys
e ar
Ġd on
Ġroll ing
Ġj am
ĠG ood
rans fer
Ġfo am
a ff
f tover
Ġart ich
Ġuns alted
Ġform s
ĠB iscuit
ĠR eser
Ġsecon d
Ġremo ving
Ġt ap
Ġlemon s
Ġseed ed
ĠC rab
al s
ĠCamp bell
ĠAcc ent
Ġref ried
bur g
Ġpe ak
ĠCo at
Ġl ined
peel ed
Ġc ap
Ġtow els
Ġbul k
ĠS epar
in ese
Ġle ftover
ĠCar amel
ĠAll ow
ĠR e
umin um
j on
s ide
Ġl ess
Ġsp routs
ood le
ap le
Ġavocad o
ĠGre at
Ġpick ling
Ġund iluted
j oy
bl ong
ĠReser ve
Ġju ices
Ġw ide
Ġal uminum
Ġb aby
ĠSlow ly
c akes
Ġr inse
ĠCh inese
Ġcrumb le
Ġo blong
Ġthick ness
Ġre t
ĠT ater
Ġre lish
ĠDel icious
Ġb uns
ĠC up
ĠHam burger
p h
us e
c r
Ġgelat ine
ĠPast a
Ġc alor
ĠTur key
ĠSepar ate
h mallow
Ġqu arts
Ġpit ted
ĠU s
ĠDel ight
ĠOn ion
ĠUnc over
ĠOre o
Ġ '
ĠB est
ĠDi jon
ĠD ump
Ġquick ly
c ook
ĠTom ato
ĠPe ach
f ree
Ġin d
Ġbeg ins
Ġsh ake
Ġs andwich
Ġp ul
Ġt es
Ġpop corn
Ġ &
Ġwal nut
Ġar range
ic he
Ġmo ist
o d
uc h
an ish
Ġsp ring
Ġm eringue
aw ay
Ġround ed
n o
Ġw ild
oo p
ĠCarro t
Ġret urn
ĠMars hmallow
ĠC risp
Ġpeak s
Ġs ift
Ġspray ed
ĠB arbecue
e ars
Ġt ins
Ġpart ially
Ġd inner
out h
Ġe tc
ĠRa isin
ĠF r
ĠF ried
Ġreser ve
ashion ed
isc ard
oc a
Ġsc al
Ġt ake
ec or
ĠBlue berry
ĠUs ing
er e
Ġa irt
Ġairt ight
Ġp unch
ab le
Ġs ame
at ch
Ġwith out
a f
Ġh oles
Ġpe ars
i oca
Ġst ore
ett uc
ok ed
ĠCh r
art y
ĠM acaroni
Ġket tle
bl er
Ġg et
Ġs ing
all op
ĠBreak fast
ĠBr an
an y
ĠL ay
Ġpul p
Ġstal k
ĠBiscuit s
ĠR om
eat en
Ġp or
Ġa head
Ġapricot s
Ġm aple
Ġremain der
unch y
Ġblue berry
a h
Ġcar away
wh ile
ĠN ext
ic y
or b
ĠS m
Ġsp lit
ĠR ec
Ġtap ioca
1 1
Ġseed less
ing u
Ġsing le
Ġchunk y
Ġw or
ĠD e
ĠI m
and er
l ings
an n
Ġbon es
Ġbr ush
ĠG l
Ġc as
he w
ĠT ransfer
Ġst eam
ĠG ently
Ġe qual
Ġsp rink
ĠL asagna
Ġab s
Ġham burg
A ll
Ġhe arts
ir c
Ġwee ks
th ing
ĠSc allop
ĠS n
Ġgr ill
ĠO ven
ĠBro il
ĠSup reme
Ġremo ved
c up
Ġcorn ed
Ġal ong
ĠD ish
Ġst age
ou ch
ĠSp anish
i al
Ġt ri
Ġp arts
f ten
oss ible
Ġabs orb
Ġm akes
Ġbe c
Ġc irc
Ġl oo
Ġpr un
aff in
ch o
ins ed
Ġrect ang
Ġdou b
Ġflower ets
Ġfoam y
b its
ĠRec ipe
ĠWh ite
u al
y re
Ġsteak s
ĠJell o
Ġpar affin
yre x
ĠGr and
ĠChop s
Ġin st
Ġf udge
at h
ĠSo ften
i pped
Ġw ings
ĠS eal
ĠP h
ĠW ill
Ġun peeled
Ġr insed
Ġbe er
idd le
Ġg ener
Ġsp ri
ak er
ĠSp lit
Ġlea ving
Ġroast ing
Ġscal ded
b bler
Ġavocad os
Ġb est
ĠC reme
ĠCorn bread
Ġro t
ĠJ ust
Ġquarter s
v il
Ġmeat s
Ġsm oked
ĠSh ake
Ġbag s
Ġd uring
Ġlar d
m as
Ġ "
ĠFro sting
an while
ĠCo ffee
ĠP yrex
uc ed
ĠL ow
und rained
ĠApp les
is on
Ġh om
Ġrasp berries
ĠCream y
Ġm aking
ĠT ex
Ġspoon fuls
op s
ĠAl tern
ĠSt yle
ĠE nch
Ġgra pe
ĠSto ve
ĠMe anwhile
ĠChr ist
Ġsu n
ĠK ra
ĠC ro
ĠBl ack
Ġme asure
ĠCo bbler
Ġm iddle
ĠT w
Ġcalor ies
Ġw ant
Ġdoub led
eez e
ĠRom ano
d ish
Ġbe ets
en ison
Ġg erm
ĠO ne
ĠPick les
ry e
Ġcor ed
b u
w ith
ĠP an
i er
Ġg i
Ġ rye
ir loin
Ġpo pped
ĠP ack
Ġbet ter
Ġprun es
ĠT ort
a j
Ġcar efully
Ġsweet ener
Ġevery thing
ĠT una
ĠMe asure
a dd
ĠQu iche
Ġind ivid
Ġpre fer
Ġd el
bu ry
app roximately
Ġcas hew
un cooked
Ġgreen s
ĠCheese cake
S er
Ġg all
ĠP r
Ġv egg
ount ry
Ġherb s
ach o
isk et
ĠChrist mas
Ġc ustard
Ġbr andy
a i
ĠO f
Ġme as
2 8
em ade
Ġred uced
Ġbubb les
Ġwash ed
Ġgr its
ĠO ver
ĠV eg
s ave
Ġl ingu
Ġdri zzle
Ġend s
el ph
ĠE n
ilad elph
iladelph ia
Ġh old
C h
Ġb ig
ir on
op le
ĠFl at
ĠMarin ate
m b
s m
ag es
Ġm uch
ĠPh iladelphia
Ġv eal
un t
Ġac t
o f
Ġs irloin
Ġt ouch
ro ss
ĠFlat ten
ĠCr ust
Ġf ettuc
et iz
umb o
und iluted
t y
Ġle ave
Ġuns ifted
Ġd ep
ĠM ar
bon ed
ir d
il y
ĠT rim
ĠD ough
Ġb urn
Ġp uff
Ġfro st
Ġflat ten
Ġtor n
ĠKra ft
Ġt id
Ġst art
Ġcontain ers
m el
ĠB ur
ĠMeat balls
b y
Ġde boned
Ġop en
Ġact ive
ĠC innamon
as ter
Ġtw ice
Ġpe ar
Ġmarin ate
Ġcoat ing
m ix
ĠC ol
ĠCr ack
Ġme in
Ġoys ters
Ġin side
Ġpre ven
Ġtid bits
f lower
Ġw ork
ill s
Ġvegg ies
ĠCh owder
Ġr ing
Ġsaute ed
Ġscall ops
b o
ell i
Ġsa ve
ĠGr ill
ĠLe ave
Ġspri gs
ten der
b one
ĠP arty
ad y
an k
Ġre ach
ore ts
Ġso ak
Ġfruit s
p ro
Ġover b
sm all
Ġv erm
Ġoil ed
Ġr ese
Ġwaf er
reser ve
Ġpreven t
Ġt in
Ġpe ople
ul a
Ġpo int
Ġpound s
ĠScallop ed
Ġs it
ĠC andy
Ġfl ake
Ġfl orets
Ġr un
ĠTex as
ef ore
Ġb it
Ġsun flower
Ġindivid ual
n ation
Ġle vel
Ġartich oke
asil y
ĠFr itos
Ġt rim
Ġbe ater
Ġth an
Ġpar ed
Ġe at
Ġd ot
ĠW al
Ġit s
Ġl ump
Ġsp ears
ĠGar lic
it y
ills bury
Ġcr unchy
un can
erb et
Ġe asily
Ġl ook
ag on
asag ne
z o
es y
Ġmo st
Ġabsorb ed
ĠS outh
ĠH ash
cr umb
o ppy
ĠC al
c ut
th s
ĠD ate
ĠH om
ĠCar nation
Ġ3 6
ip ton
Ġsof ten
f resh
m ed
Ġo ld
Ġl ine
ĠB en
ĠTh aw
Ġgi ven
Ġk ind
Ġc akes
Ġt bsp
Ġra dish
ĠChe x
red ge
Ġfollow ing
ĠB efore
Ġsec tions
ĠM old
ĠL ipton
cl u
Ġgall on
ff le
Ġsp at
ĠV al
Ġsh ap
Ġth ese
air y
Ġmeas uring
m ay
th y
ĠSal mon
Ġsh all
Ġop tional
ĠP illsbury
Ġpepper corn
Ġloo s
Ġd iscard
ĠH e
ĠH oney
ĠEn joy
ĠUnc le
ecor ate
ĠD on
ĠD uncan
Ġli ver
orn ing
U p
i o
ĠS ave
ĠF avorite
ro ll
Ser ves
ge al
ĠChe esy
Ġspat ula
F at
ĠC re
ast ing
Ġd essert
end ing
o e
ar eri
ĠG inger
ĠFl our
Ġboil s
ilad as
l ow
Ġl ite
Ġre p
Ġblend ing
g in
Ġbr isket
Ġoun ce
Ġcashew s
en ts
ĠCr unch
Ġdissol ves
ĠTo ast
Ġ ent
ĠD ice
olid ay
ĠVal ley
Ġw ay
um m
Ġsh erbet
ĠSt ro
ĠGrand ma
ĠAltern ate
areri bs
Ġ1 7
Ġp ossible
Ġw et
Ġd airy
ĠM ilk
Ġcolor ed
Ġaltern ating
Ġpin t
en n
ĠT ots
ĠR el
Ġa way
ĠH ines
Ġsn ipped
Ġtri ang
i um
ĠEgg s
ĠMushroom s
o bs
Ġch ow
ver t
raw fish
Ġcan ola
Ġclean ed
Ġ2 75
ol i
Ġsk ins
Ġroast ed
ĠRel ish
ĠB atter
Ġunb eaten
ĠCro ck
Ġrectang le
Ġradish es
M akes
Ġs olid
Ġp ower
ic elli
Ġsalt ine
ec t
Ġstiff ly
ĠGr ate
om me
ĠCook ie
l ined
Ġbrown ie
Ġpeppercorn s
Ġth erm
Ġdo z
ĠSk illet
Ġv enison
Ġcook er
Ġpimiento s
Ġs ized
Ġst arts
ar ge
our bon
Ġl oin
ĠB all
ĠP uff
ĠW heat
ĠN oodle
ome ter
Ġdi agon
ĠApples auce
or y
Ġtherm ometer
idd en
ĠM om
Ġal um
Ġfin ish
Ġcro ss
Ġf ran
Ġent ire
Ġb asting
ĠC akes
Ġgre at
ĠD inner
ex cept
Ġstuff ed
t al
Ġcons omme
ĠMarin ated
Ġoun ces
gh t
ĠH idden
iff y
f ro
ĠR ub
Ġhand le
crumb s
Ġsc oop
c i
ou se
inn ing
Ġbl anch
ĠG olden
aj un
Ġ iron
al ade
Ġf it
ir l
gano ff
iss es
clu ding
i b
Ġm ace
Ġcl oth
ĠN or
mb les
1 8
Ġflavor s
ĠOre os
Ġtes ts
Ġrese mbles
s ugar
ĠSh red
at ur
ĠS andwich
Ġst ack
pro of
ĠA n
in a
Ġpin ts
Ġdo es
on d
m int
ĠButter milk
Ġrack s
Ġf ive
Ġd ump
til s
ving s
Ġne ar
Ġp ull
Ġpl ac
ĠV anilla
le an
ĠV ery
S t
Ġy ams
ĠStro ganoff
Ġcut lets
ey ed
Ġenvelop es
Ġshall ots
Ġde ve
Ġm on
ĠSl aw
Ġround s
Ġbread crumbs
Ġcand ies
Ġpart y
u les
Ġp ers
ĠN ew
ĠCarro ts
Ġblanch ed
1 7
Ġs ter
Ġcom e
Ġdi pped
Ġverm icelli
Ġbott les
al f
ell ini
ĠJ iffy
Ġgran ules
Ġlingu ine
m alade
Ġd ice
is ted
Ġmar malade
ok es
e ad
ĠP l
ĠFro zen
Ġcirc le
Ġpre pare
ĠC ajun
Ġst ring
urp le
ĠLayer ed
d ry
ist ach
Ġm orning
az ed
Ġl amb
ĠCre ole
ĠSt art
Ġlen tils
Ġoverb ake
Ġt iny
am i
ĠAl mon
Ġo wn
Ġw ra
Ġpan cake
Ġhalf way
en ess
Ġcl am
Ġpack et
ig or
ĠS eed
ĠPe g
Ġsc rap
Ġbr and
arbec u
ĠFl ake
ĠEgg plant
am en
ĠB acon
Ġn acho
Ġhom iny
Ġ3 2
Ġd ust
Ġv igor
Ġover cook
f e
ĠT ea
Ġbowl s
Ġdish es
Ġtender loin
ec ial
m ar
ou ffle
P ot
ag u
Ġjalapen os
ĠC om
ĠS ea
Ġl isted
ĠB ar
ĠI r
ĠWor k
ĠHom emade
Ġcool ing
ĠEnch iladas
2 1
l and
ĠIm mediately
Ġf ingers
Ġ +
Ġpl um
Ġteaspoon ful
Ġreach es
o z
Ġshor t
Ġrep eat
istach io
Ġvigor ously
Ġbar ley
Ġpor tions
Ġt ray
Ġp urple
ĠF ish
Ġac ross
m old
ĠSp icy
ĠH erb
Ġro aster
ĠGr ind
T h
b utter
Ġb ourbon
ou ble
ĠWh isk
ĠHeat h
Ġdo gs
r uc
v ol
ĠH aw
as a
arbecu ed
Ġg o
ĠR amen
ĠCar efully
) ;
Ġl ater
ĠPro cess
ai ian
3 2
ĠPepper s
Ġdon eness
ak i
ra pe
ĠH ave
ran spar
ĠHaw aiian
j ust
Ġt ranspar
ĠA p
Ġpepper mint
Ġflavoring s
Ġcap s
vol one
s ized
Ġs w
Ġp armesan
ĠR agu
Ġbeg inning
ĠCrack er
Ġtranspar ent
b e
u a
Ġe asy
Ġpo ds
i ander
ac ci
Ġdep ending
t e
t in
Ġf ire
gh orn
Ġinst ead
Ġcross wise
Ġw ok
Ġsp areribs
Ġ ass
am ily
ur es
ĠH oliday
Ġg u
Ġartich okes
ĠTom atoes
al e
ri d
Ġle e
Ġshap es
e ur
oup le
ĠMix ture
ĠL ower
Ġab ove
Ġdash es
ran ts
ther n
Ġstick y
ĠBr ittle
Ġcor iander
ĠDump lings
ĠCol by
l arge
Ġsprink led
u pper
Ġs ix
Ġ1 00
Ġf ully
ĠC ountry
it ch
ĠS he
Ġlow er
ĠIr ish
Ġc rawfish
Ġen joy
iel b
Ġde bone
Ġcur rants
ĠPro volone
ĠP inch
ĠT ear
ĠA unt
ith er
ĠPre tz
ĠKeep s
ĠSouth ern
ĠC ur
lic ed
Ġn ew
ĠF eta
Ġcol ander
Ġt ight
on ghorn
Ġh ole
Ġstick ing
Ġbunch es
Ġcap ers
Ġp ies
Ġshell ed
Ġmo zzarella
Ġtoothpick s
for m
ĠAlmon d
y aki
Ġc ouple
ĠB aste
am ole
Ġlar ger
bo x
I f
f ur
k fur
ac amole
ĠM ed
Ġth igh
ĠF in
Ġz est
Ġbec om
L e
Ġn oodle
Ġliqu eur
Ġaltern ate
wh ite
Ġleftover s
ĠBur g
Ġt y
Ġro ot
Ġgener ously
Ġslic ing
ame ter
ma ine
Ġdeve ined
ĠSea f
! )
il ized
Ġoys ter
b an
l ua
Ġb ase
al d
ĠB arbecued
Ġdi ameter
ah lua
ĠC ustard
Ġbrown ing
ĠL onghorn
A dd
or ted
ĠE qual
Ġmois ten
ĠFreez es
Ġster ilized
M icrowave
ĠSt eam
ĠGr ound
ielb asa
ĠT ri
Ġfry pan
Ġcur d
Ġdiagon ally
3 0
Ġco re
Ġloos ely
ĠAp ricot
h y
ir ds
ab et
Ġpor tion
Ġtrim med
ĠNor thern
Ġscrap ing
m edium
he ese
Ġbrown ies
Ġse af
Ġcon geal
Ġro maine
Ġseaf ood
ĠP oppy
Ġst rain
eri yaki
no x
Ġbecom es
ĠB ay
ĠD ouble
sa fe
etiz er
ĠO il
u ice
Ġ4 8
Ġw on
Ġn ight
Ġchicken s
ĠF ood
ĠN oodles
ĠPan cakes
m ore
Ġb ur
ĠK nox
Ġ7 0
Ġcomb in
t ures
ar i
ĠP er
ĠA sparagus
Ġrot ini
ĠWal nut
Ġsqu eez
ous se
ĠSc ald
obs ter
atur al
itch en
ĠJ o
Ġdi pping
ĠD redge
ĠW ater
ĠRefriger ator
Ġbeg in
Ġthigh s
Ġsu m
ach ed
ĠO ri
Ġfollow s
ĠC lean
or ed
Ġmix tures
Ġfran kfur
! !
m p
ater s
Ġsn ow
Ġsum mer
an ce
Ġtriang les
r ound
Ġgar ban
em s
ĠE x
ĠSqu eeze
Ġgener ous
ĠSeaf ood
Ġm an
Ġd iv
ĠA t
ĠI s
oun ts
Ġinst ruc
m ann
n ed
Ġm et
ĠSer vings
Ġdel icious
ĠR hubarb
ĠH ouse
Ġpretz el
d ium
ĠL ime
ĠF ashioned
Ġsmall er
Ġp ressing
ĠD ecorate
ĠU ps
ĠSt rain
Ġsandwich es
b ro
u ds
Ġo at
Ġl og
Ġl asagne
Ġpe a
ĠB aker
ĠT est
ĠA b
Ġh en
ĠI c
ĠH ell
Ġcrack ed
Ġpack ets
ĠSc r
Le mon
c ine
Ġr ich
Ġsqu eeze
Ġspoon ful
p le
ed ish
ĠP op
ĠD eep
Ġsc ant
Ġdump lings
Ġty pe
Ġt ail
us s
ĠM olasses
um ps
ĠButter scotch
Ġsepar ately
ĠSc oop
ig in
an gular
Ġb ath
Ġsal ami
ĠA s
cho pped
Ġdiv ide
p id
r on
r ise
Ġra pid
Ġan cho
ĠK ahlua
Ġde vil
ro ps
ef ruit
em eat
Ġam ounts
ĠUps ide
Ġn atural
Ġfro thy
ĠAl so
b eaten
i w
ĠC auliflower
ĠM andarin
Ġse am
ĠH un
Ġsl its
ĠTh ese
ĠStuff ing
Ġtablespoon fuls
abet ic
igin al
or d
Ġri ght
Ġgarban zo
ĠP ol
ĠP ea
dd le
ĠN e
ĠSh ell
Ġspread ing
Ġbubb ling
icott i
4 6
p ec
ef ul
ĠL a
ĠL ast
Ġrect angular
Ġinstruc tions
p re
ĠS ouffle
Ġle ft
ĠR ea
ĠFill ing
d just
Ġsalt ines
ĠUn mold
Ġstart ing
ĠPuff s
Ġto pped
Ġj umbo
Ġan ise
Ġblack berry
Ġpress ed
ann y
u x
ĠSw edish
Ġcrisp y
ĠGl aze
umm y
Th is
rid ge
F ry
Ġbl ock
pe as
ĠSe ven
Ġass orted
ĠAb out
Ġo uts
Ġf inger
orn ia
if ornia
Ġsimmer ing
ĠC ucumb
Ġfl ank
ri ddle
ĠBe aters
m it
ar a
al ia
Ġg one
ir gin
Ġth ird
ent al
r s
Ġp istachio
ĠB owl
ĠM edium
Ġpack ages
ĠSh oe
ĠCal ifornia
Ġsqueez ed
d rained
en ough
Ġw ish
ĠM an
Ġk ielbasa
Ġcover ing
w y
Ġch ick
Ġin cluding
Ġr ub
ĠChe ck
Ġgl oss
ig s
ation s
ĠVegetab les
Ġlee ks
ĠPretz el
Ġd ecor
ĠSt ick
ĠCl am
ĠB reasts
us ages
Ġn ect
ĠN ow
Ġfrankfur ters
Ġouts ide
Ġ2 3
Ġe ither
ĠS urp
ab ly
ĠSp ecial
id alia
iw i
Ġd amp
ĠD irt
Ġturn s
Ġl umps
ĠD iscard
ĠIc ing
B ake
Ġl ink
is key
ĠW atch
Ġgrap efruit
Ġf ree
Ġch ip
Ġg riddle
Ġstri p
ĠD ill
ur k
Ġlb s
Ġcar eful
Ġblack berries
ĠRea Lemon
c risp
al t
ĠO p
oc ks
ĠGra vy
D own
ic o
ĠIn vert
Ġchil e
Ġset ting
pl ain
sp berry
ĠSp ice
y e
im mon
Ġoven proof
Ġhead s
Ġsec ure
ible ts
D o
g o
m ent
ĠB aking
Ġbott led
ĠN est
Ġliver s
ush y
ĠJ am
ble ached
Ġsc r
Ġri b
ĠGra ham
fro zen
Ġgu acamole
urk ee
pper s
Ġn ice
ĠD ust
ĠSal sa
Ġfill ed
ĠFl uff
ux e
ĠSurp rise
3 50
Ġm ound
Ġf ridge
ĠW ild
Ġcup cake
ap s
ĠY um
Ġtort ellini
Ġwor ks
at fish
Ġ2 8
Ġn avy
ĠF ir
Ġhand ful
Ġkern els
Ġcornfl ake
h alf
ĠS ec
Ġco als
Ġcl os
B ran
am ic
ĠR ot
pan y
Ġsec tion
Ġprocess ed
Ġdro pped
Ġ2 00
um d
Ġk iwi
ĠEnch ilada
acci oli
mp ty
Ġc uts
Ġt ips
Ġsa usages
ĠD urkee
ĠGr anny
er d
un n
ĠV idalia
Ġlayer ing
ĠTh oroughly
Ġchi pped
Ġwee k
f u
Ġt eriyaki
Ġf ast
ot ted
Ġthe ir
ĠSp iced
Ġliquid s
ĠCup s
C an
d ough
h ot
Ġo mit
at in
Ġun bleached
ĠThe y
ĠHell mann
ĠP ull
Ġor iginal
Ġsp icy
ett es
Ġbar ely
b all
Ġso aked
Ġra b
meat s
ĠIce box
ĠDe vil
etiz ers
l ien
us sels
ĠCh ow
Ġju lien
qu e
y our
Ġp ine
Ġwh iskey
Ġl obster
ĠK isses
ĠGra pe
ĠCoc a
Ġmet al
Ġg ets
Ġsl otted
ĠChe eri
ĠVelve t
c ell
Ġw ould
Ġst r
Ġcl ub
Ġmois ture
re c
ir y
um mer
Ġnut meats
ĠSn ick
ĠSandwich es
c rease
Ġc ountry
ĠC res
ĠM rs
Ġpec tin
ĠTo pping
ĠQuick ly
Ġpuff ed
ĠShe et
Ġfl ame
ick ory
Ġde er
ĠCheeri os
ĠFr it
ĠGl azed
ĠTort illa
t a
Ġb ark
ĠW arm
ĠOri ental
cell ent
Ġf amily
se ason
Ġcann ing
Ġwor cestershire
l a
at a
ĠS ummer
ĠDiv an
als amic
ĠTort e
Ġtail s
C ola
Ġ X
Ġb atch
Ġd ist
ĠM c
ĠD ay
iff er
Ġspring s
ĠGinger bread
Ġnect ar
L ow
da iry
ven ly
Ġcon ten
Ġcont in
ĠRe ady
ĠSh ort
ĠIm p
Ġlump y
Ġchick peas
c ed
Ġgr ate
Ġrectang les
ro st
ĠP ark
ĠF at
ĠH or
ia h
ett y
Ġcombin ation
ĠNest le
C heese
t Add
Ġcar d
Ġpl ates
ingers n
Ġfettuc cine
Ġcan tal
Ġcantal oup
F ree
o b
or m
ĠUn roll
Ġsprink les
2 4
k es
et ter
enn el
r it
ĠC ub
am a
ĠT ender
Ġv ari
ef rost
arb oil
f le
ĠJ er
it ation
ter ol
Ġh air
Ġsa ff
ĠY east
oles terol
ĠK n
Ġrun n
ĠCucumb er
Ġc re
ak y
ĠR uss
ĠK itchen
Ġhard en
od ka
t ich
Ġ es
Ġb ri
Ġb alsamic
ĠM eringue
ie ve
Ġminc emeat
Ġtopping s
Ġcirc les
ĠImp ossible
y st
Ġt ill
ĠS un
Ġsp ir
C r
U ps
al a
Ġ2 2
ĠA u
ell o
Ġcr yst
ĠD ash
av ed
Ġcarton s
wh ole
ĠRa spberry
Ġm ed
Ġf ennel
ĠB etty
ĠT ot
ĠL aw
ock tail
Ġp urpose
ri b
ĠW ings
Ġrais in
ĠSup er
? ?
f ingers
ĠS ar
Ġl in
ĠP ies
Ġsubstit uted
Ġstr ong
2 9
Ġb as
Ġf illet
un k
Ġsk ew
Ġtoss ing
Y ou
ut y
Ġgl asses
fl our
ĠZ est
ĠPr al
ĠPr ick
Ġbe ing
Ġso on
Ġwarm ed
Ġt est
re t
ĠP in
Ġh ickory
ĠM ustard
ĠF ran
ĠL asagne
ub ble
ĠCr unchy
ĠMon key
Ġlook s
Ġc reme
Ġd rink
oo se
ien ers
ard en
ĠK ing
ĠQu aker
Ġpress ure
ĠSn ow
Ġplac ed
ĠLaw ry
d r
ĠM y
ĠM ac
Ġpan cakes
ĠH unt
oun der
ĠSo ft
Ġv odka
ĠA m
if ici
gre en
ĠAr tich
ĠDel uxe
ĠCom pany
a use
l s
an ts
ĠC ocktail
ĠSa uerkraut
Ġman icotti
Ġcantaloup e
m s
u y
Ġth ere
Ġcl ose
Ġart ifici
Ġbec ome
Ġconten ts
Ġb ed
Ġg umd
ĠB on
ĠT ime
ain s
ĠSo da
Ġtes ter
iffer ent
Ġl ots
li ke
und y
Ġnon dairy
cook ing
ĠGrill ed
t ies
Ġm ust
or ch
ĠP owder
ĠM ag
Ġth irds
Ġim itation
Ġtouch ed
ĠPol ish
u red
Ġb erry
Ġon es
Ġle gs
ĠCh ess
ĠW a
ĠG arden
ec k
Ġpatt y
ĠShell s
F ashioned
as ier
Ġso dium
ĠR ing
Ġk ept
Ġdo or
ĠGr atin
ĠOn ions
ĠSk im
ĠSm ith
Ġloo se
mel on
ĠOp en
ĠFir st
M ay
f inger
Ġl ady
ĠP ure
ĠM u
Ġj ack
Ġup side
so ft
Ġlid s
Ġcalor ie
Ġpers on
Ġartifici al
I t
c ross
d on
m ild
at t
Ġin vert
ĠS upper
ĠB y
mar garine
o sh
s alt
u g
Ġe ars
Ġst arch
Ġsa ving
Ġcook s
amb oo
Ġgumd rops
ĠM iss
ĠV egg
Ġus ually
Ġmarin ated
Ġc av
Ġt am
Ġb amboo
Ġto fu
un til
Ġv irgin
ĠM il
ad le
Ġgr ind
ĠTh ree
w he
Ġf igs
oo s
Ġfl aky
Ġh ock
ĠI nd
ĠL ight
ĠH eal
ĠO li
Ġtab le
Ġsc orch
ĠSc rape
ingersn aps
Ġe qu
Ġdoes n
ĠBurg undy
Ġrapid ly
Ġcontin u
ĠZest y
l oc
Ġm any
ut ney
ĠB etter
ĠF ettuc
Ġmel on
Ġcool s
ian a
ĠDi abetic
ĠPure e
F or
b ran
w s
ĠC old
it i
Ġh ollow
Ġk isses
Ġsl aw
ang o
hy dr
ĠIs land
unn el
ello gg
b aked
in o
Ġ1 9
Ġe asier
ĠS am
ree k
ĠSn ack
Ġ rim
Ġt ast
Ġst ro
ĠCoc oa
Ġel astic
Ġpit a
la pping
m ents
s liced
Ġw ieners
or r
Ġd ate
ĠM eal
Ġwith in
Ġst ored
Ġn ic
ay a
ip loc
acar oon
Ġper for
cl oth
Ġmost accioli
ĠPop corn
ĠCres cent
Ġc ount
in z
Ġw as
it a
Ġd is
Ġd ecorate
Ġover lapping
ĠG old
iss cross
Ġde g
t C
Ġc atfish
Ġsu it
ĠM ary
ĠR i
Ġ6 5
ĠK ellogg
ĠCo ke
ĠPat ties
Ġpure ed
re gular
Ġd redge
Ġn ow
Ġpers immon
B e
ar ian
Ġr es
Ġre heat
os es
ent y
ĠTh icken
alor ie
ĠPick led
rec ipe
season ed
ĠCub e
Ġnic ely
c ial
Ġm icrow
on es
ou x
Ġh ow
ĠO ys
ĠSa ut
ĠBr unch
Ġlink s
ĠPark ay
b it
Ġbutter nut
Ġcheese cloth
ĠR ich
ĠH ea
ĠPe as
ĠN ot
Ġqu ite
oul ash
fry er
m et
y ou
on ge
ĠS avor
ĠM ousse
Ġbl ade
Ġheat ing
ĠE l
ĠPe ar
d en
Ġt ex
ic les
ĠM ini
Ġput ting
Ġprepar ing
Ġstew ing
u el
an cy
Ġl oses
un c
ri z
ate ver
mer cial
ĠV enison
ĠN uts
Ġtes ted
pec ans
ĠSavor y
l uc
Ġl ove
ĠT r
ĠA djust
Ġh ens
ĠM a
Ġmix es
Ġth read
me let
ĠIn to
ue ur
ĠBr ussels
ĠMag ic
Ġlady fingers
osh er
Ġtex ture
N uts
c ream
at oni
re w
Ġw il
ĠP enn
ĠM az
ĠL ou
ĠBrown ie
ĠZ iploc
alapen o
Ġmold s
Ġprefer red
ĠKn orr
F ried
t and
Ġc it
Ġp ats
ĠB ra
un e
Ġse e
Ġse g
qu et
ĠG oulash
Ġhom emade
ĠHe arty
ĠHe inz
Ġplac ing
Ġmon ths
ĠArtich oke
ĠMil not
l o
Ġt all
ĠB uds
to p
Ġsh oo
Ġbottom s
Ġfreez es
stick s
Ġhold s
mel ted
ĠSar an
Ġdeg ree
i pp
Ġm ushy
Ġcom mercial
ĠSw irl
can ned
ĠRoast ed
ĠCrisp y
Ġjulien ne
I n
l ight
p es
Ġs ieve
Ġt rans
en ce
ow ers
Ġh el
ĠR ound
Ġfour ths
Ġsteam ed
ĠRuss ian
ĠRi bs
S ueur
d uty
j uice
Ġt ransfer
ut es
ill ed
ĠM other
Ġr oux
ard s
Ġcrust y
way s
ĠNe ver
Ġspir al
1 9
w are
Ġc ast
Ġs om
Ġt ear
Ġover mix
Ġpour ing
ĠJell y
ser t
Ġlim as
fro m
Ġnear ly
ĠMed ley
Ġstro kes
Ġtrans luc
. .
o at
t P
Ġf ashion
Ġa d
ĠB as
ad a
ef ly
ĠCream ed
iff on
Ġseg ments
, \
g ry
in ity
Ġt ie
Ġf ile
Ġl g
ĠT re
Ġr ump
Ġtender iz
fec t
ĠLe Sueur
oul der
ĠAltern ately
pre fer
Ġes c
Ġshoo ts
M ix
s elf
Ġm ango
ro ut
Ġsu ch
ĠP ap
im m
ĠIn sert
ĠY ellow
Ġdo g
Ġdirec ts
ĠButter finger
ĠMaz ola
Ġtransluc ent
S p
c ress
in ds
ĠM ud
ch icken
ab el
par ed
Ġtw ist
uk es
Ġlingu ini
l ime
p ack
Ġto tal
ĠC a
ĠT am
ĠT et
ĠT aste
ĠW ine
ens ter
Ġri g
oun ter
Ġpo ke
ĠApp etizer
ĠFin ely
ĠMu enster
ĠHea venly
4 0
ĠC at
it es
ĠB ou
ra zz
Ġsh oulder
ĠCook ing
tt y
ĠJ alapeno
ĠTh in
Ġchunk ed
Ġvari et
Ġbri efly
ĠSam uel
Ġperfor ations
ĠTet razz
n og
v ies
Ġc ounter
Ġb aste
Ġche ck
Ġsh aved
eat h
Ġit ems
Ġliqu or
Ġchill ies
Ġbut ton
ĠMash ed
ĠHor mel
ĠTetrazz ini
R ice
Ġm ain
Ġd iluted
Ġd ifferent
ĠW e
ĠH our
em iah
Ġpre cooked
ĠPast ry
Ch eddar
ĠCal ico
Ġ 75
Ġt ough
Ġb ubble
ĠC elery
Ġh ull
Ġgar den
Ġextr ac
ĠCho pped
Ġsc rape
Ġdi et
t eg
Ġs or
ĠS u
ĠP o
ra ut
Ġ9 0
ĠJ ud
ubb ed
ĠTo st
ĠCont ains
Ġbreak fast
Ġstrain er
Ġancho vies
ĠVegg ie
Ġt ip
Ġb un
ĠG reek
ĠWh ole
ĠJ uice
oss om
pl ants
ig n
ĠBre ast
ett i
ĠMars ala
ĠOver night
Ġfettuc ine
Ġfettuc ini
ĠHerb ed
3 25
Ġc ukes
Ġm y
re l
al es
Ġl it
ĠB uns
Ġfl ounder
Ġcream ing
Ġwater melon
Ġsa v
ĠDiv inity
ath er
Ġwra ppers
ĠCur ried
Ġlin ers
t he
Ġg ive
un peeled
Ġwater cress
Ġsa uc
ĠF ollow
Ġ5 00
ĠH o
Ġk raut
ĠE at
Ġout er
Ġpre heat
Ġqu iche
ĠTo ffee
ĠMex ic
ĠHeal thy
Ġtenderiz er
Ġextrac ts
in ts
ĠT on
ĠT oll
Ġmar ble
ĠL oos
ĠH ar
par ation
ĠMo isten
iel d
Ġgl ut
ĠMon te
Ġim p
Ġcutter s
ĠTw o
Ġtriang le
Ġcongeal ed
teg a
N ut
T he
e k
Ġ #
ĠP are
Ġegg plants
ĠT ast
Ġwh atever
ĠF our
ĠSl oppy
Ġform ing
ail able
ĠCon geal
Ġsw irl
3 75
al ina
ĠF ail
row d
ĠCheese burger
ĠGr its
ĠCur ry
w ater
ĠP oke
ĠR um
ĠE ver
ĠE mpty
Ġbre aking
ost on
ĠTur tle
l aw
es tern
il ute
Ġf ashioned
Ġin ter
Ġra ise
iss ipp
ett e
Ġlim p
Ġgloss y
ĠOli ve
issipp i
Ġd oll
et to
ĠSp r
Ġturn ips
ĠCrab meat
Ġbit ter
Ġrunn ing
ĠMiss issippi
es to
Ġd ent
Ġh ocks
ĠPre go
Ġsliver s
Ġdel i
ĠBurg ers
Ġdist rib
Ġrig atoni
r ant
t Bake
in cluding
Ġp ush
al aya
ĠC ole
Ġl ot
ĠA mar
ĠM or
ber g
Ġunc over
Ġform ed
Ġtoss ed
in der
Ġch olesterol
ĠB oston
ĠCh iffon
ĠD ry
ĠSt r
ĠChe wy
ĠFl avor
amb alaya
ĠRe ese
cr ust
Ġbec ause
Ġpear l
ĠCrock er
Ġclos ed
ĠFrit ters
Ġskew ers
whe els
ĠCat alina
k et
Ġg iblets
Ġl abel
ĠP ush
Ġcorn ers
ĠL ea
Ġ30 3
ĠOr tega
air ly
af ing
Ġloos en
ĠTri fle
ĠSnick erd
g round
Ġ amon
ar row
Ġw e
ĠL ingu
Ġk osher
Ġz iti
iv al
Ġfinish ed
Ġsav ory
~ )
Ġp ier
Ġm ousse
re m
Ġf airly
Ġa ir
ĠS und
Ġfl owers
is ins
us el
ĠG ener
Ġapp ear
ĠPre paration
ĠSh o
Ġpr ick
ĠSm ooth
Ġancho vy
Ġrab bit
h n
v i
Ġt akes
Ġp al
ĠC ow
ĠM ama
Ġbe et
Ġn arrow
ĠL adle
ĠH al
ies ta
ll o
Ġpre tty
cl air
Ġsprink ling
Ġburn er
in stant
Ġe ar
ĠT ang
ri end
Ġsh akes
uff ed
ep eg
ress o
ĠY ummy
Ġlime ade
ĠTri ple
ĠRot el
ĠAmar etto
Ġamon g
ĠSund ay
c ents
ĠP or
ĠM ill
ĠW ay
Ġse ts
uy ere
Ġtam ales
ĠLou is
lo ins
ĠBas ic
% )
B ro
re usel
Ġpkg s
ĠL og
ĠDe bone
ĠTw ink
ĠJo hn
prefer ably
ĠTam ale
c overed
on t
Ġd r
ĠS im
ĠP u
ĠL i
ĠIn crease
ĠE ar
Ġseal ed
ĠCup cakes
Ġrot ary
ĠEx cellent
ĠHun gry
6 0
h od
r itos
re n
ĠC ottage
am ous
Ġst rained
th is
Ġco d
Ġre ally
av able
ĠE clair
Ġmash er
ĠOn ce
Ġsn ack
ond ue
hy llo
ĠScr ub
ĠDevil ed
Ġsaff ron
R oni
w ell
Ġp hyllo
our met
Ġe ight
Ġcr isscross
Ġgr ams
ach os
ash ed
ĠRe heat
Ġwor ms
Ġshap ed
ĠTon y
f ashioned
Ġb al
ĠP ort
ad am
Ġingredien t
ĠTh an
ĠGr uyere
ĠCl ose
ĠPeach es
ĠPr une
ĠJer emiah
ĠBou quet
ĠLoos en
ĠGener ously
f red
in ter
Ġch utney
Ġche wy
ch er
ĠW on
Ġstir red
ĠG e
Ġhot s
tt e
ĠJ ambalaya
ke ts
Ġfry ers
Ġdent e
adam ia
U se
o id
s k
v als
am ate
th aw
ĠR ock
Ġdes ire
Ġcur ls
Ġglut amate
ival ent
fred o
F ro
Ġm g
Ġch afing
Ġcho pper
ĠR ib
ĠO kra
Ġkeep s
Ġseal ing
ĠCl ass
Ġwra pped
d rain
e el
i k
Ġd efrost
he aping
ĠF iesta
iel ds
ition al
Ġscall ion
add ock
mix ture
ĠMed al
acaroon s
Ġvariet y
d ried
Ġl ift
ĠM ock
gh um
ĠG u
ĠG umbo
Ġtender loins
Ġlow est
eed s
ĠCorn ed
Ġcrisp ly
ĠCo pper
Ġburn ing
ĠMilk y
Ġmound s
Ġmicrow avable
ĠSnickerd oodles
7 0
O r
in ai
il af
Ġse ven
ĠFruit cake
od ium
Ġverm outh
t i
y l
Ġp atter
Ġto ffee
ĠP art
ĠP ile
Ġst ay
der ful
Ġsoup y
Ġre heated
ĠF ive
ag ne
az el
Ġcryst als
i gg
i ves
es ar
and ied
gar ian
it as
ĠP arboil
ĠCh ips
ĠL en
gre tte
uck y
ĠSeason s
amp agne
ĠApp etizers
Ġcit ron
ĠCongeal ed
inai grette
Ġpatter n
x x
ro s
ill y
ver age
Ġ8 0
ĠL oaves
ott om
ĠO at
ĠE le
Cr isco
ĠCa esar
M ex
d e
u gg
Ġ ato
Ġb ow
ĠS esame
Ġg ummy
un beaten
ch a
ĠR un
ag ed
os odium
Ġchil d
ĠK ool
ĠBr isket
ĠSw ans
oun ce
Ġav ailable
Ġfollow ed
Ġspri g
Ġfran ks
bro wn
Ġlog s
orm ick
Ġato p
C ook
a u
b oy
t ly
u da
y ellow
Ġin s
Ġe igh
ĠB ac
ĠD oll
ĠW ipe
Ġapp etizer
ĠK ings
Ġcenter s
ĠPec ans
Ġpuff s
ĠCrack ers
ĠJo es
ĠOys ter
Ġwil ted
ĠSpr ite
. ,
C ormick
Ġs im
Ġ1 15
Ġp ri
am ble
ĠB ell
Ġst arter
lic es
ĠF amous
Ġal ready
Ġtablespoon ful
Ġyou ng
ous and
ock et
Ġpart ly
ĠMarin ade
St yle
te in
upper ware
Ġinter vals
t uce
u f
ĠT ie
ri p
Ġco b
ĠSt ack
ĠF il
eget arian
Ġapp etizers
ĠSh ould
Ġgl azed
Ġlength s
Ġmoder ately
amb led
Ġdust ed
Ġcard amon
Ġdis app
Ġbal ance
c innamon
Ġf all
ol ut
Ġst or
Ġthrough out
az y
ĠSk or
ĠBlack berry
Ġmon osodium
Ġequ ivalent
Ġad v
ĠJud ges
ĠCow boy
i ano
k ay
Ġt rout
or s
ĠB asil
ĠP as
Ġst raw
Ġsyrup y
ĠN acho
bon eless
Ġdiagon al
ĠMac adamia
att ice
ĠMill ion
z y
at ive
Ġe ating
ol ly
ra pped
et imes
pe pper
ĠGr an
ĠQu arter
ĠMin t
Ġgrain s
ĠEng land
St ir
A id
S our
d ep
le u
Ġd ab
ĠS kin
ac os
ick el
ver ted
ĠLet tuce
Ġthick er
Ġcur rant
ĠFin ish
ĠHun garian
ĠPral ines
b a
u riz
Ġch ar
Ġg ro
ars ely
Ġpl enty
Ġlayer ed
ĠTh ousand
ĠRep lace
Ġplum s
ĠClass ic
uriz ed
\ \
k y
ic ro
ĠB leu
th a
ur ch
ĠL o
ĠL ift
av ily
Ġsl it
ĠE ach
ĠV inegar
ort ant
ĠPer fect
Ġsor ghum
ĠSu ey
ĠMexic orn
c ini
d ay
i ant
ĠC ore
is ts
Ġgr inder
Ġse a
ĠF amily
Ġcup cakes
if ied
Ġro ws
ump ern
ĠV eal
ĠN iblets
Ġpo ints
Ġcereal s
Ġkeep ing
Ġav oid
rit o
Ġjack ets
Ġcav ity
Ġhel p
ossom s
ĠLouis iana
2 3
f in
w al
w ill
ĠP ic
ĠP ier
Ġfl ute
ĠT upperware
Ġh addock
ĠM ound
ato re
Ġth umb
ĠH umm
over s
ul ts
end s
Ġjell ed
Ġpaste urized
Ġpro d
ĠFl uffy
ĠTost itos
umpern ickel
g resso
Ġ .
pp ies
ĠCh ach
Ġsp ace
st ir
ĠSp areribs
umb ers
ĠStir ring
ĠK ey
Ġwa ffle
erm uda
ĠAl fredo
ĠMe in
Ġallow ing
ĠChr on
Ġfit ting
ĠPin wheels
ĠSho epeg
Ġeigh ths
ĠC as
ĠC acci
Ġsu et
Ġg umbo
ĠB o
ĠB uff
ĠB ermuda
ri ght
Ġr is
Ġsour dough
Ġpack aged
izz as
ĠCorn ish
ĠFro m
ĠMay onnaise
ah um
ĠAn n
be ef
Ġrub ber
Ġrab bits
Ġbas ket
ĠChron icles
l ightly
Ġb uds
ĠS ch
Ġbutter y
Ġst one
ĠL azy
act ing
ĠY ogurt
Ġice berg
elve eta
ĠPepper oni
lec t
Ġoverb eat
ĠNot e
ĠTwink ies
thaw ed
Fro m
D i
T o
a ver
m in
m an
n y
Ġs ack
Ġf unnel
ĠC rawfish
Ġ2 25
Ġa djust
ĠB ob
ĠP arsley
Ġh oliday
Ġwh at
ĠG oo
est ive
Ġhe avily
ĠBoil ed
Ġpro tein
Ġmarin ara
ĠFreez er
ĠRe ub
Ġscorch ing
unc he
ĠPas o
2 2
O s
i od
Ġ ??
er to
Ġt e
Ġt en
Ġp enne
Ġw edge
am om
Ġe mpty
ell en
ĠG ourmet
ĠCar ol
amp i
Ch o
butter ed
Ġbur ger
ĠPap rika
ĠStr ata
ĠEar th
b ake
c ery
r ich
v al
y ed
Ġs olut
Ġb ird
Ġp ocket
re at
ak en
Ġ2 1
Ġl attice
ol og
ĠR ings
Ġr anch
ush ed
Ġsp ecial
igh ts
ĠSt reusel
Ġbr ine
ĠShred ded
ret ch
Ġpri or
d or
g n
s uch
ĠC erto
ĠP ar
ĠT arts
Ġh o
ĠR ellen
Ġse ams
ĠF ast
ĠL ef
ĠO melet
ĠK id
Ġcomplet e
Ġfold ing
ĠSugar less
Ġdevil ed
Ġbatch es
ĠMc Cormick
ĠPor cup
ĠChach ere
ĠReub en
4 5
b ble
u v
Ġ 0
Ġs ouffle
Ġp arboil
ic al
ĠS yrup
ĠB ing
ĠP ers
ĠP istachio
Ġflour s
ĠM aple
ĠD own
Ġre qu
im a
Ġremain s
ĠE nd
ĠMo ist
Ġother s
Ġcol a
ĠCo arsely
ĠSc otch
sc ant
ĠPer r
bro ccoli
Ġcard amom
Ġlit er
Ġsauc es
ĠCacci atore
Ġsolut ion
P e
g ed
Ġp ouch
ĠM ount
ri e
Ġsh o
qu ake
Ġfreez ing
ĠFill ed
Ġgarnish ed
ph ant
Ġ?? ?
Ġt aking
al o
Ġin crease
ĠC andied
Ġg ingersnaps
ĠK iss
ĠN ahum
ee bler
Ġthicken ing
Ġbrush ing
Ġgall ons
ĠDough nuts
ĠLingu ine
Bro ccoli
unche on
ĠPerr ins
b ird
c rew
l en
p r
Ġ1 50
Ġp umpernickel
Ġw ere
sp ace
Ġd uck
ĠS lices
Ġegg nog
is ed
uc y
th in
ĠCh ile
ack y
ab obs
Ġk itchen
ress ed
ĠBl ond
ĠY ork
Ġcom ino
ee k
ĠSc ampi
so dium
ĠSteak s
mb ros
mix ed
ĠStick s
ĠPral ine
ĠPenn ies
Ġdoll op
olog na
k ing
n ic
Ġp ip
ut h
el ow
ra d
Ġsa ut
ĠD ried
ach ine
ĠG iant
ks crew
ĠN ab
Ġhead space
ĠSc atter
ĠSeason ing
Ġpit cher
ĠPro gresso
ĠSm oked
aj itas
ĠMar garine
ĠWal dor
mbros ia
ĠWaldor f
1 00
E yed
Ġo kay
ing bird
ĠT art
ĠM ore
Ġor zo
Ġr ising
qu ettes
edd ing
Ġmeat y
ĠSl ush
oy u
ĠMar tha
ĠBar rel
Ġclos ely
ĠMor ton
ĠGe or
ĠRib bon
ĠPart ially
Ġgro cery
k ins
Ġt r
ĠC ra
ĠS liced
ĠA mbrosia
Ġ4 75
ĠR os
ĠD rops
ĠSp am
Ġse ems
ap ed
ĠK eebler
ĠSl ightly
Ġde hydr
arin a
pack ed
Ġadv ance
ĠGran ola
wal nuts
ĠHumm ingbird
ĠEarth quake
Ġch owder
ĠB erry
Ġsh oyu
ĠMix ed
ĠG ingersnaps
ĠJ ew
ĠBe gin
Ġmelt ing
ĠFl akes
ĠHam burg
ĠSour dough
ĠCrisp ix
ĠAn y
Ġsecure ly
Ġres ults
Ġesc ape
ĠSim ple
a que
f ine
g i
h o
m ushroom
m ade
Ġm at
Ġm em
ĠB ig
ĠP ilaf
Ġsh iny
col ored
ĠSt arter
sc i
Ġkn ives
Ġench iladas
Ġrep lace
ĠWa it
ugg ets
ĠMount ain
s ee
Ġc all
il ar
Ġfl uted
ĠA v
Ġh ome
Ġco gn
ĠW edding
ĠSp onge
umb er
ĠF ree
ent ucky
ĠMo cha
Ġbut t
ĠDo g
Ġtow ard
cr ushed
ĠGrand m
ĠPo or
Ġdistrib ute
ĠHal ve
ĠCas hew
Ġcogn ac
f tened
Ġp esto
Ġm al
Ġw atch
or i
Ġfl oat
ĠR abb
Ġco ats
ĠH el
Ġ13 0
ĠWor ld
Ġop aque
Ġcor kscrew
Ch icken
Ġsw iss
rem ove
Ġdefrost ed
Ġprod uc
Ġpip ing
ĠNab isco
ĠRabb it
g r
r us
t ime
w ick
Ġc oll
ĠC arb
ĠB ea
ĠB ites
Ġun pared
ĠA head
ĠF ant
ars n
ĠWh ipped
ĠN umbers
Ġspoon s
Ġtub es
ĠFrost ed
Ġfile ts
ĠTre ats
Ġhull ed
Ġmal let
Y ields
b atter
b aking
c heese
g ur
r one
Ġ els
le e
ĠC alorie
el le
ĠB one
Ġst ep
om m
Ġ4 6
Ġsh aking
ĠR aw
ĠL amb
asser oles
ĠG o
est rone
ĠJ an
ĠMo st
Ġwa it
ĠBe er
so ftened
uns wick
Ġreach ed
ĠSouth w
ib ut
ĠTender loin
Ġsaff lower
Ġtast es
sci ut
O T
a ith
d y
p ie
Ġs ink
Ġf e
ĠC ap
Ġsu per
Ġl o
Ġpe ek
im p
ough t
Ġk inds
ĠK entucky
bl ack
ĠBroil ed
Ġabsorb ent
with out
ĠBur ger
Ġcontinu ously
ĠThin ly
Ġimp ortant
ĠRock y
ĠLen til
Ġels e
c alorie
f ir
p art
t w
w rap
Ġb undt
Ġp uffy
Ġm ill
ĠC oles
ĠP rim
ĠM orning
Ġle g
ĠD anish
ĠW aff
ĠF ashion
ĠF estive
ĠH ush
Ġdrain ing
ĠBr unswick
Ġgran ola
und les
ĠRo ad
Ġhor iz
Ġrot ating
Ġtouch ing
ĠCra zy
ĠColes law
R a
W h
f oil
f etti
s kin
t ain
Ġb elow
Ġe le
Ġst ream
ad ian
Ġth inner
ast ed
ĠCh unk
Ġsp onge
ves t
ber ally
ore n
ĠJ oe
oc kets
ĠDe an
ĠTw in
ĠTw ist
Ġmeas ured
Ġmon th
ĠMan icotti
imm y
ĠTast es
Ġear ly
Ġdisapp ears
dep ending
B utter
S weet
a x
g y
i or
y n
Ġs na
Ġb ra
Ġch ampagne
ing ton
gar nish
or tening
or iz
is bury
Ġh azel
ĠM ade
ĠD uring
amon d
Ġal ways
ĠSal isbury
Ġcher vil
Ġturn ip
ĠGr ated
Ġcres cents
ĠSc ore
ĠMin utes
ĠCl ub
ĠTw ice
Ġprefer ably
Ġopen ing
Ġtast y
Ġdr um
ĠDoll ar
C al
J ell
M o
g ing
t Stir
Ġc asseroles
Ġs izz
an ese
es h
Ġf alls
Ġin t
Ġa corn
ĠR ap
ĠW il
ĠF ix
ĠCook ed
ĠH ill
ĠH alf
sh ine
Ġsl ushy
Ġex act
ĠU p
Ġcauliflower ets
Ġherb ed
ĠNut ty
Ġgo es
Ġlee k
Ġpal m
ĠPu ppies
ĠGu acamole
ĠEle g
aver a
ĠLef tover
Ġdehydr ated
sciut to
4 00
L ayer
b b
s et
an a
Ġb ologna
and a
Ġf riend
is ter
ch ange
ĠD efrost
ĠW estern
ĠG et
sh ip
ĠE d
ĠE sc
Ġen rich
elat in
Ġdirec tly
ĠCho ice
ĠDe er
ord en
ĠInd ian
sk im
Ġsim ilar
ĠRellen os
B atter
Ġp arsn
re ts
Ġf aith
or ange
it ic
Ġpe t
ĠB ottom
gg y
Ġv eg
Ġn eck
ĠSt and
ĠF ingers
ĠE ye
ĠJ immy
per ial
aff y
Ġind ent
ĠIm perial
cho colate
Ġindivid ually
Ġdep th
ĠPl um
ĠStart ing
Ġtray s
ĠSec ure
ont ally
3 00
A pple
M in
e ady
f ried
Ġp arch
on ion
Ġf ries
Ġf ancy
Ġ2 9
Ġsu p
Ġa while
ĠS ix
ĠB ag
ĠP ink
is ters
Ġso le
ĠL arge
ĠG en
Ġpec k
ĠSa ucy
Ġus ual
ĠCan adian
ĠTort ellini
ĠBur ritos
ĠShe ph
ĠStick y
ĠShort cake
Ġins ides
ĠPrim avera
2 6
O ne
g ers
Ġs lee
Ġ2 6
ĠS and
ĠB rie
ick le
Ġun mold
to gether
Ġsa ved
Ġgr oup
ĠD r
Ġju icy
ap anese
ĠL ittle
ĠL iver
Ġ12 0
Ġpl ump
ĠE aster
Ġup right
Ġthick est
Ġfin al
10 5
Ġqu ail
Ġstal e
ark ling
ĠBis que
Ġneed s
ĠSc ones
Ġinser t
ĠMin ce
ĠMuff in
ĠRa isins
ĠPick le
Ġdel ic
ĠWal nuts
ĠMold ed
ond on
Ġpull s
Ġcombin ing
ĠWatch ers
Ġchild ren
ĠGrandm other
Ġenrich ed
N ot
b eat
b ack
c emeat
t S
v itic
Ġc ould
Ġw ing
Ġsu ey
Ġg el
ĠB its
ĠB orden
un sweetened
ĠT eriyaki
Ġv ary
ĠA d
Ġcr unch
st rawber
ĠSp ring
Ġbl ocks
ĠH old
Ġapp ears
Ġpap ers
Ġthick ly
ud e
Ġagain st
alor ies
ah ini
Ġshall ot
Ġscr ubbed
Ġscr ambled
ĠTang y
ĠPers immon
Ġmat zo
Ġmem bran
Ġhoriz ontally
ĠRap id
P ec
g ot
p acho
s ter
Ġt ry
Ġo val
Ġm achine
Ġf eed
sp ray
ĠC rowd
ĠB aby
Ġst retch
Ġbro ad
ĠD ilute
Ġre g
ĠL ondon
Ġex cellent
ĠMel ba
ĠCar ne
az pacho
ĠSo y
Ġbeater s
Ġeat en
gin al
Ġdeve in
ĠPretz els
ĠAm ish
ĠBon n
It alian
ĠHar vest
Cho colate
Ġint act
vitic us
Pec an
- -
3 5
A l
e an
k eep
Ġt ong
Ġt aken
le ave
le ase
ĠC av
ĠS ure
Ġl ose
ac es
Ġst ar
sh arp
iz es
Ġjell ied
ĠBe ets
ĠDo gs
ĠDel ights
ĠMin cemeat
wh ich
Ġbul gur
ĠPro sciutto
ĠRom a
ĠSm other
Ġris es
ĠSheph erd
C orn
R ise
d ew
e en
e ach
f a
i ke
l ap
m m
w heat
an ted
il ver
Ġin c
ĠC alories
Ġd irt
un baked
Ġv e
Ġfor ks
Ġr ubbed
Ġco le
ĠI da
ĠL obster
ĠG azpacho
Ġk iss
ĠE v
Ġpack s
ĠN OT
Ġdes ign
Ġsc iss
Ġpick led
Ġtw ists
co al
ĠFl oren
Ġtin foil
ĠScr amble
Ġjulien ned
tP our
ĠSwans on
ĠPier ce
Ġproduc t
ĠWaff les
Min ute
Ġsup reme
P ineapple
p ut
an ger
Ġo melet
Ġm l
Ġw inter
ĠC ord
ĠB irds
ĠP icante
Ġbe verage
uc key
Ġsh ow
ĠCh ar
ĠW acky
qu id
ain t
Ġcrumb les
ĠJ oy
Ġend ive
ĠMon ster
Ġequal s
Ġtri fle
Ġster ile
Pot ato
Ġdecor ation
ĠSnick ers
ĠShort bread
Ġrunn y
Ġcontinu ing
Ġhazel nuts
A pp
G reat
S h
S w
w rapped
y es
ic ally
ĠC ider
as ts
Ġcheese cake
Ġst eel
Ġr icotta
ĠH ollow
Ġcon verted
Ġser ves
Ġhoney dew
Ġbre w
Ġpo d
Ġdri p
Ġflat tened
Ġprun e
Ġdiscard ing
ĠJer ky
ĠSun shine
ĠFettuc cine
ĠBuff alo
Di abetic
Ġexact ly
' re
c ous
t ine
il a
and el
Ġch oriz
ĠB ush
ĠB arb
Ġfl u
Ġfl ip
ĠT acos
ri pe
Ġsh elf
ĠR eal
ĠCh uck
im um
ĠL or
ĠL ima
Ġbread s
ĠG all
ĠO ut
Ġpour ed
Ġhe art
Ġli berally
Ġpeel ing
Ġfin d
Ġcur ly
sa iah
ĠFor got
ĠCon fetti
Ġcas ing
ĠWa fer
Ġequ ally
ĠForgot ten
B l
\ .
c on
c al
in ess
Ġw he
Ġto st
ĠC atfish
Ġd ilute
Ġsugar ed
Ġv ent
us k
ĠW ish
ip es
ĠF ajitas
ole o
ĠH ard
ĠG elatin
em p
ĠJ apanese
Ġpeel s
Ġice box
Qu ick
ĠMeat ball
Ġany thing
Ġback fin
Ġbroil ed
Ġac id
Ġknead ing
Ġsteam ing
ĠHom iny
ĠRot ate
Ġfast en
ĠEleg ant
Ġparch ment
Ġsciss ors
g rain
Ġm ot
Ġm acaroons
Ġf ondue
ĠT own
ien ce
ef in
st uffed
ĠF ull
anan as
ous cous
ĠQu es
ĠMon de
Ġjelly roll
Ġflower pot
Ġwon ton
Ġman uf
Ġskew er
Ġchar coal
Ġho isin
Ġparboil ed
ĠJew ish
Ġcall ed
Ġflu id
Ġmanuf act
v anilla
Ġc rowd
Ġm outh
re ath
Ġch oose
or der
as ant
Ġ3 70
ĠS ue
ĠB ourbon
et h
.) .
Ġwh ere
ab l
ef ish
qu ef
ĠSt ep
ash ell
ul t
ress ion
Ġup on
ĠBl ossoms
ĠTh ank
ĠN achos
rop ical
af ers
Ġget ting
ĠOri ginal
Ġ23 4
Ġdist illed
Ġsom etimes
Ġpier ced
ĠAv ocad
ĠMost accioli
Ġele phant
Ġmanufact ur
G ood
V ery
a is
g ian
i ar
Ġt uck
ĠS uc
Ġl uncheon
ĠB ut
ĠP aul
ĠP izzas
ĠT sp
ad o
Ġcr isco
Ġj un
Ġso ggy
Ġth row
Ġsm ashed
Ġx xx
Ġro ck
Ġpre vi
ĠY ams
Ġqu ant
Ġcontain ing
ĠDo zen
ĠWash ington
ĠScallop s
Ġprefer ence
Ġrese m
.. .
ĠFil lets
ĠGoo ey
uv res
len da
Ġparsn ips
ĠRapid Rise
ĠSmother ed
ĠCord on
a o
b ut
d own
g l
p let
es ts
Ġm aker
il t
re ng
le ans
ĠC it
it o
Ġg oose
Ġl unch
Ġsalt y
ac c
ĠT affy
Ġv elveeta
ĠCh oc
col or
ien t
ĠF oil
sh aped
Ġcrack s
Ġra vi
av a
Ġtender s
Ġtender ness
Ġli king
ĠY our
ĠBe et
ĠSl it
Ġcontain s
Ġhand ling
Ġpart ies
Ġper iod
ĠDi et
app les
uch en
Ġgrill ed
clu ded
ĠTot al
ĠFloren tine
reng th
Ġravi oli
a vings
i pping
m ber
u gs
Ġb ush
Ġf rench
Ġw anted
ĠC ereal
it ely
Ġg izz
ĠB un
ac ing
ĠP ace
ĠP arm
ĠT en
Ġv inaigrette
ol f
Ġn achos
Ġsh avings
ĠD O
ĠD ole
ĠD ew
col d
ĠW afers
Ġse m
Ġsm ok
ĠF ondue
Ġhal ibut
Ġcover s
ĠIt al
ĠCorn meal
ĠSe lect
ĠOr leans
Ġwork ing
ĠBlond e
G r
l t
l on
s to
t Mix
Ġs at
Ġd ra
ĠS ome
oo ps
ĠB us
ĠM ust
Ġcr imp
ve get
ĠR ye
Ġr are
Ġcar bon
Ġal one
ĠTh row
ĠChe ws
Ġbr ittle
Ġbr isk
ĠUn wrap
!! !
Ġmet hod
Ġsection ed
ĠTast y
ĠWon derful
ĠCarol ina
Ġreg isters
efin itely
Ġresem ble
b ite
Ġc our
er ne
Ġt ines
es is
Ġp ale
Ġm icro
Ġch ange
ĠC rispies
as ing
it ies
Ġsu ff
Ġg as
Ġsalt s
ĠB oy
Ġfl esh
ĠT ry
ĠR uth
ĠH i
Ġpl ant
Ġsqu ir
Ġsweet en
ew h
ĠTh at
ĠPe ek
Ġstand s
Ġsc ra
ĠRo quef
Ġscall op
ĠEgg nog
egg s
ĠCol ada
round ed
igg er
ĠKid s
rad itional
Ġdrum sticks
Ġmanufactur er
ĠRoquef ort
' ll
B aked
E gg
c over
h ard
n old
t Sp
an ks
Ġt ahini
ar ro
ar ole
Ġm ine
Ġm ight
il le
Ġf rit
pp os
Ġin cluded
Ġe ye
Ġg ame
ĠB av
ra ine
ch erry
ri ps
Ġr inds
ĠD eath
Ġsp arkling
ĠSp lenda
ĠH oll
ĠIn stant
est yle
ĠK abobs
Ġlett ing
Ġsc ore
Ġevapor ates
ĠStrawber ries
ĠMin estrone
Ġac ini
Ġtowel ing
Ġsteam er
ĠBar ley
ĠWork ing
ĠPin to
ĠWe ight
Ġwe ight
Ra isin
Ġslee ve
ĠLor raine
ĠAvocad o
E asy
R itz
Ġm ussels
ĠC or
Ġ2 7
Ġe ff
ĠB ananas
ĠP ina
Ġun roll
Ġv egetarian
Ġcream er
Ġn umber
Ġmar k
ĠCh olesterol
Ġ5 7
me mber
Ġcar e
em ber
ĠE sp
tr act
Ġcolor s
uck le
Ġcann er
ĠTo pped
ĠLe viticus
Ġpro ced
ĠFl ip
ĠSc rip
Ġfil o
Ġind efinitely
ĠSm all
aj ita
pec ially
ĠCucumb ers
Cr ust
hydr ate
ĠOys ters
Ġsna pper
Ġindent ation
abl is
ĠCit rus
ĠParm ig
ĠItal iano
ĠBav arian
" )
4 8
B one
D on
H igh
M ar
S ugar
b ook
c he
d iced
f old
h er
l er
p ound
s our
s lightly
t R
t ou
Ġc ouscous
Ġf ound
Ġw id
Ġl imes
ĠT ropical
ra ight
um e
um n
Ġj oin
ĠCh erries
ĠF ud
ĠF unnel
Ġdry ing
Ġk ale
ent he
ĠV irgin
ĠSh erry
Ġchill i
12 0
og en
Ġpound ed
Ġbroil ing
Ġcirc ular
ath y
ĠPh illy
St uffed
Ġscrap ed
Ġwon derful
Ġbur rito
Ġdamp ened
ĠGraham s
ĠPowder ed
ĠSaut erne
ĠPorcup ine
gr ated
Ġgizz ards
Ġcarbon ated
Ġproced ure
ĠScrip ture
b ons
m ake
m ly
n ier
Ġ =
Ġs izes
Ġl a
us ters
ĠM acaroons
om ato
Ġsauce pot
Ġsp iced
im ent
ĠI saiah
if orm
ĠL ite
Ġbread sticks
ĠH ome
ĠSer ving
Ġex change
ĠE tou
ĠV inaigrette
Ġstand ing
ĠSaute ed
Ġspoon ing
ser ving
Ġpinch ing
pl us
Ġpat ience
ĠCan ned
Ġcons ider
Ġstem med
Ġskim med
ĠPet e
Ġwhisk ing
ib b
ĠFin ally
Ġomit ting
eath er
Ġstor age
ĠGeor g
ĠBonn et
fa it
ogen ized
O range
S a
V egetab
a fter
g ran
l uck
p owder
t D
t or
Ġ read
in ce
Ġs ilk
Ġt ied
Ġb u
en e
Ġf ig
Ġf ruc
am els
ac ao
is weet
Ġh um
Ġst op
to se
up s
ĠR ain
ĠCh utney
ĠCh ablis
Ġr ather
im an
ĠF inger
ough y
Ġsl ush
ĠO regano
ĠJ ar
Ġturn ed
ĠAr m
Ġim pro
Ġconcentr ated
cl ude
ĠCro quettes
ĠMar nier
Ġkind ness
ĠCom plet
Ġbur gers
ĠFran ks
Ġhollow ed
Ġsom ewh
ĠHo bo
pr int
ĠFant asy
ĠIda ho
Ġsuff ic
Ġfruc tose
C ream
M ake
a gg
c le
d eep
s oup
z il
Ġp ol
Ġp ockets
Ġf ix
ic a
le af
ĠS ub
Ġfl uff
Ġun iform
ill ing
ĠA ut
Ġh ouse
Ġst rength
Ġsa fe
Ġth ing
ĠD ark
ĠW et
Ġju g
rink les
ĠCream ettes
Ġdough nuts
Ġdough nut
ĠJ if
ĠJ umbo
Ġkid s
Ġ16 0
Ġhand fuls
Ġbring ing
Ġpart icles
Ġsift ing
Ġscal d
ĠSm ok
ĠDill y
ĠSec rets
ĠFettuc ini
Ġpier ce
anda ise
3 1
; \
A merican
L ime
O n
e er
Ġm ul
Ġa j
Ġg old
oo t
ad ine
ĠW edges
ĠW inter
Ġse ashell
qu ila
ĠF riend
Ġhot ter
sh ould
Ġal together
Ġminc e
Ġsmooth ly
ĠRoll ed
Ġri p
Ġpick s
Ġhand led
Ġdi amond
ĠAl a
Ġne ver
Ser ve
Ġwra pper
ĠNe iman
ĠLast ly
Ġfinger t
ĠBra zil
uckey es
Ġjun ior
Ġsem isweet
ĠGeorg ia
I nch
f ollow
h an
n er
Ġc ase
Ġs ilver
Ġt ater
Ġm ush
al mon
le mon
Ġg ent
ĠP ass
ĠT akes
ill i
ra isins
Ġst raight
ĠR ey
ĠD ep
Ġbo dy
im ate
ap er
ĠH a
Ġro pe
Ġpudding s
ĠK et
ĠPe ople
ĠRo y
ist rib
Ġrec omm
stit ute
ĠCrumb s
ĠDri bble
Ġdep ends
ĠToast ed
Ġass em
ĠCres cents
Ġes pecially
Ġbas ic
ĠSnack s
ĠTre at
ĠEv ans
Ġbrew ed
ĠEtou ffee
ĠRain bow
Ġsomewh at
ĠRey nold
F rench
Y um
c us
h ol
s ifted
an uts
Ġm atch
re ak
sp read
Ġe yes
Ġd ec
Ġl adle
ĠP esto
Ġfl o
Ġmin us
ch i
Ġsh ank
ĠSp eed
Ġcorn er
ap es
os ition
Ġsl ight
ĠO w
ĠO le
ĠO ats
ĠE ven
ĠE very
ĠE venly
ĠK ielbasa
ĠK uchen
ĠTh ere
issol ved
Ġsc oops
Ġpick ed
ĠCar amels
Ġuns liced
Ġhamburg ers
Ġdoub les
Ġhom ogenized
ĠPan cake
Ġgo ing
Ġdecor ative
ug u
Ġesc arole
Cook ies
Ġholiday s
ĠBea u
Ġxxx x
Ġconsider ation
ĠReynold s
1 10
i as
i ra
m akes
w arm
Ġo ur
es law
Ġp rop
sp rinkle
ro of
ĠC rinkles
it al
Ġd red
ĠS ex
ĠB undles
ĠP ate
ĠP ep
Ġv ol
ĠM ark
ĠCh est
Ġsp ins
ĠL ush
Ġal f
Ġsl ab
ĠV ien
ĠV egetarian
ĠGr am
Ġcann ellini
ib by
alf a
Ġ23 8
flour ed
ĠPic nic
Pe pper
ĠSouthw estern
tw o
ĠChunk y
veget able
Ġbrisk ly
ĠHoll andaise
istrib ute
ugu ese
( "
) *
b led
l in
p ineapple
at el
and ing
ro l
ro ck
ĠB ubble
un ks
Ġun seasoned
Ġmin s
Ġst eady
Ġn ine
red ded
Ġsh anks
ĠD ad
ĠD uck
ĠF ool
ĠF ancy
ĠG od
Ġab le
ant a
ore an
ĠO ther
ĠJ u
ĠV erm
Ġare a
ĠChe w
ĠN ana
Ġsc rew
Ġcol eslaw
ĠMin ts
ĠKra ut
ĠHell o
pre pared
Ġcre ate
Ġpal ms
ĠPu ppy
Ġcoll ard
spray ed
Ġtong s
Ġeff ect
ĠParmig iana
ĠVirgin ia
ĠSpeed y
Ġvol ume
Ġalf alfa
P re
P am
_ _
e ver
i ber
l ite
m o
p or
t B
Ġm enthe
ter y
ĠB ill
Ġst eep
Ġst uck
ri en
ĠD istribute
ĠF ries
ĠL ily
ĠG umd
ff e
ff les
Ġcl ing
Ġhal ve
ec ipe
ĠBl anch
ĠY am
Ġother wise
Ġcont rol
reez e
ail y
Ġrec ipes
Ġdel uxe
Ġvegg ie
Ġfit ted
ĠSun da
Ġcryst all
Be an
Be ef
Ġte quila
Ġrequ ired
gi ving
strawber ry
lt imate
sto ck
Ġfrit ters
ĠAut umn
R ecipe
a ut
h al
s on
Ġo ppos
Ġb ought
Ġp res
ro ot
it an
Ġd aily
us ci
ĠM aster
ĠM icro
ook s
to ps
Ġth ough
ĠR ose
st anding
ĠSt ar
ĠF it
ĠIn n
Ġex p
oc onut
ĠN uggets
Ġen cl
Ġpro of
ĠSeason ed
ĠFruit ed
ĠCon go
Ġdro pping
ĠGl or
ĠStro mb
ĠWheat ies
ĠPl ay
Ġstring s
ĠSteam ed
Ġpine apples
ĠFettuc ine
Ġthread s
Mix ture
Ġsauc er
ĠJohn ny
ĠRos emary
Ġfe et
ĠGen esis
Ġbush el
Vegetab le
Ġgent le
' ve
C ool
c ub
i ger
o pped
r at
Ġc al
Ġ1 10
Ġp ic
on ly
ou ille
le vel
Ġ2 60
am ount
it ting
Ġpe pe
he asant
ac ular
Ġun wrapped
Ġh a
Ġh us
om etimes
ch uck
ri f
Ġso aking
ĠCh ipped
Ġsp l
Ġsp ots
ef lon
we gian
Ġk ing
ĠO R
ĠPre p
Ġsalad s
Ġwa ffles
ĠSh ortening
ĠU ltimate
ĠButter nut
Ġcur l
Ġbr ick
Ġsec ret
Ġhard ens
ĠBeef y
ĠFl oat
stit uted
ĠNut meg
Ġper fect
ĠCl oves
ĠCrisp s
ĠCol or
ect acular
ĠAn t
ĠPl an
ĠPl us
ĠAlmon ds
ĠEx tra
ĠFir mly
whe el
ĠBra ised
ĠThan ks
yl v
Ġchoriz o
eth ing
Mar cus
Ġsuffic ient
ĠKet chup
ĠOw ens
ĠGumd rop
D ish
O e
O ld
c er
s al
w ood
w ard
Ġ iced
an ia
Ġp li
on a
am arina
Ġg olf
ĠP im
Ġh er
Ġcan e
Ġgre n
Ġwh iz
ĠSp ectacular
ĠSt raw
if ter
Ġwhit efish
Ġcon ven
ĠCover ed
ĠCr isscross
ĠK u
ĠTh umb
ĠTh yme
ĠSh erbet
Ġchill ing
Ġcrab s
Ġpinch es
ĠSto p
Ġstock pot
ĠMarin ara
Ġsn ap
Ġrot elle
ĠTort illas
Ġstack s
Ġbur ritos
Ġdecor ating
ĠPark er
ĠMini ature
riz e
ĠRound s
au gh
ĠBo x
ĠHill shire
Not e
Ġmembran e
Ġquant ity
ĠChoc o
Ġfingert ips
ĠThanks giving
! ).
C ol
a ur
d ark
r ami
u ke
Ġs ifter
Ġb uy
ut ure
Ġf if
Ġf ajita
Ġf uture
Ġch anges
Ġw ipe
or es
or por
ĠS anta
ĠB our
ĠP reser
Ġmin imum
ĠM am
om ar
to sh
ur st
ĠSt rips
ĠF le
ven der
ass ail
ĠL ee
Ġsour ce
ĠH er
Ġcar bo
Ġdish pan
Ġis n
ĠTh ins
Ġginger bread
ĠCorn ing
oss um
co hol
ĠTo fu
ran ging
Ġac ting
Ġscal ding
Ser vings
Ġfrost ed
ord fish
ĠOp tional
Ġlit ers
ĠLi ke
Ġdelic ately
App etizer
Ġrecomm ended
usci ous
B rien
G l
O p
O atmeal
S ave
g an
h ouse
l ayer
p ly
t to
w d
Ġc ured
Ġb ud
Ġp en
at i
il s
on stituted
al ity
ĠC enter
ĠS ol
ĠS ilk
ĠS ens
ĠB uckeyes
ĠP rize
is ch
ĠT arragon
us ed
Ġcho pping
ch atel
ĠCh i
ĠCh il
ĠD olly
ĠSp routs
Ġju iced
Ġse em
ven ess
ain less
ĠL ace
ĠL ibby
ĠG ather
Ġcar ob
Ġshred s
Ġole omar
est ring
ĠK risp
Ġfin ally
ĠN ight
ray fish
Ġsc atter
ĠButter cream
Ġq ts
fection ers
ĠDo es
Ġtub s
Ġpr al
Ġdump ling
ĠPl ain
Ġscr ub
ĠHor s
ĠRuss et
ĠFran k
Ġdistrib uted
Mex ican
ori da
Ġveg ies
gl ass
acc ording
ĠFud gy
ital ini
ĠSunda e
Ġoppos ite
Ġoleomar garine
B est
N oodle
U n
b anana
h erb
i oli
n eck
r ice
r ano
w urst
Ġt end
Ġt acos
Ġo b
Ġp ray
Ġm ess
at elli
re al
Ġf un
Ġch urn
Ġto ts
or iginal
Ġa verage
Ġ3 8
Ġd ots
ĠS ort
ĠB el
ĠT eflon
ĠA sp
us ing
Ġn uggets
th ird
Ġr oughy
ur ry
ĠW eek
Ġre ar
Ġy ears
ĠCook er
ers ion
Ġbl ossoms
ach er
sh redded
ĠO wn
ĠBrown s
Ġsoy a
Ġstand ard
Ġspread able
ĠPot luck
ĠBr ickle
Ġcomp ressed
co ated
fl ake
ĠSe ar
Ġdri bble
ĠFl orida
ĠPepper mint
ĠAl as
Ġgrain y
do bo
Ġits elf
ĠCre pes
umm ettes
ĠCom stock
Ġgo at
ĠAm os
ĠBon bons
Ġtam ari
Ġhel ps
ĠPorcup ines
ĠHel en
skin less
Mo ist
Ġinc orpor
andel ion
Ġprevi ous
ĠStromb oli
Ġpli able
. ;
C l
C he
C rock
E x
J ack
L et
M e
b r
d ivided
h oney
m ust
t ata
Ġ Q
Ġt on
Ġp urch
ĠS op
ĠS na
ac ed
ĠT ips
Ġbutter f
Ġh ad
Ġcho y
Ġst ainless
ts ugar
wn s
Ġth ose
Ġgre asing
Ġover lap
ĠR est
ĠW el
ĠW assail
Ġre lease
im ents
Ġse lec
qu arts
qu arter
Ġy et
Ġbeef y
ĠL uscious
ach es
ĠH and
over night
ag a
Ġmeat less
ant ime
ĠPre cook
Ġmash ing
Ġri d
Ġgl oves
Ġsepar ating
arin es
Ġcro ok
ĠFl ank
ĠGre y
Ġsubstit utes
ĠCont in
uns alted
Ġfil et
ines ap
Ġunder standing
Ġgi ves
ĠDon uts
Ġ17 0
ĠNor wegian
Ġzest y
Ġfrankfur ter
Ġscr amble
Ġomit ted
ĠFrit o
Ġcre pes
ĠSnow ball
ĠTr uff
Ġmango es
ĠLingu ini
uf chatel
ĠMade ira
ĠChar l
Ġmot ion
ĠBus y
Ġcour se
Ġscra ps
gran ulated
ĠComplet ely
ĠFriend ship
ffe ec
rat en
Ġpic nic
Ġgren adine
ĠFle isch
I da
M y
R o
W e
Y ield
h om
n am
t T
u es
u erb
on z
on uts
ou d
ĠC ast
Ġd ef
ĠS an
ĠB ak
is quick
Ġh ang
us illi
all ions
Ġbak es
Ġsh aker
Ġth ink
Ġat t
th at
ĠR anger
ie ved
ack er
col ator
ĠF ig
Ġ6 4
ĠL in
ink s
Ġcoc onuts
ĠH azel
Ġro w
Ġcl aw
Ġex ten
Ġtender ized
Ġpl ay
oil ed
ĠJ umb
Ġtab asco
ĠChe f
ĠN ice
ĠN ancy
ĠY ear
ĠSh oo
row root
Ġprepar ation
Ġaddition s
ext ra
Ġar rowroot
Ġ24 0
Ġpat ted
Ġfold ed
reser ving
ett a
for d
irt y
Ġcaramel ized
boil ing
ĠMar ble
pro cess
crumb led
atur ated
be an
Ġgu ests
rid e
Ġsqueez ing
ĠScr ambled
rec t
Ġcontin ually
Ġcre pe
tC over
imm ers
ĠPort uguese
ĠFast en
gi veness
ĠCarb on
ĠFool proof
Ġcrystall ized
ĠKu gel
ĠPreser ves
uerb raten
G ar
H e
a ire
b est
g all
p opped
u ra
Ġ )
Ġs ac
Ġs immers
ar ing
Ġp izzas
ut ab
Ġf ur
ĠC ola
Ġd italini
ĠS ally
ra Sweet
til age
ell y
Ġn orm
Ġ4 2
Ġgr ater
ĠCh ampagne
ur key
Ġbo k
ĠSt rip
op e
Ġcon d
Ġcl ings
ĠJ ean
Ġit alian
ĠK orean
Ġpre baked
ĠSa uerbraten
ĠPe anuts
ĠBread ed
Ġqu ality
ĠCho y
erm its
og i
Ġrec onstituted
ivid ual
ĠZ iti
ĠFruit y
ĠUn baked
Ġdi ppers
ĠLemon ade
ys tery
Ġbul b
Ġpop s
ĠCrush ed
Ġgrill ing
add ed
ĠCrust y
Ġfettuc cini
Ġplac es
ĠPl ant
Ġnect arines
Ġ23 6
Ġbri ght
Ġcryst al
Ġcounter top
Ġsho estring
ĠJan e
fir st
Ġscallop ed
ĠHa ppy
ĠVien na
ĠVerm icelli
ĠChew ies
Ġencl ose
ĠPlan ters
Ġfif th
ffeec ake
ĠFleisch mann
gall on
. '
F ly
V elveeta
b and
s alted
s ylv
t with
t rem
Ġo re
Ġp are
Ġp ile
Ġp aint
Ġm ic
il ian
en ted
ou da
ou ff
Ġf arm
Ġf ield
Ġf eel
Ġin verted
it er
Ġd ressed
Ġl ife
ĠB udd
ĠB ible
ge burger
is ette
ĠT ap
ill o
ĠA ss
Ġh ere
us c
ot o
uc ks
Ġat tract
ĠD ec
Ġse ar
ĠSt ring
ĠL ove
Ġheat proof
me asure
Ġcar tilage
sh ell
li ed
ĠBro th
ĠSal ami
ĠBl ender
Ġus es
rop roof
Ġacc om
Ġherb al
ĠUn der
ation al
Ġhor s
Ġcrock pot
ĠPat ch
oy a
Ġpinto s
ĠDor ito
allop ed
ĠGl ass
ĠTw enty
ĠBur rito
Ġbit ters
Ġlook ing
ĠDirt y
Ġrib bon
ĠSec ret
ĠHeal th
ĠTr ash
ĠPenn y
Ġsom ething
Ġcheck ing
Ġfe els
ĠSuc cess
Ġsat iny
ĠRoy al
Oe uvres
ĠStraw s
aur ant
Gl azed
sylv ania
Ġmic roproof
C ut
D el
H am
M on
S oup
e qual
e ither
f itting
l ast
l ers
l oaf
Ġ ess
Ġc acao
Ġb ibb
Ġm en
ut ing
on ath
al so
ic ama
ĠC ab
ĠS in
ĠS ize
Ġl augh
ĠP oup
ĠP ur
ĠM ystery
om an
Ġfor giveness
Ġ4 3
ĠW are
ĠW agon
ĠW inesap
ĠF e
Ġcar ne
em i
Ġk ahlua
Ġbag els
Ġbou quet
ĠWith out
Ġcomp le
ĠCo ffeecake
Ġgarnish ing
ĠNut raSweet
Ġelbow s
ĠSepar ately
Ġret ain
ĠWill i
ty pe
ĠHom estyle
Ġdust ing
ĠRot ini
ĠFrit tata
ĠMc Butter
Ġspir als
ĠVegg ies
In tosh
Ġappear ance
Ġreplace ment
Sw iss
Ġwhe el
arro ts
Ġprop er
Pepper idge
ĠGlor ified
Op tional
ĠPoup on
) (
2 50
4 50
D ough
H ot
I ts
P ro
e ter
i ole
n ie
o pping
s el
s qu
t b
Ġt il
Ġp u
Ġf iber
ic ilian
ĠC am
as to
ĠS us
ĠA le
ad es
et ic
th en
th ick
Ġr utab
ĠD ifferent
ĠW ell
ĠF ri
Ġro se
ies t
ĠWh ipping
Ġcut let
ul ous
li quid
Ġsof ter
ĠN illa
Ġcom pany
Ġpast rami
Ġdirec t
Ġgran ular
ĠFl ounder
ild ren
ĠSweet en
bl end
uns ifted
ĠRe qu
Ġdep ression
ĠMar z
Ġscoop ed
bro ken
unn y
ingersn ap
tC ook
unc overed
min utes
ĠGeor ge
ĠSouthw est
fir m
ĠLeftover s
ĠCav iar
Gr and
Sa usage
almon ds
Ġspl ash
ĠAnt ip
ĠAsp ic
ĠCarbon ara
onath an
4 25
5 5
A r
B Q
W ith
o am
t add
t until
x tail
Ġ ut
Ġ rain
Ġt arts
Ġb uck
Ġp ort
re ck
al i
ic le
ĠC ant
ĠC ilantro
Ġe ase
ĠB BQ
ĠP i
un g
ĠT ra
ĠT rout
Ġh ush
ĠM acaroon
ver ly
Ġst ars
Ġst opping
ell er
om a
ir es
et hod
ie v
ab ulous
Ġsp ear
ĠW reath
Ġre n
st ems
im in
ĠSp ry
ĠF abulous
ĠL ady
ars hmallow
ĠG ouda
Ġcrack lings
Ġk abobs
Ġsl ide
Ġrais ed
Ġtender ize
ĠE ither
ĠPe ars
Ġbr unch
Ġstiff en
ĠGre ens
ĠUn cooked
ĠCon fectioners
Ġmarin ating
ĠAl ways
Ġ14 0
Ġsurf aces
Ġros amarina
ĠStew ed
Ġfour th
ĠCl usters
ĠRe member
ĠRom an
ĠCrust less
Ġshort bread
ĠWater melon
Ġdamp en
ĠPenn sylvania
iod ized
Wh en
Ġsizz ling
Ġpet ite
ĠBarb ara
ĠGall iano
ĠQues ad
Ġmul ti
Ġhus ks
Ġcrook neck
Ġattract ive
Mon terey
ĠAntip asto
C auliflower
F l
F illed
b ably
d issolved
h a
m y
o ise
s eed
Ġ arm
Ġc rayfish
in om
Ġs and
Ġs we
an na
Ġb ass
Ġb uff
Ġb undles
Ġm ugs
Ġf ar
Ġf arina
it ter
ĠS icilian
Ġg in
Ġg ift
Ġpe g
ion eer
ĠP it
ĠP res
ĠT raditional
ĠA gain
ĠM ild
ĠM olly
Ġbe aut
ad os
ch anges
Ġsh oe
Ġco bs
ĠW ar
ĠL op
Ġcon es
ber t
ĠCool er
ey e
ĠCheese cakes
ĠSl ide
ĠTurn overs
Ġchest nut
roxim ate
Ġcro quettes
Ġhard ened
ĠFor est
ĠCo d
Ġhigh est
ĠSc ott
sc ar
ĠCon c
ĠCon densed
ĠCan apes
Ġme antime
Ġgarnish es
ĠDiv ine
for t
ĠFarm s
ĠApp roximately
ĠRe ally
od us
Ġtri p
sm ooth
Ġway s
Ġcurd le
ĠNe ufchatel
pec ted
ĠMan wich
Ġdecor ated
ĠSuper Moist
Ġperson al
Ġcav ities
tC ool
Ġsuit able
ĠJud y
Ġlift ing
Mo zzarella
ĠEsc ort
ĠEsc alloped
Ġjoin t
ĠArm our
cub ed
Ġconven tional
Ġess ence
inom oto
Ġbeaut if
C oconut
F resh
K ay
P ut
i ppy
j oin
l ong
m ini
n on
o ven
o hydrate
p our
t F
Ġ `
Ġ upper
in tz
Ġs ake
pp e
ro wn
ĠC rimp
Ġd isc
Ġg m
ĠB ow
ĠP al
ĠP ita
ĠP ioneer
ĠT er
Ġun less
Ġv ar
ĠM ain
ra ham
ver bs
Ġst reusel
ri a
Ġsh aping
Ġso ap
Ġgr am
ĠR av
Ġoil s
ĠCh ick
ĠW rapped
ans as
id s
Ġsm ell
ĠL and
ĠIn g
ood y
over leaf
ag o
ĠWh irl
Ġmay be
ĠO ur
ĠO scar
Ġset t
ĠV er
ift een
Ġen amel
ĠSh ip
Ġdirec tion
Ġacc um
ĠGr ass
bl ue
Ġper colator
ĠBrand y
wh en
ness ee
ĠFrost y
Ġwor th
Ġcas ings
ĠMar gar
ĠMar ie
Ġrese al
Ġlump ing
ĠHe art
Ġentire ly
ĠMc Intosh
Ġlin er
ĠArtich okes
ĠInd ividual
ĠMary land
Ġwil t
tP ut
tP lace
Ġvariet ies
ign on
ĠLi quid
Ġdisapp ear
Ġdab s
bb ie
usk i
tR emove
Ġaj inomoto
ĠSop a
ĠCast le
ĠTap ioca
ĠWilli ams
ĠLop ez
a ves
f ound
l ukewarm
r is
s i
s in
s epar
w ie
Ġc atch
Ġs its
Ġt im
Ġb igger
Ġb ias
Ġp ilaf
Ġm ir
Ġm id
en ing
Ġf ace
ĠC ry
Ġ3 20
ĠB urn
ĠB ird
ĠP ost
ĠT uck
ĠT ilt
Ġmin ts
Ġcho col
Ġwater y
Ġj icama
Ġth inned
ĠR em
ĠR ise
ĠR hod
Ġr uns
Ġwell s
Ġy ear
ĠH en
em ble
ag ie
Ġcl ause
ep tion
Ġ12 5
ĠE as
ump ti
ĠY ank
Ġcom ing
iscuit s
ĠButter ed
ĠButter fingers
iv ely
Ġspoon ed
Ġconfection er
mi um
Ġsepar ates
ser ve
ĠPeach y
ĠGl ory
Ġ36 5
Ġpull ed
ĠHerb s
Ġsw ordfish
Ġvari ous
ĠBon eless
Ġmicrow aved
cream y
Ġdr ummettes
Ġcod fish
Ġstay s
ĠEle phant
Ġstor ing
ĠBuff et
Ġris en
Pe anut
ĠHamburg ers
ĠCarb ohydrate
ĠFant astic
Ġstep s
Ġsuper fine
ĠSand ies
Ġperiod ically
Ġimpro ves
Cl ub
ĠContin ental
Ġdef at
ĠConc ord
umpti ous
ĠYank ee
. *
2 7
8 5
A n
c ool
c ass
p int
r ist
s ift
t at
t ub
Ġ ide
Ġs ieved
Ġb order
ar o
es ired
Ġp heasant
and s
Ġw reath
ic tor
gar lic
le ge
ĠC le
Ġ2 30
Ġa ge
Ġd oves
Ġd ull
ĠS ock
ĠP ul
ĠP enne
un greased
is o
ĠT reas
ol der
ra spberry
ad ina
om at
to asted
ĠR at
ĠD ian
ĠF eeds
Ġcup fuls
Ġbl ot
Ġbread ed
ĠH ermits
Ġcon e
Ġro pes
Ġapp et
let t
ĠSal ted
ĠK ir
ĠN ature
Ġz ip
Ġfilling s
Ġsc ones
ĠBr er
Ġgl ue
Ġcro ut
Ġcro iss
ud ges
ran ean
Ġinser ting
amp le
wh ipped
ĠRa ise
ering ues
ĠCl ams
Ġfo ams
ĠSk ew
ĠSm ash
Ġrot ate
add y
Ġpers ons
be ans
ĠMed iter
Ġdecor ations
Ġ28 0
ĠSnow balls
ug ula
tC ombine
Sp inach
Ġbutton s
Ġhull s
min ced
ĠPar fait
Ġmembran es
ĠRoma ine
Ġshow s
ĠQues o
ais y
ĠTen nessee
Ġdra ft
tSp read
ĠPim ento
ĠBour sin
Ġpurch ased
hom emade
Gar lic
Ġfur ther
ĠSin ful
ĠMarz etti
Ġswe eter
Ġreseal able
Ġdefat ted
ĠMediter ranean
3 6
A head
D ay
E ver
M a
M ushroom
b ottom
g ate
g ood
n ing
t minutes
w or
z e
Ġs ort
Ġs ince
ar ified
Ġp ig
Ġm a
Ġm ac
Ġm ove
il lets
or ice
Ġd utch
Ġl ye
oo per
ix ie
ĠB atch
Ġv ents
Ġh it
Ġh un
ĠM id
ĠM ove
ĠM ember
om on
ch we
ir ley
Ġgr atin
ĠD is
ĠD ab
Ġsp acing
ĠW inning
ĠF ire
if ts
ĠL akes
ĠL uncheon
Ġheat s
ĠH ens
tt he
ĠO h
isc ott
avor ites
ĠCut lets
Ġan g
ĠJ onathan
ĠBl ossom
Ġnot e
Ġen han
Ġdo ing
Ġ7 2
Ġbag el
Ġde velop
ĠSoup er
und le
ĠFl an
Ġpin wheels
Ġpat ting
pot e
ĠQuick ie
uns chwe
ĠCl oud
Ġ36 0
Ġsolid s
St ep
Ġwra ps
ĠCom pote
Th ese
Ġcre ole
ĠWa verly
ĠOli ves
Ġpersimmon s
ĠBra id
Ġdoll ops
ĠWon der
Ġcoll ards
ĠGo es
Ġtuck ing
tSp rinkle
Ġwid th
powder ed
Ġread s
ĠPep si
Ġthough ts
Col by
ĠKrisp ie
process ed
ĠRav ioli
wie back
Ġchocol ates
ĠRhod es
ĠRat at
ĠDian e
unschwe iger
C ar
G ran
J iffy
L o
M acaroni
b les
c t
c elery
d esired
g ah
l uski
m ashed
o uts
p ine
Ġs y
Ġs ound
Ġt ep
Ġo xtail
es a
Ġp le
Ġp ra
Ġp ass
Ġm il
at ini
Ġf an
Ġf aul
ic orice
Ġa ch
Ġe ver
Ġd om
Ġd isp
Ġd eeds
Ġd andelion
ĠS irloin
Ġg ifts
Ġl icorice
ĠB er
ĠP ig
ĠT emp
Ġun popped
ĠM arm
Ġor ien
ad illo
Ġfor get
ch es
ĠAdd itional
Ġn ose
Ġj igger
th irds
ack s
Ġco bbler
ĠD one
ĠW est
heat h
ĠSt ay
if y
ĠCook book
ĠL y
ĠG ri
Ġcar cass
Ġmeat ball
ĠSer rano
est ic
Ġhe arty
Ġset tle
ĠJ im
ĠV iv
ĠN og
ĠBe ar
ĠSh irley
ĠSet t
Ġbut cher
Ġbr ickle
ĠRo b
Ġyour self
ud el
Ġcann ot
Ġar ugula
Ġdri zz
ĠLe g
ĠQu ik
ĠPepper ed
Ġhash brown
Ġany time
bl ended
Ġel imin
Ġsur round
Ġallow ed
ĠUs ually
ĠCro utons
bo ard
ĠHe ap
ĠToast ies
Ġfinish ing
Ġpull ing
ĠNew man
Ġwra pping
Ġsw ir
Ġty pes
ĠPop overs
ĠMc Kay
Ġconten t
Ġdrink ing
met al
ĠMa id
Ġsnack s
ĠMound s
stir ring
ĠSch illing
pie ce
yn es
Ġve geburger
Bl ue
Ġsmok ing
ĠSub stitute
ĠSmok ies
Ġrip en
ĠLin da
ĠPlant ation
Ġaccom pan
Ġlaugh ter
arshmallow s
ĠQuesad illas
ictor ia
ĠRatat ouille
ĠMarm alade
Ġorien tal
C ake
D uncan
E agle
J udges
R eady
T omato
W al
W ill
b el
b oth
c a
c il
c ks
c arrots
f our
f igs
h old
k ed
p ork
s ch
t Makes
w ork
w reck
y cle
Ġt an
Ġt reat
Ġb irds
Ġp osition
il ee
il ity
re f
Ġf eta
Ġf acing
Ġin clude
as i
it ake
Ġa u
Ġd uty
Ġg ourmet
ĠP a
ĠP en
ĠP ockets
un ge
ĠT e
Ġv is
Ġv ert
ĠA corn
Ġh u
Ġh ope
Ġh older
us ually
ĠM arb
ot to
Ġpepper ed
Ġpepper on
om it
Ġmilk s
to f
to pping
Ġcan ister
Ġsh ot
Ġj al
Ġj oy
ĠR ig
nd a
ĠCh urch
ĠD aisy
Ġy ield
Ġ8 5
sh ortening
ĠWh oop
av ian
av ailable
Ġapp rox
Ġsl ash
Ġpap aya
ĠCream s
Ġref resh
oll o
Ġout do
ĠK ol
ĠN on
Ġfat back
Ġde ter
ĠPress ure
Ġpro bably
Ġkn ow
so da
Ġdi abetic
Ġ18 0
ĠCont adina
Ġunder side
ĠReser ving
cr ack
ann ie
ĠDish pan
ĠTw ists
ĠOver lap
ĠMar aschino
Ġburn t
Ġwork able
oe uvres
ĠAn ise
Ġmon terey
ĠNew burg
be ater
ĠPol ynes
erd e
ĠFran kfur
ĠMexic ali
ĠLea f
ĠSim ply
dep ends
fin ely
ĠPic c
ĠAnn ie
ĠSch ool
Ġho agie
ĠKid ney
Ġrequ ire
Ġsho epeg
Ġpet als
Ġdelic ate
strawber ries
ĠEsp resso
On ion
Ġdred ging
ĠThumb print
ĠChil ies
Ġpray er
ĠCab in
ĠPur itan
ĠShip wreck
Ġcrout on
Ġtep id
Ġfaul ts
ĠPolynes ian
B read
C amp
J er
W esson
c eed
d i
d one
f illed
i ans
l b
l ice
l ins
p ress
s emi
t ie
t hey
t butter
t omato
z os
Ġ ST
Ġc ajun
er os
Ġt a
Ġt raditional
Ġb arbecued
Ġb undle
ed ged
il es
il ding
Ġf ajitas
Ġw eather
sp ices
ĠS ole
ĠS ee
ĠS heath
ĠB or
Ġun melted
Ġmin estrone
ĠM em
ĠM ile
Ġfor th
Ġcan es
Ġsh i
Ġsh rink
ĠR ol
Ġr oughly
ĠD addy
ab les
mon ia
redien ts
Ġadd s
ĠF un
Ġy ields
Ġcrumb ling
ĠL unch
ĠL oin
ars e
ĠH ay
ard i
ub ilee
Ġcl overleaf
we ed
Ġex trem
Ġgra y
ec ially
). \
ĠCut out
Ġhe al
Ġrefriger ation
ĠJ ubilee
Ġsimmer ed
ĠPe ter
Ġpeel er
ĠN eeds
Ġgelat ins
Ġbag u
vapor ated
ĠSe as
Ġhigh er
Ġprocess ing
ĠJack s
ang ria
Ġpar fait
Ġfil ing
Ġcap ful
ĠSn ap
Ġgi ving
Ġgi ant
Ġburn s
mel t
ĠCrunch ies
atur es
ced ing
Ġcav iar
ĠCa vender
Ġbitter sweet
ĠStr udel
ĠLea ves
ĠLog s
ĠMillion aire
23 4
ĠWil ted
bb les
Ġtost ada
Ġhum an
Ġassem bled
mo der
tB eat
rif ice
wd ust
ĠSol omon
Ġincorpor ated
ĠRequ est
ĠSkew er
Ġang le
Ġhu ge
ĠWhoop ie
Jer emiah
Ġextrem ely
A nd
B S
B anana
M el
M edium
P illsbury
R e
S o
S pan
T ime
Z ucchini
f ill
g ento
g rease
j elly
k i
m ing
m arshmallows
n oc
p a
r d
r int
s ec
t el
t urn
t Serve
t Let
w ashed
Ġc ycle
in ation
Ġt ang
Ġt int
Ġt ears
Ġp ossum
Ġm ellow
Ġm ann
Ġm alt
Ġm ug
Ġf usilli
ing le
ĠC oney
ĠC ount
or thern
Ġsu pper
Ġsu gah
Ġd ucks
Ġg oo
Ġg ather
Ġg her
Ġg ingersnap
ĠB u
dd ess
Ġegg beater
Ġun processed
us band
ĠM ull
ĠM ah
ad s
Ġn og
Ġsh uck
Ġsh aken
Ġj igg
Ġgr ating
Ġpowder s
ĠR is
ast a
Ġr ame
ĠD ou
ĠD av
ĠD ixie
ur b
st art
ĠSt retch
inn y
amon ds
ĠL ucky
ers e
Ġoven s
ĠH on
Ġcl ay
Ġcl arified
art ment
Ġred uc
Ġpl an
ĠK osher
Ġpre ceding
ĠSa wdust
ĠV ictoria
ĠMelt away
og s
Ġsaute ing
ĠFl ute
ĠFill s
ivid ing
ĠMex i
ang les
ĠMin ced
ĠDi amond
ĠRa ised
Ġpul se
ĠMarshmallow s
ĠLay ers
ĠSm uck
ĠEn ough
Ġbit es
ĠFood s
mp athy
ĠEx odus
ĠScr umptious
Ġdecor ator
ĠPin wheel
Ġhow ever
unc ture
Ġmain tain
ĠSpr itz
Bro wn
ĠTwink ie
ĠEar ly
Ġstraw s
23 6
ĠPier ogi
Ġthumb print
ĠBo ats
Ġwatch ing
ĠGo ddess
Ġfriend s
Al so
ĠCav atini
Ġgoose berries
che ck
Ġbu ilding
Ġmatch stick
ĠMark et
Ġob tain
Ġrear ranging
ĠQ ue
Ġfarm er
ĠAss emble
Del icious
Grand ma
omat ic
Ġsy mpathy
ĠGri ff
Ġhashbrown s
ref riger
Camp bell
Ġmann er
" (
6 4
B isquick
E R
L ike
O f
P armesan
c ur
f ts
f ull
g ie
h i
n eath
p lace
t d
t est
t urkey
u um
v irgin
y ss
Ġc amp
er o
Ġb agg
Ġp igs
re au
Ġf owl
Ġf ore
pp in
ĠC our
Ġ3 3
Ġ3 9
Ġd onut
Ġd iffer
ĠS atur
ĠS angria
he im
he avy
ĠB ol
ĠB iscott
ĠP ri
ĠP aste
ĠP ipe
ĠP aint
ĠP ollo
ĠT BS
ĠA na
ĠM at
ĠM ich
ot e
ot al
Ġbe ar
Ġsh ut
ĠR ipe
Ġwh irl
ĠCh ildren
ĠD an
ĠW yl
orn s
ien er
Ġlar g
igh ter
st ead
Ġju d
ĠI i
Ġsm ash
Ġsm ile
ĠF air
ĠF ont
ain ing
ĠL eek
ĠL yn
ĠH air
ĠH ickory
ĠPre acher
ĠJ ul
Ġit em
ĠK athy
ĠK luski
ĠV an
ĠV ersion
ĠChill ed
ĠSh ut
pe aches
ĠRef ill
Ġcol ada
ĠSl ip
Ġturn er
Ġpo pping
Ġam monia
Ġdeep ly
Ġdi amonds
ĠAl most
ĠKar en
Ġper ch
ĠBrand ied
Ġuns ul
ĠFarm er
Ġunder neath
Ġfoam ing
ĠDe bbie
ĠRomano ff
ĠCol lege
may be
obs ters
ond ra
ĠJo an
ĠSnick er
ĠTr iscuits
imm ies
Ġimp rint
Ġstor es
To pped
Cho pped
Ġ29 0
ĠDr um
Ġplump ed
Ġtong ue
Ġwhe els
Ġsquir rel
Ġflo ating
ĠChest nut
Ġha ving
Ex cellent
ĠTruff les
Ġsac rifice
ouff er
Ġcomple ted
Ġrain bow
Ġbuck et
ĠCle ar
Gran ny
Ġdom estic
ĠViv a
Wal nut
Ġvis ible
Ġpepperon cini
ĠRig atoni
ĠST I
Ġshi itake
Ġshuck ed
ĠTBS P
ĠAna heim
* *
C abbage
F ail
G re
M iracle
b acon
e qu
f ruit
g olden
g raham
h and
h ere
o ff
p ea
s auce
t rim
t Ch
t In
v ice
w ax
Ġc yl
in th
Ġ1 75
Ġt re
Ġt umb
Ġt ree
es ted
Ġm ass
Ġm oon
Ġm ex
en cy
ou illon
Ġto es
Ġin ner
Ġd raw
ĠS ur
Ġg rained
Ġl obsters
ĠB et
ĠB ab
ĠP izz
ĠT oo
ĠT im
ĠT bl
ĠA dobo
ĠM as
ĠM ad
ĠM ayer
ĠM ethod
ts t
Ġn ap
Ġth ings
Ġle ak
ĠR ome
Ġwh o
Ġtom at
ĠD om
ĠD onna
ab ama
ĠW he
igh s
Ġfro th
ĠSt ouffer
ĠF eather
inn ers
ĠH usband
ĠG er
ĠG ame
ĠG oya
av el
Ġsl ip
Ġex pected
Ġsk illets
udd ed
Ġcrush ing
ec ks
ent ine
ĠE ll
ĠJ une
ĠK iev
Ġbottom ed
ĠV erde
Ġdressing s
ĠTh ing
ĠAnd es
ens ive
ce an
Ġtur tle
Ġcol by
Ġcolor ful
Ġcur ing
Ġtw elve
co arse
ĠFor ce
ĠCo int
ĠPeanut ty
ĠDel ite
ĠUn fold
ĠCoc o
Ġconcentr ates
Ġfil m
Ġcor rect
Ġhom estyle
Ch rist
Ġtin ted
ĠAn isette
ĠSeaf oam
ĠIc ed
ĠDill ed
ĠMu eller
Ġcit rus
ĠSwirl s
Ġpush ing
ĠGe b
ho pper
ĠHel per
Ġwait ing
Ġbra unschweiger
Ġsizz les
Ġfriend ship
Ġchoriz os
con densed
ais er
Ġprevi ously
arro t
ĠEsp ecially
ĠDep ending
Ġdred ged
Ġher ring
Ġpen cil
ĠAlas ka
ĠWel sh
Ġselec tion
Ro asted
nam ents
ĠJumb les
He art
Ġrutab aga
intz es
ĠIng redients
ĠCastle berry
ĠKir sch
Ġhun gry
Ġoxtail s
ĠPicc ata
Ġbagu ette
moder ate
Span ish
noc chi
ĠGriff in
ĠFont ina
ĠCoint reau
) :
C ooked
C arrot
F ruit
H our
M eat
M ore
M ores
O ri
R ed
R eser
S c
T op
T hey
c andied
g ly
k o
q t
r ated
s ts
s immer
s ame
s ome
t for
t mix
t flour
v a
v ard
z le
Ġc ame
Ġc alls
Ġc ause
in clude
Ġb is
es qu
Ġm acaroon
re ls
al up
al ready
Ġf rag
Ġf avorites
Ġch ang
sp aper
ro z
ĠC atsup
ak a
Ġ2 20
Ġsu gg
Ġ3 4
Ġd ividing
ĠS age
ĠS andy
ĠS ara
ĠS ometimes
Ġg um
ĠB ir
ĠB art
ĠB ul
ĠB ark
ĠB order
ac uum
ĠP one
Ġfl am
ow s
ĠT ass
Ġche ap
Ġun used
Ġv ented
ĠA f
Ġh is
Ġh im
Ġh are
Ġh uckle
ĠM en
ch op
Ġn orthern
Ġj er
Ġj immies
th day
ĠR onz
mon d
Ġsp eck
ĠW ee
ien ne
ip illas
st al
ĠSp ir
ĠF an
ĠF ric
if ic
ĠL ong
Ġbl u
Ġbl ades
ach el
ĠH as
Ġcl usters
na pp
Ġal cohol
Ġapp ly
ide o
Ġham mer
tt i
ĠE m
ĠBrown ed
ĠBl oody
ĠV ick
Ġjell os
Ġtab lets
abb ages
ĠY u
ĠY ears
ens e
ĠBe g
ĠRef resh
Ġevapor ate
Ġdissol ving
ĠGra pes
Ġaltern ative
ĠCorn starch
ĠRo bert
ĠOn ly
ĠAl pine
ĠAl abama
Ġsubstit uting
Ġop ened
app rox
ĠSk ins
od ge
Ġwor d
ĠScallop ini
Ġrot el
vil le
ĠCro ss
Ġhold ing
Ch erry
ĠMar vel
Ġoverb rown
ĠAlmond ine
ĠCub an
Ġcre m
ug les
hydr ates
ĠHar vard
Ġglut en
ĠSho ppe
ĠOmelet te
Ġsho vel
pie ces
Ġmot or
Ġsquir rels
ĠCor inth
Ġdec rease
ĠChest nuts
hal ves
hal ved
Ġcarbo hydrate
gan ic
ĠSens ational
Ġpral ines
ĠStrip ed
ĠSus an
itter lings
ĠBor ax
ĠQue en
ĠSatur day
ĠBiscott i
ĠSTI R
Ġcyl inder
Christ mas
Reser ve
Ġhuckle berries
ĠCorinth ians
! \
3 3
C over
D ip
E ng
G H
b ul
b ouillon
c ayenne
c orb
c etta
d el
d iscard
f ire
g ener
i ous
j ack
j ect
l ava
m un
r are
t ied
v ot
w ine
y uns
in ted
Ġ1 12
Ġt ried
Ġt anger
Ġp i
at ively
and ar
Ġch urch
ĠC oll
ĠC umin
or itos
it t
Ġd iff
ĠS li
ĠB ott
ĠP osition
ĠP ride
ill er
ill os
us ter
ĠM outh
uc he
Ġst ops
ad as
Ġbak er
Ġbak ery
up er
ure en
ĠR es
ĠR ight
ĠCh ange
ĠCh alup
ĠD ie
ĠD iced
ĠW ieners
ĠF ield
ĠL ooks
ĠH olly
ĠG arb
ĠG ive
ĠG oose
ber ts
ard ee
Ġcl umps
Ġas corb
Ġchil is
Ġex c
ĠE ast
ĠK ay
ĠBl an
ĠN ine
ĠN avy
Ġsoft ly
ĠU gly
Ġsc ored
ĠBoil ing
ĠTurn ip
Ġrest aurant
ĠGra p
Ġacc ent
Ġaccording ly
emper ature
Ġcro wn
ary l
urt les
ran berry
ran ged
ĠToss ed
bl ing
lit ons
oy al
ĠPro verbs
Ġunder bake
Ġdon uts
Ġind ic
Ġpul ver
af e
Ġtri ple
ank et
ect ar
irl s
ĠNor th
Ġsw ell
Ġgu ava
ĠTri angles
Ġgarban zos
ĠEx change
ĠEx changes
bro th
Ġrich er
ĠHun ter
ĠLa ura
ĠTender ize
ĠSar gento
ls berg
ĠDiabetic s
Ġrim s
Ġdis join
Ġcit ric
Ġsor row
Ġimp orted
ĠHal ibut
ĠLi qu
ĠLen tils
Ġsim ple
ĠFil et
23 8
Ġsizz le
Ġgroup s
Ġcrunch ed
Ġdra fts
hard t
ember t
ĠMicro cook
Ġcarbo hydrates
Ġpral ine
Ġbutterf lied
quarter ed
Ġatt ached
ĠHazel nut
Ġnorm ally
Ġpu ppies
ĠCam embert
Ġren der
Ġtrip led
Ġbeautif ully
ĠGrass hopper
ĠPul se
ze ch
Ġma garine
Ġenhan cer
Ġdrizz led
ĠPen uche
Ġvert ically
ĠMarb led
Ġoutdo or
Ġtang y
ĠRis otto
Ġrame kins
ĠWyl er
Ġlarg est
ĠLyn n
Gre en
Ġbis que
esqu ite
ĠBart lett
ĠRonz oni
Eng lish
yuns aturated
Ġascorb ic
* .
A ng
H oney
L a
M c
R hubarb
S m
W or
b ac
b reak
c om
d ouble
e ven
h att
i os
k an
k oman
l aze
p udding
r ican
s ure
t all
t milk
t pan
v els
Ġc er
Ġc at
Ġc row
Ġc abbages
an e
Ġp yrex
Ġm ang
Ġm asa
Ġf le
Ġf ifteen
Ġch iffon
le ftover
ro t
ĠC O
am ata
Ġ3 1
Ġd unk
ĠS av
ĠS ide
Ġl uck
ĠB ern
ĠB ugles
ĠP ine
ĠP ops
ĠT urtles
Ġun thawed
Ġh ar
Ġh ook
Ġh rs
ĠM att
ĠM achine
ĠM ike
ot a
ra ft
ch unks
Ġbro ok
ts h
ri k
Ġn est
Ġn ecks
Ġth irty
Ġgr it
ĠCh im
ĠD apple
ĠW ondra
Ġre member
qu ant
ĠSt ella
Ġsm iles
res ist
Ġcup ful
ap ricot
ĠL ump
ĠL uck
ĠH I
ĠH ow
ĠG or
ĠWh o
