{"<s>":0,"<pad>":1,"</s>":2,"<unk>":3,"<mask>":4,"!":5,"\"":6,"#":7,"$":8,"%":9,"&":10,"'":11,"(":12,")":13,"*":14,"+":15,",":16,"-":17,".":18,"/":19,"0":20,"1":21,"2":22,"3":23,"4":24,"5":25,"6":26,"7":27,"8":28,"9":29,":":30,";":31,"<":32,"=":33,">":34,"?":35,"@":36,"A":37,"B":38,"C":39,"D":40,"E":41,"F":42,"G":43,"H":44,"I":45,"J":46,"K":47,"L":48,"M":49,"N":50,"O":51,"P":52,"Q":53,"R":54,"S":55,"T":56,"U":57,"V":58,"W":59,"X":60,"Y":61,"Z":62,"[":63,"\\":64,"]":65,"^":66,"_":67,"`":68,"a":69,"b":70,"c":71,"d":72,"e":73,"f":74,"g":75,"h":76,"i":77,"j":78,"k":79,"l":80,"m":81,"n":82,"o":83,"p":84,"q":85,"r":86,"s":87,"t":88,"u":89,"v":90,"w":91,"x":92,"y":93,"z":94,"{":95,"|":96,"}":97,"~":98,"¡":99,"¢":100,"£":101,"¤":102,"¥":103,"¦":104,"§":105,"¨":106,"©":107,"ª":108,"«":109,"¬":110,"®":111,"¯":112,"°":113,"±":114,"²":115,"³":116,"´":117,"µ":118,"¶":119,"·":120,"¸":121,"¹":122,"º":123,"»":124,"¼":125,"½":126,"¾":127,"¿":128,"À":129,"Á":130,"Â":131,"Ã":132,"Ä":133,"Å":134,"Æ":135,"Ç":136,"È":137,"É":138,"Ê":139,"Ë":140,"Ì":141,"Í":142,"Î":143,"Ï":144,"Ð":145,"Ñ":146,"Ò":147,"Ó":148,"Ô":149,"Õ":150,"Ö":151,"×":152,"Ø":153,"Ù":154,"Ú":155,"Û":156,"Ü":157,"Ý":158,"Þ":159,"ß":160,"à":161,"á":162,"â":163,"ã":164,"ä":165,"å":166,"æ":167,"ç":168,"è":169,"é":170,"ê":171,"ë":172,"ì":173,"í":174,"î":175,"ï":176,"ð":177,"ñ":178,"ò":179,"ó":180,"ô":181,"õ":182,"ö":183,"÷":184,"ø":185,"ù":186,"ú":187,"û":188,"ü":189,"ý":190,"þ":191,"ÿ":192,"Ā":193,"ā":194,"Ă":195,"ă":196,"Ą":197,"ą":198,"Ć":199,"ć":200,"Ĉ":201,"ĉ":202,"Ċ":203,"ċ":204,"Č":205,"č":206,"Ď":207,"ď":208,"Đ":209,"đ":210,"Ē":211,"ē":212,"Ĕ":213,"ĕ":214,"Ė":215,"ė":216,"Ę":217,"ę":218,"Ě":219,"ě":220,"Ĝ":221,"ĝ":222,"Ğ":223,"ğ":224,"Ġ":225,"ġ":226,"Ģ":227,"ģ":228,"Ĥ":229,"ĥ":230,"Ħ":231,"ħ":232,"Ĩ":233,"ĩ":234,"Ī":235,"ī":236,"Ĭ":237,"ĭ":238,"Į":239,"į":240,"İ":241,"ı":242,"Ĳ":243,"ĳ":244,"Ĵ":245,"ĵ":246,"Ķ":247,"ķ":248,"ĸ":249,"Ĺ":250,"ĺ":251,"Ļ":252,"ļ":253,"Ľ":254,"ľ":255,"Ŀ":256,"ŀ":257,"Ł":258,"ł":259,"Ń":260,"Ġ<":261,"NE":262,"XT":263,"NEXT":264,"EN":265,"IN":266,"RE":267,"ST":268,"Ġc":269,"ING":270,"DI":271,"TS":272,"ENTS":273,"REDI":274,"INGREDI":275,"INGREDIENTS":276,"NER":277,"TI":278,"in":279,"Ġs":280,"er":281,"AR":282,"END":283,"STAR":284,"START":285,"Ġ1":286,"ON":287,"STR":288,"CTI":289,"UCTI":290,"INSTR":291,"ONS":292,"UCTIONS":293,"INSTRUCTIONS":294,"an":295,"ar":296,"Ġo":297,"Ġb":298,"ed":299,"Ġt":300,"es":301,"Ġp":302,"Ġm":303,"at":304,"il":305,"ut":306,"re":307,"on":308,"al":309,"en":310,"ou":311,"and":312,"Ġf":313,"PE":314,"LE":315,"CI":316,"TLE":317,"RECI":318,"TITLE":319,"RECIPE":320,"Ġch":321,"Ġand":322,"ing":323,"Ġw":324,"gar":325,"ic":326,"ĠC":327,"le":328,"Ġin":329,"or":330,"sp":331,"Ġto":332,"pp":333,"el":334,"ak":335,"Ġ2":336,"our":337,"rea":338,"ro":339,"Ġsu":340,"Ġsugar":341,"Ġa":342,"Ġ3":343,"it":344,"Ġd":345,"Ġe":346,"Ġon":347,"ter":348,"ix":349,"ĠS":350,"ĠB":351,"la":352,"ĠP":353,"ine":354,"Ġsal":355,"Ġg":356,"ol":357,"ge":358,"ra":359,"Ġpe":360,"as":361,"gg":362,"Ġtsp":363,"Ġh":364,"Ġsalt":365,"Ġl":366,"is":367,"utter":368,"ĠM":369,"Ġegg":370,"ion":371,"ream":372,"ake":373,"dd":374,"Ġbutter":375,"ese":376,"ĠT":377,"un":378,"eese":379,"ow":380,"Ġ(":381,"Ġco":382,"Ġv":383,"Ġcream":384,"all":385,"Ġcheese":386,"Ġfl":387,"ilk":388,"Ġth":389,"ick":390,"ot":391,"us":392,"Ġonion":393,"ch":394,"Ġmilk":395,"Ġflour":396,"Ġof":397,"Ġor":398,"ĠA":399,"Ġun":400,"ce":401,"Ġcho":402,"ice":403,"Ġmix":404,"Ġmin":405,"Ġcan":406,"ith":407,"ell":408,"red":409,"ĠCo":410,"ts":411,"Ġst":412,"ater":413,"Ġbe":414,"Ġwith":415,"Ġfor":416,"Ġeggs":417,"Ġwater":418,"til":419,"Ġminut":420,"to":421,"ver":422,"Ġminutes":423,"ri":424,"00":425,"bsp":426,"Ġuntil":427,"ĠTbsp":428,"ok":429,"Ġj":430,"pper":431,"Ġ4":432,"illa":433,"anilla":434,"mon":435,"Ġvanilla":436,"et":437,"Ġoz":438,"Ġpepper":439,"ĠMix":440,"ĠAdd":441,"der":442,"pped":443,"mb":444,"Ġbro":445,"Ġn":446,"ato":447,"Ġsh":448,"Ġat":449,"eat":450,"ve":451,"ĠCh":452,"ie":453,"Ġcr":454,"Ġmar":455,"ry":456,"ck":457,"icken":458,"ien":459,"Ġchopped":460,"Ġsa":461,"up":462,"Ġthe":463,"redien":464,"Ġing":465,"Ġinto":466,"Ġingredien":467,"Ġingredients":468,"uce":469,"gh":470,"ĠBake":471,"ir":472,".)":473,"ip":474,"wn":475,"Ġwh":476,"Ġle":477,"oup":478,"th":479,"ate":480,"ĠR":481,"lic":482,"ĠD":483,"Ġsoup":484,"ĠW":485,"owder":486,"Ġbak":487,"Ġpowder":488,"read":489,"od":490,"ans":491,"50":492,"uts":493,"st":494,"Ġchicken":495,"col":496,"Ġbaking":497,"Ġover":498,"na":499,"Ġgr":500,"orn":501,"pple":502,"garine":503,"ill":504,"Ġmargarine":505,"Ġju":506,"ush":507,"Ġsauce":508,"Ġbrown":509,"Ġbo":510,"Ġjuice":511,"ad":512,"kg":513,"Ġpkg":514,"atoes":515,"mall":516,"Ġ350":517,"Ġall":518,"ther":519,"Ġoil":520,"Ġcook":521,"ay":522,"ĠF":523,"nd":524,"les":525,"Ġpan":526,"res":527,"ly":528,"Ġlb":529,"Ġcorn":530,"Ġpie":531,"ast":532,"apple":533,"ineapple":534,"ure":535,"me":536,"ish":537,"Ġwell":538,"Ġlar":539,"Ġre":540,"ers":541,"con":542,"Ġpineapple":543,"Ġlarge":544,"ef":545,"co":546,"Ġlemon":547,"Ġfro":548,"ur":549,"gether":550,"ĠPour":551,"ab":552,"Ġtogether":553,"Ġadd":554,"rain":555,"um":556,"ole":557,"qu":558,"ound":559,"igh":560,"inch":561,"ust":562,"reen":563,"Ġr":564,"Ġsp":565,"Ġnuts":566,"ĠSp":567,"ber":568,"am":569,"om":570,"elt":571,"colate":572,"Ġhour":573,"Ġy":574,"Ġtom":575,"Ġpot":576,"umb":577,"Ġse":578,"Ġgreen":579,"reas":580,"Ġsmall":581,"ture":582,"ger":583,"ery":584,"Ġcra":585,"Ġmixture":586,"age":587,"ated":588,"ight":589,"ser":590,"ĠL":591,"ap":592,"Ġsour":593,"ĠSt":594,"Ġcon":595,"Ġcake":596,"ĠI":597,"Ġ6":598,"oda":599,"Ġboil":600,"ĠCook":601,"Ġsoda":602,"ten":603,"eet":604,"ves":605,"room":606,"ĠWh":607,"Ġpec":608,"Ġslic":609,"ĠH":610,"mbine":611,"id":612,"Ġ8":613,"Ġwhit":614,"Ġcrack":615,"Ġchocolate":616,"Ġgar":617,"elery":618,"Ġcup":619,"ash":620,"Ġcelery":621,"ven":622,"Ġpotatoes":623,"inna":624,"lace":625,"inegar":626,"innamon":627,"op":628,"Ġonions":629,"Ġvinegar":630,"ces":631,"Ġground":632,"if":633,"sh":634,"ushroom":635,"Ġgarlic":636,"old":637,"Ġtop":638,"Ġbeef":639,"Ġcinnamon":640,"Ġpecans":641,"Ġmay":642,"ach":643,"ise":644,"Ġmushroom":645,"Ġstick":646,"asser":647,"asserole":648,"Ġcrumb":649,"zen":650,"Ġdrain":651,"Ġbread":652,"ries":653,"Ġba":654,"ain":655,"Ġdish":656,"Ġmelt":657,"ĠCombine":658,"ct":659,"im":660,"ĠCool":661,"ies":662,"ĠG":663,"Ġ5":664,"erve":665,"mo":666,"Ġbeat":667,"Ġoran":668,"edi":669,"ard":670,"akes":671,"onna":672,"onnaise":673,"Ġfrozen":674,"Ġx":675,"uit":676,"Ġso":677,"ink":678,"ood":679,"Ġhot":680,"ant":681,"Ġmayonnaise":682,"Ġoven":683,"ff":684,"raw":685,"Ġ9":686,"Ġmelted":687,"edium":688,"ips":689,"Ġwhite":690,"edd":691,"owl":692,"weet":693,"conut":694,"ĠStir":695,"Ġheat":696,"eddar":697,"Ġbowl":698,"ars":699,"len":700,"ĠWhip":701,"Ġmedium":702,"ough":703,"Ġchips":704,"udd":705,"ress":706,"Ġstir":707,"ire":708,"Ġcrumbs":709,"Ġgrated":710,"Ġpean":711,"udding":712,"rink":713,"art":714,"Ġro":715,"reased":716,"Ġrice":717,"ĠPlace":718,"out":719,"Ġbeans":720,"Ġ10":721,"riger":722,"ĠCheddar":723,"ub":724,"ĠSal":725,"ll":726,"oon":727,"Ġdry":728,"ĠPut":729,"Ġ30":730,"Ġcoconut":731,"Ġal":732,"ushed":733,"rawber":734,"rinkle":735,"Ġcrushed":736,"aste":737,"arm":738,"Ġbox":739,"Ġk":740,"Ġgra":741,"Ġtomatoes":742,"ccol":743,"ccoli":744,"Ġsliced":745,"Ġpudding":746,"ustard":747,"Ġab":748,"ring":749,"Ġapp":750,"one":751,"Ġshor":752,"ded":753,"tening":754,"Ġpowdered":755,"Ġshortening":756,"Ġtomato":757,"Ġdrained":758,"ore":759,"get":760,"Ġthen":761,"ĠO":762,"Ġorange":763,"ely":764,"eget":765,"egetab":766,"ĠJ":767,"ee":768,"stant":769,"Ġcut":770,"Ġbacon":771,"Ġcrackers":772,"ĠE":773,"Ġcar":774,"Ġole":775,"Ġhours":776,"Ġabout":777,"Ġoleo":778,"erv":779,"anan":780,"Ġis":781,"Ġgreased":782,"Ġpeanut":783,"ĠIn":784,"ĠSalad":785,"Ġbake":786,"Ġmustard":787,"ul":788,"Ġtaste":789,"Ġas":790,"Ġstrawber":791,"ea":792,"ins":793,"ressing":794,"Ġjell":795,"lo":796,"uff":797,"ĠServe":798,"ĠCake":799,"ruit":800,"yr":801,"Ġbeaten":802,"Ġbot":803,"yrup":804,"Ġcooked":805,"resh":806,"Ġserv":807,"ĠK":808,"Ġsl":809,"Ġshell":810,"Ġsyrup":811,"main":812,"ĠBro":813,"Ġremain":814,"Ġvegetab":815,"Ġcans":816,"Ġboiling":817,"ĠBeat":818,"Ġla":819,"Ġpap":820,"Ġchil":821,"Ġroll":822,"mallow":823,"Ġred":824,"shmallow":825,"iz":826,"Ġ13":827,"Ġcher":828,"Ġra":829,"coa":830,"Ġmeat":831,"Ġfrom":832,"Ġbroccoli":833,"Ġfir":834,"Ġpour":835,"Ġex":836,"ason":837,"ĠPie":838,"Ġlight":839,"Ġremaining":840,"vor":841,"Ġapples":842,"Ġserving":843,"Ġli":844,"Ġref":845,"Ġcocoa":846,"ĠV":847,"ĠCream":848,"Ġhal":849,"Ġcool":850,"af":851,"ĠSprinkle":852,"Ġbanan":853,"Ġcasserole":854,"Ġ15":855,"Ġfresh":856,"mer":857,"ĠPe":858,"Ġdressing":859,"Ġblen":860,"Ġsof":861,"Ġmarshmallow":862,"Ġ20":863,"uc":864,"Ġrefriger":865,"oil":866,"ĠRe":867,"mp":868,"Ġfill":869,"ork":870,"ĠCr":871,"ĠCasserole":872,"Ġcrust":873,"Ġsweet":874,"oth":875,"Ġjello":876,"Ġshred":877,"Ġ12":878,"are":879,"Ġha":880,"ĠCover":881,"move":882,"Ġclo":883,"ks":884,"Ġinstant":885,"ue":886,"Ġcarro":887,"oll":888,"Ġshredded":889,"Ġcracker":890,"iss":891,"Ġslices":892,"ham":893,"usage":894,"ley":895,"pping":896,"ps":897,"ack":898,"os":899,"iced":900,"shire":901,"ĠSpread":902,"Ġlet":903,"orces":904,"tershire":905,"orcestershire":906,"Ġseason":907,"Ġpieces":908,"lavor":909,"Ġgraham":910,"ent":911,"mbur":912,"ĠWorcestershire":913,"Ġfilling":914,"ĠMakes":915,"ĠCut":916,"milk":917,"Ġmarshmallows":918,"nuts":919,"li":920,"ction":921,"Ġ45":922,"ĠTh":923,").":924,"Ġdiced":925,"Ġbananas":926,"Ġcold":927,"Ġan":928,"Ġsalad":929,"ats":930,"Ġball":931,"ey":932,"Ġlay":933,"Ġfruit":934,"ĠMelt":935,"Ġit":936,"Ġcover":937,"arsley":938,"ree":939,"mburger":940,"Ġsk":941,"Ġbuttermilk":942,"Ġparsley":943,"Ġwhi":944,"Ġcarrots":945,"Ġnut":946,"25":947,"aked":948,"Ġeach":949,"Ġflavor":950,"ĠChicken":951,"Ġsausage":952,"Ġchili":953,"ide":954,"inger":955,"ĠRoll":956,"ĠLet":957,"Ġup":958,"Ġoli":959,"ĠN":960,"ĠBrown":961,"berry":962,"Ġjar":963,"Ġus":964,"ĠJell":965,"Ġsqu":966,"Ġwhole":967,"Ġstrawberries":968,"ĠSa":969,"tle":970,"ĠRemove":971,"Ġhalf":972,"Ġpork":973,"ellow":974,"ional":975,"let":976,"Ġhamburger":977,"lack":978,"ĠChill":979,"meg":980,"eed":981,"oodles":982,"Ġice":983,"ges":984,"Ġnutmeg":985,"ds":986,"Ġcups":987,"Ġcookie":988,"ian":989,"Ġyellow":990,"ew":991,"ss":992,"Ġrais":993,"ĠTop":994,"unch":995,"Ġset":996,"Ġginger":997,"Ġseed":998,"abb":999,"eal":1000,"fore":1001,"Ġen":1002,"Ġbefore":1003,"immer":1004,"Ġpre":1005,"ĠCheese":1006,"oni":1007,"ender":1008,"abbage":1009,"Ġraisins":1010,"Ġsheet":1011,"Ġnoodles":1012,"Ġfirst":1013,"ĠDrain":1014,"Ġlow":1015,"Ġcub":1016,"Ġlo":1017,"Ġcont":1018,"Ġblack":1019,"Ġout":1020,"ried":1021,"esan":1022,"armesan":1023,"Ġtender":1024,"Ġdone":1025,"ift":1026,"Ġpack":1027,"mooth":1028,"ac":1029,"ens":1030,"75":1031,"Ġpeppers":1032,"Ġwal":1033,"ade":1034,"Ġtea":1035,"ĠDip":1036,"ĠPre":1037,"Ġmushrooms":1038,"Ġcloves":1039,"arch":1040,"Ġchill":1041,"Ġseasoning":1042,"Ġsmooth":1043,"tional":1044,"ag":1045,"ĠParmesan":1046,"isc":1047,"Ġother":1048,"ĠHeat":1049,"meal":1050,"Ġcherry":1051,"ump":1052,"pan":1053,"ka":1054,"Ġvegetable":1055,"starch":1056,"Ġstirring":1057,"urn":1058,"tra":1059,"Ġput":1060,"Ġcornstarch":1061,"tened":1062,"dens":1063,"densed":1064,"Ġalmon":1065,"Ġthick":1066,"Ġ325":1067,"cc":1068,"ĠSh":1069,"Ġwarm":1070,"Ġbroth":1071,"Ġwalnuts":1072,"ave":1073,"Ġcondensed":1074,"ĠY":1075,"tom":1076,"erves":1077,"Ġextra":1078,"ead":1079,"lend":1080,"Ġcontain":1081,"optional":1082,"Ġcabbage":1083,"Ġham":1084,"Ġnot":1085,"issol":1086,"Ġbottom":1087,"Ġwhites":1088,"iscuit":1089,"reasts":1090,"ally":1091,"Ġsaucepan":1092,"ĠBlend":1093,"ran":1094,"Ġdes":1095,"ĠButter":1096,"Ġq":1097,"Ġyol":1098,"ator":1099,"Ġ375":1100,"ĠIt":1101,"Ġplace":1102,"ĠPot":1103,"Ġqt":1104,"Ġcooking":1105,"rika":1106,"rop":1107,"ĠBe":1108,"Ġbreasts":1109,"ess":1110,"ĠAnd":1111,"Ġserve":1112,"Ġpaprika":1113,"Ġsoftened":1114,"acar":1115,"Ġ40":1116,"Ġbag":1117,"Ġwhipped":1118,"chin":1119,"ĠRice":1120,"Ġone":1121,"arb":1122,"Ġdash":1123,"Ġlayer":1124,"Ġdire":1125,"ime":1126,"par":1127,"ĠRef":1128,"ightly":1129,"Ġpaper":1130,"night":1131,"Ġdough":1132,"acaroni":1133,"quick":1134,"illet":1135,"ately":1136,"ĠRefriger":1137,"Ġ25":1138,"Ġare":1139,"Ġrefrigerator":1140,"Ġ7":1141,"Ġpeach":1142,"ute":1143,"aw":1144,"Ġif":1145,"reez":1146,"est":1147,"ite":1148,"eta":1149,"ize":1150,"Ġovernight":1151,"heat":1152,"ec":1153,"Ġoranges":1154,"ired":1155,"Ġthin":1156,"alian":1157,"risp":1158,"berries":1159,"Ġcontainer":1160,"Ġsticks":1161,"ĠVel":1162,"Ġdesired":1163,"Ġvegetables":1164,"ĠBoil":1165,"row":1166,"ex":1167,"Ġfin":1168,"veeta":1169,"ĠItalian":1170,"ĠRefrigerate":1171,"Ġapple":1172,"Ġcran":1173,"ĠCho":1174,"ĠVelveeta":1175,"Ġballs":1176,"'s":1177,"Ġextract":1178,"Ġby":1179,"ucumb":1180,"ett":1181,"ĠCookies":1182,"Ġskillet":1183,"Ġtopping":1184,"arin":1185,"Ġfood":1186,"rease":1187,"isco":1188,"Ġ400":1189,"fe":1190,"Ġbell":1191,"els":1192,"olden":1193,"Ġyolks":1194,"ĠChocolate":1195,"ced":1196,"eep":1197,"Ġcherries":1198,"pt":1199,"ĠU":1200,"icrow":1201,"lass":1202,"rand":1203,"Ġstrawberry":1204,"spoon":1205,"oney":1206,"ĠCrisco":1207,"Ġteaspoon":1208,"ris":1209,"ĠCorn":1210,"Ġpeas":1211,"Ġfinely":1212,"Ġpeel":1213,"Ġbiscuit":1214,"quart":1215,"icrowave":1216,"fection":1217,"Ġmacaroni":1218,"ature":1219,"Ġwa":1220,"cept":1221,"pe":1222,"Ġmash":1223,"ĠServes":1224,"ĠBread":1225,"rimp":1226,"Ġunco":1227,"Ġtime":1228,"zz":1229,"Ġconfection":1230,"Ġconfectioners":1231,"Ġminced":1232,"og":1233,"vy":1234,"Ġflakes":1235,"Ġliqu":1236,"Ġuse":1237,"ding":1238,"16":1239,"Ġspread":1240,"Ġlightly":1241,"Ġsize":1242,"Ġmo":1243,"Ġcucumb":1244,"ich":1245,"se":1246,"Ġgolden":1247,"tt":1248,"elat":1249,"Ġste":1250,"Ġpla":1251,"low":1252,"ĠĠ":1253,"ĠLay":1254,"Ġmixed":1255,"Ġmore":1256,"ĠBring":1257,"atter":1258,"Ġdill":1259,"atsup":1260,"ta":1261,"oughly":1262,"Ġwax":1263,"oroughly":1264,"Ġgelat":1265,"Ġcatsup":1266,"aco":1267,"Ġtab":1268,"Ġcol":1269,"Ġyou":1270,"Ġolives":1271,"ĠDrop":1272,"sweet":1273,"Ġsoy":1274,"Ġsprinkle":1275,"Ġsimmer":1276,"Ġservings":1277,"Ġflavoring":1278,"east":1279,"kin":1280,"Ġpeaches":1281,"Ġthoroughly":1282,"Ġloaf":1283,"Ġliquid":1284,"Ġres":1285,"Ġexcept":1286,"Ġsoft":1287,"inach":1288,"10":1289,"poon":1290,"lespoon":1291,"Ġ35":1292,"tuce":1293,"Ġtablespoon":1294,"Ġcott":1295,"Ġcottage":1296,"Ġpim":1297,"Ġfirm":1298,"ble":1299,"Ġyeast":1300,"Ġslightly":1301,"ucchin":1302,"ucchini":1303,"ĠMo":1304,"Ġpl":1305,"atmeal":1306,"Ġlettuce":1307,"nch":1308,"Ġcolor":1309,"lue":1310,"Ġrolls":1311,"Ġstand":1312,"ano":1313,"umpkin":1314,"Ġhoney":1315,"etti":1316,"ric":1317,"Ġpt":1318,"ĠPreheat":1319,"ened":1320,"Ġchops":1321,"agh":1322,"aghetti":1323,"ctions":1324,"Ġmake":1325,"Ġket":1326,"ile":1327,"Ġwine":1328,"Ġcombine":1329,"its":1330,"yle":1331,"Ġlime":1332,"Ġde":1333,"cent":1334,"ings":1335,"ĠFold":1336,"oked":1337,"ĠLayer":1338,"led":1339,"Ġchun":1340,"ortil":1341,"ortilla":1342,"Ġfat":1343,"Ġbuttered":1344,"arp":1345,"rench":1346,"elf":1347,"Ġmashed":1348,"12":1349,"Ġpick":1350,"ella":1351,"Ġhead":1352,"Ġoff":1353,"Ġpeanuts":1354,"ĠBis":1355,"Ġgelatin":1356,"Ġaside":1357,"Ġrefrigerate":1358,"chup":1359,"iff":1360,"ĠWhen":1361,"Ġlit":1362,"Ġketchup":1363,"arella":1364,"zzarella":1365,"Ġdo":1366,"Ġoats":1367,"Ġfry":1368,"Ġpast":1369,"ĠBisquick":1370,"Ġsharp":1371,"ĠFrench":1372,"range":1373,"andarin":1374,"Ġfreez":1375,"Ġshrimp":1376,"ud":1377,"Ġale":1378,"Ġpackage":1379,"Ġwill":1380,"Ġtortilla":1381,"Ġolive":1382,"arbec":1383,"ved":1384,"gano":1385,"Ġcubes":1386,"Ġunb":1387,"Ġblend":1388,"iel":1389,"ican":1390,"Ġstuff":1391,"Ġfoil":1392,"Ġblender":1393,"lower":1394,"Ġmuff":1395,"Ġenough":1396,"Ġfloured":1397,"Ġz":1398,"asy":1399,"ĠMozzarella":1400,"Ġspoon":1401,"greased":1402,"ento":1403,"Ġmeal":1404,"ĠThen":1405,"vap":1406,"rising":1407,"vapor":1408,"vered":1409,"urp":1410,"ind":1411,"Ġevapor":1412,"Ġdissol":1413,"Ġonto":1414,"Ġself":1415,"Ġslice":1416,"tail":1417,"erb":1418,"cktail":1419,"Ġcovered":1420,"Ġevaporated":1421,"regano":1422,"Ġpotato":1423,"Ġtaco":1424,"Ġbottle":1425,"Ġbatter":1426,"Ġspaghetti":1427,"Ġthaw":1428,"ape":1429,"Ġpimento":1430,"Ġalmonds":1431,"Ġbiscuits":1432,"Ġoregano":1433,"Ġdirections":1434,"oun":1435,"ares":1436,"Ġblended":1437,"ĠSw":1438,"ĠFor":1439,"Ġyour":1440,"ray":1441,"erry":1442,"Ġacc":1443,"ose":1444,"Ġoatmeal":1445,"Ġlon":1446,"ĠBall":1447,"Ġthis":1448,"Ġsteak":1449,"ording":1450,"Ġlemonade":1451,"Ġunbaked":1452,"arbecue":1453,"key":1454,"Ġwaf":1455,"can":1456,"Ġfine":1457,"ĠFruit":1458,"Ġspinach":1459,"Ġaccording":1460,"ĠSl":1461,"Ġstuffing":1462,"Ġzucchini":1463,"fter":1464,"Ġsift":1465,"ĠSift":1466,"cess":1467,"ĠPotato":1468,"Ġmandarin":1469,"ne":1470,"Ġroast":1471,"Ġpinch":1472,"Ġsquash":1473,"Qu":1474,"ĠCar":1475,"Ġcucumbers":1476,"ted":1477,"Ġlittle":1478,"cle":1479,"Ġmixing":1480,"Ġri":1481,"Ġte":1482,"Ġdried":1483,"Ġcookies":1484,"arton":1485,"Ġcarton":1486,"rox":1487,"ĠBrand":1488,"Ġplain":1489,"Ġtart":1490,"aul":1491,"ful":1492,"ffee":1493,"ned":1494,"agle":1495,"Ġthawed":1496,"Ġcocktail":1497,"ĠBroccoli":1498,"Ġalmond":1499,"sc":1500,"ĠQu":1501,"Ġpumpkin":1502,"ĠEasy":1503,"Ġthicken":1504,"roxim":1505,"Ġrest":1506,"udge":1507,"ĠEagle":1508,"Ġvery":1509,"roximately":1510,"Ġap":1511,"iflower":1512,"Ġclove":1513,"auliflower":1514,"ĠRo":1515,"pared":1516,"Ġbrowned":1517,"ark":1518,"ĠGrease":1519,"ĠPean":1520,"Ġwhen":1521,"ĠYiel":1522,"stantly":1523,"Ġpeeled":1524,"ms":1525,"Ġconstantly":1526,"andy":1527,"ually":1528,"Ġdou":1529,"ĠSimmer":1530,"una":1531,"ĠSauce":1532,"ĠUse":1533,"ĠSpoon":1534,"ĠPeanut":1535,"Ġslow":1536,"ern":1537,"ĠMake":1538,"Ġbaked":1539,"ĠBaked":1540,"ĠApple":1541,"Ġsifted":1542,"Ġprepared":1543,"ider":1544,"ĠSe":1545,"Ġpans":1546,"mper":1547,"Ġcrab":1548,"Ġhea":1549,"Ġtur":1550,"urpose":1551,"Ġround":1552,"Ġ16":1553,"Ġcranberry":1554,"ng":1555,"otch":1556,"ld":1557,"Ġwafers":1558,"ke":1559,"ĠSlice":1560,"Ġglass":1561,"Ġbas":1562,"Ġtub":1563,"mi":1564,"Ġmini":1565,"issolve":1566,"ĠDissolve":1567,"Ġtemper":1568,"Ġheavy":1569,"Ġmuffin":1570,"ĠSwiss":1571,"Ġfork":1572,"Ġshells":1573,"ous":1574,"Ġpo":1575,"izz":1576,"ount":1577,"Ġ50":1578,"Ġcro":1579,"urt":1580,"Ġhard":1581,"Ġmicrowave":1582,"Ġtemperature":1583,"Ġblue":1584,"Ġmixer":1585,"ates":1586,"bread":1587,"kra":1588,"aro":1589,"ĠSto":1590,"purpose":1591,"Ġhand":1592,"ogurt":1593,"Ġcoloring":1594,"style":1595,"Ġwhipping":1596,"scotch":1597,"Ġjust":1598,"ĠChop":1599,"Ġcle":1600,"rap":1601,"Ġsemi":1602,"ricot":1603,"Ġbon":1604,"ĠSoup":1605,"emon":1606,"lish":1607,"Ġturn":1608,"Ġ300":1609,"ĠSweet":1610,"ides":1611,"Ġcubed":1612,"ĠKaro":1613,"Ġhalves":1614,"ereal":1615,"und":1616,"Ġneed":1617,"ready":1618,"aves":1619,"Ġlayers":1620,"Ġsquares":1621,"Ġdouble":1622,"ira":1623,"ĠGra":1624,"Ġcider":1625,"ĠPudding":1626,"Ġwhile":1627,"ĠFro":1628,"Ġcranberries":1629,"dually":1630,"Ġsides":1631,"reak":1632,"Ġtartar":1633,"iracle":1634,"Ġstri":1635,"ĠHot":1636,"Ġuncovered":1637,"ĠPunch":1638,"Ġcereal":1639,"ney":1640,"Ġyogurt":1641,"Ġungreased":1642,"ist":1643,"ĠStrawber":1644,"Ġchilies":1645,"Ġcauliflower":1646,"ices":1647,"arts":1648,"Ġchest":1649,"ular":1650,"ĠSaute":1651,"ĠMiracle":1652,"Ġminute":1653,"ĠDel":1654,"Ġcrumbled":1655,"Ġkid":1656,"Ġapproximately":1657,"Ġqu":1658,"Ġstiff":1659,"Ġchestnuts":1660,"Ġbut":1661,"ĠDo":1662,"Ġdirect":1663,"Ġcornmeal":1664,"rispies":1665,"Ġready":1666,"Ġdates":1667,"gular":1668,"Ġtw":1669,"ppy":1670,"itz":1671,"ĠPotatoes":1672,"sa":1673,"ĠTurn":1674,"ĠSqu":1675,"ĠTo":1676,"Ġcur":1677,"ĠGr":1678,"Ġinch":1679,"ĠPress":1680,"ipe":1681,"Ġjars":1682,"izza":1683,"Ġsc":1684,"Ġrasp":1685,"Ġbasil":1686,"Ġkidney":1687,"Ġside":1688,"Ġdirected":1689,"venly":1690,"iv":1691,"Ġleast":1692,"Ġdissolved":1693,"ĠStrawberry":1694,"pare":1695,"ouill":1696,"ĠFry":1697,"Ġkern":1698,"ouillon":1699,"uck":1700,"Ġgood":1701,"ia":1702,"Ġbouillon":1703,"Ġhash":1704,"Ġweed":1705,"ĠKrispies":1706,"fat":1707,"Ġbutterscotch":1708,"ĠFudge":1709,"Ġtablespoons":1710,"ĠLemon":1711,"bl":1712,"Ġstrips":1713,"Ġ24":1714,"ĠAr":1715,"tz":1716,"ĠRitz":1717,"ĠSet":1718,"ĠFl":1719,"Ġapricot":1720,"Ġpin":1721,"Ġhe":1722,"own":1723,"veral":1724,"ull":1725,"cipe":1726,"Ġuncooked":1727,"io":1728,"Ġafter":1729,"ĠBanan":1730,"nish":1731,"Ġdip":1732,"Ġbub":1733,"Ġkernel":1734,"Ġseveral":1735,"Ġpecan":1736,"Ġbring":1737,"Ġam":1738,"sert":1739,"Ġslowly":1740,"reme":1741,"spice":1742,"Ġremove":1743,"Ġtuna":1744,"enter":1745,"Ġplate":1746,"Ġkn":1747,"Ġcanned":1748,"Ġraw":1749,"Ġcres":1750,"ĠShape":1751,"Ġsalmon":1752,"Ġchunks":1753,"eez":1754,"Ġskin":1755,"ĠCra":1756,"oss":1757,"sting":1758,"Ġallspice":1759,"Ġbanana":1760,"Ġcenter":1761,"Ġsepar":1762,"Ġfew":1763,"Ġany":1764,"ĠBanana":1765,"vel":1766,"Ġday":1767,"asco":1768,"ĠThis":1769,"ĠTab":1770,"Ġsweetened":1771,"Ġcrescent":1772,"Ġchi":1773,"Ġevenly":1774,"amel":1775,"Ġbits":1776,"Ġnon":1777,"lasses":1778,"ĠQuick":1779,"Ġturkey":1780,"ets":1781,"Ġcrisp":1782,"Ġlast":1783,"ĠTabasco":1784,"Ġlike":1785,"anch":1786,"oke":1787,"ently":1788,"Ġpat":1789,"Ġpastry":1790,"merican":1791,"Ġbarbecue":1792,"rocess":1793,"ĠRed":1794,"Ġregular":1795,"ĠLo":1796,"Ġcons":1797,"ters":1798,"Ġtube":1799,"ugar":1800,"Ġcoffee":1801,"Ġstew":1802,"ĠEgg":1803,"Ġgrease":1804,"Ġseasoned":1805,"ĠMeat":1806,"Ġjelly":1807,"ĠPrepare":1808,"so":1809,"alap":1810,"Ġcoat":1811,"alapen":1812,"ĠFill":1813,"ĠYou":1814,"Ġpart":1815,"ĠStore":1816,"rough":1817,"ĠPineapple":1818,"ĠAmerican":1819,"Ġchilled":1820,"Ġminiature":1821,"Ġpaste":1822,"ĠYields":1823,"Ġ*":1824,"ig":1825,"tern":1826,"ĠMicrowave":1827,"Ġthrough":1828,"Ġmolasses":1829,"ĠWith":1830,"Ġboiler":1831,"Ġbubb":1832,"mes":1833,"Ġhor":1834,"ĠBeef":1835,"ĠBalls":1836,"auce":1837,"asion":1838,"ĠPeel":1839,"ccasion":1840,"ĠCan":1841,"Ġrind":1842,"ĠSalt":1843,"Ġthem":1844,"Ġtwo":1845,"Ġshall":1846,"adish":1847,"hub":1848,"hubarb":1849,"Ġroom":1850,"Ġoccasion":1851,"Ġsto":1852,"Ġleaves":1853,"ĠFreez":1854,"Ġtortillas":1855,"erbet":1856,"Ġclean":1857,"Ġar":1858,"Ġflaked":1859,"Ġstal":1860,"Ġform":1861,"seradish":1862,"Ġamount":1863,"Ġspray":1864,"Ġgrap":1865,"ĠPecan":1866,"Ġquick":1867,"Ġgran":1868,"Ġoccasionally":1869,"Ġbrowns":1870,"Ġboxes":1871,"Ġhorseradish":1872,"Ġsalsa":1873,"ĠMex":1874,"Ġboth":1875,"centr":1876,"fuls":1877,"ĠMin":1878,"ĠDressing":1879,"ĠBeans":1880,"15":1881,"ĠSeason":1882,"Ġblueberries":1883,"ang":1884,"reat":1885,"Ġthat":1886,"meat":1887,"Ġdown":1888,"avor":1889,"Ġchunk":1890,"Ġfreeze":1891,"Ġdeep":1892,"Ġjalapen":1893,"Ġfish":1894,"Ġconcentr":1895,"Ġfreezer":1896,"ild":1897,"Ġtoast":1898,"Ġcomp":1899,"ĠGar":1900,"avorite":1901,"uer":1902,"Ġlong":1903,"ĠPepper":1904,"Ġpretz":1905,"sweetened":1906,"bs":1907,"ĠTake":1908,"ĠRanch":1909,"Ġpress":1910,"Ġshallow":1911,"Ġsm":1912,"amp":1913,"other":1914,"ĠOn":1915,"uffy":1916,"Ġripe":1917,"kraut":1918,"uerkraut":1919,"Ġ425":1920,"ĠSo":1921,"about":1922,"Ġcrock":1923,"Ġcreamy":1924,"Ġsquare":1925,"aschin":1926,"ĠCoconut":1927,"Ġpasta":1928,"Ġconcentrate":1929,"aschino":1930,"not":1931,"Ġfried":1932,"eless":1933,"Ġspeed":1934,"reast":1935,"Ġdark":1936,"ĠMay":1937,"ĠDream":1938,"ĠIf":1939,"Ġdeg":1940,"ĠMar":1941,"less":1942,"cake":1943,"wich":1944,"ĠZ":1945,"usts":1946,"ĠOrange":1947,"pot":1948,"Ġmaraschino":1949,"ĠVegetab":1950,"Ġwaxed":1951,"ĠSugar":1952,"ĠIce":1953,"Ġpacked":1954,"corn":1955,"ation":1956,"erm":1957,"enne":1958,"Ġ450":1959,"ĠOre":1960,"Ġcomplet":1961,"Ġcandy":1962,"Ġdri":1963,"Ġcreamed":1964,"Ġspices":1965,"ulated":1966,"very":1967,"Ġsherbet":1968,"Ġapplesauce":1969,"Ġdozen":1970,"Ġmayo":1971,"Ġprocess":1972,"Ġcrusts":1973,"ĠMon":1974,"ĠWash":1975,"Ġchives":1976,"ort":1977,"ĠPound":1978,"Ġhigh":1979,"Ġcarrot":1980,"Ġgal":1981,"Ġboiled":1982,"Ġkeep":1983,"Ġgranulated":1984,"Ġbars":1985,"ĠBreak":1986,"esson":1987,"ext":1988,"velop":1989,"Ġbunch":1990,"Ġele":1991,"ĠBr":1992,"isten":1993,"irt":1994,"ĠJello":1995,"Ġlonger":1996,"ĠSc":1997,"Ġunsweetened":1998,"ĠNo":1999,"Ġgrapes":2000,"ys":2001,"Ġcomes":2002,"Ġrings":2003,"Ġcooled":2004,"Ġenvelop":2005,"Ġboneless":2006,"andwich":2007,"Ġlean":2008,"ĠWesson":2009,"Ġbite":2010,"Ġdro":2011,"ayenne":2012,"Tel":2013,"Ġcayenne":2014,"rees":2015,"ĠForm":2016,"ĠArrange":2017,"Ġim":2018,"Ġfold":2019,"Ġbreast":2020,"ĠGreen":2021,"Ġthickened":2022,"Ġdegrees":2023,"20":2024,"essert":2025,"Ġme":2026,"umin":2027,"Ġcucumber":2028,"Ġcompletely":2029,"ilad":2030,"spar":2031,"Ġpretzels":2032,"Ġusing":2033,"ĠMexican":2034,"ined":2035,"Ġfluffy":2036,"Ġraspberry":2037,"Ġmold":2038,"ĠCon":2039,"itos":2040,"ĠDessert":2041,"Ġcornbread":2042,"ĠFreeze":2043,"Ġhas":2044,"Ġchuck":2045,"Ġbubbly":2046,"ors":2047,"Ġ60":2048,"ĠNut":2049,"Ġevery":2050,"Ġcoars":2051,"any":2052,"ary":2053,"Ġpickles":2054,"Up":2055,"aping":2056,"ĠLoaf":2057,"14":2058,"ĠSausage":2059,"ĠCherry":2060,"ife":2061,"ĠToss":2062,"ctric":2063,"oy":2064,"Ġchoice":2065,"ĠCran":2066,"Ġused":2067,"Ġper":2068,"ong":2069,"Ġpickle":2070,"Ġseal":2071,"ĠBean":2072,"ĠPick":2073,"Ġelectric":2074,"Ġorder":2075,"Ġthinly":2076,"ĠSte":2077,"Ġmel":2078,"laz":2079,"Ġpoppy":2080,"ied":2081,"edges":2082,"Ġneeded":2083,"ĠHigh":2084,"ĠEng":2085,"ĠVegetable":2086,"ĠSour":2087,"Ġfull":2088,"ft":2089,"Ġonce":2090,"ĠPork":2091,"Ġne":2092,"Ġaddit":2093,"istach":2094,"Ġjalapeno":2095,"idd":2096,"ĠWrap":2097,"ious":2098,"erries":2099,"uted":2100,"Ġstalks":2101,"istachio":2102,"Ġpop":2103,"ĠPet":2104,"Ġrhubarb":2105,"Ġaltern":2106,"ĠCranberry":2107,"medi":2108,"rained":2109,"Ġsome":2110,"Ġhave":2111,"mediately":2112,"uns":2113,"Ġsecon":2114,"Ġknife":2115,"Ġ-":2116,"Ġrecipe":2117,"ties":2118,"Ġag":2119,"fl":2120,"Ġsauerkraut":2121,"Ġbeating":2122,"Ġtoss":2123,"Ġmarin":2124,"agus":2125,"sparagus":2126,"Ġbeen":2127,"Ġquar":2128,"ai":2129,"ĠMarin":2130,"Ġwheat":2131,"cy":2132,"Ġanother":2133,"ĠEnglish":2134,"Ġagain":2135,"ĠPat":2136,"Ġseeds":2137,"Ġbroil":2138,"ĠDump":2139,"ĠBars":2140,"ines":2141,"ĠBlue":2142,"Ġadding":2143,"yme":2144,"Ġberries":2145,"ĠAl":2146,"Ġspice":2147,"Ġthyme":2148,"stit":2149,"Ġgravy":2150,"No":2151,"Ġfavorite":2152,"ots":2153,"Ġsherry":2154,"ĠCheez":2155,"Ġlemons":2156,"Ġmelts":2157,"Ġalso":2158,"ĠThe":2159,"ĠGradually":2160,"Ġcurry":2161,"Ġdrops":2162,"ould":2163,"ĠHam":2164,"ive":2165,"ken":2166,"ĠWhiz":2167,"ĠGood":2168,"Ġheaping":2169,"Ġpunch":2170,"undt":2171,"Ġpar":2172,"ĠBarbecue":2173,"bon":2174,"Ġsub":2175,"Ġbet":2176,"Ġrum":2177,"ĠUn":2178,"ĠTater":2179,"pl":2180,"ĠAng":2181,"Ġwhip":2182,"Ġenvelope":2183,"orsels":2184,"ame":2185,"cakes":2186,"Ġmorsels":2187,"ĠBiscuit":2188,"Ġflat":2189,"Ġaround":2190,"gel":2191,"Ġcand":2192,"inue":2193,"Ġtow":2194,"Ġpound":2195,"ball":2196,"ool":2197,"icious":2198,"ĠSquash":2199,"aff":2200,"Ġgradually":2201,"Ġrelish":2202,"ĠCrumb":2203,"bler":2204,"ph":2205,"Ġdrop":2206,"Ġrise":2207,"ĠKn":2208,"ĠCarro":2209,"ĠGarnish":2210,"Ġpizza":2211,"Ġherb":2212,"Ġimmediately":2213,"'t":2214,"ĠStuff":2215,"Ġcoated":2216,"ĠPeach":2217,"ĠAngel":2218,"Ġbroken":2219,"Ġshape":2220,"stic":2221,"Ġangel":2222,"Ġsubstit":2223,"pen":2224,"pick":2225,"ĠChil":2226,"Ġpimentos":2227,"Ġ11":2228,"Ġplastic":2229,"Ġfrosting":2230,"ĠBundt":2231,"Ġsalted":2232,"ca":2233,"vo":2234,"Ġplus":2235,"istency":2236,"int":2237,"ĠKeep":2238,"Ġpres":2239,"Ġdi":2240,"ĠPam":2241,"Ġpreheat":2242,"boil":2243,"nut":2244,"ĠCandy":2245,"ĠMash":2246,"othpick":2247,"Ġpinto":2248,"Ġconsistency":2249,"ĠChili":2250,"ling":2251,"ĠRa":2252,"ĠOr":2253,"ppings":2254,"bbler":2255,"Ġseasonings":2256,"ĠTom":2257,"Ġcornfl":2258,"Ġflavored":2259,"ĠDelight":2260,"Ġdrippings":2261,"ace":2262,"Ġpistachio":2263,"Ġcheddar":2264,"Ġtoothpick":2265,"ner":2266,"ĠPizza":2267,"ĠHa":2268,"Ġfrying":2269,"cad":2270,"ĠPumpkin":2271,"ĠReduce":2272,"ton":2273,"wh":2274,"ĠOreo":2275,"Ġund":2276,"ĠRolls":2277,"Ġstove":2278,"ĠBiscuits":2279,"Ġlen":2280,"ccent":2281,"joy":2282,"peat":2283,"Ġbean":2284,"ĠLine":2285,"plant":2286,"vocad":2287,"free":2288,"Ġ14":2289,"ĠAccent":2290,"ĠOld":2291,"ized":2292,"ollow":2293,"Ġoys":2294,"ĠTea":2295,"allop":2296,"Ġchop":2297,"Ġbrand":2298,"iluted":2299,"lets":2300,"Ġcaramel":2301,"Ġrefrigerated":2302,"ty":2303,"Ġbay":2304,"Ġbeets":2305,"Ġpepperoni":2306,"cooked":2307,"esame":2308,"Ġonly":2309,"law":2310,"ĠCobbler":2311,"Ġadded":2312,"Ġtoasted":2313,"ĠMuff":2314,"iny":2315,"Ġgently":2316,"ĠFried":2317,"ees":2318,"hey":2319,"ting":2320,"Ġtoo":2321,"ĠTaco":2322,"Ġnext":2323,"ĠSpinach":2324,"ĠShrimp":2325,"iffy":2326,"Ġcrabmeat":2327,"ĠMinute":2328,"eg":2329,"Ġ18":2330,"ogs":2331,"ĠApp":2332,"Ġcorned":2333,"ĠJack":2334,"ĠCrust":2335,"erman":2336,"wise":2337,"inse":2338,"unchy":2339,"Ġyolk":2340,"eri":2341,"Ġasparagus":2342,"ershey":2343,"ĠBrownies":2344,"Ġpreserves":2345,"ving":2346,"Ġbuns":2347,"ĠAfter":2348,"balls":2349,"ĠPh":2350,"ante":2351,"ivid":2352,"boiled":2353,"ome":2354,"Ġairt":2355,"ĠCrack":2356,"ĠZucchini":2357,"affin":2358,"Ġairtight":2359,"ĠJiffy":2360,"ĠMarshmallow":2361,"Ġparaffin":2362,"ĠMuffins":2363,"icante":2364,"ĠCabbage":2365,"Ġavocad":2366,"Ġpreheated":2367,"Ġry":2368,"Ġleaf":2369,"amels":2370,"Ġbar":2371,"ener":2372,"Ġstore":2373,"ĠHershey":2374,"ĠKool":2375,"ĠYield":2376,"Ġalternately":2377,"Ġrye":2378,"ĠCup":2379,"ĠCrab":2380,"bow":2381,"Ġsandwich":2382,"Ġsesame":2383,"Ġwee":2384,"aking":2385,"ĠCrumble":2386,"Ġel":2387,"oles":2388,"Ġback":2389,"ĠGerman":2390,"allon":2391,"ĠFresh":2392,"Ġheated":2393,"eets":2394,"ĠKra":2395,"Ġpopcorn":2396,"Ġoun":2397,"ĠCamp":2398,"Ġteaspoons":2399,"Ġpatties":2400,"ĠOnion":2401,".\\":2402,"vil":2403,"Ġcla":2404,"ĠCrisp":2405,"arty":2406,"Ġquart":2407,"Ġadditional":2408,"Ġcornflakes":2409,"Aid":2410,"lit":2411,"iento":2412,"Ġcaramels":2413,"Ġseparated":2414,"Ġchunky":2415,"Ġcl":2416,"ower":2417,"Ġrolled":2418,"ĠPan":2419,"ĠCrush":2420,"Ġturning":2421,"tc":2422,"Ġart":2423,"Ġ250":2424,"ĠSteak":2425,"Ġsubstitute":2426,"Ġreal":2427,"aby":2428,"aple":2429,"ĠGreat":2430,"Ġseparate":2431,"for":2432,"Ġpicante":2433,"Ġsli":2434,"Ġcube":2435,"zzle":2436,"ĠCaramel":2437,"do":2438,"ness":2439,"ĠSpray":2440,"Ġdays":2441,"Ġprocessor":2442,"Ġseconds":2443,"inner":2444,"ĠFr":2445,"ial":2446,"alor":2447,"ĠFrosting":2448,"ket":2449,"made":2450,"Ġtightly":2451,"Ġmild":2452,"Ġetc":2453,"Ġsoups":2454,"ĠDe":2455,"ĠOatmeal":2456,"bell":2457,"fer":2458,"gth":2459,"ible":2460,"Ġpiece":2461,"Ġgarnish":2462,"imes":2463,"Ġfryer":2464,"Ġelbow":2465,"Ġfour":2466,"Ġgallon":2467,"Ġlid":2468,"ĠMacaroni":2469,"Ġpimiento":2470,"ĠDor":2471,"Ġrack":2472,"Ġlength":2473,"bits":2474,"ĠDiv":2475,"coop":2476,"ĠRepeat":2477,"ĠCornbread":2478,"ily":2479,"icot":2480,"ĠDot":2481,"All":2482,"sor":2483,"elph":2484,"ĠSup":2485,"Ġpears":2486,"ĠAll":2487,"Ġgrape":2488,"Ġnonfat":2489,"iladelph":2490,"iladelphia":2491,"ini":2492,"Ġbreak":2493,"laze":2494,"gs":2495,"Ġwrap":2496,"Ġforms":2497,"Ġhands":2498,"ĠPhiladelphia":2499,"uk":2500,"ering":2501,"oul":2502,"ĠShake":2503,"ĠDelicious":2504,"ĠCampbell":2505,"Ġwash":2506,"terey":2507,"olid":2508,"ipton":2509,"stick":2510,"ĠFarm":2511,"ĠWhile":2512,"Ġreserv":2513,"Ġcandied":2514,"Ġslivered":2515,"Ġshake":2516,"Ġcrunchy":2517,"Ġthey":2518,"Ġwhich":2519,"Ġremo":2520,"ĠRoast":2521,"),":2522,"we":2523,"ĠLipton":2524,"Ġfirmly":2525,"ĠBlueberry":2526,"ma":2527,"ĠParty":2528,"Ġeggplant":2529,"most":2530,"Ġspoonfuls":2531,"lu":2532,"Ġ'":2533,"Ġbeer":2534,"Ġsage":2535,"Ġbott":2536,"ingers":2537,"Ġgrain":2538,"Ġstage":2539,"Ġmuffins":2540,"ĠBrush":2541,"ĠHamburger":2542,"omemade":2543,"eringue":2544,"app":2545,"ola":2546,"qual":2547,"Ġsmoke":2548,"iven":2549,"ially":2550,"Ġpit":2551,"Ġjuices":2552,"Ġbags":2553,"egg":2554,"fast":2555,"Ġuns":2556,"Ġlard":2557,"ĠMonterey":2558,"Ġmade":2559,"uncan":2560,"Ġshould":2561,"Ġgrill":2562,"Ġraspberries":2563,"Ġartich":2564,"alley":2565,"ĠWill":2566,"Ġskim":2567,"ox":2568,"Ġ\\":2569,"ĠCreme":2570,"ĠMe":2571,"ĠTw":2572,"Ġthree":2573,"Ġbeg":2574,"lavored":2575,"blong":2576,"way":2577,"ĠRicot":2578,"Ġalmost":2579,"cing":2580,"Ġcumin":2581,"Ġmaple":2582,"Ġserved":2583,"ĠBroil":2584,"mburg":2585,"ĠSquares":2586,"Ġbroiler":2587,"Ġeat":2588,"ĠStew":2589,"Ġokra":2590,"Ġbaby":2591,"asure":2592,"Ġoften":2593,"Ġstewed":2594,"Ġlengthwise":2595,"ĠRicotta":2596,"Ġoblong":2597,"omme":2598,"ĠPickles":2599,"ĠKraft":2600,"lings":2601,"Ġtimes":2602,"ĠBest":2603,"Ġwhis":2604,"ĠDi":2605,"ashion":2606,"Ġblueberry":2607,"ĠCoffee":2608,"ĠChip":2609,"ĠHines":2610,"idge":2611,"Ġapart":2612,"size":2613,"Ġ\"":2614,"Ġtid":2615,"ĠValley":2616,"meric":2617,"yre":2618,"Ġtri":2619,"Ġpul":2620,"Ġwork":2621,"ions":2622,"thing":2623,"ully":2624,"Ġthickens":2625,"ĠDoritos":2626,"ween":2627,"yrex":2628,"Ġsq":2629,"Ġ55":2630,"Ġclear":2631,"ah":2632,"ĠMilk":2633,"ĠDuncan":2634,"ĠGrand":2635,"ĠVeg":2636,"Ġmoder":2637,"Ġconsomme":2638,"ĠPepperidge":2639,"ny":2640,"Ġedges":2641,"Ġdogs":2642,"ĠPast":2643,"uring":2644,"ĠRecipe":2645,"Ġcoarse":2646,"Ġbetween":2647,"Ġtidbits":2648,"ail":2649,"ons":2650,"Ġwings":2651,"Ġchiles":2652,"Ġrolling":2653,"ĠCreamy":2654,"ĠFrost":2655,"Ġcoarsely":2656,"flavored":2657,"Ġtap":2658,"ĠPyrex":2659,"ĠTots":2660,"Ġstill":2661,"Ġstyle":2662,"ĠSalmon":2663,"Ġteaspoonfuls":2664,"Ġturmeric":2665,"ĠTomato":2666,"Ġic":2667,"Ġfil":2668,"ĠScallop":2669,"Ġweeks":2670,"Ġfudge":2671,"Ġdissolve":2672,"ĠRais":2673,"ĠSupreme":2674,"ĠTuna":2675,"ĠWhite":2676,"Ġcontainers":2677,"Ġribs":2678,"Ġhearts":2679,"tm":2680,"inese":2681,"ĠChris":2682,"Ġalumin":2683,"ĠChops":2684,"Ġquarter":2685,"Ġpulp":2686,"Ġaluminum":2687,"Ġsaute":2688,"ĠHoney":2689,"Ġcrumbly":2690,"ĠFrozen":2691,"Ġstock":2692,"idden":2693,"13":2694,"head":2695,"Ġgiven":2696,"Ġmint":2697,"ĠLow":2698,"ioca":2699,"Ġicing":2700,"de":2701,"Ġsheets":2702,"ĠHaw":2703,"ĠHidden":2704,"Ġkind":2705,"ĠCont":2706,"aiian":2707,"ĠTang":2708,"ĠChinese":2709,"Ġgelatine":2710,"Ġbottles":2711,"ĠHawaiian":2712,"ften":2713,"small":2714,"Ġwant":2715,"ĠSlow":2716,"geal":2717,"Ġunder":2718,"Ġwithout":2719,"ĠOven":2720,"try":2721,"Ġbr":2722,"Ġless":2723,"ĠEggs":2724,"Ġmoderate":2725,"Ġbone":2726,"Ġdrink":2727,"Ġhamburg":2728,"Ġpopped":2729,"Ġsure":2730,"Ġboard":2731,"Ġclams":2732,"oultry":2733,"Ġpure":2734,"atch":2735,"utons":2736,"ĠCustard":2737,"Ġno":2738,"Ġboned":2739,"ĠSoak":2740,"Ġtowel":2741,"ĠCarrot":2742,"cr":2743,"Ġcutter":2744,"Ġpoultry":2745,"ĠMushroom":2746,"ĠStove":2747,"ĠSoften":2748,"Ġmein":2749,"Ġeverything":2750,"Ġbest":2751,"ĠPo":2752,"ĠSpaghetti":2753,"Ġtops":2754,"Ġbrandy":2755,"Ġtapioca":2756,"Ġsur":2757,"ĠSlaw":2758,"Ġglaze":2759,"Ġholes":2760,"ĠKnead":2761,"nation":2762,"Ġscoop":2763,"anish":2764,"Ġfran":2765,"Ġinser":2766,"Ġlim":2767,"oodle":2768,"ĠVanilla":2769,"ously":2770,"Ġoyster":2771,"ĠDivide":2772,"ĠRaisin":2773,"Ġ&":2774,"requ":2775,"uss":2776,"ĠIcing":2777,"ĠMarinate":2778,"tmas":2779,"with":2780,"rag":2781,"Ġgreens":2782,"ĠJust":2783,"Ġrefried":2784,"Ġstems":2785,"Ġcroutons":2786,"Ġknead":2787,"iddle":2788,"Ġinserted":2789,"Ġfrequ":2790,"tover":2791,"ĠChex":2792,"Ġloaves":2793,"Ġskinless":2794,"Ġfrequently":2795,"Ġtake":2796,"Ġmeringue":2797,"ĠCakes":2798,"Ġsugars":2799,"ĠSm":2800,"ĠTur":2801,"ĠDish":2802,"Ġparty":2803,"ĠStuffed":2804,"Ġavocado":2805,"ĠChristmas":2806,"Ġluk":2807,"Ġjam":2808,"etiz":2809,"ieners":2810,"ĠDri":2811,"inches":2812,"ĠHash":2813,"ewarm":2814,"Ġcontinue":2815,"Ġpickling":2816,"Ġpartially":2817,"Ġquarters":2818,"ĠScalloped":2819,"Ġlukewarm":2820,"dry":2821,"Ġtins":2822,"Ġfollow":2823,"ams":2824,"ĠButtermilk":2825,"ragon":2826,"11":2827,"Ġdel":2828,"ĠSk":2829,"able":2830,"ominy":2831,"ĠHomemade":2832,"cessary":2833,"ĠGrill":2834,"Ġnecessary":2835,"ĠSlowly":2836,"no":2837,"arragon":2838,"Ġwedges":2839,"ored":2840,"Ġquarts":2841,"Ġsprayed":2842,"ĠBreakfast":2843,"ĠAllow":2844,"Ġfillets":2845,"Ġcalor":2846,"Ġmiddle":2847,"Ġlined":2848,"use":2849,"ĠCrunch":2850,"risket":2851,"ĠCarnation":2852,"ĠCracker":2853,"face":2854,"Ġtarragon":2855,"Ġpies":2856,"ĠCro":2857,"unt":2858,"Ġcomb":2859,"iron":2860,"ĠEn":2861,"Ġsteaks":2862,"Ġinches":2863,"ual":2864,"ĠSn":2865,"Ġallow":2866,"Ġcrumble":2867,"Ġmoist":2868,"ossible":2869,"Ġnonstick":2870,"Ġquickly":2871,"ĠContinue":2872,"av":2873,"Ġmakes":2874,"orm":2875,"ĠTri":2876,"Ġseedless":2877,"Ġsurface":2878,"Ġbark":2879,"utch":2880,"Ġind":2881,"Ġget":2882,"acho":2883,"ĠOne":2884,"agna":2885,"ĠApples":2886,"Ch":2887,"ear":2888,"Ġmu":2889,"alted":2890,"ĠRet":2891,"ĠWater":2892,"ĠPancakes":2893,"peel":2894,"ĠGrate":2895,"Ġskinned":2896,"ĠReturn":2897,"dish":2898,"ears":2899,"mary":2900,"oam":2901,"ĠDough":2902,"Ġpancake":2903,"Ġreduce":2904,"Ġounce":2905,"ning":2906,"sing":2907,"Ġsun":2908,"ĠSeal":2909,"ĠPack":2910,"Ġsaltine":2911,"ĠDutch":2912,"Ġcaref":2913,"ĠDrizzle":2914,"ents":2915,"ĠBur":2916,"nack":2917,"Ġhalved":2918,"Ġfreshly":2919,"Ġmarinade":2920,"ĠFritos":2921,"ftover":2922,"Ġblo":2923,"Ġpink":2924,"ĠPop":2925,"isted":2926,"ĠMom":2927,"ashew":2928,"loin":2929,"ecial":2930,"Ġmarinate":2931,"airy":2932,"Ġtbsp":2933,"Ġgrits":2934,"Ġcutting":2935,"ecor":2936,"Ġundrained":2937,"Ġbul":2938,"edge":2939,"Ġmaking":2940,"Ġinst":2941,"Ġlisted":2942,"Ġunflavored":2943,"Ġenjoy":2944,"ĠToast":2945,"ĠEnjoy":2946,"Ġtin":2947,"ĠCucumb":2948,"routs":2949,"Ġdinner":2950,"ĠSandwich":2951,"Ġleftover":2952,"ĠDill":2953,"Ġsmoked":2954,"approximately":2955,"Ġchow":2956,"Ġchees":2957,"ingle":2958,"ĠMandarin":2959,"Ġvegg":2960,"ople":2961,"Ġexcess":2962,"Ġundiluted":2963,"ivided":2964,"peeled":2965,"ipped":2966,"ina":2967,"ĠRel":2968,"Ġrinse":2969,"Ġmeatballs":2970,"Ġscall":2971,"ĠCarrots":2972,"Ġclub":2973,"bu":2974,"icy":2975,"Ġahead":2976,"ĠSpanish":2977,"ĠLea":2978,"ĠGarlic":2979,"lazed":2980,"ĠRelish":2981,"flower":2982,"oe":2983,"Ġcap":2984,"Ġsprink":2985,"Ġsprouts":2986,"Ġwalnut":2987,"ountry":2988,"ashioned":2989,"acon":2990,"my":2991,"Ġbig":2992,"Ġdivided":2993,"cook":2994,"Ġrose":2995,"eeps":2996,"Ġsqueez":2997,"parate":2998,"ĠPasta":2999,"Ġbulk":3000,"man":3001,"Ġgreat":3002,"ĠTex":3003,"agne":3004,"ĠUsing":3005,"Ġbetter":3006,"Ġbegins":3007,"Ġsit":3008,"aker":3009,"ĠPr":3010,"cho":3011,"Ġbrownie":3012,"Ġmois":3013,"Ġtowels":3014,"Ġlima":3015,"side":3016,"Ġwood":3017,"Ġwieners":3018,"ĠChe":3019,"ĠDice":3020,"Ġapricots":3021,"oliday":3022,"Ġcheeses":3023,"bury":3024,"Ġrosemary":3025,"Ġcil":3026,"Ġwire":3027,"ĠChess":3028,"ĠChees":3029,"ĠLime":3030,"antro":3031,"Ġcolored":3032,"Ġwafer":3033,"ĠDumplings":3034,"Ġreserved":3035,"Ġcilantro":3036,"fro":3037,"ove":3038,"ock":3039,"Ġsingle":3040,"ath":3041,"Ġdon":3042,"Ġlite":3043,"ĠCoat":3044,"ĠRinse":3045,"ĠRuss":3046,"Ġprefer":3047,"Ġplatter":3048,"Ġpint":3049,"aster":3050,"Ġradish":3051,"ĠOreos":3052,"ĠTurkey":3053,"Ġcashew":3054,"ere":3055,"ĠSeed":3056,"ĠBlack":3057,"ĠMold":3058,"ills":3059,"ĠLightly":3060,"ĠHell":3061,"ffle":3062,"Ġabove":3063,"Ġmeats":3064,"ĠNext":3065,"Ġliter":3066,"ĠSeparate":3067,"ĠGrind":3068,"by":3069,"save":3070,"ĠCinnamon":3071,"Ġhominy":3072,"Ġleave":3073,"ĠThaw":3074,"ĠFlake":3075,"Ġunsalted":3076,"Ġwooden":3077,"ĠRussian":3078,"mint":3079,"Ġiron":3080,"Ġbrisket":3081,"ĠCol":3082,"ittle":3083,"ĠDate":3084,"ĠStyle":3085,"ĠYum":3086,"Ġdevil":3087,"Ġglasses":3088,"Ġveggies":3089,"ĠCheesy":3090,"cup":3091,"Ġeas":3092,"Ġequal":3093,"outh":3094,"Ġthickness":3095,"Ġwashed":3096,"Ġartichoke":3097,"ĠCrock":3098,"Ġfoam":3099,"ĠCauliflower":3100,"ĠPu":3101,"ĠPuff":3102,"Ġgener":3103,"Ġring":3104,"ĠNe":3105,"except":3106,"Ġscallions":3107,"ĠLeave":3108,"ĠTexas":3109,"box":3110,"Ġburn":3111,"ourbon":3112,"Ġpeople":3113,"ĠRhubarb":3114,"Ġsplit":3115,"ĠSpecial":3116,"ctar":3117,"Ġbunches":3118,"Ġquartered":3119,"Ġsunflower":3120,"Ġblock":3121,"ages":3122,"ĠBacon":3123,"ĠWal":3124,"Ġend":3125,"Ġscal":3126,"Ġdot":3127,"Ġhold":3128,"Ġbeater":3129,"Ġalum":3130,"Ġremainder":3131,"iche":3132,"ĠGrandma":3133,"Ġindivid":3134,"illsbury":3135,"ier":3136,"inal":3137,"ouch":3138,"eaten":3139,"ĠFavorite":3140,"Ġlas":3141,"ĠCheesecake":3142,"Ġdissolves":3143,"ilada":3144,"Ġsecond":3145,"sorted":3146,"mm":3147,"ĠBatter":3148,"Ġpeak":3149,"Ġsame":3150,"Ġspring":3151,"ĠSpiced":3152,"Ġfruits":3153,"Ġchipped":3154,"Ġarrange":3155,"46":3156,"of":3157,"Ġopen":3158,"Ġparts":3159,"als":3160,"ĠCl":3161,"Ġthese":3162,"ths":3163,"Ġrot":3164,"Ġassorted":3165,"ĠMeatballs":3166,"Ġoysters":3167,"Ġremoved":3168,"fish":3169,"ptional":3170,"Ġcakes":3171,"ĠPro":3172,"uncooked":3173,"Ġunpeeled":3174,"Ġnacho":3175,"ĠRes":3176,"ĠRom":3177,"ĠSplit":3178,"Ġsoften":3179,"Fat":3180,"Ġcreme":3181,"Ġsn":3182,"ank":3183,"Ġsweetener":3184,"Ġaddition":3185,"Ġflatten":3186,"Ġpuree":3187,"land":3188,"ĠPillsbury":3189,"Ġline":3190,"Ġshap":3191,"ĠDon":3192,"ĠFood":3193,"Ġabsor":3194,"Ġwhisk":3195,"Ġcombined":3196,"Ġmuch":3197,"Ġradishes":3198,"Ġ275":3199,"ddle":3200,"Ġflower":3201,"ĠAp":3202,"Ġstart":3203,"cover":3204,"Ġyams":3205,"Ġseeded":3206,"ĠMarinated":3207,"ĠAltern":3208,"jon":3209,"arge":3210,"ity":3211,"ĠBar":3212,"ison":3213,"Ġstarts":3214,"Ġbeco":3215,"ĠHoliday":3216,"ĠOf":3217,"ĠShred":3218,"Ġsandwiches":3219,"mann":3220,"Ġabsorb":3221,"Pot":3222,"uice":3223,"Ġedge":3224,"Ġown":3225,"Ġtray":3226,"ating":3227,"reach":3228,"Ġcongeal":3229,"ĠGolden":3230,"iscard":3231,"Ġdessert":3232,"away":3233,"ettuc":3234,"Ġroasting":3235,"Ġnectar":3236,"lua":3237,"ahlua":3238,"Ġcalories":3239,"ĠReserve":3240,"areri":3241,"estle":3242,"Ġinc":3243,"Ġ32":3244,"ĠProcess":3245,"ĠTr":3246,"ĠCocktail":3247,"Ġpeppermint":3248,"Ġcurd":3249,"Ġbubbles":3250,"Ġpitted":3251,"Ġmoistened":3252,"Ġcustard":3253,"enison":3254,"Ġfri":3255,"riddle":3256,"meter":3257,"ĠLa":3258,"Ġlook":3259,"ĠHeath":3260,"Ġsteam":3261,"Ġroasted":3262,"Ġcoating":3263,"Ġstalk":3264,"Ġmeasure":3265,"Ġounces":3266,"Ġtriang":3267,"etizer":3268,"ĠBurg":3269,"ĠCucumber":3270,"ĠApricot":3271,"ple":3272,"Ġtorn":3273,"Ġchip":3274,"Ġwild":3275,"vers":3276,"odka":3277,"Ġdoz":3278,"undiluted":3279,"ĠFluff":3280,"boned":3281,"ĠDijon":3282,"Ġcarefully":3283,"Ġcashews":3284,"Ġpeaks":3285,"Th":3286,"may":3287,"Ġpr":3288,"spberry":3289,"Ġduring":3290,"ĠBran":3291,"ĠRam":3292,"ĠFish":3293,"Ġspears":3294,"Ġsections":3295,"urple":3296,"undrained":3297,"ĠFlour":3298,"Ġindividual":3299,"ĠRamen":3300,"cut":3301,"zo":3302,"Ġpers":3303,"Ġport":3304,"ouse":3305,"ingu":3306,"ĠCal":3307,"Ġeasy":3308,"Ġgriddle":3309,"ĠAunt":3310,"mond":3311,"mpty":3312,"Ġflavors":3313,"ĠPretz":3314,"ampagne":3315,"ĠUncover":3316,"Ġremoving":3317,"areribs":3318,"lean":3319,"Ġ36":3320,"Ġlump":3321,"ĠIr":3322,"ĠWheat":3323,"ĠJo":3324,"uced":3325,"ĠNot":3326,"Ġench":3327,"Ġending":3328,"Ġdeboned":3329,"Ġrounded":3330,"Ġjalapenos":3331,"ĠPoppy":3332,"Ġscalded":3333,"high":3334,"ib":3335,"mar":3336,"Ġreach":3337,"ĠSouth":3338,"Ġgo":3339,"okes":3340,"Ġsave":3341,"ght":3342,"irloin":3343,"ady":3344,"Ġrins":3345,"ĠVery":3346,"Ġnutmeat":3347,"arbecu":3348,"ĠQuiche":3349,"pending":3350,"Ġbrush":3351,"ĠHellmann":3352,"Ġnutmeats":3353,"aving":3354,"Ġster":3355,"Ġty":3356,"ouffle":3357,"Ġfive":3358,"Ġfingers":3359,"Ġway":3360,"Ġac":3361,"ĠBas":3362,"lay":3363,"asa":3364,"Ġleaving":3365,"ĠCookie":3366,"Ġcaraway":3367,"ĠKeeps":3368,"ĠNestle":3369,"ĠButterscotch":3370,"Ġavocados":3371,"Ġenchilada":3372,"Lemon":3373,"Ġbit":3374,"Ġtouch":3375,"Ġwide":3376,"ĠCa":3377,"lain":3378,"ĠPea":3379,"Ġlevel":3380,"thy":3381,"ĠDirt":3382,"abet":3383,"ĠHave":3384,"ĠJam":3385,"Ġpoint":3386,"Ġbones":3387,"ĠGraham":3388,"ĠGravy":3389,"ĠUncle":3390,"ĠMeasure":3391,"jor":3392,"mix":3393,"Ġ+":3394,"Ġbourbon":3395,"Ġtiny":3396,"roof":3397,"Ġvodka":3398,"ĠOver":3399,"ĠSave":3400,"Ġpacket":3401,"ĠArt":3402,"ĠDevil":3403,"Ġrinsed":3404,"!!":3405,"add":3406,"Ġcir":3407,"alade":3408,"Ġwet":3409,"Ġcome":3410,"Ġcreamer":3411,"ĠDinner":3412,"ĠSpr":3413,"ĠGlazed":3414,"ĠKahlua":3415,"ĠNoodle":3416,"Ġfinish":3417,"Ġmeas":3418,"Ġreserving":3419,"Ġlasagna":3420,"Ġfire":3421,"ĠSnack":3422,"ĠPies":3423,"ĠSauerkraut":3424,"ĠFlat":3425,"ĠPatties":3426,"Ġcandies":3427,"ĠTomatoes":3428,"Ġwhiskey":3429,"frozen":3430,"ĠRomano":3431,"ĠIrish":3432,"arbecued":3433,"18":3434,"your":3435,"Ġoptional":3436,"ĠCat":3437,"ĠPer":3438,"Ġrun":3439,"Ġspri":3440,"ĠIs":3441,"ĠHe":3442,"ĠHorm":3443,"ĠEx":3444,"ĠEqual":3445,"Ġits":3446,"iginal":3447,"Ġdrizzle":3448,"ĠHormel":3449,"dairy":3450,"ik":3451,"Ġcored":3452,"Ġsized":3453,"Ġpossible":3454,"ander":3455,"Ġstack":3456,"Ġmarjor":3457,"ĠGo":3458,"eaLemon":3459,"ĠNew":3460,"Ġartichokes":3461,"ĠTwink":3462,"Ġdelicious":3463,"Ġshapes":3464,"ĠFlatten":3465,"bone":3466,"mmer":3467,"tal":3468,"alf":3469,"Ġdump":3470,"ĠRag":3471,"Ġpancakes":3472,"reserve":3473,"Ġfrost":3474,"amily":3475,"Ġreduced":3476,"Ġlimeade":3477,"ielb":3478,"ĠFrit":3479,"crumb":3480,"Ġfrank":3481,"ĠPopcorn":3482,"ĠArtich":3483,"Ġmarjoram":3484,"fry":3485,"medium":3486,"ru":3487,"Ġsolid":3488,"Ġsirloin":3489,"end":3490,"ĠCoca":3491,"ĠReaLemon":3492,"ĠFin":3493,"Ġrect":3494,"ĠGently":3495,"lime":3496,"ĠNoodles":3497,"Ġpounds":3498,"erios":3499,"ecorate":3500,"ĠCheerios":3501,"Ġtype":3502,"ĠSprite":3503,"Makes":3504,"large":3505,"rs":3506,"rant":3507,"ula":3508,"ye":3509,"Ġparmesan":3510,"Ġinside":3511,"ĠBen":3512,"ĠBay":3513,"ĠMa":3514,"Ġstring":3515,"Ġcooker":3516,"Ġret":3517,"ĠGinger":3518,"ifted":3519,"Ġreserve":3520,"ĠSteam":3521,"ĠSnick":3522,"ments":3523,"rise":3524,"Ġpurple":3525,"ĠCand":3526,"Ġpear":3527,"ĠMan":3528,"Ġcore":3529,"Ġflake":3530,"orning":3531,"Ġlove":3532,"ĠPickled":3533,"Ġherbs":3534,"ĠRaspberry":3535,"Ġpimientos":3536,"Ġeasily":3537,"Ġfoamy":3538,"ĠAlternate":3539,"Ġprun":3540,"21":3541,"Cola":3542,"If":3543,"upper":3544,"Ġpuff":3545,"enough":3546,"ppies":3547,"Ġaway":3548,"ĠBarbecued":3549,"ĠAn":3550,"ĠAsparagus":3551,"efore":3552,"ĠSalsa":3553,"ĠSeven":3554,"ĠGrape":3555,"ĠCrackers":3556,"Ġfranks":3557,"ĠRagu":3558,"fur":3559,"tin":3560,"arter":3561,"uteed":3562,"Ġthan":3563,"Ġnight":3564,"efruit":3565,"amole":3566,"Ġsoak":3567,"ĠOri":3568,"Ġanise":3569,"Ġskins":3570,"ĠShoe":3571,"Ġdoes":3572,"Ġscallop":3573,"ĠBrittle":3574,"Ġdipping":3575,"ĠSkillet":3576,"abetic":3577,"ĠArtichoke":3578,"Serves":3579,"uac":3580,"Ġent":3581,"ilized":3582,"Ġfettuc":3583,"ĠCountry":3584,"ross":3585,"ĠSec":3586,"ĠTime":3587,"ĠChow":3588,"ĠRub":3589,"ĠWork":3590,"ĠHerb":3591,"Ġalong":3592,"orets":3593,"ĠOys":3594,"ĠPec":3595,"ĠButterf":3596,"ĠSeasons":3597,"ĠIcebox":3598,"Ġenvelopes":3599,"ĠAlmond":3600,"white":3601,"luding":3602,"Ġbecomes":3603,"Ġsterilized":3604,"ielbasa":3605,"uacamole":3606,"32":3607,"gate":3608,"malade":3609,"Ġcoup":3610,"ermo":3611,"Ġtall":3612,"ĠCla":3613,"raut":3614,"Ġlingu":3615,"ĠMill":3616,"ĠCoke":3617,"Ġmarmalade":3618,"ĠDeep":3619,"asting":3620,"Ġcupcake":3621,"ĠPeg":3622,"Ġmost":3623,"Ġdoub":3624,"Ġcurrant":3625,"ĠMonkey":3626,"while":3627,"Ġreturn":3628,"ĠPecans":3629,"Ups":3630,"cell":3631,"eur":3632,"lined":3633,"te":3634,"ange":3635,"edish":3636,"Ġpower":3637,"ĠPol":3638,"Ġflorets":3639,"Ġthir":3640,"Ġoriginal":3641,"ĠCocoa":3642,"Ġ48":3643,"ĠChew":3644,"ansfer":3645,"isses":3646,"Ġspoonful":3647,"Ġfollowing":3648,"ĠWatergate":3649,"ĠColby":3650,"ĠPuffs":3651,"ĠNote":3652,"ĠSouthern":3653,"Ġfrankfur":3654,"Ġcouple":3655,"cellent":3656,"bake":3657,"don":3658,"fresh":3659,"Ġcuts":3660,"Ġ100":3661,"Ġmorning":3662,"ĠBefore":3663,"ĠMrs":3664,"ĠTort":3665,"ĠCole":3666,"amal":3667,"ĠLas":3668,"ĠOil":3669,"Ġcutlets":3670,"afe":3671,"ĠReady":3672,"eyed":3673,"Ġtwice":3674,"ĠTrim":3675,"dough":3676,"Ġ17":3677,"Ġdiscard":3678,"ĠBl":3679,"ĠWatch":3680,"Ġoiled":3681,"Ġspareribs":3682,"ĠLon":3683,"vent":3684,"Ġroaster":3685,"Ġloin":3686,"Ġspreading":3687,"Ġmoisten":3688,"Ġunbeaten":3689,"ĠMayonnaise":3690,"ĠNever":3691,"Ġmeasuring":3692,"Ġprunes":3693,"be":3694,"proof":3695,"Ġpull":3696,"Ġmon":3697,"Ġmany":3698,"ouble":3699,"Ġfa":3700,"aki":3701,"ĠSum":3702,"ĠSurp":3703,"ĠPl":3704,"Ġhole":3705,"ott":3706,"ĠFail":3707,"ĠHush":3708,"Ġkraut":3709,"ĠInstant":3710,"ĠLayered":3711,"Ġright":3712,"Ġnondairy":3713,"Ġmolds":3714,"ĠCongeal":3715,"Ġbegin":3716,"ĠPuppies":3717,"Ġsprigs":3718,"Ġdoubled":3719,"ĠSummer":3720,"Co":3721,"ems":3722,"ment":3723,"round":3724,"yaki":3725,"Ġold":3726,"ĠSouffle":3727,"Ġnew":3728,"ornia":3729,"ĠStrain":3730,"ifornia":3731,"ctive":3732,"ĠGran":3733,"Ġprepare":3734,"Ġkettle":3735,"ĠSwedish":3736,"eriyaki":3737,"ĠIsland":3738,"Ġentire":3739,"ĠMillion":3740,"Ġfrankfurters":3741,"ĠSurprise":3742,"!)":3743,"28":3744,"act":3745,"butter":3746,"drained":3747,"pec":3748,"plain":3749,"sugar":3750,"ures":3751,"Ġbasting":3752,"Ġmace":3753,"atula":3754,"ĠBaking":3755,"ĠPink":3756,"Ġhock":3757,"Ġvenison":3758,"irl":3759,"Ġrese":3760,"Ġspatula":3761,"ama":3762,"ĠLe":3763,"Ġboils":3764,"loc":3765,"Ġprevent":3766,"ĠRefrigerator":3767,"Ġliqueur":3768,"Ġpints":3769,"eeze":3770,"ĠFilling":3771,"Ġinstead":3772,"Ġinstru":3773,"ĠSandwiches":3774,"Ġflowerets":3775,"Ġscallops":3776,"Bake":3777,"Jell":3778,"dge":3779,"Ġsw":3780,"atur":3781,"ren":3782,"Ġfree":3783,"Ġ200":3784,"Ġdice":3785,"Ġgone":3786,"ĠMc":3787,"ither":3788,"liced":3789,"ĠFran":3790,"immon":3791,"ĠEnch":3792,"Ġharden":3793,"Ġgrapefruit":3794,"Ġtoothpicks":3795,"ĠMushrooms":3796,"Ġgenerously":3797,"ĠCalifornia":3798,"baked":3799,"vol":3800,"Ġbl":3801,"Ġfit":3802,"ĠClean":3803,"orr":3804,"Ġears":3805,"ĠTear":3806,"iploc":3807,"umps":3808,"ĠStick":3809,"ĠNor":3810,"Ġends":3811,"Ġpackets":3812,"ĠKnorr":3813,"Ġunsifted":3814,"Ġcaps":3815,"den":3816,"safe":3817,"ari":3818,"Ġchampagne":3819,"ĠCre":3820,"ĠCub":3821,"Ġsup":3822,"ĠMy":3823,"ĠSpice":3824,"Ġsec":3825,"Ġseg":3826,"ĠImp":3827,"Ġblending":3828,"Ġteaspoonful":3829,"ounts":3830,"ĠQuik":3831,"ĠMexic":3832,"ĠMini":3833,"ĠZiploc":3834,"ĠKnox":3835,"ĠApplesauce":3836,"Ġsqueezed":3837,"Ġinstructions":3838,"volone":3839,"St":3840,"Ġsaltines":3841,"ĠTender":3842,"Ġstrain":3843,"Ġsauteed":3844,"the":3845,"ĠHo":3846,"ĠOli":3847,"ental":3848,"Ġhalfway":3849,"Ġheads":3850,"ĠSlush":3851,"ĠTopping":3852,"ĠEggplant":3853,"Ġweek":3854,"Ġcloth":3855,"ĠGrilled":3856,"Ġabsorbed":3857,"ĠPretzel":3858,"crumbs":3859,"ĠTorte":3860,"Ġresemb":3861,"Ġsegments":3862,"he":3863,"mit":3864,"melt":3865,"ules":3866,"xx":3867,"instant":3868,"Ġslaw":3869,"Ġtight":3870,"alina":3871,"Ġfamily":3872,"Ġwish":3873,"Ġwould":3874,"ĠSea":3875,"ĠPinch":3876,"Ġnoodle":3877,"Ġpectin":3878,"Ġdishes":3879,"ĠEat":3880,"Ġloos":3881,"Ġlogs":3882,"Ġdepending":3883,"Ġstuffed":3884,"Ġscant":3885,"Ġcleaned":3886,"ĠMarinade":3887,"Ġworks":3888,"ĠDeviled":3889,"ĠTwinkies":3890,"bb":3891,"ware":3892,"Ġbur":3893,"ĠCur":3894,"ĠPlay":3895,"Ġlots":3896,"Ġlumps":3897,"ĠMustard":3898,"ĠTot":3899,"Ġvig":3900,"Ġcanola":3901,"Ġcanning":3902,"eath":3903,"ĠWarm":3904,"ĠWings":3905,"ĠFir":3906,"ĠSpicy":3907,"Ġsticky":3908,"Ġkielbasa":3909,"Ġpackages":3910,"ĠCorned":3911,"ango":3912,"ĠAlso":3913,"ĠMashed":3914,"ĠAppetizer":3915,"ĠCups":3916,"ĠCatalina":3917,"ĠOyster":3918,"ĠClam":3919,"ĠGranny":3920,"ĠImpossible":3921,"Ġvigor":3922,"Roni":3923,"just":3924,"Ġfries":3925,"Ġwon":3926,"Ġsuit":3927,"ĠSyrup":3928,"lash":3929,"ĠPistachio":3930,"Ġcola":3931,"ppers":3932,"ĠOpen":3933,"Ġstrip":3934,"Ġstiffly":3935,"Ġgranules":3936,"ĠPeppers":3937,"Ġnear":3938,"Ġtriangles":3939,"Ġvigorously":3940,"yst":3941,"Ġbran":3942,"alia":3943,"rops":3944,"ĠBon":3945,"ĠBeets":3946,"ĠPark":3947,"ĠMil":3948,"Ġcryst":3949,"oupe":3950,"ĠDoll":3951,"Ġoverbake":3952,"ushy":3953,"Ġfrothy":3954,"ĠLast":3955,"ĠStart":3956,"imple":3957,"Ġbowls":3958,"agon":3959,"ĠShort":3960,"Ġcartons":3961,"Ġcross":3962,"ĠSqueeze":3963,"Ġamounts":3964,"ĠMonde":3965,"Ġdropped":3966,"Ġdipped":3967,"Ġscoops":3968,"ĠSnow":3969,"Ġsprinkled":3970,"ĠPral":3971,"mmed":3972,"Ġfridge":3973,"ĠBurgers":3974,"ĠCandied":3975,"ĠButterfinger":3976,"ĠCongealed":3977,"ĠCube":3978,"Microwave":3979,"hot":3980,"iw":3981,"sized":3982,"anese":3983,"rel":3984,"Ġsummer":3985,"Ġactive":3986,"ĠScoop":3987,"Ġthigh":3988,"cher":3989,"cemeat":3990,"ĠComp":3991,"ĠDouble":3992,"thern":3993,"urk":3994,"Ġris":3995,"ĠLi":3996,"ĠHea":3997,"ĠHouse":3998,"more":3999,"Ġhots":4000,"loppy":4001,"ĠCreamed":4002,"ĠThese":4003,"ĠNuts":4004,"ĠSherbet":4005,"ettes":4006,"Ġrounds":4007,"ĠScra":4008,"Ġclam":4009,"etizers":4010,"Ġsqueeze":4011,"Ġstarting":4012,"ĠFritters":4013,"melted":4014,"ĠFirst":4015,"iwi":4016,"Free":4017,"bo":4018,"da":4019,"Ġtill":4020,"Ġpro":4021,"Ġpod":4022,"Ġwor":4023,"Ġwra":4024,"rost":4025,"ĠSar":4026,"ĠSure":4027,"Ġgum":4028,"Ġlater":4029,"ĠChowder":4030,"ĠDry":4031,"ĠFashioned":4032,"astes":4033,"Ġlarger":4034,"ĠLight":4035,"ĠStro":4036,"idalia":4037,"Ġbreadcrumbs":4038,"ĠEmpty":4039,"Ġchild":4040,"Ġfrypan":4041,"ĠVegetables":4042,"alorie":4043,"ĠTransfer":4044,"ĠOriental":4045,"ĠOlive":4046,"ĠSeaf":4047,"Ġthighs":4048,");":4049,"oz":4050,"pre":4051,"zy":4052,"Ġbla":4053,"ĠCold":4054,"Ġtopped":4055,"ĠBo":4056,"ĠBaste":4057,"Ġgerm":4058,"Ġveal":4059,"Ġmixt":4060,"elli":4061,"verage":4062,"ĠMixture":4063,"ghorn":4064,"ĠCrispix":4065,"ĠProvolone":4066,"ĠMexicorn":4067,"urkee":4068,"Can":4069,"juice":4070,"nel":4071,"osh":4072,"uds":4073,"elon":4074,"Ġdia":4075,"unk":4076,"Ġthermo":4077,"ĠAs":4078,"Ġcantal":4079,"Ġovercook":4080,"Ġrepeat":4081,"efrost":4082,"tender":4083,"Ġkiwi":4084,"eek":4085,"ĠPear":4086,"awry":4087,"Ġdeve":4088,"Ġhandful":4089,"ĠZest":4090,"Ġlentil":4091,"Ġsnipped":4092,"Ġreaches":4093,"ĠLasagna":4094,"Ġmixtures":4095,"30":4096,"cream":4097,"pid":4098,"self":4099,"ug":4100,"ance":4101,"ald":4102,"roll":4103,"Ġeven":4104,"ĠSmooth":4105,"ĠSloppy":4106,"ĠBea":4107,"Ġflank":4108,"ĠAu":4109,"ĠDust":4110,"ĠSpam":4111,"Ġlamb":4112,"ĠVegg":4113,"ĠVidalia":4114,"Ġdesire":4115,"ganoff":4116,"Ġpretzel":4117,"Ġsubstituted":4118,"Cheese":4119,"chopped":4120,"atural":4121,"ĠNorthern":4122,"Ġthermometer":4123,"For":4124,"cine":4125,"Ġcountry":4126,"anwhile":4127,"Ġomit":4128,"Ġche":4129,"Ġchick":4130,"ĠCider":4131,"Ġdairy":4132,"ĠSun":4133,"ĠPin":4134,"olog":4135,"Ġlin":4136,"ĠMed":4137,"Ġbutternut":4138,"ĠTortilla":4139,"ĠDay":4140,"Ġrub":4141,"Ġsmaller":4142,"ĠLawry":4143,"Ġshort":4144,"Ġshelled":4145,"ĠJelly":4146,"Ġhandle":4147,"soft":4148,"bster":4149,"whole":4150,"ukes":4151,"Ġincluding":4152,"This":4153,"ĠLonghorn":4154,"Ġcantaloupe":4155,"Ġlentils":4156,"ologna":4157,"17":4158,"place":4159,"rum":4160,"rong":4161,"xe":4162,"uth":4163,"Ġfully":4164,"ĠCap":4165,"ĠCelery":4166,"ĠCott":4167,"ros":4168,"itation":4169,"ĠBowl":4170,"ĠAmb":4171,"Ġbeet":4172,"vert":4173,"ieve":4174,"ĠDurkee":4175,"ĠEl":4176,"Ġrapid":4177,"Ġcools":4178,"like":4179,"ĠThree":4180,"sse":4181,"ĠShell":4182,"ĠBeer":4183,"acaroon":4184,"Ġdashes":4185,"ĠUps":4186,"iffer":4187,"ĠGround":4188,"iladas":4189,"Ġalternate":4190,"Ġdiagon":4191,"ĠOnions":4192,"Ġcalorie":4193,"ĠHeavenly":4194,"ĠStroganoff":4195,"ĠCottage":4196,"29":4197,"gin":4198,"half":4199,"ron":4200,"uxe":4201,"Ġsix":4202,"Ġfillet":4203,"ites":4204,"Ġdis":4205,"Ġeither":4206,"ĠServ":4207,"ĠSund":4208,"ĠBreasts":4209,"ĠMeal":4210,"ĠMeringue":4211,"ĠTre":4212,"ĠAt":4213,"Ġstarch":4214,"ĠRi":4215,"ĠWe":4216,"ĠWine":4217,"ĠWaf":4218,"Ġlbs":4219,"ounds":4220,"ĠLower":4221,"apanese":4222,"ĠGlaze":4223,"ĠJul":4224,"ĠEver":4225,"Ġlog":4226,"Ġcontin":4227,"Ġblackberries":4228,"etty":4229,"ĠMock":4230,"ĠLemonade":4231,"Ġdiet":4232,"form":4233,"ĠMeanwhile":4234,"Ġsprinkles":4235,"Ġdumplings":4236,"amales":4237,"Ġsupreme":4238,"Ġresembles":4239,"ĠMilnot":4240,"Nuts":4241,"melon":4242,"ĠX":4243,"Ġsnack":4244,"Ġbath":4245,"Ġmango":4246,"ret":4247,"Ġfall":4248,"aky":4249,"Ġdust":4250,"ĠSoda":4251,"ĠSimple":4252,"Ġlink":4253,"ĠMag":4254,"etter":4255,"Ġnice":4256,"ĠDogs":4257,"ĠDecorate":4258,"umbo":4259,"ĠWhis":4260,"Ġslicing":4261,"arden":4262,"ĠJuice":4263,"ĠKey":4264,"vory":4265,"Ġdeer":4266,"Ġdebone":4267,"Ġscra":4268,"ĠStuffing":4269,"Ġpita":4270,"Ġpitcher":4271,"Ġportions":4272,"ĠPolish":4273,"ĠEnchiladas":4274,"Ġcrosswise":4275,"Ġblade":4276,"osher":4277,"ĠZesty":4278,"rosia":4279,"Corm":4280,"Fashioned":4281,"aved":4282,"green":4283,"jun":4284,"zola":4285,"Ġcukes":4286,"Ġtips":4287,"Ġtest":4288,"Ġpats":4289,"Ġpoke":4290,"rew":4291,"eness":4292,"Ġones":4293,"ĠSch":4294,"Ġglo":4295,"Ġguacamole":4296,"Ġhomemade":4297,"ĠMother":4298,"ddock":4299,"ĠAmar":4300,"etto":4301,"Ġnatural":4302,"Ġbrownies":4303,"Ġsticking":4304,"Ġroma":4305,"ĠOkra":4306,"ĠJapanese":4307,"ĠKisses":4308,"Ġclos":4309,"ĠThey":4310,"Ġmozzarella":4311,"Ġcolander":4312,"Ġrib":4313,"ousand":4314,"bling":4315,"Ġsealed":4316,"ĠTwo":4317,"ĠWalnut":4318,"ĠBasic":4319,"Ġcircle":4320,"ĠExcellent":4321,"upperware":4322,"ĠParkay":4323,"ĠAmbrosia":4324,"Cormick":4325,"ĠAmaretto":4326,"Ġromaine":4327,"bro":4328,"inz":4329,"ination":4330,"angular":4331,"Ġouts":4332,"Ġberry":4333,"Ġtamales":4334,"Ġmet":4335,"Ġworcestershire":4336,"Ġdecor":4337,"ĠBaker":4338,"ĠBetty":4339,"Ġgets":4340,"ĠMedium":4341,"ĠMiss":4342,"Ġstrong":4343,"Ġpeppercorn":4344,"Ġna":4345,"ĠRich":4346,"Ġgrate":4347,"ĠFollow":4348,"Ġseaf":4349,"ship":4350,"ĠGarden":4351,"ĠKid":4352,"ueur":4353,"ĠThousand":4354,"Ġlower":4355,"Ġflavorings":4356,"Ġliquids":4357,"Ġcrispy":4358,"alapeno":4359,"Ġimitation":4360,"Ġpared":4361,"Ġacross":4362,"ĠSnickers":4363,"Ġlinguine":4364,"Ġdiameter":4365,"ĠBeau":4366,"ĠUpside":4367,"ifferent":4368,"Ġseafood":4369,"Add":4370,"May":4371,"oo":4372,"Ġ#":4373,"ests":4374,"ĠBor":4375,"ass":4376,"Ġhel":4377,"Ġhollow":4378,"ĠMama":4379,"usters":4380,"Ġmincemeat":4381,"aters":4382,"Ġleft":4383,"Ġgrind":4384,"ĠIm":4385,"ĠHunt":4386,"ĠJim":4387,"ĠEar":4388,"Ġancho":4389,"Ġitems":4390,"fect":4391,"Ġsimmering":4392,"uda":4393,"ield":4394,"Ġbasket":4395,"Ġturns":4396,"ĠScald":4397,"phant":4398,"iblets":4399,"ĠPastry":4400,"ĠSmith":4401,"Ġdoneness":4402,"ĠPuppy":4403,"Ġgenerous":4404,"Ġlooks":4405,"Ġperson":4406,"Ġpersimmon":4407,"ĠCajun":4408,"ĠFinish":4409,"Ġrectangular":4410,"Ġsecure":4411,"Ġloosely":4412,"ĠDollar":4413,"Ġpeppercorns":4414,"ept":4415,"hy":4416,"Ġcre":4417,"Ġbologna":4418,"Ġtran":4419,"ond":4420,"ĠClo":4421,"ĠPoke":4422,"owers":4423,"Ġtheir":4424,"thaw":4425,"ĠReese":4426,"ĠFlavor":4427,"asty":4428,"Ġrich":4429,"ami":4430,"ĠHun":4431,"ĠGou":4432,"Ġkept":4433,"Ġliver":4434,"Ġlivers":4435,"tty":4436,"Ġscrap":4437,"ĠArm":4438,"Ġpatty":4439,"ĠFreezes":4440,"sparent":4441,"Ġcornflake":4442,"Ġcutters":4443,"Ġcareful":4444,"Ġdeviled":4445,"Ġsnow":4446,"Ġportion":4447,"Ġthirds":4448,"Ġmonths":4449,"pecans":4450,"ĠMcCormick":4451,"Ġchildren":4452,"Ġdeveined":4453,"Ġoutside":4454,"ĠImmediately":4455,"Ġtransparent":4456,"Low":4457,"Sueur":4458,"Use":4459,"cl":4460,"cla":4461,"ek":4462,"kes":4463,"rit":4464,"rub":4465,"atin":4466,"regular":4467,"Ġfinger":4468,"icelli":4469,"itch":4470,"ĠPor":4471,"ĠPure":4472,"ĠTupperware":4473,"Ġthread":4474,"usages":4475,"redge":4476,"Ġcrush":4477,"ĠDash":4478,"strawber":4479,"ĠFat":4480,"urch":4481,"Ġsets":4482,"ope":4483,"edding":4484,"Ġusual":4485,"Ġblackberry":4486,"ĠSheet":4487,"Ġseparately":4488,"Ġpressed":4489,"ermicelli":4490,"Ġalternating":4491,"ĠKraut":4492,"ĠCrispy":4493,"ĠRoasted":4494,"ĠClub":4495,"Ġlumpy":4496,"Ġcirc":4497,"ĠHeinz":4498,"ĠMazola":4499,"Ġpuffed":4500,"Ġhocks":4501,"ĠJuli":4502,"ĠMagic":4503,"Ġnavy":4504,"You":4505,"ban":4506,"ti":4507,"vet":4508,"ilute":4509,"Ġfla":4510,"icles":4511,"Ġ23":4512,"ĠSue":4513,"ĠBac":4514,"ĠBerry":4515,"ĠPres":4516,"Ġhow":4517,"ĠTarts":4518,"unnel":4519,"Ġvari":4520,"ĠAb":4521,"Ġ46":4522,"mber":4523,"Ġshakes":4524,"Ġingredient":4525,"atever":4526,"ĠRot":4527,"lices":4528,"ĠFive":4529,"ific":4530,"Ġkosher":4531,"ĠJalapeno":4532,"ĠEcla":4533,"ĠVinegar":4534,"Ġfilled":4535,"acc":4536,"Ġzest":4537,"ĠSwans":4538,"undy":4539,"Ġbubbling":4540,"igs":4541,"ĠPickle":4542,"Ġbreakfast":4543,"ĠDiabetic":4544,"Ġleftovers":4545,"Ġrotini":4546,"ĠBurgundy":4547,"endship":4548,"Ġpods":4549,"ĠVeggie":4550,"Ġdiagonally":4551,"ĠTreats":4552,"ĠPuree":4553,"40":4554,"beaten":4555,"dor":4556,"go":4557,"hn":4558,"ipp":4559,"igg":4560,"nie":4561,"ured":4562,"ants":4563,"Ġtex":4564,"Ġteriyaki":4565,"Ġmicrow":4566,"ousse":4567,"ori":4568,"ĠBy":4569,"ĠPap":4570,"ĠMud":4571,"ĠWish":4572,"illy":4573,"ĠFeta":4574,"ably":4575,"que":4576,"Ġspicy":4577,"Ġsection":4578,"Ġcooling":4579,"Ġcovering":4580,"Ġusually":4581,"ĠYellow":4582,"ĠVelvet":4583,"peas":4584,"canned":4585,"ĠRock":4586,"ĠStrawberries":4587,"Ġgallons":4588,"sticks":4589,"ĠYummy":4590,"Ġtriangle":4591,"ĠJoes":4592,"ĠLeSueur":4593,"Ġrising":4594,"ĠServings":4595,"ĠRibs":4596,"ĠWhisk":4597,"ĠEclair":4598,"In":4599,"Os":4600,"ait":4601,"bur":4602,"cts":4603,"dy":4604,"ean":4605,"nog":4606,"yl":4607,"Ġcall":4608,"ino":4609,"Ġbatch":4610,"Ġpine":4611,"Ġmy":4612,"Ġman":4613,"Ġmed":4614,"ory":4615,"Ġad":4616,"Ġair":4617,"Ġdog":4618,"Ġdifferent":4619,"ĠPar":4620,"ĠPull":4621,"oli":4622,"Ġhull":4623,"Ġlg":4624,"Ġsausages":4625,"ĠWild":4626,"Ġrump":4627,"ĠInd":4628,"ĠCooked":4629,"Ġgarden":4630,"Ġsoon":4631,"Ġalready":4632,"Ġhair":4633,"Ġhaddock":4634,"ĠThoroughly":4635,"ĠYogurt":4636,"arboil":4637,"Ġstem":4638,"Ġplaced":4639,"ĠDeluxe":4640,"ĠGrits":4641,"ĠFreezer":4642,"ways":4643,"crushed":4644,"Ġfollows":4645,"Ġcombination":4646,"Ġpreferred":4647,"ĠJohn":4648,"Ġrectang":4649,"Ġblanch":4650,"heaping":4651,"ĠCompany":4652,"ĠSeafood":4653,"acaroons":4654,"ĠJimmy":4655,"Ġcircles":4656,"ĠJulius":4657,"Ġtexture":4658,"fle":4659,"mate":4660,"rated":4661,"uv":4662,"yellow":4663,"Ġes":4664,"Ġcat":4665,"Ġ19":4666,"Ġtr":4667,"esar":4668,"Ġmust":4669,"ila":4670,"uty":4671,"ence":4672,"Ġfast":4673,"ico":4674,"ĠCalorie":4675,"Ġsuch":4676,"Ġdiluted":4677,"Ġempty":4678,"ĠBra":4679,"ĠBetter":4680,"ĠPim":4681,"Ġgumbo":4682,"ickel":4683,"ĠAny":4684,"Ġstay":4685,"eth":4686,"irgin":4687,"ĠWedding":4688,"Ġchickens":4689,"ĠFix":4690,"ĠFri":4691,"Ġreheat":4692,"ĠLou":4693,"ĠHal":4694,"aint":4695,"Ġovenproof":4696,"Ġ303":4697,"izer":4698,"ĠNacho":4699,"Ġsetting":4700,"umpern":4701,"ĠBeaters":4702,"ĠBoiled":4703,"ette":4704,"Ġtablespoonfuls":4705,"ĠToffee":4706,"ĠMary":4707,"ĠPeaches":4708,"Ġdeli":4709,"ĠTriple":4710,"ĠPrick":4711,"ĠWaldor":4712,"Ġfaith":4713,"Ġchickpeas":4714,"Ġliners":4715,"Ġmetal":4716,"ĠArmour":4717,"ĠWaldorf":4718,"Down":4719,"em":4720,"sliced":4721,"ancy":4722,"ĠCow":4723,"orange":4724,"ĠSlices":4725,"Ġsalami":4726,"Ġhen":4727,"Ġhens":4728,"ĠTest":4729,"Ġvermicelli":4730,"ickle":4731,"Ġstrained":4732,"Ġbeverage":4733,"Ġwatermelon":4734,"ety":4735,"mble":4736,"Ġshaved":4737,"ĠDrink":4738,"ĠDog":4739,"ĠWay":4740,"naps":4741,"covered":4742,"ights":4743,"ĠWhipped":4744,"ĠHar":4745,"Ġcracked":4746,"Ġkeeps":4747,"ĠInto":4748,"ĠReub":4749,"issipp":4750,"ĠBrownie":4751,"eeds":4752,"Ġ70":4753,"ĠSoft":4754,"Ġprocessed":4755,"ĠDean":4756,"oulder":4757,"ĠDiet":4758,"ĠCucumbers":4759,"Ġcapers":4760,"from":4761,"Ġburner":4762,"ĠSnicker":4763,"Ġfettuccine":4764,"ĠWatchers":4765,"ĠSaran":4766,"ĠSunday":4767,"ĠMississipp":4768,"Ġblanched":4769,"umpernickel":4770,"ĠMississippi":4771,"Di":4772,"Or":4773,"day":4774,"mild":4775,"pack":4776,"yn":4777,"Ġsor":4778,"Ġdiv":4779,"Ġdecorate":4780,"olly":4781,"ase":4782,"ĠMaple":4783,"Ġcob":4784,"ĠCola":4785,"Ġstraw":4786,"Ġstored":4787,"rib":4788,"Ġsaff":4789,"Ġgarban":4790,"shine":4791,"Ġxxx":4792,"Ġroot":4793,"Ġjelled":4794,"Ġslits":4795,"Ġpouring":4796,"ĠCrunchy":4797,"ĠNow":4798,"ĠSaut":4799,"Ġtenderizer":4800,"Ġlayering":4801,"paration":4802,"ĠChopped":4803,"Ġtable":4804,"Ġplum":4805,"Ġliters":4806,"ĠCaref":4807,"Ġtear":4808,"ĠQuickly":4809,"Ġimp":4810,"Ġlids":4811,"ĠSuper":4812,"Ġbottled":4813,"Ġtrimmed":4814,"ĠCheck":4815,"Ġrotary":4816,"ĠCaesar":4817,"thawed":4818,"ĠAbout":4819,"uvres":4820,"Ġcatfish":4821,"Ġdivide":4822,"350":4823,"Great":4824,"It":4825,"Nut":4826,"bel":4827,"bbits":4828,"drops":4829,"eels":4830,"ium":4831,"per":4832,"uch":4833,"inds":4834,"Ġpumpernickel":4835,"anda":4836,"ical":4837,"ord":4838,"Ġtoffee":4839,"ita":4840,"Ġdefrost":4841,"terol":4842,"ĠBrisket":4843,"assa":4844,"Ġflo":4845,"Ġflowers":4846,"ĠAd":4847,"together":4848,"okies":4849,"Ġwhatever":4850,"ĠRum":4851,"ĠRose":4852,"Ġbrowning":4853,"ĠFinger":4854,"ĠLog":4855,"ĠCooking":4856,"ĠHeal":4857,"ĠHominy":4858,"ĠGri":4859,"Ġrabbits":4860,"Ġclose":4861,"ĠNiblets":4862,"Ġicebox":4863,"Ġtenderloin":4864,"Ġputting":4865,"Ġtoppings":4866,"ounce":4867,"Ġbase":4868,"izzas":4869,"ĠGratin":4870,"Ġmarinated":4871,"ĠAppetizers":4872,"Ġbarley":4873,"ĠCupcakes":4874,"olesterol":4875,"Ġfourths":4876,"ĠPoor":4877,"ĠSkor":4878,"Ġeasier":4879,"Ġdoesn":4880,"ĠChewy":4881,"Ġbeginning":4882,"ĠPralines":4883,"Ġlinks":4884,"Ġanchovy":4885,"ĠGoulash":4886,"cloth":4887,"itchen":4888,"ĠReuben":4889,"assail":4890,"24":4891,"Do":4892,"Fried":4893,"bble":4894,"ground":4895,"ives":4896,"uy":4897,"ugh":4898,"vanilla":4899,"yal":4900,"inity":4901,"Ġsieve":4902,"erto":4903,"Ġtests":4904,"Ġpal":4905,"Ġmushy":4906,"Ġfashion":4907,"Ġwedge":4908,"Ġdamp":4909,"ĠBuck":4910,"ĠBites":4911,"ĠPen":4912,"ĠPowder":4913,"Ġgre":4914,"Ġglazed":4915,"cha":4916,"riz":4917,"Ġlegs":4918,"odium":4919,"ston":4920,"Ġpkgs":4921,"Ġsourdough":4922,"achos":4923,"Ġaltogether":4924,"Ġslush":4925,"ields":4926,"ounder":4927,"ĠQues":4928,"Ġcurl":4929,"Ġstewing":4930,"ations":4931,"Ġelephant":4932,"ĠScotch":4933,"ĠDivinity":4934,"ĠMilky":4935,"Ġcongealed":4936,"ĠPretzels":4937,"margarine":4938,"ĠGoo":4939,"ĠCreole":4940,"Ġrapidly":4941,"Ġgloss":4942,"Ġclosed":4943,"ĠPorcup":4944,"ificial":4945,")*":4946,"19":4947,"Bone":4948,"Fry":4949,"Rice":4950,"Sweet":4951,"fingers":4952,"Ġcast":4953,"Ġcav":4954,"Ġbun":4955,"Ġpurpose":4956,"onge":4957,"ĠCerto":4958,"ĠBreast":4959,"ĠBaby":4960,"ĠTart":4961,"until":4962,"Ġcoals":4963,"Ġcheesecloth":4964,"Ġflaky":4965,"Ġthere":4966,"Ġstro":4967,"top":4968,"Ġ475":4969,"ĠMixed":4970,"Ġshoulder":4971,"ĠChips":4972,"ĠChampagne":4973,"Ġmarble":4974,"thqu":4975,"ĠWieners":4976,"ĠWassail":4977,"Ġgrin":4978,"quila":4979,"ĠLittle":4980,"ashed":4981,"achine":4982,"iesta":4983,"Ġsoaked":4984,"Ġheating":4985,"ĠVenison":4986,"ĠPeas":4987,"Ġloose":4988,"ĠShould":4989,"ĠYeast":4990,"Ġmasher":4991,"Ġplacing":4992,"ĠMolasses":4993,"Ġplates":4994,"anola":4995,"Ġdoor":4996,"arkling":4997,"Ġdegree":4998,"ĠMonte":4999,"ĠSourdough":5000,"ĠCrabmeat":5001,"ĠGrandm":5002,"ĠSmoked":5003,"Cheddar":5004,"ĠClusters":5005,"ĠPerfect":5006,"Ġthird":5007,"Ġgumdrops":5008,"Ġcheck":5009,"Ġcontinu":5010,"ĠEarthqu":5011,"oriander":5012,"ĠLouis":5013,"ĠCarefully":5014,"ĠGriff":5015,"ĠEarthquake":5016,"??":5017,"Cr":5018,"Sp":5019,"ba":5020,"duty":5021,"gers":5022,"well":5023,"Ġbed":5024,"Ġtastes":5025,"Ġchar":5026,"ĠColes":5027,"elveeta":5028,"Ġdist":5029,"Ġdrum":5030,"ĠSand":5031,"ĠPers":5032,"ĠPare":5033,"Ġlunch":5034,"ĠTe":5035,"ĠTeriyaki":5036,"ickory":5037,"cherry":5038,"Ġorzo":5039,"mbled":5040,"Ġsho":5041,"tha":5042,"ĠRound":5043,"ĠWaff":5044,"nad":5045,"ĠFour":5046,"ĠFlo":5047,"ĠLef":5048,"ĠHors":5049,"ains":5050,"ĠGuacamole":5051,"Ġcarbon":5052,"ĠInsert":5053,"Ġlady":5054,"Ġchile":5055,"Ġcrusty":5056,"ĠThicken":5057,"Ġpretty":5058,"ĠCornish":5059,"peg":5060,"season":5061,"ountain":5062,"Ġkernels":5063,"ĠFluffy":5064,"ĠMint":5065,"orton":5066,"ĠCondensed":5067,"Ġtossing":5068,"ĠBroiled":5069,"Ġeaten":5070,"Ġwanted":5071,"ĠTurtle":5072,"cooking":5073,"The":5074,"Ġworms":5075,"Ġhelp":5076,"ondue":5077,"strawberry":5078,"Diabetic":5079,"Ġgarbanzo":5080,"ĠGriffin":5081,"ĠColeslaw":5082,"Ġcarbonated":5083,"Oe":5084,"boy":5085,"cross":5086,"fred":5087,"gry":5088,"mold":5089,"Ġcoun":5090,"Ġbri":5091,"Ġbaste":5092,"Ġpri":5093,"Ġwien":5094,"ĠCry":5095,"ĠCres":5096,"lee":5097,"Ġ28":5098,"ĠBuns":5099,"Ġhickory":5100,"Ġlot":5101,"ĠMac":5102,"ĠTasty":5103,"derful":5104,"mbo":5105,"Ġnic":5106,"ĠDew":5107,"ĠDried":5108,"melet":5109,"oms":5110,"ĠHour":5111,"ĠGe":5112,"ĠGold":5113,"ĠInvert":5114,"ollard":5115,"acks":5116,"ĠThin":5117,"Ġraisin":5118,"Ġlobster":5119,"Ġwarmed":5120,"ropical":5121,"lassic":5122,"Ġwaffle":5123,"ĠMocha":5124,"ĠForg":5125,"Ġquail":5126,"Ġparties":5127,"Ġchunked":5128,"Ġpressure":5129,"ermuda":5130,"Ġartificial":5131,"Ġpureed":5132,"ussels":5133,"avable":5134,"ĠTrifle":5135,"ather":5136,"Ġholds":5137,"Ġsprings":5138,"Ġtrays":5139,"ĠSnacks":5140,"ĠMilliona":5141,"ĠFranks":5142,"ĠSticks":5143,"Ġcrystals":5144,"ĠBoston":5145,"ĠPinto":5146,"hyd":5147,"Ġscraping":5148,"Ġflame":5149,"Ġvariety":5150,"acci":5151,"Ġfloat":5152,"Ġgrenad":5153,"Ġstrokes":5154,"fredo":5155,"Ġcounter":5156,"Ġprior":5157,"Ġgrenadine":5158,"375":5159,"Pineapple":5160,"beat":5161,"gat":5162,"pes":5163,"rich":5164,"time":5165,"uf":5166,"you":5167,"Ġcount":5168,"ints":5169,"Ġbuck":5170,"Ġtakes":5171,"Ġpressing":5172,"Ġmen":5173,"ilaf":5174,"rett":5175,"alt":5176,"anding":5177,"Ġfif":5178,"Ġfigs":5179,"ores":5180,"orch":5181,"ĠSupper":5182,"ĠBits":5183,"olut":5184,"ĠMel":5185,"ĠMorton":5186,"unsweetened":5187,"ows":5188,"Ġcole":5189,"Ġchopper":5190,"Ġwithin":5191,"Ġjack":5192,"Ġsaving":5193,"iral":5194,"ĠRings":5195,"ĠDown":5196,"ĠWil":5197,"stad":5198,"standing":5199,"Ġjumbo":5200,"ĠFries":5201,"quid":5202,"ĠStri":5203,"Ġconten":5204,"ĠHi":5205,"ĠHard":5206,"ĠHoll":5207,"ached":5208,"ĠGelat":5209,"lenty":5210,"Ġkisses":5211,"ĠJud":5212,"ĠJoe":5213,"ults":5214,"loins":5215,"Ġupside":5216,"aged":5217,"Ġbottoms":5218,"rowd":5219,"ĠRoad":5220,"Ġshallots":5221,"ĠSeasoning":5222,"ĠNutty":5223,"Ġpops":5224,"ĠAlfredo":5225,"pends":5226,"ahini":5227,"ailable":5228,"ĠFrosted":5229,"depending":5230,"crust":5231,"ĠHello":5232,"ĠCrocker":5233,"ĠLazy":5234,"Ġrunning":5235,"Ġburger":5236,"ĠKids":5237,"ĠClose":5238,"Ġrectangle":5239,"ĠCowboy":5240,"Ġdistrib":5241,"ĠFloat":5242,"Oeuvres":5243,"Ġnicely":5244,"Cal":5245,"Easy":5246,"bed":5247,"hol":5248,"light":5249,"met":5250,"pineapple":5251,"rus":5252,"sl":5253,"tP":5254,"teg":5255,"wfish":5256,"yed":5257,"Ġcoriander":5258,"ara":5259,"Ġbis":5260,"oux":5261,"Ġfield":5262,"Ġ26":5263,"Ġamon":5264,"iti":5265,"Ġduck":5266,"Ġequ":5267,"ĠSix":5268,"ĠBuds":5269,"ĠMousse":5270,"ĠMacaroons":5271,"ĠTra":5272,"chicken":5273,"ĠAm":5274,"ĠAhead":5275,"Ġmixes":5276,"Ġnow":5277,"ghum":5278,"irly":5279,"ĠRing":5280,"ĠDr":5281,"Ġgranola":5282,"ĠFast":5283,"ĠFingers":5284,"Ġreplace":5285,"amous":5286,"Ġcrawfish":5287,"ĠHay":5288,"ought":5289,"Ġgrams":5290,"Ġappear":5291,"Ġslushy":5292,"psi":5293,"oses":5294,"reek":5295,"ĠNan":5296,"ĠSavory":5297,"iana":5298,"Ġpacks":5299,"Ġothers":5300,"rants":5301,"Ġuncover":5302,"iffon":5303,"ĠSwirl":5304,"scant":5305,"Ġbutton":5306,"Ġcurly":5307,"Ġscorch":5308,"Ġpartly":5309,"ĠStep":5310,"Ġmelon":5311,"ĠHamburg":5312,"iveness":5313,"ĠDoughnuts":5314,"Ġmoisture":5315,"ĠFinely":5316,"ĠScrape":5317,"ĠSunshine":5318,"ĠMedley":5319,"ĠWafer":5320,"brown":5321,"ĠPreserves":5322,"Ġmicrowavable":5323,"ĠPaprika":5324,"Ġcurls":5325,"ĠGooey":5326,"Ġladyfingers":5327,"ĠGeor":5328,"Ġfifth":5329,"ĠGelatin":5330,".,":5331,"Fro":5332,"ax":5333,"cial":5334,"cents":5335,"cluding":5336,"fu":5337,"foil":5338,"rat":5339,"ritos":5340,"water":5341,"Ġcit":5342,"Ġbir":5343,"Ġplenty":5344,"Ġmaker":5345,"utes":5346,"Ġear":5347,"ĠSam":5348,"ĠBri":5349,"ĠBermuda":5350,"ĠPas":5351,"ĠParboil":5352,"Ġglue":5353,"rapped":5354,"ĠMu":5355,"ĠMountain":5356,"ellini":5357,"Ġbeing":5358,"ĠChipped":5359,"ĠChiffon":5360,"Ġsack":5361,"ĠDanish":5362,"ĠDredge":5363,"stal":5364,"Ġcooks":5365,"ĠFashion":5366,"ĠFettuc":5367,"ĠFiesta":5368,"coal":5369,"cohol":5370,"Ġspiral":5371,"Ġsee":5372,"ĠStarter":5373,"ida":5374,"sharp":5375,"ĠGl":5376,"ĠEle":5377,"Ġjellied":5378,"ĠKing":5379,"ĠThank":5380,"Ġprecooked":5381,"ĠCheesebur":5382,"Ġtenderness":5383,"Ġtenderloins":5384,"ĠPreparation":5385,"estring":5386,"Ġresults":5387,"Ġtablespoonful":5388,"ĠSlightly":5389,"Ġturnips":5390,"ĠDelights":5391,"Ġkids":5392,"Ġquite":5393,"Ġcurrants":5394,"ucky":5395,"igrett":5396,"Ġformed":5397,"ĠMints":5398,"ĠOnce":5399,"ĠBrussels":5400,"Ġtossed":5401,"Ġdippers":5402,"ĠOrteg":5403,"wheels":5404,"ĠPhilly":5405,"Ġbarely":5406,"ingersnaps":5407,"ĠMein":5408,"Ġmug":5409,"ĠToasted":5410,"inaigrett":5411,"athy":5412,"Ġbecome":5413,"ibut":5414,"Ġbitter":5415,"ĠOvernight":5416,"Ġfairly":5417,"ĠHobo":5418,"ĠCurry":5419,"ĠShortbread":5420,"ĠPraline":5421,"Ġwrapped":5422,"Ġgummy":5423,"unky":5424,"Ġdisapp":5425,"ĠWeight":5426,"ĠRotel":5427,"ĠRocky":5428,"Ġcalled":5429,"Ġxxxx":5430,"ĠHealthy":5431,"Ġgrinder":5432,"ĠWaffles":5433,"ĠMillionaire":5434,"Ġcontents":5435,"inaigrette":5436,"23":5437,"48":5438,"Bro":5439,"To":5440,"\\\\":5441,"ao":5442,"aily":5443,"dit":5444,"eel":5445,"fin":5446,"ob":5447,"ster":5448,"wal":5449,"Ġcac":5450,"intz":5451,"Ġsom":5452,"Ġslee":5453,"Ġbundt":5454,"ative":5455,"andel":5456,"icle":5457,"aken":5458,"Ġ21":5459,"ĠBing":5460,"ĠBourbon":5461,"ĠPeek":5462,"Ġhus":5463,"Ġloses":5464,"ĠTamal":5465,"ĠTastes":5466,"une":5467,"unbaked":5468,"Ġvirgin":5469,"Ġflounder":5470,"otten":5471,"tock":5472,"ĠChile":5473,"ĠRaw":5474,"ĠDrops":5475,"Ġreally":5476,"Ġranch":5477,"Ġspins":5478,"ĠSpareribs":5479,"ĠLily":5480,"aped":5481,"Ġ500":5482,"Ġ90":5483,"resso":5484,"Ġappetizer":5485,"Ġsyrupy":5486,"Ġlabel":5487,"Ġlaugh":5488,"afing":5489,"ucy":5490,"isscross":5491,"eyes":5492,"ĠNog":5493,"Ġwaff":5494,"pepper":5495,"ĠMoisten":5496,"Ġdepends":5497,"Ġtequila":5498,"ĠFrom":5499,"Ġbubble":5500,"ĠMartha":5501,"ĠTacos":5502,"ĠSteaks":5503,"mmercial":5504,"ĠGingerbread":5505,"ĠManwich":5506,"Ġpuffs":5507,"ĠShoepeg":5508,"Ġfettucine":5509,"Ġlinguini":5510,"ĠCurried":5511,"ĠShells":5512,"andaise":5513,"Ġdefrosted":5514,"ĠCrystal":5515,"Ġcacao":5516,"ĠTamale":5517,"Al":5518,"Min":5519,"Mar":5520,"Not":5521,"Sour":5522,"__":5523,"aver":5524,"ever":5525,"fait":5526,"iod":5527,"iger":5528,"mushroom":5529,"over":5530,"part":5531,"tBake":5532,"Ġ75":5533,"Ġcollard":5534,"including":5535,"Ġsim":5536,"Ġsouffle":5537,"Ġtip":5538,"Ġpip":5539,"Ġmachine":5540,"att":5541,"utney":5542,"Ġfun":5543,"Ġchafing":5544,"Ġwas":5545,"ĠClassic":5546,"leu":5547,"lect":5548,"Ġinsert":5549,"Ġ22":5550,"Ġdoll":5551,"Ġdilute":5552,"Ġdaily":5553,"ĠSkin":5554,"ĠBun":5555,"ĠPush":5556,"ĠParsley":5557,"ĠPlain":5558,"Ġbuttery":5559,"ĠTsp":5560,"ĠTie":5561,"Ġvelveeta":5562,"Ġthumb":5563,"ĠAvocad":5564,"Ġstream":5565,"Ġstarter":5566,"Ġshaker":5567,"irrel":5568,"ĠRun":5569,"ĠDiscard":5570,"ĠWin":5571,"stir":5572,"colored":5573,"Ġovermix":5574,"nap":5575,"aya":5576,"ĠFree":5577,"quettes":5578,"Ġbreads":5579,"ima":5580,"ĠGreek":5581,"lender":5582,"Ġappetizers":5583,"ĠJan":5584,"izes":5585,"Ġlik":5586,"ĠPepsi":5587,"Ġskew":5588,"Ġpackaged":5589,"Ġextracts":5590,"estive":5591,"Ġspoons":5592,"ĠCarol":5593,"ĠQuarter":5594,"ĠSweetened":5595,"ĠGrated":5596,"Ġheart":5597,"ĠBananas":5598,"Ġcrisply":5599,"ĠPete":5600,"ĠFrosty":5601,"Ġkindness":5602,"Ġunderstanding":5603,"Ġbrine":5604,"Ġtinfoil":5605,"ĠBlackberry":5606,"ĠColor":5607,"ĠBarrel":5608,"Ġreached":5609,"Ġtouched":5610,"Ġfinished":5611,"ĠHerbed":5612,"bbles":5613,"ĠSmoothie":5614,"ĠWafers":5615,"ĠPimento":5616,"Ġcharcoal":5617,"ĠForgotten":5618,"hydrated":5619,"olution":5620,"ĠHollandaise":5621,"Ġamong":5622,"ĠHayst":5623,"ĠCheeseburger":5624,"Ġwaffles":5625,"Minute":5626,"Ġpiping":5627,"ĠAvocado":5628,"'re":5629,"70":5630,"Eyed":5631,"Yields":5632,"dried":5633,"ginal":5634,"ky":5635,"tAdd":5636,"wrap":5637,"Ġok":5638,"Ġtough":5639,"estern":5640,"Ġwe":5641,"icro":5642,"ĠCrispies":5643,"Ġins":5644,"ora":5645,"Ġtofu":5646,"Ġ225":5647,"Ġdab":5648,"ĠBeet":5649,"lab":5650,"Ġgive":5651,"Ġpeek":5652,"Ġhome":5653,"Ġholiday":5654,"Ġcommercial":5655,"Ġveg":5656,"Ġvermo":5657,"ience":5658,"Ġsafe":5659,".).":5660,"ĠRib":5661,"ĠRye":5662,"colator":5663,"illed":5664,"Ġjuicy":5665,"ĠFunnel":5666,"ĠFamous":5667,"Ġrequ":5668,"urer":5669,"Ġroux":5670,"Ġspecial":5671,"Ġseam":5672,"Ġseven":5673,"ĠStraw":5674,"Ġ80":5675,"ified":5676,"ĠGet":5677,"Ġsoap":5678,"ubstit":5679,"ĠOmelet":5680,"ĠKell":5681,"ĠKent":5682,"Ġrabb":5683,"Ġexcellent":5684,"ĠVinaigrette":5685,"ĠLettuce":5686,"ĠButtercream":5687,"ĠUp":5688,"Ġpeeling":5689,"Ġdehydrated":5690,"Ġrigat":5691,"ĠQuickie":5692,"Ġforming":5693,"ĠPepperoni":5694,"ĠBrunch":5695,"ĠBrickle":5696,"ĠScrub":5697,"ĠNutra":5698,"boneless":5699,"ĠUnroll":5700,"vily":5701,"ĠDeer":5702,"Ġgrains":5703,"Ġeating":5704,"Ġtrim":5705,"Ġsprinkling":5706,"ĠWalnuts":5707,"ierce":5708,"ĠAlternately":5709,"ĠTriscuit":5710,"Ġacid":5711,"mixed":5712,"ĠExtra":5713,"Ġpulls":5714,"pecially":5715,"Style":5716,"ĠShortcake":5717,"prefer":5718,"Ġtested":5719,"ĠBorden":5720,"Ġmanuf":5721,"ĠIndian":5722,"ĠFriendship":5723,"Ġsorghum":5724,"ĠAdjust":5725,"ĠPorcupine":5726,"ĠPersimmon":5727,"Ġshoestring":5728,"seasoned":5729,"Ġvermouth":5730,"ĠStraws":5731,"Ġrabbit":5732,"Ġrigatoni":5733,"Ġmanufact":5734,"45":5735,"BQ":5736,"Good":5737,"Sugar":5738,"ais":5739,"crease":5740,"eks":5741,"fine":5742,"ftened":5743,"giveness":5744,"gresso":5745,"iant":5746,"overs":5747,"rone":5748,"skin":5749,"va":5750,"will":5751,"zel":5752,"Ġsolution":5753,"arian":5754,"Ġoat":5755,"Ġbund":5756,"Ġten":5757,"Ġtie":5758,"Ġtort":5759,"esto":5760,"Ġmound":5761,"illets":5762,"rets":5763,"Ġchurn":5764,"ington":5765,"ĠCav":5766,"Ġinvert":5767,"Ġtots":5768,"ourmet":5769,"Ġav":5770,"Ġawhile":5771,"Ġdate":5772,"ĠSco":5773,"ĠBub":5774,"ĠBig":5775,"ĠBBQ":5776,"ĠPizzas":5777,"Ġgel":5778,"Ġhum":5779,"Ġlye":5780,"ists":5781,"ĠMore":5782,"Ġeggnog":5783,"Ġcom":5784,"Ġcoats":5785,"cean":5786,"ĠComs":5787,"Ġjigg":5788,"Ġleeks":5789,"thin":5790,"ĠDeath":5791,"stitos":5792,"ĠSponge":5793,"berg":5794,"umber":5795,"ĠLen":5796,"ĠLingu":5797,"ĠLady":5798,"ĠWho":5799,"ĠWhole":5800,"ĠHollow":5801,"ĠEsc":5802,"Ġpoured":5803,"ĠThan":5804,"ĠBrowns":5805,"ĠSaucy":5806,"ĠYams":5807,"lenda":5808,"estrone":5809,"Ġthinner":5810,"Ġstands":5811,"Ġfreezes":5812,"Ġfreezing":5813,"Ġtubs":5814,"Ġtubes":5815,"Ġpock":5816,"Ġquant":5817,"ĠFlakes":5818,"ĠLobster":5819,"ildren":5820,"ortant":5821,"ĠUnmold":5822,"ĠDebone":5823,"ĠTangy":5824,"without":5825,"ĠSkim":5826,"chocolate":5827,"ĠMolded":5828,"Ġblocks":5829,"Ġshaped":5830,"ĠTwinkie":5831,"ĠFrito":5832,"ĠChews":5833,"beef":5834,"Ġswiss":5835,"Ġnearly":5836,"Ġfalls":5837,"Ġscrape":5838,"ĠHungry":5839,"ĠSuey":5840,"ĠSnickerd":5841,"yalty":5842,"ĠQueso":5843,"Ġglossy":5844,"Ġcavity":5845,"ĠTartar":5846,"ĠGrandmother":5847,"ĠLeftover":5848,"Ġwiener":5849,"Ġdistribute":5850,"ĠPaso":5851,"ĠOrtega":5852,"ĠHaystacks":5853,"Ġokay":5854,"ubstitute":5855,"ĠKentucky":5856,"Ġmanufacturer":5857,"ĠComstock":5858,"Orange":5859,"Pe":5860,"cer":5861,"cal":5862,"drain":5863,"eon":5864,"fort":5865,"gy":5866,"gna":5867,"med":5868,"non":5869,"nies":5870,"tain":5871,"uriz":5872,"ws":5873,"yes":5874,"iness":5875,"erne":5876,"arrow":5877,"Ġbrew":5878,"Ġtail":5879,"Ġmat":5880,"recipe":5881,"only":5882,"alo":5883,"alent":5884,"ĠCit":5885,"ĠCereal":5886,"lease":5887,"orida":5888,"Ġeight":5889,"ĠBlender":5890,"ĠPina":5891,"ĠPaint":5892,"ĠPilaf":5893,"Ġgro":5894,"gets":5895,"Ġhope":5896,"ister":5897,"ĠTon":5898,"Ġcod":5899,"ĠCore":5900,"Ġforgiveness":5901,"Ġnarrow":5902,"Ġsavory":5903,"Ġleek":5904,"this":5905,"ĠWon":5906,"ĠWack":5907,"ĠWind":5908,"napp":5909,"adian":5910,"cones":5911,"efort":5912,"oleo":5913,"quefort":5914,"Ġspace":5915,"Ġsparkling":5916,"ĠSpeed":5917,"ĠSplenda":5918,"amic":5919,"Ġseems":5920,"ĠLor":5921,"ĠHel":5922,"Ġcupcakes":5923,"Ġdraining":5924,"imal":5925,"ĠGener":5926,"ĠGourmet":5927,"ards":5928,"Ġstirred":5929,"Ġalways":5930,"ĠOat":5931,"eebler":5932,"ĠIncrease":5933,"uffalo":5934,"Ġhalibut":5935,"ĠReal":5936,"Ġsalads":5937,"ssoms":5938,"enster":5939,"Ġchillies":5940,"Ġthicker":5941,"ĠButternut":5942,"Ġwait":5943,"Ġyoung":5944,"Ġplant":5945,"Ġziti":5946,"Ġheavily":5947,"Ġhandfuls":5948,"Ġbutt":5949,"ĠTostitos":5950,"ĠFlorida":5951,"Ġpatience":5952,"softened":5953,"ĠMince":5954,"Ġconcentrated":5955,"ĠWashington":5956,"ĠGreens":5957,"Ġneck":5958,"ĠPancake":5959,"apples":5960,"ĠSmokies":5961,"ĠBurger":5962,"ĠPrune":5963,"Ġfriendship":5964,"Ġsteamed":5965,"ĠCalico":5966,"ĠHearty":5967,"ĠAnn":5968,"ĠOriginal":5969,"rounded":5970,"acting":5971,"ĠEnchilada":5972,"prepared":5973,"uggets":5974,"ĠPinwheels":5975,"Ġespecially":5976,"Ġreheated":5977,"Ġsaffron":5978,"Ġcontinuously":5979,"ĠLouisiana":5980,"Crisco":5981,"Ġmenthe":5982,"Ġreplacement":5983,"From":5984,"ĠMuenster":5985,"Ġhusks":5986,"Ġliking":5987,"ĠNutraSweet":5988,"ĠTriscuits":5989,"Ġtortellini":5990,"gnac":5991,"urized":5992,"ĠSpeedy":5993,"Be":5994,"Cream":5995,"Mix":5996,"Sw":5997,"ae":5998,"back":5999,"black":6000,"car":6001,"cinnamon":6002,"cress":6003,"eer":6004,"ect":6005,"fried":6006,"gra":6007,"ior":6008,"lien":6009,"nier":6010,"pie":6011,"sin":6012,"set":6013,"tand":6014,"vals":6015,"Ġels":6016,"Ġsy":6017,"Ġsizes":6018,"Ġbal":6019,"Ġbel":6020,"ilt":6021,"ale":6022,"ene":6023,"Ġfrench":6024,"Ġchowder":6025,"garlic":6026,"garian":6027,"ĠCashew":6028,"Ġtotal":6029,"Ġtostad":6030,"Ġacorn":6031,"Ġeigh":6032,"ĠBour":6033,"ĠBot":6034,"ĠBill":6035,"ĠBudd":6036,"ĠBleu":6037,"ĠPig":6038,"ĠPicante":6039,"Ġpea":6040,"Ġlift":6041,"ĠMade":6042,"ĠTreat":6043,"unpeeled":6044,"monds":6045,"monia":6046,"Ġbrook":6047,"Ġshot":6048,"Ġcrisscross":6049,"ups":6050,"ĠDolly":6051,"Ġsoupy":6052,"ĠWor":6053,"ĠWel":6054,"ĠWaver":6055,"illing":6056,"Ġjulien":6057,"asted":6058,"abag":6059,"omest":6060,"ĠLift":6061,"ĠLite":6062,"ĠLarge":6063,"aper":6064,"ĠStack":6065,"ĠHill":6066,"ĠHome":6067,"ĠCooler":6068,"Ġrock":6069,"ĠEd":6070,"ĠKitchen":6071,"Ġraise":6072,"ĠPeople":6073,"ĠNachos":6074,"Ġsquirrel":6075,"Ġiceberg":6076,"ĠPrego":6077,"ĠShe":6078,"ĠYour":6079,"ĠYork":6080,"Ġbagels":6081,"risk":6082,"Ġliquor":6083,"Ġspreadable":6084,"Ġpickled":6085,"ĠQuaker":6086,"ĠRoquefort":6087,"Ġtwist":6088,"Ġammonia":6089,"Ġanything":6090,"ĠEggnog":6091,"Ġpasteurized":6092,"ĠCanadian":6093,"Ġsmok":6094,"ĠMarnier":6095,"ĠNutmeg":6096,"flour":6097,"flake":6098,"Ġbroiled":6099,"ĠUnder":6100,"plants":6101,"ĠDivan":6102,"icotti":6103,"ĠTwin":6104,"ĠTwice":6105,"Ġbrick":6106,"Ġlimas":6107,"ĠPops":6108,"Ġequals":6109,"alsamic":6110,"ĠProgresso":6111,"layer":6112,"crumbled":6113,"ĠButterfingers":6114,"ĠLondon":6115,"ĠPlus":6116,"ĠPlum":6117,"ĠCrem":6118,"Ġstrainer":6119,"eather":6120,"ĠSeafoam":6121,"ĠMedal":6122,"Ġrubber":6123,"Ġcontinually":6124,"ĠSchnapp":6125,"ĠHungarian":6126,"ĠSwanson":6127,"Ġadv":6128,"Ġtransfer":6129,"ĠHalve":6130,"ĠColada":6131,"ĠBuckeyes":6132,"ĠCrescent":6133,"accioli":6134,"Ġbucket":6135,"Ġjackets":6136,"ĠGlor":6137,"Ġdisappears":6138,"walnuts":6139,"andelion":6140,"Ġinsides":6141,"Ġavailable":6142,"ĠBubble":6143,"ĠSnickerdoodles":6144,"ĠCitrus":6145,"ĠWacky":6146,"Ġelse":6147,"ĠWaverly":6148,"ĠSchnapps":6149,"\")":6150,"35":6151,"App":6152,"Butter":6153,"Lay":6154,"cub":6155,"crisp":6156,"iar":6157,"ike":6158,"kins":6159,"lers":6160,"lub":6161,"make":6162,"ns":6163,"ogg":6164,"rins":6165,"vard":6166,"wood":6167,"Ġ0":6168,"Ġcour":6169,"Ġcrowd":6170,"Ġsink":6171,"Ġsizz":6172,"Ġour":6173,"Ġbrisk":6174,"esh":6175,"Ġmill":6176,"Ġmouth":6177,"ilar":6178,"ilver":6179,"reus":6180,"ala":6181,"Ġfunnel":6182,"Ġcholesterol":6183,"Ġwok":6184,"lemon":6185,"leave":6186,"Ġinter":6187,"ĠSilk":6188,"ĠSesame":6189,"ĠBush":6190,"ĠBark":6191,"Ġpeck":6192,"Ġpebbles":6193,"Ġhouse":6194,"Ġeggplants":6195,"ĠTropical":6196,"unior":6197,"Ġcobbler":6198,"Ġvary":6199,"allow":6200,"Ġflute":6201,"Ġminestrone":6202,"ĠCopper":6203,"Ġstar":6204,"Ġsteep":6205,"rif":6206,"ripe":6207,"Ġjunior":6208,"Ġcrunch":6209,"Ġwhat":6210,"ĠDefrost":6211,"ĠDilute":6212,"Ġjug":6213,"ĠFamily":6214,"efly":6215,"Ġrinds":6216,"Ġspiced":6217,"ĠLogs":6218,"ĠString":6219,"ĠHalf":6220,"ops":6221,"Ġbeefy":6222,"cted":6223,"ĠGiant":6224,"ressed":6225,"ĠOther":6226,"ĠEye":6227,"uffed":6228,"ĠKe":6229,"ĠKeebler":6230,"Ġexact":6231,"mpathy":6232,"Ġprepar":6233,"Ġprebaked":6234,"Ġlayered":6235,"Ġpicks":6236,"Ġaccent":6237,"ĠFruity":6238,"Quick":6239,"ĠPeanuts":6240,"ĠSelect":6241,"Ġhardened":6242,"ĠSweeten":6243,"Ġsciss":6244,"Ġscrub":6245,"ivalent":6246,"ĠCrazy":6247,"ĠLove":6248,"ĠCanned":6249,"Ġpercolator":6250,"ĠEngland":6251,"bons":6252,"ĠUnbaked":6253,"Ġslivers":6254,"Ġracks":6255,"luded":6256,"Ġgrilling":6257,"Ġlimp":6258,"Ġscallion":6259,"Ġlasagne":6260,"Ġrotel":6261,"Ġincluded":6262,"Ġgoing":6263,"ĠBasil":6264,"fryer":6265,"ĠSecret":6266,"ĠSecrets":6267,"Cook":6268,"Ġswirl":6269,"Ġblintz":6270,"Ġloosen":6271,"Ġburgers":6272,"Ġcrystal":6273,"ĠLiver":6274,"Ġprod":6275,"Ġmangoes":6276,"ĠHarvard":6277,"Italian":6278,"ĠRosemary":6279,"Ġdrumsticks":6280,"ĠMelba":6281,"ĠGeorg":6282,"ĠBrie":6283,"Broccoli":6284,"Ġsleeve":6285,"Ġlaughter":6286,"ĠKellogg":6287,"ĠGenerously":6288,"Ġsympathy":6289,"ĠCremora":6290,"Ġadvance":6291,"reusel":6292,"Ġexactly":6293,"Ġpreparing":6294,"(\"":6295,",\\":6296,"..":6297,"325":6298,"Apple":6299,"Baked":6300,"Cool":6301,"Club":6302,"Duncan":6303,"One":6304,"Ro":6305,"With":6306,"bles":6307,"cus":6308,"cery":6309,"diced":6310,"hard":6311,"ler":6312,"mini":6313,"nic":6314,"po":6315,"ura":6316,"wens":6317,"ze":6318,"Ġess":6319,"Ġ??":6320,"Ġsole":6321,"Ġ150":6322,"Ġbalsamic":6323,"Ġtater":6324,"Ġtaken":6325,"Ġpush":6326,"Ġparch":6327,"Ġpuffy":6328,"Ġpouch":6329,"Ġpurch":6330,"Ġpaint":6331,"Ġmain":6332,"utabag":6333,"Ġfashioned":6334,"Ġfondue":6335,"Ġchew":6336,"Ġwatch":6337,"icnic":6338,"spray":6339,"rock":6340,"Ġdredge":6341,"ĠScones":6342,"ĠBel":6343,"ĠBag":6344,"ĠBuffalo":6345,"ĠPile":6346,"ĠPaul":6347,"ĠPort":6348,"Ġgl":6349,"Ġgu":6350,"ĠTown":6351,"unbeaten":6352,"cheese":6353,"chwe":6354,"Ġstor":6355,"verted":6356,"etimes":6357,"ders":6358,"ĠChar":6359,"ĠChest":6360,"ĠChildren":6361,"Ġcrisco":6362,"ipes":6363,"ĠRuth":6364,"ĠDole":6365,"ĠWestern":6366,"ĠFancy":6367,"Ġsea":6368,"ĠLad":6369,"Ġ65":6370,"ashell":6371,"shaped":6372,"olds":6373,"Ġmelting":6374,"iman":6375,"ĠGre":6376,"ĠGall":6377,"Ġrows":6378,"Ġkinds":6379,"Ġkitchen":6380,"ĠJer":6381,"ĠJif":6382,"ĠJew":6383,"ĠEsp":6384,"ĠEnd":6385,"anana":6386,"ĠKielbasa":6387,"Ġpapaya":6388,"ĠReheat":6389,"ĠReplace":6390,"ĠThins":6391,"ĠThrow":6392,"ĠRolled":6393,"ĠNature":6394,"Ġloyalty":6395,"ĠYear":6396,"eady":6397,"reeze":6398,"extra":6399,"Ġfind":6400,"Ġcranapple":6401,"ĠCornflake":6402,"ĠMoist":6403,"Ġdeter":6404,"ĠBisque":6405,"Ġfryers":6406,"Ġneeds":6407,"ĠGram":6408,"Ġcereals":6409,"Ġtwists":6410,"ĠFlip":6411,"Ġknives":6412,"ĠSeasoned":6413,"ampi":6414,"Ġcomplete":6415,"ĠScampi":6416,"Ġfolding":6417,"Ġperch":6418,"unschwe":6419,"Ġbackfin":6420,"ĠMember":6421,"ĠContains":6422,"Ġhamburgers":6423,"ĠSmash":6424,"ava":6425,"Ġmugs":6426,"Ġblossoms":6427,"ĠPopovers":6428,"Ġveggie":6429,"Ġpreferably":6430,"Ġburning":6431,"Ġindividually":6432,"Ġopening":6433,"Ġflowerpot":6434,"ĠShredded":6435,"Ġabsorbent":6436,"Ġincrease":6437,"ĠLamb":6438,"Ġsterile":6439,"!!!":6440,"Ġrunny":6441,"Ġsprig":6442,"ĠSteamed":6443,"Ġfettucini":6444,"ĠOysters":6445,"ĠChewies":6446,"ĠSticky":6447,"Ġcolada":6448,"ĠScramble":6449,"ĠBorax":6450,"Ġhollowed":6451,"rito":6452,"yler":6453,"Ġadjust":6454,"Ġhulled":6455,"packed":6456,"Ġsafflower":6457,"ĠSauterne":6458,"Ġbriefly":6459,"ĠJudy":6460,"Ġpopsicle":6461,"Ġbisquick":6462,"ĠFettuccine":6463,"ditional":6464,"Marcus":6465,"Ġsimilar":6466,"Ġrequired":6467,"preferably":6468,"ĠLentil":6469,"Ġpocket":6470,"Ġmatzo":6471,"Ġgrocery":6472,"Ġbalance":6473,"Ġeighths":6474,"ĠWorld":6475,"Ġscissors":6476,"ĠGeorgia":6477,"unschweiger":6478,"--":6479,".'":6480,"22":6481,"400":6482,"Car":6483,"Fly":6484,"Make":6485,"Very":6486,"blue":6487,"cini":6488,"calorie":6489,"deep":6490,"flavor":6491,"falf":6492,"han":6493,"ipping":6494,"ippy":6495,"lon":6496,"lite":6497,"pa":6498,"put":6499,"press":6500,"sk":6501,"sts":6502,"soup":6503,"squ":6504,"such":6505,"wd":6506,"Ġ.":6507,"Ġrain":6508,"Ġsilk":6509,"Ġsodium":6510,"anges":6511,"Ġtra":6512,"Ġtahini":6513,"Ġprop":6514,"Ġpatter":6515,"Ġmul":6516,"Ġmounds":6517,"Ġface":6518,"Ġchutney":6519,"ict":6520,"ĠCapp":6521,"ortening":6522,"Ġ29":6523,"ition":6524,"Ġdirt":6525,"Ġdots":6526,"Ġeye":6527,"ĠSelf":6528,"ĠSang":6529,"ĠSubstitute":6530,"ĠBa":6531,"ĠBir":6532,"ĠPion":6533,"Ġgas":6534,"ased":6535,"ggy":6536,"isette":6537,"ĠMull":6538,"ĠMounds":6539,"ĠTips":6540,"ĠTaste":6541,"Ġcreaming":6542,"otted":6543,"usc":6544,"ĠAla":6545,"Ġwatercress":6546,"tosh":6547,"ria":6548,"rien":6549,"right":6550,"Ġjoy":6551,"Ġbroad":6552,"Ġnachos":6553,"Ġnumber":6554,"Ġshiny":6555,"ĠRounds":6556,"ĠWipe":6557,"ĠWait":6558,"ĠFa":6559,"ĠFud":6560,"ĠFondue":6561,"efin":6562,"ĠLunch":6563,"ĠStrat":6564,"ĠImper":6565,"oughy":6566,"Ġalone":6567,"Ġalfalf":6568,"Ġpuddings":6569,"Ġapprox":6570,"ĠOle":6571,"ĠOwn":6572,"ĠOwens":6573,"ĠJar":6574,"ĠJoy":6575,"ĠEas":6576,"ĠEaster":6577,"Ġslit":6578,"ucc":6579,"ucer":6580,"ĠReyn":6581,"ĠCrushed":6582,"osition":6583,"ĠThere":6584,"Ġanimal":6585,"ĠSauteed":6586,"Ġenrich":6587,"ĠCheesecakes":6588,"Ġouter":6589,"Ġthickly":6590,"ĠShoo":6591,"Ġqts":6592,"Ġdirects":6593,"ĠCorning":6594,"Ġstemmed":6595,"ĠFruited":6596,"ĠFruitcake":6597,"Ġbasic":6598,"Ġcauliflowerets":6599,"ĠFlan":6600,"Ġpina":6601,"Ġcrescents":6602,"Ġcenters":6603,"ĠLoaves":6604,"ĠFilled":6605,"Ġthroughout":6606,"Ġstale":6607,"ĠMinutes":6608,"reath":6609,"ĠMargarine":6610,"Ġbreaking":6611,"Ġgrilled":6612,"ĠTwist":6613,"Ġfollowed":6614,"ĠCroquettes":6615,"Cho":6616,"ĠNeiman":6617,"ĠClou":6618,"Ġprick":6619,"ĠCatfish":6620,"ĠPerrins":6621,"ĠSecure":6622,"ĠLasagne":6623,"Ġmonth":6624,"Coconut":6625,"Ġsecret":6626,"ĠMiniature":6627,"Ġwonderful":6628,"Ġrises":6629,"Ġworth":6630,"Ġscrambled":6631,"ĠSchilling":6632,"Ġclosely":6633,"Ġdecorative":6634,"Ġcrepe":6635,"ĠJohnny":6636,"Ġimportant":6637,"Ġequivalent":6638,"ĠNana":6639,"Ġbuttons":6640,"ĠSamu":6641,"coholic":6642,"zelnuts":6643,"ĠWonderful":6644,"graham":6645,"ĠBoursin":6646,"omestyle":6647,"Appetizer":6648,"Ġintervals":6649,"rifice":6650,"Ġblintzes":6651,"Ġ???":6652,"ĠSangria":6653,"ĠPioneer":6654,"ĠImperial":6655,"Ġalfalfa":6656,"ĠReynolds":6657,"%)":6658,")(":6659,"60":6660,"Bran":6661,"Corn":6662,"Crock":6663,"Inch":6664,"Lo":6665,"Me":6666,"Mo":6667,"Mex":6668,"OT":6669,"Wh":6670,"aid":6671,"crifice":6672,"des":6673,"eck":6674,"fire":6675,"ged":6676,"gent":6677,"gallon":6678,"pr":6679,"salt":6680,"tally":6681,"ume":6682,"Ġcard":6683,"Ġcork":6684,"Ġcured":6685,"Ġsilver":6686,"erd":6687,"erran":6688,"arious":6689,"Ġbuds":6690,"Ġbuy":6691,"Ġtan":6692,"Ġtry":6693,"Ġpli":6694,"Ġpray":6695,"Ġparboil":6696,"Ġpizzas":6697,"Ġmine":6698,"Ġmot":6699,"Ġmiracle":6700,"Ġmousse":6701,"ils":6702,"real":6703,"remove":6704,"onion":6705,"ouff":6706,"Ġfix":6707,"Ġfeed":6708,"Ġfile":6709,"Ġchange":6710,"Ġchurch":6711,"ica":6712,"ĠCor":6713,"ĠCast":6714,"ĠCalor":6715,"level":6716,"ppiness":6717,"itely":6718,"Ġeyes":6719,"ĠSor":6720,"ĠSus":6721,"ĠSad":6722,"ĠSmall":6723,"ĠSizz":6724,"ĠBus":6725,"ĠBell":6726,"ĠBox":6727,"lapping":6728,"ĠPesto":6729,"Ġgin":6730,"Ġgingersnaps":6731,"razz":6732,"raft":6733,"raspberry":6734,"Ġhol":6735,"Ġlimes":6736,"isbury":6737,"ĠMarm":6738,"ĠMaster":6739,"ĠMicro":6740,"ĠTet":6741,"ĠTahini":6742,"Ġcognac":6743,"Ġvent":6744,"Ġflip":6745,"chool":6746,"ĠAsp":6747,"Ġunble":6748,"Ġcanes":6749,"illas":6750,"Ġshaking":6751,"ĠChurch":6752,"ĠCholesterol":6753,"Ġsaved":6754,"Ġsaucer":6755,"ĠRos":6756,"ĠWedges":6757,"ĠWyler":6758,"cold":6759,"Ġoverlapping":6760,"ĠFool":6761,"astic":6762,"member":6763,"comm":6764,"Ġspear":6765,"berally":6766,"Ġseashell":6767,"ĠLush":6768,"ĠLib":6769,"ĠLope":6770,"ĠLima":6771,"Ġcones":6772,"Ġ64":6773,"iment":6774,"ĠGrap":6775,"ardi":6776,"Ġhotd":6777,"Ġhotter":6778,"ĠSalisbury":6779,"Ġkaro":6780,"ĠOcean":6781,"ĠJus":6782,"ĠEach":6783,"Ġcarob":6784,"Ġexch":6785,"ĠVien":6786,"ĠVirgin":6787,"liquid":6788,"eye":6789,"ĠNice":6790,"ĠNest":6791,"Ġchilling":6792,"ĠYam":6793,"ecially":6794,"ude":6795,"ĠForest":6796,"Ġrim":6797,"Ġtemp":6798,"ĠBrandy":6799,"Ġthickening":6800,"Ġpopping":6801,"Ġhandled":6802,"Ġquiche":6803,"Ġdirectly":6804,"Ġ240":6805,"ĠFlank":6806,"ĠFlaky":6807,"Ġconsider":6808,"Ġarea":6809,"ĠMincemeat":6810,"angy":6811,"Ġcompany":6812,"ĠSugarless":6813,"Ġdrip":6814,"ĠMonster":6815,"ĠCongo":6816,"Ġperfect":6817,"Ġsealing":6818,"Ġmarinating":6819,"ĠUncooked":6820,"Ġflattened":6821,"pherd":6822,"ĠHappy":6823,"ĠMuffin":6824,"Ġclusters":6825,"Ġunsliced":6826,"Ġskimmed":6827,"Ġmoderately":6828,"ĠRaisins":6829,"ĠSmok":6830,"Ġindefin":6831,"ĠNectar":6832,"Ġendive":6833,"ĠRoma":6834,"ĠDonuts":6835,"Ġtouching":6836,"ĠPlant":6837,"buttered":6838,"Ġfitting":6839,"Stir":6840,"Ġresemble":6841,"ĠBonbons":6842,"Ġcrystall":6843,"assion":6844,"Ġhelps":6845,"Ġscraped":6846,"Intosh":6847,"ĠPimiento":6848,"ething":6849,"ethod":6850,"Ġpalms":6851,"ĠPennies":6852,"Ġluncheon":6853,"ĠStrips":6854,"Ġskewers":6855,"ĠLinguine":6856,"Ġquantity":6857,"Ġbrewed":6858,"Ġtails":6859,"ĠTony":6860,"ĠWindows":6861,"Ġbelow":6862,"ĠShepherd":6863,"cubed":6864,"Ġbriskly":6865,"popped":6866,"Ġpurchased":6867,"Ġchewy":6868,"Ġglut":6869,"Ġpattern":6870,"ĠCappucc":6871,"ĠStrata":6872,"Ġenriched":6873,"ĠCloud":6874,"Ġpliable":6875,"Ġfilets":6876,"ĠCalories":6877,"ĠMarmalade":6878,"ĠTetrazz":6879,"Ġunbleached":6880,"ĠLibby":6881,"Ġindefinitely":6882,"ĠCappuccino":6883,"Don":6884,"Eagle":6885,"High":6886,"On":6887,"Old":6888,"Peek":6889,"Pean":6890,"Ritz":6891,"Sh":6892,"Tom":6893,"Un":6894,"au":6895,"bit":6896,"cipes":6897,"een":6898,"fa":6899,"fashioned":6900,"grated":6901,"her":6902,"hod":6903,"jo":6904,"keep":6905,"lins":6906,"opper":6907,"ply":6908,"tip":6909,"tub":6910,"uces":6911,"uke":6912,"val":6913,"wick":6914,"wie":6915,"Ġcamp":6916,"Ġsna":6917,"Ġslab":6918,"ero":6919,"ert":6920,"Ġbra":6921,"Ġbush":6922,"Ġbought":6923,"Ġtines":6924,"Ġtropical":6925,"Ġtangy":6926,"ester":6927,"Ġphy":6928,"Ġml":6929,"Ġmatch":6930,"Ġmasa":6931,"Ġmacaroons":6932,"onde":6933,"ends":6934,"Ġfig":6935,"Ġwere":6936,"Ġweather":6937,"ĠCarb":6938,"ĠCenter":6939,"ĠClay":6940,"leberry":6941,"original":6942,"spread":6943,"Ġsuff":6944,"Ġ370":6945,"ito":6946,"itas":6947,"ities":6948,"Ġdeeds":6949,"Ġdandelion":6950,"ĠSu":6951,"ĠSex":6952,"ĠSliced":6953,"ĠBlo":6954,"ĠBurn":6955,"last":6956,"ĠPri":6957,"ĠPur":6958,"ĠPriz":6959,"ĠPierce":6960,"ĠPosition":6961,"Ġgame":6962,"Ġhun":6963,"Ġsalty":6964,"ised":6965,"ising":6966,"isters":6967,"ĠMound":6968,"ĠMars":6969,"ĠMark":6970,"Ġeggbe":6971,"ĠTap":6972,"ĠToll":6973,"ĠTurt":6974,"Ġvarious":6975,"Ġthings":6976,"Ġthought":6977,"Ġchoose":6978,"Ġcanister":6979,"ellen":6980,"ĠCom":6981,"Ġstone":6982,"Ġbeca":6983,"tops":6984,"oks":6985,"ĠCherries":6986,"ĠChron":6987,"ĠChunky":6988,"redients":6989,"Ġwhiz":6990,"Ġwhere":6991,"ĠRabb":6992,"ĠRellen":6993,"ĠDan":6994,"ĠDai":6995,"ĠDrum":6996,"ĠWare":6997,"ĠWest":6998,"Ġoverbeat":6999,"ĠFla":7000,"ĠFun":7001,"ĠFestive":7002,"ĠFillets":7003,"Ġrecipes":7004,"urry":7005,"Ġrather":7006,"Ġrutabag":7007,"Ġsplash":7008,"ĠSpring":7009,"amount":7010,"oma":7011,"ĠStay":7012,"ĠIced":7013,"ĠHand":7014,"ĠHold":7015,"ifter":7016,"ĠGingersnaps":7017,"Ġsoggy":7018,"arsely":7019,"llo":7020,"Ġkahlua":7021,"ĠOptional":7022,"egetarian":7023,"eeter":7024,"ĠEither":7025,"ĠKrisp":7026,"ĠKings":7027,"Ġpapers":7028,"Ġhalve":7029,"Ġhazelnuts":7030,"ĠNon":7031,"ĠNeed":7032,"ĠRefresh":7033,"ĠChoice":7034,"arina":7035,"pected":7036,"Ġplay":7037,"Ġcolby":7038,"ĠSlit":7039,"clear":7040,"Ġtears":7041,"fulness":7042,"screw":7043,"ĠRoyal":7044,"Ġpoints":7045,"Ġstiffen":7046,"Ġscatter":7047,"iva":7048,"ign":7049,"ĠPeppermint":7050,"Ġsmashed":7051,"othered":7052,"ĠBruns":7053,"Ġbroiling":7054,"plus":7055,"ĠStewed":7056,"Ġworking":7057,"Ġbrickle":7058,"Ġscooped":7059,"ĠDribble":7060,"Ġdelic":7061,"ĠCrunchies":7062,"Ġallowing":7063,"ĠBurritos":7064,"Ġscald":7065,"Ġbeaters":7066,"Potato":7067,"Ġfriend":7068,"Ġmeasured":7069,"Ġitself":7070,"Ġstacks":7071,"Ġsolids":7072,"Ġmostaccioli":7073,"tein":7074,"Ġdiscarding":7075,"ĠBlonde":7076,"Cookies":7077,"Ġfitted":7078,"ĠLike":7079,"ĠLiquid":7080,"Ġwrappers":7081,"ĠVeggies":7082,"Ġomitting":7083,"retch":7084,"Ġribbon":7085,"Ġdecorations":7086,"ĠKidney":7087,"ĠEarly":7088,"Ġcreate":7089,"strawberries":7090,"according":7091,"Ġpineapples":7092,"ĠParfait":7093,"Ġstays":7094,"ĠPowdered":7095,"ĠHamburgers":7096,"Ġcitron":7097,"ĠElephant":7098,"iodized":7099,"Ġdollop":7100,"ĠWinter":7101,"Ġvegies":7102,"ĠScore":7103,"Ġjigger":7104,"ĠBuddig":7105,"Ġjulienne":7106,"ĠGlorified":7107,"Ġcourse":7108,"Ġessence":7109,"ĠJerky":7110,"ĠEspecially":7111,"Ġdetergent":7112,"ĠMulled":7113,"Chocolate":7114,"ĠSamuel":7115,"ĠAspic":7116,"ĠFoolproof":7117,"ĠTetrazzini":7118,"Peanut":7119,"Ġphyllo":7120,"ĠPrize":7121,"ĠMarsala":7122,"Ġeggbeater":7123,"ĠTurtles":7124,"Ġbecause":7125,"ĠChronicles":7126,"ĠRabbit":7127,"ĠBrunswick":7128,"26":7129,"250":7130,"American":7131,"Batter":7132,"Cake":7133,"Candy":7134,"Drop":7135,"Fruit":7136,"French":7137,"Gar":7138,"Time":7139,"\\.":7140,"baking":7141,"bacon":7142,"cch":7143,"dark":7144,"fir":7145,"ging":7146,"grease":7147,"iut":7148,"mettes":7149,"off":7150,"obs":7151,"pour":7152,"pint":7153,"ssh":7154,"tan":7155,"tre":7156,"uan":7157,"uct":7158,"vies":7159,"vious":7160,"wheat":7161,"wrapped":7162,"Ġut":7163,"Ġcou":7164,"Ġcas":7165,"Ġcould":7166,"Ġcling":7167,"Ġcatch":7168,"Ġcents":7169,"inate":7170,"Ġschool":7171,"Ġsifter":7172,"Ġ115":7173,"Ġbow":7174,"Ġtreat":7175,"Ġtasty":7176,"Ġtester":7177,"Ġpol":7178,"Ġpenne":7179,"Ġproof":7180,"Ġmal":7181,"Ġmess":7182,"Ġmang":7183,"ilted":7184,"uture":7185,"ones":7186,"oncini":7187,"ality":7188,"Ġfarm":7189,"Ġfancy":7190,"Ġfestive":7191,"garnish":7192,"icor":7193,"ĠCraw":7194,"ĠCacci":7195,"ĠCrowd":7196,"leans":7197,"sprinkle":7198,"Ġ27":7199,"rod":7200,"Ġavo":7201,"Ġaverage":7202,"ĠBu":7203,"ĠBut":7204,"ĠBak":7205,"ĠBone":7206,"Ġgent":7207,"Ġgett":7208,"Ġgiblets":7209,"Ġgher":7210,"raine":7211,"Ġpet":7212,"Ġlatt":7213,"Ġbutterf":7214,"ĠTakes":7215,"Ġvol":7216,"Ġflesh":7217,"chunky":7218,"ĠAle":7219,"Ġminus":7220,"Ġcane":7221,"ĠCoarsely":7222,"Ġsteady":7223,"tilled":7224,"Ġjo":7225,"etit":7226,"Ġnog":7227,"Ġshaping":7228,"Ġshav":7229,"Ġshoe":7230,"Ġattra":7231,"ĠChach":7232,"ient":7233,"Ġsacrifice":7234,"Ġsauces":7235,"thday":7236,"ĠDark":7237,"ĠDuring":7238,"ĠWeek":7239,"Ġbakes":7240,"ste":7241,"Ġgrand":7242,"Ġgroup":7243,"pplement":7244,"adillas":7245,"ĠFull":7246,"ersion":7247,"urst":7248,"Ġadds":7249,"quet":7250,"Ġrange":7251,"ĠSparkling":7252,"Ġyum":7253,"umbers":7254,"Ġseams":7255,"ĠLee":7256,"ĠLind":7257,"ĠStar":7258,"ĠStreusel":7259,"Ġcond":7260,"vest":7261,"shake":7262,"Ġcrumbles":7263,"iminate":7264,"iest":7265,"ĠGu":7266,"ĠGen":7267,"ĠGarb":7268,"Ġ57":7269,"weetened":7270,"ĠStirring":7271,"oughts":7272,"Ġable":7273,"ĠOut":7274,"ĠOsc":7275,"ĠJean":7276,"ĠIng":7277,"ĠKiss":7278,"Ġslight":7279,"Ġslotted":7280,"Ġclover":7281,"Ġfillings":7282,"Ġupon":7283,"ĠNuggets":7284,"Ġuses":7285,"letely":7286,"ĠChilled":7287,"iano":7288,"Ġlowest":7289,"aced":7290,"ĠSherry":7291,"ĠShortening":7292,"awba":7293,"Ġthinned":7294,"Ġfinally":7295,"ĠUs":7296,"Ġplaster":7297,"ĠMost":7298,"Ġstanding":7299,"ĠCaramels":7300,"scous":7301,"sciut":7302,"Ġcroiss":7303,"ĠGrassh":7304,"Ġbringing":7305,"ĠMeatball":7306,"Ġsmell":7307,"ĠDreamy":7308,"ĠSugared":7309,"Ġdribble":7310,"Ġkeeping":7311,"irty":7312,"Ġperk":7313,"Ġagainst":7314,"Ġparfait":7315,"ĠUnwrap":7316,"ĠCrumbs":7317,"phabet":7318,"Ġpreserv":7319,"Ġpresweetened":7320,"ĠOrleans":7321,"alloped":7322,"ford":7323,"Ġgarnished":7324,"ĠDorito":7325,"ĠWilli":7326,"Ġdrinks":7327,"ĠSmoke":7328,"Ġindent":7329,"Chicken":7330,"ĠWatermelon":7331,"ĠDilly":7332,"flowerets":7333,"Ġpreference":7334,"Ġrotating":7335,"ĠProsciut":7336,"Ġsteaming":7337,"Ġgoes":7338,"ĠGrahams":7339,"ĠCatawba":7340,"Ġfrosted":7341,"Ġstrings":7342,"ĠAnisette":7343,"ĠWorks":7344,"ĠBlan":7345,"Ġpulled":7346,"Ġsweeter":7347,"ĠMcIntosh":7348,"ĠCrepes":7349,"Ġsuper":7350,"ĠTenderloin":7351,"ĠBonnie":7352,"ĠDollies":7353,"ĠLastly":7354,"ĠSara":7355,"Ġdevein":7356,"Ġomitted":7357,"Ġdistilled":7358,"Ġdusted":7359,"Ġanchovies":7360,"Ġsecurely":7361,"ĠCloves":7362,"ylv":7363,"Ġbatches":7364,"Ġrectangles":7365,"ĠBraz":7366,"ĠBraised":7367,"ĠHarvest":7368,"Ġimpro":7369,"ĠPorcupines":7370,"Ġchecking":7371,"ĠCrescents":7372,"ĠWilted":7373,"slice":7374,"slightly":7375,"Ġbisque":7376,"Ġequally":7377,"ĠAmish":7378,"Ġscorching":7379,"Ġbirds":7380,"Ġsomething":7381,"Also":7382,"overnight":7383,"ĠJane":7384,"ĠCarolina":7385,"Ġdabs":7386,"ĠRibbon":7387,"Ġbundle":7388,"ĠCaviar":7389,"ĠWhoop":7390,"Swiss":7391,"ĠWelch":7392,"Ġscrubbed":7393,"Ġstorage":7394,"ĠGalliano":7395,"skim":7396,"Ġrainbow":7397,"Ġcorkscrew":7398,"ĠLopez":7399,"ĠVienna":7400,"Ġconsideration":7401,"wieback":7402,"Ġbraunschweiger":7403,"Ġbushel":7404,"ĠTapioca":7405,"Garlic":7406,"Ġmallet":7407,"Ġmangos":7408,"Ġavoid":7409,"Ġgetting":7410,"Ġlattice":7411,"Ġshavings":7412,"Ġattractive":7413,"ĠLinda":7414,"ĠOscar":7415,"ĠGrasshopper":7416,"ĠProsciutto":7417,".;":7418,"Banana":7419,"Brien":7420,"Cup":7421,"Del":7422,"Egg":7423,"Fail":7424,"Green":7425,"Glazed":7426,"Jack":7427,"My":7428,"Mores":7429,"Optional":7430,"Serve":7431,"Serv":7432,"Ste":7433,"We":7434,"Yum":7435,"bet":7436,"cra":7437,"friger":7438,"ha":7439,"hand":7440,"ias":7441,"iri":7442,"iole":7443,"jell":7444,"ki":7445,"mis":7446,"makes":7447,"mashed":7448,"pth":7449,"powder":7450,"pened":7451,"purple":7452,"sour":7453,"salted":7454,"tStir":7455,"uid":7456,"warm":7457,"work":7458,"wurst":7459,"~)":7460,"ĠQ":7461,"Ġ__":7462,"Ġca":7463,"inter":7464,"Ġserves":7465,"Ġsimple":7466,"erber":7467,"eros":7468,"anks":7469,"argarine":7470,"Ġob":7471,"Ġoval":7472,"Ġtong":7473,"Ġtied":7474,"Ġtint":7475,"Ġtaking":7476,"Ġpierce":7477,"Ġplease":7478,"Ġmic":7479,"reck":7480,"ennel":7481,"ouquet":7482,"Ġfuture":7483,"Ġchang":7484,"Ġwing":7485,"Ġwilted":7486,"Ġwinter":7487,"icient":7488,"ĠColl":7489,"leaf":7490,"Ġinta":7491,"orp":7492,"Ġ34":7493,"itter":7494,"Ġdent":7495,"Ġdec":7496,"Ġdressed":7497,"ĠSim":7498,"ĠSide":7499,"ĠSandy":7500,"ĠBab":7501,"ĠBarb":7502,"ĠBav":7503,"ĠBouquet":7504,"ĠPart":7505,"ĠPizz":7506,"ĠPigs":7507,"Ġgif":7508,"olf":7509,"raps":7510,"Ġho":7511,"Ġheal":7512,"Ġlife":7513,"ĠMam":7514,"ĠMango":7515,"ĠMethod":7516,"ĠTer":7517,"ĠTaff":7518,"uncovered":7519,"Ġfluid":7520,"Ġthing":7521,"Ġthink":7522,"ote":7523,"oto":7524,"Ġmilks":7525,"ĠAma":7526,"Ġunif":7527,"ceed":7528,"Ġcanner":7529,"redded":7530,"ĠCoated":7531,"Ġstretch":7532,"okne":7533,"Ġpepperoncini":7534,"mbran":7535,"mboo":7536,"Ġshelf":7537,"Ġshots":7538,"iev":7539,"ckrich":7540,"Ġsaut":7541,"ires":7542,"Ġleg":7543,"ĠRain":7544,"ĠRest":7545,"ĠDie":7546,"ĠWar":7547,"ĠWet":7548,"ĠWraps":7549,"ody":7550,"stess":7551,"stuffed":7552,"colates":7553,"adam":7554,"ĠFant":7555,"ĠFire":7556,"ĠFoil":7557,"ĠFlavored":7558,"Ġrecomm":7559,"eflon":7560,"cool":7561,"comp":7562,"abobs":7563,"umm":7564,"quest":7565,"Ġroughy":7566,"amate":7567,"ĠLand":7568,"ĠLakes":7569,"ĠSteep":7570,"ĠStella":7571,"Ġconverted":7572,"ĠHen":7573,"ĠHens":7574,"Ġcracklings":7575,"iments":7576,"ĠGlass":7577,"inks":7578,"Ġheatproof":7579,"Ġalcohol":7580,"oren":7581,"ĠOur":7582,"ĠOregano":7583,"ĠJen":7584,"ĠJere":7585,"ĠEv":7586,"ĠEvery":7587,"Ġcarne":7588,"ĠVer":7589,"ĠVeal":7590,"ĠCreams":7591,"ĠPeter":7592,"ĠPears":7593,"ĠRequest":7594,"othy":7595,"Ġ120":7596,"ĠCutlets":7597,"Ġsky":7598,"Ġupright":7599,"ĠNah":7600,"ĠNOT":7601,"ĠNumbers":7602,"ssom":7603,"Ġenhan":7604,"ĠPrecook":7605,"ĠPretty":7606,"ĠShip":7607,"ĠButtered":7608,"ĠBegin":7609,"Ġfinal":7610,"Ġdills":7611,"Ġtabasco":7612,"Ġplump":7613,"Ġcolors":7614,"Ġdepth":7615,"Ġdove":7616,"ĠCarne":7617,"aults":7618,"roximate":7619,"ĠSear":7620,"mperature":7621,"miah":7622,"Ġtempera":7623,"Ġcrookne":7624,"ĠFrosts":7625,"ĠSquirt":7626,"Ġscrew":7627,"iving":7628,"ĠFloren":7629,"Ġlastly":7630,"Ġparticles":7631,"ĠWithout":7632,"ĠBeefy":7633,"Ġsmile":7634,"yster":7635,"Ġmembran":7636,"Ġperfor":7637,"ĠAlways":7638,"ĠAlmonds":7639,"ĠCheezy":7640,"boiling":7641,"nergy":7642,"ĠHappiness":7643,"which":7644,"whipped":7645,"ĠCrustless":7646,"ĠMarshmallows":7647,"Ġbarrel":7648,"Ġelastic":7649,"ĠCrisps":7650,"ĠDorothy":7651,"aho":7652,"Ġtoweling":7653,"crunchy":7654,"Ġkneading":7655,"ĠBurrito":7656,"ĠDills":7657,"ĠDilled":7658,"ĠSeeds":7659,"iblet":7660,"ĠDirty":7661,"Ġdumpling":7662,"endy":7663,"Ġpearl":7664,"ĠManicotti":7665,"Ġscalloped":7666,"ĠRuby":7667,"ĠFrank":7668,"Strawber":7669,"Ġburritos":7670,"ĠParker":7671,"ĠSnowballs":7672,"ĠCompletely":7673,"ĠScrambled":7674,"book":7675,"Ġprotein":7676,"creamy":7677,"Ġcheap":7678,"Ġliner":7679,"Ġshortbread":7680,"Ġdiagonal":7681,"ĠSundae":7682,"Ġsnacks":7683,"Ġscramble":7684,"Ġgloves":7685,"ĠGouda":7686,"ĠParis":7687,"Ġescar":7688,"Ġsorrow":7689,"uyere":7690,"Ġpalm":7691,"Crust":7692,"ĠSandies":7693,"ĠMacadam":7694,"ĠWilder":7695,"ĠJudges":7696,"tPour":7697,"Ġ260":7698,"Ġbird":7699,"ĠEleg":7700,"Ġsometimes":7701,"Note":7702,"Ġskewer":7703,"ĠEscalloped":7704,"ĠLorraine":7705,"ĠHelen":7706,"Ġplantains":7707,"Ġtostado":7708,"ĠBottom":7709,"ĠHillshire":7710,"ĠEdible":7711,"ĠUnderwood":7712,"ĠKemp":7713,"Ġparchment":7714,"sprayed":7715,"ĠLadle":7716,"Ġproper":7717,"print":7718,"errano":7719,"Ġprayer":7720,"ouffer":7721,"ĠSusan":7722,"ĠBusy":7723,"Ġhotdogs":7724,"ĠVirginia":7725,"Ġglutamate":7726,"Ġsufficient":7727,"ĠComfort":7728,"ĠRellenos":7729,"firm":7730,"icorice":7731,"Ġvolume":7732,"ĠChachere":7733,"ĠIngredients":7734,"ĠWilliams":7735,"ĠBlanket":7736,"ĠBrazil":7737,"Step":7738,"Ġintact":7739,"Ġdente":7740,"Ġgifts":7741,"ĠTaffy":7742,"ĠAmaz":7743,"Ġuniform":7744,"ĠRainbow":7745,"ĠJeremiah":7746,"ĠNahum":7747,"Ġcrookneck":7748,"Ġescarole":7749,"ĠMacadamia":7750,"300":7751,"450":7752,"800":7753,"Break":7754,"Bean":7755,"Cabbage":7756,"Cauliflower":7757,"Grand":7758,"He":7759,"Hot":7760,"Hershey":7761,"Jiffy":7762,"Kid":7763,"Out":7764,"Put":7765,"Pre":7766,"Pam":7767,"Parmesan":7768,"Pec":7769,"Sa":7770,"Soup":7771,"br":7772,"bot":7773,"bowl":7774,"bite":7775,"cauliflower":7776,"cord":7777,"dew":7778,"down":7779,"gran":7780,"hel":7781,"house":7782,"jin":7783,"jita":7784,"lie":7785,"min":7786,"mers":7787,"must":7788,"mely":7789,"net":7790,"neath":7791,"pudding":7792,"pork":7793,"son":7794,"smooth":7795,"ska":7796,"slow":7797,"sodium":7798,"tF":7799,"tat":7800,"uese":7801,"uppies":7802,"wash":7803,"washed":7804,"wreck":7805,"Ġarm":7806,"Ġcu":7807,"Ġcy":7808,"ining":7809,"into":7810,"incl":7811,"Ġsco":7812,"ane":7813,"Ġore":7814,"Ġtre":7815,"Ġtam":7816,"Ġtarts":7817,"eslaw":7818,"Ġpare":7819,"Ġphe":7820,"Ġpilaf":7821,"Ġpicnic":7822,"Ġmus":7823,"Ġmush":7824,"Ġmicro":7825,"ility":7826,"refriger":7827,"ona":7828,"enized":7829,"Ġfur":7830,"Ġfaults":7831,"Ġcherv":7832,"ically":7833,"icama":7834,"ĠCle":7835,"spberries":7836,"Ġsugared":7837,"Ġage":7838,"Ġach":7839,"Ġajin":7840,"Ġeagle":7841,"ixie":7842,"ĠSin":7843,"ĠSally":7844,"ĠSize":7845,"ĠSirloin":7846,"ĠSnap":7847,"ĠBisc":7848,"ĠBoy":7849,"ĠBologna":7850,"ĠPa":7851,"ĠPate":7852,"ĠPone":7853,"ĠPace":7854,"ĠPreach":7855,"inett":7856,"Ġgly":7857,"Ġgreas":7858,"Ġgold":7859,"Ġgives":7860,"ggest":7861,"Ġhush":7862,"Ġlicorice":7863,"isins":7864,"ĠMust":7865,"ĠMunch":7866,"ĠMarb":7867,"ĠMild":7868,"ĠMolly":7869,"ĠMachine":7870,"ĠMyster":7871,"ĠTry":7872,"ungreased":7873,"Ġvegetarian":7874,"Ġthrow":7875,"Ġthose":7876,"Ġthoughts":7877,"Ġthirty":7878,"used":7879,"uster":7880,"usually":7881,"ĠAg":7882,"ĠAsse":7883,"Ġunmold":7884,"Ġunpopped":7885,"Ġmins":7886,"elled":7887,"ĠCoco":7888,"Ġstars":7889,"Ġstudd":7890,"tore":7891,"rip":7892,"etchup":7893,"Ġnuggets":7894,"atore":7895,"Ġshowers":7896,"Ġshanks":7897,"ĠChurn":7898,"ĠChuck":7899,"ĠChutney":7900,"Ġmark":7901,"ĠRap":7902,"ĠDad":7903,"ĠDuck":7904,"ĠDecor":7905,"ĠWell":7906,"ĠWrapped":7907,"ĠWendy":7908,"color":7909,"naments":7910,"Ġjuiced":7911,"Ġoily":7912,"ĠFle":7913,"Ġcorner":7914,"Ġcorners":7915,"mear":7916,"Ġrep":7917,"coars":7918,"abl":7919,"abel":7920,"quarts":7921,"Ġspots":7922,"omog":7923,"omargarine":7924,"omoto":7925,"Ġyam":7926,"serving":7927,"ĠLick":7928,"ĠLess":7929,"ĠLong":7930,"apes":7931,"ĠStand":7932,"ĠStouffer":7933,"Ġcone":7934,"ĠIre":7935,"ĠCooker":7936,"ĠWhipping":7937,"ĠHas":7938,"ĠHumm":7939,"Ġcracklins":7940,"vender":7941,"should":7942,"Ġbamboo":7943,"Ġdishpan":7944,"ĠGod":7945,"ĠGumbo":7946,"ĠGather":7947,"Ġsouth":7948,"Ġrope":7949,"ĠSalted":7950,"Ġalphabet":7951,"Ġkale":7952,"Ġappears":7953,"ĠOR":7954,"ĠEckrich":7955,"Ġoleomargarine":7956,"ĠKabobs":7957,"izon":7958,"Ġextre":7959,"Ġliberally":7960,"ĠVict":7961,"ĠReally":7962,"Ġsweeten":7963,"Ġsweetness":7964,"othing":7965,"osodium":7966,"Ġitalian":7967,"Ġcovers":7968,"ĠNeeds":7969,"Ġotherwise":7970,"roproof":7971,"Ġdirection":7972,"Ġfines":7973,"ĠItaliano":7974,"peach":7975,"ĠBreaded":7976,"semi":7977,"separate":7978,"Ġsteel":7979,"ĠLayers":7980,"Ġcoleslaw":7981,"105":7982,"Ġhoneydew":7983,"Ġzwieback":7984,"Ġtacos":7985,"Ġsifting":7986,"Ġcrabs":7987,"kets":7988,"ounty":7989,"Ġhardens":7990,"Ġturnip":7991,"ĠGrass":7992,"Ġchestnut":7993,"ĠDoes":7994,"same":7995,"ĠToo":7996,"ĠTopped":7997,"ĠGruyere":7998,"ucker":7999}