#version: 0.2
Ġ <
N E
X T
NE XT
I N
E N
R E
Ġ c
S T
IN G
D I
T S
EN TS
RE DI
ING REDI
INGREDI ENTS
i n
NE R
T I
Ġ s
e r
Ġ 1
O N
R U
TI ON
IN ST
C TION
RU CTION
INST RUCTION
INSTRUCTION S
a n
Ġ t
Ġ o
Ġ b
a r
e d
e s
A R
EN D
ST AR
STAR T
Ġ p
Ġ m
a t
i l
r e
u t
o n
e n
an d
a l
o u
Ġ and
Ġ f
Ġc h
Ġ w
in g
i c
g ar
Ġt o
s p
p p
Ġ in
l e
L E
P E
TI T
C I
RE CI
TIT LE
RECI PE
r o
Ġ C
o r
a k
e l
Ġ 2
ou r
a s
a m
i t
Ġo n
Ġs u
Ġ a
Ġ 3
Ġ e
Ġ d
Ġsu gar
Ġ S
Ġs al
Ġ g
Ġt sp
Ġ l
t er
Ġsal t
Ġp e
h e
o o
i x
i on
Ġ B
a c
Ġ P
Ġf l
g g
d d
in e
u n
g e
Ġe gg
i s
o w
Ġ T
ut ter
Ġ (
es e
Ġon ion
Ġb utter
ak e
re am
Ġfl our
ic k
Ġch e
Ġ un
Ġche ese
Ġ v
il l
Ġ A
Ġo f
o l
Ġm in
pp er
Ġ h
it h
u s
Ġ M
Ġch o
o t
Ġpe pper
Ġb e
Ġm ix
Ġc ream
Ġw ith
Ġo r
r a
v er
Ġmin ut
il k
t il
Ġun til
Ġminut es
al l
u c
Ġs t
at er
a d
el l
o m
Ġw ater
Ġf or
oo k
c h
Ġegg s
ĠA dd
Ġm ilk
pp ed
ic e
at o
i r
d er
b sp
ĠT bsp
Ġb ro
Ġc r
t o
u m
t s
ick en
Ġc an
Ġt he
Ġs a
0 0
r i
Ġ n
Ġ 4
Ġcho pped
uc e
r ed
l ic
v e
Ġb ak
ill a
Ġo z
Ġbak ing
an illa
e t
Ġv anilla
Ġs h
g h
w n
Ġ j
Ġs o
Ġt h
Ġch icken
Ġin to
Ġg re
Ġ at
Ġg r
u p
ow der
Ġsa uce
Ġ le
Ġp owder
Ġm ar
. )
t h
r y
Ġo ver
u re
ĠB ake
Ġ R
Ġw h
l y
re ad
ou p
as t
Ġbro wn
n d
Ġc ook
e at
Ġo il
i e
a y
ĠC h
ato es
l es
Ġs oup
Ġ r
at e
Ġp an
t ure
ut s
Ġto m
us h
gar ine
ac k
Ġmar garine
ĠM ix
Ġmix ture
Ġc o
ou nd
Ġ D
5 0
c ol
a b
m on
u r
Ġs p
Ġ W
an s
or n
Ġ re
i en
Ġgre en
Ġl b
d a
i p
in ch
Ġl ar
i gh
e f
s t
Ġso da
red ien
ing redien
Ġb o
Ġ ingredien
Ġingredien ts
i m
Ġlar ge
Ġw ell
Ġ gar
ĠS p
Ġj u
Ġ3 50
Ġs e
Ġa dd
he at
Ġju ice
q u
Ġgar lic
er y
ra in
Ġf ro
ĠS t
Ġc orn
i d
v es
is h
Ġ I
Ġs m
Ġgr ound
k g
Ġp kg
igh t
um b
Ġ F
Ġs lic
r es
ro om
in n
v en
ĠP our
t en
el ery
Ġc elery
o le
th er
Ġp ot
Ġp ie
us t
at ed
om b
Ġ all
Ġ y
t ed
oo l
Ġonion s
am on
ush room
inn amon
Ġle mon
Ġc up
i f
Ġ 6
omb ine
Ġbe ef
Ġn uts
Ġc innamon
Ġh our
Ġm ushroom
pp le
as s
Ġbo il
ac e
ĠC ook
col ate
a in
c es
a p
ĠSt ir
Ġto p
Ġ 8
ed i
Ġcr umb
l ace
Ġ L
a ge
er s
ar s
ol d
Ġo ven
Ġst ir
Ġwh it
Ġb l
Ġbe at
Ġs our
g er
Ġsm all
ge ther
Ġ heat
Ġto gether
Ġ 5
Ġb read
edi um
ow l
Ġb owl
ac h
in k
m e
Ġm edium
o ve
Ġpot atoes
Ġco c
Ġ x
o p
Ġcho colate
Ġ H
Ġtom ato
r ink
Ġtom atoes
ou gh
Ġm el
Ġre m
Ġd rain
Ġ1 0
ĠC ombine
ar m
as h
Ġc on
o on
o ut
ĠI n
rink le
a pple
ine apple
ass er
asser ole
oo d
Ġ G
Ġc ar
Ġcrumb s
Ġc ake
f f
Ġ 9
b er
Ġd ish
r ing
as ed
Ġr ice
Ġslic ed
Ġpe c
ar d
Ġd ry
ed d
Ġp ineapple
edd ar
ine gar
ak es
Ġv inegar
Ġs er
e m
o ver
Ġbe ans
z en
ge t
Ġgr ated
el y
Ġ ro
Ġh ot
e get
ĠP lace
eget ab
i es
is e
Ġsh or
d ed
i re
ten ing
ĠCh eddar
a g
Ġshor tening
ast e
Ġm eat
in s
Ġpec ans
u b
Ġc l
Ġa b
Ġ is
l l
s h
Ġmel ted
ĠW h
ĠS er
w e
Ġwhit e
Ġc ut
ip s
Ġrem ain
o a
Ġv egetab
Ġm ay
Ġab out
ĠC ool
v ing
ar t
ri es
Ġch ips
t ion
Ġcr ack
an t
Ġ3 0
Ġremain ing
Ġ ra
we et
Ġfro m
ot t
n a
Ġl ight
Ġ al
Ġfro zen
Ġ k
le y
o re
Ġ red
u ff
Ġcook ed
m er
res h
Ġgre ased
as on
a v
Ġ as
Ġh al
ĠSp rinkle
e y
ars ley
ust ard
Ġa pp
Ġp arsley
Ġst ick
Ġcar ro
o s
ĠC over
Ġs l
Ġth en
an ge
Ġch il
ĠB eat
u l
Ġe x
id e
Ġf resh
c col
ccol i
on na
onna ise
ac on
e p
res s
Ġm ustard
Ġmay onnaise
Ġser ving
Ġ1 5
Ġhour s
Ġs k
en d
Ġmushroom s
Ġsh red
en der
Ġb acon
ri ger
Ġbeat en
Ġdrain ed
Ġshred ded
u it
Ġboil ing
Ġh am
on ut
Ġt aste
ar e
Ġse ason
l i
Ġro ll
ĠP ut
le t
Ġp ap
k s
em ove
ĠR emove
Ġo li
Ġcarro ts
Ġe ach
Ġ1 2
Ġ1 3
Ġbro th
Ġcoc onut
u dd
t t
Ġg ra
udd ing
ic ed
Ġc ool
ĠB ro
Ġn ut
Ġapp les
ay er
Ġso f
Ġ2 0
Ġcr ush
Ġra is
i z
n uts
im mer
Ġbro ccoli
Ġf ir
Ġcrush ed
re as
Ġpie ces
Ġrais ins
Ġd iced
ĠC ream
Ġc asserole
ĠC ake
Ġ O
Ġb ake
ood les
arm es
armes an
me g
Ġt ender
Ġco ver
Ġnut meg
Ġhal f
Ġslic es
ĠSp read
ĠW or
an an
st ant
ĠP armesan
is c
Ġn oodles
sh ire
ter shire
ces tershire
is s
e c
pp ing
en t
ĠSer ve
) .
ra w
ĠWor cestershire
ĠM akes
Ġp l
Ġcan s
Ġpe an
Ġp udding
Ġb ott
Ġstir ring
Ġo le
Ġole o
av or
Ġsh ell
ĠWh ip
m ilk
ĠC ut
Ġ an
im e
Ġbl ack
es t
raw ber
Ġor ange
Ġpepper s
ur n
Ġchil i
us age
or k
Ġseason ing
Ġs he
Ġre f
d s
ĠS al
ut e
Ġpowder ed
y r
Ġbutter milk
yr up
Ġch er
ch in
il let
o il
Ġp our
o ves
p s
Ġs yrup
all y
on e
Ġcl oves
Ġvegetab le
Ġ E
at s
Ġcoc oa
ĠCh icken
ĠC asserole
Ġ he
u e
ĠC r
Ġs qu
ol l
t r
Ġb anan
Ġs et
Ġwh i
ĠH eat
ĠBro wn
all ow
Ġcr ust
Ġsk illet
Ġw al
Ġc ub
Ġref riger
Ġc old
Ġd ough
ĠP re
Ġ J
a ve
an o
Ġs weet
Ġsa usage
p an
ĠD rain
Ġl i
Ġl ow
Ġ up
Ġ it
Ġcrack ers
ar ch
Ġo ut
Ġ K
ĠL et
Ġp ack
Ġcup s
ress ing
Ġst rawber
ĠT op
Ġp re
Ġ4 5
Ġcook ie
Ġse ed
Ġbo x
st arch
Ġshe et
Ġcorn starch
Ġsal ad
Ġbott om
Ġwal nuts
b ur
ĠB l
z z
ĠS a
Ġwh ole
Ġcook ing
um p
2 5
7 5
g ano
r uit
Ġ V
Ġ are
Ġsauce pan
Ġl ayer
Ġp ork
ight ly
Ġw arm
e w
Ġ us
at ter
ri m
ri ed
Ġal mon
tion al
Ġvegetab les
re gano
Ġle a
Ġj ell
ing er
e a
uc chin
k a
ucchin i
Ġo regano
ac t
Ġpean ut
Ġbanan as
oo th
Ġf ill
Ġb ell
f ore
Ġbe fore
bur ger
Ġmin c
Ġs immer
Ġlight ly
es s
Ġn ot
Ġd ressing
Ġsm ooth
Ġex tr
at ely
on i
reas ts
ri ka
ĠT h
Ġfl avor
Ġcrack er
ur p
Ġpap rika
ten ed
ĠR oll
Ġwhit es
Ġ3 75
Ġextr act
Ġas ide
ĠSal ad
Ġminc ed
Ġt ab
op tional
os e
Ġth in
ĠC he
Ġb reasts
i an
c c
Ġon e
Ġth ick
p oon
ab b
ĠP e
les poon
Ġpe el
e ast
Ġtab lespoon
e ed
ot h
abb age
Ġf in
Ġy ol
o c
h am
ĠM el
p ar
Ġd one
Ġserving s
Ġg inger
qu art
if t
Ġy east
m allow
ĠP ie
ĠM o
ĠMel t
ell a
urp ose
ar ella
zz arella
rim p
Ġ if
Ġ N
Ġgra ham
Ġ z
Ġb all
Ġham burger
Ġfir st
he tt
Ġp lace
ag hett
Ġ en
aghett i
Ġin stant
Ġfill ing
Ġc ombine
p urpose
Ġ2 5
re e
oa f
Ġt ime
Ġoli ve
k in
ĠI t
Ġ Y
Ġto r
ĠSer ves
ell ow
e al
ak ed
Ġfin ely
ĠMo zzarella
me al
ĠBl end
Ġd es
Ġli qu
g re
Ġwhi pped
Ġso y
Ġb atter
as il
ump kin
ĠPre heat
ir ed
Ġun c
Ġsof tened
iss ol
Ġt ea
Ġy ellow
Ġsp rinkle
Ġmar sh
Ġmarsh mallow
Ġz ucchini
a w
Ġc abbage
Ġdes ired
1 0
n e
v ed
Ġpe as
ĠA nd
Ġw ine
Ġj ar
Ġf ruit
Ġtor t
Ġoli ves
Ġcl ove
Ġc om
Ġw a
Ġp ast
ac ar
ĠCh ill
old en
Ġm ore
Ġle t
ĠS ift
Ġliqu id
en s
al ian
el at
iz e
Ġ4 0
Ġ3 25
Ġjell o
acar oni
Ġsl ightly
Ġg elat
e x
Ġyol ks
ĠIt alian
ĠB e
Ġb asil
s weet
ĠS h
sp oon
Ġd ash
Ġtea spoon
g es
Ġsp aghetti
Ġp im
ĠB ring
ac o
Ġcher ries
Ġg olden
Ġo ther
Ġsh rimp
ro w
Ġto pping
Ġd o
ough ly
Ġstrawber ries
Ġ4 00
Ġp ut
or oughly
e ep
Ġfl akes
Ġl oaf
Ġst and
Ġcon t
Ġsp read
Ġmarshmallow s
ber ry
d ens
dens ed
c e
Ġsof t
ire c
n ight
Ġd irec
Ġroll s
Ġcon densed
Ġ 7
Ġle tt
isc uit
Ġo ats
ĠCook ies
Ġflour ed
Ġth oroughly
Ġpap er
Ġlett uce
Ġb y
Ġf at
el s
at or
Ġfir m
Ġover night
Ġm acaroni
it e
if ted
Ġl on
Ġ U
ĠB read
Ġst uff
isc o
Ġof f
Ġalmon ds
Ġgelat in
Ġ qu
ĠF old
ic row
ĠP ot
ep t
p e
' s
Ġser ve
Ġmix ed
Ġb ag
ro p
1 6
ĠChe ese
Ġmix ing
f ter
Ġs ize
e e
k ey
il e
u ally
icrow ave
Ġp umpkin
ĠCr isco
Ġrefriger ator
c ept
Ġpan s
in ach
gre ased
Ġt ur
Ġcub es
ĠSa ute
e ak
ĠSp oon
ow er
ĠR ef
Ġch ill
Ġbl end
ĠCh o
b le
Ġp aste
un ch
Ġt aco
ĠRef riger
i el
Ġ3 5
t le
Ġ Ġ
Ġm ake
Ġy ou
en ded
Ġbrown ed
Ġm ash
Ġstuff ing
d ually
Ġs ifted
Ġd ried
Ġpeel ed
ber ries
Ġbl ended
Ġb iscuit
Ġus e
Ġex cept
en to
ĠCho colate
Ġ ice
Ġf ood
Ġa pple
ĠWh en
Ġball s
ra y
Ġpim ento
Ġth icken
ĠR ice
tion s
Ġcover ed
Ġs c
ĠRefriger ate
r ange
at meal
ĠB oil
Ġtablespoon s
ar b
Ġth is
k e
Ġcon stant
Ġconstant ly
ĠS immer
l ed
Ġon to
ĠB utter
reas e
Ġc ol
Ġ q
ĠB r
ĠS l
Ġq t
at ure
Ġbutter ed
ad e
Ġcher ry
Ġlea ves
ces s
Ġb ou
i v
ill on
on ey
Ġf oil
av y
f ec
en ed
Ġbou illon
Ġin ch
Ġstick s
ree z
Ġst ri
Ġpot ato
Ġw ill
ĠY iel
ĠS w
Ġm o
Ġsp oon
Ġf ry
ĠJ ell
Ġ ri
Ġc le
Ġr ound
Ġcont ain
y me
fec tion
ĠG rease
ook ed
id es
ass es
Ġg l
Ġb ay
ĠD rop
uc umb
Ġb on
ott age
Ġpack age
c ent
Ġth yme
Ġflavor ing
Ġcon fection
ic an
ar es
ic h
Ġpe ach
Ġsp inach
ill as
en ter
Ġconfection ers
Ġs ides
Ġhe avy
Ġc and
at es
Ġstri ps
Ġe ven
Ġc enter
ou n
Ġhe ad
n ey
if f
Ġc ottage
ĠL ayer
Ġst eak
Ġtort illas
ats up
ter n
ra b
Ġc atsup
ĠT urn
ol asses
in d
ar p
Ġcol or
Ġen ough
y le
it tle
over ed
n ch
ap or
v apor
Ġa fter
d ing
Ġc ucumb
Ġe vapor
Ġsh arp
Ġk id
s e
Ġt urn
Ġth aw
Ġtur key
et a
Ġk et
m i
Ġh oney
Ġj ust
Ġr est
Ġevapor ated
Ġkid ney
Ġcho ps
Ġpre par
Ġmash ed
Ġv ery
es er
Ġunc overed
Ġse mi
Ġsqu ash
Ġf ine
el ve
Ġd issol
ap e
ent ly
ĠSw iss
ing s
Ġch un
1 2
Ġm olasses
Ġcook ies
Ġt art
n ish
it s
Ġeven ly
Ġl ay
Ġst al
Ġun greased
Ġd e
Ġcub ed
Ġd ates
Ġs ide
ĠV elve
Ġprepar ed
ic es
ow n
er ry
Ġro ast
Ġchil ies
Ġwa x
e ts
ĠS et
Ġrem ove
Ġcontain er
p er
ĠTh en
Ġa p
Ġm uff
ĠD ip
Ġthaw ed
Ġpack ed
Ġsl ice
Ġdirec tions
ĠG ra
Ġa cc
ĠS oup
Ġl ittle
Ġminut e
Ġcr an
Ġsl ow
Ġmix er
uff y
Ġpast ry
Ġb ut
Ġstrawber ry
sp ice
or ding
l d
Ġc ur
Ġse par
iz z
ĠVelve eta
Ġb re
ĠR ed
it ion
Ġlea f
Ġall spice
as ion
cc asion
Ġp ick
Ġp t
l ower
Ġlay ers
Ġacc ording
Ġo ccasion
Ġo atmeal
Ġch est
ou s
Ġoccasion ally
Ġrefriger ate
oun t
Ġchest nuts
Ġpl ain
re nch
Ġsp eed
ub b
Ġp o
Ġb r
uc k
Ġsqu ares
Ġfor k
Ġfl uffy
Ġcle an
Ġd ou
s er
Ġ 50
em per
s s
Ġ1 6
Ġst iff
ro x
ĠG r
Ġal tern
oc k
Ġt emper
um in
ĠD o
Ġgr an
Ġpeach es
Ġtemper ature
ch up
Ġfor m
am e
Ġalmon d
Ġadd ition
ĠF rench
rox im
ĠA r
Ġc rab
Ġt ub
Ġd ill
Ġwhi pping
f ul
Ġwh en
Ġket chup
ĠP ress
Ġhal ves
ar in
Ġc ro
Ġbiscuit s
roxim ately
Ġt w
Ġpean uts
Ġh and
t on
Ġb ubb
Ġd own
ed ges
ĠC orn
izz a
ĠC ar
Ġtart ar
Ġth r
ĠM ake
Ġl ime
os s
un d
Ġthr ough
Ġb ring
ĠR o
er m
ĠW ith
Ġbeat ing
ra p
er n
Ġlon ger
i sp
er b
Ġr eser
oth er
o g
Ġy our
Ġsp ray
Ġse c
Ġcr isp
a uce
Ġmel t
Ġstal ks
issol ve
ex t
as e
Ġle an
ĠPot ato
ĠD issolve
Ġcom es
ĠA pple
ab out
Ġr ind
Ġpast a
en ne
Ġshell s
an ges
Ġcr es
s a
a ul
Ġbak ed
Ġp inch
Ġf reez
arb ec
Ġco ars
Ġthin ly
u d
Ġcom p
ĠAr range
u ll
Ġwh ile
Ġsa ute
Ġunc ooked
Ġcres cent
1 5
Ġle ast
Ġdo zen
c o
Ġor anges
Ġsp ices
ĠSl ice
Ġcan n
ul ated
Ġcream ed
if lower
aul iflower
ĠGra dually
ĠT o
ay enne
Ġ am
ĠYiel ds
f l
Ġcrumb led
ar ts
Ġpl ate
Ġbl ue
Ġh ard
Ġgran ulated
Ġc ayenne
Ġtub e
Ġcomp let
Ġ ar
Ġr ise
a il
ĠS e
ff ee
qu ick
ĠF or
Ġm eal
ar k
Ġr ack
Ġmuff in
Ġdou ble
Ġco at
Ġseason ed
Ġun b
Ġwa f
p are
Ġslow ly
ĠC o
ĠCh op
el ess
un a
Ġthicken ed
Ġcomplet ely
is t
er eal
Ġst ew
ĠB is
Ġcarro t
Ġan other
b read
i der
ĠRed uce
ri sp
Ġapp roximately
f at
om e
Ġcucumb ers
ul ar
Ġseasoning s
Ġm icrowave
Ġgl ass
Ġc ereal
in ed
ĠG ar
Ġch uck
ĠBis quick
n g
as co
as ag
Ġlon g
ĠT ab
all s
Ġdissol ved
Ġh igh
Ġk ern
Q u
ar y
Ġcolor ing
Ġd ri
read y
Ġaltern ately
c k
Ġc auliflower
Ġchun ks
arbec ue
Ġthe m
Ġapples auce
Ġbon eless
ĠL e
ĠTab asco
p l
Ġp ro
Ġn on
Ġsk in
mer ican
Ġcann ed
ĠBe ef
Ġc ider
Ġbl ender
ĠI f
ĠBro ccoli
Ġc umin
Ġre c
ip e
in ue
Ġ3 00
Ġsh allow
Ġf ew
ĠF l
Ġam ount
Ġn eed
ĠSh ape
Ġ Qu
les s
Ġri pe
Ġ2 4
ĠA merican
Ġgre ase
g ular
ĠM icrowave
Ġqu ick
sweet ened
v el
Ġcur ry
Ġd ay
Ġp in
Ġth at
ĠS c
Ġsqu are
as y
ver al
Ġtw o
ĠS qu
Ġbubb ly
Ġ ready
b s
k ra
s c
ĠF ill
Ġse veral
r ic
iv id
ĠS to
Ġcorn meal
il d
Ġw heat
i ed
Ġb oth
Ġl ast
ĠPe pper
Ġh as
Ġto ast
Ġbre ast
ĠH igh
Ġun sweetened
ĠTh is
ĠSe ason
Ġ Z
Ġcool ed
ĠB aked
Ġkern el
ĠU se
ĠSa uce
st yle
Ġsh erry
ric ot
Ġto ss
ĠPre pare
Ġtort illa
Ġ end
Ġp ress
Ġsal sa
ĠF ry
Ġcar am
v y
ud ge
Ġh ash
Ġn ext
Ġfl aked
Ġra w
ar ter
Ġcar ton
Ġunb aked
Ġ room
Ġwaf ers
Ġp art
pp y
ĠG re
il ad
as chin
ne ad
al ap
aschin o
alap en
Ġp at
ur t
Ġgra dually
ĠM on
Ġbe en
ĠM eat
i g
Ġf old
Ġmar aschino
og urt
ĠF ruit
a z
an ut
1 4
ot ch
Ġj ars
st ing
Ġcream y
Ġf ish
Ġli ke
l ish
Ġk n
el f
Ġg ently
Ġh erb
anan a
Ġ4 25
Ġus ing
ĠS o
ĠPe anut
u gar
Ġpro cess
ĠS weet
ĠD el
asag na
Ġt una
Ġst ock
ĠGar nish
Ġan y
ĠU n
Ġto w
ĠF ro
Ġk eep
ĠR ep
ĠB re
Ġg ood
ĠJ ack
le c
Ġon ce
Ġ6 0
ĠC on
ĠB anana
Ġ im
if e
ĠO n
Ġy ogurt
Ġpec an
g ain
sc otch
sp ar
rain ed
Ġj alapen
pl ant
i a
r an
ĠH am
Ġsec on
ĠT oss
Ġh ave
Ġcand y
Ġfirm ly
Ġblue berries
is k
t z
Ġa gain
m edi
Ġre gular
s o
Ġd eep
Ġcran berries
medi ately
is ing
Ġd ark
heat ed
ĠM ex
ut ed
Ġdirec ted
ĠRep eat
Ġb its
Ġkn ife
it os
Ġap ricot
on g
p ick
Ġjell y
and arin
Ġsc all
in i
ast ic
Ġb ite
ĠE asy
Ġd ip
T el
Ġmin i
t ail
Ġf ull
Ġto oth
ĠC an
tr ic
Ġtooth pick
lec tric
ic ott
Ġsweet ened
ĠSal t
ful s
ĠBre ak
Ġch i
Ġcand ied
r ising
at ion
Ġe lectric
it z
Ġp izza
ĠPot atoes
Ġar ound
b l
Ġr ings
Ġgra vy
t ing
ĠT ake
ĠSt uff
Ġqu arter
am s
Ġm e
m eat
Ġmar in
ĠPe el
Ġbott le
Ġsp ice
Ġdri pping
Ġcoars ely
Ġb ars
res er
Ġd i
ou ld
Ġs elf
Ġco ffee
ĠV egetab
Ġdripping s
Ġun d
Ġsepar ate
ĠP udding
o ke
es ame
Ġpre heated
vel op
Ġra sp
Ġheat ed
ĠE gg
Ġap art
ĠZ ucchini
an ch
Ġboil ed
Ġb arbecue
Ġse al
s els
Ġaddition al
Ġin ser
ĠH ot
Ġ edges
. \
Ġl en
o k
Ġen velop
Ġpl us
Ġmo is
ĠA l
ĠL ine
ĠMex ican
i ve
ĠR itz
Ġbutter scotch
Ġsal mon
ver y
f er
Ġsugar s
ins e
ivid ed
Ġmel ts
ĠP ound
Ġa v
Ġneed ed
ĠT he
Ġp ound
Ġgar nish
an g
Ġpl astic
ĠD iv
Ġbanan a
Ġtoast ed
Ġs ome
ĠB ars
ter ey
ĠYiel d
Ġus ed
n ot
ĠP umpkin
ĠSto re
ĠLe mon
Ġpimento s
Ġw ire
Ġd ivided
Ġm old
Ġcoc k
Ġcock tail
Ġfl at
Ġs esame
Ġm andarin
spar ag
Ġinser ted
l ing
sparag us
ĠW ash
c ake
o in
Ġcran berry
Ġbrown s
Ġb unch
Ġf ried
c orn
Ġbe t
avor ite
i ver
Ġjalapen o
ĠMon terey
Ġsa ge
re me
Ġegg plant
Ġchi ves
er t
Ġfry ing
' t
on s
Ġim mediately
icott a
u k
st it
Ġpre tz
ou l
et t
w ise
ĠR et
Ġinch es
n ut
ĠF udge
Ġrem o
Ġb ack
ĠRet urn
le ts
Ġroll ed
Ġgra p
Ġseed s
ĠS ugar
Ġcorn bread
Ġbe an
risp ies
il uted
Ġe very
Ġ1 1
Ġto o
ĠRoll s
oc ad
ut ch
Ġsu b
Ġsalt ed
f or
Ġm or
ĠSt rawber
Ġ -
ĠVegetab le
Ġcon s
am p
Ġadd ing
Ġ1 8
ĠN ut
ĠM in
ĠR icotta
im es
Ġshe ets
zz le
ess ert
b alls
Ġ1 4
ĠK ar
Ġchill ed
ion s
Ġpo ppy
ac le
Ġmor sels
Ġp er
ĠF reez
ir acle
) ,
Ġsl iver
und t
ĠBr and
Ġun s
ĠK eep
Ġsub stit
Ġd ro
ĠD utch
w h
Ġboil er
Ġfro sting
ĠStrawber ry
ĠKar o
ĠK rispies
ĠC oc
ĠBe ans
Ġav ocad
c ooked
Ġh or
ĠM iracle
ien to
p ot
Ġbe g
Ġbro il
Ġ4 50
2 0
oll ow
Ġpim iento
ag le
gre es
Ġde grees
Ġcucumb er
ĠCon t
Ġpepper oni
ĠY ou
Ġg rain
st ick
Ġyol k
Ġw edges
ĠM uff
ĠS our
Ġst em
Ġwax ed
Ġ el
ew arm
Ġreser ved
uk ewarm
oa ves
Ġturn ing
l it
en er
k en
ĠB undt
Ġcho p
Ġsoup s
ĠE agle
ĠM ay
Ġfresh ly
Ġsepar ated
il i
h ub
ĠM e
hub arb
ĠQu ick
Ġt ightly
iz ed
Ġcro ck
Ġred uce
ĠBr ush
Ġl ukewarm
ad ish
Ġrec ipe
u er
ĠE ng
ak ing
Ġl asagna
Ġcrab meat
ser adish
ic i
ĠP ec
ĠD ream
Ġsu r
ĠCr umb
ĠP ork
g th
ĠP izza
ĠCh ili
ĠBe an
Ġfreez e
o st
Ġn e
ĠL oaf
Ġsliver ed
fl avor
kra ut
Ġlen gth
uer kraut
Ġhor seradish
ter s
Ġt imes
Ġon ly
ĠMuff ins
Ġb ar
er ries
Ġfreez er
ĠSh rimp
Ġchun k
erm an
ĠA ll
Ġenvelop e
ĠW rap
Ġco ated
ul ly
t ra
Ġbro ken
or t
Ġw eed
Ġa sparagus
Ġrefriger ated
f t
inn er
Ġthe y
b on
ess on
Ġgrap es
Ġsur f
Ġch eddar
Ġflavor ed
flavor ed
ĠP am
Ġc omb
ĠG erman
g s
Ġl oaves
ĠP at
Ġpretz els
ĠA fter
Ġsh ape
ut ons
Ġw rap
Ġal e
b ow
ĠW esson
Ġsh ould
ĠDiv ide
o y
Ġl im
ĠUn c
Ġcont inue
Ġwh ich
ĠO re
Ġtop s
Ġsurf ace
ĠEng lish
ĠFor m
Ġb erries
g el
cent r
c an
us ts
Ġcro utons
ĠGre en
inch es
ĠO atmeal
w ich
Ġp ar
as ure
Ġstew ed
Ġn o
Ġex tra
Ġcon centr
mer ic
ĠWh ile
ĠSp ray
Ġbo ard
un s
Ġpin to
Ġcr usts
ĠPec an
Ġsubstit ute
ur ing
Ġtur meric
c y
Ġp ure
Ġro s
Ġmini ature
ĠD or
and wich
Ġscall ions
Ġskin less
ĠCont inue
t ry
ot s
Ġpie ce
Ġan gel
em ary
az e
ĠT om
Ġdro ps
Ġp reser
and y
ir t
n ess
is ten
oul try
Ġex cess
Ġel bow
ap ing
ĠP ineapple
ĠCar ro
Ġsk im
Ġbox es
Ġp oultry
in t
Ġo p
Ġadd ed
ant e
Ġcaram el
Ġconcentr ate
ĠR anch
ol a
ĠM arin
N o
ol es
Ġl id
Ġal so
ĠDor itos
ĠD i
ĠCrumb le
Ġrasp berry
Ġmois tened
ĠSt ew
Ġpreser ves
y s
Ġsa uerkraut
ĠSa usage
Ġri bs
Ġlength wise
Ġros emary
Ġp it
ici ous
Ġf avorite
ilad a
Ġf il
ĠP unch
ic ante
Ġpat t
Ġor der
ĠK nead
Ġsecon ds
Ġthicken s
Ġcorn fl
ĠR a
ĠBl ue
Ġf re
Ġa c
ĠCh ip
ed ge
Ġcub e
Ġof ten
Ġm ade
Ġtow el
m ost
Ġcoars e
Ġ quart
ĠO ld
Ġfre qu
Ġc or
ĠSp aghetti
Ġfrequ ently
ĠSqu ash
Ġr um
Ġmo der
i dd
Ġ5 5
ĠO r
Ġbon ed
ĠStuff ed
Ġstem s
Ġfry er
Ġcaram els
a ir
Ġr hubarb
in es
w ay
ĠFreez e
Ġpick le
l oin
qu al
Ġp icante
ĠT aco
Ġnon stick
ra g
al or
Ġst ill
Ġhal ved
Ġ art
Ġal most
Ġteaspoon s
b oil
i ble
we en
e am
Ġst yle
er i
Ġpick les
er ing
ĠD essert
he y
ĠF arm
ĠMin ute
rag on
ar ragon
Ġbet ween
r ans
ĠCoc onut
Ġk nead
inn ed
ash ion
Ġcons isten
j or
ĠO range
Ġm ild
ĠM ash
Ġ edge
ĠL ightly
Ġhe aping
Ġday s
e z
Ġhand s
Ġun flavored
ĠP ast
Ġcle ar
e g
Ġconsisten cy
Ġb ul
ĠD ri
jor am
in y
ĠSt eak
Ġbre ak
Ġf ollow
Ġcl ams
Ġmar joram
Ġp op
Ġen ch
ering ue
Ġw ash
es es
ĠN o
Ġprocess or
ĠCh erry
Ġt arragon
ĠP ick
ĠA pp
Ġquarter ed
Ġs n
ĠSp inach
ĠA ng
d o
Ġw ood
ers hey
Ġpl atter
Ġmoder ate
Ġcrumb ly
Ġcho ice
Ġmuff ins
h igh
ĠI ce
ĠP ro
ĠT ur
Ġche eses
id ge
to ver
ant ro
Ġcomb ined
Ġlim a
Ġb one
il antro
Ġfil lets
Ġp ink
Ġsk inned
Ġf our
ĠP et
Ġall ow
ef ully
ĠH ershey
Ġnon fat
Ġsu re
ĠCr an
ĠD ot
i ally
Ġbroil er
Ġwh isk
ous ly
al ted
am b
Ġmay o
ĠD ressing
m a
Ġrec t
Ġchil es
boil ed
Ġmarin ade
c l
Ġw ee
Ġpatt ies
ĠC abbage
ĠM ars
ĠRo ast
ĠDri zzle
ĠChe ez
Ġcut ting
Ġund rained
Ġwood en
ĠB alls
ĠAng el
f ry
ĠBrown ies
ĠWh iz
e gg
Ġser ved
ĠSqu ares
Ġc ilantro
Ġmeat balls
ĠF resh
ee z
ol id
ĠM ushroom
ĠPepper idge
ĠS up
b ell
t c
ĠCr ush
f ast
ĠCran berry
ab y
Ġreser ving
1 3
at ing
Ġ2 50
Ġsm oke
ĠC amp
is in
ĠFro st
Ġg al
Ġench ilada
s ize
ĠC l
Ġgl aze
Ġ \
Ġf o
am el
Ġdissol ve
Ġ ic
Ġlemon ade
a pp
Ġ *
Ġo kra
Ġc utter
Ġs q
Ġth ree
Ġre al
Ġo un
Ġwh ip
Ġst ove
ing ers
Ġmin t
Ġbr an
Ġp r
ĠSl ow
Ġend ing
ĠSo ak
Ġcornfl akes
he ad
Ġne cess
Ġnecess ary
ro uts
ep ar
pe el
ĠS k
Ġpure e
Ġfl ower
Ġic ing
f ish
Ġteaspoon fuls
Ġd rop
ĠA cc
Ġun der
ĠR inse
Ġo ys
e ar
Ġd on
Ġroll ing
Ġj am
ĠG ood
rans fer
Ġfo am
a ff
f tover
Ġart ich
Ġuns alted
Ġform s
ĠB iscuit
ĠR eser
Ġsecon d
Ġremo ving
Ġt ap
Ġlemon s
Ġseed ed
ĠC rab
al s
ĠCamp bell
ĠAcc ent
Ġref ried
bur g
Ġpe ak
ĠCo at
Ġl ined
peel ed
Ġc ap
Ġtow els
Ġbul k
ĠS epar
in ese
Ġle ftover
ĠCar amel
ĠAll ow
ĠR e
umin um
j on
s ide
Ġl ess
Ġsp routs
ood le
ap le
Ġavocad o
ĠGre at
Ġpick ling
Ġund iluted
j oy
bl ong
ĠReser ve
Ġju ices
Ġw ide
Ġal uminum
Ġb aby
ĠSlow ly
c akes
Ġr inse
ĠCh inese
Ġcrumb le
Ġo blong
Ġthick ness
Ġre t
ĠT ater
Ġre lish
ĠDel icious
Ġb uns
ĠC up
ĠHam burger
p h
us e
c r
Ġgelat ine
ĠPast a
Ġc alor
ĠTur key
ĠSepar ate
h mallow
Ġqu arts
Ġpit ted
ĠU s
ĠDel ight
ĠOn ion
ĠUnc over
ĠOre o
Ġ '
ĠB est
ĠDi jon
ĠD ump
Ġquick ly
c ook
ĠTom ato
ĠPe ach
f ree
Ġin d
Ġbeg ins
Ġsh ake
Ġs andwich
Ġp ul
Ġt es
Ġpop corn
Ġ &
Ġwal nut
Ġar range
ic he
Ġmo ist
o d
uc h
an ish
Ġsp ring
Ġm eringue
aw ay
Ġround ed
n o
Ġw ild
oo p
ĠCarro t
Ġret urn
ĠMars hmallow
ĠC risp
Ġpeak s
Ġs ift
Ġspray ed
ĠB arbecue
e ars
Ġt ins
Ġpart ially
Ġd inner
out h
Ġe tc
ĠRa isin
ĠF r
ĠF ried
Ġreser ve
ashion ed
isc ard
oc a
Ġsc al
Ġt ake
ec or
ĠBlue berry
ĠUs ing
er e
Ġa irt
Ġairt ight
Ġp unch
ab le
Ġs ame
at ch
Ġwith out
a f
Ġh oles
Ġpe ars
i oca
Ġst ore
ett uc
ok ed
ĠCh r
art y
ĠM acaroni
Ġket tle
bl er
Ġg et
Ġs ing
all op
ĠBreak fast
ĠBr an
an y
ĠL ay
Ġpul p
Ġstal k
ĠBiscuit s
ĠR om
eat en
Ġp or
Ġa head
Ġapricot s
Ġm aple
Ġremain der
unch y
Ġblue berry
a h
Ġcar away
wh ile
ĠN ext
ic y
or b
ĠS m
Ġsp lit
ĠR ec
Ġtap ioca
1 1
Ġseed less
ing u
Ġsing le
Ġchunk y
Ġw or
ĠD e
ĠI m
and er
l ings
an n
Ġbon es
Ġbr ush
ĠG l
Ġc as
he w
ĠT ransfer
Ġst eam
ĠG ently
Ġe qual
Ġsp rink
ĠL asagna
Ġab s
Ġham burg
A ll
Ġhe arts
ir c
Ġwee ks
th ing
ĠSc allop
ĠS n
Ġgr ill
ĠO ven
ĠBro il
ĠSup reme
Ġremo ved
c up
Ġcorn ed
Ġal ong
ĠD ish
Ġst age
ou ch
ĠSp anish
i al
Ġt ri
Ġp arts
f ten
oss ible
Ġabs orb
Ġm akes
Ġbe c
Ġc irc
Ġl oo
Ġpr un
aff in
ch o
ins ed
Ġrect ang
Ġdou b
Ġflower ets
Ġfoam y
b its
ĠRec ipe
ĠWh ite
u al
y re
Ġsteak s
ĠJell o
Ġpar affin
yre x
ĠGr and
ĠChop s
Ġin st
Ġf udge
at h
ĠSo ften
i pped
Ġw ings
ĠS eal
ĠP h
ĠW ill
Ġun peeled
Ġr insed
Ġbe er
idd le
Ġg ener
Ġsp ri
ak er
ĠSp lit
Ġlea ving
Ġroast ing
Ġscal ded
b bler
Ġavocad os
Ġb est
ĠC reme
ĠCorn bread
Ġro t
ĠJ ust
Ġquarter s
v il
Ġmeat s
Ġsm oked
ĠSh ake
Ġbag s
Ġd uring
Ġlar d
m as
Ġ "
ĠFro sting
an while
ĠCo ffee
ĠP yrex
uc ed
ĠL ow
und rained
ĠApp les
is on
Ġh om
Ġrasp berries
ĠCream y
Ġm aking
ĠT ex
Ġspoon fuls
op s
ĠAl tern
ĠSt yle
ĠE nch
Ġgra pe
ĠSto ve
ĠMe anwhile
ĠChr ist
Ġsu n
ĠK ra
ĠC ro
ĠBl ack
Ġme asure
ĠCo bbler
Ġm iddle
ĠT w
Ġcalor ies
Ġw ant
Ġdoub led
eez e
ĠRom ano
d ish
Ġbe ets
en ison
Ġg erm
ĠO ne
ĠPick les
ry e
Ġcor ed
b u
w ith
ĠP an
i er
Ġg i
Ġ rye
ir loin
Ġpo pped
ĠP ack
Ġbet ter
Ġprun es
ĠT ort
a j
Ġcar efully
Ġsweet ener
Ġevery thing
ĠT una
ĠMe asure
a dd
ĠQu iche
Ġind ivid
Ġpre fer
Ġd el
bu ry
app roximately
Ġcas hew
un cooked
Ġgreen s
ĠCheese cake
S er
Ġg all
ĠP r
Ġv egg
ount ry
Ġherb s
ach o
isk et
ĠChrist mas
Ġc ustard
Ġbr andy
a i
ĠO f
Ġme as
2 8
em ade
Ġred uced
Ġbubb les
Ġwash ed
Ġgr its
ĠO ver
ĠV eg
s ave
Ġl ingu
Ġdri zzle
Ġend s
el ph
ĠE n
ilad elph
iladelph ia
Ġh old
C h
Ġb ig
ir on
op le
ĠFl at
ĠMarin ate
m b
s m
ag es
Ġm uch
ĠPh iladelphia
Ġv eal
un t
Ġac t
o f
Ġs irloin
Ġt ouch
ro ss
ĠFlat ten
ĠCr ust
Ġf ettuc
et iz
umb o
und iluted
t y
Ġle ave
Ġuns ifted
Ġd ep
ĠM ar
bon ed
ir d
il y
ĠT rim
ĠD ough
Ġb urn
Ġp uff
Ġfro st
Ġflat ten
Ġtor n
ĠKra ft
Ġt id
Ġst art
Ġcontain ers
m el
ĠB ur
ĠMeat balls
b y
Ġde boned
Ġop en
Ġact ive
ĠC innamon
as ter
Ġtw ice
Ġpe ar
Ġmarin ate
Ġcoat ing
m ix
ĠC ol
ĠCr ack
Ġme in
Ġoys ters
Ġin side
Ġpre ven
Ġtid bits
f lower
Ġw ork
ill s
Ġvegg ies
ĠCh owder
Ġr ing
Ġsaute ed
Ġscall ops
b o
ell i
Ġsa ve
ĠGr ill
ĠLe ave
Ġspri gs
ten der
b one
ĠP arty
ad y
an k
Ġre ach
ore ts
Ġso ak
Ġfruit s
p ro
Ġover b
sm all
Ġv erm
Ġoil ed
Ġr ese
Ġwaf er
reser ve
Ġpreven t
Ġt in
Ġpe ople
ul a
Ġpo int
Ġpound s
ĠScallop ed
Ġs it
ĠC andy
Ġfl ake
Ġfl orets
Ġr un
ĠTex as
ef ore
Ġb it
Ġsun flower
Ġindivid ual
n ation
Ġle vel
Ġartich oke
asil y
ĠFr itos
Ġt rim
Ġbe ater
Ġth an
Ġpar ed
Ġe at
Ġd ot
ĠW al
Ġit s
Ġl ump
Ġsp ears
ĠGar lic
it y
ills bury
Ġcr unchy
un can
erb et
Ġe asily
Ġl ook
ag on
asag ne
z o
es y
Ġmo st
Ġabsorb ed
ĠS outh
ĠH ash
cr umb
o ppy
ĠC al
c ut
th s
ĠD ate
ĠH om
ĠCar nation
Ġ3 6
ip ton
Ġsof ten
f resh
m ed
Ġo ld
Ġl ine
ĠB en
ĠTh aw
Ġgi ven
Ġk ind
Ġc akes
Ġt bsp
Ġra dish
ĠChe x
red ge
Ġfollow ing
ĠB efore
Ġsec tions
ĠM old
ĠL ipton
cl u
Ġgall on
ff le
Ġsp at
ĠV al
Ġsh ap
Ġth ese
air y
Ġmeas uring
m ay
th y
ĠSal mon
Ġsh all
Ġop tional
ĠP illsbury
Ġpepper corn
Ġloo s
Ġd iscard
ĠH e
ĠH oney
ĠEn joy
ĠUnc le
ecor ate
ĠD on
ĠD uncan
Ġli ver
orn ing
U p
i o
ĠS ave
ĠF avorite
ro ll
Ser ves
ge al
ĠChe esy
Ġspat ula
F at
ĠC re
ast ing
Ġd essert
end ing
o e
ar eri
ĠG inger
ĠFl our
Ġboil s
ilad as
l ow
Ġl ite
Ġre p
Ġblend ing
g in
Ġbr isket
Ġoun ce
Ġcashew s
en ts
ĠCr unch
Ġdissol ves
ĠTo ast
Ġ ent
ĠD ice
olid ay
ĠVal ley
Ġw ay
um m
Ġsh erbet
ĠSt ro
ĠGrand ma
ĠAltern ate
areri bs
Ġ1 7
Ġp ossible
Ġw et
Ġd airy
ĠM ilk
Ġcolor ed
Ġaltern ating
Ġpin t
en n
ĠT ots
ĠR el
Ġa way
ĠH ines
Ġsn ipped
Ġtri ang
i um
ĠEgg s
ĠMushroom s
o bs
Ġch ow
ver t
raw fish
Ġcan ola
Ġclean ed
Ġ2 75
ol i
Ġsk ins
Ġroast ed
ĠRel ish
ĠB atter
Ġunb eaten
ĠCro ck
Ġrectang le
Ġradish es
M akes
Ġs olid
Ġp ower
ic elli
Ġsalt ine
ec t
Ġstiff ly
ĠGr ate
om me
ĠCook ie
l ined
Ġbrown ie
Ġpeppercorn s
Ġth erm
Ġdo z
ĠSk illet
Ġv enison
Ġcook er
Ġpimiento s
Ġs ized
Ġst arts
ar ge
our bon
Ġl oin
ĠB all
ĠP uff
ĠW heat
ĠN oodle
ome ter
Ġdi agon
ĠApples auce
or y
Ġtherm ometer
idd en
ĠM om
Ġal um
Ġfin ish
Ġcro ss
Ġf ran
Ġent ire
Ġb asting
ĠC akes
Ġgre at
ĠD inner
ex cept
Ġstuff ed
t al
Ġcons omme
ĠMarin ated
Ġoun ces
gh t
ĠH idden
iff y
f ro
ĠR ub
Ġhand le
crumb s
Ġsc oop
c i
ou se
inn ing
Ġbl anch
ĠG olden
aj un
Ġ iron
al ade
Ġf it
ir l
gano ff
iss es
clu ding
i b
Ġm ace
Ġcl oth
ĠN or
mb les
1 8
Ġflavor s
ĠOre os
Ġtes ts
Ġrese mbles
s ugar
ĠSh red
at ur
ĠS andwich
Ġst ack
pro of
ĠA n
in a
Ġpin ts
Ġdo es
on d
m int
ĠButter milk
Ġrack s
Ġf ive
Ġd ump
til s
ving s
Ġne ar
Ġp ull
Ġpl ac
ĠV anilla
le an
ĠV ery
S t
Ġy ams
ĠStro ganoff
Ġcut lets
ey ed
Ġenvelop es
Ġshall ots
Ġde ve
Ġm on
ĠSl aw
Ġround s
Ġbread crumbs
Ġcand ies
Ġpart y
u les
Ġp ers
ĠN ew
ĠCarro ts
Ġblanch ed
1 7
Ġs ter
Ġcom e
Ġdi pped
Ġverm icelli
Ġbott les
al f
ell ini
ĠJ iffy
Ġgran ules
Ġlingu ine
m alade
Ġd ice
is ted
Ġmar malade
ok es
e ad
ĠP l
ĠFro zen
Ġcirc le
Ġpre pare
ĠC ajun
Ġst ring
urp le
ĠLayer ed
d ry
ist ach
Ġm orning
az ed
Ġl amb
ĠCre ole
ĠSt art
Ġlen tils
Ġoverb ake
Ġt iny
am i
ĠAl mon
Ġo wn
Ġw ra
Ġpan cake
Ġhalf way
en ess
Ġcl am
Ġpack et
ig or
ĠS eed
ĠPe g
Ġsc rap
Ġbr and
arbec u
ĠFl ake
ĠEgg plant
am en
ĠB acon
Ġn acho
Ġhom iny
Ġ3 2
Ġd ust
Ġv igor
Ġover cook
f e
ĠT ea
Ġbowl s
Ġdish es
Ġtender loin
ec ial
m ar
ou ffle
P ot
ag u
Ġjalapen os
ĠC om
ĠS ea
Ġl isted
ĠB ar
ĠI r
ĠWor k
ĠHom emade
Ġcool ing
ĠEnch iladas
2 1
l and
ĠIm mediately
Ġf ingers
Ġ +
Ġpl um
Ġteaspoon ful
Ġreach es
o z
Ġshor t
Ġrep eat
istach io
Ġvigor ously
Ġbar ley
Ġpor tions
Ġt ray
Ġp urple
ĠF ish
Ġac ross
m old
ĠSp icy
ĠH erb
Ġro aster
ĠGr ind
T h
b utter
Ġb ourbon
ou ble
ĠWh isk
ĠHeat h
Ġdo gs
r uc
v ol
ĠH aw
as a
arbecu ed
Ġg o
ĠR amen
ĠCar efully
) ;
Ġl ater
ĠPro cess
ai ian
3 2
ĠPepper s
Ġdon eness
ak i
ra pe
ĠH ave
ran spar
ĠHaw aiian
j ust
Ġt ranspar
ĠA p
Ġpepper mint
Ġflavoring s
Ġcap s
vol one
s ized
Ġs w
Ġp armesan
ĠR agu
Ġbeg inning
ĠCrack er
Ġtranspar ent
b e
u a
Ġe asy
Ġpo ds
i ander
ac ci
Ġdep ending
t e
t in
Ġf ire
gh orn
Ġinst ead
Ġcross wise
Ġw ok
Ġsp areribs
Ġ ass
am ily
ur es
ĠH oliday
Ġg u
Ġartich okes
ĠTom atoes
al e
ri d
Ġle e
Ġshap es
e ur
oup le
ĠMix ture
ĠL ower
Ġab ove
Ġdash es
ran ts
ther n
Ġstick y
ĠBr ittle
Ġcor iander
ĠDump lings
ĠCol by
l arge
Ġsprink led
u pper
Ġs ix
Ġ1 00
Ġf ully
ĠC ountry
it ch
ĠS he
Ġlow er
ĠIr ish
Ġc rawfish
Ġen joy
iel b
Ġde bone
Ġcur rants
ĠPro volone
ĠP inch
ĠT ear
ĠA unt
ith er
ĠPre tz
ĠKeep s
ĠSouth ern
ĠC ur
lic ed
Ġn ew
ĠF eta
Ġcol ander
Ġt ight
on ghorn
Ġh ole
Ġstick ing
Ġbunch es
Ġcap ers
Ġp ies
Ġshell ed
Ġmo zzarella
Ġtoothpick s
for m
ĠAlmon d
y aki
Ġc ouple
ĠB aste
am ole
Ġlar ger
bo x
I f
f ur
k fur
ac amole
ĠM ed
Ġth igh
ĠF in
Ġz est
Ġbec om
L e
Ġn oodle
Ġliqu eur
Ġaltern ate
wh ite
Ġleftover s
ĠBur g
Ġt y
Ġro ot
Ġgener ously
Ġslic ing
ame ter
ma ine
Ġdeve ined
ĠSea f
! )
il ized
Ġoys ter
b an
l ua
Ġb ase
al d
ĠB arbecued
Ġdi ameter
ah lua
ĠC ustard
Ġbrown ing
ĠL onghorn
A dd
or ted
ĠE qual
Ġmois ten
ĠFreez es
Ġster ilized
M icrowave
ĠSt eam
ĠGr ound
ielb asa
ĠT ri
Ġfry pan
Ġcur d
Ġdiagon ally
3 0
Ġco re
Ġloos ely
ĠAp ricot
h y
ir ds
ab et
Ġpor tion
Ġtrim med
ĠNor thern
Ġscrap ing
m edium
he ese
Ġbrown ies
Ġse af
Ġcon geal
Ġro maine
Ġseaf ood
ĠP oppy
Ġst rain
eri yaki
no x
Ġbecom es
ĠB ay
ĠD ouble
sa fe
etiz er
ĠO il
u ice
Ġ4 8
Ġw on
Ġn ight
Ġchicken s
ĠF ood
ĠN oodles
ĠPan cakes
m ore
Ġb ur
ĠK nox
Ġ7 0
Ġcomb in
t ures
ar i
ĠP er
ĠA sparagus
Ġrot ini
ĠWal nut
Ġsqu eez
ous se
ĠSc ald
obs ter
atur al
itch en
ĠJ o
Ġdi pping
ĠD redge
ĠW ater
ĠRefriger ator
Ġbeg in
Ġthigh s
Ġsu m
ach ed
ĠO ri
Ġfollow s
ĠC lean
or ed
Ġmix tures
Ġfran kfur
! !
m p
ater s
Ġsn ow
Ġsum mer
an ce
Ġtriang les
r ound
Ġgar ban
em s
ĠE x
ĠSqu eeze
Ġgener ous
ĠSeaf ood
Ġm an
Ġd iv
ĠA t
ĠI s
oun ts
Ġinst ruc
m ann
n ed
Ġm et
ĠSer vings
Ġdel icious
ĠR hubarb
ĠH ouse
Ġpretz el
d ium
ĠL ime
ĠF ashioned
Ġsmall er
Ġp ressing
ĠD ecorate
ĠU ps
ĠSt rain
Ġsandwich es
b ro
u ds
Ġo at
Ġl og
Ġl asagne
Ġpe a
ĠB aker
ĠT est
ĠA b
Ġh en
ĠI c
ĠH ell
Ġcrack ed
Ġpack ets
ĠSc r
Le mon
c ine
Ġr ich
Ġsqu eeze
Ġspoon ful
p le
ed ish
ĠP op
ĠD eep
Ġsc ant
Ġdump lings
Ġty pe
Ġt ail
us s
ĠM olasses
um ps
ĠButter scotch
Ġsepar ately
ĠSc oop
ig in
an gular
Ġb ath
Ġsal ami
ĠA s
cho pped
Ġdiv ide
p id
r on
r ise
Ġra pid
Ġan cho
ĠK ahlua
Ġde vil
ro ps
ef ruit
em eat
Ġam ounts
ĠUps ide
Ġn atural
Ġfro thy
ĠAl so
b eaten
i w
ĠC auliflower
ĠM andarin
Ġse am
ĠH un
Ġsl its
ĠTh ese
ĠStuff ing
Ġtablespoon fuls
abet ic
igin al
or d
Ġri ght
Ġgarban zo
ĠP ol
ĠP ea
dd le
ĠN e
ĠSh ell
Ġspread ing
Ġbubb ling
icott i
4 6
p ec
ef ul
ĠL a
ĠL ast
Ġrect angular
Ġinstruc tions
p re
ĠS ouffle
Ġle ft
ĠR ea
ĠFill ing
d just
Ġsalt ines
ĠUn mold
Ġstart ing
ĠPuff s
Ġto pped
Ġj umbo
Ġan ise
Ġblack berry
Ġpress ed
ann y
u x
ĠSw edish
Ġcrisp y
ĠGl aze
umm y
Th is
rid ge
F ry
Ġbl ock
pe as
ĠSe ven
Ġass orted
ĠAb out
Ġo uts
Ġf inger
orn ia
if ornia
Ġsimmer ing
ĠC ucumb
Ġfl ank
ri ddle
ĠBe aters
m it
ar a
al ia
Ġg one
ir gin
Ġth ird
ent al
r s
Ġp istachio
ĠB owl
ĠM edium
Ġpack ages
ĠSh oe
ĠCal ifornia
Ġsqueez ed
d rained
en ough
Ġw ish
ĠM an
Ġk ielbasa
Ġcover ing
w y
Ġch ick
Ġin cluding
Ġr ub
ĠChe ck
Ġgl oss
ig s
ation s
ĠVegetab les
Ġlee ks
ĠPretz el
Ġd ecor
ĠSt ick
ĠCl am
ĠB reasts
us ages
Ġn ect
ĠN ow
Ġfrankfur ters
Ġouts ide
Ġ2 3
Ġe ither
ĠS urp
ab ly
ĠSp ecial
id alia
iw i
Ġd amp
ĠD irt
Ġturn s
Ġl umps
ĠD iscard
ĠIc ing
B ake
Ġl ink
is key
ĠW atch
Ġgrap efruit
Ġf ree
Ġch ip
Ġg riddle
Ġstri p
ĠD ill
ur k
Ġlb s
Ġcar eful
Ġblack berries
ĠRea Lemon
c risp
al t
ĠO p
oc ks
ĠGra vy
D own
ic o
ĠIn vert
Ġchil e
Ġset ting
pl ain
sp berry
ĠSp ice
y e
im mon
Ġoven proof
Ġhead s
Ġsec ure
ible ts
D o
g o
m ent
ĠB aking
Ġbott led
ĠN est
Ġliver s
ush y
ĠJ am
ble ached
Ġsc r
Ġri b
ĠGra ham
fro zen
Ġgu acamole
urk ee
pper s
Ġn ice
ĠD ust
ĠSal sa
Ġfill ed
ĠFl uff
ux e
ĠSurp rise
3 50
Ġm ound
Ġf ridge
ĠW ild
Ġcup cake
ap s
ĠY um
Ġtort ellini
Ġwor ks
at fish
Ġ2 8
Ġn avy
ĠF ir
Ġhand ful
Ġkern els
Ġcornfl ake
h alf
ĠS ec
Ġco als
Ġcl os
B ran
am ic
ĠR ot
pan y
Ġsec tion
Ġprocess ed
Ġdro pped
Ġ2 00
um d
Ġk iwi
ĠEnch ilada
acci oli
mp ty
Ġc uts
Ġt ips
Ġsa usages
ĠD urkee
ĠGr anny
er d
un n
ĠV idalia
Ġlayer ing
ĠTh oroughly
Ġchi pped
Ġwee k
f u
Ġt eriyaki
Ġf ast
ot ted
Ġthe ir
ĠSp iced
Ġliquid s
ĠCup s
C an
d ough
h ot
Ġo mit
at in
Ġun bleached
ĠThe y
ĠHell mann
ĠP ull
Ġor iginal
Ġsp icy
ett es
Ġbar ely
b all
Ġso aked
Ġra b
meat s
ĠIce box
ĠDe vil
etiz ers
l ien
us sels
ĠCh ow
Ġju lien
qu e
y our
Ġp ine
Ġwh iskey
Ġl obster
ĠK isses
ĠGra pe
ĠCoc a
Ġmet al
Ġg ets
Ġsl otted
ĠChe eri
ĠVelve t
c ell
Ġw ould
Ġst r
Ġcl ub
Ġmois ture
re c
ir y
um mer
Ġnut meats
ĠSn ick
ĠSandwich es
c rease
Ġc ountry
ĠC res
ĠM rs
Ġpec tin
ĠTo pping
ĠQuick ly
Ġpuff ed
ĠShe et
Ġfl ame
ick ory
Ġde er
ĠCheeri os
ĠFr it
ĠGl azed
ĠTort illa
t a
Ġb ark
ĠW arm
ĠOri ental
cell ent
Ġf amily
se ason
Ġcann ing
Ġwor cestershire
l a
at a
ĠS ummer
ĠDiv an
als amic
ĠTort e
Ġtail s
C ola
Ġ X
Ġb atch
Ġd ist
ĠM c
ĠD ay
iff er
Ġspring s
ĠGinger bread
Ġnect ar
L ow
da iry
ven ly
Ġcon ten
Ġcont in
ĠRe ady
ĠSh ort
ĠIm p
Ġlump y
Ġchick peas
c ed
Ġgr ate
Ġrectang les
ro st
ĠP ark
ĠF at
ĠH or
ia h
ett y
Ġcombin ation
ĠNest le
C heese
t Add
Ġcar d
Ġpl ates
ingers n
Ġfettuc cine
Ġcan tal
Ġcantal oup
F ree
o b
or m
ĠUn roll
Ġsprink les
2 4
k es
et ter
enn el
r it
ĠC ub
am a
ĠT ender
Ġv ari
ef rost
arb oil
f le
ĠJ er
it ation
ter ol
Ġh air
Ġsa ff
ĠY east
oles terol
ĠK n
Ġrun n
ĠCucumb er
Ġc re
ak y
ĠR uss
ĠK itchen
Ġhard en
od ka
t ich
Ġ es
Ġb ri
Ġb alsamic
ĠM eringue
ie ve
Ġminc emeat
Ġtopping s
Ġcirc les
ĠImp ossible
y st
Ġt ill
ĠS un
Ġsp ir
C r
U ps
al a
Ġ2 2
ĠA u
ell o
Ġcr yst
ĠD ash
av ed
Ġcarton s
wh ole
ĠRa spberry
Ġm ed
Ġf ennel
ĠB etty
ĠT ot
ĠL aw
ock tail
Ġp urpose
ri b
ĠW ings
Ġrais in
ĠSup er
? ?
f ingers
ĠS ar
Ġl in
ĠP ies
Ġsubstit uted
Ġstr ong
2 9
Ġb as
Ġf illet
un k
Ġsk ew
Ġtoss ing
Y ou
ut y
Ġgl asses
fl our
ĠZ est
ĠPr al
ĠPr ick
Ġbe ing
Ġso on
Ġwarm ed
Ġt est
re t
ĠP in
Ġh ickory
ĠM ustard
ĠF ran
ĠL asagne
ub ble
ĠCr unchy
ĠMon key
Ġlook s
Ġc reme
Ġd rink
oo se
ien ers
ard en
ĠK ing
ĠQu aker
Ġpress ure
ĠSn ow
Ġplac ed
ĠLaw ry
d r
ĠM y
ĠM ac
Ġpan cakes
ĠH unt
oun der
ĠSo ft
Ġv odka
ĠA m
if ici
gre en
ĠAr tich
ĠDel uxe
ĠCom pany
a use
l s
an ts
ĠC ocktail
ĠSa uerkraut
Ġman icotti
Ġcantaloup e
m s
u y
Ġth ere
Ġcl ose
Ġart ifici
Ġbec ome
Ġconten ts
Ġb ed
Ġg umd
ĠB on
ĠT ime
ain s
ĠSo da
Ġtes ter
iffer ent
Ġl ots
li ke
und y
Ġnon dairy
cook ing
ĠGrill ed
t ies
Ġm ust
or ch
ĠP owder
ĠM ag
Ġth irds
Ġim itation
Ġtouch ed
ĠPol ish
u red
Ġb erry
Ġon es
Ġle gs
ĠCh ess
ĠW a
ĠG arden
ec k
Ġpatt y
ĠShell s
F ashioned
as ier
Ġso dium
ĠR ing
Ġk ept
Ġdo or
ĠGr atin
ĠOn ions
ĠSk im
ĠSm ith
Ġloo se
mel on
ĠOp en
ĠFir st
M ay
f inger
Ġl ady
ĠP ure
ĠM u
Ġj ack
Ġup side
so ft
Ġlid s
Ġcalor ie
Ġpers on
Ġartifici al
I t
c ross
d on
m ild
at t
Ġin vert
ĠS upper
ĠB y
mar garine
o sh
s alt
u g
Ġe ars
Ġst arch
Ġsa ving
Ġcook s
amb oo
Ġgumd rops
ĠM iss
ĠV egg
Ġus ually
Ġmarin ated
Ġc av
Ġt am
Ġb amboo
Ġto fu
un til
Ġv irgin
ĠM il
ad le
Ġgr ind
ĠTh ree
w he
Ġf igs
oo s
Ġfl aky
Ġh ock
ĠI nd
ĠL ight
ĠH eal
ĠO li
Ġtab le
Ġsc orch
ĠSc rape
ingersn aps
Ġe qu
Ġdoes n
ĠBurg undy
Ġrapid ly
Ġcontin u
ĠZest y
l oc
Ġm any
ut ney
ĠB etter
ĠF ettuc
Ġmel on
Ġcool s
ian a
ĠDi abetic
ĠPure e
F or
b ran
w s
ĠC old
it i
Ġh ollow
Ġk isses
Ġsl aw
ang o
hy dr
ĠIs land
unn el
ello gg
b aked
in o
Ġ1 9
Ġe asier
ĠS am
ree k
ĠSn ack
Ġ rim
Ġt ast
Ġst ro
ĠCoc oa
Ġel astic
Ġpit a
la pping
m ents
s liced
Ġw ieners
or r
Ġd ate
ĠM eal
Ġwith in
Ġst ored
Ġn ic
ay a
ip loc
acar oon
Ġper for
cl oth
Ġmost accioli
ĠPop corn
ĠCres cent
Ġc ount
in z
Ġw as
it a
Ġd is
Ġd ecorate
Ġover lapping
ĠG old
iss cross
Ġde g
t C
Ġc atfish
Ġsu it
ĠM ary
ĠR i
Ġ6 5
ĠK ellogg
ĠCo ke
ĠPat ties
Ġpure ed
re gular
Ġd redge
Ġn ow
Ġpers immon
B e
ar ian
Ġr es
Ġre heat
os es
ent y
ĠTh icken
alor ie
ĠPick led
rec ipe
season ed
ĠCub e
Ġnic ely
c ial
Ġm icrow
on es
ou x
Ġh ow
ĠO ys
ĠSa ut
ĠBr unch
Ġlink s
ĠPark ay
b it
Ġbutter nut
Ġcheese cloth
ĠR ich
ĠH ea
ĠPe as
ĠN ot
Ġqu ite
oul ash
fry er
m et
y ou
on ge
ĠS avor
ĠM ousse
Ġbl ade
Ġheat ing
ĠE l
ĠPe ar
d en
Ġt ex
ic les
ĠM ini
Ġput ting
Ġprepar ing
Ġstew ing
u el
an cy
Ġl oses
un c
ri z
ate ver
mer cial
ĠV enison
ĠN uts
Ġtes ted
pec ans
ĠSavor y
l uc
Ġl ove
ĠT r
ĠA djust
Ġh ens
ĠM a
Ġmix es
Ġth read
me let
ĠIn to
ue ur
ĠBr ussels
ĠMag ic
Ġlady fingers
osh er
Ġtex ture
N uts
c ream
at oni
re w
Ġw il
ĠP enn
ĠM az
ĠL ou
ĠBrown ie
ĠZ iploc
alapen o
Ġmold s
Ġprefer red
ĠKn orr
F ried
t and
Ġc it
Ġp ats
ĠB ra
un e
Ġse e
Ġse g
qu et
ĠG oulash
Ġhom emade
ĠHe arty
ĠHe inz
Ġplac ing
Ġmon ths
ĠArtich oke
ĠMil not
l o
Ġt all
ĠB uds
to p
Ġsh oo
Ġbottom s
Ġfreez es
stick s
Ġhold s
mel ted
ĠSar an
Ġdeg ree
i pp
Ġm ushy
Ġcom mercial
ĠSw irl
can ned
ĠRoast ed
ĠCrisp y
Ġjulien ne
I n
l ight
p es
Ġs ieve
Ġt rans
en ce
ow ers
Ġh el
ĠR ound
Ġfour ths
Ġsteam ed
ĠRuss ian
ĠRi bs
S ueur
d uty
j uice
Ġt ransfer
ut es
ill ed
ĠM other
Ġr oux
ard s
Ġcrust y
way s
ĠNe ver
Ġspir al
1 9
w are
Ġc ast
Ġs om
Ġt ear
Ġover mix
Ġpour ing
ĠJell y
ser t
Ġlim as
fro m
Ġnear ly
ĠMed ley
Ġstro kes
Ġtrans luc
. .
o at
t P
Ġf ashion
Ġa d
ĠB as
ad a
ef ly
ĠCream ed
iff on
Ġseg ments
, \
g ry
in ity
Ġt ie
Ġf ile
Ġl g
ĠT re
Ġr ump
Ġtender iz
fec t
ĠLe Sueur
oul der
ĠAltern ately
pre fer
Ġes c
Ġshoo ts
M ix
s elf
Ġm ango
ro ut
Ġsu ch
ĠP ap
im m
ĠIn sert
ĠY ellow
Ġdo g
Ġdirec ts
ĠButter finger
ĠMaz ola
Ġtransluc ent
S p
c ress
in ds
ĠM ud
ch icken
ab el
par ed
Ġtw ist
uk es
Ġlingu ini
l ime
p ack
Ġto tal
ĠC a
ĠT am
ĠT et
ĠT aste
ĠW ine
ens ter
Ġri g
oun ter
Ġpo ke
ĠApp etizer
ĠFin ely
ĠMu enster
ĠHea venly
4 0
ĠC at
it es
ĠB ou
ra zz
Ġsh oulder
ĠCook ing
tt y
ĠJ alapeno
ĠTh in
Ġchunk ed
Ġvari et
Ġbri efly
ĠSam uel
Ġperfor ations
ĠTet razz
n og
v ies
Ġc ounter
Ġb aste
Ġche ck
Ġsh aved
eat h
Ġit ems
Ġliqu or
Ġchill ies
Ġbut ton
ĠMash ed
ĠHor mel
ĠTetrazz ini
R ice
Ġm ain
Ġd iluted
Ġd ifferent
ĠW e
ĠH our
em iah
Ġpre cooked
ĠPast ry
Ch eddar
ĠCal ico
Ġ 75
Ġt ough
Ġb ubble
ĠC elery
Ġh ull
Ġgar den
Ġextr ac
ĠCho pped
Ġsc rape
Ġdi et
t eg
Ġs or
ĠS u
ĠP o
ra ut
Ġ9 0
ĠJ ud
ubb ed
ĠTo st
ĠCont ains
Ġbreak fast
Ġstrain er
Ġancho vies
ĠVegg ie
Ġt ip
Ġb un
ĠG reek
ĠWh ole
ĠJ uice
oss om
pl ants
ig n
ĠBre ast
ett i
ĠMars ala
ĠOver night
Ġfettuc ine
Ġfettuc ini
ĠHerb ed
3 25
Ġc ukes
Ġm y
re l
al es
Ġl it
ĠB uns
Ġfl ounder
Ġcream ing
Ġwater melon
Ġsa v
ĠDiv inity
ath er
Ġwra ppers
ĠCur ried
Ġlin ers
t he
Ġg ive
un peeled
Ġwater cress
Ġsa uc
ĠF ollow
Ġ5 00
ĠH o
Ġk raut
ĠE at
Ġout er
Ġpre heat
Ġqu iche
ĠTo ffee
ĠMex ic
ĠHeal thy
Ġtenderiz er
Ġextrac ts
in ts
ĠT on
ĠT oll
Ġmar ble
ĠL oos
ĠH ar
par ation
ĠMo isten
iel d
Ġgl ut
ĠMon te
Ġim p
Ġcutter s
ĠTw o
Ġtriang le
Ġcongeal ed
teg a
N ut
T he
e k
Ġ #
ĠP are
Ġegg plants
ĠT ast
Ġwh atever
ĠF our
ĠSl oppy
Ġform ing
ail able
ĠCon geal
Ġsw irl
3 75
al ina
ĠF ail
row d
ĠCheese burger
ĠGr its
ĠCur ry
w ater
ĠP oke
ĠR um
ĠE ver
ĠE mpty
Ġbre aking
ost on
ĠTur tle
l aw
es tern
il ute
Ġf ashioned
Ġin ter
Ġra ise
iss ipp
ett e
Ġlim p
Ġgloss y
ĠOli ve
issipp i
Ġd oll
et to
ĠSp r
Ġturn ips
ĠCrab meat
Ġbit ter
Ġrunn ing
ĠMiss issippi
es to
Ġd ent
Ġh ocks
ĠPre go
Ġsliver s
Ġdel i
ĠBurg ers
Ġdist rib
Ġrig atoni
r ant
t Bake
in cluding
Ġp ush
al aya
ĠC ole
Ġl ot
ĠA mar
ĠM or
ber g
Ġunc over
Ġform ed
Ġtoss ed
in der
Ġch olesterol
ĠB oston
ĠCh iffon
ĠD ry
ĠSt r
ĠChe wy
ĠFl avor
amb alaya
ĠRe ese
cr ust
Ġbec ause
Ġpear l
ĠCrock er
Ġclos ed
ĠFrit ters
Ġskew ers
whe els
ĠCat alina
k et
Ġg iblets
Ġl abel
ĠP ush
Ġcorn ers
ĠL ea
Ġ30 3
ĠOr tega
air ly
af ing
Ġloos en
ĠTri fle
ĠSnick erd
g round
Ġ amon
ar row
Ġw e
ĠL ingu
Ġk osher
Ġz iti
iv al
Ġfinish ed
Ġsav ory
~ )
Ġp ier
Ġm ousse
re m
Ġf airly
Ġa ir
ĠS und
Ġfl owers
is ins
us el
ĠG ener
Ġapp ear
ĠPre paration
ĠSh o
Ġpr ick
ĠSm ooth
Ġancho vy
Ġrab bit
h n
v i
Ġt akes
Ġp al
ĠC ow
ĠM ama
Ġbe et
Ġn arrow
ĠL adle
ĠH al
ies ta
ll o
Ġpre tty
cl air
Ġsprink ling
Ġburn er
in stant
Ġe ar
ĠT ang
ri end
Ġsh akes
uff ed
ep eg
ress o
ĠY ummy
Ġlime ade
ĠTri ple
ĠRot el
ĠAmar etto
Ġamon g
ĠSund ay
c ents
ĠP or
ĠM ill
ĠW ay
Ġse ts
uy ere
Ġtam ales
ĠLou is
lo ins
ĠBas ic
% )
B ro
re usel
Ġpkg s
ĠL og
ĠDe bone
ĠTw ink
ĠJo hn
prefer ably
ĠTam ale
c overed
on t
Ġd r
ĠS im
ĠP u
ĠL i
ĠIn crease
ĠE ar
Ġseal ed
ĠCup cakes
Ġrot ary
ĠEx cellent
ĠHun gry
6 0
h od
r itos
re n
ĠC ottage
am ous
Ġst rained
th is
Ġco d
Ġre ally
av able
ĠE clair
Ġmash er
ĠOn ce
Ġsn ack
ond ue
hy llo
ĠScr ub
ĠDevil ed
Ġsaff ron
R oni
w ell
Ġp hyllo
our met
Ġe ight
Ġcr isscross
Ġgr ams
ach os
ash ed
ĠRe heat
Ġwor ms
Ġshap ed
ĠTon y
f ashioned
Ġb al
ĠP ort
ad am
Ġingredien t
ĠTh an
ĠGr uyere
ĠCl ose
ĠPeach es
ĠPr une
ĠJer emiah
ĠBou quet
ĠLoos en
ĠGener ously
f red
in ter
Ġch utney
Ġche wy
ch er
ĠW on
Ġstir red
ĠG e
Ġhot s
tt e
ĠJ ambalaya
ke ts
Ġfry ers
Ġdent e
adam ia
U se
o id
s k
v als
am ate
th aw
ĠR ock
Ġdes ire
Ġcur ls
Ġglut amate
ival ent
fred o
F ro
Ġm g
Ġch afing
Ġcho pper
ĠR ib
ĠO kra
Ġkeep s
Ġseal ing
ĠCl ass
Ġwra pped
d rain
e el
i k
Ġd efrost
he aping
ĠF iesta
iel ds
ition al
Ġscall ion
add ock
mix ture
ĠMed al
acaroon s
Ġvariet y
d ried
Ġl ift
ĠM ock
gh um
ĠG u
ĠG umbo
Ġtender loins
Ġlow est
eed s
ĠCorn ed
Ġcrisp ly
ĠCo pper
Ġburn ing
ĠMilk y
Ġmound s
Ġmicrow avable
ĠSnickerd oodles
7 0
O r
in ai
il af
Ġse ven
ĠFruit cake
od ium
Ġverm outh
t i
y l
Ġp atter
Ġto ffee
ĠP art
ĠP ile
Ġst ay
der ful
Ġsoup y
Ġre heated
ĠF ive
ag ne
az el
Ġcryst als
i gg
i ves
es ar
and ied
gar ian
it as
ĠP arboil
ĠCh ips
ĠL en
gre tte
uck y
ĠSeason s
amp agne
ĠApp etizers
Ġcit ron
ĠCongeal ed
inai grette
Ġpatter n
x x
ro s
ill y
ver age
Ġ8 0
ĠL oaves
ott om
ĠO at
ĠE le
Cr isco
ĠCa esar
M ex
d e
u gg
Ġ ato
Ġb ow
ĠS esame
Ġg ummy
un beaten
ch a
ĠR un
ag ed
os odium
Ġchil d
ĠK ool
ĠBr isket
ĠSw ans
oun ce
Ġav ailable
Ġfollow ed
Ġspri g
Ġfran ks
bro wn
Ġlog s
orm ick
Ġato p
C ook
a u
b oy
t ly
u da
y ellow
Ġin s
Ġe igh
ĠB ac
ĠD oll
ĠW ipe
Ġapp etizer
ĠK ings
Ġcenter s
ĠPec ans
Ġpuff s
ĠCrack ers
ĠJo es
ĠOys ter
Ġwil ted
ĠSpr ite
. ,
C ormick
Ġs im
Ġ1 15
Ġp ri
am ble
ĠB ell
Ġst arter
lic es
ĠF amous
Ġal ready
Ġtablespoon ful
Ġyou ng
ous and
ock et
Ġpart ly
ĠMarin ade
St yle
te in
upper ware
Ġinter vals
t uce
u f
ĠT ie
ri p
Ġco b
ĠSt ack
ĠF il
eget arian
Ġapp etizers
ĠSh ould
Ġgl azed
Ġlength s
Ġmoder ately
amb led
Ġdust ed
Ġcard amon
Ġdis app
Ġbal ance
c innamon
Ġf all
ol ut
Ġst or
Ġthrough out
az y
ĠSk or
ĠBlack berry
Ġmon osodium
Ġequ ivalent
Ġad v
ĠJud ges
ĠCow boy
i ano
k ay
Ġt rout
or s
ĠB asil
ĠP as
Ġst raw
Ġsyrup y
ĠN acho
bon eless
Ġdiagon al
ĠMac adamia
att ice
ĠMill ion
z y
at ive
Ġe ating
ol ly
ra pped
et imes
pe pper
ĠGr an
ĠQu arter
ĠMin t
Ġgrain s
ĠEng land
St ir
A id
S our
d ep
le u
Ġd ab
ĠS kin
ac os
ick el
ver ted
ĠLet tuce
Ġthick er
Ġcur rant
ĠFin ish
ĠHun garian
ĠPral ines
b a
u riz
Ġch ar
Ġg ro
ars ely
Ġpl enty
Ġlayer ed
ĠTh ousand
ĠRep lace
Ġplum s
ĠClass ic
uriz ed
\ \
k y
ic ro
ĠB leu
th a
ur ch
ĠL o
ĠL ift
av ily
Ġsl it
ĠE ach
ĠV inegar
ort ant
ĠPer fect
Ġsor ghum
ĠSu ey
ĠMexic orn
c ini
d ay
i ant
ĠC ore
is ts
Ġgr inder
Ġse a
ĠF amily
Ġcup cakes
if ied
Ġro ws
ump ern
ĠV eal
ĠN iblets
Ġpo ints
Ġcereal s
Ġkeep ing
Ġav oid
rit o
Ġjack ets
Ġcav ity
Ġhel p
ossom s
ĠLouis iana
2 3
f in
w al
w ill
ĠP ic
ĠP ier
Ġfl ute
ĠT upperware
Ġh addock
ĠM ound
ato re
Ġth umb
ĠH umm
over s
ul ts
end s
Ġjell ed
Ġpaste urized
Ġpro d
ĠFl uffy
ĠTost itos
umpern ickel
g resso
Ġ .
pp ies
ĠCh ach
Ġsp ace
st ir
ĠSp areribs
umb ers
ĠStir ring
ĠK ey
Ġwa ffle
erm uda
ĠAl fredo
ĠMe in
Ġallow ing
ĠChr on
Ġfit ting
ĠPin wheels
ĠSho epeg
Ġeigh ths
ĠC as
ĠC acci
Ġsu et
Ġg umbo
ĠB o
ĠB uff
ĠB ermuda
ri ght
Ġr is
Ġsour dough
Ġpack aged
izz as
ĠCorn ish
ĠFro m
ĠMay onnaise
ah um
ĠAn n
be ef
Ġrub ber
Ġrab bits
Ġbas ket
ĠChron icles
l ightly
Ġb uds
ĠS ch
Ġbutter y
Ġst one
ĠL azy
act ing
ĠY ogurt
Ġice berg
elve eta
ĠPepper oni
lec t
Ġoverb eat
ĠNot e
ĠTwink ies
thaw ed
Fro m
D i
T o
a ver
m in
m an
n y
Ġs ack
Ġf unnel
ĠC rawfish
Ġ2 25
Ġa djust
ĠB ob
ĠP arsley
Ġh oliday
Ġwh at
ĠG oo
est ive
Ġhe avily
ĠBoil ed
Ġpro tein
Ġmarin ara
ĠFreez er
ĠRe ub
Ġscorch ing
unc he
ĠPas o
2 2
O s
i od
Ġ ??
er to
Ġt e
Ġt en
Ġp enne
Ġw edge
am om
Ġe mpty
ell en
ĠG ourmet
ĠCar ol
amp i
Ch o
butter ed
Ġbur ger
ĠPap rika
ĠStr ata
ĠEar th
b ake
c ery
r ich
v al
y ed
Ġs olut
Ġb ird
Ġp ocket
re at
ak en
Ġ2 1
Ġl attice
ol og
ĠR ings
Ġr anch
ush ed
Ġsp ecial
igh ts
ĠSt reusel
Ġbr ine
ĠShred ded
ret ch
Ġpri or
d or
g n
s uch
ĠC erto
ĠP ar
ĠT arts
Ġh o
ĠR ellen
Ġse ams
ĠF ast
ĠL ef
ĠO melet
ĠK id
Ġcomplet e
Ġfold ing
ĠSugar less
Ġdevil ed
Ġbatch es
ĠMc Cormick
ĠPor cup
ĠChach ere
ĠReub en
4 5
b ble
u v
Ġ 0
Ġs ouffle
Ġp arboil
ic al
ĠS yrup
ĠB ing
ĠP ers
ĠP istachio
Ġflour s
ĠM aple
ĠD own
Ġre qu
im a
Ġremain s
ĠE nd
ĠMo ist
Ġother s
Ġcol a
ĠCo arsely
ĠSc otch
sc ant
ĠPer r
bro ccoli
Ġcard amom
Ġlit er
Ġsauc es
ĠCacci atore
Ġsolut ion
P e
g ed
Ġp ouch
ĠM ount
ri e
Ġsh o
qu ake
Ġfreez ing
ĠFill ed
Ġgarnish ed
ph ant
Ġ?? ?
Ġt aking
al o
Ġin crease
ĠC andied
Ġg ingersnaps
ĠK iss
ĠN ahum
ee bler
Ġthicken ing
Ġbrush ing
Ġgall ons
ĠDough nuts
ĠLingu ine
Bro ccoli
unche on
ĠPerr ins
b ird
c rew
l en
p r
Ġ1 50
Ġp umpernickel
Ġw ere
sp ace
Ġd uck
ĠS lices
Ġegg nog
is ed
uc y
th in
ĠCh ile
ack y
ab obs
Ġk itchen
ress ed
ĠBl ond
ĠY ork
Ġcom ino
ee k
ĠSc ampi
so dium
ĠSteak s
mb ros
mix ed
ĠStick s
ĠPral ine
ĠPenn ies
Ġdoll op
olog na
k ing
n ic
Ġp ip
ut h
el ow
ra d
Ġsa ut
ĠD ried
ach ine
ĠG iant
ks crew
ĠN ab
Ġhead space
ĠSc atter
ĠSeason ing
Ġpit cher
ĠPro gresso
ĠSm oked
aj itas
ĠMar garine
ĠWal dor
mbros ia
ĠWaldor f
1 00
E yed
Ġo kay
ing bird
ĠT art
ĠM ore
Ġor zo
Ġr ising
qu ettes
edd ing
Ġmeat y
ĠSl ush
oy u
ĠMar tha
ĠBar rel
Ġclos ely
ĠMor ton
ĠGe or
ĠRib bon
ĠPart ially
Ġgro cery
k ins
Ġt r
ĠC ra
ĠS liced
ĠA mbrosia
Ġ4 75
ĠR os
ĠD rops
ĠSp am
Ġse ems
ap ed
ĠK eebler
ĠSl ightly
Ġde hydr
arin a
pack ed
Ġadv ance
ĠGran ola
wal nuts
ĠHumm ingbird
ĠEarth quake
Ġch owder
ĠB erry
Ġsh oyu
ĠMix ed
ĠG ingersnaps
ĠJ ew
ĠBe gin
Ġmelt ing
ĠFl akes
ĠHam burg
ĠSour dough
ĠCrisp ix
ĠAn y
Ġsecure ly
Ġres ults
Ġesc ape
ĠSim ple
a que
f ine
g i
h o
m ushroom
m ade
Ġm at
Ġm em
ĠB ig
ĠP ilaf
Ġsh iny
col ored
ĠSt arter
sc i
Ġkn ives
Ġench iladas
Ġrep lace
ĠWa it
ugg ets
ĠMount ain
s ee
Ġc all
il ar
Ġfl uted
ĠA v
Ġh ome
Ġco gn
ĠW edding
ĠSp onge
umb er
ĠF ree
ent ucky
ĠMo cha
Ġbut t
ĠDo g
Ġtow ard
cr ushed
ĠGrand m
ĠPo or
Ġdistrib ute
ĠHal ve
ĠCas hew
Ġcogn ac
f tened
Ġp esto
Ġm al
Ġw atch
or i
Ġfl oat
ĠR abb
Ġco ats
ĠH el
Ġ13 0
ĠWor ld
Ġop aque
Ġcor kscrew
Ch icken
Ġsw iss
rem ove
Ġdefrost ed
Ġprod uc
Ġpip ing
ĠNab isco
ĠRabb it
g r
r us
t ime
w ick
Ġc oll
ĠC arb
ĠB ea
ĠB ites
Ġun pared
ĠA head
ĠF ant
ars n
ĠWh ipped
ĠN umbers
Ġspoon s
Ġtub es
ĠFrost ed
Ġfile ts
ĠTre ats
Ġhull ed
Ġmal let
Y ields
b atter
b aking
c heese
g ur
r one
Ġ els
le e
ĠC alorie
el le
ĠB one
Ġst ep
om m
Ġ4 6
Ġsh aking
ĠR aw
ĠL amb
asser oles
ĠG o
est rone
ĠJ an
ĠMo st
Ġwa it
ĠBe er
so ftened
uns wick
Ġreach ed
ĠSouth w
ib ut
ĠTender loin
Ġsaff lower
Ġtast es
sci ut
O T
a ith
d y
p ie
Ġs ink
Ġf e
ĠC ap
Ġsu per
Ġl o
Ġpe ek
im p
ough t
Ġk inds
ĠK entucky
bl ack
ĠBroil ed
Ġabsorb ent
with out
ĠBur ger
Ġcontinu ously
ĠThin ly
Ġimp ortant
ĠRock y
ĠLen til
Ġels e
c alorie
f ir
p art
t w
w rap
Ġb undt
Ġp uffy
Ġm ill
ĠC oles
ĠP rim
ĠM orning
Ġle g
ĠD anish
ĠW aff
ĠF ashion
ĠF estive
ĠH ush
Ġdrain ing
ĠBr unswick
Ġgran ola
und les
ĠRo ad
Ġhor iz
Ġrot ating
Ġtouch ing
ĠCra zy
ĠColes law
R a
W h
f oil
f etti
s kin
t ain
Ġb elow
Ġe le
Ġst ream
ad ian
Ġth inner
ast ed
ĠCh unk
Ġsp onge
ves t
ber ally
ore n
ĠJ oe
oc kets
ĠDe an
ĠTw in
ĠTw ist
Ġmeas ured
Ġmon th
ĠMan icotti
imm y
ĠTast es
Ġear ly
Ġdisapp ears
dep ending
B utter
S weet
a x
g y
i or
y n
Ġs na
Ġb ra
Ġch ampagne
ing ton
gar nish
or tening
or iz
is bury
Ġh azel
ĠM ade
ĠD uring
amon d
Ġal ways
ĠSal isbury
Ġcher vil
Ġturn ip
ĠGr ated
Ġcres cents
ĠSc ore
ĠMin utes
ĠCl ub
ĠTw ice
Ġprefer ably
Ġopen ing
Ġtast y
Ġdr um
ĠDoll ar
C al
J ell
M o
g ing
t Stir
Ġc asseroles
Ġs izz
an ese
es h
Ġf alls
Ġin t
Ġa corn
ĠR ap
ĠW il
ĠF ix
ĠCook ed
ĠH ill
ĠH alf
sh ine
Ġsl ushy
Ġex act
ĠU p
Ġcauliflower ets
Ġherb ed
ĠNut ty
Ġgo es
Ġlee k
Ġpal m
ĠPu ppies
ĠGu acamole
ĠEle g
aver a
ĠLef tover
Ġdehydr ated
sciut to
4 00
L ayer
b b
s et
an a
Ġb ologna
and a
Ġf riend
is ter
ch ange
ĠD efrost
ĠW estern
ĠG et
sh ip
ĠE d
ĠE sc
Ġen rich
elat in
Ġdirec tly
ĠCho ice
ĠDe er
ord en
ĠInd ian
sk im
Ġsim ilar
ĠRellen os
B atter
Ġp arsn
re ts
Ġf aith
or ange
it ic
Ġpe t
ĠB ottom
gg y
Ġv eg
Ġn eck
ĠSt and
ĠF ingers
ĠE ye
ĠJ immy
per ial
aff y
Ġind ent
ĠIm perial
cho colate
Ġindivid ually
Ġdep th
ĠPl um
ĠStart ing
Ġtray s
ĠSec ure
ont ally
3 00
A pple
M in
e ady
f ried
Ġp arch
on ion
Ġf ries
Ġf ancy
Ġ2 9
Ġsu p
Ġa while
ĠS ix
ĠB ag
ĠP ink
is ters
Ġso le
ĠL arge
ĠG en
Ġpec k
ĠSa ucy
Ġus ual
ĠCan adian
ĠTort ellini
ĠBur ritos
ĠShe ph
ĠStick y
ĠShort cake
Ġins ides
ĠPrim avera
2 6
O ne
g ers
Ġs lee
Ġ2 6
ĠS and
ĠB rie
ick le
Ġun mold
to gether
Ġsa ved
Ġgr oup
ĠD r
Ġju icy
ap anese
ĠL ittle
ĠL iver
Ġ12 0
Ġpl ump
ĠE aster
Ġup right
Ġthick est
Ġfin al
10 5
Ġqu ail
Ġstal e
ark ling
ĠBis que
Ġneed s
ĠSc ones
Ġinser t
ĠMin ce
ĠMuff in
ĠRa isins
ĠPick le
Ġdel ic
ĠWal nuts
ĠMold ed
ond on
Ġpull s
Ġcombin ing
ĠWatch ers
Ġchild ren
ĠGrandm other
Ġenrich ed
N ot
b eat
b ack
c emeat
t S
v itic
Ġc ould
Ġw ing
Ġsu ey
Ġg el
ĠB its
ĠB orden
un sweetened
ĠT eriyaki
Ġv ary
ĠA d
Ġcr unch
st rawber
ĠSp ring
Ġbl ocks
ĠH old
Ġapp ears
Ġpap ers
Ġthick ly
ud e
Ġagain st
alor ies
ah ini
Ġshall ot
Ġscr ubbed
Ġscr ambled
ĠTang y
ĠPers immon
Ġmat zo
Ġmem bran
Ġhoriz ontally
ĠRap id
P ec
g ot
p acho
s ter
Ġt ry
Ġo val
Ġm achine
Ġf eed
sp ray
ĠC rowd
ĠB aby
Ġst retch
Ġbro ad
ĠD ilute
Ġre g
ĠL ondon
Ġex cellent
ĠMel ba
ĠCar ne
az pacho
ĠSo y
Ġbeater s
Ġeat en
gin al
Ġdeve in
ĠPretz els
ĠAm ish
ĠBon n
It alian
ĠHar vest
Cho colate
Ġint act
vitic us
Pec an
- -
3 5
A l
e an
k eep
Ġt ong
Ġt aken
le ave
le ase
ĠC av
ĠS ure
Ġl ose
ac es
Ġst ar
sh arp
iz es
Ġjell ied
ĠBe ets
ĠDo gs
ĠDel ights
ĠMin cemeat
wh ich
Ġbul gur
ĠPro sciutto
ĠRom a
ĠSm other
Ġris es
ĠSheph erd
C orn
R ise
d ew
e en
e ach
f a
i ke
l ap
m m
w heat
an ted
il ver
Ġin c
ĠC alories
Ġd irt
un baked
Ġv e
Ġfor ks
Ġr ubbed
Ġco le
ĠI da
ĠL obster
ĠG azpacho
Ġk iss
ĠE v
Ġpack s
ĠN OT
Ġdes ign
Ġsc iss
Ġpick led
Ġtw ists
co al
ĠFl oren
Ġtin foil
ĠScr amble
Ġjulien ned
tP our
ĠSwans on
ĠPier ce
Ġproduc t
ĠWaff les
Min ute
Ġsup reme
P ineapple
p ut
an ger
Ġo melet
Ġm l
Ġw inter
ĠC ord
ĠB irds
ĠP icante
Ġbe verage
uc key
Ġsh ow
ĠCh ar
ĠW acky
qu id
ain t
Ġcrumb les
ĠJ oy
Ġend ive
ĠMon ster
Ġequal s
Ġtri fle
Ġster ile
Pot ato
Ġdecor ation
ĠSnick ers
ĠShort bread
Ġrunn y
Ġcontinu ing
Ġhazel nuts
A pp
G reat
S h
S w
w rapped
y es
ic ally
ĠC ider
as ts
Ġcheese cake
Ġst eel
Ġr icotta
ĠH ollow
Ġcon verted
Ġser ves
Ġhoney dew
Ġbre w
Ġpo d
Ġdri p
Ġflat tened
Ġprun e
Ġdiscard ing
ĠJer ky
ĠSun shine
ĠFettuc cine
ĠBuff alo
Di abetic
Ġexact ly
' re
c ous
t ine
il a
and el
Ġch oriz
ĠB ush
ĠB arb
Ġfl u
Ġfl ip
ĠT acos
ri pe
Ġsh elf
ĠR eal
ĠCh uck
im um
ĠL or
ĠL ima
Ġbread s
ĠG all
ĠO ut
Ġpour ed
Ġhe art
Ġli berally
Ġpeel ing
Ġfin d
Ġcur ly
sa iah
ĠFor got
ĠCon fetti
Ġcas ing
ĠWa fer
Ġequ ally
ĠForgot ten
B l
\ .
c on
c al
in ess
Ġw he
Ġto st
ĠC atfish
Ġd ilute
Ġsugar ed
Ġv ent
us k
ĠW ish
ip es
ĠF ajitas
ole o
ĠH ard
ĠG elatin
em p
ĠJ apanese
Ġpeel s
Ġice box
Qu ick
ĠMeat ball
Ġany thing
Ġback fin
Ġbroil ed
Ġac id
Ġknead ing
Ġsteam ing
ĠHom iny
ĠRot ate
Ġfast en
ĠEleg ant
Ġparch ment
Ġsciss ors
g rain
Ġm ot
Ġm acaroons
Ġf ondue
ĠT own
ien ce
ef in
st uffed
ĠF ull
anan as
ous cous
ĠQu es
ĠMon de
Ġjelly roll
Ġflower pot
Ġwon ton
Ġman uf
Ġskew er
Ġchar coal
Ġho isin
Ġparboil ed
ĠJew ish
Ġcall ed
Ġflu id
Ġmanuf act
v anilla
Ġc rowd
Ġm outh
re ath
Ġch oose
or der
as ant
Ġ3 70
ĠS ue
ĠB ourbon
et h
.) .
Ġwh ere
ab l
ef ish
qu ef
ĠSt ep
ash ell
ul t
ress ion
Ġup on
ĠBl ossoms
ĠTh ank
ĠN achos
rop ical
af ers
Ġget ting
ĠOri ginal
Ġ23 4
Ġdist illed
Ġsom etimes
Ġpier ced
ĠAv ocad
ĠMost accioli
Ġele phant
Ġmanufact ur
G ood
V ery
a is
g ian
i ar
Ġt uck
ĠS uc
Ġl uncheon
ĠB ut
ĠP aul
ĠP izzas
ĠT sp
ad o
Ġcr isco
Ġj un
Ġso ggy
Ġth row
Ġsm ashed
Ġx xx
Ġro ck
Ġpre vi
ĠY ams
Ġqu ant
Ġcontain ing
ĠDo zen
ĠWash ington
ĠScallop s
Ġprefer ence
Ġrese m
.. .
ĠFil lets
ĠGoo ey
uv res
len da
Ġparsn ips
ĠRapid Rise
ĠSmother ed
ĠCord on
a o
b ut
d own
g l
p let
es ts
Ġm aker
il t
re ng
le ans
ĠC it
it o
Ġg oose
Ġl unch
Ġsalt y
ac c
ĠT affy
Ġv elveeta
ĠCh oc
col or
ien t
ĠF oil
sh aped
Ġcrack s
Ġra vi
av a
Ġtender s
Ġtender ness
Ġli king
ĠY our
ĠBe et
ĠSl it
Ġcontain s
Ġhand ling
Ġpart ies
Ġper iod
ĠDi et
app les
uch en
Ġgrill ed
clu ded
ĠTot al
ĠFloren tine
reng th
Ġravi oli
a vings
i pping
m ber
u gs
Ġb ush
Ġf rench
Ġw anted
ĠC ereal
it ely
Ġg izz
ĠB un
ac ing
ĠP ace
ĠP arm
ĠT en
Ġv inaigrette
ol f
Ġn achos
Ġsh avings
ĠD O
ĠD ole
ĠD ew
col d
ĠW afers
Ġse m
Ġsm ok
ĠF ondue
Ġhal ibut
Ġcover s
ĠIt al
ĠCorn meal
ĠSe lect
ĠOr leans
Ġwork ing
ĠBlond e
G r
l t
l on
s to
t Mix
Ġs at
Ġd ra
ĠS ome
oo ps
ĠB us
ĠM ust
Ġcr imp
ve get
ĠR ye
Ġr are
Ġcar bon
Ġal one
ĠTh row
ĠChe ws
Ġbr ittle
Ġbr isk
ĠUn wrap
!! !
Ġmet hod
Ġsection ed
ĠTast y
ĠWon derful
ĠCarol ina
Ġreg isters
efin itely
Ġresem ble
b ite
Ġc our
er ne
Ġt ines
es is
Ġp ale
Ġm icro
Ġch ange
ĠC rispies
as ing
it ies
Ġsu ff
Ġg as
Ġsalt s
ĠB oy
Ġfl esh
ĠT ry
ĠR uth
ĠH i
Ġpl ant
Ġsqu ir
Ġsweet en
ew h
ĠTh at
ĠPe ek
Ġstand s
Ġsc ra
ĠRo quef
Ġscall op
ĠEgg nog
egg s
ĠCol ada
round ed
igg er
ĠKid s
rad itional
Ġdrum sticks
Ġmanufactur er
ĠRoquef ort
' ll
B aked
E gg
c over
h ard
n old
t Sp
an ks
Ġt ahini
ar ro
ar ole
Ġm ine
Ġm ight
il le
Ġf rit
pp os
Ġin cluded
Ġe ye
Ġg ame
ĠB av
ra ine
ch erry
ri ps
Ġr inds
ĠD eath
Ġsp arkling
ĠSp lenda
ĠH oll
ĠIn stant
est yle
ĠK abobs
Ġlett ing
Ġsc ore
Ġevapor ates
ĠStrawber ries
ĠMin estrone
Ġac ini
Ġtowel ing
Ġsteam er
ĠBar ley
ĠWork ing
ĠPin to
ĠWe ight
Ġwe ight
Ra isin
Ġslee ve
ĠLor raine
ĠAvocad o
E asy
R itz
Ġm ussels
ĠC or
Ġ2 7
Ġe ff
ĠB ananas
ĠP ina
Ġun roll
Ġv egetarian
Ġcream er
Ġn umber
Ġmar k
ĠCh olesterol
Ġ5 7
me mber
Ġcar e
em ber
ĠE sp
tr act
Ġcolor s
uck le
Ġcann er
ĠTo pped
ĠLe viticus
Ġpro ced
ĠFl ip
ĠSc rip
Ġfil o
Ġind efinitely
ĠSm all
aj ita
pec ially
ĠCucumb ers
Cr ust
hydr ate
ĠOys ters
Ġsna pper
Ġindent ation
abl is
ĠCit rus
ĠParm ig
ĠItal iano
ĠBav arian
" )
4 8
B one
D on
H igh
M ar
S ugar
b ook
c he
d iced
f old
h er
l er
p ound
s our
s lightly
t R
t ou
Ġc ouscous
Ġf ound
Ġw id
Ġl imes
ĠT ropical
ra ight
um e
um n
Ġj oin
ĠCh erries
ĠF ud
ĠF unnel
Ġdry ing
Ġk ale
ent he
ĠV irgin
ĠSh erry
Ġchill i
12 0
og en
Ġpound ed
Ġbroil ing
Ġcirc ular
ath y
ĠPh illy
St uffed
Ġscrap ed
Ġwon derful
Ġbur rito
Ġdamp ened
ĠGraham s
ĠPowder ed
ĠSaut erne
ĠPorcup ine
gr ated
Ġgizz ards
Ġcarbon ated
Ġproced ure
ĠScrip ture
b ons
m ake
m ly
n ier
Ġ =
Ġs izes
Ġl a
us ters
ĠM acaroons
om ato
Ġsauce pot
Ġsp iced
im ent
ĠI saiah
if orm
ĠL ite
Ġbread sticks
ĠH ome
ĠSer ving
Ġex change
ĠE tou
ĠV inaigrette
Ġstand ing
ĠSaute ed
Ġspoon ing
ser ving
Ġpinch ing
pl us
Ġpat ience
ĠCan ned
Ġcons ider
Ġstem med
Ġskim med
ĠPet e
Ġwhisk ing
ib b
ĠFin ally
Ġomit ting
eath er
Ġstor age
ĠGeor g
ĠBonn et
fa it
ogen ized
O range
S a
V egetab
a fter
g ran
l uck
p owder
t D
t or
Ġ read
in ce
Ġs ilk
Ġt ied
Ġb u
en e
Ġf ig
Ġf ruc
am els
ac ao
is weet
Ġh um
Ġst op
to se
up s
ĠR ain
ĠCh utney
ĠCh ablis
Ġr ather
im an
ĠF inger
ough y
Ġsl ush
ĠO regano
ĠJ ar
Ġturn ed
ĠAr m
Ġim pro
Ġconcentr ated
cl ude
ĠCro quettes
ĠMar nier
Ġkind ness
ĠCom plet
Ġbur gers
ĠFran ks
Ġhollow ed
Ġsom ewh
ĠHo bo
pr int
ĠFant asy
ĠIda ho
Ġsuff ic
Ġfruc tose
C ream
M ake
a gg
c le
d eep
s oup
z il
Ġp ol
Ġp ockets
Ġf ix
ic a
le af
ĠS ub
Ġfl uff
Ġun iform
ill ing
ĠA ut
Ġh ouse
Ġst rength
Ġsa fe
Ġth ing
ĠD ark
ĠW et
Ġju g
rink les
ĠCream ettes
Ġdough nuts
Ġdough nut
ĠJ if
ĠJ umbo
Ġkid s
Ġ16 0
Ġhand fuls
Ġbring ing
Ġpart icles
Ġsift ing
Ġscal d
ĠSm ok
ĠDill y
ĠSec rets
ĠFettuc ini
Ġpier ce
anda ise
3 1
; \
A merican
L ime
O n
e er
Ġm ul
Ġa j
Ġg old
oo t
ad ine
ĠW edges
ĠW inter
Ġse ashell
qu ila
ĠF riend
Ġhot ter
sh ould
Ġal together
Ġminc e
Ġsmooth ly
ĠRoll ed
Ġri p
Ġpick s
Ġhand led
Ġdi amond
ĠAl a
Ġne ver
Ser ve
Ġwra pper
ĠNe iman
ĠLast ly
Ġfinger t
ĠBra zil
uckey es
Ġjun ior
Ġsem isweet
ĠGeorg ia
I nch
f ollow
h an
n er
Ġc ase
Ġs ilver
Ġt ater
Ġm ush
al mon
le mon
Ġg ent
ĠP ass
ĠT akes
ill i
ra isins
Ġst raight
ĠR ey
ĠD ep
Ġbo dy
im ate
ap er
ĠH a
Ġro pe
Ġpudding s
ĠK et
ĠPe ople
ĠRo y
ist rib
Ġrec omm
stit ute
ĠCrumb s
ĠDri bble
Ġdep ends
ĠToast ed
Ġass em
ĠCres cents
Ġes pecially
Ġbas ic
ĠSnack s
ĠTre at
ĠEv ans
Ġbrew ed
ĠEtou ffee
ĠRain bow
Ġsomewh at
ĠRey nold
F rench
Y um
c us
h ol
s ifted
an uts
Ġm atch
re ak
sp read
Ġe yes
Ġd ec
Ġl adle
ĠP esto
Ġfl o
Ġmin us
ch i
Ġsh ank
ĠSp eed
Ġcorn er
ap es
os ition
Ġsl ight
ĠO w
ĠO le
ĠO ats
ĠE ven
ĠE very
ĠE venly
ĠK ielbasa
ĠK uchen
ĠTh ere
issol ved
Ġsc oops
Ġpick ed
ĠCar amels
Ġuns liced
Ġhamburg ers
Ġdoub les
Ġhom ogenized
ĠPan cake
Ġgo ing
Ġdecor ative
ug u
Ġesc arole
Cook ies
Ġholiday s
ĠBea u
Ġxxx x
Ġconsider ation
ĠReynold s
1 10
i as
i ra
m akes
w arm
Ġo ur
es law
Ġp rop
sp rinkle
ro of
ĠC rinkles
it al
Ġd red
ĠS ex
ĠB undles
ĠP ate
ĠP ep
Ġv ol
ĠM ark
ĠCh est
Ġsp ins
ĠL ush
Ġal f
Ġsl ab
ĠV ien
ĠV egetarian
ĠGr am
Ġcann ellini
ib by
alf a
Ġ23 8
flour ed
ĠPic nic
Pe pper
ĠSouthw estern
tw o
ĠChunk y
veget able
Ġbrisk ly
ĠHoll andaise
istrib ute
ugu ese
( "
) *
b led
l in
p ineapple
at el
and ing
ro l
ro ck
ĠB ubble
un ks
Ġun seasoned
Ġmin s
Ġst eady
Ġn ine
red ded
Ġsh anks
ĠD ad
ĠD uck
ĠF ool
ĠF ancy
ĠG od
Ġab le
ant a
ore an
ĠO ther
ĠJ u
ĠV erm
Ġare a
ĠChe w
ĠN ana
Ġsc rew
Ġcol eslaw
ĠMin ts
ĠKra ut
ĠHell o
pre pared
Ġcre ate
Ġpal ms
ĠPu ppy
Ġcoll ard
spray ed
Ġtong s
Ġeff ect
ĠParmig iana
ĠVirgin ia
ĠSpeed y
Ġvol ume
Ġalf alfa
P re
P am
_ _
e ver
i ber
l ite
m o
p or
t B
Ġm enthe
ter y
ĠB ill
Ġst eep
Ġst uck
ri en
ĠD istribute
ĠF ries
ĠL ily
ĠG umd
ff e
ff les
Ġcl ing
Ġhal ve
ec ipe
ĠBl anch
ĠY am
Ġother wise
Ġcont rol
reez e
ail y
Ġrec ipes
Ġdel uxe
Ġvegg ie
Ġfit ted
ĠSun da
Ġcryst all
Be an
Be ef
Ġte quila
Ġrequ ired
gi ving
strawber ry
lt imate
sto ck
Ġfrit ters
ĠAut umn
R ecipe
a ut
h al
s on
Ġo ppos
Ġb ought
Ġp res
ro ot
it an
Ġd aily
us ci
ĠM aster
ĠM icro
ook s
to ps
Ġth ough
ĠR ose
st anding
ĠSt ar
ĠF it
ĠIn n
Ġex p
oc onut
ĠN uggets
Ġen cl
Ġpro of
ĠSeason ed
ĠFruit ed
ĠCon go
Ġdro pping
ĠGl or
ĠStro mb
ĠWheat ies
ĠPl ay
Ġstring s
ĠSteam ed
Ġpine apples
ĠFettuc ine
Ġthread s
Mix ture
Ġsauc er
ĠJohn ny
ĠRos emary
Ġfe et
ĠGen esis
Ġbush el
Vegetab le
Ġgent le
' ve
C ool
c ub
i ger
o pped
r at
Ġc al
Ġ1 10
Ġp ic
on ly
ou ille
le vel
Ġ2 60
am ount
it ting
Ġpe pe
he asant
ac ular
Ġun wrapped
Ġh a
Ġh us
om etimes
ch uck
ri f
Ġso aking
ĠCh ipped
Ġsp l
Ġsp ots
ef lon
we gian
Ġk ing
ĠO R
ĠPre p
Ġsalad s
Ġwa ffles
ĠSh ortening
ĠU ltimate
ĠButter nut
Ġcur l
Ġbr ick
Ġsec ret
Ġhard ens
ĠBeef y
ĠFl oat
stit uted
ĠNut meg
Ġper fect
ĠCl oves
ĠCrisp s
ĠCol or
ect acular
ĠAn t
ĠPl an
ĠPl us
ĠAlmon ds
ĠEx tra
ĠFir mly
whe el
ĠBra ised
ĠThan ks
yl v
Ġchoriz o
eth ing
Mar cus
Ġsuffic ient
ĠKet chup
ĠOw ens
ĠGumd rop
D ish
O e
O ld
c er
s al
w ood
w ard
Ġ iced
an ia
Ġp li
on a
am arina
Ġg olf
ĠP im
Ġh er
Ġcan e
Ġgre n
Ġwh iz
ĠSp ectacular
ĠSt raw
if ter
Ġwhit efish
Ġcon ven
ĠCover ed
ĠCr isscross
ĠK u
ĠTh umb
ĠTh yme
ĠSh erbet
Ġchill ing
Ġcrab s
Ġpinch es
ĠSto p
Ġstock pot
ĠMarin ara
Ġsn ap
Ġrot elle
ĠTort illas
Ġstack s
Ġbur ritos
Ġdecor ating
ĠPark er
ĠMini ature
riz e
ĠRound s
au gh
ĠBo x
ĠHill shire
Not e
Ġmembran e
Ġquant ity
ĠChoc o
Ġfingert ips
ĠThanks giving
! ).
C ol
a ur
d ark
r ami
u ke
Ġs ifter
Ġb uy
ut ure
Ġf if
Ġf ajita
Ġf uture
Ġch anges
Ġw ipe
or es
or por
ĠS anta
ĠB our
ĠP reser
Ġmin imum
ĠM am
om ar
to sh
ur st
ĠSt rips
ĠF le
ven der
ass ail
ĠL ee
Ġsour ce
ĠH er
Ġcar bo
Ġdish pan
Ġis n
ĠTh ins
Ġginger bread
ĠCorn ing
oss um
co hol
ĠTo fu
ran ging
Ġac ting
Ġscal ding
Ser vings
Ġfrost ed
ord fish
ĠOp tional
Ġlit ers
ĠLi ke
Ġdelic ately
App etizer
Ġrecomm ended
usci ous
B rien
G l
O p
O atmeal
S ave
g an
h ouse
l ayer
p ly
t to
w d
Ġc ured
Ġb ud
Ġp en
at i
il s
on stituted
al ity
ĠC enter
ĠS ol
ĠS ilk
ĠS ens
ĠB uckeyes
ĠP rize
is ch
ĠT arragon
us ed
Ġcho pping
ch atel
ĠCh i
ĠCh il
ĠD olly
ĠSp routs
Ġju iced
Ġse em
ven ess
ain less
ĠL ace
ĠL ibby
ĠG ather
Ġcar ob
Ġshred s
Ġole omar
est ring
ĠK risp
Ġfin ally
ĠN ight
ray fish
Ġsc atter
ĠButter cream
Ġq ts
fection ers
ĠDo es
Ġtub s
Ġpr al
Ġdump ling
ĠPl ain
Ġscr ub
ĠHor s
ĠRuss et
ĠFran k
Ġdistrib uted
Mex ican
ori da
Ġveg ies
gl ass
acc ording
ĠFud gy
ital ini
ĠSunda e
Ġoppos ite
Ġoleomar garine
B est
N oodle
U n
b anana
h erb
i oli
n eck
r ice
r ano
w urst
Ġt end
Ġt acos
Ġo b
Ġp ray
Ġm ess
at elli
re al
Ġf un
Ġch urn
Ġto ts
or iginal
Ġa verage
Ġ3 8
Ġd ots
ĠS ort
ĠB el
ĠT eflon
ĠA sp
us ing
Ġn uggets
th ird
Ġr oughy
ur ry
ĠW eek
Ġre ar
Ġy ears
ĠCook er
ers ion
Ġbl ossoms
ach er
sh redded
ĠO wn
ĠBrown s
Ġsoy a
Ġstand ard
Ġspread able
ĠPot luck
ĠBr ickle
Ġcomp ressed
co ated
fl ake
ĠSe ar
Ġdri bble
ĠFl orida
ĠPepper mint
ĠAl as
Ġgrain y
do bo
Ġits elf
ĠCre pes
umm ettes
ĠCom stock
Ġgo at
ĠAm os
ĠBon bons
Ġtam ari
Ġhel ps
ĠPorcup ines
ĠHel en
skin less
Mo ist
Ġinc orpor
andel ion
Ġprevi ous
ĠStromb oli
Ġpli able
. ;
C l
C he
C rock
E x
J ack
L et
M e
b r
d ivided
h oney
m ust
t ata
Ġ Q
Ġt on
Ġp urch
ĠS op
ĠS na
ac ed
ĠT ips
Ġbutter f
Ġh ad
Ġcho y
Ġst ainless
ts ugar
wn s
Ġth ose
Ġgre asing
Ġover lap
ĠR est
ĠW el
ĠW assail
Ġre lease
im ents
Ġse lec
qu arts
qu arter
Ġy et
Ġbeef y
ĠL uscious
ach es
ĠH and
over night
ag a
Ġmeat less
ant ime
ĠPre cook
Ġmash ing
Ġri d
Ġgl oves
Ġsepar ating
arin es
Ġcro ok
ĠFl ank
ĠGre y
Ġsubstit utes
ĠCont in
uns alted
Ġfil et
ines ap
Ġunder standing
Ġgi ves
ĠDon uts
Ġ17 0
ĠNor wegian
Ġzest y
Ġfrankfur ter
Ġscr amble
Ġomit ted
ĠFrit o
Ġcre pes
ĠSnow ball
ĠTr uff
Ġmango es
ĠLingu ini
uf chatel
ĠMade ira
ĠChar l
Ġmot ion
ĠBus y
Ġcour se
Ġscra ps
gran ulated
ĠComplet ely
ĠFriend ship
ffe ec
rat en
Ġpic nic
Ġgren adine
ĠFle isch
I da
M y
R o
W e
Y ield
h om
n am
t T
u es
u erb
on z
on uts
ou d
ĠC ast
Ġd ef
ĠS an
ĠB ak
is quick
Ġh ang
us illi
all ions
Ġbak es
Ġsh aker
Ġth ink
Ġat t
th at
ĠR anger
ie ved
ack er
col ator
ĠF ig
Ġ6 4
ĠL in
ink s
Ġcoc onuts
ĠH azel
Ġro w
Ġcl aw
Ġex ten
Ġtender ized
Ġpl ay
oil ed
ĠJ umb
Ġtab asco
ĠChe f
ĠN ice
ĠN ancy
ĠY ear
ĠSh oo
row root
Ġprepar ation
Ġaddition s
ext ra
Ġar rowroot
Ġ24 0
Ġpat ted
Ġfold ed
reser ving
ett a
for d
irt y
Ġcaramel ized
boil ing
ĠMar ble
pro cess
crumb led
atur ated
be an
Ġgu ests
rid e
Ġsqueez ing
ĠScr ambled
rec t
Ġcontin ually
Ġcre pe
tC over
imm ers
ĠPort uguese
ĠFast en
gi veness
ĠCarb on
ĠFool proof
Ġcrystall ized
ĠKu gel
ĠPreser ves
uerb raten
G ar
H e
a ire
b est
g all
p opped
u ra
Ġ )
Ġs ac
Ġs immers
ar ing
Ġp izzas
ut ab
Ġf ur
ĠC ola
Ġd italini
ĠS ally
ra Sweet
til age
ell y
Ġn orm
Ġ4 2
Ġgr ater
ĠCh ampagne
ur key
Ġbo k
ĠSt rip
op e
Ġcon d
Ġcl ings
ĠJ ean
Ġit alian
ĠK orean
Ġpre baked
ĠSa uerbraten
ĠPe anuts
ĠBread ed
Ġqu ality
ĠCho y
erm its
og i
Ġrec onstituted
ivid ual
ĠZ iti
ĠFruit y
ĠUn baked
Ġdi ppers
ĠLemon ade
ys tery
Ġbul b
Ġpop s
ĠCrush ed
Ġgrill ing
add ed
ĠCrust y
Ġfettuc cini
Ġplac es
ĠPl ant
Ġnect arines
Ġ23 6
Ġbri ght
Ġcryst al
Ġcounter top
Ġsho estring
ĠJan e
fir st
Ġscallop ed
ĠHa ppy
ĠVien na
ĠVerm icelli
ĠChew ies
Ġencl ose
ĠPlan ters
Ġfif th
ffeec ake
ĠFleisch mann
gall on
. '
F ly
V elveeta
b and
s alted
s ylv
t with
t rem
Ġo re
Ġp are
Ġp ile
Ġp aint
Ġm ic
il ian
en ted
ou da
ou ff
Ġf arm
Ġf ield
Ġf eel
Ġin verted
it er
Ġd ressed
Ġl ife
ĠB udd
ĠB ible
ge burger
is ette
ĠT ap
ill o
ĠA ss
Ġh ere
us c
ot o
uc ks
Ġat tract
ĠD ec
Ġse ar
ĠSt ring
ĠL ove
Ġheat proof
me asure
Ġcar tilage
sh ell
li ed
ĠBro th
ĠSal ami
ĠBl ender
Ġus es
rop roof
Ġacc om
Ġherb al
ĠUn der
ation al
Ġhor s
Ġcrock pot
ĠPat ch
oy a
Ġpinto s
ĠDor ito
allop ed
ĠGl ass
ĠTw enty
ĠBur rito
Ġbit ters
Ġlook ing
ĠDirt y
Ġrib bon
ĠSec ret
ĠHeal th
ĠTr ash
ĠPenn y
Ġsom ething
Ġcheck ing
Ġfe els
ĠSuc cess
Ġsat iny
ĠRoy al
Oe uvres
ĠStraw s
aur ant
Gl azed
sylv ania
Ġmic roproof
C ut
D el
H am
M on
S oup
e qual
e ither
f itting
l ast
l ers
l oaf
Ġ ess
Ġc acao
Ġb ibb
Ġm en
ut ing
on ath
al so
ic ama
ĠC ab
ĠS in
ĠS ize
Ġl augh
ĠP oup
ĠP ur
ĠM ystery
om an
Ġfor giveness
Ġ4 3
ĠW are
ĠW agon
ĠW inesap
ĠF e
Ġcar ne
em i
Ġk ahlua
Ġbag els
Ġbou quet
ĠWith out
Ġcomp le
ĠCo ffeecake
Ġgarnish ing
ĠNut raSweet
Ġelbow s
ĠSepar ately
Ġret ain
ĠWill i
ty pe
ĠHom estyle
Ġdust ing
ĠRot ini
ĠFrit tata
ĠMc Butter
Ġspir als
ĠVegg ies
In tosh
Ġappear ance
Ġreplace ment
Sw iss
Ġwhe el
arro ts
Ġprop er
Pepper idge
ĠGlor ified
Op tional
ĠPoup on
) (
2 50
4 50
D ough
H ot
I ts
P ro
e ter
i ole
n ie
o pping
s el
s qu
t b
Ġt il
Ġp u
Ġf iber
ic ilian
ĠC am
as to
ĠS us
ĠA le
ad es
et ic
th en
th ick
Ġr utab
ĠD ifferent
ĠW ell
ĠF ri
Ġro se
ies t
ĠWh ipping
Ġcut let
ul ous
li quid
Ġsof ter
ĠN illa
Ġcom pany
Ġpast rami
Ġdirec t
Ġgran ular
ĠFl ounder
ild ren
ĠSweet en
bl end
uns ifted
ĠRe qu
Ġdep ression
ĠMar z
Ġscoop ed
bro ken
unn y
ingersn ap
tC ook
unc overed
min utes
ĠGeor ge
ĠSouthw est
fir m
ĠLeftover s
ĠCav iar
Gr and
Sa usage
almon ds
Ġspl ash
ĠAnt ip
ĠAsp ic
ĠCarbon ara
onath an
4 25
5 5
A r
B Q
W ith
o am
t add
t until
x tail
Ġ ut
Ġ rain
Ġt arts
Ġb uck
Ġp ort
re ck
al i
ic le
ĠC ant
ĠC ilantro
Ġe ase
ĠB BQ
ĠP i
un g
ĠT ra
ĠT rout
Ġh ush
ĠM acaroon
ver ly
Ġst ars
Ġst opping
ell er
om a
ir es
et hod
ie v
ab ulous
Ġsp ear
ĠW reath
Ġre n
st ems
im in
ĠSp ry
ĠF abulous
ĠL ady
ars hmallow
ĠG ouda
Ġcrack lings
Ġk abobs
Ġsl ide
Ġrais ed
Ġtender ize
ĠE ither
ĠPe ars
Ġbr unch
Ġstiff en
ĠGre ens
ĠUn cooked
ĠCon fectioners
Ġmarin ating
ĠAl ways
Ġ14 0
Ġsurf aces
Ġros amarina
ĠStew ed
Ġfour th
ĠCl usters
ĠRe member
ĠRom an
ĠCrust less
Ġshort bread
ĠWater melon
Ġdamp en
ĠPenn sylvania
iod ized
Wh en
Ġsizz ling
Ġpet ite
ĠBarb ara
ĠGall iano
ĠQues ad
Ġmul ti
Ġhus ks
Ġcrook neck
Ġattract ive
Mon terey
ĠAntip asto
C auliflower
F l
F illed
b ably
d issolved
h a
m y
o ise
s eed
Ġ arm
Ġc rayfish
in om
Ġs and
Ġs we
an na
Ġb ass
Ġb uff
Ġb undles
Ġm ugs
Ġf ar
Ġf arina
it ter
ĠS icilian
Ġg in
Ġg ift
Ġpe g
ion eer
ĠP it
ĠP res
ĠT raditional
ĠA gain
ĠM ild
ĠM olly
Ġbe aut
ad os
ch anges
Ġsh oe
Ġco bs
ĠW ar
ĠL op
Ġcon es
ber t
ĠCool er
ey e
ĠCheese cakes
ĠSl ide
ĠTurn overs
Ġchest nut
roxim ate
Ġcro quettes
Ġhard ened
ĠFor est
ĠCo d
Ġhigh est
ĠSc ott
sc ar
ĠCon c
ĠCon densed
ĠCan apes
Ġme antime
Ġgarnish es
ĠDiv ine
for t
ĠFarm s
ĠApp roximately
ĠRe ally
od us
Ġtri p
sm ooth
Ġway s
Ġcurd le
ĠNe ufchatel
pec ted
ĠMan wich
Ġdecor ated
ĠSuper Moist
Ġperson al
Ġcav ities
tC ool
Ġsuit able
ĠJud y
Ġlift ing
Mo zzarella
ĠEsc ort
ĠEsc alloped
Ġjoin t
ĠArm our
cub ed
Ġconven tional
Ġess ence
inom oto
Ġbeaut if
C oconut
F resh
K ay
P ut
i ppy
j oin
l ong
m ini
n on
o ven
o hydrate
p our
t F
Ġ `
Ġ upper
in tz
Ġs ake
pp e
ro wn
ĠC rimp
Ġd isc
Ġg m
ĠB ow
ĠP al
ĠP ita
ĠP ioneer
ĠT er
Ġun less
Ġv ar
ĠM ain
ra ham
ver bs
Ġst reusel
ri a
Ġsh aping
Ġso ap
Ġgr am
ĠR av
Ġoil s
ĠCh ick
ĠW rapped
ans as
id s
Ġsm ell
ĠL and
ĠIn g
ood y
over leaf
ag o
ĠWh irl
Ġmay be
ĠO ur
ĠO scar
Ġset t
ĠV er
ift een
Ġen amel
ĠSh ip
Ġdirec tion
Ġacc um
ĠGr ass
bl ue
Ġper colator
ĠBrand y
wh en
ness ee
ĠFrost y
Ġwor th
Ġcas ings
ĠMar gar
ĠMar ie
Ġrese al
Ġlump ing
ĠHe art
Ġentire ly
ĠMc Intosh
Ġlin er
ĠArtich okes
ĠInd ividual
ĠMary land
Ġwil t
tP ut
tP lace
Ġvariet ies
ign on
ĠLi quid
Ġdisapp ear
Ġdab s
bb ie
usk i
tR emove
Ġaj inomoto
ĠSop a
ĠCast le
ĠTap ioca
ĠWilli ams
ĠLop ez
a ves
f ound
l ukewarm
r is
s i
s in
s epar
w ie
Ġc atch
Ġs its
Ġt im
Ġb igger
Ġb ias
Ġp ilaf
Ġm ir
Ġm id
en ing
Ġf ace
ĠC ry
Ġ3 20
ĠB urn
ĠB ird
ĠP ost
ĠT uck
ĠT ilt
Ġmin ts
Ġcho col
Ġwater y
Ġj icama
Ġth inned
ĠR em
ĠR ise
ĠR hod
Ġr uns
Ġwell s
Ġy ear
ĠH en
em ble
ag ie
Ġcl ause
ep tion
Ġ12 5
ĠE as
ump ti
ĠY ank
Ġcom ing
iscuit s
ĠButter ed
ĠButter fingers
iv ely
Ġspoon ed
Ġconfection er
mi um
Ġsepar ates
ser ve
ĠPeach y
ĠGl ory
Ġ36 5
Ġpull ed
ĠHerb s
Ġsw ordfish
Ġvari ous
ĠBon eless
Ġmicrow aved
cream y
Ġdr ummettes
Ġcod fish
Ġstay s
ĠEle phant
Ġstor ing
ĠBuff et
Ġris en
Pe anut
ĠHamburg ers
ĠCarb ohydrate
ĠFant astic
Ġstep s
Ġsuper fine
ĠSand ies
Ġperiod ically
Ġimpro ves
Cl ub
ĠContin ental
Ġdef at
ĠConc ord
umpti ous
ĠYank ee
. *
2 7
8 5
A n
c ool
c ass
p int
r ist
s ift
t at
t ub
Ġ ide
Ġs ieved
Ġb order
ar o
es ired
Ġp heasant
and s
Ġw reath
ic tor
gar lic
le ge
ĠC le
Ġ2 30
Ġa ge
Ġd oves
Ġd ull
ĠS ock
ĠP ul
ĠP enne
un greased
is o
ĠT reas
ol der
ra spberry
ad ina
om at
to asted
ĠR at
ĠD ian
ĠF eeds
Ġcup fuls
Ġbl ot
Ġbread ed
ĠH ermits
Ġcon e
Ġro pes
Ġapp et
let t
ĠSal ted
ĠK ir
ĠN ature
Ġz ip
Ġfilling s
Ġsc ones
ĠBr er
Ġgl ue
Ġcro ut
Ġcro iss
ud ges
ran ean
Ġinser ting
amp le
wh ipped
ĠRa ise
ering ues
ĠCl ams
Ġfo ams
ĠSk ew
ĠSm ash
Ġrot ate
add y
Ġpers ons
be ans
ĠMed iter
Ġdecor ations
Ġ28 0
ĠSnow balls
ug ula
tC ombine
Sp inach
Ġbutton s
Ġhull s
min ced
ĠPar fait
Ġmembran es
ĠRoma ine
Ġshow s
ĠQues o
ais y
ĠTen nessee
Ġdra ft
tSp read
ĠPim ento
ĠBour sin
Ġpurch ased
hom emade
Gar lic
Ġfur ther
ĠSin ful
ĠMarz etti
Ġswe eter
Ġreseal able
Ġdefat ted
ĠMediter ranean
3 6
A head
D ay
E ver
M a
M ushroom
b ottom
g ate
g ood
n ing
t minutes
w or
z e
Ġs ort
Ġs ince
ar ified
Ġp ig
Ġm a
Ġm ac
Ġm ove
il lets
or ice
Ġd utch
Ġl ye
oo per
ix ie
ĠB atch
Ġv ents
Ġh it
Ġh un
ĠM id
ĠM ove
ĠM ember
om on
ch we
ir ley
Ġgr atin
ĠD is
ĠD ab
Ġsp acing
ĠW inning
ĠF ire
if ts
ĠL akes
ĠL uncheon
Ġheat s
ĠH ens
tt he
ĠO h
isc ott
avor ites
ĠCut lets
Ġan g
ĠJ onathan
ĠBl ossom
Ġnot e
Ġen han
Ġdo ing
Ġ7 2
Ġbag el
Ġde velop
ĠSoup er
und le
ĠFl an
Ġpin wheels
Ġpat ting
pot e
ĠQuick ie
uns chwe
ĠCl oud
Ġ36 0
Ġsolid s
St ep
Ġwra ps
ĠCom pote
Th ese
Ġcre ole
ĠWa verly
ĠOli ves
Ġpersimmon s
ĠBra id
Ġdoll ops
ĠWon der
Ġcoll ards
ĠGo es
Ġtuck ing
tSp rinkle
Ġwid th
powder ed
Ġread s
ĠPep si
Ġthough ts
Col by
ĠKrisp ie
process ed
ĠRav ioli
wie back
Ġchocol ates
ĠRhod es
ĠRat at
ĠDian e
unschwe iger
C ar
G ran
J iffy
L o
M acaroni
b les
c t
c elery
d esired
g ah
l uski
m ashed
o uts
p ine
Ġs y
Ġs ound
Ġt ep
Ġo xtail
es a
Ġp le
Ġp ra
Ġp ass
Ġm il
at ini
Ġf an
Ġf aul
ic orice
Ġa ch
Ġe ver
Ġd om
Ġd isp
Ġd eeds
Ġd andelion
ĠS irloin
Ġg ifts
Ġl icorice
ĠB er
ĠP ig
ĠT emp
Ġun popped
ĠM arm
Ġor ien
ad illo
Ġfor get
ch es
ĠAdd itional
Ġn ose
Ġj igger
th irds
ack s
Ġco bbler
ĠD one
ĠW est
heat h
ĠSt ay
if y
ĠCook book
ĠL y
ĠG ri
Ġcar cass
Ġmeat ball
ĠSer rano
est ic
Ġhe arty
Ġset tle
ĠJ im
ĠV iv
ĠN og
ĠBe ar
ĠSh irley
ĠSet t
Ġbut cher
Ġbr ickle
ĠRo b
Ġyour self
ud el
Ġcann ot
Ġar ugula
Ġdri zz
ĠLe g
ĠQu ik
ĠPepper ed
Ġhash brown
Ġany time
bl ended
Ġel imin
Ġsur round
Ġallow ed
ĠUs ually
ĠCro utons
bo ard
ĠHe ap
ĠToast ies
Ġfinish ing
Ġpull ing
ĠNew man
Ġwra pping
Ġsw ir
Ġty pes
ĠPop overs
ĠMc Kay
Ġconten t
Ġdrink ing
met al
ĠMa id
Ġsnack s
ĠMound s
stir ring
ĠSch illing
pie ce
yn es
Ġve geburger
Bl ue
Ġsmok ing
ĠSub stitute
ĠSmok ies
Ġrip en
ĠLin da
ĠPlant ation
Ġaccom pan
Ġlaugh ter
arshmallow s
ĠQuesad illas
ictor ia
ĠRatat ouille
ĠMarm alade
Ġorien tal
C ake
D uncan
E agle
J udges
R eady
T omato
W al
W ill
b el
b oth
c a
c il
c ks
c arrots
f our
f igs
h old
k ed
p ork
s ch
t Makes
w ork
w reck
y cle
Ġt an
Ġt reat
Ġb irds
Ġp osition
il ee
il ity
re f
Ġf eta
Ġf acing
Ġin clude
as i
it ake
Ġa u
Ġd uty
Ġg ourmet
ĠP a
ĠP en
ĠP ockets
un ge
ĠT e
Ġv is
Ġv ert
ĠA corn
Ġh u
Ġh ope
Ġh older
us ually
ĠM arb
ot to
Ġpepper ed
Ġpepper on
om it
Ġmilk s
to f
to pping
Ġcan ister
Ġsh ot
Ġj al
Ġj oy
ĠR ig
nd a
ĠCh urch
ĠD aisy
Ġy ield
Ġ8 5
sh ortening
ĠWh oop
av ian
av ailable
Ġapp rox
Ġsl ash
Ġpap aya
ĠCream s
Ġref resh
oll o
Ġout do
ĠK ol
ĠN on
Ġfat back
Ġde ter
ĠPress ure
Ġpro bably
Ġkn ow
so da
Ġdi abetic
Ġ18 0
ĠCont adina
Ġunder side
ĠReser ving
cr ack
ann ie
ĠDish pan
ĠTw ists
ĠOver lap
ĠMar aschino
Ġburn t
Ġwork able
oe uvres
ĠAn ise
Ġmon terey
ĠNew burg
be ater
ĠPol ynes
erd e
ĠFran kfur
ĠMexic ali
ĠLea f
ĠSim ply
dep ends
fin ely
ĠPic c
ĠAnn ie
ĠSch ool
Ġho agie
ĠKid ney
Ġrequ ire
Ġsho epeg
Ġpet als
Ġdelic ate
strawber ries
ĠEsp resso
On ion
Ġdred ging
ĠThumb print
ĠChil ies
Ġpray er
ĠCab in
ĠPur itan
ĠShip wreck
Ġcrout on
Ġtep id
Ġfaul ts
ĠPolynes ian
B read
C amp
J er
W esson
c eed
d i
d one
f illed
i ans
l b
l ice
l ins
p ress
s emi
t ie
t hey
t butter
t omato
z os
Ġ ST
Ġc ajun
er os
Ġt a
Ġt raditional
Ġb arbecued
Ġb undle
ed ged
il es
il ding
Ġf ajitas
Ġw eather
sp ices
ĠS ole
ĠS ee
ĠS heath
ĠB or
Ġun melted
Ġmin estrone
ĠM em
ĠM ile
Ġfor th
Ġcan es
Ġsh i
Ġsh rink
ĠR ol
Ġr oughly
ĠD addy
ab les
mon ia
redien ts
Ġadd s
ĠF un
Ġy ields
Ġcrumb ling
ĠL unch
ĠL oin
ars e
ĠH ay
ard i
ub ilee
Ġcl overleaf
we ed
Ġex trem
Ġgra y
ec ially
). \
ĠCut out
Ġhe al
Ġrefriger ation
ĠJ ubilee
Ġsimmer ed
ĠPe ter
Ġpeel er
ĠN eeds
Ġgelat ins
Ġbag u
vapor ated
ĠSe as
Ġhigh er
Ġprocess ing
ĠJack s
ang ria
Ġpar fait
Ġfil ing
Ġcap ful
ĠSn ap
Ġgi ving
Ġgi ant
Ġburn s
mel t
ĠCrunch ies
atur es
ced ing
Ġcav iar
ĠCa vender
Ġbitter sweet
ĠStr udel
ĠLea ves
ĠLog s
ĠMillion aire
23 4
ĠWil ted
bb les
Ġtost ada
Ġhum an
Ġassem bled
mo der
tB eat
rif ice
wd ust
ĠSol omon
Ġincorpor ated
ĠRequ est
ĠSkew er
Ġang le
Ġhu ge
ĠWhoop ie
Jer emiah
Ġextrem ely
A nd
B S
B anana
M el
M edium
P illsbury
R e
S o
S pan
T ime
Z ucchini
f ill
g ento
g rease
j elly
k i
m ing
m arshmallows
n oc
p a
r d
r int
s ec
t el
t urn
t Serve
t Let
w ashed
Ġc ycle
in ation
Ġt ang
Ġt int
Ġt ears
Ġp ossum
Ġm ellow
Ġm ann
Ġm alt
Ġm ug
Ġf usilli
ing le
ĠC oney
ĠC ount
or thern
Ġsu pper
Ġsu gah
Ġd ucks
Ġg oo
Ġg ather
Ġg her
Ġg ingersnap
ĠB u
dd ess
Ġegg beater
Ġun processed
us band
ĠM ull
ĠM ah
ad s
Ġn og
Ġsh uck
Ġsh aken
Ġj igg
Ġgr ating
Ġpowder s
ĠR is
ast a
Ġr ame
ĠD ou
ĠD av
ĠD ixie
ur b
st art
ĠSt retch
inn y
amon ds
ĠL ucky
ers e
Ġoven s
ĠH on
Ġcl ay
Ġcl arified
art ment
Ġred uc
Ġpl an
ĠK osher
Ġpre ceding
ĠSa wdust
ĠV ictoria
ĠMelt away
og s
Ġsaute ing
ĠFl ute
ĠFill s
ivid ing
ĠMex i
ang les
ĠMin ced
ĠDi amond
ĠRa ised
Ġpul se
ĠMarshmallow s
ĠLay ers
ĠSm uck
ĠEn ough
Ġbit es
ĠFood s
mp athy
ĠEx odus
ĠScr umptious
Ġdecor ator
ĠPin wheel
Ġhow ever
unc ture
Ġmain tain
ĠSpr itz
Bro wn
ĠTwink ie
ĠEar ly
Ġstraw s
23 6
ĠPier ogi
Ġthumb print
ĠBo ats
Ġwatch ing
ĠGo ddess
Ġfriend s
Al so
ĠCav atini
Ġgoose berries
che ck
Ġbu ilding
Ġmatch stick
ĠMark et
Ġob tain
Ġrear ranging
ĠQ ue
Ġfarm er
ĠAss emble
Del icious
Grand ma
omat ic
Ġsy mpathy
ĠGri ff
Ġhashbrown s
ref riger
Camp bell
Ġmann er
" (
6 4
B isquick
E R
L ike
O f
P armesan
c ur
f ts
f ull
g ie
h i
n eath
p lace
t d
t est
t urkey
u um
v irgin
y ss
Ġc amp
er o
Ġb agg
Ġp igs
re au
Ġf owl
Ġf ore
pp in
ĠC our
Ġ3 3
Ġ3 9
Ġd onut
Ġd iffer
ĠS atur
ĠS angria
he im
he avy
ĠB ol
ĠB iscott
ĠP ri
ĠP aste
ĠP ipe
ĠP aint
ĠP ollo
ĠT BS
ĠA na
ĠM at
ĠM ich
ot e
ot al
Ġbe ar
Ġsh ut
ĠR ipe
Ġwh irl
ĠCh ildren
ĠD an
ĠW yl
orn s
ien er
Ġlar g
igh ter
st ead
Ġju d
ĠI i
Ġsm ash
Ġsm ile
ĠF air
ĠF ont
ain ing
ĠL eek
ĠL yn
ĠH air
ĠH ickory
ĠPre acher
ĠJ ul
Ġit em
ĠK athy
ĠK luski
ĠV an
ĠV ersion
ĠChill ed
ĠSh ut
pe aches
ĠRef ill
Ġcol ada
ĠSl ip
Ġturn er
Ġpo pping
Ġam monia
Ġdeep ly
Ġdi amonds
ĠAl most
ĠKar en
Ġper ch
ĠBrand ied
Ġuns ul
ĠFarm er
Ġunder neath
Ġfoam ing
ĠDe bbie
ĠRomano ff
ĠCol lege
may be
obs ters
ond ra
ĠJo an
ĠSnick er
ĠTr iscuits
imm ies
Ġimp rint
Ġstor es
To pped
Cho pped
Ġ29 0
ĠDr um
Ġplump ed
Ġtong ue
Ġwhe els
Ġsquir rel
Ġflo ating
ĠChest nut
Ġha ving
Ex cellent
ĠTruff les
Ġsac rifice
ouff er
Ġcomple ted
Ġrain bow
Ġbuck et
ĠCle ar
Gran ny
Ġdom estic
ĠViv a
Wal nut
Ġvis ible
Ġpepperon cini
ĠRig atoni
ĠST I
Ġshi itake
Ġshuck ed
ĠTBS P
ĠAna heim
* *
C abbage
F ail
G re
M iracle
b acon
e qu
f ruit
g olden
g raham
h and
h ere
o ff
p ea
s auce
t rim
t Ch
t In
v ice
w ax
Ġc yl
in th
Ġ1 75
Ġt re
Ġt umb
Ġt ree
es ted
Ġm ass
Ġm oon
Ġm ex
en cy
ou illon
Ġto es
Ġin ner
Ġd raw
ĠS ur
Ġg rained
Ġl obsters
ĠB et
ĠB ab
ĠP izz
ĠT oo
ĠT im
ĠT bl
ĠA dobo
ĠM as
ĠM ad
ĠM ayer
ĠM ethod
ts t
Ġn ap
Ġth ings
Ġle ak
ĠR ome
Ġwh o
Ġtom at
ĠD om
ĠD onna
ab ama
ĠW he
igh s
Ġfro th
ĠSt ouffer
ĠF eather
inn ers
ĠH usband
ĠG er
ĠG ame
ĠG oya
av el
Ġsl ip
Ġex pected
Ġsk illets
udd ed
Ġcrush ing
ec ks
ent ine
ĠE ll
ĠJ une
ĠK iev
Ġbottom ed
ĠV erde
Ġdressing s
ĠTh ing
ĠAnd es
ens ive
ce an
Ġtur tle
Ġcol by
Ġcolor ful
Ġcur ing
Ġtw elve
co arse
ĠFor ce
ĠCo int
ĠPeanut ty
ĠDel ite
ĠUn fold
ĠCoc o
Ġconcentr ates
Ġfil m
Ġcor rect
Ġhom estyle
Ch rist
Ġtin ted
ĠAn isette
ĠSeaf oam
ĠIc ed
ĠDill ed
ĠMu eller
Ġcit rus
ĠSwirl s
Ġpush ing
ĠGe b
ho pper
ĠHel per
Ġwait ing
Ġbra unschweiger
Ġsizz les
Ġfriend ship
Ġchoriz os
con densed
ais er
Ġprevi ously
arro t
ĠEsp ecially
ĠDep ending
Ġdred ged
Ġher ring
Ġpen cil
ĠAlas ka
ĠWel sh
Ġselec tion
Ro asted
nam ents
ĠJumb les
He art
Ġrutab aga
intz es
ĠIng redients
ĠCastle berry
ĠKir sch
Ġhun gry
Ġoxtail s
ĠPicc ata
Ġbagu ette
moder ate
Span ish
noc chi
ĠGriff in
ĠFont ina
ĠCoint reau
) :
C ooked
C arrot
F ruit
H our
M eat
M ore
M ores
O ri
R ed
R eser
S c
T op
T hey
c andied
g ly
k o
q t
r ated
s ts
s immer
s ame
s ome
t for
t mix
t flour
v a
v ard
z le
Ġc ame
Ġc alls
Ġc ause
in clude
Ġb is
es qu
Ġm acaroon
re ls
al up
al ready
Ġf rag
Ġf avorites
Ġch ang
sp aper
ro z
ĠC atsup
ak a
Ġ2 20
Ġsu gg
Ġ3 4
Ġd ividing
ĠS age
ĠS andy
ĠS ara
ĠS ometimes
Ġg um
ĠB ir
ĠB art
ĠB ul
ĠB ark
ĠB order
ac uum
ĠP one
Ġfl am
ow s
ĠT ass
Ġche ap
Ġun used
Ġv ented
ĠA f
Ġh is
Ġh im
Ġh are
Ġh uckle
ĠM en
ch op
Ġn orthern
Ġj er
Ġj immies
th day
ĠR onz
mon d
Ġsp eck
ĠW ee
ien ne
ip illas
st al
ĠSp ir
ĠF an
ĠF ric
if ic
ĠL ong
Ġbl u
Ġbl ades
ach el
ĠH as
Ġcl usters
na pp
Ġal cohol
Ġapp ly
ide o
Ġham mer
tt i
ĠE m
ĠBrown ed
ĠBl oody
ĠV ick
Ġjell os
Ġtab lets
abb ages
ĠY u
ĠY ears
ens e
ĠBe g
ĠRef resh
Ġevapor ate
Ġdissol ving
ĠGra pes
Ġaltern ative
ĠCorn starch
ĠRo bert
ĠOn ly
ĠAl pine
ĠAl abama
Ġsubstit uting
Ġop ened
app rox
ĠSk ins
od ge
Ġwor d
ĠScallop ini
Ġrot el
vil le
ĠCro ss
Ġhold ing
Ch erry
ĠMar vel
Ġoverb rown
ĠAlmond ine
ĠCub an
Ġcre m
ug les
hydr ates
ĠHar vard
Ġglut en
ĠSho ppe
ĠOmelet te
Ġsho vel
pie ces
Ġmot or
Ġsquir rels
ĠCor inth
Ġdec rease
ĠChest nuts
hal ves
hal ved
Ġcarbo hydrate
gan ic
ĠSens ational
Ġpral ines
ĠStrip ed
ĠSus an
itter lings
ĠBor ax
ĠQue en
ĠSatur day
ĠBiscott i
ĠSTI R
Ġcyl inder
Christ mas
Reser ve
Ġhuckle berries
ĠCorinth ians
! \
3 3
C over
D ip
E ng
G H
b ul
b ouillon
c ayenne
c orb
c etta
d el
d iscard
f ire
g ener
i ous
j ack
j ect
l ava
m un
r are
t ied
v ot
w ine
y uns
in ted
Ġ1 12
Ġt ried
Ġt anger
Ġp i
at ively
and ar
Ġch urch
ĠC oll
ĠC umin
or itos
it t
Ġd iff
ĠS li
ĠB ott
ĠP osition
ĠP ride
ill er
ill os
us ter
ĠM outh
uc he
Ġst ops
ad as
Ġbak er
Ġbak ery
up er
ure en
ĠR es
ĠR ight
ĠCh ange
ĠCh alup
ĠD ie
ĠD iced
ĠW ieners
ĠF ield
ĠL ooks
ĠH olly
ĠG arb
ĠG ive
ĠG oose
ber ts
ard ee
Ġcl umps
Ġas corb
Ġchil is
Ġex c
ĠE ast
ĠK ay
ĠBl an
ĠN ine
ĠN avy
Ġsoft ly
ĠU gly
Ġsc ored
ĠBoil ing
ĠTurn ip
Ġrest aurant
ĠGra p
Ġacc ent
Ġaccording ly
emper ature
Ġcro wn
ary l
urt les
ran berry
ran ged
ĠToss ed
bl ing
lit ons
oy al
ĠPro verbs
Ġunder bake
Ġdon uts
Ġind ic
Ġpul ver
af e
Ġtri ple
ank et
ect ar
irl s
ĠNor th
Ġsw ell
Ġgu ava
ĠTri angles
Ġgarban zos
ĠEx change
ĠEx changes
bro th
Ġrich er
ĠHun ter
ĠLa ura
ĠTender ize
ĠSar gento
ls berg
ĠDiabetic s
Ġrim s
Ġdis join
Ġcit ric
Ġsor row
Ġimp orted
ĠHal ibut
ĠLi qu
ĠLen tils
Ġsim ple
ĠFil et
23 8
Ġsizz le
Ġgroup s
Ġcrunch ed
Ġdra fts
hard t
ember t
ĠMicro cook
Ġcarbo hydrates
Ġpral ine
Ġbutterf lied
quarter ed
Ġatt ached
ĠHazel nut
Ġnorm ally
Ġpu ppies
ĠCam embert
Ġren der
Ġtrip led
Ġbeautif ully
ĠGrass hopper
ĠPul se
ze ch
Ġma garine
Ġenhan cer
Ġdrizz led
ĠPen uche
Ġvert ically
ĠMarb led
Ġoutdo or
Ġtang y
ĠRis otto
Ġrame kins
ĠWyl er
Ġlarg est
ĠLyn n
Gre en
Ġbis que
esqu ite
ĠBart lett
ĠRonz oni
Eng lish
yuns aturated
Ġascorb ic
* .
A ng
H oney
L a
M c
R hubarb
S m
W or
b ac
b reak
c om
d ouble
e ven
h att
i os
k an
k oman
l aze
p udding
r ican
s ure
t all
t milk
t pan
v els
Ġc er
Ġc at
Ġc row
Ġc abbages
an e
Ġp yrex
Ġm ang
Ġm asa
Ġf le
Ġf ifteen
Ġch iffon
le ftover
ro t
ĠC O
am ata
Ġ3 1
Ġd unk
ĠS av
ĠS ide
Ġl uck
ĠB ern
ĠB ugles
ĠP ine
ĠP ops
ĠT urtles
Ġun thawed
Ġh ar
Ġh ook
Ġh rs
ĠM att
ĠM achine
ĠM ike
ot a
ra ft
ch unks
Ġbro ok
ts h
ri k
Ġn est
Ġn ecks
Ġth irty
Ġgr it
ĠCh im
ĠD apple
ĠW ondra
Ġre member
qu ant
ĠSt ella
Ġsm iles
res ist
Ġcup ful
ap ricot
ĠL ump
ĠL uck
ĠH I
ĠH ow
ĠG or
ĠWh o
ĠWh iskey
ott e
Ġk ey
Ġk rispies
Ġsk irt
li z
ĠBro ken
ĠE liz
Ġhe aped
Ġdough y
ooth pick
ess el
ĠTh ick
ĠTh read
Ġpeel ings
ĠN ectar
Ġpast ries
ĠSh er
Ġsc um
ĠButter y
ich yss
Ġeven ing
ĠTurn ips
Ġcur ds
ful ness
fl at
Ġar ranged
Ġmeal y
ĠQu ail
ĠMeat less
az ing
Ġpar ing
ĠBlue berries
ĠOr anges
Ġwash ing
ĠDelight ful
od les
orb et
ĠSn ip
ĠCro wn
Ġlingu ica
Ġpreven ts
Ġent ree
ĠRub y
istach ios
Ġshort cake
Ġnew spaper
abet h
Ġinstruc ted
ĠSec ond
ĠHor seradish
Ġbas kets
Ġcontinu es
Ġrim med
tC ut
ĠRich es
ĠBou illon
ĠHo ppin
ĠLoos ely
sk inned
ik koman
Ġchar ity
ĠPar ad
pr ints
ĠYork shire
ĠTart ar
Al mond
con om
Ġquant ities
ĠBus ter
ĠBoy ardee
Ġseashell s
ĠSna pper
Ġbutterf ly
ĠCharl otte
Ġclaw s
Ġexten ding
Ġore o
ĠUnder wood
ĠScott ish
ĠSopa ipillas
ĠEas tern
ĠTreas ure
Ġdiffer ence
Ġtomat illos
ĠTass ies
ĠWee ks
napp s
ĠBeg inning
ĠMarvel ous
vot ion
andar ins
Ġdisjoin ted
hatt an
Ġmang os
ichyss oise
1 15
B y
B reak
D ate
H eal
M M
P h
P ol
b let
b etter
g u
g ent
k er
l ine
m uff
m ati
o ks
p arsley
s olid
t ake
t art
t water
v inegar
x ible
Ġ ,
Ġ __
Ġc app
Ġt row
Ġt emp
Ġt ureen
Ġb ook
Ġp its
Ġp istachios
Ġm iso
on ions
Ġf r
Ġf aster
Ġf estive
Ġw eak
Ġw edged
ic ult
pp a
Ġin tern
ro d
ro asted
ĠC ayenne
it age
ĠS it
ĠS izz
Ġl ist
Ġpe bbles
oo m
ĠB ass
ac y
ac he
ĠP oultry
is a
Ġ( #
Ġ( .
Ġun heated
Ġv iole
ĠM inn
ĠM oon
ĠM aw
ĠM unch
ĠM ist
Ġfor ce
ch unk
Ġn avel
et y
Ġgr and
ĠR h
ĠCh ive
ĠCh ik
Ġr ange
Ġpan cetta
Ġco ins
ĠD raw
Ġsp aring
ĠW at
ĠW ing
st ew
st acks
Ġbo ys
ap ol
ĠG al
Ġser rated
Ġro asts
ub stitute
ĠWh at
Ġal fredo
Ġred ness
os able
ĠBeat ing
ĠBro oks
ĠWor ks
isc ons
Ġblack ened
est le
allow een
Ġli kes
ĠK e
ĠK r
Ġpre made
Ġpre mium
ĠSa usages
ĠV en
ĠTh irty
ĠMel on
ĠPie ces
ĠN eed
Ġyellow s
Ġfruit cake
ĠButter h
ĠBr ick
ĠJell ied
Ġpo inted
Ġtw enty
Ġar ranging
ĠLe vel
Ġpin a
ĠSauce pan
Ġtow ards
Ġdark en
ĠCan e
ĠCan ola
ĠEgg less
ĠAl ice
ĠLemon y
Ġremo val
Ġevery one
amp en
ici er
ĠPat io
Ġpreser ve
ĠPro ven
ma x
fry ing
ĠCl ove
ĠGood ies
cr unchy
iche ver
ĠSm oke
Ġwor ry
ĠGrand pa
Ch ip
Ġburn ed
ĠCal z
Ġdiscard ed
ĠBar ely
Ġshort est
ĠRea Lime
ĠMan hattan
Ġvari ation
ĠSar ah
Ġtest ing
Ġcav atelli
ĠBra ise
ĠPo ached
ĠTost ada
Ġmarble ize
ĠFlavor ed
Ġprod uce
Ġpouch es
rad ition
ĠCap tain
Wh ite
Ġbra ise
Ġve in
Bl end
Ġmicro safe
Ġplant ains
Ġscra per
Ġjoin ts
ĠJar lsberg
Ġpol yunsaturated
Ġfix ed
ĠDep ression
Ġassem ble
ĠAlas kan
We ight
ĠBak lava
Ġcond iments
sel ves
seed less
ĠMild red
tF old
Ġaccum ulated
ĠBurn t
Ġwreath s
Ġelimin ate
Ġswir ling
Ġgoo ey
ĠBol ts
ĠTbl s
ĠGeb hardt
ĠBir thday
ĠFric ass
Ġdiff icult
oyal ty
Ġcer amic
ĠEliz abeth
Ġsparing ly
iscons in
! !)
8 0
C o
C rab
G rease
G reek
P et
S al
S to
S outh
b efore
c ino
d ip
i pper
j ar
m erse
n i
p kg
s ka
s lice
u i
w ash
w ide
z a
Ġ iodized
Ġc ert
Ġs oul
Ġs aturated
er ts
Ġb ind
ar on
Ġm atter
Ġm andarins
at wurst
re ased
Ġw at
ic er
as ic
am eat
Ġa dobo
Ġe m
Ġd id
Ġd ove
Ġd ew
ĠS or
ĠS elf
ĠS uch
ĠS ister
ĠS ilver
Ġl ines
Ġl asts
Ġl ighter
Ġl oyalty
he art
ĠB it
ac ity
ĠP ac
un der
ĠT ree
ĠT ail
ĠT int
utter ed
ĠA w
ol ph
Ġh unk
Ġh unks
us ual
ĠM r
ĠM er
ĠM allow
ĠM ango
ĠM eringues
Ġor ganic
ra ps
uc cino
Ġst ud
ch ili
ch io
ir i
Ġsa ys
ri an
ri ate
ve y
ĠR ind
ĠR iver
oup e
Ġcook book
Ġr amen
Ġco ke
Ġsp ot
ĠW isconsin
Ġre ason
ef f
st one
st iff
im al
im ble
ĠI ts
Ġsour ed
op ened
ĠH ol
ĠH urry
Ġmel ons
Ġcon f
oon e
ĠG irl
Ġcar ving
em ima
sh rimp
Ġapp rop
ĠWor ches
Ġsyrup s
ĠE r
ĠE th
ĠE ight
Ġrefriger ating
ĠJ ess
ĠJ emima
Ġsweet ness
ĠK im
ĠK iller
Ġbox ed
ess erts
Ġen sure
Ġcom mon
ĠRef ried
Ġtart ness
Ġde votion
Ġacc ept
ĠRed ford
Ġoccasion s
Ġpo or
ĠAr roz
Ġtub ular
ĠCorn flake
ĠCar ve
oss ib
Ġunb uttered
ĠSweet ened
ĠCon nie
so ak
Ġchi ve
Ġdi jon
Ġund issolved
Ġ18 5
ĠAll spice
can ola
Ġexcess ive
Ġallow s
ĠSup erb
app a
Ġcap acity
Ġspring y
ĠChrist ian
ĠHe arts
enn y
Ġstack ing
ĠAn ne
ĠPl ate
ĠPl atter
Ġrepeat ing
tin to
ielb asi
Ġbur st
uss el
ĠJam a
season ing
ĠShort cut
Ġcantaloup es
rit ive
Ġcre ative
ĠInd iana
Ġdis color
Ġres p
Ġreheat ing
ĠDoll ies
Ġfall ing
Ġadv ice
ors ch
Di et
ĠRellen o
ĠWil der
ĠEd ition
ĠGen oa
Ġunmold ing
ĠAd olph
ĠBonn ie
uckey e
Ġshow ing
Ġtost ados
ĠSuc aryl
ĠDiet etic
Ġhum or
oot ball
Ġrip ened
follow s
ĠDuck ling
ĠJu icy
sal ad
cohol ic
ĠBel gian
ĠCharl ie
Ġpicnic s
anna h
Ġbuff et
Ġtim ing
Ġmir litons
Ġmid way
Ġcroiss ants
ĠTemp t
Ġaccompan iment
Ġtumb ler
Ġmex ican
ĠDom ino
Ġoverbrown ing
gener ous
ĠBott le
Ġexc eption
Ang el
Ġfle xible
ĠHI GH
ĠParad ise
Pol ish
Ġcert ain
Ġapprop riate
A m
B acon
C ranberry
D ouble
H ershey
K raft
L ight
M ustard
P l
S n
T ry
T ex
U s
b aby
c omb
c top
d ash
e vaporated
f el
f ield
f reeze
g onz
n oon
n itz
p inch
p aper
s eeds
t together
t otal
Ġ ir
Ġc ure
Ġt ell
Ġb ad
Ġp wd
Ġm om
re y
al oupe
ou g
Ġw agon
ic chio
Ġto t
le aves
ĠC e
ĠC rinkle
ak o
Ġ2 70
Ġ3 10
Ġd oritos
ĠS zech
Ġg row
Ġg ath
Ġl ost
he m
ĠB uckle
ĠB agg
ĠP le
ĠP urpose
Ġfl an
Ġfl ow
is f
ĠT ip
Ġ( \
Ġun toasted
Ġv ersion
Ġv acuum
Ġv essel
ĠA tt
ol ks
Ġh r
Ġh og
ĠM im
ot le
all a
Ġst ate
ell ed
om atoes
om ach
ch ips
Ġcr ink
ri ft
Ġn ame
red uced
Ġmar bles
Ġover ripe
ĠR oul
ast ry
ĠCh ic
Ġr ubb
ĠD ates
ĠD airy
ĠW anda
ĠW raps
orn a
ingredien ts
Ġbo at
Ġse ep
Ġse lect
id ed
ĠI re
ĠF u
ĠF eed
ĠL ess
ĠL ife
ĠL orna
Ġoven ware
Ġsmall est
ĠH ank
ĠH alloween
ĠG ul
Ġser vice
ott on
Ġlight en
Ġk iw
ore gano
Ġ15 5
end y
ĠO V
ĠO cean
Ġshe ars
oll en
ĠPre tty
ĠK al
ĠK ix
ĠK ansas
ĠK ikkoman
ĠBl ot
ĠBl anket
ĠV e
ĠV ichyssoise
Ġsmooth ing
oni al
ĠTh om
ĠTh ai
ĠN one
ĠN anny
Ġball er
ĠSh arp
Ġcro wns
ĠCar away
ĠCar ib
Ġcrisp ness
Ġcomp l
ĠTo kay
Ġam ber
Ġthem selves
Ġpro v
Ġnon metal
ĠSqu are
ĠSweet heart
ĠFro g
ĠCon s
bl ers
ĠMexican a
ĠPound s
wh atever
ĠDream s
Ġpreser ved
Ġsn ip
tc ream
app iness
cr usts
ĠDump ling
cook ie
Ġreturn s
ĠChr is
ĠSn aps
ĠKra zy
Ch ow
Ġwork ed
Ġsoften s
ĠVal entine
may onnaise
ĠCom fort
ĠAs ian
pec an
pre heated
ĠNest les
Ġmound ing
24 0
ĠSun flower
Ġlin ing
ĠZest a
ĠFran gel
eck er
Ġstro ganoff
ĠHea ven
Ġbow s
ĠSch nitz
min ute
Ġrequ ires
ĠScotch er
thin ly
Ġslee ves
ĠLiver s
ĠHold ing
Sh rimp
Sw ans
ĠGall on
Ġsat isf
Ġhouse hold
rif ic
Un cle
Che ck
ĠWel ch
ĠTruff le
Ġnorm al
equal s
squ eeze
Ġut ility
separ ate
wor th
Ġsound s
Ġmil der
Ġjal ape
eros ene
Ġheal th
ĠCount y
Ġgher kins
ĠMeltaway s
ĠSmuck er
tCh ill
ĠSur round
ĠAf rican
ĠGrap efruit
Ġpulver ized
Mc Cormick
bac ore
Break fast
Ġtrow el
Ġintern al
apol itan
Ġaccept able
ctop us
gonz ola
ĠHank y
ĠCarib bean
1 25
A T
C andy
D ried
D utch
F udge
G erman
M rs
O at
P an
S k
b owl
b ig
l or
m ustard
m arin
n et
o or
p ensive
r ick
r inse
s eal
s ometimes
t orn
t akes
t aco
t Serves
t well
t eggs
v ie
w ards
y d
y ond
Ġc u
in os
Ġs ch
er oll
Ġt ies
Ġt asting
Ġt ends
Ġo l
Ġb isquick
es ide
Ġp air
Ġm illet
al most
Ġf its
sp ir
sp berries
sp lit
ro thy
ĠC and
ĠC ass
ĠC ould
Ġ2 32
as ilk
am ook
it am
Ġe agle
Ġd ream
Ġd inners
ĠB alsamic
ĠB ologna
ĠB orsch
ĠP il
ĠP om
ĠP udd
ĠP heasant
gg ie
un thawed
ĠT ill
ĠT unnel
ese ed
ĠA cini
ol ive
Ġbe yond
ra ge
Ġsa y
Ġsh ine
gh ul
ĠR are
ĠCh amp
ĠD rink
ĠD ann
ĠD ampen
ĠD oone
ab i
Ġsp in
Ġsp aces
ĠW inks
ĠW endy
ĠSp ace
ĠSp arkling
ĠSt ores
ĠF all
Ġpot s
pple ment
ĠL ar
ĠL asts
ĠIn side
ĠIn stead
ĠG one
ĠG erm
ĠSer ved
Ġra d
Ġk ielbasi
Ġk erosene
uff les
ul s
udd y
Ġfir mer
ĠO ccasion
ĠE ve
ats u
Ġhe ight
ĠJ erry
ĠK at
ĠK it
ĠV ari
ĠMel ted
ĠN ap
ĠN ame
ĠN ibb
Ġgraham s
Ġz wieback
Ġliqu ified
Ġqu ah
Ġmo ving
ich ang
Ġthaw ing
ĠRed uced
Ġbr ought
ĠDo rothy
ĠAr k
Ġtw isted
Ġsec uring
co b
Ġunb l
Ġmicrowave able
Ġlong ways
ĠSc rew
ĠZ ippy
Ġdark er
ĠMex ico
anch ed
ang el
Ġmold ed
nut ritive
wh ites
Ġchop lets
Ġsur p
ĠPat ty
Ġpit as
Ġbul gar
ĠAng ine
ĠFresh ly
tc r
ĠCl a
Ġic y
Ġunder beat
burg ers
ĠGl ad
Ġgi blet
ĠCrust ed
ĠMar ia
ĠCol onial
roll ed
ĠNor m
St rawber
ĠIr on
Ġbecom ing
Le viticus
Ġbur ghul
ĠWater gate
ĠEx tract
uss et
ĠPol ly
ĠFran c
ĠAm ount
ĠIsland s
Ġ19 75
Ġres ift
ĠMa e
Ġtwist ing
ĠHar vey
ĠSnickerd oodle
sk ins
ik i
ik o
brown ed
Ġins ist
Ġpri me
ĠSch napps
uv re
ĠJew el
ĠAv oid
Ra spberry
Ġstretch ing
-- -
Sw edish
ĠGall o
lon ger
tD rain
Ġfig ure
Ġimpro ve
Ġuniform ly
ĠEvery day
Ġpres ifted
Ġore os
ĠBudd y
ĠDec ad
ĠDec rease
Ġut ens
ĠCant on
ĠCant aloupe
Ġvar ies
ĠMargar ita
Ġide a
Ġpra ise
Ġdisp osable
Ġholder s
ĠHay stacks
Mel t
ĠPri me
ĠBet ween
ĠGer ber
Ġfrag rant
Ġchang ing
ĠGarb age
ĠGor gonzola
muff in
ĠWat kins
ĠFricass ee
ĠWorches tershire
ossib ly
Ġtot ally
ĠFrangel ico
ĠSchnitz el
ĠScotcher oos
ĠNibb les
9 0
B r
D e
D ill
E ner
F our
F ashion
H eat
I ce
K eep
K aro
L arge
O ut
P ie
P eek
R agu
T urkey
\ )
b ott
b reasts
c enter
f illing
f aced
i yaki
l ittle
l tra
m ie
m icrowave
p ure
r al
r insed
s yrup
s lices
t is
t ist
t top
t pepper
t Blend
v able
z on
Ġc a
in to
Ġs ense
er ie
Ġt affy
Ġb and
es ome
Ġp h
Ġm ist
Ġm iracle
il ed
il ize
en o
al coholic
ou le
Ġch ic
Ġch ard
Ġch itterlings
Ġw ar
Ġw ip
ro ger
ĠC omb
or a
or bs
el ine
Ġsu pp
Ġsu nda
Ġ3 40
ĠS en
ĠS ieve
Ġg ly
Ġl ifted
ĠB unch
ĠB uy
ĠP uffy
ĠP urple
ĠP igs
ow ing
ĠT id
ĠT ightly
ĠT andy
ĠT iny
Ġbutter cream
ick y
Ġche esy
Ġun fold
ĠA c
ĠM iddle
ĠM usc
ot ash
Ġst udded
ad just
ch illed
to il
Ġsh aring
wn y
Ġso uth
Ġgr ass
ĠR ag
Ġco al
ĠD ress
ĠD ecor
Ġsp ade
Ġsp ong
Ġsp icier
ĠW inner
ĠW iener
Ġre pl
st rips
qu iri
ĠSt re
ĠSt ate
ĠSt eep
ĠSt ud
id ence
ĠF ork
inn ish
ain ts
edi ble
ĠL il
ĠL isa
Ġ5 50
Ġcon ch
ĠIn c
ĠG nocchi
Ġ9 6
ber al
ag ination
Ġcl ass
na ise
os ed
Ġsl oppy
ĠO ff
ĠO mit
ent a
Ġan isette
Ġpour able
Ġsqu id
ĠK ring
Ġpre cook
ĠV in
Ġflavor ful
oc i
oc oa
oc atelli
ĠN ell
ĠN ico
Ġsoy beans
Ġpast y
ĠBe e
ĠSh an
ĠSh ish
Ġlon ghorn
Ġsc otch
ĠSl ash
reez es
Ġmo cha
Ġcle ans
ich es
se veral
Ġbr atwurst
Ġclean ing
ton s
Ġthr oughly
Ġsec rets
ext ured
ck rich
ĠLe an
ĠFl aky
Ġ24 8
Ġlast ly
ig an
Ġkn ot
ĠJack ie
ĠMex ene
Ġme et
Ġseal s
Ġseal able
ĠAl o
Ġback s
Ġback bone
Ġcrock ery
Ġop tion
Ġcor es
Ġbul bs
tc ook
Ġstove top
ph abet
Ġind en
od y
Ġabs orbs
Ġrot elli
ai quiri
roll s
ĠPuff ed
ond ant
ĠIr resist
Ġshort ly
butter milk
ĠAp art
Ġcombin ations
ĠNe apolitan
Ġ23 5
ĠJam es
Ġdist urb
ĠFran co
ĠInd ia
Ġres id
ĠBas ket
ĠPap rik
ĠPo ach
Ġpreheat ing
Ġdoll ar
Fro zen
ĠBac ardi
ĠBlond ies
Ġpeek ing
Wh ip
ĠWil t
ĠHalf way
ĠBag els
Ġgroup er
Ġtry ing
fa its
Ġinc reased
Sh ould
Ġacid ity
Ġsmok er
Ġsquir ts
Ġbu ild
ĠComplet e
Ġpol ish
Ġaj ar
ĠOle o
ĠPep e
ĠColor ful
ĠColor ado
ĠPim iento
ĠHer o
Ġbud get
Ġ38 0
ĠSna ppy
ĠRest aurant
Ġselec ted
tT op
Ġcrystal ized
Ġtil ting
ĠWell ington
ĠCry stal
Ġappet it
Ġrefresh ing
Ġobtain ed
ĠDrum sticks
Ġrender ed
ĠChim ichang
Sto ve
Ġem uls
ĠAw esome
ĠEth el
Ġresp ect
ĠWilder ness
Ġgath ering
ĠAtt ach
Ġrubb ing
ĠTill amook
ĠRare bit
Ġrad icchio
ĠArk ansas
Ġsurp rise
Ener gy
Ġchic ory
Ġgly cer
Ġspong y
ĠNico ise
ĠIrresist ible
) )
2 00
2 60
B etter
C risp
D rain
H un
K ids
L L
M arin
N ew
O ver
P asta
R om
R oll
S auce
T ast
a ving
b ies
b asil
c ar
c andy
d in
e lectric
g a
g ro
g ies
h ave
l asic
m ine
m ings
m outh
n ese
p t
t large
t chicken
t baking
u u
u ly
w atch
z ucchini
Ġc ents
Ġc ooper
in c
in avian
Ġs el
er a
er esa
Ġt ent
Ġt ilt
Ġb ic
Ġb le
Ġb ands
Ġp ate
re ll
on y
on to
and ine
and inavian
ou let
Ġand ouille
Ġf ron
Ġto aster
le br
ĠC app
ĠC asa
ĠC afe
ak or
it ed
Ġsu c
Ġ3 7
Ġd ries
ĠS i
ĠS we
Ġg au
ĠB omb
ĠB ap
ĠB ud
ĠB erries
ĠB eck
ĠP ra
ĠP reserve
ĠP ico
un flavored
is er
ĠT erry
ĠT ahini
ĠT emperature
Ġv elve
ĠA nch
ĠA riz
Ġh urry
ĠM oo
ĠM orn
ĠM art
ĠM ason
ot es
ver s
all ic
all ion
Ġst ocks
Ġst omach
ad ed
ad en
om en
der s
Ġcr ump
ts o
ts auce
Ġn yl
Ġsh ots
Ġth imble
th ese
th ough
Ġover fl
Ġover stir
ĠR oughy
ay lor
ĠCh oose
ĠCh afing
Ġr icer
Ġr usset
ĠD a
ĠD unk
ĠD andelion
ab ber
Ġsp oke
ĠW ind
ans ion
st ill
st uff
st eak
st rap
Ġsm other
ĠF illet
ĠF ajita
ĠF usilli
ĠF ideo
Ġpot luck
Ġy am
Ġy ummy
ĠL ion
ĠL overs
ĠL ucy
ĠL ocatelli
Ġbl ossom
Ġbl ister
Ġ5 3
Ġbread ing
ĠH av
ĠH erman
arm el
Ġro ots
Ġcl ou
Ġcl ump
Ġal bacore
Ġk aro
Ġk aiser
Ġsl at
ress ions
tt a
Ġ20 2
ĠCream ette
ĠO k
ĠO odles
Ġpl unge
ĠE ckrich
Ġsqu irt
ĠJ unk
Ġli ve
Ġli beral
ĠK ern
ĠK iwi
ĠK elly
ham burger
ĠMel ts
ĠN an
ĠN atural
Ġsoy ameat
Ġunc ut
ne x
ĠBe ater
pe anut
Ġblend s
ĠButter f
Ġround ing
per iment
Ġacc ur
Ġcur acao
Ġleaf y
Ġbr u
Ġcrisp er
Ġcrisp ed
sa ving
Ġar oma
Ġar omatic
Ġmeal s
ĠCo ating
ĠLe gs
Ġpro ceed
ĠQu arts
Ġ24 5
sc al
sc allions
ĠSto ck
ĠPepper corn
Ġtoast ing
ĠMeat loaf
Ġregular ly
Ġdi pper
Ġmois ter
Ġpound ing
not s
Ġremo vable
Ġsub mer
wh ip
Ġcomb o
Ġfil ter
ĠOr zo
Ġconsisten t
Ġbul gh
Ġpop overs
ĠApp ly
tc up
ĠCl ara
Ġ* *
ear ing
ĠGood ie
Ġsing les
ĠRec ipes
ĠIm merse
ĠPack ed
add itional
ai k
Ġmeas ures
ĠEn t
Ch inese
Ġdep artment
Ġtid bit
Ġtrim mings
Ġlump ia
Ġmost ly
ĠHe avy
St art
ĠPl unge
ĠCur d
ĠPol ska
ĠDevil s
Ġstr ands
ĠKn ife
Ġmed allions
29 0
ĠMag n
Ġgrind ing
ĠFettuc cini
Ġcount ing
met allic
ĠPear l
Ġhel d
Ġcast or
Ġad here
Sp ice
Cook ing
ĠFil es
wal nut
ĠPic adillo
ĠHumm us
ĠBo hem
Di jon
min us
Ġadjust ed
ĠCarol yn
len e
Ġtr ust
ĠCashew s
Ġbra id
Ġparsn ip
mm m
Ġwinter green
con centr
Ġla vender
Ġflo ats
ĠSol o
ĠDoes n
ĠBel ieve
ouff l
shell ed
Ġren net
Ġbuff alo
Ġvar ied
Ġaccum ul
Ma id
ĠSett ler
ĠSett lers
ĠFrankfur ter
ĠFrankfur ters
ĠDav is
Ġreduc ing
refriger ated
Ġjud ge
Ġunsul ph
Ġnap kins
ĠWhe el
achel or
ĠSli ver
ĠLump ia
ĠSher ried
conom ical
Heal thy
ĠHol y
ĠJama ican
Tex as
ĠMim i
ĠChic ago
ĠIre ne
Ġkiw is
Ġunbl anched
ĠAngine tti
Ġsunda e
ĠShan gh
ĠAlo ha
ĠChimichang as
ĠAriz ona
Ġnyl on
ĠBohem ian
. (
5 3
8 00
B owl
C ann
E n
F reezes
G en
G round
H erb
I saiah
J ust
K nead
L ite
M om
O K
S G
T w
T ab
W atch
Y our
b or
b ly
d iluted
d ipped
d efrost
e arm
e ason
g rap
i ola
i que
k oe
k atsu
m ise
n eed
r g
r itional
s w
s aved
s ubstitute
t it
t ec
t brown
t When
v ely
w an
Ġ ing
Ġ uv
Ġt i
Ġt arter
Ġt ons
Ġt aters
Ġt radition
Ġo ctopus
ar ound
ar ant
Ġp ipe
Ġp ign
Ġp lease
Ġp uncture
Ġm as
Ġm us
Ġm other
Ġm alted
Ġm ax
Ġm usc
Ġm eringues
Ġm esquite
at ar
il ies
en ies
and o
and om
al uminum
ou li
Ġf erm
Ġf amous
Ġw rit
ic t
sp icy
ĠC el
ĠC all
ĠC aps
el ma
Ġsu bs
Ġa ut
Ġa gar
Ġ3 15
Ġd isk
ĠS ter
ĠS me
Ġg elled
Ġl rg
ĠB ack
ĠB ish
ĠB uck
ĠB ase
ĠP ower
ĠP ocket
ĠP lease
ine t
ĠT ag
ĠT abb
ĠT ouch
Ġche ez
Ġun it
Ġun opened
ĠA re
ĠA ust
ol k
ĠM ir
ĠM ignon
Ġcho c
Ġbe ads
Ġcream ier
Ġor naments
Ġst ur
to bell
Ġn eat
et r
Ġsh in
Ġj ambalaya
Ġover heat
ĠR ear
Ġwh ichever
ĠCh a
ĠCh ant
ĠD esserts
ab ob
Ġsp earm
ĠW ood
ĠW right
ĠW oman
st on
st em
st ep
Ġbo y
ĠSp ark
Ġju gs
ĠSt ra
Ġcorn s
id ent
ĠI I
Ġsm oo
umb le
ĠF ag
if ul
Ġcrumb ed
ĠL uc
ĠL im
ĠL ua
ĠL unn
Ġbl intzes
me as
ĠH og
ĠH yd
Ġ10 5
ĠG ib
ĠG ala
Ġser rano
Ġshor ter
ag as
sh ake
tion ed
Ġal phabet
Ġsl ant
li er
est y
ĠE ars
ĠE ase
ĠPre bake
ĠPre mium
ĠJ eff
ĠV odka
ĠV lasic
Ġwarm ing
ĠTh ose
ĠTh ird
ĠPe ggy
ĠN umber
Ġen c
ĠY umm
Ġbatter s
Ġpast el
ĠChill i
ĠSh all
ĠU ltra
ĠSpoon ful
ĠCho col
Ġcur ling
ous s
ous el
ĠGr oup
Ġdill weed
Ġhand y
und ry
erm it
sa ute
Ġpinch ed
ĠTo pper
fl akes
ĠSe veral
ĠChop stick
Ġhigh ly
ĠFl ako
ĠZ in
ĠZ wieback
ĠFry ing
Ġpat is
Ġherb es
Ġim agination
Ġdark ening
reser ved
ĠHot el
ert a
ĠSugar ed
Ġ- -
wh ipping
Ġsur rounded
ost ess
ort ment
isten cy
Ġskim ming
Ġcaramel ize
air es
ĠApp roximate
ĠCran berries
tc heese
ĠCamp fire
ĠCl ar
ĠTater s
cook ies
ah i
ĠGrand e
iddle head
Ġdel ight
ĠPr ince
ĠDough nut
Ġsit ting
Ġliver wurst
roll ing
ĠAn other
St uff
Ġstring y
ĠSeed s
Ġass ortment
ĠBay ou
!! !!
Ġman age
ĠScr atch
ĠCub es
Cr acker
Ġmed ley
ĠAm ber
ĠAm azing
Ġlady finger
ĠTr uly
ĠMa x
ĠLou ise
Ġtear ing
ĠPap er
Sp aghetti
Ġdiet etic
ather ine
ĠFour th
ĠMor gan
ĠLea ving
Ġprick ed
ugg et
Ġsim ply
ĠMillion aires
Ġchar red
23 5
Ġproduc ts
ĠBea uty
ĠEd na
Ġindent ations
tS ift
ĠAd ams
ĠChar les
ĠJoy ce
App les
Ġtost ado
Ġsmok y
ĠCor rect
tD rop
ĠSmok y
Ġmul let
almon d
Ġprop or
ĠThumb prints
ĠBour gu
ĠHer itage
ĠChi ppers
Ġincorpor ate
ĠBak ers
ĠBudd ies
shell s
Ġpu ppy
Ġrutab agas
Ar tich
ĠPi quant
ĠTra il
ĠWreath s
Ġbeautif ul
Ġsett les
ĠMargar et
ĠWilliams burg
Ġtim er
Ġmir in
Ġcroiss ant
Car amel
Ġple asant
Ġpra wns
ĠBear naise
Blue berry
Ġdeter gent
sec ond
Ġfore ver
ĠMat zo
equ ivalent
Ġblu ing
ĠEm ily
bul k
Ġtanger ine
ĠRes ift
ĠSav annah
Ġviole ts
ĠMinn ie
chunk y
max imum
South ern
Ġdew berries
Ġreason able
Ġconf idence
Ġjalape o
itam in
ĠPudd in
ĠDann on
ĠNorm andy
Ġutens il
oule h
Ġwar abi
Ġsouth ern
ĠRag out
ĠStre et
Ġresid ue
Ġcooper ation
Ġfron t
ĠBap tist
Ġvelve ty
ĠMorn ay
Ġcrump led
Gen esis
ĠSme ar
tobell o
ĠRear range
ĠChant illy
Ġspearm int
ĠHyd rox
ĠBourgu ignon
' d
2 25
4 2
: \
A fter
B ur
B undt
C E
C old
C asserole
H o
L onghorn
M ade
M ethod
N umbers
N estle
O x
O ro
P lace
P ork
P ear
R A
S qu
V idalia
Z erta
b re
b ubb
c or
c it
c auliflower
c oconut
d h
f ood
f ive
f andel
h el
i j
i et
j alapeno
l ah
m ark
n oodles
p et
r il
r um
r ough
s n
t nuts
t Do
t mixture
t Grease
t ingredients
v in
w est
y pe
z tec
Ġ ign
Ġ edible
Ġc m
Ġc ave
Ġc otton
Ġs orted
er ed
an as
Ġb arbecu
Ġp he
Ġm L
Ġm orn
at ma
ut ti
on ate
en go
Ġf ist
Ġw att
ing ly
sp aghetti
le ep
le gs
ĠC ous
ak s
ak ers
our i
as es
as ants
as iest
am blers
Ġsu lt
Ġa ig
Ġd ices
Ġd eseed
ĠS uk
ĠS ince
Ġg ot
Ġl oc
Ġpe koe
ĠB and
ĠB ri
ĠB ail
ĠB ridge
ĠB achelor
ĠP A
ĠP ay
ĠP uncture
un ion
ge on
ow a
ĠT al
Ġun ti
Ġun wrap
Ġv ine
ol o
Ġh usk
Ġh ooks
ĠM s
ĠM ul
ĠM any
ĠM uddy
ĠM SG
ĠM ouss
Ġst ated
Ġst ones
ell s
ch ill
ch arin
ch olesterol
ir rel
to re
ts m
ts alt
ri age
Ġn appa
red ible
ve t
Ġsh are
Ġmar ket
Ġmar bled
th ree
Ġover cooked
ĠR ocks
Ġoil y
ay s
ĠCh er
ĠCh iant
ĠCh unks
ĠD ave
ĠD oc
ĠD eg
ĠD ale
ĠD ecker
ĠW y
ĠW olf
st eam
im itation
Ġse en
Ġfro g
ĠI owa
ĠF red
ĠF ay
ĠF owl
ĠF ore
ĠF lower
ĠF anny
ĠF iber
ĠF ifteen
inn ati
Ġlemon y
ĠL at
ĠL as
ĠL am
ĠL ill
ĠL over
ĠL attice
age ment
Ġ5 4
ĠH ang
ĠH int
ĠH addock
ĠH odge
ĠH appiness
ĠH ostess
rink led
ash a
ĠG h
ĠG rain
ĠG lace
ĠG ems
ĠG oat
Ġ9 7
Ġ9 8
over n
Ġcl uster
Ġcrack lins
Ġal ter
Ġk ol
Ġas k
Ġapp roximate
Ġsl im
ul u
Ġsk y
Ġshred ding
Ġseason s
Ġ13 5
Ġnut ritional
Ġan imal
ĠE mer
ĠE lectric
ĠJ us
ĠJ ars
Ġli ving
ĠK en
ĠK emp
Ġpack ing
ĠTop s
zz y
ĠSa uc
Ġfill s
ĠTh ighs
ĠTh eresa
hett a
Ġen ter
Ġliqu ify
Ġcom fort
ĠSh el
ĠSh aron
irec t
Ġqu es
pe anuts
ĠRefriger ated
ĠĠ ĠĠ
Ġfood s
arb onate
Ġbou n
ĠSw ordfish
tern ational
Ġcur led
Ġpo ached
ĠAr ound
Ġcro cks
Ġcrisp ier
ĠSe ashell
ĠTab lespoon
Ġpro volone
Ġnon pare
ĠFl o
Ġpin wheel
ĠSc andinavian
ĠSqu irrel
Ġtoast y
ĠSo dium
ĠUn usual
tz er
so ften
Ġmini atures
ĠSalt ine
ĠRitz y
Ġsome one
nut meg
Ġcons omm
ĠDream y
ĠPat rick
uns et
Ġros es
ĠDi pping
Ġpatt ie
Ġcor d
Ġpop over
do es
ĠCheez y
ĠSk y
ĠCrab s
ĠRe union
od ate
Ġwor ds
ĠDe lect
Ġbrush ed
mas ter
ĠPack age
Ser ving
ĠPr onto
ĠEn er
Ch ili
Ġdep end
ĠMar engo
ĠGinger ed
ĠMilk less
fro st
ĠWhisk ers
te en
ban ese
ĠScr amblers
ĠHun ting
pre pare
Ġchip otle
Ġscr atch
ĠSummer time
Ġvari ations
ĠSun rise
Ġbas es
Ġbas mati
ĠSnow y
ĠSoft asilk
Ġjack et
ug ly
ĠMiss ouri
ĠInd ones
hydr ated
Ġdeg laze
tC ream
Ġres ist
Ġmicrow aves
ĠMa jor
ĠTam ales
ĠSu pplement
ĠPo ds
ĠLi berally
Ġbal m
Ġins ure
olut ely
Ġhelp ings
Ġte ac
ĠPar is
ĠPar faits
ĠScotch ies
mushroom s
Ġmem or
ĠWaff le
ĠEleg ante
Ġve ins
ĠOut rage
acc oon
veget ables
Ġplant ain
ppos ed
ĠBrazil ian
ĠGram ma
Pre paration
Ġcal am
Ġhus band
Ġperfect ly
ĠMam ie
Ġpen etr
ĠKrisp y
Ġmess y
Ġatt ach
Ġexten d
Ġsac charin
Ham burger
Ġmen tioned
Ġproper ly
Pro gresso
Pro verbs
Fl avor
ĠTer rific
ĠRem aining
ĠHen ry
ĠEas iest
Ġmac adamia
ĠMid night
ct ic
Ġach ieve
ĠStay s
ĠPa ella
Ġslash es
Ġta pped
ĠMull ed
ĠMah atma
ĠHon or
cur d
Ġbagg ie
ĠMich igan
ĠJul ienne
tst ir
Ġjer ky
ĠVick i
Ġindic ated
ĠLiqu eur
ĠRh ine
ĠButterh orns
ĠCalz ones
Sal ad
ĠOV ER
ĠThom as
Ġcompl iments
ĠCand ies
ĠCla ud
Strawber ry
bott led
Ġinden tion
Rom ano
inc innati
Ġsel tzer
Ġbic arbonate
Ġclou dy
scal ded
ĠShangh ai
Tab asco
ĠSter ilize
Ġstur dy
Ġsmoo ther
ĠLua u
ĠZin fandel
Artich oke
dh ook
Ġphe asants
ĠBail ey
ĠMouss aka
ĠChiant i
. /
A S
A p
A s
A ny
A part
B order
D rop
D essert
E ye
H I
H ell
I nd
K orean
L D
L Y
M ac
M ust
O ff
P ort
R ef
S alt
T una
W heat
a et
a ute
b ie
b age
b ag
b by
b ought
c ing
c ider
c ould
f ace
h ang
i ago
j onnaise
l ie
l ay
l ty
m ast
m ate
o blong
p it
p ans
p izza
p astry
r ams
s irloin
s low
t an
t ea
t iny
t omatoes
u in
y east
Ġ i
Ġ ul
Ġc ab
Ġc ult
Ġs atur
Ġs ample
er al
er le
Ġt extured
Ġo oz
Ġo vals
Ġp ome
Ġp ossibly
Ġm ant
Ġm ult
il o
on n
on ata
en ish
al tern
ou ds
Ġf ats
Ġf ud
Ġf ail
Ġf ib
Ġf iddlehead
Ġch inese
Ġch ance
ic ular
Ġto ppers
sp rinkled
pp ine
le ft
ro cc
ro maine
ĠC ans
ĠC ard
ĠC irc
ĠC reek
or ino
ak ia
our agement
am ed
am ps
Ġa w
Ġa ff
Ġa ged
Ġd ig
ĠS ack
ĠS omb
ĠS emi
ĠS unny
ĠS orbet
ĠS unset
Ġsalt water
ĠB oo
ĠB ened
ĠB ount
ĠB oat
ĠB elle
ac tion
Ġfl atter
un wrapped
ge x
ĠT V
ĠT in
ĠT all
ĠT ies
Ġbutter ing
ick peas
Ġche w
Ġche x
Ġche er
ĠA ztec
ol ina
ol ulu
ĠM cc
ot ic
ra pple
ra isin
all ah
ell es
ch iko
Ġmilk y
um es
Ġcan apes
00 0
ri vel
ri zzle
Ġn one
Ġn ail
ve c
Ġsh own
Ġsh rivel
Ġth ins
Ġle f
Ġmar gin
Ġover work
Ġover hang
ĠR on
ĠR en
Ġr ins
ĠMix ing
ĠD ain
ĠD ove
ĠD ig
ab ur
ab ella
mon t
Ġsp are
ĠW aik
ien tly
igh lty
Ġgar ni
ĠSp l
Ġse w
ĠSt e
ĠSt em
ish ness
ĠF ar
ĠF oo
ĠF est
ĠF innish
ĠL u
ĠL ake
ĠL ick
ĠL izz
ĠL abel
ĠL uke
ers on
ers ey
Ġoven safe
Ġ5 6
Ġbread crumb
op t
ĠG ets
ĠG ingersnap
ĠG hi
Ġcar nation
Ġro m
ag ain
art i
Ġcrack ing
Ġ30 5
Ġk um
os ter
ĠBeat en
Ġex changes
Ġham s
let e
Ġgra de
Ġcool er
Ġnut ty
ĠO l
ĠWor thing
ec i
ec he
ĠE ss
ĠE ating
Ġcrust ed
ĠPre pared
ĠJ enn
ĠJ ersey
Ġout ward
ĠK ook
ĠK ale
ĠK roger
ĠK nots
ĠBl air
ĠBl intzes
ĠV itamin
Ġwarm er
ĠPe pp
ĠPe ppy
Ġfin es
ĠN a
ĠN ear
aw s
Ġcom meric
ex pensive
ĠSh aker
irec tions
ĠBread sticks
ble ts
Ġsc rod
arb or
Ġstri pped
Ġafter noon
Ġturn over
Ġbr ats
ĠAr t
ĠAr go
ĠAr ctic
ton ion
Ġcrisp s
Ġcrisp ies
sa usage
ist urb
Ġlong est
ĠFl owers
Ġneed le
Ġ24 2
ĠSc out
ĠSc rapple
ric ol
ĠZ e
alapen os
ĠMon t
Ġkn ock
ĠBre w
so y
Ġme ans
Ġmois tening
Ġflat tening
ĠMin ted
Ġper k
ĠCrumb led
ort land
ĠPam med
uns liced
ĠDor is
Ġop t
ĠDi pped
ĠDi jonnaise
Ġfil berts
ĠRa spberries
Ġac tion
ĠOr naments
ĠPast ries
Ġbreak s
ĠAng ie
ĠPro tein
ĠPro mise
ĠPet ite
fry ers
ĠCl ay
ĠCl ouds
Ġpr act
ĠSk inner
Ġcap fuls
ĠDump lins
Ġmoist ness
Ġpor cini
ĠRec eption
Ġtri o
Ġtri vet
ĠChrist mast
add ing
Ġprefer able
ĠMar ian
Ġflatten s
Ġring ed
Ġloos ened
ĠHe ad
ĠAn na
Ġvigor ous
Ġovercook ing
mar ine
mar aschino
ĠCom ing
Ġgu est
ĠAunt ie
ĠCur rant
Le ave
Ġcurd led
30 3
Ġrich ly
ĠWatch er
rit ious
ĠAm andine
ĠInd oor
Ġperfor ated
ĠRich ards
ĠMa ine
Ġwil ts
Ġad ults
ĠPap a
ĠSu z
ĠFollow ing
Ġswirl s
Ġpush ed
ĠMor avian
Ġear then
Ġear lier
ĠRotel le
ĠEclair s
ĠGu ilt
ĠDoll op
Ġhelp ing
ĠCas ino
Ġduck ling
rad elli
Ġlo ins
Ġhazel nut
Ġdrum ettes
Ġveg ie
tS poon
ĠSpring time
ĠEv a
Ġomelet te
ĠBoy s
Ġla undry
gran ate
ĠRoy ale
Ġslab s
ĠVien nese
ĠJu ly
ĠVerm outh
ĠMaster piece
Ġexp and
ĠGlor ia
ĠMam ma
ĠLee ks
ĠSens ation
ĠChil es
Ġtend ency
Ġpray ers
Che ez
acker el
Ġcond iment
ĠSus ie
Ġrain y
Ġbuck wheat
Ġport able
ĠPres to
join t
ĠChick peas
blue berry
ris es
Ġmid get
tub e
ĠBer ried
ĠRob in
ĠRol os
So ft
ĠHon olulu
Ġreduc es
wax ed
Ġtre ated
ĠMas c
Ġsugg est
Ġjer k
ĠRefresh ing
ĠColl ard
ĠChalup as
ĠGoose berry
Ġhar der
Ph illy
ĠSor ghum
ĠPac ific
ĠTempt ations
Us ing
oug at
ĠSzech wan
Ġsch ool
ĠBorsch t
ĠChamp ion
Ġquah ogs
ĠDecad ent
ĠTid bits
Ġrepl enish
ĠInc redible
Ġglycer in
din ary
ĠCapp uccino
Ġblister ed
ĠHav arti
ĠOk lah
Ġaccur ately
Ġbulgh ur
Ġunsulph ured
Tw o
defrost ed
Ġing red
arant eed
Ġpign oli
Ġmas ala
ando ori
andom ly
Ġferm ent
ĠBish op
ĠFag ioli
meas ured
Ġmanage able
Squ ash
Ġign ite
Ġmorn ings
ĠCous in
Ġsult anas
ĠSuk iyaki
ĠEner gy
ĠHunting ton
ĠIndones ian
Ġmemor ies
ĠOutrage ous
Ap ricot
Port uguese
aet zle
Ġul tra
Ġcab inet
Ġcult ured
Ġpome granate
Ġmant le
ĠSomb r
ĠWaik iki
ĠGhi radelli
ĠWorthing ton
Ġcommeric al
isturb ed
ĠChristmast ime
ĠOklah oma
' m
1 50
1 75
2 75
5 00
7 6
9 4
A cc
A sparagus
A unt
B arbecued
E S
E m
F ast
G u
G old
H en
H or
L inks
M s
M outh
N ever
P our
P arty
P yrex
P oppy
R emove
T ater
T akes
T est
W rap
W eek
a ven
b ar
b ab
b illy
b elow
c el
c ast
c lean
c ale
c ocoa
d issolve
f ew
f amily
g ant
g ment
h l
h or
k id
m acaroni
m other
m aking
m aker
n ett
n acho
n atural
o key
p ink
p aste
p urple
p urch
r ind
s es
s ther
s esame
s ala
s ingle
s worth
t ar
t ri
t les
t aste
t one
t greased
t meat
t egg
t elli
t esy
t ect
t Th
t Heat
u an
u ro
u gh
v is
w a
z ag
Ġ /
Ġ usage
Ġ ...
Ġc e
Ġc ell
Ġc ass
Ġc aut
in da
Ġt rench
Ġt acky
Ġb end
Ġb uckeyes
Ġb unny
ar n
ar ily
ed y
Ġp il
Ġm ater
Ġm oose
Ġm esh
Ġm ackerel
on tal
en h
al le
Ġf iesta
Ġf aces
Ġf ondant
Ġw it
ing ed
sp here
Ġin f
Ġin ver
ĠC u
ĠC ity
ĠC ouscous
ĠC rayfish
ĠC ooper
ĠC atherine
ĠC incinnati
ĠC ortland
or ia
el i
Ġsu pposed
Ġa chi
Ġd ie
Ġsugar less
ĠS ass
ĠS oci
Ġg lace
ter house
ter rey
Ġsalt pe
ĠB ed
ĠB ite
ĠB arbec
ĠB eth
ac akes
ĠP ix
ĠP ans
dd led
is to
ow ax
ĠT ir
ĠT ina
ĠT een
ĠT iger
ĠT aylor
Ġbutter flake
Ġflour ing
ill ion
ĠA ir
ĠA bs
ĠA way
ĠA ct
Ġh on
Ġh urt
Ġh app
ĠM and
ĠM ey
ĠM icrow
ĠM erry
ĠM mm
ad ow
ad ies
ad ines
Ġfor dhook
Ġeggs h
ĠAdd ing
Ġcr am
to ff
Ġcan ape
Ġn ests
Ġ4 20
Ġbak on
Ġsh edd
Ġsh ade
Ġj el
Ġj us
Ġth inn
Ġgre asy
Ġat mo
Ġmar row
Ġmar sala
th our
ure l
ĠR us
ĠR ip
ĠR ave
ĠR eg
ĠR oom
ĠR eroll
Ġbrown ness
ĠCh ard
ĠCh ives
Ġr at
Ġr ough
Ġr iced
Ġr itz
Ġr uin
Ġpan ko
Ġco on
Ġco ils
Ġco ddled
ĠD es
ĠD en
ĠD ee
ip er
st rength
Ġgar bage
ĠSp ud
ĠSp ear
ĠSp ears
ery l
ĠSt one
ĠSt ripe
ĠF ine
ĠF rid
ĠF annie
ĠF ootball
Ġy um
Ġbeef steak
ĠL on
ĠL ook
ĠL ord
ĠL inks
Ġstir r
Ġbl isters
ĠH um
ĠH ood
ĠH ag
ĠH ull
ĠH uckle
Ġmel ba
ĠG ull
ĠG ai
Ġcar ousel
Ġ9 5
Ġro cks
Ġshor ten
ĠCheddar y
Ġcl ips
Ġra di
Ġal though
Ġk ill
ley e
Ġsl ighlty
ep roof
ep eno
let ide
reas ing
ĠO z
ec ts
ent ic
Ġblack ening
ĠE tc
ĠE asily
Ġhe el
Ġhe ap
ĠCr usts
Ġdough maker
ĠJ e
ĠJ alapenos
ĠK aiser
Ġpre melted
ĠSa ver
ĠSa uced
ĠV ern
Ġlea ven
Ġjell s
oni od
ĠSalad s
ĠChe es
ĠMo z
ĠN ips
ĠN av
ĠN ina
aghett ini
Ġen v
Ġ25 2
ĠY et
Ġfruit y
ex ample
ĠBe v
Ġspread s
Ġfat ty
ĠU m
ĠRef reeze
Ġthicken er
ĠBr usc
iv ide
Ġri pp
Ġgl ove
oun g
arp one
Ġlay ing
Ġpo ach
Ġbr anch
Ġdou bling
Ġstiff er
Ġstiff ens
ĠGr annie
Ġtemper a
ful ly
Ġhand les
ĠCar eful
oss al
Ġcomp act
co at
fl aked
Ġar en
pl um
Ġpro tect
ĠQu art
Ġpart icular
Ġfold s
az ola
Ġany one
Ġany more
ĠUn fried
ĠUn stuffed
ĠUn used
ĠFro sts
ĠBre nda
Ġgood ies
tz el
pick ling
ĠCan n
Ġmarin ates
Ġund isturbed
Ġlen til
corn starch
ĠKeep ing
wh ere
pot atoes
Ġbroil ers
ĠCont ain
ĠMe adow
ĠRanch o
ĠOr ch
ĠFarm house
Ġknead ed
ĠPick in
ĠAng els
Ġplatter s
ĠTur k
tc ut
ĠCl air
app roximate
app earing
peel ing
ĠSk ro
ĠSk yl
ĠSk inny
Ġflower ettes
ĠGood y
aff od
ĠRe vie
ĠUs ed
Ġind irect
ĠRec ip
ĠIm itation
ann ed
ĠGrand s
ĠCro ut
ĠPan cit
ĠTort oni
add le
Ġdel ights
Ch ildren
sm oked
Ġtouch es
Ġdep ressions
ĠMar ily
ĠCol ossal
ĠCrack lin
bo at
Ġsoak s
Ġtrim ming
crumb le
enn is
Ġsolid ly
ĠWheat sworth
ĠMom ma
Ġcross ways
Th ere
ĠAp ache
Ġsw itch
Ġass ure
Ġseafood s
ĠPer k
bro il
ĠPop over
ĠAs iago
Ġdevil s
pre cooked
Ġchick pea
ĠSurp rises
Ġclos ing
ĠDay s
ĠShort ly
ĠKn ock
ĠFran ces
ĠMiss ion
Ġperfor ation
Ġdis ks
Ġreheat s
Ġmicrow aving
ĠMa ui
ĠPap aya
Sp ecial
Ġsor rel
ĠHo pping
ĠMor sels
ĠMor sel
Ġwe enies
ĠSmooth ie
ĠJohn son
ĠLi ving
ĠPart ly
Ġbow tie
Ġeigh ts
ĠBob oli
ĠGoo f
Ġspecial ty
ĠPar owax
ĠLef t
ĠPers on
uth entic
Ġtr ick
ĠRos amarina
Ġdehydr ator
ĠHel p
ĠHel oise
Ġ46 5
ĠJan et
Ġsuper mark
imp ortant
fir mly
part ially
ĠWil ma
ĠEd ible
Ġparch ed
ĠBut tons
Ġbush els
sto re
ĠParmig iano
tR oll
Ġla id
Ġhum id
Ġsuffic iently
On ly
Ġflo or
ĠEvery one
Pre p
Ġpres ent
Ġexp ansion
Ġob ject
Ġrear range
Ġpurch ase
nam ent
tT urn
ĠJumb le
trem aining
ĠBudd ig
tb owl
iev able
seed ed
Ġarm s
mini ature
pour ri
Ġsett led
ĠVer mont
blue berries
separ ated
Ġide al
wor ks
ĠDis joint
ĠDis appearing
Ġswir led
ĠTe acakes
Ġjal epeno
Ġheal thy
Ġgather ings
ĠCour t
ĠCour se
Ġjud gment
trim med
Ġtre ats
Ġnap kin
ĠEll en
Ġflam eproof
Ġblu efish
ĠYu le
ĠYu letide
Ġcylinder s
del i
ĠChalup a
ĠMatt hew
Ġ__ __
ĠProven cale
Ġwat ah
Ġdid n
ĠTail gate
ĠJess ie
Ġir regular
ĠRoul aden
Swans on
Ġcu ppa
ĠLar ry
ĠFranc isco
ĠCanton ese
Ġwip ed
Marin ated
Ġsuc cess
ĠSwe ets
Ġgau ge
ĠBeck y
ĠMart in
Ġoverfl owing
nex t
ĠButterf ly
ĠSliver ed
Cann ing
Ġmus lin
Ġmax imum
Ġmusc adines
ĠTabb ouleh
ĠSpark le
ĠLuc ille
ĠGib let
Ġenc ouragement
ĠCharles ton
Ġbarbecu ing
ĠPA M
Ġkol b
Ġnonpare ils
frost ed
Hell mann
pit ted
Ġsatur ate
Ġmult ip
Ġfud gy
ĠTV P
Ġcheer fulness
vec tion
Ġrins ing
Ġrom ano
ĠMasc arpone
ĠSombr ero
Hen ry
Ġinver ting
ĠSass y
Ġsaltpe ter
ĠBarbec ups
Ġshedd ed
Ġatmo sphere
ĠHuckle berry
oniod ized
ĠBrusc hetta
ĠSkyl ine
ĠMarily n
Ġsupermark et
. ")
3 4
4 3
4 9
4 75
? )
A b
A t
A ust
B T
B asil
B erry
B etty
D O
D ump
D ipped
F ish
F ran
G inger
G olden
G arb
G oya
G raham
H er
H om
H ave
J apanese
L ay
L ef
M int
M azola
N or
N ahum
O ur
S im
S esame
S low
S ometimes
T urn
U M
V eg
W ater
W ild
W rapped
\ ).
b urn
c rab
c alor
c ium
c ocktail
d irt
d rift
e venly
g ra
g lish
g rained
g undy
g elatin
h en
h ance
i da
k ely
k uchen
l ots
l oose
m ish
m olasses
n ite
o v
o vy
p ints
p into
r as
r ust
r ump
r ite
s l
s op
s andwich
t ip
t una
t Use
t Brown
u z
v ia
z er
Ġ ream
Ġs ar
Ġs atin
Ġs orbet
an ak
an zo
Ġt er
Ġt ra
Ġt ad
Ġt reas
Ġo w
Ġb eside
ar ita
ed ar
Ġp as
Ġp am
Ġp ill
Ġp one
Ġp izz
Ġp ike
Ġp ollen
Ġm ag
Ġm idd
Ġm ahi
ut ions
en z
en ian
al em
Ġf am
Ġf auce
Ġf ideo
Ġw all
Ġw iener
ic ing
Ġin ject
Ġin expensive
le aven
ĠC ape
ĠC ath
ĠC athy
el a
el bow
as er
am ab
Ġsu nd
Ġa iry
Ġe asiest
Ġd ips
Ġd ings
Ġd aiquiri
Ġd icing
ĠS on
ĠS ir
ĠS ylv
ĠS ingle
Ġg ash
Ġg nocchi
Ġl oves
Ġl atter
oo ley
ĠB i
ĠB akes
ĠB arbecu
ĠB illy
ĠB unny
ĠB uckeye
ĠP av
ĠP aw
ĠP igg
ĠP arsn
ĠP oulet
Ġfl ag
un bleached
un pared
Ġegg roll
is u
is tle
ĠT our
ĠT un
ĠT oothpick
ĠT ype
Ġun to
Ġun frozen
Ġun available
Ġun frosted
Ġcheese cakes
Ġv idalia
ĠA st
ol li
Ġmin d
Ġmin eral
Ġh ob
us to
us alem
ĠM t
ĠM al
ĠM ott
ĠM yr
ĠM andel
ĠM enthe
ĠM esquite
ĠM BT
Ġcho ke
Ġbe ad
om ething
Ġcr iss
um i
Ġn oniodized
Ġj ams
Ġth ought
Ġgr ouse
up ia
Ġle mun
Ġmar ks
ĠR ick
ĠR ay
ĠR adish
ĠR achel
Ġbrown ish
ĠCh ap
ĠCh arm
ĠD ick
ĠD andy
ĠD uper
col n
mon ico
Ġsp out
Ġsp ec
Ġsp oil
Ġsp aced
ĠW ed
ĠW as
ĠW isp
Ġre l
st e
st ruc
st ale
Ġbo ats
ĠSp uds
ĠSp ike
ĠSp anak
qu ats
ĠSt ars
id i
Ġsm al
Ġground ed
ĠF ace
ĠF ew
ĠF oster
Ġpie crust
ap ul
ĠL ater
ĠL ots
ars on
Ġ5 2
Ġbread stick
op han
ĠH ole
ĠH OT
Ġcon c
Ġcon vection
oon s
ĠG ay
ĠG obs
ĠG riddle
ĠG overn
Ġcar t
ring s
ely n
Ġro ma
Ġshortening s
ub e
sh allow
ĠWh it
Ġk amab
Ġred fish
Ġsl ender
ul ate
Ġex cluding
uit able
li ve
ĠBro ther
reas es
ĠO aks
ĠWor ces
est one
Ġshe en
Ġref reeze
ĠE c
ĠE la
ĠE sther
Ġhe ar
Ġsqu ish
ĠJ ord
ĠBl ock
ĠSa zon
ĠV iole
rim i
Ġfill o
oni o
Ġtab let
Ġfin est
ĠMo rocc
ĠN ests
Ġz ig
Ġen glish
Ġen hance
ĠY olk
Ġfruit ed
Ġlet ters
ĠSh ave
ĠSh oney
ĠSh uck
ĠButter less
Ġfoil ed
Ġmo chiko
ucumb er
Ġhead less
ind y
ind eer
Ġturn overs
Ġacc omm
ĠSoup s
Ġgran ite
Ġdill s
Ġtw irls
ĠCar ter
ĠCar ob
og any
Ġspray s
co arsely
Ġam ple
fl orets
Ġar ri
ĠFor ty
ĠCo ast
ĠCo ated
ĠCo kes
ist ic
ĠTab ouli
Qu aker
Ġnon metallic
ĠFl oss
ĠQu iches
Ġquick er
ĠSc ot
ĠSc oops
ĠSqu irt
sc r
ĠMeat y
ig rams
ĠDel monico
ĠUn bel
ĠCon n
Ġdeep er
ok o
ok ee
ĠAl aga
corn bread
ĠRet ain
Ġevery day
Ġsub marine
Ġmor tar
pot ato
Ġel k
gth wise
Ġbar rel
Ġshould n
can ning
wich es
Ġfre ely
ĠPast rami
eg in
ĠDri p
Ġsn ugly
tc ool
ĠCl ip
ĠCl ark
Ġpr ong
ĠAcc ents
Ġunder cooked
ĠCaramel ize
Ġspring form
ĠFr ont
Ġsing ly
allop s
Ġpor tobello
ĠRec over
ĠGl en
ĠGl ow
ĠGl ori
ĠCro st
ĠBlack ened
ĠPan ky
aj o
ĠMar gie
ĠMar riage
mix er
ĠCrack ed
ĠCal do
Ġkind ly
oe uvre
areri b
enn ies
ĠCrock pot
ĠMom s
Ġfran k
Ġbrand s
mar kets
Ġsix ths
ĠWater cress
ĠOri ent
mp tly
Ġdiv inity
ord in
ĠPol enta
Ġdecor atively
Ġgrapefruit s
fu red
ĠDevil ish
Ġnectar ine
ĠImp ortant
Ġcard board
ĠTender loins
ĠJer usalem
ĠKn own
Ġsoon er
Ġbed s
Ġcontinu ous
Ġ19 0
Ġres ult
ĠRich ard
ĠTr uss
lo va
ĠHour s
Ġsor ry
ĠTost ado
Ġpreheat s
ĠTon katsu
ĠHar ry
ĠHar ris
ĠRum aki
Ġinter est
ĠPor tion
ĠWay s
ĠWay ne
ĠPart ies
ĠOat ies
ĠPers ian
Pe ach
pr ick
ĠTart lets
Ġtr ouble
ĠRos y
Ġbutt ah
Ġsuper markets
Ġlo x
Ġlo ving
black berry
Ġmill igrams
Ġhoriz ontal
Ġele gant
Butter milk
garnish es
ĠHill billy
ĠEsc arole
Ġ26 5
ĠSand ra
tS et
tS aute
Ġstretch ed
Al ways
Ġstar ted
Ġdesign s
ĠSuc c
ĠPaul a
Ġjun iper
Ġcour tesy
Ġfrit ter
Ġweight ed
Ġla urel
Vegetab les
cle ar
Ġfingert ip
follow ing
Pre go
cub e
ĠAnt onio
ĠMam aw
ĠChi pper
Un cooked
Ex odus
Ġrid ge
Ġpops icle
Ġsear ed
ĠFe et
squ are
ĠCam per
ĠTra vel
ĠPres ident
non stick
Ġdisc s
ĠPal m
cool ed
ĠTreas ures
36 5
ĠOh io
Ġach ieved
Ġach ote
four th
ĠKol aches
Ġdeter mine
ĠFun fetti
ĠSkewer ed
sec ret
turn ing
Ġgather ed
Ġgher kin
Ġjigg le
ĠDav id
ĠSmuck ers
ĠPri or
Ġunsul fured
ĠTim ey
ĠMas ala
ĠMad eline
Ori ginal
Ġsugg ested
Ġtanger ines
ĠDie ter
com es
ĠBern ice
ĠBern ste
Ġ__ _
ĠMunch ies
Ġboys en
ĠVen us
Ġdiscolor ing
Sn ack
Ġmom ent
ĠBagg ie
ĠBagg ies
rift y
ĠVe geburger
spir al
ĠKat ie
Ġca pped
Ġmist ake
ĠComb o
Ġsupp ly
ĠSen ate
ĠAc apul
ĠPaprik as
ĠBomb ay
ĠJunk et
Ġsubmer ged
concentr ate
Ġaccumul ates
Ġjudge ment
Ġwrit ten
Ġaut omatic
ĠLim as
ĠChocol at
Ġpropor tions
Ġcave telli
Ġloc al
ĠPay day
ĠCher okee
ĠDeg laze
ĠLat kes
Ġenter tain
ĠTablespoon s
Ġresist ant
Ġpenetr ate
Ind ian
tea spoon
ĠBened ict
Ġlef se
abur gers
ĠEss ence
ĠPepp ark
ricol or
ĠRichards on
Ġearthen ware
Acc ent
kid ney
tTh en
Ġcell ophan
ĠPix ies
Ġhon esty
ĠOz ark
ĠNav ajo
Lef tover
calor ic
Ġfam ilies
Ġfauce t
Ġsund ried
ĠSylv ia
ĠBarbecu es
ĠWisp ride
ĠGovern or
Ġkamab oko
ĠEla ine
ĠJord an
ĠViole t
Ġaccomm odate
ĠGlori ous
ĠAcapul co
Ġcellophan e
% ).
0 7
3 60
B ag
B oil
C K
C innamon
C ustard
C alorie
C ucumber
D urkee
E D
E l
F ine
F ir
F uss
F illing
G E
G rain
I mp
K id
L and
L ipton
L ibby
M an
M ilk
M ain
M iss
M aw
O W
P ick
P ea
P urpose
P izza
Q ue
R ich
R icotta
S l
S et
S ome
S etta
S uper
T otal
T ony
W he
b as
b ananas
b acher
b ody
c ith
d as
d ressing
e que
f oam
g al
g rim
g rown
h our
h ow
h ull
h aps
j i
j oles
k n
k ern
k nead
l ar
l ies
l ooks
m ash
n es
o x
o gg
p arty
p asta
r ong
s en
t as
t ch
t ips
t are
t able
t dry
t be
t from
t bake
t then
u h
v ine
v iche
w et
w ild
w agon
y ps
y dr
Ã ©
Ġc ra
Ġc ent
in tosh
Ġs old
Ġs ign
Ġs ouffl
er ican
an tern
Ġt ass
Ġt allow
Ġt unnel
Ġt ropical
Ġt ricolor
Ġo cc
Ġb el
Ġb ased
es ter
Ġp ith
Ġp oll
Ġp ump
Ġp ones
Ġp ermits
Ġp estle
Ġp pkg
Ġp aints
Ġp addle
Ġp ennies
Ġm ut
Ġm ice
Ġm ock
at app
ut en
on ed
on berries
en bacher
al at
al amata
Ġf ans
Ġf ern
Ġf oot
Ġf ootball
Ġw hey
ing onberries
gar d
Ġto e
pp ah
Ġin k
Ġin ward
le o
ro ken
ĠC ome
ĠC ouple
el and
as u
am isu
Ġsu cc
Ġsu ck
Ġsu rimi
Ġa sp
Ġ3 30
Ġd ue
Ġd ome
ĠS y
ĠS ake
ĠS ame
ĠS leep
Ġg en
Ġg umm
Ġl ie
Ġl ace
Ġl ock
Ġl overs
Ġsalt pet
Ġpe ppah
he et
ĠB ix
ĠB ubb
ĠB ride
ĠP f
ĠP ill
ĠP kg
ĠP ipp
ĠP sal
ĠP ossum
Ġfl ipping
un less
ge als
is enh
ĠT us
ĠT ray
ĠT bs
ĠT ia
ĠT aver
ĠT andoori
Ġ( (
Ġ( *
Ġche f
Ġun ex
Ġun shelled
Ġun waxed
ĠA gg
ol is
Ġh ers
Ġh ind
Ġh ydr
us es
ĠM I
ĠM ush
ĠM ee
ĠM aking
ĠM ussels
ĠM oose
Ġcho kes
Ġcho sen
Ġbe es
Ġbe aver
Ġor igin
Ġor dinary
all as
Ġst out
Ġst opped
ch ickpeas
ir ard
ri bs
Ġn umbers
Ġn ippy
Ġ4 4
et own
Ġsh ark
Ġsh owers
Ġso il
Ġth inning
Ġle cith
th ighs
ry lic
Ġover do
Ġover done
ĠR ese
ĠR ew
ĠR oca
ast y
ie f
ĠCh urn
ĠCh ina
ĠCh eryl
Ġr ices
Ġr accoon
ĠMix master
ĠD ro
ĠD yn
ĠD affod
ab an
ab lespoon
ab ello
Ġsp it
ĠW ake
ĠW all
ĠW ok
ĠW igg
ĠW oody
ĠW alla
Ġre le
Ġre use
ef eller
Ġbo b
Ġgar am
Ġfro gs
ĠSt al
ĠSt ain
ĠSt arch
ĠSt eer
ĠSt ollen
id o
ĠF res
ĠF ile
ĠF ully
ĠF uss
ĠF ennel
ĠF ather
ĠF eel
ĠF avorites
ther e
if er
if un
Ġ6 00
ass orted
ĠL ore
ĠL av
ers ed
ars lied
Ġbl ow
Ġbl ood
Ġ5 1
Ġbread board
me lets
Ġcoc a
op en
op ita
ĠH all
ĠH oles
ĠH ope
ĠH orns
Ġmel d
Ġrem oves
Ġcon geals
ĠG ard
Ġcar ry
Ġ9 9
ber ta
edd i
Ġser ver
ag na
ub an
Ġab ut
Ġab und
sh ort
Ġcut outs
Ġal tit
uff le
ul i
Ġex ample
Ġex periment
ep her
ress ive
Ġsk inny
Ġham bone
Ġseason al
tt es
ĠO uts
ĠO la
ĠE vaporated
ĠE conomical
ĠE isenh
ĠCr uda
ĠJ ill
ĠJ ason
ĠK oo
ĠK ap
ĠK ath
ĠBl ush
ĠBl iss
ĠBl itz
ĠV ent
Ġwarm s
Ġwarm th
ĠTh us
ĠTh rifty
ĠPe bbles
oc acc
par ts
ĠN ip
Ġz iploc
Ġz ita
Ġz ipper
ĠY ong
Ġliqu ef
ĠAnd y
ĠSh a
Ġpaper ed
ĠPot pourri
pe ach
16 0
Ġtur b
Ġchill s
Ġapple jack
ray ons
Ġcol lec
Ġcol lect
Ġcol umn
Ġri vels
Ġconfection ery
Ġthaw s
ĠSoup ed
Ġcur ve
Ġcur ried
izz le
ĠRed enbacher
Ġclean ly
Ġtw igs
ton ions
Ġspray ing
ull ers
co d
ĠTo asts
Ġam erican
ĠFor get
Ġunb roken
ĠCo q
ĠCo bb
ĠGar am
Qu iche
Ġdri er
pl astic
Ġpro ble
Ġpro mptly
Ġnon alcoholic
ĠSc allion
ĠPepper y
ĠZ ip
ĠZ atar
Ġpart rid
Ġpat ch
az in
Ġkn ots
ĠDel i
ĠDel ic
ĠBre y
ĠCon es
ĠCon serve
ĠBreak stone
ett ini
Ġmor sel
Ġuns elf
stick y
lit er
ĠMay o
ĠMe antime
uer to
ĠPec orino
ost ura
ĠAll a
ĠGerman y
can non
ys on
Ġac rylic
ĠApp et
Ġsn aps
ĠPro of
cl ose
egg iano
ĠAcc ording
Ġunder cook
Ġcap ellini
ĠCaramel itas
Ġless en
Ġscal es
Ġpunch ing
Ġpor cel
Ġtri angular
ĠPh y
ĠPh ill
Ġsun shine
Ġmeasure ment
bu y
ĠPan k
ĠTort a
Ġopen ings
ĠCol cannon
small er
Ġdot ted
ĠWal ker
ĠBen nett
Ġspat zle
may o
ĠHoney ed
ĠCre m
ĠCre pe
ĠMom my
Ġcloth es
Ġstack ed
ĠAn sw
St ew
Ġbrand ied
ĠCom mun
ĠFish er
Th ree
butter nut
be h
ĠHoliday s
Ġsix th
Ġtight en
ĠMed allions
ĠFin al
Ġty p
Ġbase ball
Ġbur gundy
ĠPer colator
Ġsnow peas
ĠEx otic
ĠIs le
ĠIc icle
Ġbath tub
ĠPol ka
Ġrub y
Ġstrip ed
Do es
ĠFir eside
ĠCub ed
ala o
Ġlin en
ĠSnow flake
ĠSnow drift
ĠAm ounts
Ġgumd rop
ĠBon es
att les
Ġstarch y
ĠMil ano
Ġtast ed
Ġdis colored
ĠRi pple
ĠSaut Ã©
ĠTr ace
ĠMa ggie
Ġesc aping
Sp icy
ĠWe igh
ĠSu gg
ĠTost adas
ĠHar ri
Ġdistrib uting
ĠFlavor s
Ġpier ces
ĠMill ie
ren to
ĠReheat s
ĠRock efeller
Or tega
ĠLen ten
ĠPas ka
Ġgro wn
ĠBob bie
ĠLef se
Ġtr ace
Ġtr uffles
ĠAny thing
ĠAny time
gr ate
gr ind
ĠCap onata
Ġsna ils
Ġbra ised
oriz o
ĠFix in
Ġpet it
Ġveg i
Ġ29 5
Ġfeed ing
ĠEv elyn
ĠFloren ce
anger ine
ĠBarb eque
Bl ack
Ġwhe ther
Ġtost adas
ĠStep han
Ġdra wn
Ġrare bit
Ġcour age
Ġmicro cook
Ġflesh ed
Ġunroll ed
che e
Ġrecomm end
ĠGram my
ĠOther s
ĠJu ices
tB ring
Ġcling ing
ĠStar light
Ġexp ensive
Ġcal cium
Oe uvre
ona ise
ĠHer ring
br ush
quarter s
ĠHand le
Ro ast
Ġhang ing
ĠLin coln
ĠPlant ains
ĠAle x
ĠCod fish
Ġtrip les
non fat
oven proof
ĠPal mas
ĠChick pea
Ġsett ling
ĠVer a
lett es
Car nation
Ġdrizz ling
Ġcontent ment
ĠCreams icle
ĠKol acky
ĠNon fat
Ġdiabetic s
crack ed
ĠRol o
ĠSeas ide
Re ally
ĠMah ogany
Ġjigg ers
ĠDou bles
ĠDou bly
Ġmaintain ing
Ġcamp ing
Ġbagg ed
ĠJul ia
ĠMethod ist
Ori gin
ĠSpir al
ĠSpir it
Ġpi ro
Sm all
Wor ks
Ġcrow der
Ġcrow ding
ĠCO LD
Ġdunk ing
Ġhar vest
Ġcapp uccino
Ġfr ame
ĠSizz lers
ĠMist akes
stew ed
ĠKr unch
ĠProven ce
ĠCalz one
Co ffee
ĠBit ters
stiff ly
Am os
Ġcrink led
ĠGul f
ĠGul den
Ġprov ides
ĠCons istency
Ġsatisf y
ĠPil grim
ĠVari ation
ĠGlad ys
Ġclass ic
gro cery
lebr ation
ĠAnch ovy
tso da
ĠWind ows
ĠKern el
ĠEnt ire
grap efruit
Ġsubs ides
ĠStra da
ĠYumm ies
ĠShall ot
Apples auce
Bur ger
bre ast
bubb ly
Ġdeseed ed
ĠFay e
Ġques ad
ĠDelect able
Ġteac up
Ġcalam ari
Ref riger
onn ay
Ġfib ers
ĠCirc le
ĠBount y
Ġflatter y
Ġkum quats
Ġmater ial
ĠTir amisu
ĠAbs olutely
ĠAct ive
ĠMey er
Ġthinn ess
ĠFrid ay
ĠHum us
ĠHag el
ĠGull iver
ĠOrch ard
ĠPav lova
ĠAst oria
Ġzig zag
ĠFloss ie
ĠUnbel ievable
ĠCrost ini
ĠOrient ale
ĠSucc otash
Ġentertain ing
Fir st
Ġocc ur
atapp i
Ġfern s
Ġgumm ie
Ġsaltpet re
ĠPipp in
ĠPsal ms
ĠTus can
ĠTaver n
Ġlecith in
ĠDaffod il
ĠSteer o
ĠEisenh ower
ocacc ia
Ġpartrid ges
Ġporcel ain
ĠAnsw er
ĠStephan ie
) !
* ,
2 30
7 50
9 3
A djust
B eat
B aker
C O
C om
C up
C overed
C ereal
C ajun
C arrots
D ep
D inner
D irt
E ven
E ase
E aster
G A
G oo
G ra
H E
I r
J ello
J onathan
K n
K ist
M P
M il
M uff
M olasses
M other
M iddle
N ext
N umber
O re
P op
P umpkin
P astry
S un
S ch
S ize
S ee
S ubstitute
T oo
T bsp
T aste
T aco
T ang
T upperware
V egetarian
W ip
W inning
Y east
a ine
b ra
b iscuit
b iscuits
c art
c ilantro
c irc
c rowd
c ont
c rip
d ra
d ock
e gs
e bel
f il
f oot
g ust
g io
g ium
g ogi
g ency
h ing
h art
h addock
i ge
i els
j ello
l ump
l ima
l icky
n ake
n umber
o ard
o ats
o atmeal
p unch
p icante
p odge
r ub
r ds
s y
s or
s ugg
s izes
s uckle
t L
t x
t oo
t heat
t ined
t ini
t boil
t by
t This
t len
t Layer
t beat
t but
t Make
t Yield
t Ar
t emperature
t oothpick
t Melt
u ri
u et
u ry
u ous
v on
v as
v ance
v ados
w estern
y olks
z ah
Ġ @
Ġ iv
Ġ edged
Ġ arbor
Ġc ow
Ġc raisins
in is
in ers
in crease
Ġs in
Ġs ided
er an
er on
er ate
an i
an ces
Ġt al
Ġt ate
Ġt em
Ġt erry
Ġo h
Ġo i
Ġo in
Ġb ing
Ġb ac
Ġb us
Ġb ans
Ġb asted
Ġb ugs
Ġb uckeye
ar ed
ar ies
ar oni
ar ning
ed der
ed ral
es pecially
es ota
Ġp ail
Ġp ounder
Ġp ads
Ġp aws
Ġm aters
il da
ut ion
en a
en uts
en ces
en velop
Ġf ant
Ġf eeds
Ġch ol
Ġch edder
Ġw esson
Ġw estern
ic s
ic ola
le en
ĠC y
ĠC ec
ĠC one
ĠC ame
ĠC ukes
ĠC armel
ak ota
el icious
Ġ2 12
Ġsu i
Ġa is
Ġa id
Ġe a
Ġe conomical
Ġd rench
Ġd rape
Ġd ye
ĠS til
ĠS ay
ĠS em
ĠS ifted
ĠS ets
ĠS ouffl
ĠS omething
Ġtsp s
Ġl ate
Ġl ip
Ġl ap
Ġsalt ing
Ġpe aked
oo f
oo sh
ĠB an
ĠB ry
ĠB ec
ĠB oth
ĠB og
ĠB ib
ĠB ama
ĠB unk
ĠB reeze
ac ter
ĠP and
ĠP ats
ĠP ray
ĠP itas
ĠP umpernickel
ĠP uerto
un ce
un ken
un seasoned
un ior
is ine
is ture
ĠT or
ĠT ight
ĠT ong
ĠT eri
ĠT ah
ĠT radition
Ġche aper
Ġun thaw
Ġun washed
Ġun usual
Ġv ers
Ġv erse
ĠA mi
ĠA ward
ol ia
Ġh oop
Ġh olly
Ġh inged
us o
ĠM i
ĠM et
ĠM ight
ĠM ass
ĠM os
ĠM ess
ĠM ck
ĠM abel
ĠM ardi
Ġcho ices
Ġbe ige
Ġcream s
Ġwith dra
Ġor ris
Ġor nament
ver se
all ots
uc es
Ġst ron
ell oni
ell ane
om y
om ing
Ġfor t
Ġfor ty
ch or
ch mer
ch erries
ĠAdd ed
ice berg
ir ie
to ut
to leo
um et
Ġsa f
Ġsa id
Ġsa zon
ri mon
Ġn iblets
Ġn ugget
Ġn ougat
Ġ4 9
illa ge
Ġsh erb
Ġj oe
Ġj ob
Ġso p
Ġso ba
Ġth er
Ġgr inds
Ġgr istle
Ġsauce pans
th am
th ur
th rough
Ġover blend
Ġover fill
ĠR ad
ĠR ump
ĠR iv
ĠR ican
ĠR ang
ĠR eam
ĠR io
ĠR ita
ĠR oux
ĠR eddi
Ġwh y
Ġwh ale
Ġbrown er
ay as
ĠCh itterlings
les t
Ġr eroll
ĠMix er
ĠD in
ĠD ar
ĠD ing
ĠD ur
ĠD isp
ĠD uch
ĠD aiquiri
ĠD RA
ĠD irections
ĠD akota
Ġsp am
Ġsp anish
ĠW eep
ĠW ear
igh bor
st ack
st rained
st udded
im o
ĠSp at
ĠSp rink
ĠSp ices
ĠSp rout
qu ante
qu ette
ĠSt ill
ĠSt agg
Ġcorn stick
ĠI v
ĠI GA
Ġsm ear
ĠF re
ĠF ra
ĠF are
ĠF east
ĠF ields
Ġslic er
res cent
ten n
Ġpot ting
Ġpot luc
Ġ6 2
ass e
ass i
ass emble
ĠCook s
ĠL g
ĠL es
ĠL ub
ĠL iz
ĠL ola
ĠL ux
Ġsour sop
Ġ5 8
op y
op la
ĠH it
ĠH ermit
ĠIn ternational
ĠG ate
ĠG ior
ĠG her
Ġ9 3
Ġdry ness
edd y
over ripe
Ġmeat loaf
Ġcl ip
Ġcl ock
Ġcl oud
Ġcl abber
Ġis land
ll ion
sh i
sh iny
sh allots
Ġcrack lin
Ġra be
weet ened
Ġk alamata
ore en
Ġred dish
Ġred skin
Ġstick iness
os c
os ing
os ole
ul ator
Ġpap ayas
Ġbroth s
Ġnut ritious
Ġrais ings
ĠO o
ĠO xtail
Ġnutmeg s
isc ellane
iss erie
ent ial
Ġan chor
ĠE st
ĠE lean
ĠE mp
Ġhe ights
ue bl
ĠCr ullers
ĠBrown berry
Ġcrust less
ĠJ on
ĠJ os
ĠJ oin
ĠJ ug
ĠJ ones
pan ion
ĠDrain ed
Ġli k
Ġli ked
ĠK o
ĠK ate
ĠK art
ĠK ind
ĠK rets
ĠK ipper
ĠK abob
bur st
ĠBl intz
ump y
ĠV iet
act ive
ess e
ess ie
Ġnot hing
Ġextr as
ĠTh erm
ĠTh elma
ĠChe eses
cc a
ĠPe ak
oth ing
Ġfin er
ĠMel ange
par able
ĠMo der
ĠMo chi
ĠMelt ing
ĠN at
ĠN ib
ĠY opla
Ġunc r
Ġcom panion
Ġgelat ion
ĠSh edd
Ġsoft ball
irec r
Ġlett uces
Ġfat tening
Ġfat her
Ġfirm s
Ġfirm ness
ĠPot s
key e
Ġpans ies
ĠBr as
ĠBr ussel
ĠSl im
Ġbou llion
Ġbouillon s
Ġcontain ed
Ġgl itter
Ġbon bons
Ġeven t
mi er
Ġtart let
Ġde lete
ĠVelve ty
Ġwax y
Ġcran apple
Ġcur ved
Ġoccasion al
ount ain
ĠGr as
ĠGr ace
ĠDo d
ĠAr thur
Ġcro oked
ĠCar l
ĠCar rie
Ġtartar ic
ĠRo ka
ern et
erb oard
ud y
ud es
Ġcomp artment
ull s
co ffee
co als
ĠTo dd
ĠTo gether
fl owers
Ġhard ly
ist ol
Ġstew s
Ġstew er
ĠLe banese
Ġpro sciutto
Ġrec over
ĠFl am
ĠFl ag
Ġ24 4
Ġ24 6
ĠSto kely
ied es
ĠSeason ings
ĠMon terrey
ĠMeat s
ĠMeat za
ĠFruit s
ĠSweet a
ĠOn to
so aked
Ġdark ens
ong ated
ĠCan ada
bl ender
Ġme anwhile
ĠPeel ed
Ġdi al
Ġseal egs
.\ )
ĠAl m
ĠAl ong
ĠThe m
ang ost
oin ts
iver s
oul ade
ett ie
Ġmor al
Ġcons um
Ġ18 6
ĠNut ri
Ġ14 5
ĠKar toff
Ġper cent
Ġper ked
Ġper haps
ĠFreez ing
Ġsubstit utions
wh ichever
Ġel ongated
tra d
ort illa
can e
Ġpar alle
Ġpreser ving
Ġcaramel izes
oles ome
ĠDi av
most ly
Ġcor er
ĠOr ville
ez ebel
ĠNo el
ĠNo bby
Ġsn ake
ĠAng ostura
Ġwood y
ĠPro ceed
ĠTur meric
ĠMars h
ĠMars ha
tc akes
13 0
ĠCl overleaf
ĠCl uster
ĠCl abber
Ġ* (
Ġcap er
ĠCaramel ized
ĠRe ad
ĠCup cake
cr ush
cr acker
Ġreturn ed
ĠSm art
ĠSm okey
Ġwor ld
Ġcas es
ĠWill ie
Ġgener ally
ĠTex ture
ĠAltern ating
Ġsun ny
ĠCro iss
ĠTw irls
Ser ved
ĠPr in
ĠEn close
Ch i
Ch olesterol
Ġact ually
Ġact iv
ĠMar g
ĠMar ion
ĠBur st
Ġpear led
mix ing
ĠCol on
ĠCrack le
ĠCrack les
Ġreach ing
Ġlevel ing
ĠCal ab
ĠCal umet
ĠHe irl
ĠHe avily
Ġpower ed
ĠMom a
ĠMom ents
ib beh
ĠNor ma
ĠPl ug
Pot atoes
ĠHerb al
Ġgo blets
ĠAp ril
Ġsw eat
Ġsw ish
Ġgu ide
Ġsix teen
Ġ100 0
ban ger
ĠCustard s
ĠTri o
Ġcurd ling
ĠApricot s
Ġbur sts
ĠPer ch
ĠPer fection
ĠIs ra
ĠAb by
ĠLa ine
ĠBowl s
Ġstrip es
Ġscr umptious
Ġrib bons
Ġrib eye
ĠKn ow
Ġcre ating
Ġspir its
Ġdrink s
ĠAm azin
Ġartifici ally
ĠBon bon
ĠMu es
Ġscorch es
Ġhollow s
Ġ19 8
Be ans
ĠPeas ant
ĠBra d
ĠBra unschweiger
Ġad equ
ĠBas que
ĠTre es
ĠTre et
Sp ray
pack age
pack aged
ĠTost ados
ign ons
Ġlit tlen
Ġsav oy
Ġinter ior
Ġloosen ing
Ġwe igh
Ġear th
Ġdr ugs
Fro sting
ĠClass ico
ti ere
ĠBell s
ĠStack ed
ĠGran ulated
ĠFinish ed
Ġthumb prints
Ġadjust ing
unche ons
Ġte as
Ġpocket book
len gthwise
Ġtr ash
ĠRos ie
ĠRos arita
Ġcall ing
ĠBea ut
ĠCap t
ĠCap ers
ĠPrim a
Ġsna pped
Ġdrum stick
ĠUp on
ĠEd ge
ĠEd ges
ĠSix ty
ĠGen e
26 5
tS immer
ĠAd vance
Ġreg ulator
ĠCav atelli
mm mm
Ġve gex
App etizers
andel ions
Ġskewer ed
ĠAvocad os
ĠBut t
ĠPaul ine
Ġsem olina
Ġsmok ies
Gr ated
ĠRuth ie
Ġsweeten ing
Egg s
Egg plant
Ġwid est
ĠFud gie
ĠFud gies
Sa ute
Ġread ing
Ġsilk s
Ġpol enta
Ġfix ings
ĠSub s
Ġgold fish
ĠPass ion
ĠPass over
ĠKet tle
Ġmatch sticks
Ġdec af
ĠEvery thing
ĠJu an
Pre pare
tB oil
Ġencl osed
Ġcal vados
Ġha upia
Ġspl atter
sal sa
Ġconven ient
Ġpen na
ĠFrank lin
ĠBel gium
Ġrear ed
Ġrid ges
Ġrid ged
Ġatt emp
Ġaccom pany
Ġmen u
ĠCab ernet
Ġcomple ment
ĠFri joles
ĠRequ ires
Ġsplash es
ĠPi ro
ĠPi quante
ung ent
ĠQuesad illa
Fl our
Ġarm adillo
Ġfar fel
tF ill
ĠBow s
ĠTer esa
Ġappet ite
Ġappet ites
Ġhun ger
Ġenhan ces
Ġdevelop s
Ġsurround ing
Ġaccompan ied
four ths
Ġvert ical
Ġoutdo ors
di et
Ġta wny
Ġshrink s
turn ed
ĠBu ild
ĠMull ig
ĠDou bled
refriger ate
Ġcamp fire
Ġcamp hor
ĠMat rimon
ĠMich elle
ĠDan iel
ĠDan iels
ĠIi i
ĠJoan ne
ĠDrum stick
tCh op
ĠBab ies
ĠBab ka
ĠPizz aburgers
ĠWhe els
ĠEll ie
Ori ental
Red uced
Ġchang ed
ĠBul gur
Ġpi geon
ĠColl ards
itt lings
ĠBlan c
Ġindic ates
Wor ld
rot ini
tsh ortening
ĠHow ever
ĠWho ppers
Ġviole t
ĠMinn esota
Ġgrand mother
ĠKe bab
ĠButterh orn
Ġsoul s
Ġdiscolor ation
ĠTempt ation
comb ined
ĠSzech uan
ĠPle asing
ĠKal amata
Ġprov ide
ĠCons omme
Ġsatisf action
Sk illet
marin ated
seal ing
Ġpair s
ĠOccasion ally
ĠNap a
Br unch
Ice box
ĠMusc at
ĠKring la
ĠPaprik ash
Hun garian
Tast y
Tast es
car amel
Ġble mish
ĠSi mon
ĠBud get
ĠDa wn
Ġbru ise
Ġbru ised
En joy
ĠCall ed
ĠTag li
ĠAust rian
Ġneat ly
ĠGroup er
ĠClar et
ĠDoc tor
ĠWy oming
ĠFowl er
ĠFore ver
ĠFlower pot
ĠLill ian
ĠHodge podge
ĠGh irard
Ġalter ed
Ġcomfort ably
Ġboun ces
does n
Ġmicrowaves afe
slow ly
Ġooz e
altern ate
ĠRen ee
ĠDain ties
ĠSpl ash
ĠFest ival
ĠLizz ies
Ġknock wurst
wa fer
Ġeggsh ell
ĠRus se
ĠChard onnay
ĠLon ger
Ġstirr ers
Ġshorten in
Ġradi atore
Ġbranch es
ĠRevie ws
ĠCrout ettes
Garb anzo
Her itage
Hom emade
Ġsar an
Ġow l
ĠCath edral
ĠTour tiere
Ġhob bies
ĠMyr tle
ĠMorocc an
Ġarri ve
ĠTravel ing
ĠPeppark akor
Imp ortant
Whe els
hull ed
Ġsucc otash
Ġgen oa
Ġunex pected
aban ero
ĠWall banger
Ġaltit ude
Ġproble m
ĠZatar ain
Ġunself ishness
ĠCrem ora
ĠCommun ion
attles nake
CO OK
Ir ish
crip tion
tAr range
Ġarbor io
ĠStil ton
ĠPats y
Ġwithdra wn
Ġstron ger
Ġsherb ets
ĠReam es
ĠDuch ess
ĠDRA IN
Ġpotluc ks
ĠGior gio
iscellane ous
uebl o
ĠKrets chmer
ĠViet nam
ĠYopla it
angost inos
Ġparalle l
ĠHeirl oom
Ġdrugs tore
ĠGhirard elli
2 12
3 7
6 5
9 2
A K
A L
A u
A v
A ka
B ar
B on
B ars
B efore
B ob
B oston
B ottom
B oiled
C enter
C reme
C ountry
D ream
D ot
D iced
D ressing
E d
E ach
E LY
F r
F amily
F reeze
F aced
G arden
H el
H ard
H unt
H oliday
H alf
I L
J O
J if
K ing
K nox
K ellogg
L oaf
L ittle
M O
M icrow
M ary
M arshmallow
N e
O uts
O ven
O ther
O mit
O live
O IL
P er
P ink
P arsley
P udding
R os
R anch
R uss
R oma
S liced
S ummer
S eason
T ake
T ot
T om
T art
T rim
V anilla
W on
W ine
W ell
W ay
Y ogurt
Y ummy
a el
a it
a id
a ux
b ed
b et
b ber
b asco
c ottage
c ount
c ia
c ured
c rock
d u
d uc
d om
d ies
d rop
d ifferent
d ified
d rizzle
e ams
e asier
f ers
f illet
f ashion
g on
g en
g it
h u
h ens
h ape
h og
h omme
j el
j am
k fish
k ielbasa
k osher
l ix
l ard
l asagna
l eness
l iness
l ogs
m g
m id
n ac
n oodle
n eeds
o ated
p at
p enne
p ull
p ig
p umpernickel
r un
r ese
r alian
r itz
r hubarb
s ur
s im
s se
s uper
t own
t about
t bread
t ear
t dish
t Microwave
t medium
t You
t juice
t this
t drain
t broccoli
t Yields
t Gr
t according
t pour
t broth
t Next
u le
u ie
u als
u lee
u ana
v o
v ary
v ari
v ril
z el
Ġ EN
Ġ umb
Ġ ash
Ġ ant
Ġ est
Ġc oup
Ġc uke
Ġc rayons
in ing
in ton
in ola
in stead
an ten
an other
an za
Ġt iger
Ġt ennis
Ġo k
Ġo per
Ġo melets
Ġb i
Ġb en
Ġb or
Ġb less
Ġb aster
Ġb iscott
es ca
Ġp a
Ġp ay
Ġp ore
Ġp iles
Ġp ermit
Ġp arslied
Ġm er
Ġm illed
Ġm usk
Ġm esa
Ġm ingle
at elle
re ci
ut eron
on ds
on stitute
en til
en th
en tenn
Ġf ake
Ġf ool
Ġf izz
Ġf ritos
Ġf ava
Ġch our
Ġch ittlings
Ġw r
Ġw ise
Ġw aste
Ġw ind
Ġw ants
Ġw omen
ic ut
ic orn
Ġto ok
Ġto ler
sp ring
sp ecial
pp ino
Ġin n
Ġin v
Ġin ten
le p
ro m
ro ast
ĠC uts
ĠC rim
ĠC og
ĠC af
ĠC io
ĠC asseroles
ĠC otton
ĠC edar
ĠC indy
or ing
or ough
el ves
Ġ2 10
our ab
as ers
am ent
am ite
it ian
it eness
it asse
Ġe v
Ġe clair
Ġd am
Ġd efin
Ġd andelions
ĠS ing
ĠS is
Ġg ri
Ġg els
Ġg ills
Ġg rid
Ġg oulash
Ġg oya
Ġg eran
Ġl es
Ġl ack
Ġl ab
Ġl ily
Ġl uke
Ġl acy
he e
he aped
oo oo
ix on
ĠB isco
ĠB ert
ĠB rag
ĠB ier
ĠB ank
ĠB rid
ĠP ow
ĠP ato
ĠP out
ĠP ant
ĠP ump
ĠP int
ĠP ups
ĠP aints
ĠP arson
ĠP osole
ĠP oints
ĠP ueblo
Ġfl uffed
Ġfl uting
gg i
un whipped
Ġegg less
is m
ow el
ĠT O
ĠT a
ĠT ar
ĠT orn
ĠT emper
ĠT imes
ĠT asting
ĠT umble
ĠT ij
ĠT utti
ĠT yson
ĠT angerine
Ġbutter s
Ġbutter finger
ick s
Ġun gl
Ġun floured
Ġun iodized
Ġun even
Ġv an
Ġv al
Ġv apor
ill es
ĠA ge
ĠA sh
ĠA LL
Ġh ast
Ġh ugs
Ġh ogs
Ġh appiness
us a
us ion
ĠM E
ĠM ills
ĠM orr
ĠM iso
Ġbe e
Ġcream ettes
Ġcream iness
Ġst rap
Ġst amp
Ġst ages
Ġst ead
Ġst eams
ad ami
ad ama
om i
Ġwater s
ch ow
ch eddar
ch ipped
ir im
der berry
ĠTbsp s
Ġbro om
Ġcr uet
to ss
ts y
ts our
Ġcan vas
Ġsa uted
ri g
Ġn ative
Ġn ori
Ġ4 1
ve al
Ġbak in
Ġsh ave
Ġsh ower
Ġsh aky
Ġsh akers
Ġj o
Ġso c
Ġth us
Ġth ousand
Ġth under
Ġat e
Ġat ten
Ġpowder y
Ġmar king
.) \
th ot
th icken
Ġover nite
Ġover crowd
ure n
ĠR al
ĠR ush
ĠR ust
ĠR idge
ĠR oot
ĠR andomly
ĠR eggiano
Ġcook ware
Ġcook outs
ĠCh allah
Ġr ash
Ġr ounder
Ġr usk
Ġr andomly
ate m
Ġco il
ĠD ips
ĠD ott
ĠD uff
ĠD ime
ĠD ills
ĠD uds
ab ove
ur ros
Ġsp ill
Ġsp rout
Ġsp aetzle
Ġsp aghettini
ĠW edge
Ġre ce
Ġre hydrated
Ġgreen ish
ip ino
ef fer
st raw
st ance
st raight
st rong
im ore
ĠSp ider
ĠSp eci
Ġse ver
Ġse per
Ġfro sts
ĠSt ri
ĠSt ones
Ġcorn ish
id ing
ĠF on
ĠF el
ĠF ans
ĠF ern
ĠF airy
ĠF unny
ĠF ondant
ĠF ocaccia
ĠF irecr
ven t
ole tti
Ġpot ted
Ġy o
if th
if ica
pple ments
ass ion
ain er
ain der
Ġ8 1
ĠL B
ĠL an
ĠL ink
ĠL ew
ĠL ind
ĠL atin
ĠL ori
ĠL ively
ĠL adies
Ġbl and
Ġbl ind
Ġheat h
ach i
ĠH ut
ĠH ass
ĠH ocks
ĠH ilda
Ġcon fetti
ĠG i
ĠG in
ĠG il
ĠG ro
ĠG el
ĠG ift
ĠG erry
ĠG eri
ĠG inny
Ġcar b
Ġcar ing
Ġdish wash
ard ini
em ent
em itasse
Ġshor tcakes
ag ies
Ġcl over
Ġcl ipped
sh aw
sh erry
ĠWh ites
Ġmay onaise
ant ic
ant uck
ant ity
Ġal arm
Ġk it
Ġk its
Ġk asha
Ġk ilo
av o
av as
Ġapp eal
Ġapp reci
Ġsl ime
Ġsl ower
Ġsl anted
ul ture
ul ah
Ġfresh ness
ep h
Ġ15 6
Ġsk ip
end ous
Ġ13 6
ĠBro ok
Ġrais es
ĠO ma
stant ly
isc os
iss a
ec ted
ec tion
Ġblack strap
est ead
Ġshe epher
yr am
Ġpour s
ps on
ĠE ls
ĠE mm
ĠE uro
ats um
Ġhe av
ĠCr me
ĠCr isto
ĠPre fer
ĠPre boil
ĠJ r
ĠJ el
ĠJ ay
ĠJ aco
ĠJ ong
ĠJ icama
ĠJ enny
ĠJ ezebel
Ġsweet bread
pan cake
ĠK ake
ĠK orn
ĠK rist
ĠK ibbeh
Ġpre fers
Ġpre zel
bur rito
ĠBl t
ĠV anish
ĠV ita
ĠV illage
Ġare as
Ġjell ies
act ory
Ġsmooth ness
ĠTh under
urp entine
ĠChe er
ĠPe king
oc o
ĠMel issa
par affin
Ġginger root
ift y
ĠN ich
ĠN ik
ĠN adine
ĠN ugget
ĠN antuck
kin d
ĠY o
ĠY ak
Ġunc oated
aw ry
Ġcom mer
Ġcom mun
Ġcom parable
Ġliquid y
ĠItalian a
ĠBe ach
ĠBe verly
ĠBe tsy
ĠSh or
Ġdash i
Ġcont act
Ġ7 4
Ġoff er
ĠPot ted
pe an
ĠCheese burgers
ile en
Ġ35 7
Ġsc one
ĠBoil er
Ġcol der
ĠSl um
ĠSl ime
ĠSl ov
reez er
ĠSw ish
Ġfry ings
Ġcle ars
Ġcle aver
Ġgl azy
Ġgl azing
Ġgl owing
Ġbon y
ich en
Ġcand le
tern ess
ind ividual
Ġhoney suckle
Ġrest ing
Ġkidney s
ape ppa
Ġde bon
Ġacc ord
Ġcran k
Ġcur ley
Ġbr ussel
uck er
Ġ16 5
ĠGr ouse
ĠAr nold
ĠAr bor
ĠPress ed
Ġtw ir
Ġdown ward
ĠCorn y
ĠCar ole
ĠRo bb
ud ites
ud homme
ĠTo ppers
fl ank
ĠCo b
Ġmicrowave proof
ĠTab ooley
Qu art
Ġdri ps
ĠLe b
ĠLe ona
Ġpro be
ĠBeef aroni
ĠFl ora
Ġneed les
ĠSc alo
ĠSc allions
ĠSqu eak
sc allops
ĠZ at
ĠGre g
ig o
ig old
ig ne
az a
Ġany where
ĠUn til
ĠUn sweetened
ĠUn leaven
ĠCon d
ĠCon fection
spar ingly
ĠCan ape
ĠCan ning
ĠBreak away
Ġinser ts
ok i
ĠAl berta
Ġmold ing
ons istency
Ġback strap
Ġ11 3
Ġ11 7
ili ko
ĠPec os
Ġlength ways
ĠPat ti
ĠAfter noon
ĠOre gon
ĠKnead ing
ĠRa gg
Ġfre estone
ĠChip otle
ĠOld e
eri or
ĠFarm ers
ez uel
ĠPast el
ĠPast ies
Ġpop ular
ĠPick ing
Ġsn akes
do or
Ġwood chuck
ĠPro v
Ġpink ness
ĠCran apple
amb e
cl udes
ĠCl inton
ĠSk i
Ġpuree ing
aff le
ĠCrab by
ĠCrab bies
als am
ĠRe v
ĠRe eses
ĠRe lease
ĠRe indeer
ĠGreat est
Ġthickness es
ĠDelicious ly
cr isscross
cook er
Ġind ex
Ġarrange ment
Ġspring erle
Ġreturn ing
Ġpunch ed
Ġpor terhouse
ĠIm pro
ĠGl enn
ĠGl uten
hew y
All ow
ĠOven s
cup s
Ġalong side
ĠDish es
Ġtri pe
ĠPh ili
Ġgrape vine
ĠBlack well
ĠTw elve
ĠPack ets
ĠVeg ie
Ch ick
Ch ill
Ch urch
ty east
ĠMar i
ĠMar cus
ĠCrack ling
ĠGrill ing
Ġoverb aked
Ġoverb aking
Ġrese t
Ġbit terness
ĠCal yps
med ary
Ġspat ini
ĠHe idi
ĠCre ative
Ġent re
ect icut
ĠAn ita
Ġnear est
ĠSeed less
Ġrepeat ed
ĠFish erman
Ġsw ift
ĠCur ve
Le banese
Ġliqueur s
Ġcurd les
Ġstrain ing
Ġbur dock
ĠPer ky
ĠJo b
Ġrich ness
pre heat
Ġouts ides
Ġgloss iness
ĠStick ies
ĠOp al
Ġmound ed
ĠYum s
ĠSec tion
rec omm
ĠFrit ter
ata wny
ĠJer k
Ġharden ing
Ġspir it
ret ain
ĠPin ts
dr um
dr ummettes
ĠAm y
ĠSmith field
Ġtam ale
Ġtam ara
ĠMil o
Ġgrind ings
ĠOli via
Ġ19 7
Ġtast ier
ĠEl k
ĠEl bow
ĠEl derberry
ĠPear ls
unc over
ĠTr ish
ĠMa ude
ĠMa ifun
In ternational
Ġtransfer ring
Ġovermix ing
.. ..
tP re
Ġad ult
ada if
Ġtenderiz ing
imm ing
Sp rinkle
ĠTam my
ĠCat tle
Ġcheck erboard
Ġdiet ary
ĠHo ff
law s
Ġinter mit
ĠCole man
ĠAmar etti
Ġuncover ing
Ġpier cing
Ġprick ing
ĠHal ved
ĠMill er
Bro iled
ĠGu aranteed
Ġstay ing
Ġpattern s
de hydrated
Cook er
pepper oni
ĠSkin less
Ġchar acter
ĠLo ad
Ġsea weed
fin ish
ĠPier og
ĠCacci ator
ĠBo vril
Ġstone ground
ĠBob by
Ġte eth
Ġte acher
ĠMcCormick s
ĠTart e
Ġtr ue
Ġtr uss
ĠJew els
ĠGrandm om
Ġcoll ar
sciut tini
ĠCap er
Ġlo vely
Ra isins
Butter ed
Ġbra ve
ĠMade le
Layer ed
Ġfriend liness
ĠEd ith
ĠEd wards
ĠBag s
ĠBag el
ĠSand ers
Ġunmold ed
ĠDr ummettes
ĠDr unken
tS eason
Ġcrunch ies
ĠSpring s
ĠSpring erle
ĠHold s
Ġfeed er
Ġinc reasing
ĠChar coal
Sh ake
Ġbrew er
ĠChuck wagon
con fectioners
cal illi
Ġmanufactur ers
Ġgizz ard
Ġcrimp ing
ĠHoll and
ĠCor on
Ġeff ort
Mar tha
tD ivide
Ġsilk y
ĠArm adillo
ĠArm enian
soup y
Ġpol iteness
Ġgent leness
ĠDep artment
Pre tzel
ĠSunda es
Ġcrystall ize
Ġpres weetened
Ġexp osed
ĠStromb olis
Ġha ppy
augh ter
Col lege
Ġfif ths
ĠSens ations
ĠContin u
hom ogenized
tT ake
Ġexten ded
Ġplay ers
ĠJumb os
Gar nish
He inz
Ġcond ite
ĠAss orted
ĠDec ember
ĠDorito es
ĠHealth ful
Ġretain ing
tb ottom
Ġport abella
Ġport abello
ung eness
Ġspear ed
Ġsand ies
ĠPit ts
oven s
ĠTer ri
Ġsmell s
Ġsmell ing
Ġenamel ed
Ġdisappear ed
ĠCry st
ĠRem oulade
Ġide as
ĠPul p
ĠPimento s
ĠMid west
ĠMid western
ĠBraid ed
Ġple aser
Ġpass ed
ĠBer tha
ĠLy onnaise
ĠRob usto
ĠMcKay s
crack ers
Ġta pping
ĠMem a
ĠBu ry
refriger ator
Ġbagg ies
ĠMich ael
Ġmoon s
ĠEll a
tmix er
Ġgum mi
Ġflam es
Ġflam ing
Ġspeck led
ĠEm ma
ĠRefresh er
Ġpi quant
itt les
ĠDie ters
ĠHolly wood
ĠBlan che
Wor cestershire
Ġcat tail
leftover s
resist ant
ĠMunch ing
Co ated
Ġwat ts
ĠSor rento
ĠPac ifica
ĠTail s
ĠJess ica
comb ination
ĠCe viche
Ġcrink ly
ĠFu zzy
ĠFu ji
ĠOV EN
Ġcompl iment
ĠDreams icle
Ġol der
ĠCass oulet
ĠKit ty
ĠNap oli
tcr ust
ĠDecad ence
Keep s
pure e
Ġca uses
Ġph one
Ġwip ing
Ġgrass y
ĠNell ie
Ġemuls ion
Ġemuls ified
Hun gry
uu uu
lebr ity
ĠPra irie
ĠAnch or
ĠWind ow
stuff ing
Ġsmother ed
ĠEnt ree
ĠMagn if
concentr ated
grap es
ĠCel est
ĠCel ia
ĠJeff erson
saute ed
Ġdelight ful
Stuff ing
CE P
cor kscrew
hel d
ĠBridge ford
ĠMul ti
tsm all
tsm ooth
ĠWy att
ĠLam agna
ĠEmer il
Ġcomfort able
ĠShel by
ĠĠĠĠ ĠĠĠĠ
ĠSeashell s
ĠParis ienne
Ġfail s
Ġaw ful
Ġchew ier
Ġshrivel ed
ĠSte ve
ĠLick in
ĠJenn ifer
Ġpract ice
Ġpract ically
Ġreplenish ing
Hor mel
bar ely
purch ased
Ġcaut ion
Ġpil ot
ĠCu isine
Ġachi ote
Ġhapp ens
ĠMicrow aved
ĠTurk etti
ĠSkro odles
broil er
ĠGoof y
Ġkolb assi
Nor wegian
Ġpill ow
Ġpizz elle
Ġmag ic
Ġmidd les
Ġinject or
Ġgash es
ĠParsn ips
ĠTun o
ĠRadish es
ĠChap el
ĠCharm s
Ġspec ified
Ġrel atively
struc tions
ĠSpanak opita
Ġcart wheel
ĠWhit efish
ĠScot ts
Ġinterest ing
prick ed
ĠBernste ins
ĠChocolat etown
lar ger
Ġcra zy
Ġbel ieve
Ġpoll ack
Ġmut ton
Ġasp ic
ĠPill ows
ĠAgg ression
Ġhydr ated
ĠMI X
ĠRese al
ĠDro medary
ĠWake field
Ġrele ased
ĠStain ed
ĠLore tta
ĠGard ner
Ġabund ant
ĠBlush ing
Ġliquef y
ĠBrey ers
ĠPhy llo
Ġtyp ical
Refriger ate
Mil not
Ġbac alao
Ġbus y
Ġfant astic
Ġais le
ĠBry an
ĠPray er
ĠTight en
ĠTong ue
ĠTah itian
ĠElean or
ĠNib ble
Ġuncr ushed
Ġcompanion ship
ĠDod gers
ĠFlam ing
ĠColon el
ĠIsra eli
Ġadequ ate
Ġlittlen eck
Saute ed
Ġattemp t
ĠMullig atawny
ĠVietnam ese
Fr utti
JO Y
ĠEN JOY
uteron omy
entenn ial
Ġchour ico
Ġtoler ance
ĠCrim son
ourab iedes
Ġdefin ite
Ġgeran ium
ĠBier ocks
ĠPant ry
ĠTij uana
Ġungl azed
Ġhast en
adami as
ĠSpeci als
Ġseper ate
ĠLew is
Ġblind ness
ardini era
Ġappreci ation
ĠEuro pean
ĠJong he
ĠVanish ing
ĠNantuck et
Ġcommun ity
ĠSlov ak
Ġdebon ing
ĠArbor io
ĠUnleaven ed
iliko i
ĠCalyps o
4 4
9 9
? ).
A U
A mar
B o
B all
B rit
B orden
B asic
B egin
B AK
C e
C on
C ont
C uban
C rescent
C hewy
D ou
D or
D issolve
D ark
D oritos
E r
E qual
F in
F ace
F ollow
F rost
F eeds
G i
G o
G et
G rape
H and
H ow
H ill
H int
H ere
I s
I ng
J ar
J immy
K ar
K eebler
K entucky
K roger
K enz
L i
L ess
L asagna
L ima
L uke
L antern
L awry
M ash
M ost
M ama
N T
N ow
N ice
N ight
O L
O R
O h
P le
P ast
P ack
P ound
P ep
P oke
P eel
R ap
R ea
R eal
S S
S e
S in
S ar
S immer
S ec
S yrup
S ea
S poon
S kin
S odium
S ugg
T e
T en
T im
T ender
T oothpick
T aylor
T ELY
U m
U nd
V e
V egg
W ork
W ondra
X CEP
Y LE
Z iploc
a e
a pped
a venly
a verage
b i
b q
b un
b ers
b aste
b ec
b ian
b eam
b ale
b rien
b egin
c ro
c as
c ie
c ombine
c ording
c ock
c ran
c ially
c aps
c rib
c onsistency
d ill
d ated
d ue
d illas
e asy
f ra
f all
f ork
f ind
f ettuc
f rito
g ill
g us
g um
g inger
g hett
g ently
g ive
g riddle
g ressive
h on
h ash
h ickory
h oriz
i y
i gar
i als
i ppers
j a
j u
j ou
j ul
k rain
k ig
k iver
k iwi
k akor
l ook
l ose
l ock
l oaves
l ander
l asting
l oos
m ill
m om
m ines
m icelli
m ints
m esh
m ersed
m endous
n ow
n ers
n ew
n ellini
o em
o do
p ed
p op
p ats
p ower
p uffed
p ressed
p ossibly
r ition
r ous
r ase
s ix
s age
s ub
s ea
s ia
t es
t sp
t ell
t ight
t ap
t quart
t not
t may
t If
t chopped
t une
t melted
t To
t buttered
t put
t vanilla
t make
t Un
t liquid
t pork
t melt
t place
t fruit
t paper
t extured
t uous
t ortilla
u ed
u zz
u ppe
v ate
v ise
v ada
w en
y on
y ro
y oung
z est
Ġ ?
Ġ er
Ġ ed
Ġ PE
Ġ ans
Ġ kg
Ġc t
Ġc ou
Ġc rease
Ġc armel
Ġc reases
Ġc ulture
ST YLE
in oa
in cluded
in ct
Ġs on
Ġs ass
Ġs atsum
er r
er es
er na
er ds
er ina
an ter
an ie
Ġt atoes
Ġt ul
Ġt atar
Ġt urpentine
Ġt sub
Ġo dd
Ġo dor
Ġo cean
Ġb il
Ġb are
Ġb other
Ġb umpy
ar got
ed ic
es us
es tions
es ides
Ġp k
Ġp ad
Ġp uts
Ġp ico
Ġp enny
Ġp yram
Ġm it
Ġm udd
Ġm iss
Ġm oves
Ġm unch
Ġm ath
at ten
at ile
il et
il iter
re p
re ally
re active
ut a
en ie
al itos
ou f
ou ston
Ġf ed
Ġf act
Ġf ellow
Ġf lec
Ġf ond
Ġch ry
Ġch im
Ġch air
Ġch allah
Ġw ring
Ġw ent
Ġw ider
Ġw ife
Ġw igg
Ġw ives
Ġw edding
ing ness
ic iness
ic eland
gar den
Ġto y
Ġto ld
Ġto asts
sp inach
sp ended
sp ital
le igh
le ted
LE TELY
ro r
ro y
ro ad
ro me
ro ved
ro sting
ro uted
ĠC i
ĠC z
ĠC utter
ĠC ay
ĠC asser
ĠC art
ĠC ent
ĠC raw
ĠC ork
ĠC oil
ĠC HI
ĠC HE
ĠC entennial
ak ert
el t
el inn
el ini
Ġ2 24
as ters
am mon
it re
Ġsu pplement
Ġsu shi
Ġsu spended
Ġa do
Ġa gent
Ġa uthentic
Ġa fra
Ġ3 35
Ġe el
Ġe mer
Ġe mp
Ġe aters
Ġd ime
Ġd est
Ġd itch
Ġd esserts
Ġd ances
Ġd arning
Ġd emitasse
Ġd aughter
Ġsugar y
ĠS ac
ĠS ad
ĠS iz
ĠS oul
ĠS olid
ĠS illy
ĠS uitable
Ġg un
Ġg erman
Ġg irl
Ġg irls
Ġl ak
Ġl isten
Ġl itch
Ġl ingonberries
Ġl uncheons
ter sh
Ġsalt less
ion al
ĠB ook
ĠB old
ĠB ased
ĠB end
ĠB ian
ĠB ist
ĠB ok
ĠB asting
ĠB alt
ĠB unn
ĠB ugs
ĠB OIL
ac qu
ac iole
ĠP ub
ĠP ano
ĠP eri
ĠP osh
ĠP urch
ĠP ike
Ġfl or
Ġfl ap
Ġfl oss
gg ed
gg ies
gg iness
un es
is ada
ow dy
ĠT an
ĠT is
ĠT ow
ĠT ub
ĠT aking
ĠT oot
ĠT eddy
Ġ( ??
ick ey
Ġche z
Ġun w
Ġun whipped
Ġun refrigerated
Ġun ique
Ġun evenly
Ġv erde
ĠA h
ĠA id
ĠA ff
ĠA rab
ĠA meric
ĠA gn
ĠA then
ĠA aron
ĠA uthentic
ol ine
Ġh ay
Ġh op
Ġh oll
Ġh ous
Ġh arina
Ġh oot
Ġh orns
us ias
ĠM ing
ĠM us
ĠM ole
ĠM illet
ĠM ellow
ĠM uch
ĠM ai
ĠM ouse
ĠM alt
ĠM MM
ĠM ansion
ĠM ickey
Ġpepper mints
Ġbe ars
Ġbe ep
ra spberries
ver ages
ver micelli
all i
all ie
uc oa
uc erna
Ġst ix
Ġst reak
ad or
ch ie
ch oose
Ġcr im
Ġcr ess
Ġcr udites
to ast
to ber
ts yrup
ts lice
ts heet
Ġcan isters
Ġsa w
Ġsa il
Ġsa ver
Ġn et
Ġn op
Ġ4 15
Ġoz s
et urn
et ian
Ġsh ucks
Ġsh elves
Ġj eal
Ġj iffy
Ġso ck
Ġso das
Ġso gginess
Ġgre y
Ġgre ater
Ġmar igold
.) ,
th row
th oroughly
th yme
th inner
th alf
th usias
Ġover ly
Ġover sized
Ġover process
ĠBake well
ĠR and
ĠR edi
ĠR ies
ĠR ail
ĠR ising
ĠR uffles
ĠR accoon
ĠR attlesnake
read ed
Ġbrown ings
ĠCh as
ĠCh art
ĠCh amps
Ġr ush
ush ian
ush aw
Ġco pper
Ġco ff
Ġco ordin
ound s
ĠD er
ĠD al
ĠD ol
ĠD ag
ĠD ul
ĠD oves
ĠD eal
ĠD ort
ĠD oodle
ĠD rape
ĠD uke
ĠD inners
ĠD AS
ĠD allas
ĠD essie
ab ility
ab eche
mon osodium
Ġsp ills
Ġsp ike
Ġsp lenda
Ġsp arerib
ĠW in
ĠW ow
ĠW ick
ĠW inn
ĠW ages
ĠW itch
ans i
orn o
Ġre cept
Ġre bake
Ġre vie
Ġre verse
Ġre veal
st rom
Ġbo dies
im bo
Ġgar land
ĠSp ain
ĠSp aetzle
ĠSp aghettini
ĠSp arerib
Ġju icier
Ġju icer
qu in
qu ito
ĠSt an
ĠSt iff
ĠSt een
id or
id Rise
ĠI gn
ĠI MO
Ġground hog
ĠF i
ĠF o
ĠF ake
ĠF ly
ĠF ound
ĠF its
ĠF eath
ĠF arina
ĠF aith
ĠF oam
ĠF reck
ĠF ifty
res t
ten d
ten ough
ten mann
ten tly
Ġpot ass
Ġpie ced
ust ed
Ġall spices
Ġy ard
Ġy outh
if ruit
Ġ6 8
Ġboil ers
ĠCook out
ap h
ap ot
ap rika
ap ua
Ġ8 3
Ġ8 4
ĠL ut
ĠL ot
ĠL ap
ĠL east
ĠL und
ĠL ib
ĠL inz
ĠL illy
ĠL ucks
ĠL acy
ĠL eche
ĠL ela
Ġbl iss
Ġbl anket
Ġbl aded
ach y
ĠH an
ĠH oo
ĠH orn
ĠH art
ĠH ats
ĠH atter
ĠH ong
ĠH ills
ĠH oe
ĠH uds
ĠH ob
ĠH ugs
ĠH asty
Ġ10 3
Ġ10 6
Ġ10 9
ash aw
Ġcon n
Ġcon vers
oon g
ĠIn spir
ĠG RE
ĠG ot
ĠG ab
ĠG ator
ĠG ail
ĠG ina
ĠG etty
ĠG ob
ĠG wen
Ġcar p
Ġcar ve
Ġcar ved
ard ed
Ġdry er
em ore
Ġro e
Ġhot ness
ag an
Ġmeat ier
Ġmeat iest
sh red
ĠWh atever
ĠWh olesome
ĠSer bian
we iser
Ġcut e
Ġcrack le
ott i
na il
Ġal a
Ġk ick
Ġk abob
Ġk asu
ore x
ore ttes
Ġred i
Ġas ked
ey es
Ġsl aked
Ġchil ie
ul p
ul ting
Ġex t
Ġex ceed
ide os
Ġshred der
uit to
li o
li ver
Ġroll er
let te
let tuce
Ġ12 6
tt aste
tt ime
tt elli
tt ablespoon
Ġsof tening
iz ing
ĠO s
ĠO v
ĠO ften
meg a
iss e
pping s
ent e
Ġshell fish
ĠCut ting
ĠCut outs
Ġblack en
Ġblack eyed
ĠSal ve
ĠE dd
ĠE ff
ĠE cl
ĠE asier
ĠE den
ĠE yes
ĠE conom
ĠE ileen
Ġhe avenly
ĠCr utch
oll ip
tr as
tr ude
Ġwal leye
ĠPre mier
ĠJ a
ĠJ igg
ĠJ ung
ĠJ unior
ĠJ esus
pan e
Ġli ves
Ġlow ering
ĠK a
ĠK asha
Ġpre tt
Ġpre boiled
Ġpre cut
Ġpre cooking
Ġpre mixed
ĠBl u
ĠBl oem
zz ard
ĠSa uer
ĠSa vers
ump tuous
25 5
ĠV ir
ĠV oil
ĠV ary
ĠV acuum
ĠV igo
Ġus able
ea u
ucchin is
Ġbell y
Ġbefore hand
ess en
oni que
ĠTh imble
ĠTh rough
Ġflavor less
cc o
Ġfin ds
ĠPie ce
ĠMo dified
ĠN ic
ĠN ick
ĠN aked
ĠN eg
ĠN eck
ĠN ippy
ĠN annie
ĠN avel
ĠN ougat
ĠN oreen
ĠN othing
ĠN ettie
Ġz ucchinis
Ġball oon
Ġen thusias
Ġ25 5
Ġ25 6
ĠY a
ĠY e
ĠY es
ĠY oung
eal ed
Ġdes ires
ĠAnd re
ĠAnd ouille
Ġjar red
Ġtort e
Ġpast ine
Ġlet ter
elat ine
ex cluding
ĠBe ulah
sweet en
ĠSh ow
ĠSh ore
ĠSh ower
ĠSh erman
ĠSh oulder
ĠSh anks
ĠSh apes
ĠSh akert
Ġdash er
row s
Ġsoft ness
Ġ7 3
Ġ7 6
Ġ7 00
Ġ7 50
ĠU nex
ĠU mmm
ĠBread crumbs
pe ppers
Ġbag oong
ĠCheese y
Ġtur tles
iel ding
Ġsc ented
Ġsc oring
arb y
ĠBr it
ĠBr ake
ĠBr ach
ĠBr ulee
iv a
Ġwill ingness
ĠSw eat
ĠSw ift
ĠSw amp
ĠSw itch
ĠSw izzle
Ġmo chi
Ġmo del
Ġri blets
Ġgl ow
Ġgl az
Ġgl ob
Ġbay leaf
Ġconfection ary
Ġcenter piece
oun ced
Ġhead room
Ġturkey s
Ġket tles
mi ddle
Ġside ways
per ed
Ġacc cording
Ġbut ts
Ġcur ves
Ġpick apeppa
ous y
ubb ock
Ġpo pper
Ġpo ppers
Ġpo king
Ġpo ked
Ġbr ans
Ġbr ussels
Ġstiff ness
ĠGr ams
ĠGr amp
Ġaltern atively
ĠDo ggie
Ġtub ettini
arin i
Ġtw in
ĠCar at
Ġthr u
Ġthr ust
ĠRo ger
ern u
erb y
Ġlean est
sa ff
ud ent
Ġcomp ote
Ġcomp assion
ĠTo ad
Ġam ar
fl ingers
Ġar omat
ark ay
ark able
Ġunb readed
ĠCo k
ist ing
Ġglass y
ĠGar y
ĠGar licky
Ġpro te
Ġpro pane
Ġnon greased
Ġnon nutritive
Ġcumin o
ĠFl op
ĠFl avorite
ĠFl orets
ĠQu antity
ĠSc one
sc ald
sc uitto
ric a
ĠFry in
Ġhash ed
az ine
14 0
Ġkn own
ĠSo ap
ĠSo ba
ĠDel ta
ĠUn ion
ĠUn salted
ĠRep len
Ġgood s
Ġgood ness
ĠJack son
ĠCon ven
Ġim per
Ġim medi
Ġim merse
Ġim mersed
ran ce
tail s
ĠCan es
ĠSalt ines
ĠSalt imbo
Ġme an
meat y
ĠEgg plants
ok kig
ĠAl ready
ang le
oin t
Ġbean pot
Ġ11 1
ocad o
Ġsub stance
for get
ĠNut ritious
ĠNut rition
Ġper fection
wh at
Ġbeg un
ĠCont est
ĠMay be
ĠQuick y
ĠPizza iola
Ġne ighbor
flavor ing
ĠAll ie
ĠPat tie
can nellini
Ġpar ley
Ġros in
Ġros ettes
ĠDor a
ĠTom my
Ġskim p
int he
Ġop ossum
ĠRanch er
ĠRanch eros
Ġfil leted
Ġcor al
ĠOr teg
Ġconsisten tly
ĠPast its
ĠPro duc
ĠPro sciuttini
ĠPro scuitto
Ġpink ish
Ġfour s
ĠCran k
Ġwhisk ed
amb uie
cl oves
cl arified
tc om
tc over
isin art
Ġgal ic
ĠCl oth
ĠCl iff
ĠCl aire
ĠSk ippy
ĠAcc om
Ġunder done
ĠRe gular
ph is
cook s
Ġpul ses
od e
od le
od ically
ĠCrisp ie
af ras
Ġpor ch
ĠDe ad
ĠDe uteronomy
ĠGl ogg
ĠGl ucerna
Ġabs olutely
Ġgrill ers
Ġtri ps
cho ice
ĠPh il
Ġgener ic
Ġrot isserie
vil ed
ĠCro ute
Ġmeasure ments
ĠPr udhomme
ĠVeg it
ĠEn velop
ĠEn tenmann
Ch a
etiz ing
ĠMar co
ĠMar joram
Ġpear ls
ĠCol ored
Ġflake y
Ġthan ks
ĠWal king
ĠWal leye
ĠHash ed
ĠCal am
ĠCal amata
ĠCal avo
ĠHom estead
fresh ly
Ġshap er
Ġloos ens
ĠCre ep
low ly
umm ies
Ġsolid ify
ci ki
ĠAn imal
ĠAn adama
ond e
St ar
St udent
Ġmon kfish
ĠNew berg
ĠPl op
ĠPl uck
ĠPl unk
agu ette
ĠBar n
Th an
ĠProcess or
ĠCracker jack
te ach
Ġgu ess
Ġgu ilt
Ġgu aranteed
ĠShe a
Ġlower ed
Ġenjoy ed
ĠCur l
Add itional
ĠEqual s
ĠTri p
ĠTri plet
30 5
Ġcongeal ing
ĠPer u
ĠJo sh
ĠJo ann
!! !)
Ġsnow balls
ĠEx press
ĠEx periment
ĠAt l
ĠIs lander
bro iled
ĠTest ament
ĠPop ular
ĠAs k
ron ounced
ĠHun ts
ĠLa vender
ĠLa ugh
ĠLa Creme
ĠLa uren
Ġanise ed
ĠOp ossum
ĠFluff o
Ġ28 5
ĠFir m
ĠSec tions
dough nuts
ĠCheeri o
Ġdist inct
ĠMc Kenz
iffer ence
ĠShort cakes
24 5
ĠTender s
Ġbri e
Ġbri quettes
ĠSun beam
Cr unch
ĠFran ce
ĠMac ay
ĠMac intosh
ĠMac adamias
ĠAm anda
ĠMag azine
ĠWa x
salt ine
ug al
ĠInd ians
ĠLight ning
Ġ19 00
Ġ19 36
ĠSnack ers
ĠSnack well
Ġnic er
ĠKellogg s
Ġres ulting
ĠEl mer
ĠEl vis
uel os
ĠTr ick
ĠTr ue
ĠTr iscuit
ĠMa ur
cream ed
Ġseg ment
ipp o
Ġtransfer red
19 93
tP ress
ĠTre mendous
Ġtenderiz es
prefer red
Ġesc ole
imm es
ĠTaste e
Ġrig ati
Ġrig oletti
ĠWe ber
ĠWe bber
Ġtough ening
Ġextrac ted
ĠPo ppin
Ġsav orex
Ġsauc y
ĠHo agie
ĠEat en
ĠMexic alli
ints tone
ĠHar old
Ġimp ossible
Ġimp ressions
ĠEver lasting
Ġinter val
ket chup
Ġwe ights
Ġwe iners
Ġpier ogi
ĠGener ous
ĠPor tobello
ĠPor terhouse
ĠJohn s
Ġcrisscross ed
ĠPort abella
ĠRib eye
ĠGu ava
ĠLen a
ĠEle vate
Ġbow ties
au gs
Ġins ulated
Ġins ects
ĠDoll ie
rip en
rip ened
pepper mint
ba o
Ġgro oves
ĠLo aded
ĠPerfect ly
Ġhelp ful
ĠPic calilli
ĠChach eres
ĠBob olli
Ġte ens
Ġte apot
ĠPers ons
ĠEnd ive
ĠChile an
Ġpip inola
ĠNab iscos
Ġtr ough
Ġtr unk
Ġtr icky
Ġmat za
sci ous
Ġwatch ed
rus ciki
ĠJan ice
ĠJan ie
Ġsink s
imp orted
tw ice
tw arm
Ġmill iliter
Wh ile
Ġele ven
Ġsna il
Ġbra ising
Ġbra ids
ĠWil son
ĠFix ins
Ġfaith ful
ĠPlum s
together s
ĠDr ambuie
Ġcrunch es
ĠSoy ameat
Al arm
Ġstar ved
Corn bread
each er
Ġinc is
Ġdirt y
Ġve ined
Ġsciss or
ĠCord ial
App roximately
ĠBarb ie
ĠLor ann
ĠTown house
Ġwonton s
abl ano
quef y
ĠStep hen
ĠStep hens
Ġtuck ed
Ġrock fish
ĠCit ron
Ġgoose berry
ĠDew berry
Gr illed
Ġscallop ini
Egg less
ĠCor a
ĠCor iander
ĠSmall er
Crust ed
che z
tR ed
tR eturn
Sa uced
tD ip
tD issolve
tD elicious
Ġbu ry
Ġbu ried
ĠArm strong
Ġimpro ved
soup s
Ġpol ska
Ġaj i
ĠHa as
Ġassem bling
Ġdec ide
Ġdec rust
ira ble
warm ed
Ġour s
ĠGram mie
ĠOther wise
mo isten
mo isture
tB reak
ĠBill ie
Ġoppos um
Ġexp ose
Ġexp ect
cub es
Ġbrick s
Ġher o
ĠKu rome
ĠChoco hol
Col or
ĠMam my
ĠSens e
Ġscatter ed
Ġscatter ing
Un baked
Ġtend ons
Ġ38 5
Che esy
Me asure
Me anwhile
br as
br isket
Ġton katsu
ĠSna ppers
ĠHand i
Ġdef rosting
ĠJean ne
ĠJean ette
Ġlaugh s
Ġcomple tion
Ġretain ed
Hot el
eter ia
squ ash
squ ares
Ar m
Ar roz
imin ate
ĠLady fingers
Ġarm y
ĠPres ley
ĠTer ah
ĠVer onique
ĠMargar itas
ĠCastle bury
separ ately
ĠRem arkable
ĠHen ri
ĠSkew ers
ĠSinful ly
bottom ed
ĠDis gust
Ġwidth wise
Ġple asing
Ġpass ing
ĠTemp ting
ĠTemp ura
ĠStay man
ĠLy nd
ĠLy chee
ĠViv ian
ĠRob ust
Ġelimin ating
Ġaccompan iments
ĠTe quila
ĠMarb ella
topping s
ĠKol achy
ĠMem ory
ĠMem phis
ĠHay es
weed s
Mel ted
Re gular
Re member
ĠBu ried
Ġjigg les
Ġrame kin
cur ly
cur rants
yss op
Ġfore finger
Ġmex icorn
ĠSur face
ĠBab a
ĠBab e
ĠPizz elles
ĠTbl sp
ĠGeb hart
Sc ampi
tmix ing
ĠAf rica
stal ks
ĠSpir als
ific ent
ĠVick ie
ĠVick ers
bul gur
ĠLiqu ify
Sm ucker
Ġcat alina
Ġcrow ds
rot ters
ĠCO OK
ĠCO MP
ĠCO OL
Ġdunk ers
Heal th
Ph iladelphia
Ġcapp icola
ĠSizz ling
ĠSizz lean
ĠWing flingers
ĠVen etian
eff ernu
ĠEr nie
ĠJama ica
Diet etic
Am ount
Sn ick
Us ually
Ġgrow ing
ĠPle asant
Ġcrink le
ĠRoul ades
ĠKal ua
ĠVe gex
Ġjalape os
marin o
marin ate
Ġcu pped
Ġsch napps
ĠPom odo
tcr umb
ĠCla us
Strawber ries
ĠJewel ed
Br er
Ġph rase
ĠComb ination
Ġunfold ing
ĠMusc adine
ĠMusc atel
ĠDecor ating
tcook ie
ĠHero es
Ġglycer ine
gro ves
ĠSi u
Ġgau ze
ĠBomb s
ĠBud weiser
ĠPra ise
ĠPra wns
Ġoverfl ow
Ġclump ing
ĠKern els
ĠButterf lied
ĠPeppercorn s
Ġaccumul ate
Ġwrit ing
ĠMir in
stem med
ĠMax ine
ĠMax well
Ġpropor tion
ĠBourguignon ne
cor iander
ij ol
sn akes
ĠBri efly
Ġhusk ed
ĠMul let
steam ed
ĠLill ie
ĠGh ost
Ġteac ups
Ġcalam ansi
Ġhusband s
Ġattach ment
Flavor ed
ĠOVER COOK
ĠClaud ine
ĠClaud ia
Ġfiddlehead s
ĠCard amon
Ġaff ect
ĠDain ty
ĠKook y
ĠNa omi
ĠMont ana
Soft asilk
ĠChampion ship
ES E
purch ase
Ġce lebration
Ġpil ing
ĠCu isinart
Ġachi otes
ĠSoci ables
ĠSoci ety
thour s
ĠReg al
ĠDen ver
ĠJe ann
Ġripp led
ĠContain ers
ĠSkro odle
Ġpresent ation
Ġkolb asi
Ab out
Aust rian
Fran ce
Sim ple
Sim ilar
gra dually
Ġter ri
Ġter rific
Ġtra vels
Ġtreas ures
enz ie
ĠPigg ly
Ġspoil ing
ĠWed nes
ĠBrother s
ĠEc st
scr ubbed
ĠConn ecticut
Ġprong s
ĠFront ier
ĠGlen da
Ġboysen berry
Ġboysen berries
CK EN
Sl oppy
foam y
kern els
Ġtass ie
Ġpump kins
gard less
Ġsuck ers
ĠPf effernu
Ġbees wax
ĠDyn amite
ĠWigg le
ĠStal ks
ĠFres no
ĠFile ts
ĠKoo sa
Ġcollec ts
ĠDelic ate
ĠAppet it
ĠPank ies
ĠHarri et
Ġquesad illas
Ġoccur s
fil berts
sor ghum
Ġiv y
Ġoin on
envelop e
ĠCame o
ĠCarmel itas
ĠBec ause
ĠBunk er
ĠMass age
ĠRang oon
lest ick
ĠSpat zle
ĠSprink el
ĠLub y
ĠGher kins
ĠOo ey
ĠJos eph
Ġlik ker
ĠTherm idor
ĠNat chez
Ġevent ually
ĠKartoff el
trad itional
ĠDiav olo
ĠCroiss ants
ĠPrin cess
ĠMarg uer
ĠBeaut iful
ĠMatrimon ial
ĠKebab s
Ġblemish es
Bon eless
Microw aved
Ne ufchatel
bet ween
vari ety
Ġumb rell
Ġben eath
Ġbless ings
Ġbiscott is
Ġinn ards
ĠCog nac
ĠCaf eteria
ĠCio ppino
Ġgri ds
ĠBisco ch
ĠBrid get
ĠParson age
ĠTorn ado
Ġvan ila
ĠME AL
ĠMorr ison
Ġstead ily
Ġsoc keye
ĠRal ston
ĠDott ie
ĠFirecr acker
ĠEls ie
ĠJaco bs
ĠNich ol
ĠSlum g
ĠLeb kuchen
ĠRagg edy
Ġrepeated ly
recomm end
ĠHoff man
Ġintermit tently
Ġcharacter istic
ĠCryst als
ĠCelest ial
Amar etto
Gi ven
Peel ed
Rap idRise
Rea Lemon
Tim ey
Vegg ie
XCEP T
crib ed
ghett i
jul ienne
krain ian
Ġsass afras
Ġtsub ushian
Ġbil bao
Ġflec ks
ĠCHI CKEN
ĠCHE ESE
elinn i
Ġafra id
Ġlitch i
ĠBian co
ĠBalt imore
ĠPeri odically
ĠPurch ase
ĠToot ie
Ġ(?? ?
ĠArab ic
ĠAmeric a
ĠAgn es
Ġholl andaise
Ġstreak s
Ġcrim ini
Ġnop alitos
Ġjeal ousy
Ġcoordin ate
Ġrecept acle
ĠFreck le
Ġpotass ium
ĠHuds on
Ġconvers ation
ĠInspir ation
ĠEcl aire
ĠJigg lers
Ġenthusias m
ĠShakert own
ĠUnex pected
Ġglaz es
Ġprote ins
ĠReplen ish
okkig ai
ĠMcKenz ies
ĠDisgust ingly
ĠCOMP LETELY
ĠPomodo ro
ĠWednes day
! ),
% ),
' )
' .
, .
. :
2 20
2 32
2 70
3 9
4 7
6 7
7 00
8 8
9 5
9 6
9 8
A D
A d
A da
A ward
A ct
A parts
B C
B a
B er
B ac
B ow
B ra
B ay
B ush
B ul
B iscuit
B arbecue
B aking
B obs
B ourbon
C re
C as
C ur
C elery
C ec
C ould
C atfish
C ob
C alories
D u
D ee
D anish
D eer
E ar
E at
E lectric
E very
E LL
E AS
F F
F un
F ri
F ood
F eta
F ull
F ritos
F innish
G e
G al
G od
G elatin
H a
H an
H ea
H ome
H idden
H ors
H alo
I D
I CE
J o
J ew
J oy
K at
K iss
K ahlua
K raut
K ikkoman
L l
L ump
L ift
L ett
L ucky
L azy
L eek
L entil
M ine
M ill
M id
M oon
M art
M allow
M eal
M ock
M ild
M andarin
M eringue
M arshmallows
N ab
N orthern
N ucoa
O unce
P r
P ic
P or
P im
P res
P ers
P ress
P ig
P enn
P aper
P roof
P sal
P ollo
P oor
P erson
P arkay
P ronounced
R I
R ing
R ub
R iz
R ome
R iver
R oos
S E
S he
S ix
S ide
S eal
S ex
S pl
S elf
S top
S lices
S ho
S imp
S ister
S uitable
T A
T ra
T ur
T ea
T own
T omatoes
T ype
U T
V an
V en
V irgin
V ictoria
W est
W alla
Y ellow
Z a
a head
b ring
b ased
b uck
b arbecue
b eg
b ath
b rew
b rows
c s
c z
c and
c ans
c abbage
c atsup
c ountry
c ouple
c ranberry
c inis
c tober
d ro
d ab
d ec
d ump
d ig
d inner
d eg
d redge
d ressed
d ogs
d ivide
d usted
e mon
e ks
e ase
e bles
f ing
f ix
f ess
f ee
f illets
f alle
f ifth
g as
g ion
g un
g ol
g ole
g os
g rape
h r
h s
h ter
h orn
h ire
h ome
h ollow
h oles
h ina
i am
i ges
i quick
i oles
i ously
i ros
j ell
j umbo
j ects
k ake
k ie
k illet
k ids
k nots
l as
l oo
l ick
l ate
l ink
l og
l bs
l inks
l uh
m ound
m ans
m ight
m oon
m ies
m unch
m ling
m uch
m able
m usk
n s
n est
n ia
n ival
o pp
o ch
o cha
p in
p ted
p oke
p aprika
r r
r ill
r oni
r ather
s he
s un
s om
s ole
s old
s ant
s uff
s ides
s ort
s light
t I
t l
t p
t id
t if
t ka
t ree
t other
t cooked
t can
t tender
t low
t dough
t May
t margarine
t The
t lightly
t mushroom
t remove
t pie
t chocolate
t One
t powder
t floured
t first
t blend
t uncovered
t desired
t pieces
t pudding
t chips
t Knead
t Watch
t Stuff
t Wrap
t potatoes
t mash
t ablespoon
t Gra
t package
t Garnish
t While
u j
u ine
u ish
u ary
u zo
u ppies
v l
v os
v ara
v osh
w er
w on
w asser
x pensive
y um
y ogurt
y ams
y ields
z u
z ones
z ki
z esty
Ġ $
Ġ IN
Ġ ON
Ġ iz
Ġ ump
Ġ iod
RE AD
Ġc in
Ġc ough
Ġc arm
Ġc ats
Ġc alf
Ġc igar
Ġc ushaw
Ġc ashaw
in er
in ated
in ies
in ako
Ġs ed
Ġs es
Ġs ine
Ġs eat
Ġs illy
Ġs leep
er ving
er oni
er ings
er land
ON ING
an os
an tha
Ġt ine
Ġt un
Ġt ag
Ġt iss
Ġt act
Ġt ator
Ġt ape
Ġt erm
Ġt ined
Ġt eam
Ġt aker
Ġt ank
Ġt upperware
Ġt andoori
Ġt inged
Ġo x
Ġo ak
Ġo uso
Ġb ir
Ġb ent
Ġb oll
Ġb aco
Ġb ug
Ġb ends
Ġb ulls
Ġb ijol
ar oon
ar ange
ar ney
ar eness
ar oos
ed en
ed ith
ed ience
es o
es tion
es ape
AR GE
Ġp ed
Ġp ing
Ġp ry
Ġp age
Ġp resh
Ġp rim
Ġp erm
Ġp ond
Ġp igg
Ġp ungent
Ġp cs
Ġm ature
Ġm ail
Ġm af
Ġm aster
Ġm ountain
Ġm iscellaneous
at en
at ic
at to
at ian
at ric
at ina
at ta
re g
re ation
re fried
re gard
on ic
on da
on cho
on stantly
en os
en cer
al er
al ac
al da
al ai
al ias
ou st
ou ger
Ġf u
Ġf ac
Ġf eat
Ġf id
Ġf ring
Ġf ins
Ġf avor
Ġf uel
Ġf olks
Ġf umes
Ġf anned
Ġf aux
Ġch in
Ġch ay
Ġch ute
Ġch oos
Ġch anna
Ġch ichen
Ġw are
Ġw ea
Ġw isk
Ġw inner
Ġw assail
ing ang
gar ban
Ġto ge
Ġto pper
sp are
pp ey
pp ines
pp ossum
Ġin do
Ġin vol
Ġin form
Ġin vent
Ġin cludes
le go
le aving
ro zen
ro ma
ro aster
ĠC s
ĠC ed
ĠC ure
ĠC inn
ĠC ove
ĠC os
ĠC ave
ĠC oun
ĠC ock
ĠC ling
ĠC atch
ĠC zech
ĠC ache
ĠC eci
ĠC arson
or f
or zo
or ganic
ak is
ak ap
ak ian
ak ist
el o
el p
el ish
el ley
Ġ2 15
Ġ2 21
our s
our akia
as ky
as mine
am es
am ber
am ents
it or
it ate
it alian
it ori
Ġon oin
Ġon gion
Ġsu its
Ġsu pplements
Ġa da
Ġa hi
Ġa spir
Ġa git
Ġd l
Ġd et
Ġd are
Ġd abb
Ġd eal
Ġd ens
Ġd eri
Ġd ents
Ġd ental
Ġd yes
Ġd aga
Ġd ense
Ġd aik
Ġd ict
ĠS P
ĠS ou
ĠS ri
ĠS oon
ĠS ew
ĠS ept
ĠS ig
ĠS ante
ĠS no
ĠS atin
ĠS omen
ĠS umi
ĠS oooo
ĠS AU
ĠS allie
ĠS umptuous
ĠS EAS
Ġsal e
Ġg d
Ġg ave
Ġg ud
Ġg ems
Ġg overn
Ġg hee
Ġl y
Ġl is
Ġl ick
Ġl ad
Ġl if
Ġl over
Ġl ooked
Ġl oss
Ġl oop
Ġl ah
Ġl att
Ġl aces
Ġl adies
Ġl osing
Ġl angostinos
Ġl ilikoi
Ġsalt ier
Ġpe p
Ġpe ace
Ġpe ps
he el
ĠB am
ĠB uc
ĠB ad
ĠB li
ĠB yr
ĠB ats
ĠB ess
ĠB ang
ĠB utch
ĠB ann
ĠB unt
ĠB ord
ĠB right
ĠB olog
ĠB oot
ĠB undle
ĠB osc
ĠB ait
ĠB alsam
ĠB bq
ĠB aguette
ac i
ac les
ac ies
ac ian
ĠP ip
ĠP ool
ĠP ain
ĠP ring
ĠP anan
ĠP ist
ĠP ines
ĠP aff
ĠP ign
ĠP omm
ĠP ao
ĠP odge
ĠP anned
ĠP ungent
ĠP oncho
Ġfl ats
Ġfl ows
Ġfl ambe
gg ers
dd ed
ine y
ine xpensive
un i
un ate
un ground
un popped
ow ine
ĠT A
ĠT i
ĠT y
ĠT z
ĠT ut
ĠT and
ĠT ac
ĠT um
ĠT ep
ĠT ooth
ĠT oni
ĠT rop
ĠT une
ĠT yl
ĠT ori
ĠT ube
Ġbutter cup
Ġche at
Ġun ple
Ġun chopped
Ġun filled
Ġun roasted
Ġun gun
Ġcheese burger
Ġv eget
Ġv irt
Ġv ichyssoise
Ġv itam
ĠA g
ĠA j
ĠA ly
ĠA qu
ĠA ven
ĠA li
ĠA ld
ĠA ud
ĠA bu
ĠA ux
ĠA parts
ĠA BC
ĠA roma
ol ted
ol fe
Ġmin ue
Ġh ate
Ġh orn
Ġh ide
Ġh umm
Ġh idden
Ġh itting
Ġh ippo
Ġh yssop
Ġh okkigai
ith uan
us ky
ĠM ack
ĠM ur
ĠM ap
ĠM op
ĠM are
ĠM oss
ĠM uns
ĠM arty
ĠM aker
ĠM aj
ĠM acho
ĠM asa
ĠM usel
ĠM usk
ĠM ussel
ĠM iser
ĠM iscellaneous
ot ang
Ġbe h
Ġbe ers
Ġbe verages
ver a
ver ick
all spice
all ized
uc ing
Ġst re
Ġst alls
Ġst aple
ad illy
ell ing
om allow
om oline
ook ie
ch ip
ch ive
ch ilada
ch amel
ch ilies
ch orizo
ir ing
der berries
Ġcr me
Ġcr itic
to ine
um er
ts oup
ts immer
ts lowly
ts killet
Ġcan ton
Ġcan atappi
Ġsa if
Ġsa go
ri gs
ri ppings
Ġn ips
Ġn ul
Ġn atur
Ġn ickel
Ġn ights
Ġn amed
Ġ4 7
Ġ4 10
lic al
ve tte
ve ggies
et ime
et ini
Ġsh ad
Ġsh ips
Ġsh rim
Ġsh amp
Ġsh ield
Ġsh ielding
gh urt
Ġj et
Ġj owl
Ġj unk
Ġj agg
Ġso cial
Ġth ank
Ġth orough
Ġgr ist
Ġgr udges
up h
up u
Ġle aking
Ġle vels
Ġmar gar
Ġmar ry
Ġmar jor
Ġmar kets
Ġmar bel
.) *
th as
th igh
th ouse
ry n
Ġover s
Ġover all
Ġover wh
Ġover knead
ĠR y
ĠR as
ĠR uff
ĠR ange
ĠR oni
ĠR oc
ĠR oughly
ĠR ee
ĠR andy
ĠR ale
ĠR unn
ĠR oses
ĠR iceland
Ġwh ir
Ġwh ooper
Ġcook out
Ġoil ing
ĠCh ol
ĠCh ars
ĠCh ase
ĠCh ild
ĠCh orizo
ĠCh urros
ĠCh esape
Ġr ate
Ġr ust
Ġr oni
Ġr uffles
Ġr amps
Ġr uffle
Ġr uta
Ġpan ocha
ack ed
ĠMix es
Ġco p
Ġco in
Ġco pped
Ġco ag
ĠD u
ĠD y
ĠD am
ĠD oo
ĠD un
ĠD oodles
ĠD isc
ĠD ings
ĠD ong
ĠD enn
ĠD ouse
ĠD anny
ĠD ales
ĠD ressed
ĠD italini
ĠD ividing
ĠD enny
ĠD erby
ĠD ifference
ab s
ab ro
ab lo
ab ody
mon o
mon y
ur al
ur ts
Ġsp ark
Ġsp okes
Ġsp uds
Ġsp unk
Ġsp rite
Ġsp ritz
Ġsp iciness
Ġsp routed
ĠW aste
ĠW ent
ĠW eed
ĠW ife
ĠW yn
ĠW eather
ĠW reck
ĠW rite
ĠW olfe
Ġre gar
Ġre el
Ġre ll
Ġre butter
ien a
ien e
ip t
ip ment
ef ries
ef ree
ef ord
st i
im ated
Ġgar lick
ĠSp y
ĠSp atini
ĠSp encer
ĠSp rigs
Ġse qu
Ġadd iti
heat ing
qu at
qu or
qu is
qu ise
Ġgarlic s
ĠSt u
ĠSt ing
ĠSt ab
ĠSt ation
ĠSt amp
ĠSt omach
ĠSt allion
ĠSt oned
Ġcorn co
id n
id th
id alias
ish a
ĠI cy
ĠI di
Ġsm okes
Ġsm okey
ĠF er
ĠF ac
ĠF ol
ĠF inn
ĠF ey
ĠF izz
ĠF ah
ĠF igg
ĠF reak
ĠF umi
ĠF ox
ĠF actory
ĠF orno
res ent
ven ison
Ġpot at
omb u
omb ian
Ġy okes
Ġlemon ades
Ġcup board
if es
Ġ6 6
ĠCook y
ap o
Ġtop ing
Ġ8 6
Ġ8 00
ĠL one
ĠL ock
ĠL ula
ĠL inds
ĠL ila
ĠL ids
ĠL OW
ĠL ingonberries
ĠL angostinos
ĠL ARGE
ĠL ithuan
Ġwhit er
Ġbl ob
Ġbl intz
Ġbl onde
Ġsmall ish
Ġtogether s
Ġbread er
ove x
op a
op eta
ĠH at
ĠH is
ĠH ur
ĠH ue
ĠH andy
ĠH ere
ĠH erd
ĠH oos
ĠH annah
ĠH arbor
Ġrem ix
Ġcon form
Ġcon struc
ĠIn a
ĠIn ch
ĠIn clude
ĠIn structions
ĠG L
ĠG W
ĠG y
ĠG ol
ĠG em
ĠG ong
ĠG ross
ĠG uss
ĠG ummy
ĠG uy
ĠG ives
Ġcar ries
Ġcar ats
ff er
Ġ9 00
ber ger
Ġvinegar s
zen gers
Ġro d
Ġro p
Ġro ad
Ġro aring
Ġhot el
Ġhot test
Ġhot dogs
ag r
ag ing
ag ers
ag rap
ins ide
ub s
Ġcl ar
Ġcl asses
Ġcl og
Ġab ura
ll ie
sh ape
sh oe
ĠWh ere
ĠSer ver
ĠSer vice
we ar
Ġcut out
oa h
ĠCool ers
art ame
tion ally
Ġcrack led
Ġra g
Ġra ve
ott b
na vy
Ġlight ens
Ġlight ning
Ġk osh
Ġk ha
Ġk luski
Ġk inda
Ġk anten
Ġk inako
Ġk ombu
av it
av li
Ġapp lies
Ġapp etizing
os l
Ġsl udge
Ġsl ither
Ġsl ashed
Ġsl ipper
Ġsl iding
ĠBeat rice
ul f
ul er
ul ates
ul less
ep eat
Ġmustard s
Ġ15 3
li quor
ĠPut ty
ĠPut tan
Ġ13 3
tt urn
tt omato
tt omatoes
Ġrais ing
ĠO K
ĠO b
ĠO NE
ĠO ak
ĠO st
ĠO per
ĠO ls
ĠO unce
ĠO mega
ĠO ctober
ĠSpread s
ec e
ent ations
Ġpl ank
Ġpl ants
Ġpl ug
ime ter
Ġblack eyes
est al
rawber ries
Ġref ill
Ġref rozen
ĠE qu
ĠE cc
ĠE ld
ĠE XCEPT
Ġhe aps
Ġhe ffer
ĠCr u
ĠCr ump
ĠCr uz
oll of
tr ice
tr ise
Ġcold s
Ġcold est
Ġdough s
ĠJ et
ĠJ ose
ĠJ olly
ĠJ ava
ĠJ asmine
ĠJ ollof
pan eal
Ġli ken
Ġli vely
Ġli dded
Ġlow fat
Ġup ward
ĠK l
ĠK am
ĠK is
ĠK ick
ĠK ip
ĠK ef
ĠK rinkle
ĠK asserole
ĠK ong
ĠK oul
ĠK amp
ĠK ah
ĠK ona
ĠK ris
ĠK appa
ĠK atherine
ĠK adaif
ĠK ourabiedes
ĠK avli
Ġpack er
Ġpre acher
bur gh
ĠBl ake
ĠBl arney
zz a
zz etti
ĠSa il
ĠSa ves
ĠV ar
ĠV ic
ĠV ers
ĠV ail
ĠV ert
ĠV igor
ĠV ER
ĠV iola
ĠV elma
ĠV iney
ĠV idalias
ew ise
Ġus eful
ea fter
ea ux
ka i
act ly
Ġfill er
Ġnot s
Ġnot ed
Ġnot ice
oni a
ĠTh ings
Ġtab s
Ġtab oli
Ġtab uli
ĠChe y
ĠChe ery
ĠChe ap
ĠChe eser
ĠPe abody
oth y
oth ers
oth ings
oc he
oc tion
par ing
par boiled
ĠN els
ĠN ept
ĠN ational
ĠN anna
ĠN essel
ĠN appa
ĠN oug
ĠN ixon
Ġball ed
ĠY uk
ĠY olks
ĠY UM
ĠY von
eal and
Ġdes k
Ġdes irable
Ġdes erving
Ġsoy bean
aw ax
ne ver
Ġpeas ant
Ġtort elinni
Ġcom inos
Ġpast ina
ĠChill y
Ġmore ls
ĠBe ars
ĠBe acon
ĠSh i
ĠSh immer
ĠSh ift
ĠSh asta
ĠSh akers
Ġloaf s
Ġstand ards
Ġ7 8
els alat
ĠU N
ĠU pper
ĠU krainian
ĠU SE
ĠBread s
ĠBread ing
Ġqu its
Ġqu inoa
ĠPot age
ĠPot ica
16 5
ee ts
ĠSpoon bread
ĠCho pper
Ġstuffing s
Ġsc ilet
ke es
ĠSimmer ed
ĠSimmer ing
ĠButter ball
ĠButter worth
ĠBr atwurst
ĠBr istol
ĠBr ittles
ĠSl am
ĠSl ushy
iv re
fec tions
Ġstri pe
ĠSw ank
Ġmo d
Ġmo ved
ĠJell ed
Ġri pple
Ġri per
Ġgl aced
Ġbon ing
Ġbon bon
Ġbon ito
Ġcand iquick
Ġcenter ed
oun ces
tern ate
rab ble
ĠTurn er
ĠTurn over
se ems
Ġrest ir
Ġde ad
Ġde br
Ġde vice
ĠVelve tta
Ġacc ents
Ġsepar ation
Ġsepar able
ĠRed fish
ition ally
Ġbr aciole
uck les
uck ers
Ġ16 6
Ġ16 8
Ġstiff ened
Ġtemper atures
ĠDo h
Ġgran ny
Ġgran ulate
Ġform ula
ĠAr c
ĠAr lene
arin o
Ġtw ine
Ġbubb led
ĠCar y
ĠCar efree
und red
ĠRo d
ĠRo ach
ĠRo Tel
ĠRo asts
ĠRo bbie
ĠRo sti
Ġsec ured
Ġlean er
ull ion
ĠTo day
ĠTo basco
Ġam ply
fl ies
fl aky
Ġar gum
ĠFor d
ĠFor giveness
ĠFor tune
Ġunb olted
ĠCo ach
ĠCo arse
ĠChop let
ist or
ist ry
ist illed
ĠBis k
Ġlong wise
ĠTab oli
ĠTab ouleh
Ġdri pped
pl ate
pl enty
pl ified
pl aced
pl ode
Ġnon aluminum
Ġnon reactive
Ġcumin os
Ġrec onstitute
Ġrec reation
ĠFl u
ĠFl ap
ĠFl ash
ĠFl intstone
ĠQu ah
ĠSc rap
ĠSc orch
ĠSc rabble
ĠSqu id
sc oop
ĠFill ings
ivid ually
Ġwheat en
ĠHigh way
ĠHigh land
ĠZ ap
ĠZ ita
ĠGre c
ĠGre ased
Ġpat ient
ĠMon a
ĠFruit cakes
az er
Ġfish ing
Ġkn ox
Ġkn ifes
Ġkn uckles
ĠSo fin
ĠSo das
ĠSweet bread
Ġany way
ĠFro ggers
ĠBre n
ĠJack pot
ĠCon ch
ĠCon ga
ĠCon scious
ĠOn es
ran ine
ĠHam wiches
so aking
ĠMex italian
pick le
ĠSalt y
ation ed
bl ano
bl ock
ting uish
Ġdi am
