#version: 0.2
Ġ <
N E
X T
NE XT
E N
I N
R E
S T
Ġ c
IN G
D I
T S
EN TS
RE DI
ING REDI
INGREDI ENTS
NE R
T I
i n
Ġ s
e r
A R
EN D
ST AR
STAR T
Ġ 1
O N
ST R
C TI
U CTI
IN STR
ON S
UCTI ONS
INSTR UCTIONS
a n
a r
Ġ o
Ġ b
e d
Ġ t
e s
Ġ p
Ġ m
a t
i l
u t
r e
o n
a l
e n
o u
an d
Ġ f
P E
L E
C I
T LE
RE CI
TI TLE
RECI PE
Ġc h
Ġ and
in g
Ġ w
g ar
i c
Ġ C
l e
Ġ in
o r
s p
Ġt o
p p
e l
a k
Ġ 2
ou r
re a
r o
Ġs u
Ġsu gar
Ġ a
Ġ 3
i t
Ġ d
Ġ e
Ġo n
t er
i x
Ġ S
Ġ B
l a
Ġ P
in e
Ġs al
Ġ g
o l
g e
r a
Ġp e
a s
g g
Ġt sp
Ġ h
Ġsal t
Ġ l
i s
ut ter
Ġ M
Ġe gg
i on
rea m
ak e
d d
Ġb utter
es e
Ġ T
u n
e ese
o w
Ġ (
Ġc o
Ġ v
Ġc ream
al l
Ġch eese
Ġf l
il k
Ġt h
ic k
o t
u s
Ġon ion
c h
Ġm ilk
Ġfl our
Ġo f
Ġo r
Ġ A
Ġ un
c e
Ġch o
ic e
Ġm ix
Ġm in
Ġc an
it h
el l
r ed
ĠC o
t s
Ġs t
at er
Ġb e
Ġw ith
Ġf or
Ġegg s
Ġw ater
t il
Ġmin ut
t o
v er
Ġminut es
r i
0 0
b sp
Ġun til
ĠT bsp
o k
Ġ j
pp er
Ġ 4
il la
an illa
m on
Ġv anilla
e t
Ġo z
Ġpe pper
ĠM ix
ĠA dd
d er
pp ed
m b
Ġb ro
Ġ n
at o
Ġs h
Ġ at
e at
v e
ĠC h
i e
Ġc r
Ġm ar
r y
c k
ick en
i en
Ġcho pped
Ġs a
u p
Ġth e
red ien
Ġ ing
Ġin to
Ġing redien
Ġingredien ts
u ce
g h
ĠB ake
i r
. )
i p
w n
Ġw h
Ġ le
ou p
t h
at e
Ġ R
l ic
Ġ D
Ġs oup
Ġ W
ow der
Ġb ak
Ġp owder
rea d
o d
an s
5 0
ut s
s t
Ġch icken
c ol
Ġbak ing
Ġo ver
n a
Ġg r
or n
pp le
gar ine
il l
Ġmar garine
Ġj u
us h
Ġsa uce
Ġbro wn
Ġb o
Ġju ice
a d
k g
Ġp kg
ato es
m all
Ġ3 50
Ġ all
th er
Ġo il
Ġco ok
a y
Ġ F
n d
l es
Ġp an
r es
l y
Ġl b
Ġc orn
Ġp ie
as t
a pple
ine apple
u re
m e
is h
Ġw ell
Ġl ar
Ġ re
er s
c on
Ġp ineapple
Ġlar ge
e f
c o
Ġle mon
Ġf ro
u r
ge ther
ĠP our
a b
Ġto gether
Ġa dd
ra in
u m
o le
q u
ou nd
i gh
in ch
us t
re en
Ġ r
Ġs p
Ġn uts
ĠS p
b er
a m
o m
el t
col ate
Ġh our
Ġ y
Ġto m
Ġp ot
u mb
Ġs e
Ġg reen
rea s
Ġs mall
t ure
g er
er y
Ġc ra
Ġmix ture
a ge
at ed
igh t
s er
Ġ L
a p
Ġs our
ĠS t
Ġc on
Ġc ake
Ġ I
Ġ 6
od a
Ġbo il
ĠCo ok
Ġs oda
t en
e et
v es
ro om
ĠW h
Ġpe c
Ġs lic
Ġ H
mb ine
i d
Ġ 8
Ġwh it
Ġcra ck
Ġcho colate
Ġ gar
el ery
Ġc up
as h
Ġc elery
v en
Ġpot atoes
in na
la ce
ine gar
inna mon
o p
Ġonion s
Ġv inegar
c es
Ġgr ound
i f
s h
ush room
Ġgar lic
ol d
Ġto p
Ġbe ef
Ġc innamon
Ġpec ans
Ġm ay
a ch
is e
Ġm ushroom
Ġst ick
as ser
asser ole
Ġcr umb
z en
Ġd rain
Ġb read
ri es
Ġb a
a in
Ġd ish
Ġm elt
ĠCo mbine
c t
i m
ĠCo ol
i es
Ġ G
Ġ 5
er ve
m o
Ġbe at
Ġor an
ed i
ar d
ak es
on na
onna ise
Ġfro zen
Ġ x
u it
Ġs o
in k
o od
Ġh ot
an t
Ġmay onnaise
Ġo ven
f f
ra w
Ġ 9
Ġmelt ed
edi um
ip s
Ġwhit e
ed d
ow l
w eet
con ut
ĠSt ir
Ġh eat
edd ar
Ġb owl
ar s
l en
ĠWh ip
Ġm edium
ou gh
Ġch ips
u dd
res s
Ġst ir
i re
Ġcrumb s
Ġgr ated
Ġpe an
udd ing
r ink
ar t
Ġ ro
reas ed
Ġr ice
ĠP lace
o ut
Ġbe ans
Ġ1 0
ri ger
ĠCh eddar
u b
ĠS al
l l
o on
Ġd ry
ĠP ut
Ġ3 0
Ġco conut
Ġ al
ush ed
raw ber
rink le
Ġcr ushed
ast e
ar m
Ġbo x
Ġ k
Ġg ra
Ġtom atoes
c col
ccol i
Ġslic ed
Ġp udding
ust ard
Ġa b
r ing
Ġa pp
on e
Ġsh or
d ed
ten ing
Ġpowder ed
Ġshor tening
Ġtom ato
Ġdrain ed
o re
ge t
Ġth en
Ġ O
Ġoran ge
el y
e get
eget ab
Ġ J
e e
st ant
Ġc ut
Ġba con
Ġcrack ers
Ġ E
Ġc ar
Ġo le
Ġhour s
Ġab out
Ġole o
er v
an an
Ġ is
Ġg reased
Ġpean ut
ĠI n
ĠSal ad
Ġb ake
Ġm ustard
u l
Ġt aste
Ġa s
Ġst rawber
e a
in s
ress ing
Ġj ell
l o
u ff
ĠS erve
ĠC ake
r uit
y r
Ġbeat en
Ġb ot
yr up
Ġcook ed
res h
Ġs erv
Ġ K
Ġs l
Ġsh ell
Ġs yrup
m ain
ĠB ro
Ġre main
Ġv egetab
Ġcan s
Ġboil ing
ĠB eat
Ġ la
Ġp ap
Ġch il
Ġro ll
mall ow
Ġ red
sh mallow
i z
Ġ1 3
Ġch er
Ġ ra
co a
Ġm eat
Ġfro m
Ġbro ccoli
Ġf ir
Ġp our
Ġe x
as on
ĠP ie
Ġl ight
Ġremain ing
v or
Ġapp les
Ġserv ing
Ġl i
Ġre f
Ġco coa
Ġ V
ĠC ream
Ġh al
Ġco ol
a f
ĠSp rinkle
Ġb anan
Ġc asserole
Ġ1 5
Ġf resh
m er
ĠP e
Ġd ressing
Ġb len
Ġso f
Ġmar shmallow
Ġ2 0
u c
Ġref riger
o il
ĠR e
m p
Ġf ill
or k
ĠC r
ĠC asserole
Ġcr ust
Ġs weet
ot h
Ġjell o
Ġsh red
Ġ1 2
ar e
Ġh a
ĠCo ver
mo ve
Ġc lo
k s
Ġin stant
u e
Ġcar ro
ol l
Ġshred ded
Ġcrack er
is s
Ġslic es
h am
us age
le y
pp ing
p s
a ck
o s
ic ed
sh ire
ĠSp read
Ġle t
or ces
ter shire
orces tershire
Ġse ason
Ġpie ces
la vor
Ġgra ham
en t
mb ur
ĠW orcestershire
Ġfill ing
ĠM akes
ĠC ut
m ilk
Ġmarshmallow s
n uts
l i
ct ion
Ġ4 5
ĠT h
) .
Ġd iced
Ġbanan as
Ġc old
Ġ an
Ġsal ad
at s
Ġb all
e y
Ġla y
Ġf ruit
ĠM elt
Ġ it
Ġco ver
ars ley
re e
mbur ger
Ġs k
Ġbutter milk
Ġp arsley
Ġwh i
Ġcarro ts
Ġn ut
2 5
ak ed
Ġe ach
Ġf lavor
ĠCh icken
Ġsa usage
Ġchil i
id e
ing er
ĠR oll
ĠL et
Ġ up
Ġo li
Ġ N
ĠBro wn
ber ry
Ġj ar
Ġ us
ĠJ ell
Ġs qu
Ġwh ole
Ġstrawber ries
ĠS a
t le
ĠRe move
Ġhal f
Ġp ork
ell ow
ion al
le t
Ġha mburger
la ck
ĠCh ill
me g
e ed
ood les
Ġ ice
g es
Ġnut meg
d s
Ġcup s
Ġcook ie
i an
Ġy ellow
e w
s s
Ġra is
ĠT op
un ch
Ġs et
Ġg inger
Ġse ed
ab b
e al
f ore
Ġ en
Ġbe fore
im mer
Ġp re
ĠCh eese
on i
en der
abb age
Ġrais ins
Ġsh eet
Ġn oodles
Ġfir st
ĠD rain
Ġl ow
Ġc ub
Ġl o
Ġcon t
Ġb lack
Ġo ut
ri ed
es an
arm esan
Ġt ender
Ġd one
if t
Ġp ack
mo oth
a c
en s
7 5
Ġpepper s
Ġw al
ad e
Ġt ea
ĠD ip
ĠP re
Ġmushroom s
Ġclo ves
ar ch
Ġch ill
Ġseason ing
Ġs mooth
t ional
a g
ĠP armesan
is c
Ġo ther
ĠH eat
me al
Ġcher ry
um p
p an
k a
Ġvegetab le
st arch
Ġstir ring
ur n
t ra
Ġp ut
Ġcorn starch
ten ed
d ens
dens ed
Ġal mon
Ġth ick
Ġ3 25
c c
ĠS h
Ġw arm
Ġbro th
Ġwal nuts
a ve
Ġcon densed
Ġ Y
to m
er ves
Ġex tra
e ad
len d
Ġcont ain
op tional
Ġc abbage
Ġh am
Ġn ot
iss ol
Ġbot tom
Ġwhit es
isc uit
reas ts
all y
Ġsauce pan
ĠB lend
r an
Ġd es
ĠB utter
Ġ q
Ġy ol
at or
Ġ3 75
ĠI t
Ġp lace
ĠP ot
Ġq t
Ġcook ing
ri ka
ro p
ĠB e
Ġb reasts
es s
ĠA nd
Ġs erve
Ġpap rika
Ġsof tened
ac ar
Ġ4 0
Ġba g
Ġwhi pped
ch in
ĠR ice
Ġon e
ar b
Ġd ash
Ġlay er
Ġd ire
i me
p ar
ĠR ef
ight ly
Ġpap er
n ight
Ġd ough
acar oni
qu ick
il let
at ely
ĠRef riger
Ġ2 5
Ġ are
Ġrefriger ator
Ġ 7
Ġpe ach
ut e
a w
Ġ if
ree z
es t
it e
et a
iz e
Ġover night
h eat
e c
Ġoran ges
i red
Ġth in
al ian
ri sp
ber ries
Ġcontain er
Ġstick s
ĠV el
Ġdes ired
Ġvegetab les
ĠB oil
ro w
e x
Ġf in
ve eta
ĠIt alian
ĠRefriger ate
Ġa pple
Ġcr an
ĠCh o
ĠVel veeta
Ġball s
' s
Ġextra ct
Ġb y
uc umb
et t
ĠCook ies
Ġsk illet
Ġto pping
ar in
Ġf ood
reas e
is co
Ġ4 00
f e
Ġb ell
el s
old en
Ġyol ks
ĠCho colate
c ed
ee p
Ġcher ries
p t
Ġ U
ic row
la ss
r and
Ġstrawber ry
sp oon
one y
ĠCr isco
Ġtea spoon
r is
ĠC orn
Ġpe as
Ġfin ely
Ġpe el
Ġb iscuit
qu art
icrow ave
fe ction
Ġm acaroni
at ure
Ġw a
ce pt
p e
Ġm ash
ĠS erves
ĠB read
ri mp
Ġun co
Ġt ime
z z
Ġcon fection
Ġconfection ers
Ġmin ced
o g
v y
Ġfl akes
Ġli qu
Ġus e
d ing
1 6
Ġsp read
Ġlight ly
Ġs ize
Ġm o
Ġc ucumb
ic h
s e
Ġg olden
t t
el at
Ġst e
Ġp la
l ow
Ġ Ġ
ĠL ay
Ġmix ed
Ġm ore
ĠB ring
at ter
Ġd ill
ats up
t a
ough ly
Ġwa x
or oughly
Ġg elat
Ġc atsup
a co
Ġt ab
Ġc ol
Ġy ou
Ġoli ves
ĠD rop
s weet
Ġso y
Ġsp rinkle
Ġs immer
Ġserving s
Ġflavor ing
e ast
k in
Ġpeach es
Ġth oroughly
Ġlo af
Ġliqu id
Ġ res
Ġex cept
Ġsof t
in ach
1 0
p oon
les poon
Ġ3 5
t uce
Ġtab lespoon
Ġco tt
Ġcott age
Ġp im
Ġfir m
b le
Ġy east
Ġsl ightly
uc chin
ucchin i
ĠM o
Ġp l
at meal
Ġlet tuce
n ch
Ġcol or
l ue
Ġroll s
Ġst and
an o
ump kin
Ġh oney
ett i
r ic
Ġp t
ĠPre heat
en ed
Ġcho ps
a gh
agh etti
ction s
Ġm ake
Ġk et
il e
Ġw ine
Ġco mbine
it s
y le
Ġli me
Ġd e
c ent
ing s
ĠF old
ok ed
ĠLay er
l ed
Ġch un
or til
ortil la
Ġf at
Ġbutter ed
ar p
re nch
el f
Ġmash ed
1 2
Ġp ick
el la
Ġh ead
Ġof f
Ġpean uts
ĠB is
Ġgelat in
Ġas ide
Ġrefriger ate
ch up
if f
ĠWh en
Ġl it
Ġket chup
ar ella
zz arella
Ġd o
Ġo ats
Ġf ry
Ġp ast
ĠBis quick
Ġsh arp
ĠF rench
ran ge
and arin
Ġf reez
Ġsh rimp
u d
Ġal e
Ġpack age
Ġw ill
Ġt ortilla
Ġoli ve
arb ec
v ed
g ano
Ġcub es
Ġun b
Ġblen d
i el
ic an
Ġst uff
Ġf oil
Ġblen der
low er
Ġm uff
Ġen ough
Ġflour ed
Ġ z
as y
ĠMo zzarella
Ġsp oon
g reased
en to
Ġm eal
ĠTh en
v ap
ris ing
vap or
ver ed
ur p
in d
Ġe vapor
Ġd issol
Ġon to
Ġs elf
Ġsl ice
ta il
er b
ck tail
Ġcover ed
Ġevapor ated
re gano
Ġpot ato
Ġt aco
Ġbot tle
Ġb atter
Ġsp aghetti
Ġth aw
ap e
Ġpim ento
Ġalmon ds
Ġbiscuit s
Ġo regano
Ġdire ctions
ou n
ar es
Ġblen ded
ĠS w
ĠF or
Ġy our
ra y
er ry
Ġa cc
os e
Ġo atmeal
Ġl on
ĠB all
Ġth is
Ġste ak
or ding
Ġlemon ade
Ġunb aked
arbec ue
k ey
Ġw af
c an
Ġf ine
ĠF ruit
Ġsp inach
Ġacc ording
ĠS l
Ġstuff ing
Ġz ucchini
f ter
Ġs ift
ĠS ift
ces s
ĠPot ato
Ġm andarin
n e
Ġro ast
Ġp inch
Ġsqu ash
Q u
ĠC ar
Ġcucumb ers
t ed
Ġlit tle
c le
Ġmix ing
Ġ ri
Ġt e
Ġd ried
Ġcook ies
art on
Ġc arton
ro x
ĠB rand
Ġpla in
Ġt art
a ul
f ul
ff ee
n ed
ag le
Ġthaw ed
Ġco cktail
ĠBro ccoli
Ġalmon d
s c
Ġ Qu
Ġp umpkin
ĠE asy
Ġth icken
rox im
Ġres t
ud ge
ĠE agle
Ġv ery
roxim ately
Ġa p
if lower
Ġclo ve
aul iflower
ĠR o
par ed
Ġbrown ed
ar k
ĠG rease
ĠPe an
Ġwh en
ĠY iel
stant ly
Ġpeel ed
m s
Ġcon stantly
and y
u ally
Ġd ou
ĠS immer
un a
ĠSa uce
ĠU se
ĠSp oon
ĠPean ut
Ġsl ow
er n
ĠM ake
Ġbak ed
ĠB aked
ĠA pple
Ġsift ed
Ġpre pared
i der
ĠS e
Ġp ans
mp er
Ġcra b
Ġh ea
Ġt ur
urp ose
Ġr ound
Ġ1 6
Ġcran berry
n g
ot ch
l d
Ġwaf ers
k e
ĠSl ice
Ġg lass
Ġb as
Ġt ub
m i
Ġmin i
issol ve
ĠD issolve
Ġte mper
Ġhea vy
Ġmuff in
ĠSw iss
Ġfor k
Ġshell s
ou s
Ġp o
iz z
oun t
Ġ 50
Ġc ro
ur t
Ġh ard
Ġm icrowave
Ġtemper ature
Ġb lue
Ġmix er
at es
b read
k ra
ar o
ĠS to
p urpose
Ġh and
og urt
Ġcolor ing
st yle
Ġwhi pping
sc otch
Ġj ust
ĠCh op
Ġc le
ra p
Ġse mi
ric ot
Ġb on
ĠS oup
e mon
l ish
Ġt urn
Ġ3 00
ĠS weet
id es
Ġcub ed
ĠK aro
Ġhal ves
er eal
un d
Ġn eed
read y
a ves
Ġlay ers
Ġsqu ares
Ġdou ble
i ra
ĠG ra
Ġc ider
ĠP udding
Ġwh ile
ĠF ro
Ġcran berries
d ually
Ġs ides
re ak
Ġtart ar
ira cle
Ġst ri
ĠH ot
Ġunco vered
ĠP unch
Ġc ereal
n ey
Ġy ogurt
Ġun greased
is t
ĠSt rawber
Ġchil ies
Ġc auliflower
ic es
ar ts
Ġch est
ul ar
ĠSa ute
ĠM iracle
Ġminut e
ĠD el
Ġcrumb led
Ġk id
Ġapp roximately
Ġ qu
Ġst iff
Ġchest nuts
Ġb ut
ĠD o
Ġdire ct
Ġcorn meal
risp ies
Ġ ready
Ġd ates
g ular
Ġt w
pp y
it z
ĠPot atoes
s a
ĠT urn
ĠS qu
ĠT o
Ġc ur
ĠG r
Ġin ch
ĠP ress
ip e
Ġj ars
izz a
Ġs c
Ġra sp
Ġbas il
Ġkid ney
Ġs ide
Ġdirect ed
ven ly
i v
Ġle ast
Ġdissol ved
ĠStrawber ry
p are
ou ill
ĠF ry
Ġk ern
ouill on
u ck
Ġg ood
i a
Ġb ouillon
Ġh ash
Ġw eed
ĠK rispies
f at
Ġbutter scotch
ĠF udge
Ġtablespoon s
ĠL emon
b l
Ġstri ps
Ġ2 4
ĠA r
t z
ĠR itz
ĠS et
ĠF l
Ġap ricot
Ġp in
Ġh e
ow n
ver al
u ll
c ipe
Ġunco oked
i o
Ġa fter
ĠB anan
n ish
Ġd ip
Ġb ub
Ġkern el
Ġse veral
Ġpec an
Ġb ring
Ġa m
ser t
Ġslow ly
re me
sp ice
Ġre move
Ġt una
en ter
Ġpl ate
Ġk n
Ġcan ned
Ġ raw
Ġcr es
ĠSh ape
Ġsal mon
Ġchun ks
ee z
Ġsk in
ĠC ra
os s
st ing
Ġall spice
Ġbanan a
Ġc enter
Ġse par
Ġf ew
Ġan y
ĠBanan a
v el
Ġd ay
as co
ĠTh is
ĠT ab
Ġsweet ened
Ġcres cent
Ġch i
Ġe venly
am el
Ġb its
Ġn on
lass es
ĠQu ick
Ġtur key
e ts
Ġc risp
Ġla st
ĠTab asco
Ġli ke
an ch
ok e
ent ly
Ġp at
Ġpast ry
mer ican
Ġb arbecue
ro cess
ĠR ed
Ġre gular
ĠL o
Ġcon s
ter s
Ġtub e
u gar
Ġco ffee
Ġst ew
ĠE gg
Ġg rease
Ġseason ed
ĠM eat
Ġjell y
ĠPre pare
s o
al ap
Ġco at
alap en
ĠF ill
ĠY ou
Ġp art
ĠSto re
r ough
ĠP ineapple
ĠA merican
Ġchill ed
Ġmini ature
Ġp aste
ĠYiel ds
Ġ *
i g
ter n
ĠM icrowave
Ġth rough
Ġmo lasses
ĠW ith
Ġboil er
Ġbub b
m es
Ġh or
ĠBe ef
ĠBall s
a uce
as ion
ĠPe el
cc asion
ĠC an
Ġr ind
ĠSal t
Ġthe m
Ġtw o
Ġsh all
ad ish
h ub
hub arb
Ġ room
Ġo ccasion
Ġst o
Ġle aves
ĠF reez
Ġtortilla s
erb et
Ġcle an
Ġ ar
Ġfl aked
Ġst al
Ġfor m
ser adish
Ġam ount
Ġsp ray
Ġgra p
ĠPe can
Ġ quick
Ġgr an
Ġoccasion ally
Ġbrown s
Ġbox es
Ġhor seradish
Ġsal sa
ĠM ex
Ġbot h
cent r
ful s
ĠM in
ĠD ressing
ĠBe ans
1 5
ĠSe ason
Ġblue berries
an g
re at
Ġth at
m eat
Ġd own
a vor
Ġchun k
Ġfreez e
Ġd eep
Ġj alapen
Ġf ish
Ġcon centr
Ġfreez er
il d
Ġto ast
Ġco mp
ĠG ar
avor ite
u er
Ġlon g
ĠPe pper
Ġpre tz
sweet ened
b s
ĠT ake
ĠR anch
Ġp ress
Ġshall ow
Ġs m
am p
oth er
ĠO n
uff y
Ġri pe
kra ut
uer kraut
Ġ4 25
ĠS o
ab out
Ġcro ck
Ġcream y
Ġsqu are
as chin
ĠCo conut
Ġpast a
Ġconcentr ate
aschin o
n ot
Ġf ried
el ess
Ġsp eed
rea st
Ġd ark
ĠM ay
ĠD ream
ĠI f
Ġde g
ĠM ar
les s
c ake
w ich
Ġ Z
us ts
ĠO range
p ot
Ġmar aschino
ĠV egetab
Ġwax ed
ĠS ugar
ĠI ce
Ġpack ed
c orn
at ion
er m
en ne
Ġ4 50
ĠO re
Ġcomp let
Ġc andy
Ġd ri
Ġcream ed
Ġsp ices
ul ated
ver y
Ġsh erbet
Ġapples auce
Ġdo zen
Ġmay o
Ġp rocess
Ġcr usts
ĠM on
ĠW ash
Ġchi ves
or t
ĠP ound
Ġh igh
Ġcarro t
Ġg al
Ġboil ed
Ġk eep
Ġgran ulated
Ġb ars
ĠB reak
ess on
ex t
vel op
Ġb unch
Ġe le
ĠB r
is ten
ir t
ĠJell o
Ġlon ger
ĠS c
Ġun sweetened
ĠN o
Ġgrap es
y s
Ġco mes
Ġr ings
Ġcool ed
Ġen velop
Ġbon eless
and wich
Ġle an
ĠW esson
Ġb ite
Ġd ro
ay enne
T el
Ġc ayenne
re es
ĠFor m
ĠAr range
Ġ im
Ġf old
Ġb reast
ĠG reen
Ġthicken ed
Ġdeg rees
2 0
es sert
Ġm e
um in
Ġcucumb er
Ġcomplet ely
il ad
sp ar
Ġpretz els
Ġus ing
ĠMex ican
in ed
Ġfl uffy
Ġrasp berry
Ġm old
ĠC on
it os
ĠD essert
Ġcorn bread
ĠFreez e
Ġh as
Ġch uck
Ġbubb ly
or s
Ġ6 0
ĠN ut
Ġe very
Ġco ars
an y
ar y
Ġpick les
U p
ap ing
ĠLo af
1 4
ĠSa usage
ĠCh erry
if e
ĠT oss
ct ric
o y
Ġcho ice
ĠCr an
Ġus ed
Ġp er
on g
Ġpick le
Ġse al
ĠBe an
ĠP ick
Ġele ctric
Ġor der
Ġthin ly
ĠSt e
Ġm el
la z
Ġpo ppy
i ed
ed ges
Ġneed ed
ĠH igh
ĠE ng
ĠVegetab le
ĠS our
Ġf ull
f t
Ġon ce
ĠP ork
Ġn e
Ġadd it
ist ach
Ġjalapen o
i dd
ĠW rap
i ous
er ries
ut ed
Ġstal ks
istach io
Ġp op
ĠP et
Ġr hubarb
Ġal tern
ĠCran berry
m edi
rain ed
Ġso me
Ġha ve
medi ately
un s
Ġse con
Ġkn ife
Ġ -
Ġre cipe
t ies
Ġa g
f l
Ġsa uerkraut
Ġbeat ing
Ġto ss
Ġmar in
ag us
spar agus
Ġbe en
Ġqu ar
a i
ĠM arin
Ġwh eat
c y
Ġan other
ĠEng lish
Ġag ain
ĠP at
Ġseed s
Ġbro il
ĠD ump
ĠB ars
in es
ĠB lue
Ġadd ing
y me
Ġb erries
ĠA l
Ġsp ice
Ġth yme
st it
Ġgra vy
N o
Ġf avorite
ot s
Ġsh erry
ĠCh eez
Ġlemon s
Ġmel ts
Ġal so
ĠTh e
ĠGra dually
Ġcur ry
Ġdro ps
ou ld
ĠH am
i ve
k en
ĠWh iz
ĠG ood
Ġhe aping
Ġp unch
und t
Ġp ar
ĠB arbecue
b on
Ġsu b
Ġbe t
Ġr um
ĠU n
ĠT ater
p l
ĠA ng
Ġwh ip
Ġenvelop e
ors els
a me
c akes
Ġm orsels
ĠB iscuit
Ġfl at
Ġar ound
g el
Ġc and
in ue
Ġto w
Ġp ound
b all
o ol
ic ious
ĠSqu ash
a ff
Ġgra dually
Ġre lish
ĠCr umb
bl er
p h
Ġd rop
Ġr ise
ĠK n
ĠCar ro
ĠGar nish
Ġp izza
Ġh erb
Ġim mediately
' t
ĠSt uff
Ġco ated
ĠPe ach
ĠAng el
Ġbro ken
Ġsh ape
st ic
Ġan gel
Ġsub stit
p en
p ick
ĠCh il
Ġpimento s
Ġ1 1
Ġpla stic
Ġfro sting
ĠB undt
Ġsalt ed
c a
v o
Ġpl us
isten cy
in t
ĠK eep
Ġp res
Ġd i
ĠP am
Ġpre heat
b oil
n ut
ĠC andy
ĠM ash
oth pick
Ġpin to
Ġcons istency
ĠChil i
l ing
ĠR a
ĠO r
pping s
b bler
Ġseasoning s
ĠT om
Ġcorn fl
Ġflavor ed
ĠDel ight
Ġdri ppings
a ce
Ġp istachio
Ġch eddar
Ġto othpick
n er
ĠP izza
ĠH a
Ġfry ing
c ad
ĠP umpkin
ĠRed uce
t on
w h
ĠOre o
Ġun d
ĠRoll s
Ġsto ve
ĠBiscuit s
Ġl en
cc ent
j oy
p eat
Ġbe an
ĠL ine
pl ant
vo cad
f ree
Ġ1 4
ĠA ccent
ĠO ld
iz ed
oll ow
Ġo ys
ĠT ea
all op
Ġcho p
Ġb rand
il uted
le ts
Ġcar amel
Ġrefriger ated
t y
Ġb ay
Ġbe ets
Ġpepper oni
co oked
es ame
Ġon ly
la w
ĠCo bbler
Ġadd ed
Ġtoast ed
ĠM uff
in y
Ġg ently
ĠF ried
e es
h ey
t ing
Ġto o
ĠT aco
Ġn ext
ĠSp inach
ĠSh rimp
iff y
Ġcrab meat
ĠMin ute
e g
Ġ1 8
og s
ĠA pp
Ġcorn ed
ĠJ ack
ĠCr ust
erm an
w ise
ins e
unch y
Ġyol k
er i
Ġa sparagus
ers hey
ĠBrown ies
Ġpres erves
v ing
Ġb uns
ĠA fter
ball s
ĠP h
ant e
iv id
boil ed
o me
Ġa irt
ĠCra ck
ĠZ ucchini
aff in
Ġairt ight
ĠJ iffy
ĠMar shmallow
Ġpar affin
ĠMuff ins
ic ante
ĠC abbage
Ġa vocad
Ġpreheat ed
Ġ ry
Ġle af
am els
Ġb ar
en er
Ġst ore
ĠH ershey
ĠK ool
ĠYiel d
Ġaltern ately
Ġry e
ĠC up
ĠCra b
b ow
Ġs andwich
Ġs esame
Ġw ee
ak ing
ĠCrumb le
Ġ el
ol es
Ġba ck
ĠG erman
all on
ĠF resh
Ġheat ed
ee ts
ĠK ra
Ġpop corn
Ġo un
ĠC amp
Ġteaspoon s
Ġpat ties
ĠOn ion
. \
v il
Ġc la
ĠC risp
art y
Ġ quart
Ġaddit ional
Ġcornfl akes
A id
l it
ien to
Ġcar amels
Ġsepar ated
Ġchunk y
Ġc l
ow er
Ġroll ed
ĠP an
ĠCr ush
Ġturn ing
t c
Ġ art
Ġ2 50
ĠSte ak
Ġsubstit ute
Ġre al
ab y
ap le
ĠG reat
Ġsepar ate
f or
Ġp icante
Ġsl i
Ġcub e
zz le
ĠCar amel
d o
n ess
ĠSp ray
Ġday s
Ġprocess or
Ġsecon ds
in ner
ĠF r
i al
al or
ĠFro sting
k et
m ade
Ġt ightly
Ġm ild
Ġe tc
Ġsoup s
ĠD e
ĠO atmeal
b ell
f er
g th
i ble
Ġpie ce
Ġgar nish
im es
Ġfry er
Ġel bow
Ġf our
Ġg allon
Ġl id
ĠM acaroni
Ġpim iento
ĠD or
Ġra ck
Ġlen gth
b its
ĠD iv
co op
ĠRe peat
ĠCorn bread
il y
ic ot
ĠD ot
A ll
s or
el ph
ĠS up
Ġpe ars
ĠA ll
Ġgra pe
Ġnon fat
ilad elph
iladelph ia
in i
Ġb reak
laz e
g s
Ġw rap
Ġfor ms
Ġhand s
ĠPh iladelphia
u k
er ing
ou l
ĠSh ake
ĠDel icious
ĠCamp bell
Ġw ash
ter ey
ol id
ip ton
st ick
ĠF arm
ĠWh ile
Ġres erv
Ġcand ied
Ġsli vered
Ġsh ake
Ġcr unchy
Ġthe y
Ġwh ich
Ġre mo
ĠRo ast
) ,
w e
ĠL ipton
Ġfirm ly
ĠBlue berry
m a
ĠP arty
Ġegg plant
mo st
Ġspoon fuls
l u
Ġ '
Ġbe er
Ġsa ge
Ġbot t
ing ers
Ġg rain
Ġst age
Ġmuff ins
ĠBr ush
ĠHa mburger
ome made
ering ue
a pp
o la
qu al
Ġsm oke
i ven
i ally
Ġp it
Ġju ices
Ġbag s
e gg
f ast
Ġun s
Ġlar d
ĠMon terey
Ġm ade
un can
Ġsh ould
Ġgr ill
Ġrasp berries
Ġart ich
al ley
ĠW ill
Ġsk im
o x
Ġ \
ĠC reme
ĠM e
ĠT w
Ġth ree
Ġbe g
lavor ed
bl ong
w ay
ĠR icot
Ġal most
c ing
Ġc umin
Ġm aple
Ġserv ed
ĠBro il
mbur g
ĠSqu ares
Ġbroil er
Ġe at
ĠSt ew
Ġo kra
Ġb aby
as ure
Ġof ten
Ġstew ed
Ġlength wise
ĠRicot ta
Ġo blong
om me
ĠPick les
ĠKra ft
l ings
Ġt imes
ĠB est
Ġwh is
ĠD i
ash ion
Ġblue berry
ĠCo ffee
ĠCh ip
ĠH ines
id ge
Ġap art
s ize
Ġ "
Ġt id
ĠV alley
mer ic
y re
Ġt ri
Ġp ul
Ġw ork
ion s
th ing
ul ly
Ġthicken s
ĠDor itos
we en
yre x
Ġs q
Ġ5 5
Ġcle ar
a h
ĠM ilk
ĠD uncan
ĠG rand
ĠV eg
Ġmo der
Ġcons omme
ĠPepper idge
n y
Ġ edges
Ġd ogs
ĠP ast
ur ing
ĠRe cipe
Ġcoars e
Ġbet ween
Ġtid bits
a il
on s
Ġw ings
Ġchil es
Ġroll ing
ĠCream y
ĠFro st
Ġcoars ely
f lavored
Ġt ap
ĠP yrex
ĠT ots
Ġst ill
Ġst yle
ĠSal mon
Ġteaspoon fuls
Ġtur meric
ĠTom ato
Ġ ic
Ġf il
ĠSc allop
Ġwee ks
Ġf udge
Ġdissol ve
ĠRa is
ĠSup reme
ĠT una
ĠWh ite
Ġcontain ers
Ġri bs
Ġhe arts
t m
in ese
ĠCh ris
Ġal umin
ĠChop s
Ġquar ter
Ġpul p
Ġalumin um
Ġsa ute
ĠH oney
Ġcrumb ly
ĠFro zen
Ġsto ck
idd en
1 3
h ead
Ġg iven
Ġmin t
ĠL ow
io ca
Ġic ing
d e
Ġsh eets
ĠH aw
ĠH idden
Ġk ind
ĠCon t
ai ian
ĠT ang
ĠCh inese
Ġgelat ine
Ġbott les
ĠHaw aiian
f ten
s mall
Ġw ant
ĠS low
ge al
Ġun der
Ġwith out
ĠO ven
t ry
Ġb r
Ġl ess
ĠEgg s
Ġmoder ate
Ġb one
Ġd rink
Ġha mburg
Ġpo pped
Ġsu re
Ġbo ard
Ġcla ms
oul try
Ġp ure
at ch
ut ons
ĠC ustard
Ġn o
Ġbon ed
ĠSo ak
Ġtow el
ĠCarro t
c r
Ġc utter
Ġp oultry
ĠM ushroom
ĠSto ve
ĠSo ften
Ġme in
Ġevery thing
Ġb est
ĠP o
ĠSp aghetti
Ġtop s
Ġbrand y
Ġtap ioca
Ġsu r
ĠS law
Ġg laze
Ġh oles
ĠKn ead
n ation
Ġs coop
an ish
Ġf ran
Ġin ser
Ġl im
ood le
ĠV anilla
ous ly
Ġoys ter
ĠDiv ide
ĠRais in
Ġ &
re qu
us s
ĠI cing
ĠMarin ate
tm as
w ith
ra g
Ġgreen s
ĠJ ust
Ġref ried
Ġste ms
Ġcro utons
Ġkn ead
idd le
Ġinser ted
Ġf requ
to ver
ĠCh ex
Ġlo aves
Ġskin less
Ġfrequ ently
Ġt ake
Ġm eringue
ĠC akes
Ġsugar s
ĠS m
ĠT ur
ĠD ish
Ġpart y
ĠStuff ed
Ġavocad o
ĠChris tmas
Ġl uk
Ġj am
et iz
ien ers
ĠD ri
inch es
ĠH ash
ew arm
Ġcont inue
Ġpick ling
Ġpart ially
Ġquar ters
ĠScallop ed
Ġluk ewarm
d ry
Ġt ins
Ġf ollow
am s
ĠButter milk
rag on
1 1
Ġd el
ĠS k
ab le
om iny
ĠH omemade
cess ary
ĠGr ill
Ġne cessary
ĠSlow ly
n o
ar ragon
Ġw edges
or ed
Ġqu arts
Ġspray ed
ĠBreak fast
ĠAll ow
Ġfil lets
Ġc alor
Ġm iddle
Ġl ined
us e
ĠCr unch
ris ket
ĠCar nation
ĠCrack er
f ace
Ġt arragon
Ġp ies
ĠC ro
un t
Ġco mb
ir on
ĠE n
Ġsteak s
Ġinch es
u al
ĠS n
Ġall ow
Ġcrumb le
Ġmo ist
oss ible
Ġnon stick
Ġquick ly
ĠCont inue
a v
Ġm akes
or m
ĠT ri
Ġseed less
Ġsur face
Ġb ark
ut ch
Ġin d
Ġg et
ach o
ĠO ne
ag na
ĠApp les
C h
e ar
Ġm u
al ted
ĠR et
ĠW ater
ĠPan cakes
pe el
ĠGr ate
Ġskin ned
ĠRet urn
d ish
e ars
m ary
o am
ĠD ough
Ġpan cake
Ġred uce
Ġoun ce
n ing
s ing
Ġsu n
ĠS eal
ĠP ack
Ġsalt ine
ĠD utch
Ġcar ef
ĠDri zzle
en ts
ĠB ur
na ck
Ġhal ved
Ġfresh ly
Ġmarin ade
ĠFr itos
f tover
Ġb lo
Ġp ink
ĠP op
is ted
ĠM om
ash ew
lo in
ec ial
Ġmarin ate
ai ry
Ġt bsp
Ġgr its
Ġcut ting
ec or
Ġund rained
Ġb ul
ed ge
Ġm aking
Ġin st
Ġl isted
Ġun flavored
Ġen joy
ĠTo ast
ĠEn joy
Ġt in
ĠC ucumb
ro uts
Ġd inner
ĠS andwich
Ġle ftover
ĠD ill
Ġsm oked
app roximately
Ġch ow
Ġch ees
ing le
ĠM andarin
Ġv egg
op le
Ġex cess
Ġund iluted
ivid ed
peel ed
i pped
in a
ĠR el
Ġr inse
Ġmeat balls
Ġsc all
ĠCarro ts
Ġcl ub
b u
ic y
Ġa head
ĠSp anish
ĠL ea
ĠGar lic
laz ed
ĠRel ish
f lower
o e
Ġc ap
Ġsp rink
Ġsp routs
Ġwal nut
ount ry
ashion ed
a con
m y
Ġb ig
Ġd ivided
co ok
Ġro se
ee ps
Ġsqu eez
par ate
ĠPast a
Ġbul k
m an
Ġg reat
ĠT ex
ag ne
ĠU sing
Ġbet ter
Ġbeg ins
Ġs it
ak er
ĠP r
ch o
Ġbrown ie
Ġmo is
Ġtow els
Ġlim a
s ide
Ġw ood
Ġw ieners
ĠCh e
ĠD ice
Ġapricot s
olid ay
Ġchees es
bu ry
Ġrose mary
Ġc il
Ġw ire
ĠCh ess
ĠCh ees
ĠL ime
ant ro
Ġcolor ed
Ġwaf er
ĠDump lings
Ġreserv ed
Ġcil antro
f ro
o ve
o ck
Ġs ingle
at h
Ġd on
Ġl ite
ĠCo at
ĠR inse
ĠR uss
Ġpre fer
Ġpl atter
Ġpin t
as ter
Ġra dish
ĠOre os
ĠTur key
Ġc ashew
er e
ĠS eed
ĠB lack
ĠM old
ill s
ĠL ightly
ĠH ell
ff le
Ġab ove
Ġmeat s
ĠN ext
Ġlit er
ĠSe parate
ĠGr ind
b y
s ave
ĠC innamon
Ġh ominy
Ġle ave
ĠTh aw
ĠFl ake
Ġuns alted
Ġwood en
ĠRuss ian
m int
Ġ iron
Ġb risket
ĠC ol
it tle
ĠD ate
ĠSt yle
ĠY um
Ġde vil
Ġglass es
Ġvegg ies
ĠChees y
c up
Ġe as
Ġe qual
out h
Ġthick ness
Ġwash ed
Ġartich oke
ĠCro ck
Ġf oam
ĠC auliflower
ĠP u
ĠP uff
Ġg ener
Ġr ing
ĠN e
ex cept
Ġscall ions
ĠLea ve
ĠTex as
b ox
Ġb urn
our bon
Ġpe ople
ĠR hubarb
Ġsp lit
ĠSp ecial
ct ar
Ġbunch es
Ġquarter ed
Ġsun flower
Ġblo ck
a ges
ĠB acon
ĠW al
Ġen d
Ġsc al
Ġd ot
Ġh old
Ġbe ater
Ġal um
Ġremain der
ich e
ĠGrand ma
Ġind ivid
ills bury
i er
in al
ou ch
eat en
ĠF avorite
Ġla s
ĠCheese cake
Ġdissol ves
ilad a
Ġsecon d
sor ted
m m
ĠB atter
Ġpe ak
Ġsa me
Ġsp ring
ĠSp iced
Ġfruit s
Ġchi pped
Ġar range
4 6
o f
Ġo pen
Ġp arts
al s
ĠC l
Ġth ese
th s
Ġro t
Ġas sorted
ĠMeat balls
Ġoys ters
Ġremo ved
f ish
p tional
Ġc akes
ĠP ro
un cooked
Ġun peeled
Ġn acho
ĠR es
ĠR om
ĠSp lit
Ġsof ten
F at
Ġc reme
Ġs n
an k
Ġsweet ener
Ġaddit ion
Ġflat ten
Ġpure e
l and
ĠP illsbury
Ġl ine
Ġsh ap
ĠD on
ĠF ood
Ġab sor
Ġwhis k
Ġcomb ined
Ġmu ch
Ġradish es
Ġ2 75
dd le
Ġfl ower
ĠA p
Ġst art
co ver
Ġy ams
Ġseed ed
ĠMarin ated
ĠAl tern
j on
ar ge
it y
ĠB ar
is on
Ġst arts
Ġbe co
ĠH oliday
ĠO f
ĠSh red
Ġsandwich es
man n
Ġabsor b
P ot
u ice
Ġ edge
Ġo wn
Ġt ray
at ing
rea ch
Ġcon geal
ĠG olden
isc ard
Ġdes sert
aw ay
ett uc
Ġroast ing
Ġne ctar
lu a
ah lua
Ġcalor ies
ĠRes erve
ar eri
es tle
Ġin c
Ġ3 2
ĠP rocess
ĠT r
ĠCo cktail
Ġpepper mint
Ġcur d
Ġbubb les
Ġpit ted
Ġmois tened
Ġc ustard
en ison
Ġf ri
ri ddle
me ter
ĠL a
Ġlo ok
ĠHeat h
Ġste am
Ġroast ed
Ġcoat ing
Ġstal k
Ġme asure
Ġoun ces
Ġtri ang
etiz er
ĠBur g
ĠCucumb er
ĠAp ricot
p le
Ġt orn
Ġch ip
Ġw ild
ver s
od ka
Ġdo z
und iluted
ĠFl uff
bon ed
ĠDi jon
Ġcaref ully
Ġcashew s
Ġpeak s
T h
m ay
Ġp r
sp berry
Ġd uring
ĠB ran
ĠR am
ĠF ish
Ġsp ears
Ġse ctions
urp le
und rained
ĠFl our
Ġindivid ual
ĠRam en
c ut
z o
Ġp ers
Ġp ort
ou se
ing u
ĠC al
Ġe asy
Ġg riddle
ĠA unt
mon d
mp ty
Ġflavor s
ĠPre tz
amp agne
ĠUn cover
Ġremo ving
areri bs
le an
Ġ3 6
Ġl ump
ĠI r
ĠWh eat
ĠJ o
uc ed
ĠN ot
Ġen ch
Ġen ding
Ġde boned
Ġround ed
Ġjalapen os
ĠPo ppy
Ġscal ded
h igh
i b
m ar
Ġ reach
ĠS outh
Ġg o
ok es
Ġsa ve
gh t
ir loin
ad y
Ġr ins
ĠV ery
Ġnut meat
arbec u
ĠQu iche
pen ding
Ġbr ush
ĠHell mann
Ġnutmeat s
a ving
Ġs ter
Ġt y
ou ffle
Ġf ive
Ġf ingers
Ġw ay
Ġa c
ĠB as
la y
as a
Ġle aving
ĠCook ie
Ġcar away
ĠK eeps
ĠN estle
ĠButter scotch
Ġavocad os
Ġench ilada
L emon
Ġb it
Ġt ouch
Ġw ide
ĠC a
la in
ĠP ea
Ġle vel
th y
ĠD irt
ab et
ĠH ave
ĠJ am
Ġpo int
Ġbon es
ĠGra ham
ĠGra vy
ĠUn cle
ĠMe asure
j or
m ix
Ġ +
Ġb ourbon
Ġt iny
ro of
Ġv odka
ĠO ver
ĠSa ve
Ġpack et
ĠAr t
ĠDe vil
Ġrins ed
! !
a dd
Ġc ir
al ade
Ġw et
Ġco me
Ġcream er
ĠD inner
ĠSp r
ĠG lazed
ĠK ahlua
ĠN oodle
Ġfin ish
Ġme as
Ġreserv ing
Ġlas agna
Ġf ire
ĠS nack
ĠP ies
ĠSa uerkraut
ĠFl at
ĠPat ties
Ġcand ies
ĠTom atoes
Ġwhis key
fro zen
ĠRom ano
ĠIr ish
arbecu ed
1 8
y our
Ġo ptional
ĠC at
ĠP er
Ġr un
Ġsp ri
ĠI s
ĠH e
ĠH orm
ĠE x
ĠE qual
Ġit s
ig inal
Ġdri zzle
ĠHorm el
d airy
i k
Ġc ored
Ġs ized
Ġp ossible
and er
Ġst ack
Ġmar jor
ĠG o
ea Lemon
ĠN ew
Ġartich okes
ĠTw ink
Ġdel icious
Ġshap es
ĠFlat ten
b one
m mer
t al
al f
Ġd ump
ĠR ag
Ġpan cakes
res erve
Ġfro st
am ily
Ġred uced
Ġlime ade
iel b
ĠFr it
cr umb
Ġfran k
ĠPop corn
ĠArt ich
Ġmarjor am
f ry
m edium
r u
Ġs olid
Ġs irloin
en d
ĠCo ca
ĠR eaLemon
ĠF in
Ġre ct
ĠG ently
li me
ĠN oodles
Ġpound s
eri os
ecor ate
ĠChe erios
Ġty pe
ĠSpr ite
M akes
l arge
r s
r ant
u la
y e
Ġp armesan
Ġin side
ĠB en
ĠB ay
ĠM a
Ġst ring
Ġcook er
Ġre t
ĠG inger
ift ed
Ġres erve
ĠSte am
ĠSn ick
m ents
r ise
Ġp urple
ĠC and
Ġpe ar
ĠM an
Ġco re
Ġfl ake
orn ing
Ġlo ve
ĠPick led
Ġherb s
ĠRa spberry
Ġpimiento s
Ġeas ily
Ġfoam y
ĠAltern ate
Ġpr un
2 1
C ola
I f
u pper
Ġp uff
en ough
pp ies
Ġa way
ĠB arbecued
ĠA n
ĠA sparagus
ef ore
ĠSal sa
ĠSe ven
ĠGra pe
ĠCrack ers
Ġfran ks
ĠRag u
f ur
t in
ar ter
ut eed
Ġth an
Ġn ight
ef ruit
am ole
Ġso ak
ĠO ri
Ġan ise
Ġsk ins
ĠSh oe
Ġdo es
Ġsc allop
ĠBr ittle
Ġdi pping
ĠSk illet
abet ic
ĠArtich oke
S erves
u ac
Ġ ent
il ized
Ġf ettuc
ĠC ountry
ro ss
ĠS ec
ĠT ime
ĠCh ow
ĠR ub
ĠW ork
ĠH erb
Ġal ong
ore ts
ĠO ys
ĠPe c
ĠButter f
ĠSeason s
ĠIce box
Ġenvelop es
ĠAl mond
wh ite
lu ding
Ġbeco mes
Ġster ilized
ielb asa
uac amole
3 2
g ate
m alade
Ġc oup
er mo
Ġt all
ĠC la
ra ut
Ġl ingu
ĠM ill
ĠCo ke
Ġmar malade
ĠD eep
ast ing
Ġcup cake
ĠPe g
Ġmo st
Ġdou b
Ġcur rant
ĠMon key
wh ile
Ġret urn
ĠPec ans
U ps
c ell
e ur
l ined
t e
an ge
ed ish
Ġp ower
ĠP ol
Ġfl orets
Ġth ir
Ġor iginal
ĠCo coa
Ġ4 8
ĠCh ew
ans fer
iss es
Ġspoon ful
Ġfollow ing
ĠWater gate
ĠCol by
ĠPuff s
ĠNot e
ĠSouth ern
Ġfrank fur
Ġcoup le
cell ent
b ake
d on
f resh
Ġc uts
Ġ1 00
Ġm orning
ĠB efore
ĠM rs
ĠT ort
ĠCo le
am al
ĠL as
ĠO il
Ġcut lets
af e
ĠRe ady
ey ed
Ġtw ice
ĠTri m
d ough
Ġ1 7
Ġd iscard
ĠB l
ĠW atch
Ġoil ed
Ġsp areribs
ĠL on
ven t
Ġro aster
Ġlo in
Ġspread ing
Ġmo isten
Ġunb eaten
ĠMay onnaise
ĠNe ver
Ġmeas uring
Ġprun es
b e
p roof
Ġp ull
Ġm on
Ġm any
ou ble
Ġf a
ak i
ĠS um
ĠS urp
ĠP l
Ġh ole
ot t
ĠF ail
ĠH ush
Ġk raut
ĠIn stant
ĠLayer ed
Ġri ght
Ġnon dairy
Ġmold s
ĠCon geal
Ġbeg in
ĠPu ppies
Ġspri gs
Ġdoub led
ĠSum mer
C o
e ms
m ent
r ound
y aki
Ġo ld
ĠS ouffle
Ġn ew
orn ia
ĠSt rain
if ornia
ct ive
ĠG ran
Ġpre pare
Ġket tle
ĠSw edish
eri yaki
ĠIs land
Ġent ire
ĠMill ion
Ġfrankfur ters
ĠSurp rise
! )
2 8
a ct
b utter
d rained
p ec
p lain
s ugar
u res
Ġb asting
Ġm ace
at ula
ĠB aking
ĠP ink
Ġh ock
Ġv enison
ir l
Ġr ese
Ġsp atula
am a
ĠL e
Ġboil s
lo c
Ġpre vent
ĠRefriger ator
Ġliqu eur
Ġpin ts
eez e
ĠFill ing
Ġinst ead
Ġinst ru
ĠSandwich es
Ġflower ets
Ġscallop s
B ake
J ell
d ge
Ġs w
at ur
re n
Ġf ree
Ġ2 00
Ġd ice
Ġg one
ĠM c
ith er
lic ed
ĠF ran
im mon
ĠE nch
Ġhard en
Ġgrap efruit
Ġtoothpick s
ĠMushroom s
Ġgener ously
ĠCal ifornia
b aked
v ol
Ġb l
Ġf it
ĠC lean
or r
Ġe ars
ĠT ear
ip loc
um ps
ĠSt ick
ĠN or
Ġen ds
Ġpack ets
ĠKn orr
Ġuns ifted
Ġcap s
d en
s afe
ar i
Ġch ampagne
ĠC re
ĠC ub
Ġsu p
ĠM y
ĠSp ice
Ġse c
Ġse g
ĠI mp
Ġblen ding
Ġteaspoon ful
oun ts
ĠQu ik
ĠMex ic
ĠMin i
ĠZ iploc
ĠKn ox
ĠApples auce
Ġsqueez ed
Ġinstru ctions
vol one
S t
Ġsalt ines
ĠT ender
Ġst rain
Ġsa uteed
th e
ĠH o
ĠO li
ent al
Ġhalf way
Ġhead s
ĠSl ush
ĠTo pping
ĠEgg plant
Ġwee k
Ġcl oth
ĠGrill ed
Ġabsorb ed
ĠPretz el
crumb s
ĠTort e
Ġrese mb
Ġseg ments
h e
m it
m elt
u les
x x
in stant
Ġs law
Ġt ight
al ina
Ġf amily
Ġw ish
Ġw ould
ĠS ea
ĠP inch
Ġn oodle
Ġpec tin
Ġdish es
ĠE at
Ġlo os
Ġlo gs
Ġde pending
Ġstuff ed
Ġsc ant
Ġclean ed
ĠMarin ade
Ġwork s
ĠDevil ed
ĠTwink ies
b b
w are
Ġb ur
ĠC ur
ĠP lay
Ġl ots
Ġl umps
ĠM ustard
ĠT ot
Ġv ig
Ġcan ola
Ġcan ning
eat h
ĠW arm
ĠW ings
ĠF ir
ĠSp icy
Ġstick y
Ġk ielbasa
Ġpack ages
ĠCorn ed
ang o
ĠAl so
ĠMash ed
ĠApp etizer
ĠCup s
ĠCat alina
ĠOys ter
ĠCla m
ĠGran ny
ĠImp ossible
Ġvig or
R oni
j ust
Ġf ries
Ġw on
Ġsu it
ĠS yrup
la sh
ĠP istachio
Ġco la
pper s
ĠO pen
Ġstri p
Ġstiff ly
Ġgran ules
ĠPepper s
Ġne ar
Ġtriang les
Ġvigor ously
y st
Ġb ran
al ia
ro ps
ĠB on
ĠB eets
ĠP ark
ĠM il
Ġcr yst
oup e
ĠD oll
Ġover bake
ush y
Ġfro thy
ĠL ast
ĠSt art
im ple
Ġbowl s
ag on
ĠSh ort
Ġcarton s
Ġcro ss
ĠSqu eeze
Ġam ounts
ĠMon de
Ġdro pped
Ġdi pped
Ġscoop s
ĠSn ow
Ġsprink led
ĠPr al
mm ed
Ġfri dge
ĠBurg ers
ĠCand ied
ĠButterf inger
ĠCongeal ed
ĠCub e
M icrowave
h ot
i w
s ized
an ese
re l
Ġsu mmer
Ġa ctive
ĠS coop
Ġth igh
ch er
ce meat
ĠCo mp
ĠD ouble
ther n
ur k
Ġr is
ĠL i
ĠH ea
ĠH ouse
mo re
Ġhot s
lo ppy
ĠCream ed
ĠTh ese
ĠN uts
ĠSh erbet
ett es
Ġround s
ĠSc ra
Ġcla m
etiz ers
Ġsqueez e
Ġstart ing
ĠFrit ters
melt ed
ĠFir st
iw i
F ree
b o
d a
Ġt ill
Ġp ro
Ġp od
Ġw or
Ġw ra
ro st
ĠS ar
ĠS ure
Ġg um
Ġl ater
ĠCh owder
ĠD ry
ĠF ashioned
ast es
Ġlar ger
ĠL ight
ĠSt ro
id alia
Ġbread crumbs
ĠE mpty
Ġchil d
Ġfry pan
ĠVegetab les
alor ie
ĠTr ansfer
ĠOri ental
ĠOli ve
ĠSea f
Ġthigh s
) ;
o z
p re
z y
Ġb la
ĠC old
Ġto pped
ĠB o
ĠB aste
Ġg erm
Ġv eal
Ġmix t
ell i
ver age
ĠMix ture
gh orn
ĠCrisp ix
ĠPro volone
ĠMexic orn
urk ee
C an
j uice
n el
o sh
u ds
el on
Ġd ia
un k
Ġth ermo
ĠA s
Ġcan tal
Ġover cook
Ġre peat
ef rost
ten der
Ġk iwi
ee k
ĠPe ar
aw ry
Ġde ve
Ġhand ful
ĠZ est
Ġlen til
Ġsn ipped
Ġreach es
ĠLas agna
Ġmixt ures
3 0
c ream
p id
s elf
u g
an ce
al d
ro ll
Ġe ven
ĠS mooth
ĠS loppy
ĠB ea
Ġfl ank
ĠA u
ĠD ust
ĠSp am
Ġla mb
ĠV egg
ĠV idalia
Ġdes ire
gano ff
Ġpretz el
Ġsubstit uted
Ch eese
cho pped
atur al
ĠNor thern
Ġthermo meter
F or
c ine
Ġc ountry
an while
Ġo mit
Ġch e
Ġch ick
ĠC ider
Ġd airy
ĠS un
ĠP in
ol og
Ġl in
ĠM ed
Ġbutter nut
ĠT ortilla
ĠD ay
Ġr ub
Ġsmall er
ĠL awry
Ġshor t
Ġshell ed
ĠJell y
Ġhand le
so ft
bs ter
wh ole
uk es
Ġinc luding
Th is
ĠLon ghorn
Ġcantal oupe
Ġlentil s
olog na
1 7
p lace
r um
r ong
x e
ut h
Ġf ully
ĠC ap
ĠC elery
ĠC ott
ro s
it ation
ĠB owl
ĠA mb
Ġbe et
ver t
ie ve
ĠD urkee
ĠE l
Ġra pid
Ġcool s
li ke
ĠTh ree
ss e
ĠSh ell
ĠBe er
acar oon
Ġdash es
ĠU ps
iff er
ĠGr ound
ilad as
Ġaltern ate
Ġdi agon
ĠOnion s
Ġcalor ie
ĠHea venly
ĠStro ganoff
ĠCott age
2 9
g in
h alf
r on
u xe
Ġs ix
Ġf illet
it es
Ġd is
Ġe ither
ĠS erv
ĠS und
ĠB reasts
ĠM eal
ĠM eringue
ĠT re
ĠA t
Ġst arch
ĠR i
ĠW e
ĠW ine
ĠW af
Ġlb s
ound s
ĠL ower
ap anese
ĠG laze
ĠJ ul
ĠE ver
Ġlo g
Ġcont in
Ġblack berries
ett y
ĠMo ck
ĠLemon ade
Ġdi et
for m
ĠMe anwhile
Ġsprink les
Ġdump lings
amal es
Ġsup reme
Ġresemb les
ĠMil not
N uts
m elon
Ġ X
Ġs nack
Ġb ath
Ġm ango
re t
Ġf all
ak y
Ġd ust
ĠS oda
ĠS imple
Ġl ink
ĠM ag
et ter
Ġn ice
ĠD ogs
ĠD ecorate
umb o
ĠWh is
Ġslic ing
ard en
ĠJ uice
ĠK ey
vor y
Ġde er
Ġde bone
Ġsc ra
ĠStuff ing
Ġpit a
Ġpit cher
Ġport ions
ĠPol ish
ĠEnch iladas
Ġcross wise
Ġbla de
osh er
ĠZest y
ros ia
C orm
F ashioned
a ved
g reen
j un
z ola
Ġc ukes
Ġt ips
Ġt est
Ġp ats
Ġp oke
re w
en ess
Ġon es
ĠS ch
Ġg lo
Ġg uacamole
Ġh omemade
ĠM other
dd ock
ĠA mar
et to
Ġn atural
Ġbrown ies
Ġstick ing
Ġro ma
ĠO kra
ĠJ apanese
ĠK isses
Ġclo s
ĠTh ey
Ġmo zzarella
Ġcol ander
Ġri b
ous and
bl ing
Ġseal ed
ĠTw o
ĠWal nut
ĠBas ic
Ġcir cle
ĠEx cellent
upper ware
ĠPark ay
ĠAmb rosia
Corm ick
ĠAmar etto
Ġroma ine
b ro
in z
in ation
an gular
Ġo uts
Ġb erry
Ġt amales
Ġm et
Ġw orcestershire
Ġd ecor
ĠB aker
ĠB etty
Ġg ets
ĠM edium
ĠM iss
Ġst rong
Ġpepper corn
Ġn a
ĠR ich
Ġgr ate
ĠF ollow
Ġse af
sh ip
ĠG arden
ĠK id
ue ur
ĠTh ousand
Ġlow er
Ġflavoring s
Ġliquid s
Ġcrisp y
alapen o
Ġim itation
Ġpar ed
Ġac ross
ĠSnick ers
Ġlingu ine
Ġdia meter
ĠBea u
ĠUps ide
iffer ent
Ġseaf ood
A dd
M ay
o o
Ġ #
es ts
ĠB or
as s
Ġh el
Ġh ollow
ĠM ama
us ters
Ġmin cemeat
ater s
Ġle ft
Ġgr ind
ĠI m
ĠH unt
ĠJ im
ĠE ar
Ġan cho
Ġit ems
fe ct
Ġsimmer ing
ud a
iel d
Ġbas ket
Ġturn s
ĠSc ald
ph ant
ible ts
ĠPast ry
ĠSm ith
Ġdon eness
ĠPu ppy
Ġgener ous
Ġlook s
Ġpers on
Ġpers immon
ĠCa jun
ĠFin ish
Ġrect angular
Ġsec ure
Ġloos ely
ĠDoll ar
Ġpeppercorn s
e pt
h y
Ġc re
Ġb ologna
Ġt ran
on d
ĠC lo
ĠP oke
ow ers
Ġthe ir
th aw
ĠR eese
ĠF lavor
ast y
Ġr ich
am i
ĠH un
ĠG ou
Ġk ept
Ġli ver
Ġli vers
tt y
Ġsc rap
ĠAr m
Ġpat ty
ĠFreez es
spar ent
Ġcornfl ake
Ġcutter s
Ġcaref ul
Ġdevil ed
Ġsn ow
Ġport ion
Ġthir ds
Ġmon ths
pec ans
ĠMc Cormick
Ġchild ren
Ġdeve ined
Ġouts ide
ĠIm mediately
Ġtran sparent
L ow
S ueur
U se
c l
c la
e k
k es
r it
r ub
at in
re gular
Ġf inger
ic elli
it ch
ĠP or
ĠP ure
ĠT upperware
Ġth read
us ages
red ge
Ġcr ush
ĠD ash
st rawber
ĠF at
ur ch
Ġse ts
op e
edd ing
Ġus ual
Ġblack berry
ĠSh eet
Ġsepar ately
Ġpress ed
erm icelli
Ġaltern ating
ĠKra ut
ĠCrisp y
ĠRoast ed
ĠCl ub
Ġlump y
Ġcir c
ĠHe inz
ĠMa zola
Ġpuff ed
Ġhock s
ĠJul i
ĠMag ic
Ġna vy
Y ou
b an
t i
v et
il ute
Ġf la
ic les
Ġ2 3
ĠS ue
ĠB ac
ĠB erry
ĠP res
Ġh ow
ĠT arts
un nel
Ġv ari
ĠA b
Ġ4 6
mb er
Ġsh akes
Ġingredien t
ate ver
ĠR ot
lic es
ĠF ive
if ic
Ġk osher
ĠJ alapeno
ĠE cla
ĠV inegar
Ġfill ed
ac c
Ġz est
ĠSw ans
und y
Ġbub bling
ig s
ĠPick le
Ġbreak fast
ĠDi abetic
Ġleftover s
Ġrot ini
ĠBurg undy
end ship
Ġpod s
ĠVegg ie
Ġdiagon ally
ĠTre ats
ĠPure e
4 0
b eaten
d or
g o
h n
i pp
i gg
n ie
u red
an ts
Ġt ex
Ġt eriyaki
Ġm icrow
ou sse
or i
ĠB y
ĠP ap
ĠM ud
ĠW ish
ill y
ĠF eta
ab ly
qu e
Ġsp icy
Ġse ction
Ġcool ing
Ġcover ing
Ġus ually
ĠY ellow
ĠVel vet
pe as
can ned
ĠRo ck
ĠStrawber ries
Ġgallon s
stick s
ĠYum my
Ġtriang le
ĠJo es
ĠLe Sueur
Ġris ing
ĠServ ings
ĠRi bs
ĠWhis k
ĠEcla ir
I n
O s
a it
b ur
c ts
d y
e an
n og
y l
Ġc all
in o
Ġb atch
Ġp ine
Ġm y
Ġm an
Ġm ed
or y
Ġa d
Ġa ir
Ġd og
Ġd ifferent
ĠP ar
ĠP ull
ol i
Ġh ull
Ġl g
Ġsa usages
ĠW ild
Ġr ump
ĠI nd
ĠCook ed
Ġgar den
Ġso on
Ġal ready
Ġha ir
Ġha ddock
ĠTh oroughly
ĠY ogurt
arb oil
Ġste m
Ġpla ced
ĠDel uxe
ĠGr its
ĠFreez er
way s
cr ushed
Ġfollow s
Ġcomb ination
Ġprefer red
ĠJo hn
Ġrect ang
Ġbl anch
he aping
ĠComp any
ĠSeaf ood
acaroon s
ĠJim my
Ġcirc les
ĠJuli us
Ġtex ture
f le
m ate
r ated
u v
y ellow
Ġ es
Ġc at
Ġ1 9
Ġt r
es ar
Ġm ust
il a
ut y
en ce
Ġf ast
ic o
ĠC alorie
Ġsu ch
Ġd iluted
Ġe mpty
ĠB ra
ĠB etter
ĠP im
Ġg umbo
ick el
ĠA ny
Ġst ay
et h
ir gin
ĠW edding
Ġchicken s
ĠF ix
ĠF ri
Ġre heat
ĠL ou
ĠH al
ain t
Ġoven proof
Ġ30 3
iz er
ĠN acho
Ġset ting
ump ern
ĠBe aters
ĠBoil ed
ett e
Ġtablespoon fuls
ĠTo ffee
ĠMar y
ĠPeach es
Ġdel i
ĠTri ple
ĠPr ick
ĠWal dor
Ġfa ith
Ġchick peas
Ġlin ers
Ġmet al
ĠArm our
ĠWaldor f
D own
e m
s liced
an cy
ĠC ow
or ange
ĠS lices
Ġsal ami
Ġh en
Ġh ens
ĠT est
Ġv ermicelli
ick le
Ġst rained
Ġbe verage
Ġwater melon
et y
mb le
Ġsh aved
ĠD rink
ĠD og
ĠW ay
na ps
co vered
igh ts
ĠWh ipped
ĠH ar
Ġcrack ed
Ġk eeps
ĠIn to
ĠRe ub
iss ipp
ĠBrown ie
eed s
Ġ7 0
ĠSo ft
Ġprocess ed
ĠDe an
oul der
ĠDi et
ĠCucumb ers
Ġcap ers
fro m
Ġburn er
ĠSnick er
Ġfettuc cine
ĠWatch ers
ĠSar an
ĠSund ay
ĠMiss issipp
Ġblanch ed
umpern ickel
ĠMississipp i
D i
O r
d ay
m ild
p ack
y n
Ġs or
Ġd iv
Ġd ecorate
ol ly
as e
ĠM aple
Ġco b
ĠCo la
Ġst raw
Ġst ored
ri b
Ġsa ff
Ġgar ban
sh ine
Ġx xx
Ġro ot
Ġjell ed
Ġsl its
Ġpour ing
ĠCr unchy
ĠN ow
ĠSa ut
Ġtender izer
Ġlayer ing
par ation
ĠCho pped
Ġtab le
Ġpl um
Ġlit ers
ĠCar ef
Ġte ar
ĠQuick ly
Ġim p
Ġlid s
ĠSup er
Ġbott led
Ġtri mmed
ĠChe ck
Ġrot ary
ĠCa esar
thaw ed
ĠAb out
uv res
Ġcat fish
Ġdiv ide
3 50
G reat
I t
N ut
b el
b bits
d rops
e els
i um
p er
u ch
in ds
Ġp umpernickel
and a
ic al
or d
Ġto ffee
it a
Ġd efrost
ter ol
ĠB risket
as sa
Ġfl o
Ġfl owers
ĠA d
to gether
ok ies
Ġwh atever
ĠR um
ĠR ose
Ġbrown ing
ĠF inger
ĠL og
ĠCook ing
ĠH eal
ĠH ominy
ĠG ri
Ġra bbits
Ġclo se
ĠN iblets
Ġice box
Ġtender loin
Ġput ting
Ġtopping s
oun ce
Ġbas e
izz as
ĠGr atin
Ġmarin ated
ĠApp etizers
Ġbar ley
ĠCup cakes
oles terol
Ġfour ths
ĠPo or
ĠSk or
Ġeas ier
Ġdoes n
ĠChew y
Ġbegin ning
ĠPral ines
Ġlink s
Ġancho vy
ĠGou lash
cl oth
itch en
ĠReub en
assa il
2 4
D o
F ried
b ble
g round
i ves
u y
u gh
v anilla
y al
in ity
Ġs ieve
er to
Ġt ests
Ġp al
Ġm ushy
Ġf ashion
Ġw edge
Ġd amp
ĠB uck
ĠB ites
ĠP en
ĠP owder
Ġg re
Ġg lazed
ch a
ri z
Ġle gs
od ium
st on
Ġpkg s
Ġsour dough
ach os
Ġal together
Ġsl ush
iel ds
oun der
ĠQu es
Ġcur l
Ġstew ing
ation s
Ġele phant
ĠSc otch
ĠDiv inity
ĠMilk y
Ġcongeal ed
ĠPretz els
mar garine
ĠGo o
ĠCre ole
Ġrapid ly
Ġglo ss
Ġclos ed
ĠPor cup
ific ial
) *
1 9
B one
F ry
R ice
S weet
f ingers
Ġc ast
Ġc av
Ġb un
Ġp urpose
on ge
ĠC erto
ĠB reast
ĠB aby
ĠT art
un til
Ġco als
Ġcheese cloth
Ġfl aky
Ġth ere
Ġst ro
to p
Ġ4 75
ĠMix ed
Ġsh oulder
ĠCh ips
ĠCh ampagne
Ġmar ble
th qu
ĠW ieners
ĠW assail
Ġgr in
qu ila
ĠL ittle
ash ed
ach ine
ies ta
Ġso aked
Ġheat ing
ĠV enison
ĠPe as
Ġlo ose
ĠSh ould
ĠY east
Ġmash er
Ġpla cing
ĠMo lasses
Ġpl ates
ano la
Ġdo or
ark ling
Ġdeg ree
ĠMon te
ĠSour dough
ĠCrab meat
ĠGrand m
ĠSm oked
Ch eddar
ĠCl usters
ĠPer fect
Ġthir d
Ġgum drops
Ġche ck
Ġcontin u
ĠEar thqu
ori ander
ĠLou is
ĠCaref ully
ĠGri ff
ĠEarthqu ake
? ?
C r
S p
b a
d uty
g ers
w ell
Ġb ed
Ġt astes
Ġch ar
ĠC oles
el veeta
Ġd ist
Ġd rum
ĠS and
ĠP ers
ĠP are
Ġl unch
ĠT e
ĠT eriyaki
ick ory
ch erry
Ġor zo
mb led
Ġsh o
th a
ĠR ound
ĠW aff
na d
ĠF our
ĠF lo
ĠL ef
ĠH ors
ain s
ĠG uacamole
Ġcar bon
ĠIn sert
Ġla dy
Ġchil e
Ġcrust y
ĠTh icken
Ġpre tty
ĠCorn ish
pe g
se ason
ount ain
Ġkern els
ĠFl uffy
ĠMin t
ort on
ĠCon densed
Ġtoss ing
ĠBroil ed
Ġeat en
Ġwant ed
ĠTur tle
cook ing
Th e
Ġwor ms
Ġhel p
ond ue
strawber ry
Di abetic
Ġgarban zo
ĠGriff in
ĠColes law
Ġcarbon ated
O e
b oy
c ross
f red
g ry
m old
Ġc oun
Ġb ri
Ġb aste
Ġp ri
Ġw ien
ĠC ry
ĠC res
le e
Ġ2 8
ĠB uns
Ġh ickory
Ġl ot
ĠM ac
ĠT asty
der ful
mb o
Ġn ic
ĠD ew
ĠD ried
me let
om s
ĠH our
ĠG e
ĠG old
ĠIn vert
oll ard
ack s
ĠTh in
Ġrais in
Ġlo bster
Ġwarm ed
rop ical
lass ic
Ġwa ffle
ĠMo cha
ĠFor g
Ġqu ail
Ġpart ies
Ġchunk ed
Ġpress ure
erm uda
Ġart ificial
Ġpure ed
uss els
av able
ĠTri fle
ath er
Ġhold s
Ġspring s
Ġtray s
ĠSnack s
ĠMillion a
ĠFran ks
ĠStick s
Ġcryst als
ĠBo ston
ĠPin to
hy d
Ġscrap ing
Ġfla me
Ġvari ety
acc i
Ġflo at
Ġgre nad
Ġstro kes
fred o
Ġcoun ter
Ġpri or
Ġgrenad ine
3 75
P ineapple
b eat
g at
p es
r ich
t ime
u f
y ou
Ġc ount
in ts
Ġb uck
Ġt akes
Ġp ressing
Ġm en
il af
re tt
al t
and ing
Ġf if
Ġf igs
or es
or ch
ĠS upper
ĠB its
ol ut
ĠM el
ĠM orton
un sweetened
ow s
Ġco le
Ġcho pper
Ġwith in
Ġj ack
Ġsa ving
ir al
ĠR ings
ĠD own
ĠW il
st ad
st anding
Ġju mbo
ĠF ries
qu id
ĠSt ri
Ġcon ten
ĠH i
ĠH ard
ĠH oll
ach ed
ĠG elat
len ty
Ġk isses
ĠJ ud
ĠJ oe
ul ts
lo ins
Ġup side
ag ed
Ġbottom s
row d
ĠRo ad
Ġshall ots
ĠSeason ing
ĠNut ty
Ġpop s
ĠAl fredo
pen ds
ah ini
ail able
ĠFrost ed
de pending
cr ust
ĠHell o
ĠCrock er
ĠLa zy
Ġrun ning
Ġbur ger
ĠKid s
ĠClo se
Ġrectang le
ĠCow boy
Ġdist rib
ĠFlo at
Oe uvres
Ġnic ely
C al
E asy
b ed
h ol
l ight
m et
p ineapple
r us
s l
t P
t eg
w fish
y ed
Ġc oriander
ar a
Ġb is
ou x
Ġf ield
Ġ2 6
Ġa mon
it i
Ġd uck
Ġe qu
ĠS ix
ĠB uds
ĠM ousse
ĠM acaroons
ĠT ra
ch icken
ĠA m
ĠA head
Ġmix es
Ġn ow
gh um
ir ly
ĠR ing
ĠD r
Ġgr anola
ĠF ast
ĠF ingers
Ġre place
am ous
Ġcra wfish
ĠH ay
ough t
Ġgra ms
Ġapp ear
Ġsl ushy
ps i
os es
ree k
ĠN an
ĠSa vory
ian a
Ġpack s
Ġother s
ran ts
Ġunco ver
iff on
ĠSw irl
sc ant
Ġbut ton
Ġcur ly
Ġsc orch
Ġpart ly
ĠSte p
Ġmel on
ĠHa mburg
iven ess
ĠDough nuts
Ġmois ture
ĠFin ely
ĠScra pe
ĠSun shine
ĠMed ley
ĠWaf er
bro wn
ĠPres erves
Ġmicrow avable
ĠPap rika
Ġcurl s
ĠGoo ey
Ġlady fingers
ĠGe or
Ġfif th
ĠGelat in
. ,
F ro
a x
c ial
c ents
c luding
f u
f oil
r at
r itos
w ater
Ġc it
Ġb ir
Ġp lenty
Ġm aker
ut es
Ġe ar
ĠS am
ĠB ri
ĠB ermuda
ĠP as
ĠP arboil
Ġg lue
ra pped
ĠM u
ĠM ountain
ell ini
Ġbe ing
ĠCh ipped
ĠCh iffon
Ġsa ck
ĠD anish
ĠD redge
st al
Ġcook s
ĠF ashion
ĠF ettuc
ĠF iesta
co al
co hol
Ġsp iral
Ġse e
ĠSt arter
id a
sh arp
ĠG l
ĠE le
Ġjell ied
ĠK ing
ĠTh ank
Ġpre cooked
ĠCheese bur
Ġtender ness
Ġtender loins
ĠPre paration
est ring
Ġres ults
Ġtablespoon ful
ĠSl ightly
Ġturn ips
ĠDel ights
Ġkid s
Ġqu ite
Ġcur rants
uck y
ig rett
Ġform ed
ĠMin ts
ĠOn ce
ĠBr ussels
Ġtoss ed
Ġdi ppers
ĠOr teg
wh eels
ĠPh illy
Ġbar ely
ingers naps
ĠMe in
Ġmu g
ĠToast ed
ina igrett
ath y
Ġbeco me
ib ut
Ġbit ter
ĠOver night
Ġfa irly
ĠHo bo
ĠCur ry
ĠShort bread
ĠPral ine
Ġwra pped
Ġgum my
unk y
Ġdis app
ĠWe ight
ĠRot el
ĠRock y
Ġcall ed
Ġxxx x
ĠHeal thy
Ġgrin der
ĠWaff les
ĠMilliona ire
Ġconten ts
inaigrett e
2 3
4 8
B ro
T o
\ \
a o
a ily
d it
e el
f in
o b
s ter
w al
Ġc ac
in tz
Ġs om
Ġs lee
Ġb undt
at ive
and el
ic le
ak en
Ġ2 1
ĠB ing
ĠB ourbon
ĠP eek
Ġh us
Ġl oses
ĠT amal
ĠT astes
un e
un baked
Ġv irgin
Ġfl ounder
ot ten
to ck
ĠCh ile
ĠR aw
ĠD rops
Ġre ally
Ġr anch
Ġsp ins
ĠSp areribs
ĠL ily
ap ed
Ġ5 00
Ġ9 0
ress o
Ġapp etizer
Ġsyrup y
Ġla bel
Ġla ugh
af ing
uc y
iss cross
ey es
ĠN og
Ġwa ff
pe pper
ĠMo isten
Ġde pends
Ġte quila
ĠFro m
Ġbub ble
ĠMar tha
ĠTaco s
ĠSteak s
mmer cial
ĠGinger bread
ĠMan wich
Ġpuff s
ĠShoe peg
Ġfettuc ine
Ġlingu ini
ĠCur ried
ĠShell s
anda ise
Ġdefrost ed
ĠCry stal
Ġcac ao
ĠTamal e
A l
M in
M ar
N ot
S our
_ _
a ver
e ver
f ait
i od
i ger
m ushroom
o ver
p art
t Bake
Ġ 75
Ġc ollard
in cluding
Ġs im
Ġs ouffle
Ġt ip
Ġp ip
Ġm achine
at t
ut ney
Ġf un
Ġch afing
Ġw as
ĠC lassic
le u
le ct
Ġin sert
Ġ2 2
Ġd oll
Ġd ilute
Ġd aily
ĠS kin
ĠB un
ĠP ush
ĠP arsley
ĠP lain
Ġbutter y
ĠT sp
ĠT ie
Ġv elveeta
Ġth umb
ĠA vocad
Ġst ream
Ġst arter
Ġsh aker
ir rel
ĠR un
ĠD iscard
ĠW in
st ir
col ored
Ġover mix
na p
ay a
ĠF ree
qu ettes
Ġbread s
im a
ĠG reek
len der
Ġapp etizers
ĠJ an
iz es
Ġli k
ĠPe psi
Ġsk ew
Ġpack aged
Ġextra cts
est ive
Ġspoon s
ĠCar ol
ĠQu arter
ĠSweet ened
ĠGr ated
Ġhe art
ĠBanan as
Ġcrisp ly
ĠPet e
ĠFrost y
Ġkind ness
Ġunder standing
Ġbr ine
Ġtin foil
ĠBlack berry
ĠCol or
ĠBar rel
Ġreach ed
Ġtouch ed
Ġfinish ed
ĠHerb ed
bb les
ĠSmooth ie
ĠWaf ers
ĠPim ento
Ġchar coal
ĠForg otten
hyd rated
olut ion
ĠHoll andaise
Ġamon g
ĠHay st
ĠCheesebur ger
Ġwaff les
Min ute
Ġpip ing
ĠAvocad o
' re
7 0
E yed
Y ields
d ried
g inal
k y
t Add
w rap
Ġo k
Ġt ough
es tern
Ġw e
ic ro
ĠC rispies
Ġin s
or a
Ġto fu
Ġ2 25
Ġd ab
ĠB eet
la b
Ġg ive
Ġpe ek
Ġh ome
Ġh oliday
Ġco mmercial
Ġv eg
Ġv ermo
ien ce
Ġsa fe
.) .
ĠR ib
ĠR ye
col ator
ill ed
Ġju icy
ĠF unnel
ĠF amous
Ġre qu
ur er
Ġr oux
Ġsp ecial
Ġse am
Ġse ven
ĠSt raw
Ġ8 0
if ied
ĠG et
Ġso ap
ub stit
ĠO melet
ĠK ell
ĠK ent
Ġra bb
Ġex cellent
ĠV inaigrette
ĠLet tuce
ĠButter cream
ĠU p
Ġpeel ing
Ġde hydrated
Ġri gat
ĠQuick ie
Ġform ing
ĠPepper oni
ĠBr unch
ĠBr ickle
ĠSc rub
ĠNut ra
bon eless
ĠUn roll
vil y
ĠDe er
Ġgrain s
Ġeat ing
Ġtri m
Ġsprink ling
ĠWal nuts
ier ce
ĠAltern ately
ĠTr iscuit
Ġac id
mix ed
ĠEx tra
Ġpull s
pec ially
St yle
ĠShort cake
pre fer
Ġtest ed
ĠBor den
Ġman uf
ĠInd ian
ĠFri endship
Ġsor ghum
ĠAd just
ĠPorcup ine
ĠPers immon
Ġsho estring
season ed
Ġvermo uth
ĠStraw s
Ġrabb it
Ġrigat oni
Ġmanuf act
4 5
B Q
G ood
S ugar
a is
c rease
e ks
f ine
f tened
g iveness
g resso
i ant
o vers
r one
s kin
v a
w ill
z el
Ġs olution
ar ian
Ġo at
Ġb und
Ġt en
Ġt ie
Ġt ort
es to
Ġm ound
il lets
re ts
Ġch urn
ing ton
ĠC av
Ġin vert
Ġto ts
our met
Ġa v
Ġa while
Ġd ate
ĠS co
ĠB ub
ĠB ig
ĠB BQ
ĠP izzas
Ġg el
Ġh um
Ġl ye
is ts
ĠM ore
Ġegg nog
Ġco m
Ġco ats
ce an
ĠCo ms
Ġj igg
Ġle eks
th in
ĠD eath
st itos
ĠSp onge
ber g
umb er
ĠL en
ĠL ingu
ĠL ady
ĠWh o
ĠWh ole
ĠH ollow
ĠE sc
Ġpour ed
ĠTh an
ĠBrown s
ĠSa ucy
ĠY ams
lend a
est rone
Ġthin ner
Ġstand s
Ġfreez es
Ġfreez ing
Ġtub s
Ġtub es
Ġpo ck
Ġqu ant
ĠFl akes
ĠLo bster
ild ren
ort ant
ĠUn mold
ĠDe bone
ĠTang y
with out
ĠSk im
cho colate
ĠMold ed
Ġblock s
Ġshap ed
ĠTwink ie
ĠFrit o
ĠChew s
be ef
Ġsw iss
Ġnear ly
Ġfall s
Ġscra pe
ĠHun gry
ĠSue y
ĠSnicker d
yal ty
ĠQues o
Ġgloss y
Ġcav ity
ĠTart ar
ĠGrandm other
ĠLef tover
Ġwien er
Ġdistrib ute
ĠPas o
ĠOrteg a
ĠHayst acks
Ġok ay
ubstit ute
ĠKent ucky
Ġmanufact urer
ĠComs tock
O range
P e
c er
c al
d rain
e on
f ort
g y
g na
m ed
n on
n ies
t ain
u riz
w s
y es
in ess
er ne
ar row
Ġb rew
Ġt ail
Ġm at
re cipe
on ly
al o
al ent
ĠC it
ĠC ereal
le ase
or ida
Ġe ight
ĠB lender
ĠP ina
ĠP aint
ĠP ilaf
Ġg ro
ge ts
Ġh ope
is ter
ĠT on
Ġco d
ĠCo re
Ġfor giveness
Ġn arrow
Ġsa vory
Ġle ek
th is
ĠW on
ĠW ack
ĠW ind
na pp
ad ian
con es
ef ort
ole o
qu efort
Ġsp ace
Ġsp arkling
ĠSp eed
ĠSp lenda
am ic
Ġse ems
ĠL or
ĠH el
Ġcup cakes
Ġdrain ing
im al
ĠG ener
ĠG ourmet
ard s
Ġstir red
Ġal ways
ĠO at
ee bler
ĠIn crease
uff alo
Ġhal ibut
ĠRe al
Ġsalad s
ss oms
ens ter
Ġchill ies
Ġthick er
ĠButter nut
Ġwa it
Ġyou ng
Ġpl ant
Ġz iti
Ġhea vily
Ġhand fuls
Ġbut t
ĠTo stitos
ĠFl orida
Ġpat ience
so ftened
ĠMin ce
Ġconcentr ated
ĠWash ington
ĠGreen s
Ġne ck
ĠPan cake
app les
ĠSm okies
ĠBur ger
ĠPr une
Ġfri endship
Ġsteam ed
ĠCal ico
ĠHe arty
ĠAn n
ĠOri ginal
round ed
act ing
ĠEnch ilada
pre pared
ug gets
ĠPin wheels
Ġes pecially
Ġreheat ed
Ġsaff ron
Ġcontinu ously
ĠLouis iana
Cr isco
Ġmen the
Ġreplace ment
Fro m
ĠMu enster
Ġhus ks
Ġlik ing
ĠNutra Sweet
ĠTriscuit s
Ġtort ellini
gna c
uriz ed
ĠSpeed y
B e
C ream
M ix
S w
a e
b ack
b lack
c ar
c innamon
c ress
e er
e ct
f ried
g ra
i or
l ien
n ier
p ie
s in
s et
t and
v als
Ġ els
Ġs y
Ġs izes
Ġb al
Ġb el
il t
al e
en e
Ġf rench
Ġch owder
gar lic
gar ian
ĠC ashew
Ġto tal
Ġto stad
Ġa corn
Ġe igh
ĠB our
ĠB ot
ĠB ill
ĠB udd
ĠB leu
ĠP ig
ĠP icante
Ġpe a
Ġl ift
ĠM ade
ĠT reat
un peeled
mon ds
mon ia
Ġbro ok
Ġsh ot
Ġcr isscross
up s
ĠD olly
Ġsoup y
ĠW or
ĠW el
ĠW aver
ill ing
Ġju lien
ast ed
ab ag
om est
ĠL ift
ĠL ite
ĠL arge
ap er
ĠSt ack
ĠH ill
ĠH ome
ĠCool er
Ġro ck
ĠE d
ĠK itchen
Ġra ise
ĠPe ople
ĠN achos
Ġsqu irrel
Ġice berg
ĠPre go
ĠSh e
ĠY our
ĠY ork
Ġbag els
ris k
Ġliqu or
Ġspread able
Ġpick led
ĠQu aker
ĠRo quefort
Ġtw ist
Ġam monia
Ġany thing
ĠEgg nog
Ġpaste urized
ĠCan adian
Ġsm ok
ĠMar nier
ĠNut meg
fl our
fl ake
Ġbroil ed
ĠUn der
pl ants
ĠDiv an
icot ti
ĠTw in
ĠTw ice
Ġbr ick
Ġlim as
ĠPop s
Ġequal s
als amic
ĠPro gresso
lay er
crumb led
ĠButterf ingers
ĠLon don
ĠPl us
ĠPl um
ĠCre m
Ġstrain er
eath er
ĠSeaf oam
ĠMed al
Ġrub ber
Ġcontin ually
ĠSch napp
ĠHun garian
ĠSwans on
Ġad v
Ġtr ansfer
ĠHal ve
ĠCola da
ĠBuck eyes
ĠCres cent
acci oli
Ġbuck et
Ġjack ets
ĠGl or
Ġdisapp ears
wal nuts
andel ion
Ġins ides
Ġav ailable
ĠBub ble
ĠSnickerd oodles
ĠCit rus
ĠWack y
Ġels e
ĠWaver ly
ĠSchnapp s
" )
3 5
A pp
B utter
L ay
c ub
c risp
i ar
i ke
k ins
l ers
l ub
m ake
n s
o gg
r ins
v ard
w ood
Ġ 0
Ġc our
Ġc rowd
Ġs ink
Ġs izz
Ġo ur
Ġb risk
es h
Ġm ill
Ġm outh
il ar
il ver
re us
al a
Ġf unnel
Ġch olesterol
Ġw ok
le mon
le ave
Ġin ter
ĠS ilk
ĠS esame
ĠB ush
ĠB ark
Ġpe ck
Ġpe bbles
Ġh ouse
Ġegg plants
ĠT ropical
un ior
Ġco bbler
Ġv ary
all ow
Ġfl ute
Ġmin estrone
ĠCo pper
Ġst ar
Ġst eep
ri f
ri pe
Ġj unior
Ġcr unch
Ġwh at
ĠD efrost
ĠD ilute
Ġju g
ĠF amily
ef ly
Ġr inds
Ġsp iced
ĠL ogs
ĠSt ring
ĠH alf
op s
Ġbeef y
ct ed
ĠG iant
ress ed
ĠO ther
ĠE ye
uff ed
ĠK e
ĠK eebler
Ġex act
mp athy
Ġpre par
Ġpre baked
Ġlayer ed
Ġpick s
Ġacc ent
ĠFruit y
Qu ick
ĠPean uts
ĠSe lect
Ġhard ened
ĠSweet en
Ġsc iss
Ġsc rub
iv alent
ĠCra zy
ĠLo ve
ĠCan ned
Ġper colator
ĠEng land
bon s
ĠUn baked
Ġsli vers
Ġrack s
lu ded
Ġgrill ing
Ġlim p
Ġscall ion
Ġlas agne
Ġrot el
Ġinc luded
Ġgo ing
ĠBas il
fry er
ĠSec ret
ĠSec rets
Co ok
Ġsw irl
Ġbl intz
Ġloos en
Ġbur gers
Ġcryst al
ĠLi ver
Ġpro d
Ġmango es
ĠHar vard
It alian
ĠRose mary
Ġdrum sticks
ĠMel ba
ĠGeor g
ĠBri e
Bro ccoli
Ġslee ve
Ġlaugh ter
ĠKell ogg
ĠGener ously
Ġsy mpathy
ĠCrem ora
Ġadv ance
reus el
Ġexact ly
Ġprepar ing
( "
, \
. .
3 25
A pple
B aked
C ool
C lub
D uncan
O ne
R o
W ith
b les
c us
c ery
d iced
h ard
l er
m ini
n ic
p o
u ra
w ens
z e
Ġ ess
Ġ ??
Ġs ole
Ġ1 50
Ġb alsamic
Ġt ater
Ġt aken
Ġp ush
Ġp arch
Ġp uffy
Ġp ouch
Ġp urch
Ġp aint
Ġm ain
ut abag
Ġf ashioned
Ġf ondue
Ġch ew
Ġw atch
ic nic
sp ray
ro ck
Ġd redge
ĠS cones
ĠB el
ĠB ag
ĠB uffalo
ĠP ile
ĠP aul
ĠP ort
Ġg l
Ġg u
ĠT own
un beaten
ch eese
ch we
Ġst or
ver ted
et imes
der s
ĠCh ar
ĠCh est
ĠCh ildren
Ġcr isco
ip es
ĠR uth
ĠD ole
ĠW estern
ĠF ancy
Ġse a
ĠL ad
Ġ6 5
ash ell
sh aped
old s
Ġmelt ing
im an
ĠG re
ĠG all
Ġro ws
Ġk inds
Ġk itchen
ĠJ er
ĠJ if
ĠJ ew
ĠE sp
ĠE nd
anan a
ĠK ielbasa
Ġpap aya
ĠRe heat
ĠRe place
ĠTh ins
ĠTh row
ĠRoll ed
ĠN ature
Ġlo yalty
ĠY ear
ead y
reez e
ex tra
Ġfin d
Ġcran apple
ĠCorn flake
ĠMo ist
Ġde ter
ĠBis que
Ġfry ers
Ġneed s
ĠGra m
Ġcereal s
Ġtw ists
ĠFl ip
Ġkn ives
ĠSeason ed
amp i
Ġcomplet e
ĠSc ampi
Ġfold ing
Ġper ch
uns chwe
Ġback fin
ĠMe mber
ĠCont ains
Ġhamburg ers
ĠSm ash
av a
Ġmu gs
Ġblo ssoms
ĠPop overs
Ġvegg ie
Ġprefer ably
Ġburn ing
Ġindivid ually
Ġopen ing
Ġflower pot
ĠShred ded
Ġabsorb ent
Ġinc rease
ĠLa mb
Ġster ile
!! !
Ġrun ny
Ġspri g
ĠSteam ed
Ġfettuc ini
ĠOys ters
ĠChew ies
ĠStick y
Ġcola da
ĠScra mble
ĠBor ax
Ġhollow ed
rit o
yl er
Ġad just
Ġhull ed
pack ed
Ġsaff lower
ĠSaut erne
Ġbri efly
ĠJud y
Ġpops icle
Ġbis quick
ĠFettuc cine
dit ional
Mar cus
Ġsim ilar
Ġrequ ired
prefer ably
ĠLen til
Ġpock et
Ġmat zo
Ġgro cery
Ġbal ance
Ġeigh ths
ĠWor ld
Ġsciss ors
ĠGeorg ia
unschwe iger
- -
. '
2 2
4 00
C ar
F ly
M ake
V ery
b lue
c ini
c alorie
d eep
f lavor
f alf
h an
i pping
i ppy
l on
l ite
p a
p ut
p ress
s k
s ts
s oup
s qu
s uch
w d
Ġ .
Ġ rain
Ġs ilk
Ġs odium
an ges
Ġt ra
Ġt ahini
Ġp rop
Ġp atter
Ġm ul
Ġm ounds
Ġf ace
Ġch utney
ic t
ĠC app
or tening
Ġ2 9
it ion
Ġd irt
Ġd ots
Ġe ye
ĠS elf
ĠS ang
ĠS ubstitute
ĠB a
ĠB ir
ĠP ion
Ġg as
as ed
gg y
is ette
ĠM ull
ĠM ounds
ĠT ips
ĠT aste
Ġcream ing
ot ted
us c
ĠA la
Ġwater cress
to sh
ri a
ri en
ri ght
Ġj oy
Ġbro ad
Ġn achos
Ġn umber
Ġsh iny
ĠR ounds
ĠW ipe
ĠW ait
ĠF a
ĠF ud
ĠF ondue
ef in
ĠL unch
ĠSt rat
ĠI mper
ough y
Ġal one
Ġal falf
Ġpudding s
Ġapp rox
ĠO le
ĠO wn
ĠO wens
ĠJ ar
ĠJ oy
ĠE as
ĠE aster
Ġsl it
uc c
uc er
ĠRe yn
ĠCr ushed
os ition
ĠTh ere
Ġan imal
ĠSa uteed
Ġen rich
ĠCheese cakes
Ġout er
Ġthick ly
ĠSh oo
Ġq ts
Ġdire cts
ĠCorn ing
Ġste mmed
ĠFruit ed
ĠFruit cake
Ġbas ic
Ġcauliflower ets
ĠFl an
Ġpin a
Ġcres cents
Ġcenter s
ĠLo aves
ĠFill ed
Ġthrough out
Ġstal e
ĠMin utes
reat h
ĠMar garine
Ġbreak ing
Ġgrill ed
ĠTw ist
Ġfollow ed
ĠCro quettes
Ch o
ĠNe iman
ĠCl ou
Ġpr ick
ĠCat fish
ĠPer rins
ĠSec ure
ĠLas agne
Ġmon th
Co conut
Ġsec ret
ĠMini ature
Ġwon derful
Ġris es
Ġwor th
Ġscra mbled
ĠSch illing
Ġclos ely
Ġdecor ative
Ġcre pe
ĠJohn ny
Ġimp ortant
Ġequ ivalent
ĠNan a
Ġbutton s
ĠSam u
cohol ic
zel nuts
ĠWon derful
gra ham
ĠBour sin
omest yle
App etizer
Ġinter vals
rif ice
Ġblintz es
Ġ?? ?
ĠSang ria
ĠPion eer
ĠImper ial
Ġalfalf a
ĠReyn olds
% )
) (
6 0
B ran
C orn
C rock
I nch
L o
M e
M o
M ex
O T
W h
a id
c rifice
d es
e ck
f ire
g ed
g ent
g allon
p r
s alt
t ally
u me
Ġc ard
Ġc ork
Ġc ured
Ġs ilver
er d
er ran
ar ious
Ġb uds
Ġb uy
Ġt an
Ġt ry
Ġp li
Ġp ray
Ġp arboil
Ġp izzas
Ġm ine
Ġm ot
Ġm iracle
Ġm ousse
il s
re al
re move
on ion
ou ff
Ġf ix
Ġf eed
Ġf ile
Ġch ange
Ġch urch
ic a
ĠC or
ĠC ast
ĠC alor
le vel
pp iness
it ely
Ġe yes
ĠS or
ĠS us
ĠS ad
ĠS mall
ĠS izz
ĠB us
ĠB ell
ĠB ox
la pping
ĠP esto
Ġg in
Ġg ingersnaps
ra zz
ra ft
ra spberry
Ġh ol
Ġl imes
is bury
ĠM arm
ĠM aster
ĠM icro
ĠT et
ĠT ahini
Ġco gnac
Ġv ent
Ġfl ip
ch ool
ĠA sp
Ġun ble
Ġcan es
illa s
Ġsh aking
ĠCh urch
ĠCh olesterol
Ġsa ved
Ġsa ucer
ĠR os
ĠW edges
ĠW yler
col d
Ġover lapping
ĠF ool
ast ic
me mber
co mm
Ġsp ear
ber ally
Ġse ashell
ĠL ush
ĠL ib
ĠL ope
ĠL ima
Ġcon es
Ġ6 4
im ent
ĠG rap
ard i
Ġhot d
Ġhot ter
ĠSal isbury
Ġk aro
ĠO cean
ĠJ us
ĠE ach
Ġcar ob
Ġex ch
ĠV ien
ĠV irgin
li quid
ey e
ĠN ice
ĠN est
Ġchill ing
ĠY am
ec ially
ud e
ĠFor est
Ġri m
Ġte mp
ĠBrand y
Ġthicken ing
Ġpo pping
Ġhand led
Ġqu iche
Ġdirect ly
Ġ24 0
ĠFl ank
ĠFl aky
Ġcons ider
Ġar ea
ĠMin cemeat
ang y
Ġcomp any
ĠSugar less
Ġdri p
ĠMon ster
ĠCon go
Ġper fect
Ġseal ing
Ġmarin ating
ĠUn cooked
Ġflat tened
ph erd
ĠHa ppy
ĠMuff in
Ġcl usters
Ġuns liced
Ġskim med
Ġmoder ately
ĠRais ins
ĠSm ok
Ġind efin
ĠNe ctar
Ġend ive
ĠRom a
ĠDon uts
Ġtouch ing
ĠPl ant
butter ed
Ġfit ting
St ir
Ġresemb le
ĠBon bons
Ġcryst all
ass ion
Ġhel ps
Ġscrap ed
In tosh
ĠPim iento
eth ing
eth od
Ġpal ms
ĠPen nies
Ġlunch eon
ĠStri ps
Ġskew ers
ĠLingu ine
Ġquant ity
Ġbrew ed
Ġtail s
ĠTon y
ĠWind ows
Ġbel ow
ĠShe pherd
cub ed
Ġbrisk ly
po pped
Ġpurch ased
Ġchew y
Ġgl ut
Ġpatter n
ĠCapp ucc
ĠStrat a
Ġenrich ed
ĠClou d
Ġpli able
Ġfile ts
ĠCalor ies
ĠMarm alade
ĠTet razz
Ġunble ached
ĠLib by
Ġindefin itely
ĠCappucc ino
D on
E agle
H igh
O n
O ld
P eek
P ean
R itz
S h
T om
U n
a u
b it
c ipes
e en
f a
f ashioned
g rated
h er
h od
j o
k eep
l ins
o pper
p ly
t ip
t ub
u ces
u ke
v al
w ick
w ie
Ġc amp
Ġs na
Ġs lab
er o
er t
Ġb ra
Ġb ush
Ġb ought
Ġt ines
Ġt ropical
Ġt angy
es ter
Ġp hy
Ġm l
Ġm atch
Ġm asa
Ġm acaroons
on de
en ds
Ġf ig
Ġw ere
Ġw eather
ĠC arb
ĠC enter
ĠC lay
le berry
or iginal
sp read
Ġsu ff
Ġ3 70
it o
it as
it ies
Ġd eeds
Ġd andelion
ĠS u
ĠS ex
ĠS liced
ĠB lo
ĠB urn
la st
ĠP ri
ĠP ur
ĠP riz
ĠP ierce
ĠP osition
Ġg ame
Ġh un
Ġsalt y
is ed
is ing
is ters
ĠM ound
ĠM ars
ĠM ark
Ġegg be
ĠT ap
ĠT oll
ĠT urt
Ġv arious
Ġth ings
Ġth ought
Ġcho ose
Ġcan ister
ell en
ĠCo m
Ġst one
Ġbe ca
to ps
ok s
ĠCh erries
ĠCh ron
ĠCh unky
redien ts
Ġwh iz
Ġwh ere
ĠR abb
ĠR ellen
ĠD an
ĠD ai
ĠD rum
ĠW are
ĠW est
Ġover beat
ĠF la
ĠF un
ĠF estive
ĠF illets
Ġre cipes
ur ry
Ġr ather
Ġr utabag
Ġsp lash
ĠSp ring
am ount
om a
ĠSt ay
ĠI ced
ĠH and
ĠH old
if ter
ĠG ingersnaps
Ġso ggy
ars ely
ll o
Ġk ahlua
ĠO ptional
eget arian
ee ter
ĠE ither
ĠK risp
ĠK ings
Ġpap ers
Ġhal ve
Ġha zelnuts
ĠN on
ĠN eed
ĠRef resh
ĠCho ice
arin a
pe cted
Ġpla y
Ġcol by
ĠSl it
cle ar
Ġte ars
ful ness
sc rew
ĠRo yal
Ġpo ints
Ġstiff en
Ġsc atter
iv a
ig n
ĠPepper mint
Ġsm ashed
other ed
ĠBr uns
Ġbroil ing
pl us
ĠStew ed
Ġwork ing
Ġbr ickle
Ġscoop ed
ĠDri bble
Ġdel ic
ĠCrunch ies
Ġallow ing
ĠBur ritos
Ġscal d
Ġbeater s
Pot ato
Ġfri end
Ġmeas ured
Ġits elf
Ġstack s
Ġsolid s
Ġmost accioli
te in
Ġdiscard ing
ĠBl onde
Co okies
Ġfit ted
ĠLi ke
ĠLi quid
Ġwra ppers
ĠVegg ies
Ġomit ting
ret ch
Ġrib bon
Ġdecor ations
ĠKid ney
ĠEar ly
Ġcre ate
strawber ries
acc ording
Ġpine apples
ĠPar fait
Ġstay s
ĠPowder ed
ĠHamburg ers
Ġcit ron
ĠEle phant
iod ized
Ġdoll op
ĠWin ter
Ġveg ies
ĠSco re
Ġjigg er
ĠBudd ig
Ġjulien ne
ĠGlor ified
Ġcour se
Ġess ence
ĠJer ky
ĠEsp ecially
Ġdeter gent
ĠMull ed
Cho colate
ĠSamu el
ĠAsp ic
ĠFool proof
ĠTetrazz ini
Pean ut
Ġphy llo
ĠPriz e
ĠMars ala
Ġeggbe ater
ĠTurt les
Ġbeca use
ĠChron icles
ĠRabb it
ĠBruns wick
2 6
2 50
A merican
B atter
C ake
C andy
D rop
F ruit
F rench
G ar
T ime
\ .
b aking
b acon
c ch
d ark
f ir
g ing
g rease
i ut
m ettes
o ff
o bs
p our
p int
s sh
t an
t re
u an
u ct
v ies
v ious
w heat
w rapped
Ġ ut
Ġc ou
Ġc as
Ġc ould
Ġc ling
Ġc atch
Ġc ents
in ate
Ġs chool
Ġs ifter
Ġ1 15
Ġb ow
Ġt reat
Ġt asty
Ġt ester
Ġp ol
Ġp enne
Ġp roof
Ġm al
Ġm ess
Ġm ang
il ted
ut ure
on es
on cini
al ity
Ġf arm
Ġf ancy
Ġf estive
gar nish
ic or
ĠC raw
ĠC acci
ĠC rowd
le ans
sp rinkle
Ġ2 7
ro d
Ġa vo
Ġa verage
ĠB u
ĠB ut
ĠB ak
ĠB one
Ġg ent
Ġg ett
Ġg iblets
Ġg her
ra ine
Ġpe t
Ġl att
Ġbutter f
ĠT akes
Ġv ol
Ġfl esh
ch unky
ĠA le
Ġmin us
Ġcan e
ĠCo arsely
Ġst eady
til led
Ġj o
et it
Ġn og
Ġsh aping
Ġsh av
Ġsh oe
Ġat tra
ĠCh ach
ien t
Ġsa crifice
Ġsa uces
th day
ĠD ark
ĠD uring
ĠW eek
Ġbak es
st e
Ġgr and
Ġgr oup
pple ment
ad illas
ĠF ull
ers ion
ur st
Ġadd s
qu et
Ġr ange
ĠSp arkling
Ġy um
umb ers
Ġse ams
ĠL ee
ĠL ind
ĠSt ar
ĠSt reusel
Ġcon d
ves t
sh ake
Ġcrumb les
im inate
ies t
ĠG u
ĠG en
ĠG arb
Ġ5 7
weet ened
ĠStir ring
ough ts
Ġab le
ĠO ut
ĠO sc
ĠJ ean
ĠIn g
ĠK iss
Ġsl ight
Ġsl otted
Ġclo ver
Ġfilling s
Ġup on
ĠN uggets
Ġus es
let ely
ĠChill ed
ian o
Ġlow est
ac ed
ĠSh erry
ĠSh ortening
aw ba
Ġthin ned
Ġfin ally
ĠU s
Ġpla ster
ĠMo st
Ġstand ing
ĠCar amels
sc ous
sc iut
Ġcro iss
ĠGra ssh
Ġbring ing
ĠMeat ball
Ġsm ell
ĠDream y
ĠSugar ed
Ġdri bble
Ġkeep ing
irt y
Ġper k
Ġagain st
Ġpar fait
ĠUn wrap
ĠCrumb s
ph abet
Ġpres erv
Ġpres weetened
ĠOr leans
allop ed
for d
Ġgarnish ed
ĠDor ito
ĠWill i
Ġdrink s
ĠSm oke
Ġind ent
Ch icken
ĠWater melon
ĠDill y
flower ets
Ġprefer ence
Ġrot ating
ĠPro sciut
Ġsteam ing
Ġgo es
ĠGraham s
ĠCat awba
Ġfrost ed
Ġstring s
ĠAn isette
ĠWork s
ĠBl an
Ġpull ed
Ġsw eeter
ĠMc Intosh
ĠCre pes
Ġsup er
ĠTender loin
ĠBon nie
ĠDoll ies
ĠLast ly
ĠSar a
Ġdeve in
Ġomit ted
Ġdis tilled
Ġdust ed
Ġancho vies
Ġsecure ly
ĠClo ves
yl v
Ġbatch es
Ġrectang les
ĠBra z
ĠBra ised
ĠHar vest
Ġimp ro
ĠPorcup ines
Ġcheck ing
ĠCres cents
ĠWil ted
sl ice
sl ightly
Ġbis que
Ġequ ally
ĠAm ish
Ġscorch ing
Ġbir ds
Ġsom ething
Al so
over night
ĠJan e
ĠCarol ina
Ġdab s
ĠRib bon
Ġbund le
ĠCav iar
ĠWho op
Sw iss
ĠWel ch
Ġscrub bed
Ġstor age
ĠGall iano
sk im
Ġrain bow
Ġcork screw
ĠLope z
ĠVien na
Ġconsider ation
wie back
Ġbra unschweiger
Ġbush el
ĠTap ioca
Gar lic
Ġmal let
Ġmang os
Ġavo id
Ġgett ing
Ġlatt ice
Ġshav ings
Ġattra ctive
ĠLind a
ĠOsc ar
ĠGrassh opper
ĠProsciut to
. ;
B anana
B rien
C up
D el
E gg
F ail
G reen
G lazed
J ack
M y
M ores
O ptional
S erve
S erv
S te
W e
Y um
b et
c ra
f riger
h a
h and
i as
i ri
i ole
j ell
k i
m is
m akes
m ashed
p th
p owder
p ened
p urple
s our
s alted
t Stir
u id
w arm
w ork
w urst
~ )
Ġ Q
Ġ __
Ġc a
in ter
Ġs erves
Ġs imple
er ber
er os
an ks
ar garine
Ġo b
Ġo val
Ġt ong
Ġt ied
Ġt int
Ġt aking
Ġp ierce
Ġp lease
Ġm ic
re ck
en nel
ou quet
Ġf uture
Ġch ang
Ġw ing
Ġw ilted
Ġw inter
ic ient
ĠC oll
le af
Ġin ta
or p
Ġ3 4
it ter
Ġd ent
Ġd ec
Ġd ressed
ĠS im
ĠS ide
ĠS andy
ĠB ab
ĠB arb
ĠB av
ĠB ouquet
ĠP art
ĠP izz
ĠP igs
Ġg if
ol f
ra ps
Ġh o
Ġh eal
Ġl ife
ĠM am
ĠM ango
ĠM ethod
ĠT er
ĠT aff
un covered
Ġfl uid
Ġth ing
Ġth ink
ot e
ot o
Ġmilk s
ĠA ma
Ġun if
ce ed
Ġcan ner
red ded
ĠCo ated
Ġst retch
ok ne
Ġpepper oncini
mb ran
mb oo
Ġsh elf
Ġsh ots
ie v
ck rich
Ġsa ut
ir es
Ġle g
ĠR ain
ĠR est
ĠD ie
ĠW ar
ĠW et
ĠW raps
od y
st ess
st uffed
col ates
ad am
ĠF ant
ĠF ire
ĠF oil
ĠF lavored
Ġre comm
ef lon
co ol
co mp
ab obs
um m
qu est
Ġr oughy
am ate
ĠL and
ĠL akes
ĠSt eep
ĠSt ella
Ġcon verted
ĠH en
ĠH ens
Ġcrack lings
im ents
ĠG lass
ink s
Ġheat proof
Ġal cohol
ore n
ĠO ur
ĠO regano
ĠJ en
ĠJ ere
ĠE v
ĠE very
Ġcar ne
ĠV er
ĠV eal
ĠCream s
ĠPe ter
ĠPe ars
ĠRe quest
oth y
Ġ12 0
ĠCut lets
Ġsk y
Ġup right
ĠN ah
ĠN OT
ĠN umbers
ss om
Ġen han
ĠPre cook
ĠPre tty
ĠSh ip
ĠButter ed
ĠBe gin
Ġfin al
Ġdill s
Ġtab asco
Ġpl ump
Ġcolor s
Ġde pth
Ġdo ve
ĠCar ne
aul ts
roxim ate
ĠSe ar
mper ature
mi ah
Ġtemper a
Ġcro okne
ĠFro sts
ĠSqu irt
Ġsc rew
iv ing
ĠFl oren
Ġlast ly
Ġpart icles
ĠWith out
ĠBeef y
Ġsm ile
ys ter
Ġme mbran
Ġper for
ĠAl ways
ĠAl monds
ĠCheez y
boil ing
ner gy
ĠHa ppiness
wh ich
wh ipped
ĠCrust less
ĠMarshmallow s
Ġbar rel
Ġel astic
ĠCrisp s
ĠDor othy
ah o
Ġtowel ing
cr unchy
Ġknead ing
ĠBur rito
ĠDill s
ĠDill ed
ĠSeed s
ib let
ĠDirt y
Ġdump ling
end y
Ġpear l
ĠMan icotti
Ġscallop ed
ĠRub y
ĠFran k
St rawber
Ġbur ritos
ĠPark er
ĠSnow balls
ĠComp letely
ĠScra mbled
bo ok
Ġpro tein
cream y
Ġche ap
Ġlin er
Ġshort bread
Ġdiagon al
ĠSund ae
Ġsnack s
Ġscra mble
Ġglo ves
ĠGou da
ĠPar is
Ġes car
Ġsor row
uy ere
Ġpal m
Cr ust
ĠSand ies
ĠMac adam
ĠWil der
ĠJud ges
tP our
Ġ26 0
Ġbir d
ĠEle g
Ġsom etimes
Not e
Ġskew er
ĠEsc alloped
ĠLor raine
ĠHel en
Ġplant ains
Ġtostad o
ĠBot tom
ĠHill shire
ĠEd ible
ĠUnder wood
ĠKe mp
Ġparch ment
spray ed
ĠLad le
Ġprop er
pr int
erran o
Ġpray er
ouff er
ĠSus an
ĠBus y
Ġhotd ogs
ĠVirgin ia
Ġglut amate
Ġsuff icient
ĠCom fort
ĠRellen os
fir m
icor ice
Ġvol ume
ĠChach ere
ĠIng redients
ĠWilli ams
ĠBlan ket
ĠBraz il
Ste p
Ġinta ct
Ġdent e
Ġgif ts
ĠTaff y
ĠAma z
Ġunif orm
ĠRain bow
ĠJere miah
ĠNah um
Ġcrookne ck
Ġescar ole
ĠMacadam ia
3 00
4 50
8 00
B reak
B ean
C abbage
C auliflower
G rand
H e
H ot
H ershey
J iffy
K id
O ut
P ut
P re
P am
P armesan
P ec
S a
S oup
b r
b ot
b owl
b ite
c auliflower
c ord
d ew
d own
g ran
h el
h ouse
j in
j ita
l ie
m in
m ers
m ust
m ely
n et
n eath
p udding
p ork
s on
s mooth
s ka
s low
s odium
t F
t at
u ese
u ppies
w ash
w ashed
w reck
Ġ arm
Ġc u
Ġc y
in ing
in to
in cl
Ġs co
an e
Ġo re
Ġt re
Ġt am
Ġt arts
es law
Ġp are
Ġp he
Ġp ilaf
Ġp icnic
Ġm us
Ġm ush
Ġm icro
il ity
re friger
on a
en ized
Ġf ur
Ġf aults
Ġch erv
ic ally
ic ama
ĠC le
sp berries
Ġsugar ed
Ġa ge
Ġa ch
Ġa jin
Ġe agle
ix ie
ĠS in
ĠS ally
ĠS ize
ĠS irloin
ĠS nap
ĠB isc
ĠB oy
ĠB ologna
ĠP a
ĠP ate
ĠP one
ĠP ace
ĠP reach
ine tt
Ġg ly
Ġg reas
Ġg old
Ġg ives
gg est
Ġh ush
Ġl icorice
is ins
ĠM ust
ĠM unch
ĠM arb
ĠM ild
ĠM olly
ĠM achine
ĠM yster
ĠT ry
un greased
Ġv egetarian
Ġth row
Ġth ose
Ġth oughts
Ġth irty
us ed
us ter
us ually
ĠA g
ĠA sse
Ġun mold
Ġun popped
Ġmin s
ell ed
ĠCo co
Ġst ars
Ġst udd
to re
ri p
et chup
Ġn uggets
ato re
Ġsh owers
Ġsh anks
ĠCh urn
ĠCh uck
ĠCh utney
Ġmar k
ĠR ap
ĠD ad
ĠD uck
ĠD ecor
ĠW ell
ĠW rapped
ĠW endy
col or
na ments
Ġju iced
Ġoil y
ĠF le
Ġcorn er
Ġcorn ers
me ar
Ġre p
co ars
ab l
ab el
qu arts
Ġsp ots
om og
om argarine
om oto
Ġy am
ser ving
ĠL ick
ĠL ess
ĠL ong
ap es
ĠSt and
ĠSt ouffer
Ġcon e
ĠI re
ĠCook er
ĠWh ipping
ĠH as
ĠH umm
Ġcrack lins
ven der
sh ould
Ġba mboo
Ġdish pan
ĠG od
ĠG umbo
ĠG ather
Ġso uth
Ġro pe
ĠSal ted
Ġal phabet
Ġk ale
Ġapp ears
ĠO R
ĠE ckrich
Ġole omargarine
ĠK abobs
iz on
Ġex tre
Ġli berally
ĠV ict
ĠRe ally
Ġsweet en
Ġsweet ness
oth ing
os odium
Ġit alian
Ġcover s
ĠN eeds
Ġother wise
rop roof
Ġdire ction
Ġfin es
ĠItalian o
pe ach
ĠBread ed
se mi
se parate
Ġste el
ĠLay ers
Ġcol eslaw
10 5
Ġhoney dew
Ġz wieback
Ġtaco s
Ġsift ing
Ġcrab s
ke ts
ount y
Ġhard ens
Ġturn ip
ĠGra ss
Ġchest nut
ĠDo es
sa me
ĠTo o
ĠTo pped
ĠGr uyere
uck er
