#version: 0.2
Ġ <
N E
X T
NE XT
I N
E N
R E
S T
Ġ c
IN G
D I
T S
EN TS
RE DI
ING REDI
INGREDI ENTS
NE R
i n
T I
Ġ s
e r
Ġ 1
O N
R U
TI ON
IN ST
C TION
RU CTION
INST RUCTION
INSTRUCTION S
a n
A R
ST AR
EN D
STAR T
Ġ o
Ġ t
a r
Ġ b
e d
e s
Ġ p
Ġ m
a t
i l
r e
u t
o n
e n
a l
an d
o u
Ġ f
Ġ and
Ġc h
Ġ w
in g
i c
g ar
L E
P E
C I
TI T
RE CI
TIT LE
RECI PE
Ġt o
s p
p p
Ġ in
l e
Ġ C
o r
e l
Ġ 2
r o
a k
ou r
a s
a m
Ġs u
i t
Ġsu gar
Ġo n
Ġ 3
Ġ a
Ġ d
Ġ S
Ġ e
t er
Ġ g
Ġ l
Ġs al
Ġt sp
i x
Ġp e
h e
o o
Ġ B
Ġsal t
Ġ P
i on
in e
g e
a c
u n
i s
g g
d d
Ġf l
Ġe gg
o w
Ġ T
ut ter
Ġ (
es e
Ġb utter
re am
ak e
il l
Ġch e
Ġ M
Ġ v
Ġon ion
Ġche ese
ic k
Ġ un
Ġfl our
o l
u s
Ġ h
Ġ A
o t
Ġo f
r a
Ġc ream
Ġm in
al l
Ġo r
it h
Ġch o
pp er
il k
Ġb e
Ġw ith
Ġm ix
Ġpe pper
Ġs t
Ġmin ut
v er
a d
t il
el l
Ġun til
at er
Ġminut es
u c
ic e
Ġm ilk
Ġw ater
Ġf or
t o
r ed
c h
oo k
Ġegg s
t s
b sp
ĠT bsp
Ġc r
Ġc an
pp ed
ĠA dd
at o
d er
r i
o m
Ġb ro
0 0
Ġ 4
u m
Ġs a
Ġt he
Ġo z
Ġ n
v e
i r
uc e
ick en
ill a
Ġcho pped
Ġ j
e t
l ic
an illa
Ġv anilla
Ġs h
g h
Ġb ak
Ġin to
Ġ at
u p
t h
Ġ le
Ġt h
w n
Ġm ar
Ġbak ing
r y
. )
Ġg re
Ġg r
Ġsa uce
Ġch icken
ow der
Ġs o
Ġp owder
Ġ R
ĠM ix
i e
Ġw h
ĠB ake
Ġo ver
a y
as t
re ad
l y
ĠC h
ou p
Ġo il
at e
Ġc ook
Ġbro wn
n d
u re
i en
e at
ato es
Ġ D
ac k
l es
an s
Ġc o
us h
Ġs oup
Ġ r
red ien
Ġ W
ing redien
Ġ ingredien
Ġingredien ts
i p
ut s
m on
gar ine
Ġmar garine
c ol
5 0
Ġto m
or n
Ġj u
a b
ou nd
u r
Ġl b
s t
Ġb o
Ġju ice
t ure
Ġp an
Ġ re
Ġs p
Ġmix ture
Ġl ar
Ġgre en
Ġlar ge
e f
i gh
i m
Ġ3 50
Ġw ell
m all
k g
Ġp kg
in ch
Ġ gar
Ġ all
Ġc orn
pp le
Ġ F
ra in
q u
ĠS p
Ġs e
Ġf ro
is h
Ġa dd
th er
Ġgar lic
r es
he at
i d
ĠS t
v es
d a
er y
Ġ I
Ġp ie
Ġso da
oo l
igh t
Ġle mon
Ġgr ound
o le
um b
us t
Ġs lic
ĠP our
Ġ y
ro om
Ġp ot
in n
at ed
t en
v en
t ed
om b
el ery
Ġc elery
Ġh our
er s
Ġonion s
Ġc up
col ate
Ġ 6
ge ther
omb ine
Ġto gether
Ġbo il
ush room
a pple
ine apple
Ġn uts
as s
a ge
ĠC ook
Ġbe ef
am on
a p
ac e
i f
a in
inn amon
c es
Ġm ushroom
Ġ L
Ġs mall
Ġc innamon
Ġp ineapple
g er
Ġ 8
Ġco c
l ace
Ġwh it
ed i
Ġs our
Ġb l
ac h
ol d
ĠSt ir
Ġ H
ar s
Ġc on
Ġto p
b er
Ġst ir
Ġcr umb
Ġ heat
Ġ 5
edi um
Ġcho colate
Ġo ven
Ġbe at
o p
Ġb read
m e
Ġm edium
ow l
Ġpot atoes
Ġb owl
Ġd rain
as h
in k
o ve
Ġm el
Ġc ake
ĠC ombine
ou gh
Ġpe c
ine gar
ar m
Ġv inegar
Ġ G
Ġtom atoes
oo d
o on
is e
Ġ1 0
Ġtom ato
o ut
Ġ x
ĠW h
ass er
asser ole
r ink
Ġc ar
Ġs er
Ġre m
f f
ar d
z en
ak es
s h
Ġh ot
Ġd ish
Ġm ay
i es
r ing
ĠI n
Ġslic ed
Ġr ice
Ġpec ans
rink le
Ġ 9
a g
e m
ed d
Ġcr ack
Ġd ry
Ġcrumb s
Ġ ro
edd ar
ĠC ool
i re
Ġbe ans
Ġgr ated
w e
ge t
as ed
n a
ĠC o
e get
ĠP lace
ĠS er
ast e
eget ab
ri es
u b
Ġwhit e
el y
an t
Ġmel ted
en d
Ġa b
ĠCh eddar
we et
l l
o a
Ġc l
Ġst ick
ip s
Ġm eat
Ġc ut
in s
t ion
Ġfro zen
Ġ is
Ġsh or
an ge
Ġv egetab
Ġ al
Ġch ips
Ġab out
ten ing
v ing
Ġ3 0
on na
Ġ k
onna ise
Ġshor tening
Ġmay onnaise
ar t
Ġrem ain
u it
o re
res h
res s
Ġ ra
Ġ red
a v
Ġfro m
le y
Ġremain ing
e y
m er
Ġ as
Ġcook ed
Ġl ight
ust ard
u ff
ri ger
u l
Ġa pp
as on
on ut
Ġf resh
Ġdrain ed
c col
ccol i
Ġgre ased
Ġh al
Ġch il
Ġs l
Ġth en
ac on
ars ley
o s
Ġcar ro
Ġp arsley
e p
u dd
Ġh am
udd ing
Ġhour s
ĠCo ver
Ġm ustard
Ġser ving
Ġb acon
Ġcr ush
Ġe x
ĠSp rinkle
en der
Ġg ra
Ġt aste
ĠP ut
ĠB eat
Ġcrush ed
Ġpe an
Ġcoc onut
id e
d ed
Ġ1 5
Ġs k
ĠWh ip
Ġbeat en
Ġboil ing
ra w
Ġsh red
Ġp ap
l i
Ġ O
Ġb ot
Ġmushroom s
ar e
Ġshred ded
Ġro ll
ĠS al
e c
k s
i z
st ant
Ġse ason
c o
ĠSer ve
raw ber
Ġor ange
Ġo li
ĠB ro
an an
Ġc ool
Ġ1 2
Ġso f
le t
Ġp udding
Ġb ake
Ġapp les
Ġcarro ts
em ove
ĠR emove
Ġ2 0
Ġbro ccoli
ic ed
ĠC ake
Ġe ach
Ġ E
Ġ1 3
Ġf ir
t t
Ġpie ces
Ġpowder ed
ĠC ream
Ġcan s
im mer
n uts
ĠW or
Ġbro th
Ġc asserole
Ġd iced
Ġsh ell
arm es
armes an
Ġo le
en t
Ġslic es
ay er
Ġole o
Ġn ut
Ġ J
sh ire
Ġbo x
ood les
ter shire
ces tershire
re as
av or
Ġra is
Ġco ver
pp ing
ress ing
ĠP armesan
ĠWor cestershire
us age
ĠM akes
Ġrais ins
ĠSp read
is s
im e
Ġch er
Ġre f
Ġp l
Ġ K
Ġhal f
Ġt ender
Ġn oodles
y r
) .
r uit
yr up
me g
Ġst rawber
Ġ an
Ġnut meg
Ġp our
Ġs yrup
Ġcrack ers
or k
Ġpean ut
Ġcoc oa
ĠC ut
ĠC r
m ilk
Ġstir ring
Ġb anan
es t
o il
ol l
Ġchil i
ĠSal ad
Ġbl ack
Ġj ell
Ġref riger
Ġcr ust
p s
Ġs weet
Ġ he
u e
Ġ V
on e
Ġpepper s
o ves
ur n
ĠC asserole
e a
Ġs he
Ġs m
Ġbutter milk
Ġcl oves
d s
at s
Ġsa usage
il let
mall ow
Ġc old
Ġseason ing
Ġd ressing
ĠS a
Ġwh i
ut e
Ġvegetab le
all y
ĠCh icken
Ġ it
Ġs et
Ġc ub
Ġ up
Ġs qu
ĠH eat
b ur
Ġsal ad
t r
ĠL et
ĠBro wn
ar ch
Ġl ow
Ġl i
Ġcup s
ch in
ĠP ie
ĠC he
Ġbl end
Ġf ill
Ġwh ole
Ġ4 5
Ġsk illet
ĠD rain
Ġd ough
Ġw al
ing er
ĠB l
st arch
Ġcorn starch
ĠP re
Ġo ut
Ġse ed
p an
Ġ us
Ġp re
Ġcrack er
an o
ri ed
Ġp ack
Ġmar sh
Ġmarsh mallow
Ġbanan as
Ġcook ie
Ġp ork
h am
Ġshe et
2 5
a ve
e w
es s
Ġw arm
ri m
Ġin stant
ĠT op
ĠR oll
bur ger
i an
Ġcook ing
Ġwal nuts
e ed
f ore
Ġbe fore
ĠP e
oo th
Ġgra ham
Ġ are
Ġfl avor
7 5
z z
ĠM el
to m
all s
um p
Ġsauce pan
tion al
re e
ĠT h
Ġg inger
Ġvegetab les
ight ly
Ġal mon
Ġsm ooth
g ano
Ġbot tom
Ġle a
k a
ĠMel t
Ġjell o
Ġfill ing
on i
ab b
Ġ N
c ed
ten ed
Ġf ruit
abb age
c c
Ġth ick
ac t
Ġn ot
re gano
at ter
Ġl ayer
Ġb ell
Ġs immer
Ġo regano
ak ed
Ġmin ced
Ġwhit es
op tional
at ely
ri ka
Ġham burger
Ġmarshmallow s
ell ow
Ġj ar
Ġex tr
e al
Ġt ab
reas ts
Ġpap rika
Ġd one
Ġth in
t le
g es
Ġ3 75
Ġlight ly
Ġpe el
Ġextr act
Ġw a
rim p
ĠI t
ur p
Ġon e
Ġt ea
uc chin
ucchin i
p oon
Ġ en
les poon
Ġb reasts
Ġf in
Ġtab lespoon
Ġ Y
ĠCh ill
e ast
Ġy ol
Ġas ide
Ġy ellow
os e
Ġ if
a w
Ġfir st
p ar
ot t
Ġp lace
ĠM o
ber ry
Ġy east
me al
is c
ĠBl end
Ġd es
Ġstrawber ries
ell a
Ġserving s
Ġc abbage
en s
Ġoli ve
Ġsof tened
ar ella
zz arella
i red
qu art
ĠA nd
Ġcon t
Ġdes ired
iss ol
Ġ2 5
n e
Ġfin ely
Ġso y
al ian
urp ose
oa f
Ġli qu
ĠB e
ĠS h
un ch
ĠChe ese
he tt
r t
ag hett
Ġwhi pped
aghett i
ĠIt alian
Ġt ime
Ġle t
ĠMo zzarella
ĠSer ves
Ġw ine
v ed
g re
iz e
p urpose
Ġc ombine
Ġ z
Ġo ther
ac ar
Ġch ill
Ġd ash
Ġ ice
Ġpe as
as il
old en
k in
d ens
dens ed
Ġ4 0
Ġser ve
1 0
Ġ3 25
Ġoli ves
c k
sp oon
ĠPre heat
acar oni
Ġm ore
Ġtea spoon
ad e
e ep
Ġcon densed
Ġp ut
c e
isc uit
Ġpap er
Ġliqu id
Ġto rt
if t
ro w
it e
Ġb atter
s weet
ump kin
Ġsh rimp
Ġsp rinkle
at or
e x
Ġ 7
ire c
Ġcl ove
Ġcher ries
Ġc om
Ġyol ks
Ġd irec
n ight
Ġg olden
ĠB ring
Ġp ast
Ġz ucchini
Ġsl ightly
e e
ro p
el at
Ġb asil
Ġfl akes
' s
Ġover night
Ġ q
Ġ4 00
Ġb ag
Ġ U
ough ly
Ġb y
el s
Ġd o
Ġq t
p e
or oughly
Ġg elat
ĠJ ell
ĠD ip
ĠP ot
Ġp im
Ġto pping
Ġsof t
qu ick
ic row
Ġsp read
Ġst and
Ġsp aghetti
Ġrefriger ator
ĠCook ies
ĠR ef
ĠB utter
is co
ac o
Ġth oroughly
ĠCh o
Ġcont ain
Ġle tt
in ach
ĠRef riger
Ġcher ry
Ġs ize
Ġm acaroni
icrow ave
Ġf at
Ġlett uce
ĠB read
ow er
ar b
Ġb alls
Ġl oaf
Ġa pple
1 6
Ġof f
Ġfir m
ĠR ice
ott age
ĠCr isco
ber ries
ree z
Ġ Ġ
ep t
on ey
Ġroll s
Ġmix ed
b le
k ey
ĠB r
Ġcub es
ĠS ift
Ġf ood
Ġl on
ot h
ĠF old
il e
ĠRefriger ate
ĠCho colate
Ġy ou
Ġb iscuit
Ġo ats
e ak
Ġm ash
Ġus e
ĠB oil
Ġflour ed
Ġc ottage
at ure
uc umb
k e
Ġm ake
c ept
Ġstick s
Ġc ol
Ġalmon ds
Ġd ried
Ġpe ach
Ġgelat in
f ec
ver ed
ĠS l
f ter
if ted
tion s
c ook
Ġmix ing
i el
fec tion
u ally
Ġ3 5
Ġt ur
en ed
Ġcon fection
l ed
Ġst uff
gre ased
Ġs c
r ange
Ġcontain er
Ġconfection ers
Ġp aste
et a
Ġpeel ed
Ġp ans
ĠSp oon
ĠWh en
ra y
Ġex cept
ic h
Ġp umpkin
Ġblend ed
Ġcover ed
Ġc ucumb
ĠSa ute
ra b
el ve
Ġbrown ed
Ġth icken
ar in
Ġh oney
Ġsp oon
en to
ces s
Ġcr an
Ġon to
Ġt aco
an ges
Ġf ry
Ġcol or
ĠD rop
ats up
at meal
Ġw ill
Ġpim ento
Ġg l
ĠS immer
Ġc atsup
ĠV elve
Ġk et
d ually
s e
stant ly
av y
Ġcon stantly
Ġor anges
c ent
Ġtablespoon s
Ġbutter ed
Ġlea ves
Ġsp inach
Ġs ifted
ing s
if f
y le
Ġf oil
n ch
Ġth is
Ġstrawber ry
Ġhe ad
Ġpot ato
Ġwa x
ou n
Ġ ri
Ġch un
ĠVelve eta
i v
Ġen ough
Ġpack age
ic an
id es
Ġst ri
Ġin ch
Ġb ou
reas e
ĠY iel
ill on
cook ed
d ing
Ġstuff ing
ar p
Ġbou illon
Ġhe avy
it tle
Ġr ound
Ġmash ed
Ġm o
Ġp ick
Ġst eak
Ġs ides
Ġb ay
Ġb on
ĠS w
ar es
1 2
Ġflavor ing
y me
ĠL ayer
ĠC orn
in d
Ġp t
Ġd ill
Ġsh arp
Ġc le
o g
r is
it s
Ġth yme
Ġcho ps
ap e
Ġth aw
Ġc and
ap or
v apor
Ġf ine
t on
er ry
Ġe vapor
Ġstri ps
ass es
ill as
Ġd e
Ġm uff
e ts
ĠG rease
Ġv ery
Ġd issol
Ġpre par
Ġj ust
Ġevapor ated
Ġt urn
Ġpeach es
en ter
ĠT urn
l ower
a il
Ġl ime
Ġro ast
ch up
Ġrefriger ate
co vered
Ġtort illas
Ġc enter
n ey
at es
p er
Ġket chup
Ġr est
Ġe ven
re nch
Ġsqu ash
Ġa p
Ġtur key
Ġdirec tions
Ġsl ice
Ġa cc
m i
Ġpean uts
Ġprepar ed
Ġcook ies
Ġa fter
ĠTh en
n ish
Ġthaw ed
or s
Ġs ide
Ġun covered
er b
or ding
Ġse mi
Ġl ittle
Ġl ay
Ġk id
Ġmix er
ĠG r
Ġc rab
ent ly
Ġchil ies
ĠF rench
Ġcub ed
ol asses
ĠG ra
Ġt art
ow n
Ġminut e
Ġacc ording
ic es
l d
Ġsl ow
Ġkid ney
Ġd ou
ĠS et
es er
ou s
Ġp o
Ġst al
iz z
Ġf reez
ĠSw iss
Ġrem ove
f ul
ter n
Ġb ut
Ġ1 6
oun t
Ġc ur
Ġy our
Ġpl ain
Ġun greased
Ġbiscuit s
em per
ro x
Ġfor m
ĠB is
Ġb re
ĠS oup
emper ature
Ġeven ly
ĠC ar
Ġwhi pping
Ġlea f
ĠF or
Ġalmon d
Ġo atmeal
rox im
ĠR o
Ġh and
Ġd ates
as ion
cc asion
Ġt emperature
Ġm olasses
sp ice
Ġc ro
Ġo ccasion
roxim ately
Ġlay ers
ĠR ed
um in
ĠBis quick
uc k
a ul
ub b
arb ec
Ġoccasion ally
Ġ qu
Ġall spice
Ġfor k
Ġch est
ff ee
ĠM ake
Ġsp eed
Ġwh en
Ġm eal
Ġst iff
Ġbl ender
Ġchest nuts
am e
Ġ 50
Ġsqu ares
s s
aul if
aulif lower
Ġun b
u d
Ġse par
s a
Ġpack ed
it ion
er n
Ġt w
izz a
Ġhal ves
uff y
ĠPot ato
Ġpast ry
Ġb all
Ġp inch
Ġt ub
un d
ra p
and arin
os s
ri sp
ar k
Ġshell s
ĠP ress
ar ts
as y
Ġb ubb
Ġcucumb ers
Ġwa f
Ġd own
i der
Ġcle an
Ġgr an
r ough
Ġb ring
ĠW ith
un a
Ġse c
ĠA pple
Ġth rough
issol ve
ed ges
Ġbak ed
ĠF ruit
ĠD issolve
el f
ĠSl ice
f at
Ġb r
i sp
ĠT o
ĠD o
Ġtart ar
as e
o c
Ġadd ition
Ġcan n
Q u
Ġfl uffy
Ġcr isp
arbec ue
Ġh ard
Ġwh ile
Ġ am
Ġsp ray
Ġmuff in
en ne
Ġdou ble
Ġmel t
ĠSa uce
Ġn eed
u ll
t ail
er m
ĠS e
b read
Ġ Qu
k ra
ab out
ĠBro ccoli
ĠCh op
Ġle an
Ġle ast
Ġbl ue
n g
Ġm icrowave
Ġcrumb led
Ġpast a
o ck
ĠA r
Ġn on
Ġc ider
a uce
Ġun cooked
Ġlon ger
Ġc auliflower
Ġcolor ing
Ġstal ks
Ġr eser
oth er
read y
Ġcom p
Ġbeat ing
er eal
1 5
Ġunb aked
as co
ay enne
Ġcar ton
Ġpl ate
Ġsh all
ĠT ab
Ġcr es
Ġr ind
ĠU se
Ġst ew
r ic
ris ing
s c
Ġal tern
Ġchun ks
Ġ3 00
ur t
Ġc ayenne
ĠTab asco
f l
Ġapp roximately
ex t
Ġc ereal
ĠF l
Ġm andarin
Ġthin ly
Ġco ars
Ġ ar
ul ar
Ġsa ute
ĠPe an
Ġgl ass
ĠYiel ds
p are
Ġslow ly
ip e
Ġcres cent
Ġcom es
Ġco at
Ġcomp let
og urt
Ġs elf
ric ot
Ġbot tle
Ġseason ed
el ess
Ġcorn meal
ĠS to
ĠPean ut
is t
Ġp ro
ĠB aked
ul ated
l ish
Ġh igh
Ġk ern
ĠAr range
Ġ ready
ĠF ro
Ġcarro t
Ġthicken ed
ar y
Ġsp ices
Ġcream ed
ĠGra dually
om e
ĠE asy
ĠG ar
Ġwaf ers
Ġdissol ved
st yle
Ġcann ed
Ġcomplet ely
sweet ened
ĠBe ef
Ġal e
ud ge
g ular
Ġthe m
Ġd ay
ĠG re
Ġtub e
Ġgran ulated
Ġr ack
ĠSh ape
Ġr ise
Ġcoc k
Ġcock tail
Ġlon g
as ag
Ġf ew
ver al
ot ch
Ġ2 4
Ġc umin
v el
Ġmin i
Ġdo zen
Ġch uck
Ġbon eless
ĠS weet
Ġy ogurt
Ġam ount
Ġse veral
ĠF ill
Ġre c
ĠS qu
ĠI f
p l
ĠM icrowave
ĠF ry
Ġgre ase
Ġp in
Ġri pe
in ed
Ġd ri
e mon
les s
Ġsk in
st ing
ĠS c
Ġsal sa
Ġun sweetened
ĠD el
ĠBr and
ĠRed uce
Ġtw o
ĠTh is
ĠSe ason
il d
mer ican
sc otch
Ġapples auce
Ġkern el
Ġan other
ag le
Ġj ars
i g
b s
al ap
alap en
i a
pp y
v y
Ġt una
ĠA merican
Ġcran berry
Ġl ast
Ġth at
Ġan y
Ġ quick
Ġp ress
Ġg ood
Ġra w
Ġto ast
Ġseasoning s
ĠH ot
Ġbubb ly
ĠE agle
ar ter
Ġcran berries
Ġcar am
ĠPre pare
Ġbot h
Ġ room
Ġtort illa
Ġshall ow
ĠB anan
Ġli ke
Ġp art
Ġap ricot
Ġp at
in ue
Ġf ish
Ġw heat
i ed
ĠM eat
Ġsh erry
ĠPe pper
Ġcur ry
Ġbre ast
Ġsqu are
ĠM on
ĠS o
iv id
ĠO n
a z
Ġra sp
u gar
as chin
ĠH igh
aschin o
Ġto ss
Ġf old
Ġjell y
ĠBanan a
ne ad
Ġfl aked
Ġh as
Ġpro cess
Ġ Z
Ġcool ed
ĠP udding
Ġco ffee
Ġcream y
Ġmar aschino
Ġus ing
Ġin s
Ġj alapen
Ġd ip
Ġdirec ted
il ad
er t
Ġk eep
ĠH am
le c
Ġlemon ade
Ġ end
Ġpec an
ĠC an
s o
Ġd eep
ĠM ex
ĠL emon
Ġ im
ĠP unch
an ch
ĠE gg
Ġb its
Ġaltern ately
1 4
an g
ar o
Ġre gular
Ġsweet ened
o k
Ġto w
Ġd ark
t z
Ġbutter scotch
Ġbanan a
rain ed
Ġ4 25
Ġh ash
o ke
ĠK aro
ĠC on
ĠB re
b l
Ġch i
ĠPot atoes
ĠSt rawber
ĠSal t
re me
ac le
asag na
ir acle
ĠGar nish
Ġst ock
Ġk n
Ġblue berries
it z
Ġn ext
m edi
sp ar
medi ately
ĠV egetab
ĠSto re
Ġgra dually
ful s
ĠJ ack
Ġcand y
ĠT oss
Ġsec on
Ġon ce
risp ies
m eat
tr ic
lec tric
Ġg ently
ast ic
Ġb ite
in i
ĠM iracle
at ion
ĠU n
g ain
Ġb arbecue
Ġe lectric
ĠPe el
Ġsc all
ĠCo c
on g
res er
Ġbe en
if e
r an
Ġm e
Ġsal mon
ĠStrawber ry
Ġqu arter
Ġh ave
ĠR ep
ĠT ake
p ick
ad ish
Ġcon s
Ġchill ed
Ġa gain
pl ant
er adish
ors eradish
ĠK rispies
it os
ĠF udge
i ve
ic ott
ut ed
Ġ6 0
Ġr ings
Ġh erb
Ġf ull
Ġto oth
Ġar ound
avor ite
Ġw eed
Ġtooth pick
am s
ver y
ĠR itz
vel op
Ġmar in
Ġh orseradish
Ġgra p
T el
Ġd i
ĠY ou
c orn
Ġkn ife
Ġp izza
ĠMex ican
ĠSt uff
Ġgra vy
ĠBre ak
c ake
heat ed
Ġboil ed
Ġen velop
Ġse al
Ġb unch
ĠF reez
ĠRep eat
ou ld
Ġb ars
ĠW ash
Ġsp ice
ess ert
am p
Ġdri pping
es ame
Ġneed ed
Ġboil er
n ot
Ġdripping s
f er
ĠQu ick
ĠP ec
ĠT he
p ot
Ġl en
Ġheat ed
is ten
Ġfirm ly
. \
Ġa v
Ġun d
ĠA l
h ub
l ing
hub arb
Ġjalapen o
Ġfreez e
Ġf ried
Ġp ound
Ġp er
Ġpl us
ĠP ineapple
u er
ĠS ugar
Ġmel ts
Ġmini ature
Ġcoars ely
ĠVegetab le
Ġe very
Ġpl astic
t ing
ins e
Ġus ed
cent r
ĠBe ans
Ġcand ied
Ġcro ck
ĠK eep
and y
Ġs ome
Ġwax ed
kra ut
uer kraut
Ġseed s
2 0
Ġcucumb er
Ġim mediately
Ġm old
ĠP ound
Ġcon centr
Ġfl at
Ġs esame
Ġcorn bread
st it
Ġchi ves
Ġpre heated
spar ag
sparag us
Ġgar nish
Ġ edges
' t
o in
Ġfry ing
Ġpre tz
us ts
Ġaddition al
Ġbe t
ĠL ine
Ġd ro
Ġfreez er
ĠM in
Ġchun k
icott a
Ġtoast ed
w ise
ter ey
ĠB ars
Ġpimento s
Ġ -
ĠYiel d
Ġcr usts
oc ad
ĠE ng
ĠS our
ĠM ay
Ġadd ing
ors els
Ġsa ge
Ġsepar ate
ĠD iv
Ġ4 50
f or
Ġm orsels
Ġbro il
Ġsu b
Ġw ire
le ts
et t
ivid ed
n ut
ĠZ ucchini
ĠMon terey
Ġap art
b alls
y s
Ġgrap es
Ġconcentr ate
ter s
ĠN ut
ĠR icotta
Ġegg plant
w h
ion s
ĠB alls
Ġbe an
ĠRoll s
Ġto o
ĠP umpkin
Ġbrown s
ĠD ressing
Ġsalt ed
gre es
ĠCh il
Ġde grees
w ich
u k
ĠPec an
on s
Ġd ivided
Ġsub stit
Ġ1 4
ic i
ess on
ou l
ĠSa usage
er ries
und t
ĠR anch
f t
o y
ut ch
Ġ1 8
Ġpo ppy
Ġav ocad
Ġcrab meat
ĠO range
Ġrec ipe
c an
Ġb ack
ĠEng lish
ĠChil i
Ġ1 1
Ġfro sting
g s
ĠW esson
il uted
ĠGre en
Ġrasp berry
Ġ *
and wich
ĠD ream
ĠFor m
Ġun s
ĠR et
Ġpick les
Ġbox es
im es
ĠRet urn
ĠD utch
or t
oll ow
iz ed
ĠP ork
ĠBe an
ak ing
ĠL oaf
ĠSh rimp
Ġpepper oni
Ġins er
ir t
Ġinser ted
en er
Ġbe g
c y
is k
Ġb erries
b on
Ġrem o
Ġfresh ly
ĠW rap
k en
Ġroll ed
Ġp ar
un s
st ick
Ġenvelop e
Ġinch es
ĠM arin
Ġt ightly
Ġg rain
ĠB undt
Ġ el
ĠO re
ĠP izza
Ġsl i
Ġshe ets
g th
Ġg al
) ,
Ġsa uerkraut
Ġsh ape
Ġyol k
Ġsu r
o st
zz le
Ġlen gth
Ġco ated
erb et
Ġw edges
Ġturn ing
l it
ĠI ce
Ġst em
Ġcho p
Ġn e
ĠCoc onut
Ġf avorite
ĠFreez e
ĠP at
ĠCr umb
t ra
Ġrefriger ated
Ġb ar
reser ves
Ġpick le
ap ing
ĠBr ush
ot s
ien to
Ġpretz els
Ġl asagna
Ġdro ps
Ġsugar s
ĠT om
Ġflavor ed
Ġor der
ĠM uff
ĠM e
Ġred uce
Ġsepar ated
Ġbro ken
Ġr um
Ġpim iento
Ġon ly
ĠN o
ĠA ll
Ġthe y
in es
Ġa sparagus
ul ly
Ġsur f
ew arm
uk ewarm
Ġr hubarb
g el
ĠCon t
i dd
ĠP ick
ici ous
ĠP am
Ġreser ved
Ġ art
ant e
Ġal so
Ġl ukewarm
ĠA fter
i o
Ġn o
Ġsurf ace
oa ves
Ġp reserves
ĠBl ue
Ġt imes
ĠD essert
Ġmay o
Ġex tra
N o
inn er
fl avor
Ġch eddar
Ġw rap
ic ante
Ġan gel
t ies
ĠCar ro
Ġsh ould
ĠMuff ins
n ess
ĠCh erry
Ġsli vered
Ġp op
erm an
ĠCr an
in t
b ow
ĠO ld
ol a
ĠSp ray
Ġtop s
Ġsecon ds
Ġa c
Ġsh erbet
Ġpin to
Ġp ure
Ġcho ice
Ġsubstit ute
Ġp it
Ġc omb
Ġo p
Ġstew ed
ĠDiv ide
Ġsk im
ĠD i
e z
Ġmo is
Ġcons isten
Ġpie ce
Ġro s
qu al
Ġnon fat
em ary
ĠSqu ash
flavor ed
Ġconsisten cy
ĠG erman
az e
Ġadd ed
Ġscall ions
ĠCran berry
Ġsoup s
Ġlength wise
as ure
b oil
Ġ quart
Ġbo ard
ĠO atmeal
Ġp icante
Ġcont inue
Ġteaspoon s
Ġf il
ĠSt ew
mer ic
Ġl oaves
e g
Ġskin less
ur ing
ĠG ood
Ġl im
Ġcaram el
Ġl id
Ġhe aping
Ġp unch
ĠM ars
ol es
Ġof ten
Ġd rop
Ġtur meric
Ġthicken s
ĠK nead
ĠWh ile
Ġcub e
ut ons
Ġros emary
Ġwh ich
Ġcaram els
Ġo ys
ĠR a
ĠP et
Ġex cess
m ost
Ġm ade
Ġlemon s
ĠCrumb le
inch es
Ġcorn fl
he y
al or
Ġtow el
Ġel bow
ĠA pp
ĠSp inach
a ff
Ġre lish
t ry
er i
in y
ĠChe ez
i ble
ĠWh iz
oul try
Ġcro utons
Ġf re
p h
Ġm ild
Ġhand s
ĠM ash
ĠMin ute
e am
Ġri bs
Ġwh ip
ĠCont inue
ĠB iscuit
Ġfre qu
Ġp oultry
Ġfrequ ently
ĠJell o
Ġmo der
Ġart ich
Ġal most
Ġday s
Ġprocess or
Ġc or
ĠD or
l oin
Ġst yle
ers hey
w ay
Ġs n
ĠStuff ed
ed ge
a ir
we en
Ġfry er
ist ach
ra g
t c
boil ed
ĠA ng
ĠO r
Ġmuff ins
ĠA cc
ĠCh ip
ĠC l
ĠSp aghetti
an y
r ans
er ing
Ġo kra
ĠB arbecue
ĠC up
Ġbet ween
ĠH ershey
ĠPe ach
istach io
c akes
ĠRo ast
Ġw ash
Ġhal ved
ĠT aco
Ġcoars e
Ġstem s
ĠC rab
Ġnon stick
h mallow
Ġk nead
ĠAcc ent
ĠP ast
ee z
ĠSt eak
ash ion
Ġf our
ĠS up
Ġo un
ĠC abbage
ĠD ump
d o
Ġst ill
Ġst ove
il ant
ilant ro
rag on
U p
ar ragon
Ġbre ak
ĠC amp
b ell
Ġ5 5
am el
Ġp ink
ĠDel ight
Ġbroil er
j oy
al ted
ĠAng el
Ġw ood
ĠBrown ies
Ġser ved
ĠP ro
Ġcle ar
ering ue
ĠF resh
ab y
ĠDor itos
c l
Ġpat ties
Ġmin t
Ġcl ams
ĠMars hmallow
Ġbon ed
inn ed
Ġb ul
f ree
Ġc ilantro
ĠT ater
Ġju ices
Ġmois tened
Ġfil lets
ĠF r
ol id
ĠR e
Ġb uns
Ġquarter ed
ĠGre at
Ġth ree
bur g
a pp
i ally
Ġre al
m a
ĠF ried
ilad a
Ġt arragon
Ġw ee
ĠT ur
f ry
Ġst ore
ĠM ushroom
ĠB all
ĠFro sting
ĠBiscuit s
c le
Ġmoder ate
e gg
Ġsu re
Ġall ow
Ġf ollow
Ġbe ets
Ġ \
Ġwood en
j or
s ize
am b
Ġpl atter
irt ight
Ġa irtight
to ver
ef ully
Ġbe er
unch y
Ġ edge
bl er
ĠCr ush
h igh
ĠCar amel
Ġb one
es es
Ġ2 50
Ġgra pe
ĠF arm
ĠCamp bell
Ġsh ake
co ver
Ġe tc
Ġund rained
Ġun flavored
Ġpop corn
f ast
ing ers
ĠOn ion
ĠL ightly
Ġsk inned
jor am
Ġbot t
ĠD ot
Ġmar joram
Ġne cess
Ġmeat balls
ĠS n
Ġche eses
ĠD ri
Ġnecess ary
Ġun der
ĠFro st
Ġcrumb ly
ĠSqu ares
ap le
Ġmarin ade
Ġs andwich
ous ly
Ġsm oke
ĠCo at
Ġchil es
Ġ ic
ĠDel icious
ĠOre o
Ġdissol ve
Ġwh isk
Ġcornfl akes
t y
an n
Ġcomb ined
ĠC risp
Ġhe arts
Ġs q
Ġuns alted
in ese
1 3
ĠCr ust
Ġform s
art y
Ġt ap
rans fer
Ġb aby
Ġic ing
aff in
he ad
ĠSl ow
ĠS k
ĠP h
Ġroll ing
Ġqu arts
ĠCh inese
Ġpar affin
Ġlim a
b its
id ge
Ġgl aze
Ġl ess
Ġrec t
ĠTom ato
ĠSo ak
ĠSh ake
Ġchunk y
o d
Ġ '
n o
Ġen ch
Ġpick ling
ĠDri zzle
b bler
Ġavocad o
al s
Ġbul k
c r
pe el
Ġg all
at ing
Ġtow els
ĠS m
Ġpure e
Ġseed ed
umin um
ok ed
f tover
e ar
is in
om em
Ġr inse
Ġteaspoon fuls
ĠAll ow
omem ade
Ġcut ting
Ġc utter
Ġd on
ĠR inse
ep ar
Ġc ap
a f
f ish
ro uts
o am
ĠHam burger
j on
Ġcorn ed
Ġc alor
us e
Ġreser ving
Ġal uminum
Ġpe ak
ĠK ra
ĠB est
Ġj am
Ġle ftover
ĠPepper idge
Ġpe ars
Ġfl ower
ĠM acaroni
ĠR ec
Ġsp ring
A ll
t m
ĠCorn bread
v il
ĠD e
ĠG l
an ish
th ing
Ġp istachio
ĠC reme
ĠCo bbler
at ch
Ġgr ill
peel ed
uc h
ĠBlue berry
a h
oo p
ĠU s
ĠC andy
ab le
Ġl ined
ĠSlow ly
Ġref ried
Ġwith out
bl ong
Ġ &
ĠBro il
ĠPast a
Ġin d
ĠCo ffee
Ġham burg
a i
ĠTur key
oc a
Ġend ing
ĠS epar
Ġm aple
ec or
f ten
i oca
Ġthick ness
ĠP an
Ġsp routs
ĠDi jon
ĠSup reme
out h
Ġbag s
Ġo blong
op s
Ġt ake
Ġt ins
Ġspoon fuls
ĠCarro t
Ġquick ly
l ings
ry e
ood le
isc ard
Ġp r
ĠR eser
i al
Ġs ame
Ġg et
Ġ rye
ĠPick les
ĠSo ften
ĠWh ite
Ġf oam
Ġund iluted
Ġbeg ins
Ġw ide
ĠCr ack
ĠRec ipe
ic y
Ġe qual
Ġpit ted
Ġbr andy
ph ia
Ġench ilada
ĠUs ing
ĠSepar ate
el phia
aw ay
ilad elphia
ashion ed
Ġcrumb le
Ġwal nut
Ġsecon d
ĠW ill
Ġm eringue
Ġgelat ine
Ġapricot s
ĠL ay
Ġblue berry
ĠReser ve
Ġp ul
Ġp or
ĠPh iladelphia
1 1
ĠT ea
us s
Ġlar d
iff y
Ġrasp berries
Ġpeak s
er e
Ġtap ioca
Ġbr an
ĠSc all
Ġpart ially
Ġst age
Ġseed less
Ġre t
ĠGr and
Ġmo ist
ĠCh ris
Ġc as
Ġremo ving
Ġh oles
Ġspray ed
he w
Ġreser ve
Ġ "
Ġsc al
Ġw or
ĠC ro
ĠUn cover
Ġw ings
Ġw ild
ĠChop s
un can
m el
Ġbr ush
Ġg i
Ġket tle
Ġa head
Ġs ing
ing u
ĠR om
Ġt id
ĠT una
and er
ĠD ish
Ġst eam
Ġcar away
ĠJ iffy
Ġb est
ĠI m
oss ible
k et
ĠSp anish
ĠJ ust
Ġsp rink
Ġsm oked
ĠBreak fast
Ġcr unchy
Ġin st
ĠV eg
Ġp arts
or b
Ġwee ks
ĠCream y
ic he
u al
Ġstal k
wh ile
ĠT w
ĠL ow
Ġevery thing
Ġtid bits
Ġm akes
ett uc
Ġgall on
Ġd inner
ĠT ransfer
ĠKra ft
ĠRa isin
Ġpul p
Ġret urn
i pped
ĠMarin ate
e ars
Ġsp lit
ĠO ven
Ġsteak s
ĠV al
y re
Ġbon es
Ġar range
tm as
Ġround ed
w ith
Ġdou b
yre x
Ġab s
Ġsqu eez
Ġme in
Ġquarter s
ins ed
Ġsp ri
ĠN ext
Ġsing le
ch o
ĠD uncan
ip ton
Ġc ir
Ġbe c
Ġd el
Ġt es
Ġw ant
ak er
Ġl oo
ĠL asagna
ĠApp les
Ġcontain ers
Ġr insed
ĠP arty
Ġsu n
ĠChris tmas
ĠL ipton
ĠH ines
Ġf udge
ĠVal ley
eat en
ĠS eal
Ġe at
ĠP yrex
ĠD ough
Ġabs orb
Ġremo ved
at h
ou ch
ĠM ilk
ĠG ently
c up
Ġavocad os
ĠScall op
Ġal ong
idd le
ir on
et iz
ĠE n
ach o
Ġbott les
Ġremain der
d ish
ĠL ea
a dd
ĠSt yle
Ġac t
ĠO ne
Ġgreen s
uc ed
Ġs ift
Ġpo pped
und rained
Ġg ener
Ġro t
Ġm aking
ĠFr itos
Ġdoub led
umb o
s mall
ĠK ool
om me
Ġlea ving
Ġt ri
ĠT ort
Ġun peeled
ĠBl ack
Ġact ive
idd en
b u
Ġcalor ies
Ġpre fer
ĠSp lit
Ġartich oke
app roximately
op le
Ġroast ing
Ġflower ets
Ġm iddle
Ġcas hew
ec t
Ġb ig
ag es
ĠBr an
ĠP ack
ount ry
i er
ĠH idden
ĠGr ill
Ġfruit s
ĠCheese cake
ĠT ex
ĠC innamon
ĠH omemade
A id
Ġm uch
Ġmeat s
Ġd uring
Ġsweet ener
ĠSto ve
un t
Ġv egg
Ġcons omme
2 8
Ġscal ded
ĠRom ano
b o
Ġrect ang
ir loin
is on
o ppy
bu ry
Ġgi ven
Ġw ork
Ġoys ters
Ġwash ed
Ġmarin ate
ĠH oney
Ġcar efully
ĠSal mon
ĠP r
as ter
il y
Ġind ivid
n ation
Ġbet ter
ĠB ur
o f
ad y
Ġred uced
ĠC ol
an while
Ġb urn
en ison
Ġk ind
Ġme asure
ĠEgg s
ĠM ar
un cooked
ĠFro zen
Ġl ingu
Ġpr un
ĠMeat balls
Ġfoam y
S er
Ġcoat ing
ĠMe anwhile
Ġc ustard
Ġt bsp
m b
f lower
ill s
ep end
Ġherb s
a j
Ġv eal
ĠCar nation
Ġop en
ĠButter milk
it y
C h
Ġt in
Ġg erm
ĠO f
Ġscall ops
Ġbubb les
Ġcor ed
Ġs irloin
Ġh old
ĠAl tern
ĠGar lic
ĠSl aw
ff le
ĠO ver
ĠMe asure
Ġs it
ĠScallop ed
Ġch ow
an k
Ġle ave
Ġoun ce
Ġspri gs
Ġvegg ies
ĠS andwich
Ġpe ople
Ġst art
ĠH aw
Ġt ouch
Ġl ite
Ġwaf er
ĠE nch
ĠT ots
b y
ge al
th s
Ġdo gs
Ġr ing
our bon
ai ian
Ġgr its
ĠTo ast
ĠC akes
Ġme as
und iluted
Ġpe ar
Ġend s
Ġoys ter
ĠHaw aiian
Ġsun flower
ro ss
ĠV anilla
ver s
s ave
Ġflat ten
ĠEn joy
p ro
ĠW al
Ġsof ten
ĠChe x
ĠTh aw
ul a
ĠC ustard
Ġle vel
ĠR el
ĠFl at
c ing
Ġb ris
ir d
Ġf ettuc
Ġprun es
Ġfro st
ore ts
Ġpre ven
ĠQu iche
ĠRel ish
Ġcolor ed
ills bury
ĠP l
Ġra dish
d ry
ĠS outh
Ġso ak
Ġit s
asag ne
Ġdri zzle
ĠCro ck
Ġtw ice
ĠFl our
ĠTex as
Ġpin t
ĠFlat ten
ĠI cing
Ġins ide
Ġb it
Ġc akes
Ġbe ater
ĠGr ate
ĠLea ve
Ġfl orets
Ġsec tions
in a
Ġr un
ĠT rim
r n
Ġd rink
um m
Ġsa ve
Ġth an
f resh
olid ay
ĠH ash
Ġpreven t
m ed
ĠCr unch
Ġd essert
Ġh om
ok es
Ġsaute ed
Ġroast ed
Ġindivid ual
en ts
Ġth ese
f ro
ĠM old
ef ore
Ġ iron
Ġt rim
cl u
Ġto rn
ĠF avorite
ĠJ o
ĠP illsbury
ĠM om
bon ed
Ġpo int
es y
Ġal um
Ġp ies
Ġp uff
ĠC al
th y
z o
Ġl ook
is ted
gh t
Ġre ach
Ġuns ifted
cr umb
ĠD on
ĠH e
Ġl ump
Ġsp at
ĠW ater
Ġpound s
c ut
Ġd iscard
Ġde boned
ĠGrand ma
ten der
ag on
b one
ar ge
Ġsh ap
reser ve
Ġop tional
m int
ar eri
Ġgre at
asil y
m ay
t al
Ġdissol ves
Ġabsorb ed
Ġcashew s
F at
ĠD ice
Ġl ine
ĠB atter
Ġ3 6
Ġpart y
ĠP uff
Ġmo st
Ġe asily
Ġspat ula
Ġf ran
ĠD ate
areri bs
en n
Ġl isted
ĠB efore
ec ial
Ġab ove
m ix
Ġd ot
Ġoun ces
g in
Ġsalt ine
Ġoil ed
ĠChe esy
ĠCrack er
Ġbrown ie
Ġdo z
az ed
Ġfollow ing
ecor ate
Ġfl ake
ĠCarro ts
Ġbris ket
Ġloo s
Ġp ower
ĠC re
epend ing
ĠCh owder
Ġradish es
Ġr ese
ĠSa ve
air y
Ġo ld
ĠMushroom s
Ġsk ins
ĠUn cle
Ser ves
Ġb ark
Ġcook er
Ġpan cake
ĠMarin ated
ĠB en
o bs
Ġp ossible
ĠT ang
ien ers
Ġen joy
ou se
Ġpepper corn
ast ing
ĠPan cakes
ĠA n
ĠOre os
Ġmeas uring
r on
ĠS eed
Ġboil s
Ġa way
Ġartich okes
ĠV ery
l ow
on d
ĠC ucumb
ĠB acon
Ġre p
i um
Ġover b
Ġsp ears
Ġpar ed
Ġ ass
Ġw ay
ĠW heat
Ġt iny
Ġb ourbon
Ġst arts
M akes
i b
Ġv erm
Ġflavor s
le an
ĠM andarin
ell i
Ġsc oop
Ġo wn
al ade
Ġs olid
red ge
Ġfin ish
u ice
Ġjalapen os
Ġ2 75
ro ll
ĠB ar
Ġn acho
ĠG inger
urp le
Ġp ers
or y
ĠCook ie
Ġcan ola
Ġd airy
ĠR ub
Ġs ized
Ġt ray
Ġcro ss
Ġl it
1 8
Ġ1 7
Ġblend ing
Ġbr and
ilad as
ĠDump lings
P ot
l and
Ġy ams
ver t
Ġf ive
ĠP op
Ġsn ipped
Ġpepper mint
ĠD inner
pro of
Ġm on
Ġst ring
clu ding
Ġcand ies
ect ar
4 6
orn ing
ĠGr ind
Ġclean ed
ĠFl ake
ĠN oodle
Ġstuff ed
Ġshall ots
Ġw et
ĠTom atoes
ĠH ell
Ġdi agon
Ġrectang le
m ann
ĠSh red
e ad
Ġcl oth
Ġbunch es
ĠF ish
ĠG olden
or ted
crumb s
S t
Ġf it
ĠD ill
ĠAltern ate
ex cept
Ġcur d
u les
as a
ĠA p
ou ffle
ĠS ea
is key
ĠN ew
Ġbowl s
ĠSk illet
Ġtri ang
Ġpeppercorn s
Ġl oin
Ġv enison
ĠSt ro
ĠL ime
ir l
inn ing
Ġdo es
Ġgran ules
Ġtoothpick s
l ined
ĠR uss
ĠApples auce
Ġp armesan
Ġth erm
ĠN or
s ugar
Ġs ter
Ġround s
Ġpimiento s
aj un
ving s
Ġde ve
Ġw ok
Ġb asting
Ġp ull
Ġe asy
r uc
Ġm ace
Ġhom iny
Ġhand le
u a
al f
ĠE qual
Ġg o
ome ter
Ġcom e
ĠR hubarb
iel b
ĠAl mon
Ġtherm ometer
Ġ ent
Ġcir cle
m alade
Ġmar malade
ĠWor k
Ġ3 2
Ġcl ub
iss es
Ġenvelop es
od ka
Ġbread crumbs
Ġpin ts
Ġp urple
Ġstiff ly
ol i
Ġst ack
Ġbl anch
Ġw ra
Ġcut lets
raw fish
at ur
Ġf ire
ĠH ave
Ġpl ac
Ġde vil
Ġunb eaten
u g
ĠH oliday
ĠSp iced
am ily
ĠHeat h
Ġlingu ine
l arge
Ġd ice
ĠA m
ĠPro cess
Ġw ieners
ĠC om
ĠA unt
ell ini
gano ff
ĠN est
Ġrack s
Ġdish es
Ġpor tions
o z
Ġcl am
ĠAp ricot
Ġro ot
Ġpl um
ey ed
bo x
Ġn ectar
Ġaltern ating
Ġne ar
ĠI r
ĠSh o
ĠBur g
p le
Ġsc rap
t e
Ġd ump
Ġpack et
arbec u
etiz er
f e
3 2
e ur
ĠC auliflower
ak i
Ġf ingers
ĠC ajun
ĠSp icy
Ġt ight
Ġf ri
ĠWh isk
Ġpre pare
am en
Ġshor t
Ġtender loin
Ġent ire
s ized
Ġl amb
Ġwh iskey
ĠSt art
ah l
b e
Ġv odka
ahl ua
i ander
Ġ +
ĠN oodles
! !
til s
ĠGra vy
ĠSea f
ac c
ĠSt rain
ĠKeep s
ĠStro ganoff
Ġblanch ed
ĠF in
wh ite
mb les
Ġass orted
Ġl ater
ĠSouth ern
Ġrese mbles
ielb asa
ou ble
Ġinst ead
ĠIr ish
j ust
Ġover cook
ĠP oppy
Ġsp areribs
it ch
ĠSp ecial
ic elli
am i
ĠH erb
Ġteaspoon ful
Ġcor iander
Ġstick y
Ġac ross
ĠHell mann
ĠRuss ian
ĠN e
al e
ra pe
Ġn ew
ĠPepper s
t in
oup le
ĠI s
for m
Ġshap es
y aki
Ġliqu eur
ĠEgg plant
ĠPre tz
Ġspoon ful
Ġdel icious
T h
u ac
Ġl og
ith er
ĠR amen
Ġz est
Ġcross wise
h y
ĠC ountry
ĠF ood
ĠE x
Ġbeg inning
2 1
m p
am ole
Ġhalf way
Ġmo isten
ĠLayer ed
Ġpo ds
Ġlen tils
arbecu ed
Ġ1 00
Ġd epending
ĠCre ole
uac amole
Ġbl ock
ĠCol by
Ġrep eat
Ġm orning
1 7
b utter
Ġcap s
Ġc ouple
Ġchi pped
ĠAlmon d
ar i
ĠC ur
ĠS u
Ġdash es
Ġdi pping
ĠP er
ĠP ea
ĠA rt
ig or
ran spar
en ess
ĠC lean
ĠCucumb er
ĠSt eam
Ġcon geal
ĠPe g
Ġdi pped
ranspar ent
Ġt y
sp berry
Ġd ust
ĠCh ess
L emon
Ġv igor
oun ts
Ġtes ts
in al
he ese
ir ds
ĠP inch
om es
ĠCar efully
ag u
Ġstick ing
r ise
Ġt ransparent
Ġshell ed
Ġgl asses
eri yaki
dd le
Ġco re
ĠFill ing
eez e
ĠEnch iladas
ther n
Ġri ght
Ġbar ley
Ġsn ow
) ;
Ġf ully
ig inal
gh orn
n ed
v ol
Ġs w
ĠB aste
Ġth igh
Ġsandwich es
ĠIm mediately
Ġsprink led
! )
I f
Ġse af
Ġinst ruc
Ġseaf ood
Ġro aster
ĠO ri
ran ts
Ġvigor ously
Ġdeve ined
ĠJ am
ĠK ahlua
ĠButter scotch
Ġw on
ab et
ef ruit
ĠO il
ĠSal sa
ri ddle
Ġster il
b an
ĠB ay
Ġfry pan
Ġcur rants
Ġoverb ake
ĠSeaf ood
Ġs ix
Ġch ip
lic ed
ĠBr ittle
Ġsqueez e
y e
Ġreach es
Ġh ole
Ġlow er
ig s
Ġbec omes
vol one
Ġverm icelli
Ġbrown ies
Ġcap ers
Ġsteril ized
ĠA sparagus
Ġbrown ing
ĠL ower
ĠArt ich
on ghorn
ĠF eta
Ġcool ing
itch en
m ore
Ġ4 8
ĠMix ture
Ġspread ing
ann y
umm y
m edium
r ound
em s
Ġlit er
al d
Ġst rain
ir y
Ġle e
ĠR agu
ĠCup s
ĠT ri
Ġlar ger
en ough
ĠT ear
ĠGra ham
Ġam ounts
f ur
k fur
ĠP ol
ĠS urp
Ġcol ander
ur es
Ġmo zzarella
ĠGra pe
Ġdon eness
ĠNest le
ĠB arbecued
ĠD eep
ck tail
ĠSe ven
Ġpor tion
Ġtrim med
Ġg riddle
ĠSqu eeze
Ġgener ously
Ġsu m
ĠS he
ĠL onghorn
ĠFl uff
fro zen
al ia
A dd
p ec
ĠM ed
da iry
no x
ĠPuff s
3 0
Ġl asagne
ĠH or
ĠPro volone
d ge
i w
r s
or ed
ĠS ouffle
ĠD ouble
ĠNor thern
ĠB aking
sa fe
obs ter
Ġdiagon ally
Ġb ase
ĠRefriger ator
Ġscrap ing
ĠK nox
Ġsum mer
or d
Ġn ight
ĠF ashioned
ĠCo cktail
id alia
Ġsqueez ed
ĠR ea
Ġde bone
Ġloos ely
d ium
m old
us ages
Ġflavor ings
ĠVegetab les
Ġthigh s
Ġinstruc tions
M icrowave
Ġb ur
Ġd iv
ĠGr ound
ĠDe vil
Ġchicken s
ĠH ouse
Ġhand ful
ous se
ĠAl so
Ġcomb in
an ce
Ġf ree
ĠSer vings
ĠTh ese
Ġleftover s
cho pped
i oli
ĠM an
ater s
Ġpack ets
ĠSn ack
Ġty pe
ach ed
ĠSc ald
um ps
ĠSc r
ĠGl aze
ĠSurp rise
ĠC at
ĠO p
ĠHor mel
Ġm et
Ġk ielbasa
ĠFr it
Ġc rawfish
ed ish
ĠCh ow
Ġpress ed
Ġbeg in
Ġfro thy
Ġgener ous
ĠA s
Ġr ub
Ġslic ing
Ġfran kfur
d rained
ĠP u
Ġn oodle
ĠGr anny
ma ine
Ġfollow s
ĠSandwich es
iw i
Ġdiv ide
ĠSt ick
ĠY um
ĠArtich oke
d ough
ĠRea Lemon
ĠA t
orn ia
if ornia
ĠL e
Ġrot ini
Ġpretz el
Ġsalt ines
Ġgar ban
ĠSp ice
b ro
pper s
Ġgrap efruit
Ġle ft
ent al
ĠFreez es
ĠWal nut
Ġpe a
ĠP ies
ĠN ot
ame ter
abet ic
ĠD ecorate
Ġcrisp y
ĠGl azed
mp ty
Ġm an
ĠA b
Ġor iginal
Ġcrack ed
Ġan ise
Ġdi ameter
ĠCal ifornia
ĠD irt
Ġsepar ately
ĠSc oop
Ġse am
Ġsmall er
Ġro maine
ĠV idalia
Ġsc ant
p re
u x
ĠSh ell
ĠRa spberry
m it
y our
ĠS ec
ven ly
ĠChe w
ĠSw edish
ĠB aker
oup e
atur al
d e
Ġd ecor
pl ain
ett es
h ot
u ds
Ġch ick
Ġh en
Ġst r
Ġsa usages
ĠK n
t ures
Ġo uts
Ġw ish
s ide
um mer
ĠD redge
ĠL a
Ġcup cake
ĠSa uerkraut
Ġf inger
ir gin
ĠCl am
Ġt ail
ĠCoc a
B ake
m ent
pe as
d just
Ġcan tal
ĠCoc oa
Ġtriang les
Ġc reme
Ġt all
Ġl ink
Ġaltern ate
c ine
l ime
al t
Ġfl ank
ĠM rs
ĠIce box
ĠS un
Ġmix tures
oc ks
Ġra b
Ġra p
Ġan cho
ĠU ps
Ġnon dairy
ĠStuff ing
Ġcir c
Ġsimmer ing
Ġrap id
ĠF ir
ro ps
ĠS ummer
ush y
Ġr ich
ĠW atch
Ġlb s
ef ul
Ġpack ages
ĠTo pping
C ola
Ġblack berry
Ġ7 0
Ġstri p
Ġgarban zo
F ry
Ġstart ing
i k
Ġin cluding
Ġl umps
Ġk iwi
Ġbubb ling
an gular
Ġouts ide
Ġb ath
Ġe ither
Ġsal ami
ĠSp r
Ġbott led
Ġg one
Ġthe ir
Ġb as
ĠD og
ĠH un
Ġsec ure
etiz ers
o ver
ĠM ustard
Ġoven proof
Ġsc r
ux e
b eaten
c em
f u
Ġf amily
Ġ2 00
ĠPop corn
ĠAb out
Ġto pped
ĠT est
ĠM edium
icott i
ĠSn ick
cem eat
c ell
Ġblack berries
Ġdump lings
ĠD ay
ĠPretz el
ar a
ab ly
Ġtablespoon fuls
Ġfrankfur ters
Ġd amp
ĠD iscard
Th is
ĠB owl
ĠSh ort
ĠPick led
Ġwor ks
Ġn atural
ĠO ys
Ġhead s
cell ent
U ps
ĠBe aters
Ġfri dge
Ġn ice
Ġpan cakes
g o
ra ut
Ġj umbo
Ġth ird
Ġcann ing
ible ts
Ġrect angular
ĠIm p
C an
Ġcream er
ĠW arm
eri os
Ġwee k
Ġcantal oupe
ĠUps ide
Ġp ine
ur k
ĠRe ady
Ġcl os
ĠSn ow
am a
Ġsa ff
Ġsl its
Ġw ould
Ġfill ed
ĠN ow
ĠM olasses
ĠOri ental
Ġn avy
im mon
Ġk raut
meat s
Ġf igs
o b
Ġc ountry
ĠChe erios
Ġc uts
Ġo at
Ġp ressing
ĠB reasts
ot ted
ĠChe ck
Ġlime ade
or m
ĠW ings
Ġset ting
Ġturn s
urk ee
Ġf ast
Ġcar eful
aw ry
uss els
Ġo mit
qu e
ĠL i
ĠT ender
Ġnut meats
Ġgl oss
ation s
ĠTort illa
b all
Ġg ets
ĠM c
Ġsl aw
Ġri b
D o
Ġsp icy
ĠL ast
Ġsec tion
ĠPat ties
F ree
Ġcover ing
ĠTh oroughly
ĠImp ossible
h alf
at in
or r
Ġg uacamole
ĠD ust
ĠF at
ĠCo ke
Ġprocess ed
wh ole
Ġstr ong
Ġco als
ĠSho e
Ġli ver
ĠC ub
ound s
Ġpec tin
ĠIn vert
ĠR ot
Ġsl otted
Ġkern els
ĠZ est
ĠGrill ed
ĠD urkee
ĠL awry
enn el
3 50
re c
ic o
Ġ2 3
Ġ2 8
ĠP ull
ĠThe y
C heese
ap s
Ġhot s
Ġchil e
ĠKn orr
n y
Ġt ips
am ic
Ġl ove
Ġlee ks
l a
Ġb atch
ĠIs land
Ġmet al
Ġchick peas
ĠT ime
ĠH ea
ĠButter f
Ġsprink les
ro st
Ġv ari
Ġhard en
Ġdro pped
ĠSpr ite
Ġt eriyaki
Ġso aked
Ġliquid s
ĠMon key
an ts
Ġtort ellini
ett y
it ation
ĠT re
ĠM eringue
iff er
ĠT ot
ble ached
Ġcornfl ake
D own
Ġf ennel
un k
ĠE at
ĠOn ions
ĠTort e
c risp
o sh
et ter
ĠW ild
Ġcar d
pan y
Ġde er
Ġcarton s
c rease
Ġfl ame
l ien
ĠM ill
Ġju lien
ag ne
t a
y st
ef rost
ĠPr al
L ow
Ġm any
Ġl obster
ick ory
ĠK isses
amp agne
Ġbar ely
ĠD ash
ĠL ight
Ġli vers
Ġe ars
ĠOp en
2 4
ĠP istachio
ĠM y
Ġcr yst
Ġtopping s
ĠUn mold
ĠPol ish
Ġm ed
ĠP owder
Ġun bleached
ĠO li
Ġdi et
Ġpers on
ĠC ole
ĠM il
F or
Ġt am
Ġsubstit uted
pp ies
ĠB on
Ġst arch
Ġsk ew
Ġcont in
Ġspring s
ĠZest y
ak y
ĠW a
Ġlayer ing
alor ie
ĠFir st
j uice
ĠB etty
Ġ es
ĠC res
Ġgr ate
ĠNe ver
Ġcombin ation
r ant
al ina
ie ve
und y
ĠHea venly
o at
ĠP ark
ĠJ uice
r it
um d
als amic
Ġc re
ĠK itchen
Ġel astic
Ġwor cestershire
Ġr is
ĠF ail
Ġwarm ed
d on
ĠF ran
Ġcon ten
ĠQuick ly
ĠSeason s
Ġb ri
Ġd ist
ĠT r
Ġpl ates
Ġim itation
Ġcirc les
ch er
oo se
ĠP ure
gre en
ĠDel uxe
ĠSo da
Ġmois ture
mel on
d r
k es
u y
Ġp urpose
Ġto fu
Ġ2 2
ĠCat alina
Y ou
ĠP in
Ġdo g
arb oil
Ġpit a
ĠSup er
ĠTw ink
iffer ent
Ġt ill
ar garine
ĠV egg
ĠY east
ĠApp etizer
Ġpuff ed
Ġtail s
Ġm ang
Ġl ots
ĠA u
ub ble
av ed
ĠNot e
M ay
c ream
m s
ou x
Ġth irds
ec k
re gular
Ġon es
ain s
Ġmel on
ard en
li ke
s elf
Ġ X
ĠB y
ĠN uts
ĠSm ith
osh er
ter ol
ĠVelve t
Ġpat ty
ĠMarin ade
oles terol
ĠCrack ers
Ġfettuc cine
Ġlump y
re l
Ġl in
if ici
un n
Ġle gs
ast es
ĠSl oppy
? ?
t Add
in z
ut y
ĠL asagne
ĠJell y
se ason
ia h
Ġmold s
ady f
ĠEnch ilada
ĠPure e
b aked
m ents
Ġb alsamic
al a
Ġsu it
ĠR i
ĠE l
ingers n
Ġlook s
ĠShe et
Ġc it
Ġb erry
ic les
ĠC ottage
ell o
ĠCr unchy
Ġus ually
2 9
oun der
Ġmarin ated
ĠMay onnaise
Ġloo se
ĠMill ion
l oc
re t
ĠM ac
ate ver
Ġcalor ie
ĠPr ick
m ild
Ġc at
Ġf illet
Ġh ickory
Ġbe ing
Ġso on
Ġsp ir
Ġart ifici
Ġmon ths
acc ioli
F ashioned
ĠM ini
ĠBurg undy
in o
ĠC old
Ġk ept
ĠZ ip
B ran
C r
Ġb ed
ĠG arden
ĠPec ans
a use
ĠS ar
Ġpress ure
ĠSk im
ĠOys ter
ĠMil not
so ft
Ġlid s
er d
Ġm ust
Ġbutter nut
ĠM iss
Ġtab le
ĠCon geal
ĠUn roll
N uts
at a
Ġmin cemeat
ĠJ er
uk es
ĠM ag
Ġth ere
ĠR ing
ĠW ine
ĠH eal
ĠRoast ed
ar ian
ĠB as
ĠB etter
ĠP ink
ĠM a
Ġbe et
Ġth read
ĠL ou
acar oon
n ing
s alt
ri b
ĠI nd
Ġbec ome
hy dr
Ġartifici al
I t
f le
Ġh air
ree k
Ġplac ed
it a
Ġh el
ad a
Ġso dium
ĠH unt
Ġtoss ing
ĠDevil ed
an cy
Ġe qu
ĠTh ree
ĠSo ft
ĠM eal
Ġh ow
Ġr oux
ĠPe ar
ĠCub e
Ġp ats
ĠC and
oo s
ĠGr atin
ĠSm ooth
ĠZip loc
Ġ1 9
Ġgr ind
ĠR ich
ent y
ĠSa ut
stick s
ĠHe inz
ĠPu ppies
Ġconten ts
ĠM other
Ġh ollow
ad le
ĠMex ic
amb oo
ĠGinger bread
ĠFrit ters
adyf ingers
ĠR um
ĠMash ed
C ook
p es
u red
Ġm icrow
ĠS im
un til
Ġcl ose
Ġcur rant
Ġlink s
Ġb amboo
ĠC elery
ĠC ider
Ġv irgin
Ġh omemade
ast y
ĠPe as
Ġpure ed
Ġt est
Ġt ex
Ġin vert
Ġl g
ĠF ollow
ian a
alapen o
ĠDi abetic
Ġsn ack
ĠCom pany
g ate
w are
Ġh ock
Ġover la
Ġcook s
ĠH o
ĠH ush
Ġprefer red
Ġg umbo
Ġrais in
Ġstew ing
Ġtouch ed
ĠShell s
Ġtex ture
ut ney
as ier
Ġst ored
ay a
ĠPast ry
Ġman icotti
Ġoverla pping
ĠB ra
fl our
ĠSc rape
Ġbreak fast
Ġdoes n
on es
ĠC a
Ġsu ch
Ġd is
Ġwith in
Ġcool s
Ġup side
oul ash
Ġcontin u
Ġc av
it es
Ġit ems
ĠBe er
ĠQu aker
Ġsteam ed
Ġrectang les
unn el
Ġcat fish
y ou
ar et
ĠE mpty
can ned
Ġtes ter
Ġc ukes
Ġt ransfer
ĠS yrup
Ġfl aky
ĠM ary
ĠK ing
Ġpo ke
way s
ĠRe ese
Ġrapid ly
in stant
it i
Ġd ecorate
Ġg umd
ĠT aste
Ġbl ade
cook ing
ĠOli ve
n og
or ch
ĠM u
Ġwh atever
Ġr es
fec t
ĠSl ush
Ġde g
Ġfour ths
R oni
al es
qu et
ĠH ar
ĠCream ed
ĠTh icken
ĠY ellow
ĠBurg ers
pec ans
rec ipe
F ried
d en
i gg
at t
Ġl adyfingers
ĠP o
ĠM ousse
cl oth
fro m
Ġpers immon
ĠButterf inger
m et
Ġ #
Ġm y
Ġw as
ĠS am
ĠM az
oul der
e an
re n
ĠCrisp y
ĠSu pper
ĠPark ay
b it
c ial
l o
en ce
le ph
ĠD ry
im m
Ġse g
ĠDiv an
s liced
Ġe asier
ol og
Ġn ow
Ġj ack
os es
Ġdo or
Ġqu ite
I n
l uc
p ack
w he
Ġc ount
Ġst ro
Ġsa ving
Ġsh oo
ĠG old
ĠG oulash
u pper
in ity
ill ed
ver age
ĠW e
Ġmang o
to p
ĠJ alapeno
ĠBrown ie
Ġcur l
ro s
oo ps
ĠCook ing
ĠV enison
pl ants
ĠWater gate
Ġ rim
Ġb aste
ow ers
Ġcheese cloth
Ġk isses
Ġk osher
ĠO kra
Ġtender iz
Ġseg ments
m argarine
Ġb un
on ge
ĠF ettuc
mer cial
Ġsc orch
ingersn aps
Ġgumd rops
Ġc ast
Ġd ifferent
ĠP ap
Ġr ump
ĠF ive
ĠJo es
leph ant
c ross
t P
t he
Ġt rans
Ġsh oulder
Ġheat ing
ĠTo ffee
olog na
. .
i pp
Ġf ile
Ġa d
Ġegg plants
Ġre heat
ĠY ogurt
ĠMon te
s ert
Ġn ic
ĠD oll
Ġpit cher
l ight
an ese
eat h
ard s
ĠMo ck
ĠCorn ed
mel ted
Ġshoo ts
Ġtrans luc
Ġs ieve
ab el
ĠK ey
ĠBe ets
Ġbut ton
fry er
Ġlingu ini
Ġfran ks
Ġsaff ron
ĠCres cent
ĠRi bs
ĠMag ic
ĠMaz ola
Ġw il
ĠM ama
ĠA djust
Ġwater melon
me let
ond ue
ĠVegg ie
ello gg
aret to
Ġdeg ree
b ran
Ġto tal
Ġl oses
om et
ĠIn stant
Ġbottom s
iel d
Ġrun ning
Ġnic ely
Ġtransluc ent
Ġt ie
Ġmar ble
ĠIn sert
ll o
Ġpour ing
par ed
Ġput ting
ĠBr ussels
ĠCrab meat
Ġplac ing
ĠBas ic
h n
or iz
Ġmix es
tt y
ĠCongeal ed
d uty
l aw
Ġf ashion
Ġa ir
Ġd iluted
ue ur
Ġcom mercial
ĠTw o
Ġtenderiz er
ĠB ou
ĠCh ips
ĠL og
ĠG reek
ĠWh ole
ĠK ellogg
ĠCho pped
ĠLemon ade
ĠDiv inity
ĠCrisp ix
he aping
Ġh ens
Ġvari et
Ġspir al
S p
re w
ri z
ĠE ver
ĠTh in
ĠMon de
Ġhold s
Ġjulien ne
ĠSar an
ĠCand ied
Ġm ushy
at oni
iff on
Ġdel i
ĠEx cellent
~ )
Ġc oun
in der
Ġch ampagne
ap anese
Ġcrust y
ĠY ummy
ĠFl avor
ĠTwink ies
ĠHeal thy
1 9
t and
in ds
Ġd ate
Ġd redge
ĠS avor
ĠP oke
ĠT on
ĠE cl
ous and
ĠJo hn
ĠFin ely
ĠM ud
ch icken
iss cross
ĠAm aretto
pre fer
Ġcoun ter
a u
Ġt ear
es to
ĠB uns
ĠB uds
Ġsh aved
Ġgar den
ĠF our
ĠK id
rt eg
Ġprepar ing
Ġskew ers
season ed
b a
u el
ut es
ĠB ea
Ġse e
ĠIn to
Ġdes ire
Ġsc rape
Ch eddar
Ġnear ly
Ġes c
S ueur
c he
w ater
Ġ6 5
ĠH al
Ġdirec ts
ĠCur ry
orm ick
ĠLou is
4 0
R ice
i ous
y l
ĠP enn
Ġche ck
Ġtam ales
Ġstro kes
ĠSavor y
C ormick
Ġs or
ic al
Ġ5 00
ĠSh erbet
ĠTo st
Ġchunk ed
Ġcutter s
Ġburn er
Ġfettuc ini
ĠEcl air
M ix
Ġb ubble
Ġfl ounder
Ġh ocks
Ġsh akes
ĠHe arty
Ġdevil ed
hy llo
Ġbas ket
Ġlin ers
Ġp hyllo
Ġm ain
Ġg ive
ĠT am
ef ly
ĠTh ousand
Ġturn ips
ail able
ĠBre ast
af ing
ĠMexic orn
ĠC ow
Ġpkg s
Ġsc oops
Ġseal ed
ĠPl ay
ĠCrock er
Ġwra ppers
ĠFin ish
, \
T he
g round
Ġst rained
ath er
ĠTri ple
ĠMed ley
ĠLe Sueur
Ġclos ed
Ġt ip
ĠB ac
Ġover mix
ach os
ĠO rteg
ĠBr unch
ubb ed
Ġtw ist
ig n
ĠChew y
un e
ill y
ĠA mb
ress o
ĠJ ud
ĠMo isten
ens ter
row d
ĠMars ala
ĠApp etizers
Ġtes ted
Ġpear l
Ġmost accioli
ĠMu enster
Ġd r
ĠL o
edd ing
ĠJ apanese
Ġliqu or
ĠSw irl
Ġbre aking
ĠDog s
v ory
Ġsu p
Ġl ot
ĠL oos
Ġpre heat
Ġpo ck
Ġform ed
ĠFreez er
Ġbri efly
ros ia
Ġt akes
es tern
Ġd oll
Ġh ull
ĠGr its
Ġlim as
ĠTur tle
N ut
Ġ 75
in cluding
Ġout er
Ġpre cooked
ĠCur ried
ĠAmb rosia
Ġw e
ĠT arts
Ġre ally
iv al
Ġim p
Ġfinish ed
c ents
ĠP ort
Ġra ise
Ġfreez es
ĠPeach es
Ġgloss y
t C
Ġsa uc
ber g
Ġ9 0
Ġstrain er
Ġsup reme
U se
in ts
il ute
ĠP are
ĠH our
tt e
ĠV inegar
Ġwa ffle
Ġchill ies
ĠSw ans
Ġper for
ĠCont ains
Ġlim p
cr ust
Ġloos en
ĠSim ple
g ry
Ġsh o
ĠW on
em iah
add ock
ĠTre ats
in ter
Ġt ough
Ġd ent
ĠM or
ĠW ay
Ġse ts
ĠH om
av able
Ġchil d
ĠPre go
ĠN acho
par ation
Ġri g
ĠRo ck
ĠQu ik
ett i
Ġancho vy
ĠSam uel
v ies
ut ion
ro ut
ĠCh iffon
ĠW edding
ĠG umbo
uff ed
oun ce
uck y
oss om
ĠFl uffy
Ġgall ons
Ġbit ter
Ġrab bits
ĠOrteg a
x x
Ġingredien t
ur ch
Ġ30 3
Ġform ing
ark ling
az y
ett e
ĠOver night
Ġfettuc ine
Ġlog s
ĠRot el
acaroon s
e k
Ġch afing
am ous
ĠP ush
ash ed
ies ta
iss ipp
ition al
Ġtoss ed
ĠCup cakes
issipp i
d or
Ġ amon
Ġb ologna
Ġextr ac
ost on
Ġrot ary
Ġtriang le
ĠMiss issippi
t Bake
on t
un peeled
ĠT et
ch a
ĠSp am
ĠG ener
Ġal ready
Ġpre tty
Ġgl azed
Ġbec ause
w ell
Ġt e
Ġl abel
us ters
ra zz
ĠL ingu
Ġmash er
Ġsli vers
ĠHerb ed
Ġrab bit
ĠTet razz
c ress
d ay
Ġg iblets
ick el
Ġsw irl
uy ere
upper ware
Ġamon g
ĠTetrazz ini
y ellow
es ar
Ġ2 6
ĠP or
Ġun cover
Ġro w
Ġgl ut
ĠOn ce
Ġwor ms
ĠMilk y
ĠMc Cormick
ĠB oston
der ful
Ġsour dough
ĠG e
Ġz iti
ĠCl ose
ĠAltern ately
Ġancho vies
Ġdist rib
in ai
Ġs im
Ġ1 15
ĠS und
ĠP art
Ġfl owers
Ġsa vory
ĠD ried
ĠBoil ed
Ġsprink ling
Ġcryst als
Ġcit ron
Ġextrac ts
Ġp ier
Ġg ummy
ĠIn crease
air ly
Ġcongeal ed
Ġmicrow avable
ĠCa esar
Ġvariet y
Ġin ter
Ġd efrost
ĠS ch
Ġe ar
Ġcho pper
ĠE ar
gre tte
ĠGr uyere
Ġqu iche
Ġrig atoni
inai grette
u da
re m
Ġch utney
Ġd ep
ĠT art
Ġst ay
red o
Ġ4 6
ĠL adle
Ġapp ear
ĠBr isk
Ġhel p
whe els
B ro
d ried
ar row
Ġp al
ĠPre paration
ĠMin t
ĠBou quet
ĠTon y
ival ent
dor f
3 75
e el
f redo
Ġm ousse
al aya
Ġf ashioned
our met
lic es
ĠF ri
ĠL azy
ep eg
ĠWal dorf
lo ins
3 25
F ro
s k
Ġf airly
Ġn arrow
ush ed
ĠG oo
Ġpl enty
elve eta
amb alaya
Ġwra pped
ĠTri fle
Ġrub ber
ĠDoll ar
prefer ably
ĠLoos en
ĠSund ay
ĠBrisk et
am ble
ĠB ri
is ins
th is
ĠF iesta
ĠCook ed
ĠLet t
ump ern
iel ds
bro wn
% )
J ell
o id
Ġch olesterol
Ġst raw
Ġco b
O r
r itos
u f
ĠC ap
gh um
Ġgr ams
eget arian
Ġshap ed
umpern ickel
B e
h od
Ġl ift
ol ly
Ġwater cress
to gether
ĠW aff
ĠTh an
ĠBlack berry
ĠCal ico
ĠPral ines
Ġdent e
ĠS kin
igh ts
Ġse a
Ġstir red
amb led
Ġpr ick
Ġspri g
d rain
t ly
Ġm ound
re at
Ġe ating
Ġg ro
ĠT upperware
Ġst arter
ĠR ings
Ġco d
Ġcar bon
Ġus ual
ĠRe ub
Ġburn ing
ĠScr ub
ĠTam ale
ĠLett uce
Ġm g
th aw
Ġgrain s
ĠPer fect
ĠGener ously
z y
il af
ĠP ar
ĠR un
ĠCheese burger
ĠFro m
Ġkeep s
te in
ĠB erry
ol ution
Ġcol a
Ġscall ion
Ġmoder ately
O s
i ant
ĠB o
ĠT oll
ad am
Ġgr inder
ĠF amous
ĠDe bone
gar ian
le u
ĠT ie
ra pped
ĠR ound
ain t
eed s
ĠRe heat
Ġperfor ations
adam ia
r one
ĠP as
ĠP arboil
ĠW ish
ĠSt r
est rone
rop ical
ĠSk or
Ġris ing
7 0
Ġche w
Ġh addock
Ġcorn ers
ul t
Ġtender loins
ĠSh ould
izz as
ĠQu arter
ĠSc otch
Ġav ailable
ĠCl ass
ĠStick s
Ġcurl s
Ġp ri
Ġp ush
or ange
us el
Ġre heated
ag ed
Ġapp etizer
Ġverm outh
ĠBar rel
f ashioned
Ġe ight
Ġe lephant
if ied
ĠCo re
ĠK ings
io d
Ġcard amon
ĠJer emiah
ĠBea u
Ġcarbon ated
ĠReub en
ul ts
ĠSeason ing
Ġpart ly
Ġad v
v als
at ive
Ġch ar
ĠC alorie
ĠS ure
ĠB leu
ac os
ĠA v
Ġcream ing
Ġbe verage
ver ted
erm uda
Ġequ ivalent
. ,
er to
Ġm ounds
re usel
Ġ2 25
Ġl o
st rawber
ĠJ ambalaya
Ġsyrup y
Ġjell ed
ĠN iblets
Ġyou ng
ĠFruit cake
ĠB asil
Ġcr isscross
ĠR ib
ĠW ipe
Ġre qu
ĠF il
Ġ8 0
ĠWh ipped
Ġlow est
ĠCar ol
T o
am ate
ĠS esame
Ġh oliday
ĠF ast
Ġcenter s
Ġthrough out
Ġcrisp ly
Ġseal ing
ĠSm oked
St yle
Ġglut amate
Ġb ow
Ġto ffee
Ġd ab
ĠP ile
ĠM aple
Ġr anch
Ġtablespoon ful
ĠSnick erd
ĠLouis iana
i ves
Ġs olution
Ġb al
it as
ĠSt ack
Ġcup cakes
Ġapp etizers
Ġfry ers
lec t
ĠSour dough
cr ushed
ĠAn y
ĠHun gry
ĠHun garian
Ġwil ted
Ġsor ghum
k ay
u v
Ġp umpernickel
ĠC erto
ĠP arsley
ĠG et
sh ip
Cr isco
Ġdis app
c ini
g n
i ano
Ġf all
ĠB ermuda
ot tom
th a
ĠSp areribs
Ġbr ine
ĠAn n
ĠMed al
ĠTost itos
D i
M ex
Ġf ries
Ġfl oat
Ġst or
az el
Ġfold ing
Ġkeep ing
Ġlength s
Ġdiagon al
Ġfri end
ĠSnick ers
ĠMac adamia
b oy
c ery
k ins
ic ro
Ġa djust
Ġe mpty
ri p
ĠR os
ĠMix ed
Ġsoup y
ĠL ef
Ġpro tein
ĠPepper oni
ĠHam burg
oy u
w al
Ġe igh
est ive
ĠFl akes
ĠMe in
ĠDi et
with out
ĠCow boy
g y
Ġth umb
ĠF amily
qu ettes
sh ine
Ġal together
Ġk itchen
ĠJ an
ĠMo cha
ount ain
Ġav oid
bon eless
od ium
Ġpuff s
ĠPas o
l en
ĠC as
Ġ2 1
ĠP ier
ĠD rink
ĠV eal
ĠFrost ed
ĠKra ut
ĠWaff les
g i
Ġp atter
Ġw edge
ĠS lices
ge ts
Ġ4 75
Ġsp arkling
ĠL ift
ĠG uacamole
ĠG iant
Ġsl ushy
Ġspoon s
ĠNut ty
ort ant
Ġinter vals
Ġchew y
4 5
B one
S our
ĠS and
ĠB ob
un sweetened
ĠF ix
umb er
ĠL ittle
ĠO at
Ġthick er
Ġcomplet e
Ġpro d
ĠEng land
ĠGrand m
ug gets
Ġpatter n
a ith
g resso
k ing
Ġ ato
il a
ĠB ell
ĠT eriyaki
ĠG o
ĠJ ul
ĠMel ba
Ġde hydr
ĠStrawber ries
ĠSm ok
ĠBroil ed
ĠPr une
ĠCucumb ers
ĠGe or
Ġeigh ths
Ġato p
2 2
C al
m an
w ill
Ġc all
Ġh o
Ġsh oyu
Ġse ven
ĠL en
ĠL oaves
Ġsl it
os odium
pe pper
so dium
Ġallow ing
af ers
Ġtray s
imm y
pack ed
ĠClass ic
f in
ĠC ra
st ir
em p
Ġins ert
ĠAl fredo
ĠPu ppy
Ġbatch es
ĠPral ine
ĠPo or
ĠJud ges
Ġgro cery
2 3
u riz
ĠC oles
un beaten
uc key
ĠD r
im a
ĠCo pper
Ġfreez ing
ĠSho epeg
be ef
Fro m
uriz ed
ĠColes law
r us
Ġs ouffle
Ġp enne
ĠB uff
ĠCh unk
ĠW afers
ĠE ach
Ġice berg
ĠCorn ish
ib ut
ĠSu ey
Ġcav ity
a x
o vers
Ġs omet
Ġb ird
is ter
ĠH i
ent ucky
Ġpack aged
ĠGr an
ĠCl ub
ah ini
St ir
ĠSnickerd oodles
S weet
c innamon
r ich
and a
el ow
am om
ĠP ic
ĠP ers
Ġsh aking
ach ine
ĠU p
Ġgran ola
ĠCl usters
ĠTang y
Ġmon osodium
Ġbur ger
ĠPart ially
thaw ed
b ake
m ade
Ġ ??
Ġc oll
Ġt en
ut h
ĠB ig
ĠW il
act ing
Ġlayer ed
Ġbr ick
sc ant
ĠSteak s
Ġdust ed
ĠPap rika
\ \
Ġ .
Ġa while
Ġg u
is ts
ĠM ountain
Ġst one
ĠRep lace
ĠPick le
Ġfollow ed
ret ch
Ġpri or
s uch
y ed
Ġ1 50
Ġt rout
th in
Ġwh at
ĠH umm
ĠMo ist
Ġpaste urized
ĠRo ad
ĠDough nuts
Ġfit ting
ĠPin wheels
ĠPor cup
Ġadv ance
Ġs ack
Ġsu per
ri ght
ast ed
ars ely
Ġ13 0
elat in
ĠDe an
att ice
Ġdoll op
ossom s
uc y
ĠR aw
ĠCh ach
ĠD own
Ġco le
ĠSt arter
ĠH el
ĠG ourmet
ĠK entucky
ĠTh ank
ĠY ork
Ġpo ints
ĠQu es
Ġplum s
Ġcard amom
ĠMor ton
Ġdefrost ed
Ġbal ance
gn ac
f oil
k y
Ġb ra
Ġf unnel
Ġw atch
ĠT astes
ab obs
ĠF ree
ĠStir ring
av ily
ĠJ immy
mix ed
Ġchild ren
g r
Ġ 0
ĠB ites
Ġbutter y
Ġh ome
ad ine
Ġsa ut
ĠCh ile
ĠD rops
Ġjell ied
ee k
ĠMar tha
Ch o
ron icles
rit o
Ġres ults
ĠKid s
Ġpock et
Ġrow s
Ġ?? ?
b b
h o
h ol
Ġb uds
al o
le e
Ġsp ace
Ġsp ecial
Ġbl ocks
ĠO melet
ĠFill ed
ocad o
Ġbrush ing
ĠRock y
ĠEar th
P ineapple
c alorie
f ine
f tened
l ightly
Ġb undt
Ġch owder
ing ton
ĠB ord
ĠCh ronicles
ĠE d
ĠJ oy
ĠSl ightly
ĠPro gresso
a ver
e uv
u gs
Ġo kay
Ġt r
Ġm al
Ġin crease
el le
Ġd uck
Ġegg nog
om m
Ġco ats
ress ed
Ġmelt ing
ĠMar garine
Ġrep lace
ĠPretz els
ĠShort cake
s er
v al
ĠB aby
ĠP ilaf
Ġflour s
Ġj igg
ip ing
ĠF ingers
ee bler
Ġbut t
Ġmarin ara
mix ture
Ġlit ers
Ġsauc es
ĠHom iny
Ġdehydr ated
ĠCra zy
Ġmal let
a que
c heese
i ato
Ġt astes
at zo
il ar
Ġf aith
Ġg ingersnaps
ĠB ag
ĠM ade
ra d
ell en
Ġth inner
ĠF inger
ĠF ashion
Ġal ways
Ġother s
Ġclos ely
ĠChach ere
m ushroom
Ġp arboil
Ġin c
Ġg el
ĠB ing
ack y
Ġco gnac
Ġju g
qu ef
butter ed
ĠShort bread
Ġsaff lower
Ġdr um
Bro ccoli
iato re
c al
y n
Ġp esto
ĠC rawfish
Ġsu et
un che
ĠR ellen
umb ers
Ġench iladas
ĠJo e
Ġoverb eat
ĠShred ded
Ġjack ets
Ġscorch ing
Ġesc ape
ĠHal ve
ĠLingu ine
ĠAv ocado
d ew
t ain
v anilla
Ġp ouch
le g
ĠP im
ien ce
ĠK iss
10 5
ĠSc ore
so ftened
ĠSugar less
Ġop aque
ĠTw ist
ĠPer r
ĠWatch ers
Ġcontinu ously
b ble
t ime
Ġt asty
Ġm em
ĠB ourbon
qu ake
ass ail
op ed
co hol
ĠSnack s
ĠInd ian
wal nuts
E yed
Y ields
d epending
s ee
Ġb elow
en e
ĠC acc
ĠS liced
Ġv ary
us c
Ġse ams
ep s
Ġhe avily
Ġpick led
Ġtub es
Ġgarnish ed
Ġac id
ĠSun shine
ĠTender loin
ĠBord en
ĠPerr ins
d y
Ġ els
es h
Ġl attice
Ġfl ute
Ġv elveeta
col ored
qu ila
ĠK eebler
Ġpack s
Ġpeel ing
arin a
Ġcres cents
4 8
O T
i ut
an a
Ġp iping
Ġf ondue
ĠC arb
ak en
is ed
ad ian
ĠF ant
ĠSp ring
ĠH ard
ĠH alf
ars n
Ġsl ush
ĠBl ond
ĠBe gin
Ġdirec tly
Ġhoney dew
sc iut
Ġcereal s
Ġtow ard
Ġmon th
ĠCas hew
Ġels e
1 00
p ie
in ess
ĠB one
Ġv eg
Ġcheese cake
Ġor zo
Ġst ream
Ġsh iny
qu id
ĠSt reusel
ĠG elatin
ĠCo arsely
Ġremain s
ĠE ye
Ġhe art
Ġsm ok
ĠAr m
Ġeat en
ĠSec ure
ĠWa it
unche on
' re
n ic
p ineapple
Ġf e
gar nish
ĠS ix
ĠA head
ĠW assail
ough t
ĠE aster
ĠWor ld
amp i
ah um
epend s
ĠWal nuts
Ġlee k
ĠThin ly
ĠEarth quake
quef ort
N ot
s kin
in ute
Ġf ancy
or tening
Ġn eck
ĠSp onge
Ġse ems
ap ed
ĠL arge
Ġbread s
ĠE v
ĠGr ated
ĠRo quefort
bl ack
Ġindivid ually
ĠSouth w
Ġimp ortant
ĠGoo ey
ĠGrandm other
E asy
e ach
y es
Ġt aking
Ġw ere
ĠL amb
ĠH oll
Ġthicken ing
Ġbre w
ĠDe er
cho colate
Ġtin foil
ĠPl um
Ġpull s
ĠCacc iatore
c rew
an ger
Ġf eed
Ġa corn
ĠT ropical
Ġgre n
ĠR ap
ĠD anish
Ġju icy
ĠF estive
Ġmeat y
ĠE nd
ĠDel ights
ĠEgg nog
ĠBur ger
bro ccoli
Ġsecure ly
sciut to
G reat
R a
W h
t w
Ġs lee
Ġp arch
Ġl unch
ĠD efrost
ĠW estern
Ġk inds
ks crew
co al
ĠJ ew
Ġqu ant
ĠCan adian
aff y
Ġrot ating
ĠScr amble
Ġscr ambled
ĠPenn ies
ĠFri end
ĠLef tover
Ġprod uc
A l
a ire
m ate
Ġd ra
Ġpe t
gg y
ĠM ore
Ġso le
ff les
ĠN ab
Ġice box
Ġsc iss
ud e
ĠBanan as
Ġconcentr ated
Ġpop s
Ġgo es
Ġsim ilar
rem ove
sk im
ĠGran ola
2 6
Ġin t
all ow
Ġcr unch
ĠCh ar
ĠL obster
na pper
ĠE sc
Ġwa it
Ġgl ue
Ġstal e
aj itas
ond on
ĠSwans on
ĠBri e
ĠStr ata
and ing
ĠP reserves
ĠT asty
ĠM ound
col ator
Ġ12 0
ent he
ĠSa ucy
Ġli ber
Ġwa ffles
ĠBe et
Ġchill i
ĠSc atter
ĠSc ampi
Ġprefer ably
Ġtouch ing
ĠMan icotti
ĠRib bon
Ġgren adine
A pple
f a
p art
an ted
Ġp uffy
Ġm ill
Ġm achine
Ġst ar
ch erry
Ġsp onge
asser oles
sh arp
Ġex act
Ġpap ers
Ġturn ip
Ġpo d
Ġshall ot
ĠSo y
app les
Ġreach ed
Ġsw iss
ĠShe ph
Ġscr ubbed
Ġdistrib ute
Ġdisapp ears
\ .
p r
Ġs izz
Ġm aker
sp ace
sp ray
le ase
ĠB uckey
Ġh oriz
ip es
ur st
ĠH ill
Ġex cellent
ĠE sp
Ġtender ness
ĠN ahum
Ġfin d
ĠCho ice
og en
und les
ĠCon densed
stit ute
ĠMuff in
Ġgrill ed
Ch icken
ĠMold ed
gin al
Ġhull ed
ĠRap id
O ne
n er
Ġp arsn
le ave
ĠT own
.) .
amon d
ĠL ondon
Ġdrain ing
ĠG all
ĠMo st
Ġany thing
ĠCan ned
Ġkn ives
ĠPro sciutto
Ġbeater s
ogen ized
) *
B utter
M o
R ise
b ird
Ġt ahini
Ġf alls
ĠC ereal
Ġfl uted
Ġun pared
Ġ5 7
ash ell
anan a
ĠY ams
Ġhead space
Ġcur ly
ĠBis que
Ġbr ittle
ĠMin ts
Ġequal s
ĠIm per
Ġte quila
Ġsciss ors
G ood
b aking
t S
Ġt ong
Ġm atzo
ĠB un
ĠP aul
ĠP icante
ĠP izzas
Ġle g
ĠR abb
ĠG ingersnaps
ore n
iz es
ĠN achos
ĠPet e
Ġster ile
It alian
Ġmem bran
3 5
A pp
L ayer
g ot
i or
m m
Ġm ussels
re ts
on ion
Ġw inter
ing bird
ĠP rim
un baked
ĠT acos
ri pe
ĠD ew
im p
ĠF ull
ĠF ondue
Ġcher vil
Qu ick
ĠWash ington
Ġwon ton
Ġear ly
Ġpal m
strawber ry
ĠNab isco
ĠSheph erd
ĠRabb it
c on
e er
e en
Ġc asseroles
Ġm l
il ver
ic le
ic ally
is ters
ĠM acaroons
ĠCh ipped
mon ia
st anding
ves t
ĠG en
Ġx xx
Ġli king
ĠN umbers
ĠN OT
Ġen rich
Ġcom ino
Ġneed s
Ġcor kscrew
ĠPh illy
ĠTw in
ĠCol ada
Ġopen ing
ĠAm ish
ĠPin to
Ġdep th
Ġchar coal
euv res
O range
b eat
f ir
g ers
k eep
w ick
w rap
w urst
Ġt ry
ĠC av
ĠB us
ĠB its
ĠP ass
Ġh azel
Ġsh elf
Ġso ap
ef in
ĠSt ep
ĠH ay
ĠH ollow
ĠE leg
Ġcolor s
other ed
ĠFl oat
ĠSc ones
Ġprefer ence
ĠWa fer
ĠWe ight
Ġfile ts
Di abetic
ĠPers immon
ĠHumm ingbird
ĠImper ial
e ady
f ried
w heat
Ġc ould
Ġs ink
Ġ2 9
ĠS ub
Ġpe ek
ĠP ina
ac es
ĠM em
Ġun mold
ĠA d
ĠR ye
ĠCh uck
ack s
im um
ĠL ima
end ed
ĠV inaigrette
Ġthick ly
Ġam monia
Ġcauliflower ets
uns wick
Ġknead ing
Ġabsorb ent
ĠTort ellini
ĠBur ritos
clu ded
ĠStart ing
ĠLi ver
ĠJul i
t Stir
er ne
Ġw ing
Ġw he
ĠB arb
ĠP ace
ch ange
Ġsh aker
ĠL ite
Ġpec k
Ġpat ience
Ġins ides
ĠRa isins
ĠCro quettes
pec ially
Ġcombin ing
ĠChew s
au gh
ont ally
Ġcall ed
anda ise
Ġenrich ed
B l
S h
a o
f etti
g ed
s et
v it
es ts
Ġp res
le mon
ĠS mall
ĠS ue
Ġe ye
Ġh us
ĠD uring
Ġre g
Ġro ck
Ġhal ibut
Ġup right
tr act
ĠBr unswick
ĠSeason ed
Ġpart ies
Ġper iod
ĠRom a
Ġdeve in
!! !
Ġman uf
tP our
Ġint act
O n
g ur
i ger
l ap
Ġch urn
Ġd ilute
ĠM orning
Ġst eel
ĠCh ampagne
Ġcon verted
Ġpl ant
Ġpl ump
Ġagain st
Ġflat tened
ĠMin ce
ĠToast ed
Ġhom ogenized
ĠFran ks
Ġequ ally
ĠPier ce
ĠLen til
aver a
got ten
Ġmanuf act
b ons
h er
Ġm ug
Ġin cluded
ĠC rowd
it ely
ĠB ush
is bury
ĠT sp
ĠT affy
Ġst retch
Ġcr isco
Ġsa ved
av a
ĠSal isbury
ĠCorn meal
Ġkid s
ĠFor gotten
Ġqu ail
ĠPean uts
Ġind ent
Ġdel ic
Ġmeas ured
ĠPowder ed
ĠRellen os
Ġparch ment
Ġhoriz ontally
ĠJuli us
Ġmanufact ur
3 00
g l
g ent
i ke
p ut
ar ro
Ġp ale
al ity
and el
ĠB irds
ow s
Ġst re
Ġn achos
Ġgr oup
ĠH old
ĠCool er
ĠJ ar
Ġpour ed
Ġdes ign
alor ies
ĠScall ops
ĠTw ice
Ġrun ny
ĠStick y
Ġjulien ned
ĠRapid Rise
efin itely
vit ic
4 00
S w
g rain
Ġc rowd
Ġt uck
il le
re ath
Ġch oriz
ĠB ottom
Ġh ouse
Ġn umber
ĠD ole
Ġr icotta
ĠSt and
Ġsm ashed
ĠPe ople
ĠMeat ball
ang ing
ĠMin utes
ĠMin estrone
ĠOri ginal
ĠBon n
ĠBuff alo
ĠHoll andaise
ĠPrim avera
vitic us
n ier
t ine
Ġo melet
Ġch oose
Ġw anted
Ġd ec
Ġl imes
Ġv e
ĠCh est
ĠW ieners
col d
Ġsp ins
Ġthick est
Ġdri p
Ġris es
ĠHo bo
ĠHar vest
ĠWon derful
ĠFil lets
- -
b ack
d iced
s to
u ke
Ġf un
Ġf if
ĠC alories
Ġfl ip
ĠT ry
ĠR eal
ĠD ilute
ĠW acky
ĠH a
est ring
ĠFl ip
Ġstem med
ĠGl or
Ġsteam ing
ĠMar nier
Ġdecor ation
Ġfast en
Ġskew er
ĠFettuc cine
.. .
ĠSmok ies
Cho colate
Ġexact ly
M inute
P ec
e ver
p owder
w rapped
Ġm outh
ĠB ut
ĠB av
ad o
Ġfor ks
ĠF ries
Ġsweet en
Ġsalad s
iscuit s
Ġcontain ing
uck le
Ġtw ists
ĠSe lect
Ġend ive
ĠMin cemeat
Ġac ini
Ġunder standing
Pot ato
ĠFrit o
ĠTre at
Ġcontinu ing
len da
Ġdrum sticks
Ġproduc t
Ġliber ally
Ġhazel nuts
Pec an
V ery
b atter
t Mix
Ġs at
Ġch ange
ĠC it
ĠC ord
Ġl a
Ġfl esh
ve get
ĠR ain
Ġwh ere
Ġse ashell
Ġcrumb les
ĠJ u
ĠY our
ĠButter cream
ail y
Ġflower pot
Ġwork ing
ĠCol or
Ġslee ve
Ġparsn ips
6 0
c er
t R
Ġo val
Ġf rench
it ies
Ġg as
Ġbro ad
ĠR uth
ab l
ĠF oil
ĠSt raw
ole o
ĠL ush
Ġcon es
Ġser ves
ĠO ut
Ġstand s
ĠCar ne
ĠRo y
Ġhand fuls
ng th
ĠFl oren
Ġbroil ed
Ġind efinitely
ĠCat fish
ĠRot ate
ĠMillion aire
ĠSaut erne
ĠBav arian
B atter
C orn
c ous
h ing
i ar
l on
o pped
Ġd aily
Ġr ubbed
if orm
Ġapp ears
ĠCream ettes
ĠTh ins
Ġtub s
ĠSm othered
Ġhamburg ers
Ġkind ness
Ġes pecially
Ġdist illed
ĠArm our
Ġmanufactur er
a is
h ard
l er
s ter
Ġf ound
Ġe yes
Ġl augh
ac ao
ĠM arb
ri ps
Ġj un
Ġj oin
st uffed
ef ish
op e
os ition
ĠK ielbasa
Ġfin al
Ġde ter
Ġpart icles
Ġherb ed
ĠHay st
' ll
Ġc our
Ġt aken
Ġp rop
Ġm ot
Ġto st
ĠS uc
Ġun iform
id a
ĠL or
ĠSaute ed
ous cous
sa iah
Ġcann er
Ġjelly roll
Ġbroil ing
Ġback fin
ĠPan cake
Ġget ting
Ġcas ing
ath y
Ġscrap ed
Ġwon derful
ĠPorcup ine
gr ated
fa it
in ce
Ġm acaroons
ĠC ry
or p
or der
Ġl ose
ol f
Ġh um
im ent
ĠH ome
ĠK abobs
12 0
Ġdi ppers
Ġfil o
Ġdiscard ing
ĠOys ters
ĠPim ento
ĠEleg ant
C ream
S ugar
m ber
Ġp aint
Ġm ine
as ts
Ġe ff
to ps
ĠD eath
col or
ĠSp lenda
ĠI da
ress ion
Ġcover s
ĠIt al
reez e
Ġper colator
eath er
Ġpier ced
Ġho isin
rad itional
Ġbrew ed
ĠCit rus
M ar
R itz
i pping
es is
il t
Ġg in
Ġsalt y
ĠP ops
ĠP esto
Ġfl u
ĠT en
ill ing
Ġsh a
ien t
ĠF ig
ĠF ancy
Ġk iss
ĠTh row
Ġevapor ates
ĠMon ster
wh ich
Ġskim med
Ġbul gur
ib b
Ġgo ing
round ed
pre pared
Ġrequ ired
ĠBuckey es
g ian
i ra
Ġs ilk
Ġm enthe
ic a
Ġ2 7
Ġd irt
ĠS ome
ac ing
ĠM aster
Ġth row
Ġso ggy
ĠCh erries
ĠD O
Ġr inds
ĠW edges
ĠF unnel
ap es
ough y
Ġk ale
ĠK risp
ĠV irgin
Ġpick ed
St uffed
ĠChunk y
ĠRain bow
Ġsha vings
" )
d own
n old
v ioli
Ġs napper
Ġb is
pp os
ĠC or
Ġ3 70
ĠP ig
Ġv egetarian
Ġst eep
Ġsa fe
ĠW inter
ĠSp eed
Ġra violi
ĠV er
Ġpeel s
Ġcontain s
ke ts
Ġsc ore
Ġpick s
ĠDo zen
fl ake
cl ude
ĠTot al
ĠJer ky
ĠGeor g
Ġfif th
C l
G r
k i
m in
Ġs izes
an ks
le ans
or es
Ġsalt s
Ġv ent
up s
Ġr are
ĠF ajitas
Ġse m
ĠH ors
ĠV egetarian
Ġup on
ĠBl ender
ĠTh at
Ġhand ling
ild ren
ĠCon fetti
Ser ve
Ġbris k
ĠEx tra
ĠGraham s
Ġmet hod
ĠTr iscuits
Ġhollow ed
Ġparboil ed
Ra isin
ĠFriend ship
Ġflu id
B aked
f old
t i
t or
Ġm atch
Ġsu ey
oo t
ĠT akes
ra Sweet
ir rel
ĠCh olesterol
im an
ĠF ud
ber t
me mber
ĠPe ek
Ġbag els
Ġturn ed
Ġpro ced
ĠSweet ened
Ġtri fle
ĠBar ley
ĠWork ing
Ġthread s
Ġsho estring
ĠCord on
a gg
b ook
g ran
i as
p acho
ro ck
as ing
Ġsugar ed
Ġg old
Ġl uncheon
ĠB ubble
ĠM ust
ra ps
to se
um e
Ġsp iced
ĠL ily
sh aped
em ble
Ġex p
ĠO ther
Ġcann ellini
az pacho
ĠOr leans
Ġrese m
ĠDill y
ĠCarol ina
ĠQues o
ĠEv ans
abl is
ĠFloren tine
F rench
H igh
M ake
b ut
c us
h an
s on
t ou
w ood
Ġs om
Ġm icro
Ġf ruc
ĠC rispies
Ġg ent
Ġpe pe
Ġv inaigrette
ĠW et
Ġsp l
Ġbread sticks
Ġal one
Ġtender s
ĠN uggets
ĠSh erry
Ġstand ing
ĠBr ick
ĠSl it
ĠFrost y
ĠNe iman
Ġbur gers
Ġdecor ative
ĠSun da
Ġomit ting
ĠLi ke
hydr ate
Ġwe ight
ĠBlond e
ĠJew ish
Ġstre ngth
veget able
ĠGeorg ia
Ġproced ure
Ġfruc tose
V egetab
p let
ar ole
Ġb ush
Ġp ol
re ak
ĠM ull
ra ight
ien er
ĠG azpacho
Ġcar e
ĠCover ed
ĠO le
ĠE very
Ġpre v
ĠButter nut
pl us
Ġtowel ing
Ġwhisk ing
ĠSec rets
Ġquant ity
ĠStraw s
ĠSpeed y
E gg
b ite
l in
n am
p opped
Ġw id
as ant
it o
Ġg oose
Ġl adle
ĠP arm
Ġfl uff
ĠM am
Ġsauce pot
ĠCh ablis
Ġcorn er
ach er
ĠSer ving
ĠO w
Ġpudding s
ĠV ien
Ġspread able
ĠTo pped
Ġim pro
ĠUn wrap
ĠCl ou
aj ita
Ġbas ic
Ġsection ed
ĠBon bons
ĠCres cents
ĠTart ar
gi ving
Ġsomet imes
Ġreg isters
; \
and s
ro ot
Ġsu ff
Ġd epends
Ġg izz
Ġl ye
ĠB el
ĠT ap
Ġst op
Ġsh ot
Ġth ing
Ġmar k
Ġr ather
Ġal cohol
Ġsl ab
ĠO wn
est yle
ĠBl ossoms
ĠN illa
Ġcons ider
ĠCrisp s
ĠSteam ed
ĠSmooth ie
Ġpier ce
Ġcoll ard
spray ed
ĠHayst acks
orp or
Ġresem ble
l t
l ayer
l ite
s lightly
v ard
Ġ =
sp rinkle
Ġg ame
ch i
Ġcan e
ĠR ey
ven der
Ġro pe
Ġal f
Ġex change
ĠO regano
ĠE tou
ew h
ĠSc rip
ĠNut raSweet
uch en
Ġsteam er
Ġprun e
ĠHell o
alf a
ĠLe viticus
Ġpine apples
Cr ust
ĠHar vard
ĠJohn ny
Ġxxx x
ĠItal iano
ĠVirgin ia
1 10
B ri
m akes
w arm
Ġ read
Ġm ult
at el
ou ille
Ġf rit
am ount
ĠP ate
Ġmin us
ĠR ose
Ġhot ter
Ġcrack s
co ated
ĠBl anch
ĠN og
ĠGr am
Ġpound ed
ĠNut meg
ĠTort illas
Ġvegg ie
ĠPl ain
ib by
acc ording
Ġfinger t
Ġ23 4
ĠBra z
ĠRos emary
Ġtong s
ĠBus y
sto ck
Ġlaugh ter
ĠRey nold
Ġalf alfa
ĠScrip ture
A merican
r ano
t D
Ġc ouscous
Ġt ines
Ġm ush
Ġm ight
Ġf ix
Ġf ig
ro of
ter y
is weet
Ġun roll
Ġmin ce
red ded
Ġwh iz
ack er
ĠSt ring
ĠI saiah
Ġbeef y
sh ould
ĠJ if
ĠTh ere
Ġginger bread
ĠFruit y
Ġhard ens
Ġpro of
ĠBeef y
for t
Ġgrill ing
Ġscal d
Ġwra pper
ĠMini ature
Ġholiday s
ser ving
ĠMost accioli
D on
L ime
a fter
c ub
m ake
p ound
s m
t Sp
Ġo b
Ġo ur
am els
ĠB oy
Ġfl o
ĠM icro
Ġst ep
Ġcr imp
ĠD ark
Ġdry ing
Ġdough nuts
Ġdough nut
ĠRoll ed
Ġdi amond
ĠFin ally
Ġbur rito
Ġtam ari
Ġinc orpor
Ġchoriz o
P e
p ly
Ġb uck
Ġp li
on z
le af
it an
ac ed
us ed
ook s
ab ag
Ġbo dy
ef lon
ap er
ach es
ĠG u
Ġare a
Ġq ts
ĠButter ed
Ġspoon ing
Ġhand led
Ġpinch ing
Ġrec ipes
Ġstock pot
Ġuns liced
Ġne ver
ug u
ĠMan wich
ĠThan ks
Ġstor age
App etizer
ĠCry st
Ġeff ect
ĠOw ens
ĠBraz il
ĠReynold s
( "
I nch
O euvres
c a
Ġ iced
Ġs ilver
Ġt ied
Ġb u
Ġb uy
re al
or iginal
Ġa j
ĠB B
ĠCh utney
ĠD ad
ven ess
ĠL ove
ĠL ee
Ġab le
ĠO R
ĠE lephant
Ġpl ay
ĠBl an
Ġlett ing
Ġgl oves
ĠCorn ing
ĠFruit ed
ĠFl ank
ĠGre ens
ĠSweet en
ĠUn baked
egg s
Ġdoub les
Ġdel uxe
ĠMar gar
Ġcirc ular
Cook ies
ĠFettuc ini
Ġpock ets
ĠSouthw estern
Ġindent ation
ĠHa ppy
Mar cus
Cl ub
Ġsem isweet
ĠParm ig
Ġsuff ic
ĠEtou ffee
ugu ese
ĠThanks giving
Y ield
d eep
l ers
s oup
Ġo ppos
Ġb ought
es law
Ġm ugs
Ġch anges
ĠB ill
ĠB udd
Ġmin estrone
Ġst raight
ver ly
um n
ĠD uck
ĠF un
ĠN ana
Ġtab asco
Ġri p
Ġcrab s
Ġqu ality
ĠCon go
ĠCrumb s
Ġfil et
Ġcryst all
Ġcre pes
ĠJan e
ĠHel en
ĠFant asy
Ġdeter gent
Ġsom ewh
Ġgizz ards
P am
S a
s our
s qu
Ġp urch
on ly
gar lic
ĠS ilk
ĠT ips
ĠM ark
ra ine
all on
ĠL in
ĠH and
Ġcon ven
Ġk ing
ĠN on
issol ved
ĠSh oo
Ġcol eslaw
Ġsc rew
Ġ16 0
Ġbring ing
ĠQuick ie
Ġsn ap
ĠDri bble
Ġstack s
ĠCom plet
Ġdamp ened
ĠBra ised
usc ious
tw o
ĠGen esis
ĠIda ho
' ve
a ur
g allon
z e
un ks
Ġst ain
Ġn uggets
ĠR ounds
ur ry
ĠF ool
ĠSt rips
ĠG od
Ġcar ob
ard i
Ġcrack lings
Ġcl ing
ĠE venly
ĠK et
Ġen cl
ĠSh ortening
Ġbag el
ĠCar amels
Ġpinch es
ĠFl or
ĠBrand y
ĠUn der
ĠPl an
ĠPl us
ĠAlmon ds
Ġesc arole
gi veness
eps i
ĠSub stitute
gl ass
ĠGlor ified
ĠLor raine
Ġbrisk ly
Ġgent le
ĠSunda e
Bri en
Ġpli able
ĠBB Q
C rock
Y um
_ _
f ollow
s ifted
Ġt end
ar ing
ut abag
ĠB our
ĠP epsi
Ġv ol
Ġun wrapped
Ġmin s
Ġmin imum
uc ks
Ġsh anks
Ġso aking
ĠW el
im ate
ĠSt ar
ĠL ibby
ars hmallow
ff e
Ġhal ve
Ġsmooth ly
sc ar
Ġrec omm
Ġfold ed
Ġper fect
Ġgrain y
Ġfit ted
ord fish
ĠOp tional
ĠDirt y
ĠChew ies
Ġdecor ating
yl v
Ġpal ms
Be ef
ĠBo x
ĠHamburg ers
ĠMade ira
Ġfe et
pr int
Ġjun ior
Ġsomewh at
p our
r at
Ġ Q
Ġc ase
Ġc ured
al mon
sp ic
ĠA ut
all oped
Ġst eady
ch atel
ĠCh ildren
ĠF it
ĠH orseradish
Ġsl ight
ĠO ats
ĠY am
ĠCho co
oss um
ĠAl a
Ġscal ding
Ġfrost ed
Ġstring s
be an
Ġjigg er
Ġmembran e
ĠMem ber
ĠBonn et
ĠRoy al
Vegetab le
ĠClou d
Ġoppos ite
H e
h al
i ber
m ly
Ġt on
ou ff
sp read
le vel
ĠP aint
ĠT eflon
Ġbutter f
ĠM ounds
Ġcho pping
Ġn or
Ġat t
Ġth ose
ĠCh i
ĠL uscious
ĠG ri
sh ake
ant a
ĠO scar
ĠJ ean
ĠBrown s
row root
ĠStew ed
ĠCrush ed
ĠVegg ies
Ġhel ps
Ġsauc er
Ġdistrib uted
Ġconsider ation
Ġvol ume
C ool
C oc
D uncan
F ly
O ld
R ec
U n
b anana
d ark
u ra
ut ure
ro l
Ġ3 8
ĠB undles
Ġh a
ra isins
ch we
Ġth ink
ĠD olly
Ġ6 4
Ġdish pan
ĠE ven
Ġsqu irrel
fection ers
Ġacc om
Ġhard ened
ĠPepper mint
ĠUn cooked
amp le
Ġdro pping
for d
uns alted
uns chwe
ĠPl ant
pec ted
Ġ23 8
ĠButterf ingers
Ġbri ght
omet imes
Ġ26 0
uf chatel
ĠPic nic
Not e
Pe pper
Ġstain less
unschwe iger
) (
3 1
B ean
P re
b led
c ks
l uck
m o
m ini
t to
Ġc amp
an ia
at i
Ġw ipe
ĠC enter
ĠB ak
ĠP it
ion eer
ĠT ra
ra spberry
ri f
Ġn ine
Ġr oughy
ĠIn n
ĠJ umbo
Ġar rowroot
Ġ24 0
reser ving
ĠAl as
Ġsubstit utes
Ġsift ing
crumb led
ĠDon uts
ĠCre pes
Ġgo at
ĠCom stock
ĠSnow balls
cream y
flour ed
Mex ican
Ġveg ies
Ġspl ash
ĠTap ioca
ĠCryst al
! ).
. ;
W ith
t B
Ġc acao
Ġp ray
on a
Ġf uture
ĠC ola
ĠS ex
ĠP ita
ill i
ĠA ss
to sh
ĠW yl
Ġju iced
ers ion
if ter
Ġwhit efish
sh redded
resh ing
Ġit alian
Ġcont rol
Ġbou quet
Ġprepar ation
Ġcro iss
ist rib
ĠCl oves
ĠPop overs
ĠLast ly
ĠWa verly
ĠFran k
ĠTwink ie
Ġsomet hing
Ġhus ks
andel ion
ĠParmig iana
Coc onut
Rec ipe
e ither
g an
h ouse
u es
Ġ1 10
Ġm iracle
Ġf ace
ĠS ens
ix ie
ch uck
om a
Ġsh ank
Ġbak es
wn s
id s
Ġbl ossoms
sh ell
Ġcl aw
ey e
Ġpap aya
ĠN ectar
Ġsoy a
Ġchest nut
ĠTo fu
Ġcomp ressed
ĠGre y
ĠSm ash
Ġrot elle
Ġdecor ations
Ġomit ted
ĠLingu ini
ĠGeor ge
Ġgu ests
ĠHill shire
Ġcour se
gran ulated
lt imate
ĠKet chup
ĠGri ff
G l
w d
Ġc al
il s
ĠC le
Ġd red
Ġg olf
ĠP ioneer
ĠT arragon
Ġun popped
Ġover lap
ĠCh urch
ĠL ady
ĠG ather
ĠK u
ĠK uchen
ĠN ice
ĠN ight
Ġsc atter
Ġsec ret
ĠSe ar
irt y
Ġits elf
umm ettes
ĠAm os
ĠSec ret
Ġscr amble
rec t
Ġcre ate
riz e
Ġcounter top
Ġdelic ately
ĠMull ed
Ġfingert ips
ĠFlor ida
istrib ute
C auliflower
E agle
O p
b r
m ust
Ġ rain
Ġs ac
er o
Ġt ater
Ġb ud
Ġp u
Ġp ic
Ġm ic
Ġm ess
ut ing
ĠC ast
as i
it al
ĠS op
ĠP ri
ĠP ur
ĠA spic
Ġst uck
ver bs
ell y
ĠR est
im in
arm alade
ĠWh irl
rink les
ies t
we gian
Ġex ten
ĠE as
Ġz ip
Ġchill ing
ce an
ĠU ltimate
Ġstand ard
ĠCho y
Ġcol ada
ĠGr ass
ext ra
ĠSto p
Ġscall oped
Ġcrock pot
do bo
ty pe
Ġgi ves
Ġbit ters
ĠWheat ies
ĠStro mb
ĠScr ambled
ĠLi quid
Ġrib bon
ĠTr ash
ĠTr uff
Ġpersimmon s
ĠKid ney
ĠEsc alloped
ĠMarb le
Ġbush el
Ġsuffic ient
. '
E x
G ar
a ut
n eck
r ami
Ġb irds
Ġp en
Ġf ur
it ting
Ġa verage
ĠS anta
ĠB ark
ĠM armalade
Ġun seasoned
Ġh ad
Ġh ope
ĠA le
Ġpepper on
ri a
om an
Ġgre asing
ĠD istribute
ĠW ind
Ġsp ots
ĠF le
ĠSp ry
Ġis n
ore an
li quid
let t
Ġan g
ĠPre p
ĠN ature
Ġfin ally
ĠY ear
Ġother wise
rop roof
ĠBread ed
Ġaddition s
Ġhigh est
ĠCan apes
stit uted
ys tery
Ġcaramel ized
ĠRe ally
ĠCrust less
ĠGl ass
add ed
Ser vings
ĠRuss et
Ġshort bread
Ġbur ritos
bro ken
ĠSnick er
Ġcryst al
Ġcontin ually
whe el
Ġmango es
ĠChar l
arro ts
Ġprop er
ĠBrick le
Ġmic roproof
D el
I da
J ack
L et
b el
i ppy
l ins
m y
n on
Ġs and
Ġs ifter
Ġt acos
Ġp izzas
en ted
Ġf eel
Ġto ts
ĠS in
ĠS ol
ĠS ize
Ġg her
ĠP res
ĠP rize
un covered
Ġmin ts
all ions
Ġfor giveness
th ick
ie v
Ġr utabag
ĠW are
im ents
ĠI ced
Ġcon d
op ez
ink s
Ġshred s
Ġhe al
ĠChe f
ĠTh yme
ĠWith out
ĠDo es
Ġcomp le
ĠMarshmallow s
Ġbul b
ĠWater melon
Ġdump ling
ĠSnow ball
Ġvari ous
ĠMa id
ĠFettuc ine
Ġfriend ship
Ġdra ft
Sw iss
ĠVien na
Ġcrystall ized
Ġencl ose
ĠAut umn
ĠGriff in
B est
C he
D ish
H ot
M e
R o
S oup
T om
d ivided
e ter
h old
l ast
r anging
s al
t Cook
w ash
Ġb ass
ou da
Ġf ajita
ĠC am
or a
it er
he asant
us ing
Ġh ush
Ġcan ister
Ġn ect
ĠW ell
ĠL ace
Ġrais ed
ĠV erm
Ġpre baked
ĠTh umb
ĠCheese cakes
Ġmash ing
arin es
iv ely
ivid ual
oy al
ĠMarin ara
ĠWill i
ĠMar ie
ĠNe ufchatel
Ġzest y
ĠPark er
strawber ries
skin less
Ġwhe el
ĠFool proof
ĠPlan ters
arshmallow s
ĠWyl er
C ol
D ough
M y
S ave
V elveeta
f ire
r ice
t T
er os
Ġp ass
Ġm en
at elli
ĠC ant
Ġd ots
Ġl ife
ĠB or
ĠP ock
is ch
ĠM ystery
ra ft
ad es
ch es
ts ugar
der s
Ġ4 3
Ġth ough
oup on
Ġr ubb
ĠW eek
qu arter
ĠSp routs
Ġy et
Ġy ear
ĠL opez
ĠWh iskey
Ġcar bo
em i
ĠBro th
Ġcro ok
ĠCon c
bl ue
wh ipped
Ġpr al
ĠCro utons
Ġsqueez ing
ĠEn ough
add y
ĠAn t
Ġ17 0
atur ated
over night
Ġsnack s
In tosh
Ġbutton s
ĠPort uguese
tC over
ĠFast en
Ġpops icle
ĠEsp resso
Mo ist
ĠChest nuts
ĠKrisp ie
Ġfrit ters
H am
O atmeal
P ean
a pped
z etti
Ġb ibb
Ġm il
Ġf ield
Ġin verted
ĠC rinkles
am arina
ĠS an
ot o
ir es
et hod
Ġat tract
Ġgr ater
ĠR em
ur key
Ġre lease
qu arts
ĠH en
Ġcon e
ĠG umd
ag o
na pp
ant ime
ec ially
ĠK ar
oil ed
og i
Ġpat ted
Ġmarin ating
oy a
Ġac ting
boil ing
bo ard
Ġlook ing
ĠHe art
Ġplac es
Ġmang os
Ġcit ric
ĠHeal th
Ġcheck ing
Mix ture
ĠJud y
iod ized
bb les
Ġfe els
ĠGall iano
Ġmult i
Ġpurch ased
aur ant
Ġrecomm ended
ĠStromb oli
Ġpepperon cini
E ner
W e
b est
h oney
s ylv
t ata
w ard
on stituted
Ġa u
Ġd ef
ĠP i
ĠP en
ĠP ost
ĠP oupon
ac ular
ĠT er
ill o
Ġh ors
Ġst o
et ic
Ġsh ow
th ird
nd a
ĠW rapped
Ġsp ear
Ġsour ce
Ġheat proof
Ġsm ell
ĠPe ars
ĠN ancy
iv a
ount y
ĠFor est
ĠFl ounder
ĠZ iti
ĠCon fectioners
Ġherb al
uns ifted
ect acular
Ġsolid s
ĠSand ies
ĠCav iar
Ġperiod ically
cub ed
ĠLin da
ĠKu gel
Ġpic nic
ĠFle isch
Ġnect arines
Ener gy
sylv ania
2 50
5 5
a id
b ottom
g ra
i ri
t with
Ġ `
Ġ arm
Ġ ess
Ġc y
Ġs we
Ġt emp
Ġb ias
re ck
al i
ro wn
Ġd ressed
ĠS us
ĠS ally
ĠS ort
Ġg ly
ĠB ible
ĠB ird
ĠA gain
Ġth inned
ie ved
ĠD ec
ĠD ian
ĠW est
st ems
Ġy ears
ĠG ouda
Ġcut let
ul ous
ĠSal ami
Ġtender ized
ĠCr isscross
Ġen amel
ray fish
Ġstiff en
ang ria
ation al
Ġcas ings
Ġreplace ment
ĠCarb on
Ġmot ion
Ġbuck et
Ġconven tional
ĠComplet ely
Gl azed
Ġrubb ing
ĠConc ord
napp s
Ġgly cer
F l
s epar
t rem
w ine
x tail
Ġ )
Ġ ut
Ġo re
Ġt arts
Ġt reat
Ġt ropical
Ġt anger
Ġp are
Ġm alt
on ath
Ġf ar
ĠT e
ĠT emperature
ĠT urt
ĠM ayer
ĠM acaroon
Ġv ar
Ġh ere
th at
Ġgr atin
Ġco bbler
ab ulous
Ġre ar
pple ment
ĠSp ectacular
Ġse em
Ġse lec
Ġbread ed
weet ened
ĠE ither
ĠCut lets
ĠPre cook
ĠCorn flake
roxim ate
Ġdri bble
ĠSugar ed
ĠPat ch
ines ap
ĠRe qu
pro cess
ĠSeaf oam
ĠFir mly
Ġscr ub
ĠQues ad
ĠFant astic
ĠLeftover s
Ġsat iny
Pean ut
ĠGumd rop
Ġsto pping
ĠFleisch mann
b ably
c eed
f ts
h erb
l s
l oaf
m arshmallows
p int
s alted
t ie
Ġp ile
re f
en ing
ĠC oll
ĠC atsup
it ter
ĠS angria
is ette
gg es
Ġh er
Ġh ang
Ġst ars
Ġst eps
uc c
om argarine
ĠR at
Ġre n
Ġse ar
ĠSt ay
ĠCook er
ĠWh ipping
Ġro se
Ġcl usters
Ġk ahlua
li ed
ĠO h
tt he
Ġole omargarine
ĠJ umb
Ġhe arty
Ġdirec t
Ġconfection er
Ġsepar ating
Ġpin a
Ġel imin
ĠCrust y
Ġ36 0
Ġway s
ĠNor wegian
ĠBon eless
Ġcre pe
ingersn ap
ĠPenn sylvania
ign on
Ġstay s
ĠGo es
ĠPorcup ines
Ġbra unschweiger
Ġjoin t
ĠFud gy
nam ents
sm ooth
rat en
Op tional
ital ini
ĠTurt les
C ar
D ay
L o
f ound
s ch
t until
u erb
es a
Ġp ort
il ian
Ġf o
Ġw reath
ic ama
pp e
Ġ3 20
Ġd oves
Ġe ver
Ġegg be
ĠT emp
ĠM as
til age
to asted
ĠD an
ĠD ifferent
ĠD ixie
ĠW reath
ĠSt rip
ĠH azel
me asure
Ġcar ne
ĠSer rano
Ġmeat less
Ġapp et
Ġapp rox
ec ake
ĠCream s
ĠK ol
und le
ang ed
reser ved
Ġpinto s
ĠRe member
Ġtri p
ĠToast ies
Ġrese al
St ep
Ġdust ing
Ġfrankfur ter
Ġperson al
Ġcre ole
ĠCa vender
tP ut
Ġbrick le
bb ie
ĠCarb o
ĠSouthw est
Ġsizz ling
ĠEsp ecially
powder ed
ĠSuc cess
Ġincorpor ated
ĠCast le
ĠWilli ams
Ġcrook neck
Ġattract ive
ucc ino
uerb raten
A n
F resh
N oodle
c ool
c arrots
f itting
h a
k ed
l b
m ar
n ie
s ift
t ub
Ġb uff
Ġb undles
ĠP a
ĠT uck
Ġh ol
ch anges
ĠAdd itional
Ġ4 2
ir th
ĠD ecor
ĠD addy
ĠW ar
ĠF e
ĠF ire
inn y
ĠH olly
Ġcar tilage
ĠIn g
Ġcl ings
Ġcl over
co c
ĠV an
ĠSa uerbraten
Ġcom pany
ĠPot luck
ang o
bl end
app uccino
vil le
ĠSepar ately
Ġret ain
ĠBur rito
ĠMar zetti
ĠCrunch ies
ĠCre m
Ġcurd le
Ġpull ed
ielb asi
ĠOli ves
Ġlin er
Ġcav ities
imm ers
tC ool
ĠSch ool
Ġlift ing
ĠBarb ara
Ġpres weetened
Ġbis quick
Ġswe eter
ĠDian e
C ut
F ruit
F illed
a ves
l ong
s l
Ġc atch
in om
Ġs immers
Ġt il
il i
il es
on uts
Ġf arm
ic ilian
Ġto aster
un g
ĠM id
ĠM ild
ell er
Ġsh aping
Ġwh o
ĠCh ick
col ates
Ġsp acing
ĠF abulous
Ġadd s
ĠL ucky
Ġcoc onuts
ĠO ur
ĠK orean
Ġtender ize
ump t
ĠSh ip
Ġpast rami
pe aches
Ġsc raps
og s
ful ness
Ġbut cher
Ġsaute ing
Ġrec onstituted
ĠOn ly
ran ean
ĠApp roximately
ai qu
Ġpers ons
Ġty pes
ĠSim ply
tP lace
Ġappear ance
Ġsmok ing
fir st
ĠRoma ine
On ion
Ġtuck ing
Ġprev ious
ffe ecake
Ġaccom pan
ĠCle ar
Ġrain bow
ĠSin ful
iter ranean
oyal ty
ĠBor ax
onath an
ref riger
ĠRat at
Ġeggbe ater
ĠCarbo hydrate
irth day
inom oto
4 25
B anana
C o
C amp
P ut
T ime
s ts
s eed
s ame
Ġt re
Ġt emper
Ġb undle
Ġd italini
un greased
ĠM ich
Ġv ert
us illi
Ġcho y
Ġn ose
ĠR ise
ĠR av
ĠR anger
ĠD av
ĠW agon
st ead
ĠF ont
Ġ8 5
ĠH ow
ood y
ĠCo d
Ġk abobs
Ġex pected
ĠJ im
ĠK osher
Ġcro quettes
ĠAl ways
Ġgarnish ing
Ġ14 0
Ġpar fait
ĠCont in
ĠDor ito
Ġfour th
app iness
ug ula
ĠCom fort
ĠArtich okes
ĠMed iterranean
Ġdamp en
ĠMc Intosh
Ġ23 6
ĠSuper Moist
Ġsuit able
ĠInd ividual
ĠMary land
met al
ĠLog s
ĠPenn y
Ġdr ummettes
ĠHom estyle
Ġsim ple
Ġdab s
Ġdisapp ear
fir m
Ġaj inomoto
Ġfur ther
Ġess ence
Ġcy cle
ĠRatat ouille
2 7
C ake
P ro
b and
p ork
s in
t F
t add
Ġ upper
Ġs y
Ġs ake
Ġs ch
an na
Ġp ig
or ice
Ġd ull
ĠS icilian
Ġe ase
Ġg ift
ĠT rout
us ually
Ġh are
Ġbe aut
ad os
ir ley
ĠSt eep
if y
ĠL y
ĠL and
ĠL unch
ĠL oin
ĠCo ffeecake
Ġcl ause
Ġsl ide
oll o
Ġus es
Ġsimmer ed
ĠRef ill
ĠSl ide
mi um
Ġpo pping
ĠFl an
Ġkn ow
ett a
Ġsurf aces
Ġelbow s
ĠCl ams
ĠPro verbs
tm ix
Ġgi ving
ĠTw enty
ĠMar aschino
Ġwra pping
Ġwra ps
be ans
Ġsw ordfish
ĠLi qu
ĠFlavor ed
Ġdep ression
ĠPar fait
Ġsuper fine
tR emove
Pepper idge
ĠPur itan
Gar lic
ĠCarbon ara
ĠCrem ora
ĠFont ina
Ġbeaut if
. *
8 5
M on
a wn
b les
f ill
i ole
j oin
Ġ ide
Ġs ince
at ic
il ee
al so
Ġf iber
ĠC ilantro
as to
Ġa ge
Ġd isc
Ġd uty
Ġd andelion
Ġg ourmet
ĠM ove
ch unk
Ġcan es
Ġgr am
ĠD ab
ans as
Ġr uns
igh ter
ĠSp arkling
ĠG or
Ġmay be
ĠSal ted
Ġ12 5
Ġsof ter
ĠBl ossom
ĠPe ter
Ġyellow s
ĠSh irley
Ġdill s
ĠSoup er
Ġsepar ates
Ġbr unch
Ġcann ot
ĠSc ott
ang el
Ġme antime
pot e
wh en
ĠChil ies
Ġ18 0
ĠSn ap
od us
cr ack
af e
ĠRom an
Ġfettuc cini
Ġdrink ing
ond ra
ĠCom pote
ĠBac ardi
ĠSch illing
ĠSch napps
Ġstraw s
Ġcod fish
Ġstor ing
Ġfriend s
ĠWil ted
Wh en
Ġdra fts
Ġpet als
Gr and
ĠBour sin
Ġcroiss ants
ĠSop a
Ġang le
Ġdef at
Ġreseal able
4 50
A nd
F ail
I ts
R e
b acon
f our
g ing
n i
v irgin
in tz
er al
Ġt ang
Ġm id
Ġm ellow
Ġm ann
Ġm asa
Ġw eather
ing le
Ġin clude
ĠS irloin
ĠP osition
is o
ĠT B
Ġh un
Ġj icama
th en
ast a
Ġco bs
ĠW inesap
ip asto
Ġtom at
ab les
Ġbo k
ĠF eeds
if ts
Ġbl ot
ĠH ens
Ġdish wash
ub ilee
ĠJ ubilee
Ġsweet ness
ĠV iva
ĠMel on
ced ing
ĠY ank
ens ive
Ġdirec tion
Ġsc ones
Ġri d
vapor ated
ĠTurn overs
az ing
ĠBre w
ĠDiv ine
ness ee
ĠRa ise
ĠFarm s
Ġwor th
Ġrot ate
Ġ36 5
ĠFood s
ĠFrit tata
Ġdecor ated
ĠSpr itz
Ġspir als
Ġmicrow aved
Ġwil t
tC ombine
Ġsho e
ĠBuff et
ser ve
cohol ic
Ġpet ite
Mo zzarella
Ġmembran es
Ġob tain
Sa usage
ze ch
ĠPlant ation
Tom ato
ĠVerm icelli
umpt ious
Camp bell
ĠYank ee
3 3
E R
e qual
g ood
g ah
h omemade
i et
m ing
o e
p a
w or
Ġo xtail
Ġt im
Ġp ilaf
Ġp osition
Ġm a
at ini
Ġf aul
Ġw iener
ĠC ab
Ġd isp
Ġg ifts
ĠB urn
ĠB ug
ĠB ologna
ĠP aste
ĠP ul
ĠP urple
ge burger
ill os
ĠM ain
Ġv is
Ġfor get
Ġj oy
ĠR is
Ġwh irl
Ġoil s
ĠD ie
redien ts
im al
id ed
ĠL akes
ĠH erm
Ġmel ons
sh ortening
ag ie
Ġro pes
ĠO cean
Ġsqu irt
Ġpre ceding
Ġen han
isc ott
ift een
Ġ7 2
Ġspoon ed
ĠCorn starch
Ġacc um
Ġdri zz
Ġdi abetic
Ġgarnish es
Ġsur round
ering ues
ĠPeach y
Ġcap ful
ĠLea ves
Ġrot el
Ġtri ple
Ġscoop ed
atur es
ĠHerb s
Ġdecor ator
ĠMc Butter
ĠRot ini
Sp inach
ĠWon der
Ġcoll ards
Ġplant ains
arro t
Ġhouse hold
Ġwid th
Ġimpro ves
ĠBlan ket
ouff er
Ġpray er
Ġdefat ted
3 6
6 4
J iffy
S P
c il
i ously
l us
o uts
p ine
t d
w ork
w ashed
Ġc alls
Ġc rayfish
in utes
Ġs its
Ġb order
Ġm ove
il ity
ic orice
ĠC rimp
it ake
Ġd utch
ĠS elf
ĠS ara
Ġl oyalty
ĠB et
ĠB ab
ĠP izz
ĠM unch
ĠM olly
Ġh it
ot tle
Ġst ops
Ġst reusel
om ino
Ġsh uck
ĠD onna
ab ama
ĠSt ouffer
ĠCook book
ĠL ong
ĠH as
ĠWh oop
av ailable
ent ine
ĠK ir
ĠV ic
Ġset t
Ġset tle
ens e
ĠSl ip
Ġde velop
ud el
ud ges
Ġar ugula
Ġpro bably
ĠJack s
Ġsubstit uting
ĠSk ew
Ġwork able
ĠJo an
ĠDill ed
Th ese
ĠSu pplement
Ġcit rus
Ġhow ever
igg er
Ġrequ ire
ĠAnn ie
Ġwatch ing
Bl ue
ĠJu icy
ais y
ĠTen nessee
ĠUnder wood
ĠAss emble
Ġgher kins
Ġcomple ted
ĠAnt ipasto
ĠQuesad illas
Ġfo ams
ĠRav ioli
Mon terey
Ġmann er
ĠTB SP
L e
M ushroom
b oth
c and
f illed
w reck
Ġs ieved
Ġt ree
Ġt raditional
ar ified
re au
Ġw eak
ĠC appuccino
Ġa ch
ĠS ide
Ġg m
Ġl icorice
Ġpe g
ĠT raditional
ĠM ah
Ġun less
Ġun used
ad illo
Ġwater y
Ġj al
ĠR ipe
ĠD is
qu ant
ĠI i
Ġy ield
Ġcup fuls
Ġk aro
Ġsl ash
avor ites
Ġit em
Ġout do
Ġfilling s
ĠN eeds
Ġcom ing
Ġdo ing
pe an
Ġcran apple
ĠRo b
ĠPepper ed
ĠAl abama
Ġconcentr ates
Ġros amarina
ann ie
ĠSm oke
Ġpul se
orb et
Ġpull ing
ĠPer k
Ġliver wurst
Ġris en
Ġdoll ops
stir ring
Ġjigg ers
yn es
pie ce
wd ust
eros ene
ĠPock ets
Ġelimin ate
ĠShip wreck
C up
M ores
c t
d epends
f ruit
g onz
h and
i itake
l ukewarm
m ashed
o ise
o ff
q t
r ated
t at
t urn
t Serve
w ie
z os
Ġb igger
es ired
Ġp le
Ġp ra
re en
and ar
Ġf an
Ġf eta
Ġf rag
Ġf arina
Ġ3 3
ĠS ur
ĠB u
ĠP enne
un ge
ol ks
ĠA corn
Ġcho colates
ts t
om on
Ġsh ut
Ġr ange
ĠL uncheon
we ed
ĠCo co
Ġmeat ball
Ġk ielbasi
Ġk erosene
ep tion
ĠJ onathan
Ġsm ile
ĠPre acher
tom ato
ĠTh ing
ĠN eed
Ġpeel ings
ĠGra p
Ġyour self
ĠPress ure
ĠSe as
ĠFl aky
Ġhigh er
Ġpin wheels
ĠMex i
ĠCon s
Ġallow ed
tm inutes
ĠGl ory
ĠLay ers
ĠRomano ff
ĠHe ap
may be
obs ters
ĠAn ise
Ġfinish ing
ĠEx tract
mp athy
ĠPol ynes
ĠMexic ali
Ġvariet ies
ĠHal ibut
Ġbitter sweet
ĠEar ly
Ġstor es
ĠPim iento
ais er
min ced
ĠQ ue
almon ds
gonz ola
ĠPolynes ian
* *
A head
E ver
J udges
R eady
c elery
d one
g u
g rease
m ers
s emi
t hey
t Ch
er it
Ġt an
Ġb arbecued
Ġb agg
ed ged
il lets
Ġch urch
le ge
ĠC oney
Ġd raw
Ġd eeds
Ġl obsters
ĠB er
ĠP al
ĠP ollo
ĠM allow
Ġh u
Ġh is
Ġmin eral
ad ina
Ġmilk s
om it
om atic
Ġsh ows
Ġth ings
ĠD aisy
ĠW ondra
Ġsp eck
ĠWh o
av ian
ĠE m
Ġrefriger ation
ĠV ick
ĠV ari
ĠChill ed
Ġcolor ful
Ġcro ut
Ġgran ular
fl at
ĠFro g
ĠDel ite
ĠBrand ied
Ġpat ting
Ġhash brown
ran berry
ĠAl most
ĠGood ies
Ġgi ant
Ġlingu ica
Ġlump ing
Ġass em
ĠRub y
St rawber
Ġhull s
Bro wn
ĠWil der
ĠChest nut
tSp rinkle
He art
gra ham
process ed
ĠIng redients
aiqu iri
Ġsy mpathy
ĠGor gonzola
Ġtomat illos
Ġvis ible
andar ins
8 0
B read
C arrot
G ran
K ay
M iracle
S o
S pan
W ill
h i
j elly
o ven
t el
t Makes
Ġs ort
an e
Ġp heasant
al oupe
ro z
ak a
Ġ3 9
ĠS atur
he avy
ĠB atch
ĠP one
ac y
ĠT reas
ill er
ĠM ad
Ġun melted
ĠA dobo
uc he
Ġn est
Ġsh ots
ĠR ig
ĠR hod
ĠD one
ĠW at
Ġlar g
qu ite
ĠSt ella
ĠSt retch
ĠI ts
ĠH ol
ĠG oya
ĠCo int
av el
udd ed
ĠE ll
ĠK athy
ĠSa wdust
Ġnot e
ĠBr er
ĠRo bert
sa uce
ĠSqu irt
Ġany time
Ġprocess ing
ang les
Ġchi ve
ĠCl ay
cr unchy
ĠUs ually
ĠGrand pa
ĠTw ists
ĠLea f
ĠOver lap
ĠNew man
ik i
Ġ28 0
ĠBra id
ĠPier ogi
Ġho agie
Ġquant ities
Al so
Ġdec rease
Ġhum or
ĠBudd ig
rif ice
Ġpu ppies
Ġrutabag a
trem ely
ĠRequ est
ĠCastle berry
Ġdishwash ing
Ġfaul ts
erit age
ĠCoint reau
B is
M edium
b owl
c ass
c arp
d el
d issolved
j ect
o euvres
p lace
t est
t Let
t urkey
v a
in ted
in ation
Ġ1 75
Ġt int
Ġm ir
Ġm andarins
Ġf estive
or i
Ġ2 30
it am
Ġd ucks
ĠS ock
Ġg ingersnap
oo per
ĠB ow
ĠB irthday
ac he
dd ess
ĠT im
ĠT ilt
ĠM aw
ĠM ango
Ġv ents
us ter
Ġh uckle
ad s
Ġfor th
Ġn ap
Ġsh iitake
Ġover ripe
ĠD ou
ĠW all
ĠW iener
Ġwell s
ĠL ooks
ĠH I
ars e
op ened
ĠG arb
Ġcl arified
Ġsl ip
Ġex tremely
ĠJ un
Ġsm ash
Ġsm iles
ĠTh ick
Ġbag u
Ġfat back
Ġevapor ate
ĠGra pes
uck er
ph abet
Ġdon uts
ĠDe bbie
Ġburn t
ĠMar ia
Ġtin ted
Ġentire ly
Ġbas kets
ĠFran kfur
Ġcav iar
ĠCap tain
ĠBo ats
ĠGo ddess
ho pper
ĠEsc ort
Ġwhe els
Ġdelic ate
Ġread s
Ġrip en
Ġatt ached
Del icious
ĠPen uche
ĠSus an
Ġtanger ine
ĠContin ental
iscott i
ĠVic tor
wie back
Ġhu ge
Bis quick
carp one
Ġhuckle berries
" (
D ip
G reen
K raft
M ore
M acaroni
P illsbury
c ture
j ack
n eath
t butter
Ġ iodized
Ġc ajun
in clude
Ġs ounds
Ġt ep
Ġm om
Ġm alted
sp ir
pp in
Ġin ner
ĠC our
ĠC ounty
ĠS ee
ĠS zech
Ġg oo
un cture
ĠT oo
ĠM oon
ĠM ethod
ol ph
ot al
ot to
Ġpepper ed
to f
to pping
Ġn orm
Ġpowder s
ĠD ep
ĠD iced
ĠW inning
ĠW raps
mon d
orn s
Ġsp ot
Ġbl u
ach el
Ġcrumb ling
Ġheat s
Ġser rated
ĠCo ated
Ġcl ay
Ġal fredo
ĠK r
Ġgraham s
ĠTh read
ĠN ine
oth y
Ġsc ra
Ġturn er
ivid ing
bl ended
ĠDream s
ĠPat ty
ĠCont adina
burg ers
Ġunder neath
od y
Ġind ic
ĠChris t
ĠMilk shake
Ch ris
Ġinstruc ted
Ġvari ation
ĠRi ver
Ġsho epeg
ĠStr udel
ĠPic c
ĠHel per
Cho pped
Ġ29 0
reak fast
tSp read
Ġbu il
ĠWel ch
hal ves
ĠAlas ka
Ġdred ging
Ġpen cil
Ġheal th
ĠCant aloupe
Ġthough ts
ĠKar en
Ġclover leaf
Ġvert ically
Ġma garine
ĠBug les
lus ki
ĠWhoop ie
ĠSkew er
ĠQue en
Ġhashbrown s
ĠWilder ness
H eal
J er
L ike
M c
c ayenne
d ouble
f ull
g ie
g ly
g olden
h ere
i ans
l ava
n oc
v ice
Ġ ST
in os
Ġs el
Ġt apped
Ġp ossum
Ġm ex
Ġ3 4
ĠS ole
ĠS andy
ĠS ometimes
he im
ĠB art
ĠB order
ĠB ottle
ĠP igs
ĠT ass
Ġche ap
ĠM ist
us k
Ġh im
ĠA na
ĠA tt
Ġor ien
Ġsa ys
Ġn og
ve y
th irds
ien ne
ĠD omino
Ġr ame
ĠF eather
heat h
if ic
ain ing
ĠL eg
ĠL eek
ĠL yn
ĠH on
ĠG er
ĠG irl
Ġcar cass
Ġcl umps
Ġham mer
Ġgra y
Ġref reshing
ĠCut out
est ic
Ġdressing s
ĠChe er
ĠBe ar
ĠBoil ing
ĠTurn ip
ors ch
ĠRo ka
Ġtw elve
ĠFl ute
ĠSo ap
ĠUn fold
Ġsur p
Ġop ened
Ġfil m
Ġfil ing
ĠMar vel
ĠAn isette
ĠSeed s
Ġmon terey
ĠAm azing
Ġsw ir
ĠScr umptious
ik k
imm ies
Ġmain tain
ĠPar is
ĠCarol yn
Ġprod uce
fin ely
Ġinsert ing
ĠDr um
ĠPops icles
Ġbis que
Ġmatch stick
onz oni
Ġnor thern
Ġha ving
Ġsquirrel s
ĠGrass hopper
Ro asted
ĠThumb print
Col by
Ġtrip led
Ġsch ool
ĠKir sch
cand ied
ĠGrap efruit
Span ish
ĠWat kins
Ġnorm al
Ġscra per
Chris tmas
Jer emiah
ĠAna heim
Ġorien tal
! \
M eat
P h
R ed
S al
T hey
W esson
b ul
d iscard
t In
Ġs ound
Ġt umb
Ġt ears
es quite
Ġp h
Ġm ass
Ġm oon
at wurst
re y
Ġto es
pp a
el t
el ves
Ġsu pper
Ġsu gah
Ġd id
Ġd onut
ĠS na
Ġg ather
ĠB iscotti
ĠP ine
ĠT ree
ĠT ahini
ĠM ile
ad as
Ġsh rink
ĠR ight
ĠW he
Ġy ields
ĠH ank
ĠH ickory
ĠH urry
Ġoven s
ĠG ive
ub stitute
Ġk rispies
uff in
ĠO ccasion
ec ks
co arse
ĠWor ks
ĠK iev
Ġjell os
ĠSa usages
ĠBrown ed
ĠBl oody
ĠMel ted
ĠN ell
ĠY umm
ton s
Ġacc ent
ĠFill s
ĠCan ola
bl ing
ĠToss ed
Ġund issolved
ĠAl pine
Ġper ch
Ġevery one
ĠMin ced
ĠCro ss
mel t
iche ver
Ġburn s
Ġhom estyle
ĠEx odus
Ġsw ell
ĠSec ond
ĠCub an
ĠFran c
ĠPin wheel
ĠDoll ies
che ck
Ġimp orted
Ġpush ing
23 4
23 6
Ġinc re
allow een
Ġsizz les
ĠCav atini
ĠPass ion
Ġplump ed
ĠBonn ie
Ġve in
Ġve geburger
Ġjoin ts
Ġmot or
Ġtost ada
Ġhum an
ĠVer de
Ġprev iously
Ġgoose berries
ĠMargar ita
Ġsac rifice
ĠTruff les
Ex cellent
ĠSol omon
ls berg
Ġren der
ĠMas carpone
Ġtang y
Ġhun gry
Ġcrout on
Gran ny
ĠRig atoni
ĠRhod es
noc chi
A r
A ng
D ried
G H
O ri
Z ucchini
f reeze
g rap
l aze
r anged
v els
Ġc yl
er ts
er gy
Ġm ac
Ġf ore
Ġf ajitas
ĠC umin
Ġd iff
Ġd ividing
ĠS age
ĠS izz
ĠB it
ĠP ipe
Ġfl am
ĠT ip
Ġv ersion
Ġun processed
ĠA f
ĠA w
ot a
ri k
Ġj immies
Ġbak er
Ġgr and
ĠR h
ĠR onzoni
ur b
st art
ĠF air
ĠSp ir
Ġfro th
ĠI I
ĠL im
Ġbl ades
ĠH us
ĠWh at
Ġcrack lins
Ġro ots
Ġred uc
Ġapp ly
Ġchil is
Ġcrush ing
ĠK ay
). \
Ġan imal
ĠV odka
Ġsqu id
ess erts
ĠMelt away
ĠY u
ĠU gly
ĠJell ied
ĠButter y
ĠCho c
Ġpo inted
ĠAr roz
Ġaltern ative
Ġper k
Ġpar ing
lit er
ĠAll spice
ĠDi amond
ĠApp ly
ĠDor othy
Ġunder side
Ġic y
ĠReser ving
Ġwor ds
ĠCol lege
Ġhold ing
Ġbit es
Ġass emble
ĠNew burg
ĠMc Kay
ĠPo ached
Ġthumb print
ĠEd ible
pie ces
Wh ite
con densed
ĠColor ado
Ġflo ating
ĠMark et
Ġore o
Ġrear ranging
ĠJumb les
sl ice
intz es
Ġoxtail s
ĠCab in
ĠHerm its
Ġshuck ed
ĠSatur day
Ġlarg est
ĠVictor ia
Ġtep id
ĠBart lett
C over
H ershey
P armesan
S c
S n
T op
W al
